#version: 0.2 - Trained by `huggingface/tokenizers`
a i
i n
Ġ p
Ä Ĺ
a s
Å ³
Ġ k
Ġ s
t i
a u
Å ¡
o s
i e
a l
a r
Ġ i
Å ¾
Ġ t
Ġ n
i s
a n
u s
Ä ħ
Ġ v
Ġ d
Ġ m
a m
i m
e n
a t
Ä ¯
r i
Ġi r
â Ģ
Ġ b
Ġ g
e i
Å «
e r
u o
l i
k i
t o
ÄĹ s
r a
Ä į
e s
Äį i
Ġ j
o n
a v
e t
i j
a d
Ġ Ä¯
Ġ r
Ġs u
Ġ l
j e
Ġp r
o m
Ġ âĢ
a p
au s
u r
in i
i r
Ġ Å¡
t u
Ġi Å¡
a k
o r
e l
Å¾ i
Ġn e
ai s
ie n
o k
Ġp as
t e
ÄĹ j
Ä Ļ
ti k
Ġ at
Ġ Å¾
e k
t in
i l
al i
t Å³
in k
y b
Ġp a
au g
Ġ ap
t a
o d
u m
o je
ai p
i Å³
Å¡ k
t as
i d
âĢ ľ
ai k
t r
im o
c ij
Ġk ad
ĠâĢ ĵ
o g
y v
Ġ u
u ri
ei k
e m
o j
Ġ (
s i
Ġ y
ĠâĢ ŀ
an t
Ġv is
Ġ 1
y s
ar b
Ġ L
n i
a b
u i
o v
tu v
y m
o l
u v
Ġy ra
Ġ tik
Ġs av
ÄĹ l
g i
e d
a Å¾
ti s
Ġu Å¾
u os
y k
u k
Ġ K
Å« r
Ġp at
an d
Ġ V
e li
i k
s t
Ġ S
Ġ f
Ġm et
y ti
Ġb Å«
to j
ie k
Â Ń
Ġ 2
Ġ P
Ġ A
in g
au d
Ġn uo
aus i
Ġ ar
au k
Ġg al
Ġs k
ie tuv
im as
us i
Ġpr ie
Å ł
u l
t Äħ
Ġk uri
uv o
Ġ o
Ġp ar
en d
Ġp er
. .
Ġ in
Ġs p
u n
Ġ M
Å« s
m en
Ġp o
ÄĹ m
e is
am e
Ġk ur
au j
ini Å³
m on
Äįi Å³
am s
d Å¾i
uo j
e g
Ġb uvo
Ġk i
c i
Ġk ar
Ġt ai
t os
ij os
o ki
ĠÅ¡ i
Ġm ok
Ġg r
e ri
an k
Ġv ien
Ġ J
a g
in ti
Ġ B
ÄĹj o
Ġ ti
ie s
am a
Ġp ri
Ġ R
ra Å¡
Ġ -
Ġsav o
Ġk aip
c h
t ai
t at
Ġd aug
Ġv al
in ÄĹs
Ġk ai
Ġat s
Ġ T
Äįi au
am as
a cij
ĠL ietuv
Ġ D
Ġt r
Ġpa g
Ġp l
0 0
in ÄĹ
ei ki
Ġg yv
p r
Ġs v
Ġn es
im Äħ
y je
Ġg ali
en g
ÄĻ s
i au
t er
in is
om is
Ġpr o
ini o
Ġj au
am i
ai d
t ar
y g
y n
m o
Ġt ur
Ġd al
t ÄĹ
ra d
Ġk l
Ġ E
Ġap ie
uos e
Ġd arb
o ri
in ink
k l
Ġd ar
i Å¡k
y r
Ġl aik
i o
Ġb et
i z
or m
Ġk on
j Å³
al b
a Å¡
s l
Ġp av
Ġp ir
li k
av o
v ai
Ġp ad
Ġv ie
Ġt ar
y d
ÄĹ ti
Ġ G
Ġl ab
ki r
Ġ N
t us
Ġk om
Ġgyv en
an Äįi
an g
Å«s Å³
to ri
Ġb ei
e p
ie m
Ġn et
Ġd id
Ġk r
in o
uo ti
v ar
Ġt aip
Ġt o
Ġgal im
yb ÄĹs
Ġ ak
Ġ c
e v
0 1
j os
a Äįiau
li Å³
en t
Å« n
ini ai
i ai
u p
Ġv er
Ġne p
in a
os i
u d
Ġs us
o p
Ġr e
u b
Ġ I
Å ½
Ġpas i
as i
Ġv ar
u t
ij a
Ġ or
ei g
ÄĹ d
k ai
ki te
Ġ 3
ĠLietuv os
ÄĹ je
os e
e Å¡
in d
ym o
Ġm an
Ġd ÄĹl
Ġv aik
li o
Ġk eli
v al
ai n
Ġn auj
es n
Ġd ien
) .
eiki a
Ġn aud
Ġg er
en k
Ġp ak
ti m
Ġlab ai
yk l
.. .
ĠÅ¾ mon
s p
Ġd r
âĢľ ,
Ġj Å³
Ġpir m
Ġk as
Ġi ki
Ġr eik
Ġt uri
Ġb end
im e
Ġ Åł
oj o
r as
uo men
Ġ a
Ġv eik
Ġ li
Ġn or
ĠÅ¡ v
Ġm ed
o ti
âĢ ŀ
Ġp ra
Ġn ei
v er
r o
iem s
im Å³
Ġ as
Ġt eis
ÄĹ g
v ir
am os
Ġ arb
Ġmet Å³
Ġp ap
ti es
Å¡ ki
un g
ĠbÅ« ti
Ġ au
e j
cij os
Ġsu k
k as
Äįi a
Ġ es
ei d
Ġap s
t ÄĹs
âĢ ĵ
Ġn us
b i
f orm
Ġ e
Ġs Äħ
od ÄĹl
Ġpr is
) ,
Ġv ad
u g
Ġ1 9
Ġarb a
au n
Äįi o
Ġmet u
Ġk iek
Ġt oki
Ġj o
ĠÅ¡ al
Å« k
Ġj is
y toj
v i
Ġd ir
Ġ auk
g an
Ġs i
Ġpas ir
Ġne b
T ai
Ġ "
ÄĹ n
uo d
j a
Ġk alb
om a
yb os
Ġs kir
Ġg am
er g
i ausi
Ġtar p
av imo
l g
z d
Ġsu d
Ġv yk
t ais
t yv
Å«r os
um o
Ġ C
ai g
au l
k o
al v
Äįi us
es i
ÄĹm is
Ġb us
Ġ2 01
Ġ 4
an ti
ol og
Ġ 5
Ġp al
Ġti ek
im ai
ad a
Ġ el
tin g
Ġm aÅ¾
ÄĹ tÅ³
Ġt e
l o
s ti
om s
ĠV il
p i
Ġm o
in Ä¯
Äįi ai
Ġtik r
ĠiÅ¡ s
ini us
Ġ ek
Ġt aÄįiau
Ġprie Å¡
y l
Ġn ÄĹ
el is
u li
a z
t Ä¯
Ġ ant
on o
m e
acij os
an tis
Ġdaug iau
Ġau to
Ġb al
Ġn am
im us
u z
Ġm Å«sÅ³
om e
Ġgalim a
ie j
Ġkur ie
k a
Ġr ink
au ti
ci al
uoj a
te m
Ġne g
ĠÄ¯ si
m og
Ġt ink
Ġpr og
Ġj os
v ien
e z
Ġ an
Ġm ies
1 9
Ġp rad
Ä ®
Äħ j
ir Å¡
k r
Ġpa Å¾
âĢľ .
in ÄĻ
p a
t el
Ġpro c
Ġ ra
p l
v ie
Ġbend r
Ġp am
gan iz
Ġpas k
d om
Ġb e
Ġ h
Ġat v
Ġs en
um s
ĠÄ¯ vai
a Å¾i
Ġs t
Åł i
ĠÄ¯ r
en tr
m as
Ġ U
Ġs usi
li au
li ai
Ġsu t
Â ł
ar d
m et
i t
Ġas men
Ġk ok
Ġdal yv
Ġv id
ai Å¡k
oje k
ym as
i us
cij a
ÄĹ k
ai t
ĠÅ¾ mog
ai m
ki Å³
am b
y ri
Ġreik al
P r
kl aus
Ġauk Å¡
Ġd aÅ¾
Ġs ak
m ok
tr auk
ab ar
ĠÅ¾ em
. ,
Ġin ter
in imo
Å« d
osi os
Ġ 6
ul t
Ġj ie
Å« l
V is
e b
Ġ F
im u
Ġv ai
to v
tin ÄĹs
Ġp us
Ġval st
Ġor ganiz
Ġsv arb
Ġin form
is tem
an s
ĠnÄĹ ra
Ġm at
s ta
ĠVil ni
ĠE ur
ĠuÅ¾ s
r ind
uo toj
ĠbÅ« d
Ġm in
en s
ak ar
Å³ jÅ³
i c
Ġp an
ausi ai
te ri
n a
Ġap l
Ġi lg
Ġat si
Ġn ar
Ġpas l
Ġpo li
i g
Å¾i Å«r
Ġs istem
Ġkur is
Ġt ap
ĠbÅ« tÅ³
a c
Ġj og
Ġn iek
Ġt am
Ġk ol
ÄĹs i
Ġdir b
yb ÄĹ
Ġ H
Ġmed Å¾i
Ġc entr
Ġn er
Ġj ei
eli o
ĠÄ¯ st
Ġr Å«
Ġl ietuv
uo Å¡
Ġpa ti
Ġr y
Ġr eikia
Ġ al
Ġs ti
um Äħ
P as
Ġpr ojek
Ġnaud oj
Ġt uo
Ġn u
o li
I Å¡
k ur
Ġ Å½
Ġsp e
Ġvad ov
Ġmok ykl
Ġk Å«r
i a
Ġsp r
Ġi s
Ġg eri
in t
ki ai
ĠÄ¯ v
Ġs m
Ġ raÅ¡
Å¾ in
e to
ij oje
Ġt odÄĹl
uo l
Ġkl aus
r an
te b
Ġdarb o
Ġpag al
ÄĹm s
Ġm uz
Ġgr ei
Ġv and
Ġg im
k Äħ
Ġveik l
r od
acij a
ij Äħ
Ġm ÄĹn
Ġprog r
p er
ÄĹ v
an ÄįiÅ³
Ġ aÅ¡
Ġr ank
Ġ O
Ġp il
oj i
im a
iÅ¡k ai
ĠÅ¡ e
Ġk Äħ
Ġa ti
um as
ek s
Ġs tr
im ui
Ġ aug
ĠÄ¯vai ri
y ta
Ġpar d
yb ÄĻ
i b
Å¡k ai
ai l
ki o
d o
u je
ĠiÅ¡ l
Ġgr up
Ġ 8
Ġ Äįia
Ġmok sl
is t
tu m
Ġpas ak
Ġj i
Ġkiek vien
es ni
âĢ Ŀ
as ar
k os
Ġsu n
ĠÄ¯ g
ĠEur op
i li
Ġf orm
Ġs aug
ei dÅ¾i
n ai
ie Å¡
Ġpag rind
at ori
a j
on as
am Äħ
y t
n yg
b l
Ġk oki
ini u
Ġlaik o
T aÄįiau
Ġat l
ÄĹj a
Ġj uos
Ġg ar
Ġpasl aug
n o
Ġ2 00
Ġk al
Ġauto mo
Ġmet ais
Ġte ch
Ġsv eik
Ġpa b
ĠLietuv oje
Ġ 7
Ġp ui
at e
el b
l t
em s
tin a
Ġv yr
Ġnor s
Ġd abar
Ġs l
eig u
Ġra j
ok ie
ing as
m an
Ġvien as
Ġt au
val d
ÄĹj imo
am Å³
ei l
ĠÅ¾ aid
ĠÄ¯ mon
p aÅ¾
ij Å³
ing ai
Ġval d
al Å³
Ġdid Å¾i
Ġapl ink
tu d
ali Å³
ĠA n
to m
e f
t ak
Ġk el
li us
ad ien
Ġspr end
Ġpro f
ĠiÅ¡ v
s m
ĠÅ¾ in
Ġg ra
e Å¾
Ġkuri os
un k
Ġp or
Ġr eg
eis ti
Ġs tat
2 01
Ġj Ä¯
Ġpr ek
Ġi m
Ġ ad
Å¾i o
av i
Ġat lik
s n
Ġk ult
Ġpas aul
Ġats ak
at v
Ä Į
Ġprie mon
in es
Ġ1 0
u Å¾
Ġdr aug
Ġt el
au ki
J ei
p o
to r
ĠÅ¾mon iÅ³
ĠÅ¡ il
Ġsav i
Ġ am
av imas
Ġvie Å¡
ar t
am ai
ĠuÅ¾ d
ek tr
Ġ ri
ir d
Ġjau n
ik os
Ġt yr
tin is
ie ki
ym Äħ
Ġk nyg
Ġsp alv
on al
Ġf il
Ġl yg
Ġtikr ai
ant ys
Ġre z
Ġman o
ok s
Ġdien Äħ
aus iÅ³
om as
Ġpr as
Ġd uomen
âĢ ¦
ed a
T aip
Ġd v
Ġpl an
ing a
Ġk et
i u
ĠK aun
Ġm es
Ġt var
to je
n et
ri k
tin ÄĹ
te k
Ġpa Å¡
ĠmedÅ¾i ag
Ġkar tÄħ
Ġki tÅ³
j oje
ĠÄ¯ s
od uk
Ġti esi
u Å¡
ali z
Ġpr an
Ġne d
L ietuv
Ġ ab
in s
Ġk o
tik r
Ġis tori
ali ai
ra v
Ġn uos
in as
ien ÄĹ
Ġaps aug
Ġl eng
z dÅ¾i
Ġs tud
es ti
in e
Ġsud ar
Ġsu m
to g
r e
Ġk am
in imas
Ġsk ai
Ġli g
Ġk ov
Ġtiesi og
Ġs o
or to
Ġtik sl
Ġr ek
y tas
Ġkom and
I r
i Å¡
Ġu ni
Ġk aÅ¾
Ġnus tat
v a
ÄĹs e
Ġ 9
in ys
Ġm en
k ri
Ġmo ter
al o
Ġpad ar
Ġ ,
tik os
Ġpr oduk
ÄĹj as
in gi
A t
Ġpap ras
s o
Ġs ek
ov an
y p
auj a
Ġkai n
Ġd u
ÄĹj us
Ġg yd
Ġpasir ink
ĠEurop os
Ġver sl
Ġmet us
ev i
Å« ra
Ġk v
inink as
Ġpo p
Ġk il
vir tin
Ġpa Äįi
Ġj Å«sÅ³
Ġm ie
Ġt em
s ni
toj Å³
Ġb uv
Ġvien Äħ
Ġmies to
Ġkar tu
t yje
Ġ |
si te
ti jos
oj a
dÅ¾i o
Ġ1 5
t iniÅ³
Ġb l
pr as
v il
ĠM ar
eli Å³
at o
N or
ĠVilni aus
ie v
el ÄĹs
bl em
Ġsu g
Ġsavi vald
Ġautomo bi
Ġatv ej
Ġm od
Ġr eng
A r
Ġs al
ÄĹj Å³
ini ais
ÄĹ Å¾
Ġv akar
ir m
ra f
Ġn en
Ġkuri Å³
Ġl ais
cij Äħ
m ÄĹs
z i
Ġpar od
Ġ ank
Ġv ir
b u
um p
Ġvis i
Ġi d
Ġb r
Ġ ch
at os
acij Äħ
Ġf in
Ġ en
inÄĹ je
iej i
Ġkom p
s tr
A n
Ġpro blem
Ġv irÅ¡
ub lik
yb iÅ³
Ġb i
ĠÅ¾ od
inink Å³
Ġs ri
Ġn el
ĠA l
t au
en gi
ek tyv
Ġk at
Ġ lik
j Äħ
ir k
Ġn um
t yn
sti tu
Ġpris tat
Ā Ā
Ġt a
Ġm inis
a ti
Ġl auk
Ġd ÄĹm
u ni
l yg
t ra
uo k
ĠÅ¡e im
at Å«r
es Ä¯
Ġel ektr
cij Å³
ul tat
Ġtech n
Äħj Äħ
Ġ od
yb a
ĠÅ¾mon ÄĹs
Ġpas tat
Ġne m
y tÅ³
en tÅ³
Ġd vi
o b
Ġpri klaus
Ġpa j
f ik
ausi as
n y
ta b
an o
eÅ¡ im
e Äįi
ini g
ali o
iausi a
kai t
ki ri
Ġd Å¾i
Ġ1 8
ai Å¡
B e
on e
k u
Ġm ais
Ġn ori
A p
eik ti
Ġat rod
ĠâĢ ľ
i ais
Ġti es
ti mo
ĠiÅ¡ g
Ġ1 2
Ġt er
es p
Ġgali te
yri aus
en ki
P o
Ġv ÄĹ
ie Å¡k
K ai
i os
Ġl ie
Ġrez ultat
B et
Ġpap il
Ġvis uomen
Ġpra dÅ¾i
Ġ2 0
Ġkl as
Ġpasi Å«l
V ien
k us
Ġpav ad
ĠK l
uo tas
Ġm ÄĹg
aik Å¡
Ġgal v
K aip
ei p
¿ ½
Ġnuo l
ï ¿½
Ġm al
ĠB al
Ġj Äħ
ĠP r
ti Å¡k
Ġn ur
tori us
v el
Ġvien a
am in
Ġl aim
Ġe ur
anÄįi os
Å« t
Ġspe cial
Ġt en
Ġso cial
el Ä¯
Ġp inig
Ġek sp
Ġ /
im i
Ġc m
Ġne Ä¯
k Å³
us iÅ³
Ġd i
ĠÅ¡ Ä¯
g al
pa Äį
uo ta
Ġvai zd
Ġk uo
inink ai
Ġr od
w w
Ġinter net
at yv
Ġl ank
Ġdarb uotoj
al us
Ġj am
Å¾i Å³
el ÄĹ
Ġin d
j ung
Ġm aÅ¾i
Ġv asar
Ġv ÄĹl
Å«k st
au lio
J is
Ġs ant
ĠÄ¯r eng
Ġsu l
Ġki ti
am en
Ġvalst ybÄĹs
Ġsu r
et as
Ġats is
Ġ ieÅ¡k
t aik
Ġ W
usi os
and ien
ali a
ĠK r
m in
Ġtar n
Ġdal is
ĠÄ¯st at
o t
Ġgyven imo
p at
Ġpir k
Ġt ÄĹv
T ik
y gi
Ġd ain
Ġuni ver
tu i
Ġsuk ur
om i
t ys
Ġger ai
Ġan tr
ok um
l e
Ġ er
Ġm ar
A V
Ġj ums
Ġvis Äħ
on Å³
y zdÅ¾i
ausi a
Ġpag alb
as is
esn is
j er
N uo
ÄĹj imas
Ġfin ans
yk o
Ġpar eig
f er
ab ai
Ġatl iek
Ġnur od
p os
esp ublik
Ġpat s
eg z
Ġk ri
m inis
yv end
Ġraj ono
ÄĹj ai
Ġen erg
Ġlietuv iÅ³
ĠiÅ¡ si
ĠsÄħ lyg
Ġpati r
l ap
Ġj oki
p as
Ġk or
Ġt Å«kst
adien Ä¯
Ġ X
ĠiÅ¡ k
aip ÄĹd
Ġu g
Ġats tov
uoj u
ÄĹj au
at Å³
eidÅ¾i a
D aug
Ġt aik
Ġk raÅ¡
1 0
uli ar
je k
Ġvie tos
en a
ĠÅł v
Ġsus id
Ġpas iek
ĠÅ¡i os
ur n
Ġs ieki
Ġvis Å³
pi u
p ar
an gi
tu ose
aÅ¾ ny
t y
o f
Ä¯ Å¾
ie d
Ġpran eÅ¡
Ġdal yk
tin ai
N e
Ġsu tar
Ġr ei
Ġ 0
um i
Ġvaik Å³
on om
m Äħ
Ġkon kur
Ġkur Ä¯
Ġd okum
at as
Ġt ri
Ġvis us
Ġb and
Å¾ as
Ġ Z
Ġt Äħ
ÄĹm ÄĹ
r es
in tas
id Å¾i
Ġap d
Ġd er
Ġsk ait
r y
" ,
Ġspe ci
Ġd is
Ġv ais
ki l
U Å¾
Ġm as
ĠdaÅ¾ ni
et Äħ
Ġt ek
P er
ym Å³
d yti
Ġr as
Ġm erg
in os
P ag
l as
a ci
d ar
Å¡ Äįi
Ġo b
uo tuv
in ta
Ġs teb
Å¾i ai
Ġkult Å«ros
ra k
ĠR us
Ġsav ait
et ain
1 8
Ġkeli on
er is
em on
Ġvand ens
Ġlab iau
Lietuv os
Ġproc es
ir b
ĠÅ¡ iÅ³
ÄĹ r
ov ÄĹs
ĠKaun o
I I
Ġkon c
Ġk Å«n
Ġ Å«
ei gi
Ġgam in
ÄĹj usi
2 00
s k
es io
er v
t al
Ġsi Å«l
ĠdaÅ¾ nai
Ġl eid
ĠÄ¯si g
toj ai
ĠV al
Ġtur ÄĹtÅ³
Ġ1 6
vai zd
Ġtap o
ĠÅ¡i o
uoj ama
Ġam Å¾i
to n
ei v
2 0
d as
Ġpat og
en tas
anÄįi us
Ġt ais
Ġpasir od
ini ame
toj o
Ġak tyv
Ġt ada
Ġin stitu
tin ÄĻ
S u
ev eik
Ġf o
iausi ai
Ġy paÄį
eri Å³
g o
d ymo
G al
y kite
ie t
Äįi u
ai v
Ġsus ij
ĠJ Å«sÅ³
ez id
Ġm ir
Ġsud ÄĹ
Ġ Äį
Ġj eigu
ie ri
Ġpa tik
Ġl ink
Ġn usi
d ÄĹ
is tr
Ġpra k
Ġt ad
ant Ä¯
Ġtechn olog
p il
in imÄħ
Ġl ap
Ġvad in
ĠÅ¾ ini
Ġkuri o
an as
Ġki to
ĠS e
Ġvand en
Ġlais v
ĠÄ¯ k
Ġmok ytoj
Ġvar Å¾
ĠÅ¾em ÄĹs
Ġper s
am o
Ġpas aulio
ĠuÅ¾ tikr
on Äħ
Ġg atv
ÄĹ p
Ġp raÅ¡
l is
cij as
es t
A S
Ġneg ali
Ġt as
Äħj Ä¯
ien os
ĠI n
Ġvis ada
Ġto liau
l Å³
Ġstr aip
Ġs od
Ġpri im
om os
amb ar
Ġk ap
yv en
dÅ¾i Å³
ĠÅ¾mog aus
ĠÅ¡v en
Ġpri val
am p
S v
ra g
Ġnep ri
Ġj Å«s
el n
ym us
d ami
Ġpard uotuv
ĠuÅ¾s ien
Ġ et
im ais
ĠÄ¯st aig
Ġb u
uk as
tin Ä¯
Ġkl ub
an a
ĠA r
Ġki t
Ġad minis
Ġpan aÅ¡
enk a
ĠÅ¾mog us
Ġbendr uomen
Ġtr an
Ġkl ien
y tis
Ġ z
au r
Ġj iems
Ġr ug
Ġ1 4
ang os
av imÄħ
Ġdien os
Ġ3 0
Ġlaik Äħ
ĠR espublik
Ġsak ÄĹ
Ġt oks
ĠuÅ¾ si
in tis
d amas
b ul
d avo
ĠvÄĹ liau
Ġskir ting
Ġver tin
d v
uk ai
Ġv il
Ġtvar k
Ġspecial is
Ġatvej u
Ġb ank
en kl
D ÄĹl
ir ink
Ġ1 1
ys tÄĹs
I n
im s
ĠÅ¡v ie
ÄĹm e
Ġdir ek
ÄĹ Å¡
Ġt eri
. )
Ġmok es
t ÄĻ
Ġneb uvo
si ch
aci onal
Ġvis iÅ¡kai
ri g
Ġpl auk
Ġki tÄħ
M an
Ġ1 00
J eigu
yzdÅ¾i ui
al is
Ġt rad
ĠÅ¡i uo
eÅ¡im t
Å« ri
Ġ1 3
Ġniek o
ir Å¾
Å« p
Ġsv etain
Ġval and
ÄĹk m
Ġ1 7
ĠK ar
ĠÅ¡ is
im is
Ġsu pr
- -
ĠÄ¯g yvend
Ġkon s
Ġvalst yb
al as
i v
ĠÄ¯ dom
Å¡ki a
Ġor o
ver tin
Å« z
ĠÅ¡al ies
Ġnam Å³
A B
Ġb eveik
ing os
on d
Ġn ug
Ġnei Å¡
at ai
c en
Ġm ums
Ġnuol at
Ġk ambar
ÄĹj imÄħ
tik a
al ai
Ġsi tu
uk Å¡
ĠKl aipÄĹd
Ġp ok
Ġf unk
P irm
ki us
Ġsusi tik
S p
il ie
Ġnuo trauk
tin k
ini ams
Ġi tin
Ġtran sp
Ġvie tÄħ
eng ti
li u
Ġsk l
Ġank s
ing Äħ
5 0
Ġt eig
Ġ :
Ġneg al
ĠJ AV
Ġtel ef
Ġsavivald ybÄĹs
et r
to l
1 2
Ġne at
Ġtarp tau
Ġ [
ĠD iev
uk r
Ġ19 9
om end
h e
t n
m Å³
Ġsu b
eli ai
Ġe f
ĠÅ¡v ent
Ġf ak
Ġvis kas
Ġj ud
Ġsak o
auk Å¡
Ġtr ump
Ġvar to
d ien
Ġmuz ik
ĠÄ¯ raÅ¡
Ġj aus
e Å¡k
K ar
Ġpat eik
esn ÄĹ
Ġteis ÄĹs
Ġsti pr
Ġek onom
Ġveik sm
Ġm us
Ġ ÄĮ
Ġne k
ĠmaÅ¾i au
Ġpab aig
uk o
Nor s
ÄĹ te
Å¡ki o
Ġm iÅ¡k
yb es
Ġpr am
Ġt eigi
Ġin v
T odÄĹl
Ġpr al
Äįi os
Ġveikl os
ĠÅ¡v ies
Ġb aig
Ġp ali
ali os
Ġ em
Ġkuri ame
uos ius
ĠÅ¾ enkl
K ad
Ġper d
Ġy pat
Ġvis ai
Ġsu v
is i
m a
Ġki tos
Ġversl o
Ġleng v
Ġs im
anÄįi o
Ġapsaug os
Ġk vie
ep Å¡
Ġpl o
Ġre gi
Ġteri tori
t inio
Ġn ak
Ġar ch
Ġg en
Ġkon tr
Ġne Å¡
V il
Ġ rad
t en
Ġpui kiai
3 0
Ġ Â
ĠÄ¯ sp
ang a
Ġt ol
Ġk ep
g r
ĠbÅ« t
Ġ Å¾iÅ«r
Ġs ez
p ri
Ġpat ar
Ġsum aÅ¾
Ġ â
aus kas
Ġkuri Äħ
ĠÅ¡i Äħ
b il
Ġpapil dom
ausi o
Ġkalb a
ĠG r
ij as
A Å¡
em pi
Ġpras id
Ġpasaul yje
Ġ eil
Ġtur ÄĹjo
ed i
ÄĹ liÅ³
ĠÅł iau
Ġkuri uos
tÄĹ je
Ġpat virtin
Ġprof es
g n
Ġsp or
Ġatrod o
Ġry Å¡
Ġbl og
l ai
Ġob jek
aud Å¾i
Ġprie Å¾as
et ai
" .
at a
d in
Ġp sich
Ġpop uliar
Ġb aÅ¾ny
Å«n as
K iek
Ġpat al
Ġ ang
pr end
Ġp os
Ġ aiÅ¡k
acij Å³
tom is
Ġd ur
auki a
Ġs kiri
Ġinform acijos
Ġpas id
Ġm eil
Ġmal on
ĠP al
G r
ĠiÅ¡ r
Ġmokykl os
ĠÅ¡ eÅ¡
Ġsveik atos
ĠiÅ¡ d
Ġkom piu
Ġmais to
Ġl ygi
Ġ aud
Äħ s
n e
um a
ok Å¡
K i
ar as
Ġl ang
L abai
Ġs to
ĠkaÅ¾ k
Ġg i
ÄĻs ti
uos i
Ġer dv
Ġn atÅ«r
T uo
I N
ĠdÅ¾i aug
Ġpal aik
ĠÅ¡i andien
m ÄĹ
Ġo per
Ġsu Å¾
Ġar tim
Ġkuri oje
1 5
Ġminis teri
ĠRespublik os
r os
Ġpas ik
ov ÄĹ
at Äħ
ini uose
Ġ egz
ij o
in kite
ĠÄ¯vairi Å³
ĠÄ¯ vertin
l aus
Ġv eid
Ġd e
Ġk m
ĠbÅ« s
Ġri b
un d
Ġvie toje
Ġm l
Ġkr epÅ¡
Ġtoki Å³
ing Å³
Ġvaik ams
Ġ ag
Ġ aikÅ¡
Ġat ei
ÄĹl ÄĹ
t ri
t iniai
ut ÄĹs
Ġvis as
Ġr ung
ym ai
Ġne mok
u ÄįiÅ³
Ġs tov
p j
n az
in ant
Ġsistem a
eri o
Ġv os
ar g
au p
in ai
Ġo f
Ġsant y
ÄĹ ta
T oki
uoj amas
ie ÄįiÅ³
Ġpam at
ĠÅ¡ ird
ĠbÅ«d u
Ġsuk n
Ġprad ÄĹjo
ÄĹ tis
00 0
y tos
Ġd ovan
Ġta Å¡k
b ol
Ġdarb Äħ
Ġpr e
ar p
Ġnet ur
t Å«r
ausi Äħ
Ġ Ð
Å«r ÄĹ
Ġf iz
Ġm eto
Ġkalb os
an tas
e ÄįiÅ³
c Å«z
in Å³
Ġmuz ikos
Ġduomen Å³
Å¾ ym
Ġd ek
M es
iek a
Ġvar d
Ġte at
Äįi aus
Ġ2 5
ing o
J ie
Ġg auti
and a
c m
Å«n Å³
tin ink
Ġj ÄĹg
tori aus
Ġm on
Å¾ vel
o c
Ġkr auj
Ġl yd
rad arb
ĠamÅ¾i aus
k s
Åł is
ĠÅ¾ ino
Ġgrei tai
er s
Ġvis iems
o Å¾
Ġtr en
ĠA m
ĠÄį empi
ĀĀ ĀĀ
Ġreik Å¡
Ġv ys
aud oj
en to
inink o
ym u
Ġv ed
Ġats kir
Ġlaiko tar
Ġcentr o
Ġgal ÄĹtÅ³
Tai gi
Ġnet uri
Ġval dÅ¾i
Ġb ent
Ġ Å¾i
b Å«t
Ġsav e
Ġmies te
si t
Ġ ci
Ġpas is
uod a
ÄĹj ÄĻs
Ġd et
e ch
Ġgeri au
Ġnaud oti
. âĢľ
Ġsistem os
var k
yn o
yd is
tog raf
Ĥ ¬
y tÄĹ
ĠÅ¡eim os
Ġpat ys
inÄĹ ti
ĠVilni uje
Ġkai na
si u
um u
Ġpask elb
er ni
Ġs ÄĹkm
Ġs au
Ġk an
lo b
en tai
Å¾i us
Ġgrup ÄĹs
1 1
iz ain
D ar
ĠE S
l a
Ġvis kÄħ
tim as
m os
Ġap tar
Ġgyd ytoj
ĠV okie
Ġpad id
ĠN r
evi Äįius
aid os
uk us
Ġg el
Ġaps kri
uni g
ĠrÅ« p
Ġnam uose
ĠdaÅ¾ni ausiai
Ġnuo mon
Ġs iek
P av
ar i
Ġat n
g a
ar o
str uk
Ġnum at
anÄįi Äħ
ÄĮ ia
Ġpas kir
n os
Ġsut eik
Ġd y
ij ai
Ġvis a
Ġeur Å³
on iÅ³
âĢ Ļ
Ġpad ÄĹti
Ġpri paÅ¾
uoj ant
Ġk ei
m at
Ġgr Ä¯Å¾
i ci
ÄĹsi te
ĠsÄħ raÅ¡
ĠrÅ« Å¡
Ġsk at
l ÄĹ
Ġpaslaug Å³
Ġkonc er
Ġpar aÅ¡
Ġspalv os
Ġtoki a
ĠÄ¯mon ÄĹs
Ġk omis
Ġvaik ai
ĠÅ¡ aliÅ³
ĠP as
Ġvai r
A I
on ai
J i
s ÄĹjo
Ġgyven imÄħ
Ġpr ezid
ĠÅ¾ ais
an ki
esn ÄĹs
Ġpl at
ĠÄ¯v yk
um os
Ġatlik ti
Ġbend radarb
ĠbÅ« na
n as
Ġt u
v eik
ĠiÅ¡ mok
et Å³
r ÄĹ
Ġsp orto
Ġrek omend
Ġv aÅ¾i
o z
ov as
Ġat k
ĠÄ¯ tak
am us
ĠÅ¾ ym
Ġminis tr
Ġvid ur
M ok
Ġ ...
Ġkas dien
Ġl aip
Ġvis os
Ġkom pl
Ġkeli Å³
Ġmie st
Ġs ta
i p
ib lio
ĠL enki
Ġkar tais
Ġpar ti
ti Å¡kai
Ġ5 0
Ġkok ybÄĹs
ĠS Äħj
im in
av os
ink a
Ġprie Å¾i
b us
ĠuÅ¾s ak
Ġp enk
Ġprof esi
Ġtuo met
n iÅ³
Ġkok yb
Ġj as
Ġd izain
Ġpadar yti
ys e
vie jÅ³
s is
Ġpl ÄĹ
Ġki tas
uo tÅ³
ĠÅ¡ im
ali u
ĠÅ¾ urn
Ġto bul
Ġgyven tojÅ³
ur g
o tas
ais iais
Ġreikal av
ĠÄ¯ t
t adienÄ¯
uo tos
Ġras ti
Ġautomobi liÅ³
P ar
Ġtr eÄįi
Ġap g
ie tÅ³
eg uÅ¾
Ġvis o
ĠkÅ«r yb
yb Å³
an ijos
tu me
em ok
Ġk odÄĹl
in tÅ³
Ġkad a
_ _
tin ÄĹje
Ġ av
Ġi l
Ġman e
ĠÅ« kio
Ġvyk sta
Ġti e
Ġ .
Ġpriklaus o
Ð °
Ġdar Å¾
Ġsvarb u
r ÄĹs
Ġbal s
Ġs aul
Ġadminis tra
e c
i ui
og raf
Ġn orm
ww w
Ġmuz iej
Ġatv yk
Ġp ov
tin ka
P at
ĠmÄĹn esÄ¯
ol ÄĹs
dÅ¾i ai
Ġpas teb
Ġelektr on
Ġki tus
Ġd aik
Ġ201 8
tim i
N es
ĠâĢ Ķ
Ġv aid
S k
Ġvyk o
Ġkr eip
Ġvie ta
Ġef ektyv
Ġtik s
1 7
Ġu p
Ġk os
Ġt vir
tik o
Ġinform acijÄħ
gi o
Ġvien o
toj as
Ġr ud
Äħ st
1 6
Ġ #
em i
Ð ¾
Ġat vir
Ġket vir
Ġtam pa
Ġp ai
Äħ Å¾
ĠÅ½ em
N auj
Ġdien Å³
ini am
ov o
Ġprogr am
Ġel g
Ġkult Å«r
Ġ Å«k
klaus om
ĠJ ums
Å«n ai
Ġtink l
Ġd eg
Ġgalim ybÄĻ
Å¡ki Å³
gi au
Ġb irÅ¾
Ġkr Å«
u to
ei ti
Ġdar yti
Ġtech ni
Ġpad eda
ĠdÄĹm esÄ¯
4 0
id u
Ġin f
esn iÅ³
Ġpui ki
tum ÄĹte
ĠÅ¡ iek
Ġgar s
oj imo
Ġn uv
Ġsu p
ak o
Ġsp aud
ik a
Ġk oj
anti ems
Ġtr is
ĠRus ijos
Ġlaik as
Ġpr in
Ġmoksl o
Ġv eikia
Ġrei Å¡kia
Ġtink a
yl a
on u
ĠP ar
D abar
ĠpaÅ¾ ym
usi us
ĠbÅ« kl
tori Å³
Ġt al
fer en
Ġb iblio
ĠC h
Ġl in
Ä ĸ
ien o
eg ori
Ġanks Äįiau
ei Å¡k
Ġpirm Äħ
Ġ ini
ĠiÅ¡s kir
i ki
Ġpr iek
Ġpr im
Ġpak ei
Ġpar tn
I S
Ġj ai
ĠP ran
Ġdalyv avo
Ġl eidÅ¾ia
an Å³
in ama
K as
ni o
Ġnep as
Kiek vien
ĠT r
ev iz
ĠuÅ¾sien io
Ġn acional
el yje
a ki
av au
M Å«sÅ³
a f
Ġgra Å¾i
ie g
Ġgim naz
l ÄĹs
Ġdr aud
ĠbÅ«t ent
Ġkai m
ĠÅ¾ iem
Ġdarb Å³
Ġasmen s
Ġb es
Ġtransp orto
Ġvisuomen ÄĹs
Ġnem aÅ¾
Pas ak
ĠK al
ĠÅ¡ ak
Ġdirb ti
Ġsk yri
li z
iÅ¡k as
b er
en tus
Ġper k
in ÄĹmis
Ġkar tus
and Å¾io
p Å³
Ġsudar o
ausi os
and ar
t ams
or o
in amas
ok Ä¯
Ġsk amb
Ä¯ st
Ġne pr
Ġuniver sit
usi o
ĠiÅ¡ b
ar s
A T
al Äħ
b o
p us
ÄĹ kite
im ti
ul k
vai g
or d
si ai
ĠSÄħj ung
tin as
Ġap raÅ¡
ĠLietuv a
an tÅ³
ik al
el ÄĻ
ni ai
Ġd viejÅ³
ÄĹd ami
Ġl enk
Pr ieÅ¡
v z
Ġsav ai
ĠsÄħ jung
ĠÄ¯vai r
ĠSe imo
Ġod os
sni o
Ġsk r
Ġpinig Å³
eguÅ¾ ÄĹs
Ġs tik
a ch
Ġtr Å«k
Ġnaud o
ĠT au
Ġats ir
Ġsen i
Y ra
in am
Ġlab iausiai
Ġsti pri
m uo
uk Å³
Ġl ÄĹÅ¡
Ġu os
O S
yn as
ie b
Ġnauj Äħ
ĠÅ¾ v
Ġgra Å¾
ing umo
kri Äįio
1 4
ĠK on
Ġveikl Äħ
Ġk unig
A R
ok ai
Ġk od
n eto
Ġkeli as
Ġpor eiki
Ġpak ank
t uo
.. ..
19 9
Ġtem per
Ġval g
in ÄĹj
Ġprojek to
Ġapd ovan
ĠkÅ«n o
r ai
s u
Ġinform acija
d aug
k v
um Å³
7 0
r Å³
Ġd eÅ¡imt
Vil ni
Ġre Å¾
ag r
ĠKlaipÄĹd os
al d
Ġcentr as
Ġg ana
Ġ2 4
Ġrung tyn
Ġvar toj
av ÄĻs
Ġpask ol
J au
rav imo
eli u
Ġeksp er
esn Ä¯
or t
Ġap ib
atori us
m ai
en os
ĠÄįempi on
Ġf esti
Ġnes u
Ġk t
o ci
er n
Ġpav irÅ¡
Ġm yl
yt au
Äįi ais
Ġprek ybos
Ġfo tograf
v o
Ġd ra
Ġdien a
l amen
i tek
Ġmen o
Ġleng vai
Ġr es
ĠÄ¯ pras
1 3
ali us
olog ijos
in ar
Ġpus lap
inÄĹs e
r ÄĹÅ¾
Ġneb Å«
ÄĹ tas
Å¾iÅ«r ÄĹti
Ġpa aiÅ¡k
Ġkov o
Ð µ
Ġk ab
li aus
Ġg aus
Ġkar o
at Å«ros
Ġt eiki
ie si
m ÄĻ
Ġ201 7
ĠU AB
Ġml n
Ġpali k
Ġautomo bil
ĠiÅ¡l aik
ir g
Ġap si
Å¾ er
ĠÅ¡ alia
vaig Å¾
T r
Ġati tink
Ġatsi rad
ĠS k
Ġmeto d
Ġtais ykl
u tÄĹ
ĠÄ¯ d
Ġd ail
Ġki ta
Ġs ien
ã Ĥ
Ġsi un
Ġkonkur s
Ġsk yriaus
Ġj uo
ĠkraÅ¡ to
Ġtur ÄĹti
Ġg aun
uoj ami
Ġned id
ĠP an
Ġt os
Ġat r
Ġsavait ÄĻ
Ap ie
Ġrek l
j ai
eli us
y tÄħ
Ġbal d
Ġd om
Ġpo zi
Ġbendradarb i
Ġdal Ä¯
Ġel em
end r
ÄĹl ÄĹs
Ġsur ink
Ġnauj Å³
Ġind iv
Å½ in
Ġjoki Å³
ap ras
Ġt eks
Ġsk elb
ak s
ai ki
P l
Ġdarb us
Ġpav oj
Ġli ter
kai Äįi
et a
on ÄĹs
Åłi uo
Ġs er
ad os
ĠS p
Ġkr yp
Ġ4 0
ĠÅ¾mon ÄĹms
Ġpaslaug as
c om
ÄĹl is
h o
eri jos
Ġm il
ym ui
Ġab ej
Ġsun ku
ĠÅ¾ uv
Ġb at
uo tis
J o
Ġl aid
val g
Ġsut eikia
Ġ2 2
Ġkr edi
E S
aud on
Ġj uod
Ġs aus
K on
Ġsu pras
cij oje
ĠÅ¡ ok
ĠÄ¯v y
Ġkon kr
Ġpoli tik
Ġkiekvien Äħ
el ti
Å¡k as
oli u
B al
Ġpriemon iÅ³
s ak
Ġad res
Ġkiekvien as
Ġn uk
N ep
Ġlig on
c e
ÄĹj os
ÄĹ li
ĠLietuv Äħ
Ġr emon
Ġâ Ĥ¬
r on
man oma
in ami
Ġkomand os
is k
ie Äįiai
Ġnam o
o te
Ġl eis
N et
Ġket uri
Ġsk aus
kait yti
ĠÅ¡i ol
ĠN auj
site to
Ġg lob
Ġt Å³
Ġgalim e
Ġpre kiÅ³
ĠÂ »
ĠsÄħ s
Ġpask u
ĠmedÅ¾iag Å³
Ġs r
ur b
Äįi Å«
Ġstraip sn
Ġver t
Ġtel eviz
l os
ï¿½ ï¿½
ri o
Ġsukur ti
ut bol
Ġvair uotoj
Ġilg is
Ġvald ymo
esni o
Ġskai Äįius
ĠpaÅ¡ al
ĠÅ¡i aur
Ġr om
Ġpas tar
t an
c ien
au Å¾
Ġr uoÅ¡
ai gi
Å¡ki ai
l Äħ
d a
2 5
E N
ĠL i
n Å³
Ġ Ä®
n is
ÄĹj ome
ĠprieÅ¾i Å«ros
st at
en o
Ġpai eÅ¡k
Ġner eik
an ta
iem et
ĠiÅ¡ n
Ġp i
Ġv yri
Ġilg ai
Ġats p
men Å³
Ġprin ci
Ġtiksl as
Ġatn auj
Ġs os
Ð ¸
Ġd ang
Ġs ÄĹd
ĠÅ¾ini as
K l
Ġ +
Ġkomand a
Ġ ai
ĠbÅ« tina
Ġtoki o
Ġ201 6
Ġpri taik
Ġs cen
âĢ ĺ
uo dÅ¾io
gi ai
Ġkit aip
Ġtr uk
eid o
ed ag
T ur
anÄįi as
Ġkok s
Å¡ ti
uol aik
ĠAm eri
Ġk rik
i ams
Ġtoki os
ĠD idÅ¾i
uoj ame
Ġt okie
Ġsusi paÅ¾
Ġati dar
Ġm aÅ¡
in Äħ
Ġk op
Ġskir tas
tu mo
et e
ĠmedÅ¾iag os
Ġs ie
un gi
ĠAn d
e ina
Ġ2 3
Ġskir ti
Ġnep at
) ;
Ġveikl a
Ġsv e
Ġpri d
al u
pj Å«
p s
Ġpam ok
Ġsul auk
Ġpav yzdÅ¾iui
Ġenerg ijos
Ġvadov as
Äįi ui
eri us
Ġri z
Ġmet ai
ĠuÅ¾ k
toj ams
Ġv iz
Ġet ap
Ġreik ÄĹtÅ³
Ġarch itek
Ġistori jos
Ġkuri as
Vis i
Ġr us
A M
ĠsudÄĹ ting
ori Å³
Ġkar to
Ġrug sÄĹjo
iÅ¡k a
in ei
Ġniek ada
inink ÄĹ
k m
Ġir gi
Ġlaik u
Å¡k a
ÄĹj ÄĻ
en Å³
Ġki tais
a Äįi
Ġk elis
ie Å¾
E R
Ġmed ic
men s
Ġkel etÄħ
Ġne ap
ili j
Ġsus ik
Ġt ak
Ġpat eiki
A l
Ġkai mo
Ġdarb as
asi te
v en
ad em
yb Äħ
Ġgyven ti
Ġvyk d
ĠÅ¡ ie
Ġsi Å«
Ġprogr amos
Ġf utbol
T ad
Ġinter neto
Ġsus irink
Ġkar Å¡
Ġaplink os
T ies
A L
ĠÄ¯sig yti
ĠÅ¾ yd
aud oti
Ġo p
Ġpat r
Ġgrup ÄĹ
Ġpar uoÅ¡
au Å¡
Ġr im
ĠÅ¾ vaigÅ¾
n yr
eri ai
si as
Ġnauj as
ol is
ĠP l
Ġs eks
in us
Ġm ik
Ġkad angi
Ġt ÄĹ
Ġform os
e x
Ġteigi a
m us
Ġkain os
Ġmoter is
P ra
A N
Ġsvarb i
ĠA t
Ġpav asar
Ġkeli o
ali Äħ
er b
K r
Ġuniver siteto
Ġini ci
6 0
as e
Ġm el
ĠE l
aus k
ĠÄ¯si k
Ġtur ime
Ġpav eik
Ġne Å¾in
Ġd ep
J os
Ġ w
Ġkon feren
Ġg au
Ġniek as
Ġpris im
al ÄĹ
on is
ij ung
Ġs and
Ġne tik
ĠV ytau
Ġpa cien
2 2
Ġne v
trauk ti
Ġg yn
ri b
t adien
Ġk eis
Ġindiv idu
ĠV is
kai tÄĹ
ÄĹl yn
er al
ar Å³
D aÅ¾
Ġpard av
Ġteis ÄĻ
Ġpagalb os
K om
Ġtar si
Ġdalyv auti
uo met
Å«n o
Ġpaslaug os
Ġproc ed
ĠT ar
kr ain
Ġnus prend
ĠdÄĹm esio
Ġskir ta
ĠÅ¾mon es
Ġkur s
Ġk li
Ġreg uli
Ġkol eg
d ama
ĠpaÅ¾ eid
eli g
Ġsl ap
Ġkat egori
Ġb yl
ĠÄ¯r od
Ġpapras tai
oki te
k up
b aig
al og
r u
l y
Ġat g
Ġkar i
tel ÄĹs
Ġe Å¾er
Ġkompiu teri
Ġvaik o
ĠÅ¾in oma
Ġes u
Ġ2 1
Ġd ÄĹs
c k
Ġpr em
Ġpat eikti
z mo
ĠKaun e
. ).
ĠÄ¯sp Å«d
uo g
Ġg eguÅ¾ÄĹs
Ġg ÄĹr
Ġkl aid
Ġb ÄĹg
Ġsri tyje
Ġsp alio
Ġcentr e
Ġreg istr
Ġproduk tÅ³
Ġ, ,
Ġnet r
Ġdarb ai
Ġdra bu
Ġk ie
ai tin
ien ÄĹs
Ġj uk
Ġrank ov
Ġg arb
Ġpasi raÅ¡
Ġnar iÅ³
Ġap yl
us Ä¯
Ġb az
ef ek
Ġprad ÄĹti
Ġtur nyr
Ġvir tuv
ytoj Å³
o u
Ġnus ikal
J uk
ĠbirÅ¾ elio
ud Å¾
yr ÄĹ
oj oje
is tÅ³
Å ª
Ġpris id
te liÅ³
ĠpradÅ¾i oje
Ġistori ja
ra cijos
Ġpav el
tin e
yn ÄĹs
en ti
Ġskai Äįi
ĠvieÅ¡ bu
Ġvar i
Ġpat ek
int ys
tin es
Ġin t
ej a
g Å¡
Ġvien os
Ġtrad i
ai tÄĹ
Ġap r
ter is
Ġgr o
Ġd ÄĹÅ¾
8 0
Ġgal ÄĹjo
in u
Ġt okÄ¯
Ġid e
k e
Ġner eikia
ĠÄ¯si tik
Ġl ÄĹk
Ġvyk s
rig in
at eg
Ġinternet u
l us
k Å¡
Ġvien u
Ġats id
Ġsug eb
t Å«ros
ĠÄ¯mon iÅ³
Ġv eÅ¾
Ġdarbuotoj Å³
Ġdirb a
i te
Ġv eiki
Ġk ino
Ġrod o
Ġm ilij
par eig
Ġp ik
tu mas
ais v
Ġtap ti
art amen
el es
j Ä¯
og r
Ġstr uk
r us
ĠaukÅ¡ Äįi
Ġan aliz
Ġgyven a
Ġd var
U R
Ġnar ys
Ġapl ank
ak al
Ġpasiek ti
V al
Ġsu tik
Ġdal ies
il p
Ġs ausio
ytoj as
Ġdien omis
Ġ19 4
ĠDiev o
Ġd ÄĹ
Ġas oci
ur o
Ġal iej
el e
d av
uo t
Ġvar ik
en tar
Ġg ri
Ñ Ĥ
p irk
ĠiÅ¡ or
ink Å¡
Ġlie pos
in tos
v e
Ġkoki a
Ġkon f
ie jÅ³
Ġpa tikr
ĠÅ¾ al
Äįi ame
ĠÅ¡ un
Ġlap kriÄįio
Åłi andien
Ġkuri uo
ij us
ar os
Ġm ag
cij ai
ĠÅ¡i oje
oj imas
li ais
ki u
ÄĹn Å³
/ /
ausi us
Ġl aiv
ĠV ar
tim Äħ
s ime
ĠÅ¾ ing
* *
ĠPan ev
Ġs tab
eli a
ĠmaÅ¾ ai
P ard
Ġnet gi
v ies
ar a
Ġl aiÅ¡k
Ġsug r
Ġp ie
Å¡ i
pjÅ« Äįio
Ġats kl
Ġf or
Ġtoki u
Ġduomen is
Ġr engi
am ojo
2 4
in ÄįiÅ³
ĠVil k
Ġis tor
k al
Ġlietuv iÅ¡k
Ġpriemon ÄĹs
Ġug dymo
Ġp eln
yb e
Ġ eis
Ġ alb
V aik
Ġr am
Ġlaikotar p
at Å«ra
mon ÄĹs
Äįi ams
Ġnam us
G ali
Ġtek o
Ġpakank amai
ori us
Ġgyven ime
en cijos
Ġg ab
j as
Ġnori te
ĠiÅ¡b and
Ġpo il
Ġdid elis
Ġpr at
on s
Ġl em
K aun
Ġties Å³
ej i
Ġpasi tik
Ġatsak om
Ġministeri jos
um us
ĠsiÅ« lo
Ġtrad ic
Ġap Å¡
iausi as
Ġtar ybos
ĠdÄĹl to
ĠiÅ¡ lik
ÄĹ Äįiau
Ġkomp an
Ġvie tÅ³
Ġdy dÅ¾io
Ġnar iai
U S
Ġm m
Ġkam p
ĠpaÄįi u
Ġd uo
el bi
ĠB ri
Ġkv ap
tel ÄĹ
ĠBal tijos
ĠVilni us
oj au
Ġs em
Ġteig ÄĹ
oki Å³
Ġelektr os
yd amas
Ġj us
Ġatsis ak
Ġpasak yti
Ġs tog
ech an
t uoti
Ġsun ki
Ġproblem Å³
Ġg eb
Ġt eik
Ġ2 6
Ġsl uok
Ġdv as
Ġr elig
Ġg ink
Ġpagalb a
Ġpad ÄĹs
P ri
ĠÅł il
tuv as
Ġ6 0
Ġsk ol
Ġpsich olog
Kad angi
ĠL atv
yd ami
Ġt avo
ĠPran cÅ«z
Ġvaik us
Ġbi udÅ¾
uk Äħ
Ġnuos tat
Ġnu tar
Ġsistem Äħ
ar st
Ġgal ÄĹs
Ġv okie
Ġger a
ver s
Ġpabaig oje
Ġmie g
to vai
Ġpak eisti
Ġek ran
Ġj ung
Ġpok y
Ġ2 8
Ġinici atyv
ĠÅ¡vie timo
o w
ul is
po zi
Ġatsi Å¾vel
Ġprogr ama
Ġkiti ems
kr eip
Ġ201 5
ĠnemaÅ¾ ai
uod amas
Ġmoter Å³
ri jos
Ġbal andÅ¾io
Ġpoli cijos
Ġak adem
an to
I M
o ta
G er
Ġsu aug
Ġn up
Ġpas in
ang Å³
od o
sn iÅ³
no z
Ġp j
Ġtr auk
ÄĹ lio
ĠM aÅ¾
ĠbÅ«d as
Ġne uÅ¾
Ġpl okÅ¡
um ai
e o
ĠÅ¡al yje
Ġnepri klausom
Ð ½
S i
2 3
c o
p al
arb u
ĠiÅ¡ m
ĠSÄħjung os
Ġklas ÄĹs
ut Ä¯
Ġr ieb
il ank
Ġat os
Ġvaizd o
Ñ Ģ
Ġraj one
Ġl eidÅ¾i
ĠÅ¡i uolaik
Ġpag amin
Ġal ko
d y
Ġg av
Ġ2 7
t t
ĠsÄħs kai
Ġturi te
ĠmÄĹn esi
Ġsupras ti
Ġneg u
v ad
a y
Ġatl yg
Ġknyg os
Ġgr uodÅ¾io
Ġsv aj
b Å«
Ġbendruomen ÄĹs
ykl os
ĠLenki jos
Ġkuri a
ĠÄ¯stat ymo
Ġpar eiÅ¡k
tr o
Ġtr up
Ġr enk
ĠÅ¾ ied
Ġt uos
Ġtren ir
Ġapyl ink
Ġsp ar
uri a
ĠM as
Ġank st
Ġpag alv
Ġ >
Ġ19 8
Ġkar tÅ³
usi Äħ
on us
ĠÅ¡il umos
Ġvid aus
Ġasmen Å³
Ġgam tos
im ams
in yje
Ġstr ateg
Ties a
Ġatos tog
es tuv
Ġpl as
âĢĿ ,
Äįi ausiai
t inius
Ġver s
om Å³
Ġdien as
Ġat m
Ġinv esti
Ġk Å«d
ĠV akar
atori Å³
M aÅ¾
Ġsieki ant
edag og
Ġkari uomen
Ġkompl ek
ĠP et
j o
v ok
Ġjaun imo
i ta
ĠV yriaus
ali fik
ÄĹ z
uo z
en as
Ġgam ybos
ĠK az
M at
Å¾i a
Vien as
Ġgrei Äįiau
Ñ ģ
Ġim p
ali au
ĠmÄĹn es
Ġpasirink ti
esn ÄĻ
ÄĹ liau
ÄĹ Å¾io
Pav yzdÅ¾iui
uoj amos
-- --
e ti
N a
Ġs ep
Ġpati ek
Ġpasaul Ä¯
Ġneb us
Ġnuo taik
Ġti po
Ġr ÄĹm
Ġr asite
Ġats tovai
avi Å¡kio
av a
Ġprek ÄĹs
ĠiÅ¡ Å¡
Ġg ird
Ġsukn elÄĹs
Ġak tu
M ano
ÄĹj Äħ
Ġvaik as
us iems
atori ai
ra Å¾
Ġp el
Ġ: )
Ġnep ak
ÄĹj ams
Ġ201 4
ra z
ĠâĢ ¢
Ġsut rik
ĠiÅ¡ pl
er k
Ġb ar
yk Å¡
Ġpaj ÄĹg
v is
Ġkur ti
Ġs es
P ro
Ġgalim ybÄĹ
Pag rind
Ġmokykl oje
ĠmaÅ¾ daug
eng ÄĹ
Ġkon struk
Ġgal bÅ«t
li ui
Å¡ iÅ³
r Äħ
an i
om o
ĠÅ¾ ali
n ek
Ġgyven tojai
tin os
ÄĹ t
T arp
Ġautomobi lio
ĠVal st
tr uk
es ys
Ġpasl ap
k art
Ġs Å«n
Ġdal yje
al ÄĹs
to ti
ek tak
Ġnauj o
ĠI I
ras ti
uo tÄħ
Ġpas t
ÄĹd amas
Ġpris i
Ġsp aus
ys tÄĹ
pr es
am ÄĹs
Ġpasi Å¾ym
Å½in oma
ĠÅ¡i ame
Pr ie
n Äħ
Ġg l
l ar
Ġ Y
ĀĀĀĀ ĀĀĀĀ
ĠÅłiau liÅ³
os of
ĠJ on
Ġkuri ose
Ġd ydis
Ġpil ie
im uose
tol og
Ġkur iems
Ġter min
te is
ytoj ai
ad o
âĢĿ .
or is
Ġm aiÅ¡
uo Å¾
ok o
Ġbiblio te
Ġst andar
ĠV id
acij as
Ġtvar ka
Ġjau Äįi
P an
ĠÄ¯ kur
Ġkar jer
en tÄħ
dÅ¾i us
E ur
Ġgel eÅ¾
arb o
ĠuÅ¾ pil
tr os
b a
on io
Ġj Å«r
Ġr ed
Ġes ame
Ġc ukr
n ÄĹs
Å¾ em
Ġnauj a
sn is
and id
Pag al
Ġm er
en iai
ĠL R
Ġklaus imus
Ġgyven imas
el s
Ġtyr imÅ³
ĠA d
Ġtr ys
to ran
Ġpag er
: //
Ġpram og
Ġs ov
tin o
Ġpriim ti
Ġgal ÄĹsite
ãĤ ¢
Ġdep artamen
ĠÅ¾ ai
Ġo rigin
P al
aid inÄĹs
Ġ2 9
Ġper gal
Ġ %
tr as
Ġj Å«ros
or as
in asi
yb ai
A k
Ġprojek tÄħ
Ġsusi tar
Ġstat ybos
e ki
y tÄĹs
Ġpaveik sl
Ġinter es
av e
Ġsieki a
ĠÄ¯sik Å«r
inink ams
ÄĹ liai
Ġra g
Ġl ent
Ġmat yti
Ġstud ijÅ³
V er
am Å³jÅ³
Ġgalv os
ĠuÅ¾tikr inti
Ġrink tis
f o
Ġsp ind
tori ai
ĠpaÄįi os
p ti
ĠÅ¡i uos
Ġreikal Å³
Ġvadov auj
ai tis
ĠÄ¯ var
Ġtem a
Ġs iau
Ġm aitin
p Äħ
y Å¾i
men ys
ĠmedÅ¾iag a
D idÅ¾i
Ġseni Å«n
Ġpar tijos
am u
Ġegz ist
Å¡k os
Ġm ÄĹs
ĠI Å¡
tu l
Ġtur to
Ġsaug umo
Ġnustat yti
Ġk er
Ġg in
Ġpatr auk
E L
Ġvasar io
tin gi
l and
Ġmokykl a
Ġteis iÅ³
Ġd eÅ¡
ĠiÅ¡v yk
Ġm or
rag ÄĹs
Ġt v
Ġd efek
ĠN or
2 6
Ġ ol
Ġtik ri
Ġmies tas
Ġprogr amÄħ
ãĤ¢ ãĤ¢
Ġpus ÄĻ
Ġm echan
Ġsuv ok
u al
Ġl og
ol o
Ġkelion ÄĹs
Ġvyr as
ĠiÅ¡s aug
Ġap mok
t am
Ġak im
Ġ x
Ġpasi g
Ġnep av
Ġati d
Ġkaim yn
I ki
Ġpra ei
Ġprofesi on
Ġsun k
Ġd eÅ¡im
Ġch em
ĠU krain
Ġnauj os
Ġmo tyv
Å¾ ud
Ġger okai
Ġinv est
er c
Ġp edagog
al e
T ada
e jÅ³
Ġdar o
Ġduomen ys
Ġkalb ÄĹjo
Ġl aukia
Ġdr ÄĹg
Ġlaik ais
Ġgalim ybes
in imui
ain a
Ġkol ektyv
Ġtr ans
201 8
toj a
Ġlik o
at u
ĠU Å¾
Ġkol ek
ĠuÅ¾ m
Ġprojek tas
eiv iÅ³
ies iems
l u
M o
Ġf on
Ġa ki
ĠJ ung
ĠVokie ti
Ġkeli Äħ
Ġp ieÅ¡
Å¾i u
ĠÄ¯ Å¾
Ġli tÅ³
ym osi
t ame
Ġklaus imas
Ġvasar os
iÅ¡k Äħ
I lg
19 4
ie r
2 1
Ġkrik Å¡Äįi
Ġtri jÅ³
P ui
Ġpal yg
ĠmÄĹg st
Ġdirek torius
Ġvid ut
en c
anÄįi u
Å¾i Å«ri
im ok
Ġprad eda
E T
ĠÄ¯r anga
ĠEurop oje
Ġaptar n
en e
Ġauto bus
ÄĹl Ä¯
um ui
Ġaps is
Ġp unk
Ġsus is
ĠÅ¡al yse
Ġm inÄĹ
Ġm iÅ¡
eli ui
ĠÅ¡ iemet
anÄįi ais
on a
Ġb ilie
i as
Ġsk ry
Ġistori jÄħ
ĠAn g
Ġne Å¾
Å¡k Äħ
c ep
iÅ¡k os
O N
ĠÅ¾ iniÅ³
Ä¯ s
ij amp
Ġm i
ĠÅ¡ l
Ġak is
V ar
Ġ www
Å« g
ĠuÅ¾d ar
Ġkain Äħ
m u
Ġrug pjÅ«Äįio
Ġtur ÄĹs
ĠA p
ĠVokie tijos
eis tas
rav o
et en
Ġpus ÄĹs
B uvo
Ġt enka
uo tÄĹs
Ġk ak
v eÅ¾
Ġpa ÄįiÅ³
Ġin te
Ġkam er
ĠJ o
Ġgr ieÅ¾
al yv
Ġprad ed
n es
Ġprival o
Ġpasirink imas
ĠÄ¯s ak
Ġpag r
Ġatvej ais
at us
ov Å³
Ġpak laus
Ġt virtin
Ġdaug uma
m i
Ġper sp
âĢ ¢
M ed
P asi
ing us
ov iÅ³
f or
Ġr au
in ame
ad as
ci on
ens yv
in ÄĹms
Ġp uoÅ¡
Ġb ro
av imui
Ð¾ Ð
ĠrÅ« gÅ¡
aj ame
ĠiÅ¡l aid
Ġpris ijung
2 7
âĢ¦ ]
d i
Ġm a
Ġtarp u
2 8
ut ÄĻ
eg istr
tim Å³
Åłi os
Ġuni k
Ġkuri uose
Ġk andid
Ġra k
Ġgr ind
Ġtau tos
Ġpr ar
g ar
me Äįio
Vilni aus
Ġg avo
Ġg e
ĠbÅ«kl ÄĹs
ĠÅ¡e ima
Ġsprend imas
Ġmok iniÅ³
= =
ĠieÅ¡k oti
ĠÄ¯v yko
Ġkv alifik
Ġsk elbi
al aus
ri Å³
Ġbendr ovÄĹs
Ġpa ties
yr us
ieri us
ĠiÅ¡s il
n oj
ti pr
ĠK in
ĠL t
Ġm e
ut es
ykl a
uod ami
usi as
Ġmin uÄįiÅ³
Ġtarn ybos
ĠM o
Ġpasir uoÅ¡
uo m
Ġmokes ÄįiÅ³
ĠJ us
d e
ÄĹ tai
emok r
yb oje
ĠA k
Ġpok alb
Ġpamat yti
Ġs ilp
ta bi
b in
Ġv estuv
Ġknyg a
v ed
Ġtik ras
P ak
Ġsk ub
V I
Ġpir Å¡
An t
yp s
tu kas
Daug iau
Ġm Äħst
ĠJ uoz
toj us
Ġpat enk
Ġdalyk Å³
Ġstud ij
ĠÅ¾mog ui
Ġak c
M ar
tor ÄĹ
av imai
Ġst engi
Ġat Å¡
Ġknyg Å³
Ġsav an
ki a
kur s
to k
Ġsut eiki
Ġprofesi onal
uoj asi
Ġtar i
ĠI tal
Ġtoki Äħ
Ġmeil ÄĹs
ĠS t
2 9
ĠreÅ¾ is
ĠvaldÅ¾i os
Ġmok ymo
Ġnuo Å¡
Å ²
Ġes ant
Ġats par
Ġdvi ra
Ġprog a
Ġpinig us
Ġnuos tab
Ġdis kus
ti z
K ol
uo liÅ³
Ġgalim ybÄĹs
Ġj ame
iÅ³ sti
Ġvie tas
gi u
Åł Ä¯
Ġs n
Ġsus ir
ul p
Ġaps ilank
Ġpirm a
Ġp aukÅ¡
ov in
om Äħ
ti on
yb ÄĹje
k ar
Ġpri va
im os
Ġlauk o
V ÄĹliau
tik Äħ
eli ais
ĠkaÅ¾ kÄħ
Ġm eis
Ġli ud
i Äħ
ĠsÄĹkm ingai
Ġger as
Ġl ed
Ġbr and
Ġpov eik
ie st
gi ant
Ġpra b
ĠpradÅ¾i Å³
Ġspalv Å³
ÄĹ ra
Ġplauk Å³
Ġdraud imo
Ġteat ro
Ġsvarb us
Ġ 000
D id
Ġskirting Å³
ĠT el
Ġsprend imÄħ
Ġk ul
ĠÅ¡ird ies
Ġfil osof
Ġfutbol o
ĠsÄħlyg as
Ġ19 7
yn ÄĹ
ĠN e
Ġkoki os
ĠiÅ¡ p
Ġdaug elis
aug o
p ag
Ġlygi o
Ġor gan
Ġres toran
kai tos
Ġkrauj o
Ġpasirod ÄĹ
Ġpoil si
Ġr audon
Ġnaudoj amas
ys t
ĠR ad
Ġmok iniai
T o
Ġtarp us
j us
Ġnet eis
ap on
ta cijos
Ġinternet e
Ġkas met
Ġap im
Ġnauj ien
ausi u
aus ti
g ub
Ġm inkÅ¡
Ġper si
av us
ĠÅ¡al is
Ġtechnolog ijÅ³
ĠkrepÅ¡ inio
Ġ ok
Ġred ak
Ġst alo
K ur
in imu
en Äħ
Ġmik ro
Ġpad al
Ġnep am
aÅ¾ o
li ams
Ġrink os
O R
Ġsu mok
tos ios
Ġproblem a
Ġsaul ÄĹs
Ġ201 2
ĠÅ¡ var
Ġk ir
k is
Ġd ÄĹv
Ġvasar Äħ
K Äħ
Ġt he
Ġn ul
Ġpat Ä¯
b r
Ġsp ektak
Ġp vz
Äįi Äħ
od ami
A U
II I
im osi
Ġprasid ÄĹjo
t h
y site
g im
Ġgr ÄħÅ¾
ÄĹ kl
ĠiÅ¡r ink
ĠÅ¾urn alis
Ġ201 3
ð Ł
ĠVilk aviÅ¡kio
__ __
Ġtur in
Ġvys t
Ġnaudo tis
Ġ( âĢŀ
Ġpasid al
Ġdid elÄĹ
ai r
Ġ8 0
Ġdirb o
Ġn ukr
j ame
y tus
Ġpap uoÅ¡
eri ja
Ġk g
Ġ anti
Ġtoki us
aug os
ni us
ã ģ
Ġdalyv iai
Ġv it
Ġorganiz acijos
3 5
l Ä¯
ĠJ Å«s
Ġpat inka
Ġduomen imis
ting as
ĠÅ¾inias kl
Ġnei gi
in ÄĻs
ĠÄ¯mon ÄĹ
Ġman au
ĠÅ¡i ais
yk liÅ³
Ġr ep
Ġdaug i
Ġbr ang
ĠnebÅ« tÅ³
n uo
Ġb aigi
er Ä¯
Ġsav imi
ĠtÄĹv Å³
Ġv on
Ġti l
Ġfo to
Ġ Äįi
Ġpirm ininkas
Ġpriemon es
Ġ ep
Ġv eis
B Å«
ant ai
Ġasmen ys
ov a
te p
tys e
Ġv yriaus
Ġspeci ali
av ÄĹ
Ġger Äħ
Ġd el
Ġger os
Ġag ent
ĠV ieÅ¡
ol ÄĹ
Ġlig os
I T
J Å³
uni k
Ġem o
av imu
Ġki auÅ¡
ĠPal aidinÄĹs
kait ant
Ġvis uomet
ab ej
Ġpapil d
oj imÅ³
aid a
ĠÄ¯si pareig
or e
amas is
Ġr emi
ri us
ĠA us
Ġmar Å¡
Ġtarpus av
Ġpar amos
aud os
Ġti r
Ġs ienos
Ġsvetain ÄĹje
Ġrud en
em a
Ġkiekvien o
Ġes ate
uo ÄįiÅ³
Ġpask ut
Ġspalv a
Ġvar g
P a
tom s
Ġreikalav imus
Ġk eisti
Ġr eiki
Ġvyk dom
S us
l am
Ġkok Ä¯
Å¾i ais
Ġver ta
y Å¡
o ok
Ġpasak ojo
Ġmoksl Å³
ĠÄ¯k v
ĠiÅ¡g yven
Ġkalb ÄĹti
. ),
Ġpasik ei
Ġpag eid
Ġint ensyv
Ġprojek tÅ³
Ġat as
Ġv el
Ġas muo
Ġe ki
ĠÅ¾vaigÅ¾ d
ĠA lg
D r
anÄįi a
Ġpirm asis
Ġprie tais
Ġkreip tis
ĠÄ¯gyvend inti
vil g
Ġs tai
y zd
ti r
ĠsÄħjung os
is ti
ĠdaÅ¾ni au
Ġsav ÄĻs
ĠÄ¯ tar
Ġd uk
uo kite
Ġatsir anda
Ġvalst ybiÅ³
eng v
ĠAmeri kos
ĠiÅ¡ man
as ak
ang Äħ
E s
Ġg il
ĠtÄĹ vai
ĠK at
ĠlÄĹÅ¡ Å³
Ġform a
Ġsvarb iausia
Ġmedic inos
Ġparti z
ĠmedÅ¾i o
Ġfil m
Ġpa aug
ĠiÅ¡s k
I K
yb ei
Ġpl a
ar anki
v yd
eik ÄĹ
y Å¾
Ġklub o
met Ä¯
ei pi
Ġ eiti
Ġdr us
Ġrankov ÄĹmis
Ġmir ties
Ġpri ÄĹm
Ġtink amai
Ġmokykl Å³
i Å¡ki
Ġpatal p
Ġgimnaz ijos
Ġab s
Ġpoli tikos
Ġpri v
ik Äħ
Ġpak r
Ġmod erni
ĠsuÅ¾ ino
ail a
Ġstraip snio
Ġat Å¾
Ġkon tak
s to
avi Äįius
Ġdarbuotoj ai
men Ä¯
ĠS i
Ġop tim
Ġ( "
Ġl eg
Åł ie
iÅ¡k Å³
ĠT eis
Ġkei Äįi
Ġlengv iau
ĠraÅ¡ o
Ġnor int
ĠvarÅ¾ yb
Ġpam ink
Ġch ar
Ġbank o
ing u
Ġ[ âĢ¦]
Ġinform ac
K odÄĹl
tum Äħ
Ġmon t
s e
Ġgal o
Ġkons ul
ki t
Ġatsirad o
am inti
Ġn agr
Ġm ÄĹlyn
av ÄĻ
ĠkaÅ¾ kas
ĠL T
Ġat kreip
Ġprie d
Ġ *
Ġsut eikti
C h
Ġb ur
oj u
eri u
t Å«ra
V id
Ġger o
Ġmoter ys
Ġnam ai
Ġb erni
E l
Ġinter jer
Ġver tÄĹ
Ġgyd ymo
Ġnaudoj ant
Ġfesti v
Ġlig Å³
Ġk yla
ik s
ĠtaÅ¡k Å³
ys is
ori o
Ġsk an
Ġli aud
ĠiÅ¡ kil
Ġt uÅ¡
ta Å¾
ĠB ar
yd avo
Å¡k Å³
aks im
ĠiÅ¡s is
ĠM ed
Ġpus ÄĹje
Ġ ÄĹmÄĹ
Ġrank Å³
Ġkompiu ter
Ġteis mo
at or
et er
ĠÄ¯g Å«
Ġd iev
Ġ aus
Ġvys kup
Ġof ici
Ġfesti val
Ġdalyk as
Ġvien i
arb a
Ġki Å¡
Ġdaug iausia
Ġpar ap
ti c
n t
Ġ19 6
Ġ and
Ġper t
Ġmokykl Äħ
Ġm it
Ġporeiki us
Ġsi gn
ĠÅ¾mog Å³
Ġrei Å¡k
Ġveid o
ov os
Ġnak tÄ¯
Ġbend ra
dÅ¾i a
Ġkr em
aun a
ĠI r
Ġp ur
Ġnegal ima
Ġsv arst
ĠIn d
ĠÅ¡vent ÄĹs
Ġpavad uotoj
ĠPanev ÄĹÅ¾io
c ik
Ġ201 1
im p
en ta
Ġj ais
Ġ3 5
p ek
Ġ19 5
Pas k
ĠiÅ¡ tek
inti es
Ġne to
Ġnuo rod
Ġkl ini
eri a
Ġkuri ais
ĠaukÅ¡ t
T am
Ġpirm iausia
Ġin Å¾in
ei Å¡kia
19 8
pr o
tÅ³ jÅ³
Kaun o
pr ÄĻsti
Ġtek st
Ġl auki
p u
Ġnustat yta
Ġvyr Å³
Ġd ÄĹk
ĠAn t
Ġtikr Å³jÅ³
ok ur
Ġklien tÅ³
Ġs tar
id ab
ĠuÅ¾ raÅ¡
Ġdalyv iÅ³
Ġdv asi
Ġmin im
j au
yb ÄĹmis
Ġneat s
l og
Ġmo teri
Ġsk ys
Ġang lÅ³
ĠlÄĹk tuv
tin ti
ĠsÄħ n
Ġproblem as
yd Ä¯
am osios
Ġpov eiki
Ġ201 0
Ġb aim
Ġp ÄĹd
an tu
Ġvokie ÄįiÅ³
Ġvis oje
Å«r imo
ĠV er
J Å«s
Ġregi on
Ġgalim ybiÅ³
S avo
Ġrus Å³
Ġpav yzdÅ¾i
Ġh tt
Ġpar eng
l es
Ġpui kus
Ġp ig
ĠiÅ¡v engti
201 7
Ġeis mo
on os
N iek
m ui
Ä¯ sta
avi vald
ĠaukÅ¡ tos
Ġsk aid
anÄįi ai
ĠÅ¡ lap
Åł tai
ĠâĢ ĺ
inink us
Ġl ak
Ġnet ek
Ġlaik raÅ¡
ĠÄ¯staig Å³
id as
Ġsm ul
Ġpri tar
b e
Ġrink oje
ÄĹ tumÄĹte
ÄĹl ap
ĠÄ¯ manoma
as ti
auj ant
eg al
ĠT ur
Äħ Å¾in
ĠB aÅ¾ny
Ġp ens
ais ant
0 7
Ġknyg Äħ
ÄĹ gi
ed er
Ġlink sm
Ġpav yzd
ĠÅ¡iaur ÄĹs
ÄĹj ui
Ġm is
Ġtyr imo
Ġd ev
no t
ai ÄįiÅ³
Ġlaik Å³
Ġpask ui
Ġvid uje
u liÅ³
Ġnuos av
Ġleng va
Ġsupr ant
evi Äįiaus
Ġnaudoj ami
ĠneÅ¡ i
m ati
Gal ima
Ġspecialis tai
Å¡k o
ĠLietuv ai
3 3
Ġsprend imus
Ġbuv au
Ġsav aranki
Ġpri z
Ġsu Å¾in
Ġdokum entÅ³
Ġk av
i ausiÅ³
z ÄĹs
Ġb Å«r
Ġpam irÅ¡
ai tÄĹs
E D
Pr ojek
ki tÄĹs
ĠKal ÄĹd
yn Å³
G eri
ys ime
ĠM ok
Ġvien in
Ġkuri am
ĠÄ¯vertin ti
esni us
I X
al aik
ĠreikÅ¡ m
ĠpasiÅ«l yti
P ad
sni ai
9 9
Ġgatv ÄĹs
en ÄĹ
ĠK om
ĠÅ¾ino ti
Ġklaus imÄħ
Å½ em
Ġaktyv iai
ent ais
T au
ĠJ ÄĹz
n us
K eli
Ġh er
y ni
ĠG ed
ĠpradÅ¾i os
Ġpri ver
ĠK or
Ġpirk ti
Ġp ieno
ti fik
ÄĹ tume
ĠM on
S R
Ġs am
ĠprieÅ¾as ÄįiÅ³
Ġpas ek
Ġsun kiai
S ud
et ÄĹ
g ti
i aus
lik a
ting ai
Ġd ol
Ġ7 0
ĠiÅ¡g ir
ok as
S en
ĠÅ¾ vilg
Ġger b
pr ieÅ¡
yk sta
i ch
Ġliter atÅ«ros
ĠMar ijamp
Ġre cep
Ġsutar tÄ¯
Ġkontr oli
Pr is
Ġvis ame
Ġsti liaus
Ġreg ist
ra cija
Ġp ublik
Ġmiest Äħ
Ġk iem
Ġkalb Äħ
ĠpaieÅ¡k os
e in
Ġdek lar
vie timo
Ġm ama
ting a
in tÄħ
yn e
Ġpran cÅ«z
ĠsÄħ mon
atori aus
ĠM at
en tu
Ġpo Å¾iÅ«r
Ġap ar
ĠVakar Å³
inti ems
Ġte ori
Ġnel aim
0 5
eis ta
ter n
ĠÅ¡ven tÄĹ
am iesi
Ġtiesiog iai
Ġkom entar
ĠmÄĹn esio
Ġes mÄĹs
Ġskl yp
4 5
p ai
Ġkok ie
Ġvie tov
Ġti ems
ĠrÅ«p es
Ġteritori joje
Ġvand uo
Ġgali u
Ġkiek is
Ġpav ard
Ġ3 1
on ÄĹ
Ġturi u
acij ai
Ġp eri
ĠdÄĹ ka
ie tis
Ġanks to
Ġdi pl
ĠR ytÅ³
Ġre al
av ome
aus ko
ĠiÅ¡ ties
P rad
Ġp enki
Ġkom pozi
Ġmin tis
ĠP il
en z
P ir
Ġpat yr
u c
Ġgar so
Ġ ink
iÅ¡k o
Ġteig imu
Ġadministra c
Ġklas ik
ti l
ĠL e
Ġpriklaus om
ieri aus
g e
ĠmÄĹnes iÅ³
t es
en tÄĹ
tr Å«k
n ÄĹ
om etr
ĠP ag
ĠÄ¯st eig
ej us
Ġg an
3 9
ĠÅ¾ais ti
Ġ200 9
ĠuÅ¾si ÄĹm
Ġl a
f in
Ġsugr Ä¯Å¾
Ġpapras ta
evi Äį
Ġter m
Ġpas ieki
Ġvietos e
Ġautomobil Ä¯
Ġvard u
Ġok up
yb inÄĹs
Ġveiksm Å³
tiÅ¡k as
Å« Å¡
Ġb ui
Ġkompl eks
Ġgar si
Ġlaisv ÄĹs
ĠÅ¡ tai
ĠB er
Ġgyven o
M A
Ġkiekvien am
Ġats ilie
Ġpareig as
ÄĹj imÅ³
V akar
m m
ain iÅ³
Ġrezultat us
Ġug d
Ġsez ono
Ġsem inar
Ġb ul
Eur op
ame rik
v id
in amos
to no
jung ti
Ġek olog
sn Ä¯
An tr
Ġsv eÄįi
Ġkons ult
Ġd antÅ³
ĠplÄĹ tros
ĠK ur
ĠG al
ĠbaÅ¾ny Äįios
Ġdalyv auja
Ġpasak oja
Man au
Ġat gal
uoj antis
d os
I J
ĠuÅ¾s id
A not
in imÅ³
3 8
q u
apras tai
r ed
pal aid
Ġb esi
Kar tais
ĠuÅ¾s is
cij omis
Ġsm ulk
3 7
ys tÄĻ
Ġparduotuv ÄĹje
Ġreik ÄĹs
Ġkr ov
n eÅ¡
tim us
ik as
yn Äħ
auk ÄĹ
ĠpaÅ¡ to
Ġkons erv
Ġasmen ims
ĠrÅ«Å¡ iÅ³
ing umÄħ
ar k
ĠsusipaÅ¾ inti
Ġm om
Ġpan aik
Ġd ie
Ġj a
y tu
ĠpaÅ¡ tu
Ġpad ÄĹ
Ġtikr Äħ
Ġnuo ma
T he
Ġl eisti
Ġklaus imÅ³
Ġrink imÅ³
Ġil giau
Ġtr e
Ġnep asi
Ġstruk tÅ«r
ak teri
aus kaitÄĹ
tar us
Ġpriemon ÄĹ
vie tÄĹ
Ġsitu acija
Ġsuk Å«rÄĹ
Ġgr ÄĹs
ĠAl eks
Tuo met
ing umas
Ġbi ur
st yti
Ġm ini
Ġ200 8
Ġdizain o
! !
3 6
k ÄĹ
Ġnaudoj imo
Ġt end
ĠÄ¯r an
ytoj o
Å¡ al
Ġpatir ties
Ġproced Å«r
Ġkai mas
Ġskai ÄįiÅ³
Ġpaj amÅ³
Ġor ien
et os
ĠTr ump
Ġre form
oj imÄħ
D eja
o cial
At si
Ġrezultat Å³
ĠÄ¯staig os
ĠP er
Ġt ÄĻs
tr auki
aÅ¾ as
tik Å³
Ġnes i
aik o
Ġkai me
ym e
ĠX X
Ġkiek Ä¯
m is
t s
Ġp en
Ġpas p
ys tÄĹje
ã ĥ
u lio
ĠE UR
Vien a
m ed
Ġrod ik
Ġl ieka
a h
ĠdidÅ¾i ul
Ġk up
Be je
Ġnemok amai
e tikos
Ġatliek a
Ġministeri ja
ĠA f
ĠiÅ¡laik yti
Ġgar ant
Ġpavad inimas
Kiekvien as
int elis
v yk
tim is
et ÄĹs
ĠÅ¡i a
Ġsek m
ĠsumaÅ¾ inti
yt aus
Ġp uod
ÄĻ si
Lietuv oje
Ġkov os
ol as
uo to
Ġpasir Å«p
Ġpap asak
Ġp uol
al ap
O L
Ġati tinka
ĠD an
ĠuÅ¾tikr ina
Ð »
e Äįiai
Ġsu form
t yti
K alb
Ġdain Å³
Ġd aliÅ³
ĠM il
Ġbuv ÄĻs
ĠaiÅ¡k u
in imai
ri ai
Ġsm eg
Ġlietuv iai
Ġnuos tabi
Ġj oje
Ġveik ti
Ġprasid eda
ĠprieÅ¾as tis
ÄĹs ti
ĠÅ¾em ÄĹlap
Åł io
rad o
Ġkvie Äįia
ĠÅ¡i as
Ġr em
yg ard
au tis
inink u
Ġre ak
Ġbiblio tek
t ur
o to
ĠiÅ¡ vaizd
Ġnen ori
R e
Ġ amerik
Ġj uok
ÄĹd avo
g ali
an ai
ĠsÄħraÅ¡ Äħ
ĠgeleÅ¾ ink
Ġpav yko
Ġmok ytis
Ġvis ais
Ġkuo met
Ġp ul
ĠS en
ni k
Ġpabaig os
Ġministr as
Ġkat ali
im ÄĹs
Ġkonf lik
ĠB r
Ġst ri
Ġ3 6
ĠÄ¯tak os
Ġdi ag
n el
Ġm ig
Ġt eikia
Ġkoki Å³
Ġek s
ty ni
av usi
v eg
ĠÅłiau rÄĹs
Ġod Äħ
Pas tar
Ġsr au
Å«t ent
ĠN acional
ĠJ onas
ik ai
Ġr ami
g yven
Ġsen iai
Ġtai gi
L i
ÄĹj u
Ġspor tinink
aik yti
m es
Ġrezultat ai
ĠT ÄĹv
Ġpaskelb ÄĹ
ÄĹl ÄĻ
Ġvaik ui
tr Å³
Ġ4 5
Ġadministra cijos
al on
ĠsuÅ¾ino ti
Ġneto li
y ÄįiÅ³
201 6
t iniu
oki a
Ġsprend imo
Ġkar ali
li uose
Ġpran aÅ¡
Ġsus tipr
sti jos
Ġnus teb
Ġnem at
Ġmet rÅ³
Ġkoki Äħ
Ġpo Å¾iÅ«ri
sl o
Ġp om
us is
Ġapskri ties
ĠT arp
Ġprek es
Ġ5 00
Ġned aug
Ġats arg
Ġvis ur
N er
ĠS v
Ġtrup utÄ¯
Ã ©
kiri a
ur ti
Åł il
G yven
tadien io
ÄĹjus iÅ³
iÅ¡k u
Ġaug a
ĠA ukÅ¡
Ġsocial inÄĹs
ĠÅ¡vies os
Ġi z
Ġt ams
ĠkrikÅ¡Äįi on
Ġlaim ÄĹjo
Ġg ir
Ġatlik o
Ġnuo d
Ġklaus imais
Äįi oje
ult Å«ros
Ġv a
ĠÄ¯r angos
Ġtechnolog ijos
Ġvyr ai
ĠieÅ¡k o
uo liai
um is
Ġau torius
Ġsusis iek
Ġatei tyje
l ov
ĠsÄħlyg os
Ġgim ÄĹ
Ġvid u
At s
Ġnel abai
19 7
Ġmies tÅ³
kil noj
trauk ÄĹ
Ġatsi tik
Ġbal t
Ġkomis ijos
Ġnes us
ÄĹk mÄĹs
Ġproces as
Ġpab rÄĹÅ¾
B Å«tent
Ġklub as
acij oje
Ġaud i
Ġg elb
Ġmuzik a
al Å«s
tim ai
ĠL ond
ik Å³
Ġpatir tÄ¯
Ġsud er
ĠbÅ«d avo
Ġnes eniai
ĠK omis
c es
h er
A m
Ġef ek
Ġgeri ausia
toj i
Ġdefek tÅ³
ĠmÄĹnesi us
ĠVyriaus ybÄĹs
Ġasoci acijos
tuv ai
Ġdid elÄ¯
Ġc ik
Ġsri ties
ĠKon stitu
j or
Ġv i
sk is
Ġap ygard
ac k
Ġpal aid
Ġdid elÄĹs
Ġ9 0
Ġpan audoj
rav imas
Ġsk ulp
Ġspr ÄĻsti
Ġsal d
Ġgro Å¾io
Ġmar Å¡k
Ġtelef onu
k ad
Ġvakar Äħ
Ġpr okur
ĠÅłv en
Ġod a
an e
Ġai Å¡kiai
Åł iau
5 5
uoj am
Ġb ran
Ġpavel do
Ġdu jÅ³
Ġ on
ni ausiai
Ġsvetain ÄĹs
Ġb ri
Ġsprend imÅ³
Ġlaikotar piu
Ġlais val
Ġbaig ÄĹ
Ġp ol
Ġapskri tai
te bi
Ġs eri
bi li
au lius
ĠÅ¡al Ä¯
Ġap klaus
Ġgr and
Ġmok ÄĹti
Ġt ep
Åł v
ag u
Ġgeri ausiai
Ġs erg
A uto
Ġaug alÅ³
Ġnuomon e
Ġatas kai
ĠD Å¾
ĠA s
ĠÄ¯si vaizd
Ġvyk st
Ġjoki os
Ġkunig aikÅ¡
Ġnauj i
Ġgar anti
Ġsu Å¡
Ġjoki o
Ġb ais
I V
es u
Ġf ond
Ġv am
0 9
Ġatliek Å³
Ġgyv Å«nÅ³
ÄĹj imus
uv os
ĠsÄħlyg omis
ĠPr ezid
Ġb ase
3 4
Ġi t
im en
engi a
Ġl av
Ap s
in antis
1 00
usiÅ³ jÅ³
c ar
b al
ĠO r
Ġsub jek
Ġdokum entus
Ġsta tis
ĠT V
Ġgra Å¾iai
Ġnori u
Ġsitu acijÄħ
Ġpagrind inis
eik Å¡
K al
Ġdail ÄĹs
et u
Ġreik ÄĹjo
Ġkok ybÄĻ
Ġantr Äħ
Ġsteb uk
P ap
et us
Ġskiri asi
ÄĹj osi
0 6
Ġlaik yti
Ġ ur
Å½ al
or tas
auk ti
Ġlenk Å³
Ġkomp ens
Ġgeri ausias
Ġ3 00
O M
Ġm aksim
Ġne abej
yb iniÅ³
V M
Ġbl ok
Ġpab ÄĹg
Ġpatir tis
ĠÅłv ed
Sv arb
Ġtur bÅ«t
ĠE d
Å¾i au
Ġsal ÄĹje
Ġt ra
Ġvyk dyti
Ġpri r
Ġst eng
Ġdid elio
ĠI sp
Ġeil ÄĹs
n ies
Ġnug alÄĹ
Ġnusprend ÄĹ
Ġsez onÄħ
v iÅ³
ÄĹ tina
Ġgatv ÄĹje
Ġdal ys
Ġn aÅ¡
ab l
Ġdur Å³
tas is
ov ai
is tai
ĠpaÅ¾ Ä¯st
ĠmiÅ¡k o
Ġs erv
ien a
ij au
ĠaÅ¡ tuo
Ġket ur
Ġv ag
ov e
Ġgyv Å«n
Ġnauj us
ĠÅ¡ yps
il g
tel k
ÄĹj imu
Ġnepam irÅ¡
Ġrank as
Ġteleviz ijos
Ġvien am
Ġsutar tis
Toki u
Ġekonom ikos
Å¡k us
uod u
Ġreikal ingas
Ġveik s
P S
T eis
T re
Ġpad ÄĹjo
alb Å«t
l an
Ġ200 7
Ġdv iem
3 1
oj us
D arb
Ġman ÄĻs
Ġin ov
y ra
Ġproblem os
D ydis
Ġpareig Å«nai
Ġvalst ybÄĹ
ĠÅ¡ oki
rad ien
Ġk ÄĹl
Ġpersp ektyv
ev oliu
Ġto li
tern atyv
T oks
ĠatÅ¾ vil
in ÄĹjo
Ġver tÄĹs
Ġvaland Å³
Ġsanty kius
i asi
Ġpral aim
Ġprem jer
tik ai
Ġdvi gub
S usi
y to
Ġplo tis
ĠAng li
Ġt ave
t ÄĹj
S t
n u
Ġkeli a
Ġproduk tus
Ġ amb
Ġd emon
Ġpap l
Ġp ÄĹs
Ġ eg
eik al
ĠÅ¾aid imÅ³
Ġl o
yk s
Ġsut vark
Ġaplink Äħ
Ġati tik
Ġvanden Ä¯
ĠÅ¡i aip
ĠneÄ¯ manoma
id r
t ÄĻs
ĠpaÄįi Äħ
ĠTau ragÄĹs
ĠÅ¡im t
ov ÄĻ
vi u
as ad
Ġpar lamen
m iÅ³
Ġpo bÅ«
Ġpagrind iniÅ³
" )
Ġgal u
ie p
Ġp aim
ĠM an
Ġprojek t
Ġdirek toriaus
ĠiÅ¡k art
Ġdur is
Ġkoki o
E K
ri Å¡
Ġtap s
Ki ta
Ġe ina
Ġregi ono
t v
ĠÅ¾mon ÄĹmis
el g
Ġnes k
ĠK i
Ð º
ĠÄ¯vairi us
Ġprezid entas
ai Äįio
Ġtik ra
Ġkar al
Ġsus il
Ġpask at
d eÅ¡imt
Ġt eikti
y li
P irk
v arbu
Ġpar ink
ĠLatv ijos
am ino
Ġgeri ausiÅ³
y siu
Ġ avi
Ġsus tab
Ġpagalb Äħ
uo kl
ĠKr is
uri d
Ġsukn elÄĹ
Ġdepartamen to
k et
uk ais
ĠpasiÅ¾ym i
U AB
ÄĹ tos
li g
Ġnes ug
Ġapib Å«d
Ġklas iÅ³
Ġprek yba
0 4
V asar
tel ÄĻ
ĠÄ¯kv ÄĹp
Ġparod a
is o
ĠB e
T I
Ġkontr olÄĹs
uri o
Ġsuk elia
tel ek
sp ek
Ġas pek
Ġgal e
19 6
ĠM ind
on g
Ġp ien
Ġvien od
Ġsudar ÄĹ
il d
Ġlenk tyn
0 3
Ġform Äħ
Ġsanty kiÅ³
Ġf irm
uk s
ĠR om
ac eb
om in
Ġpus ÄĹ
Ġlig a
Ġup ÄĹs
Ġper nai
R A
Ġpadar ÄĹ
z ÄĹ
h t
ÄįiÅ« tÄĹ
Ġtechni kos
Ġrez erv
in ÄĹja
ĠD aug
Ġsavai tÄĹs
ĠvaldÅ¾i a
Ġdaug elio
Ġkom unik
Ġspecialis tÅ³
uk u
ĠÅ¾aid imas
Åłi ame
ĠÅ¡v el
Ġproduk tai
Ġt es
Ġakim ir
p Å¡
Ġsukur tas
Ġp usi
Ġkomp eten
Ġgalv Äħ
Ġreikal inga
Ġsistem Å³
ĠVytau to
v as
ĠÄ¯s kaitant
Ġb aud
Ġtechni ka
Ġh i
O r
om b
f as
Ġgaun a
ak tar
Ġbendr ovÄĹ
ton as
Ġstov ykl
s amb
Kl aipÄĹd
sni u
ĠatÅ¾vil giu
Ġpaskol os
Ġatr ank
Ġprim ena
ĠR am
Ġnen us
Ġv ok
o og
Ġp uos
T uri
Ġkv ÄĹp
Ġpastat o
Ġprog noz
Ġpasiek ÄĹ
em un
Ġpristat ÄĹ
Ġpas im
Ġkelion ÄĻ
S av
Ġsutar ties
uod ama
Ġdek or
Ġkos ti
Vis kas
Ġkil mÄĹs
Ġteis es
ĠdidÅ¾i ausias
Ġautomobil is
Sv eik
R eng
Ġteritori jos
Ġkomp anijos
T en
Ġvien oje
Ġparod ÄĹ
Ġa kiÅ³
ini ui
ĠR e
Ġtyr imai
Ġkitos e
Ġtais ykliÅ³
Ġ3 8
Äįi uose
Ġplas tik
ĠP irm
0 8
lo at
g l
or tu
Ġkap it
k oje
201 5
ar aÅ¡
Ġskat ina
Ġstri uk
K et
Ġnen or
esn es
Ġ ed
Ġdis k
Ġkambar io
Ġsk yr
Ġnaudoj ama
ri a
Ġpo ten
Ġkonkur so
or din
ĠuÅ¾d eg
ak tyv
ĠMas kv
aud o
ĠK an
ĠiÅ¡k ov
Ġvanden iu
ĠÅ¾aid imo
Pr an
ĠÄ¯vairi as
Ġs ÄĹkl
Ġdaug ybÄĻ
Ġner etai
Ġpav er
in au
Ġpram onÄĹs
Ġj ungi
ĠA z
Ġvarto tojÅ³
Ġmuziej us
te to
Ġpop ie
Ġg ul
Ġgen er
Ġpalik ti
ĠÅ¾od Å¾iÅ³
tiÅ¡k a
Ġpasi p
ĠÅ¾yd Å³
Ġties a
Ä Ħ
Ġsvarb iausi
ĠÅ½em ÄĹs
Ġp ili
Ġnep aÅ¾
ov imo
en cija
ĠE n
on ui
a x
Ġkal end
au kite
ĠiÅ¡ im
Ġtoki as
Ġbendr Äħ
Ġskait yti
Val st
ie l
fik s
Ġstik l
Ġalko ho
S m
Ġsri tis
ek omend
J Å«sÅ³
eiv iai
Ġatsp ind
ĠÄ¯tak Äħ
Ġvaland Äħ
Ġgr oÅ¾
ent ÄĹs
ĠÅ¾in omas
Ġte b
or Å³
Ġbuv usi
Ġdet al
ar io
Ġnereik al
L ab
Ġmoter ims
Ġvar das
Ġli Å«d
Ġteis ÄĹ
Ġtap at
ĠpraneÅ¡ ÄĹ
In ter
Ġatsilie p
Ġartim iausi
v os
men is
yn iÅ³
ang l
ĠÅ¾v ej
ĠuÅ¾ im
Ġfinans Å³
Ġvadov ÄĹ
Ġdraug Å³
ei vi
Ġnetr ukus
t ei
Ġm yg
â Ĥ¬
Ġpasaul is
ĠN ep
Ġliaud ies
in imus
Ġneb e
ĠV ai
G albÅ«t
Ġ200 0
Ġkr uo
str um
Ġr Å«k
ar e
Ġleg end
Ġauto mati
Åł iÅ³
Ġtyr imas
I D
pl ink
Ġpalyg inti
ausk ienÄĹ
ĠuÅ¾sien yje
sni us
Ġn ub
Ġministr o
ĠmarÅ¡ ru
an Äħ
S D
Ġgr Å«d
Ġp u
E k
Ġr and
ar ÄĹ
Ġr espublik
Ġap Å¾
Ġti pas
Ġsudar yti
Ġpor Äħ
Ġnep ad
Ġdid eliÅ³
Ġstat us
L T
ĠiÅ¡s irink
ĠÄ¯ trauk
Ġkat ed
ant Äħ
ĠuÅ¾d uotis
Ġpirm oji
ĠT ra
ĠuÅ¾ p
te ch
Ġsaug os
Ġk u
Ġsur eng
Ġdraug e
Ġser tifik
Ġsteb ÄĹti
Å¾in s
li av
ĠP at
ĠP ard
ĠuÅ¾ ÄĹmÄĹ
Ġpar aiÅ¡k
Ġmet al
Ġgr yn
Ġtemper atÅ«r
Ġ )
ĠbÅ« tin
Ġtemper atÅ«ra
Ġst ad
Ġ &
Ġsun aik
Å¾ o
ĠS m
Ġrink tinÄĹs
Vis a
ĠpaÅ¾ ad
ĠTar ybos
ĠD r
Ġpap raÅ¡
Pas ir
Ġauk s
ĠsÄħlyg Å³
Ġ( )
ĠtrÅ«k sta
R ug
oog le
Ġal ternatyv
Ġk avos
aik Å³
Ġsusij ÄĻ
Ġd ydÄ¯
Ġkariuomen ÄĹs
Ġpasi taik
Ġver tus
ĠU r
dom as
Ġab u
Ġremon tas
Ġkri teri
Ġvil k
Ġvis ko
Ġpirm ÄħjÄ¯
Ġnusi pirk
Ġnet ink
Ġre ag
Ġv eter
Ġstipri ai
Ġmerg ina
ĠJ apon
Ġh um
av osi
Ġpat ais
Ġes i
Ġim a
yd ama
Ġvaland as
S e
al Ä¯
Ġkeli u
ĠbÅ«d Å³
aj am
Ġs ank
amas i
ĠkiÅ¡ en
aj ai
ĠÅ¾mon a
tu kÄħ
ĠAl ytaus
ĠpasiÅ«l ymus
Ġs ap
Ġsocial iniÅ³
ĠPrancÅ«z ijos
Ġnaudoj a
R eikia
n Ä¯
dÅ¾i u
ĠKaun as
id o
Ġtvark ymo
Ġ ðŁ
Ġorganiz acijÅ³
Ġreikal auja
ĠVytau tas
ang as
Ġlyg os
IÅ¡ s
Ġaki vaizd
ĠKlaipÄĹd oje
aceb ook
Ġs e
Ġpra ÄĹjusi
Ġdr audÅ¾i
9 0
Ġkompan ija
V yr
Äįi as
L aik
Ġmet ams
: )
S uk
Ġnauj ai
N us
Ġn os
Ġatstov as
ĠÅ¾iem os
Ġkredi to
Ġt rak
Y paÄį
Ġry Å¡ki
K L
ĠmiÅ¡k Å³
Ġdid esnis
Ġuniversit ete
tem p
g ir
Ġet n
k es
Ġskir tos
J aun
i uose
19 5
Ġan samb
ar ch
Ġstr es
3 2
l ys
in usi
ite to
Ġsv orio
Ġki tomis
ĠiÅ¡sk yrus
Ġd ed
Ġrek on
Ġbald Å³
Ġin strum
vai zdÅ¾i
anÄįi am
Ġpag aliau
i am
Ġmuziej aus
Ġatrod ÄĹ
ĠKar al
Ġgrup iÅ³
Äįi ami
Ġpl aÄįiau
Ġpam inÄĹti
Ġn aik
Ġreng iniÅ³
ĠI z
ĠP ro
D Å¾i
Ġtiks liai
km erg
Ġrad ijo
ĠGed im
ĠneÅ¡ io
Ġsk on
Ġiz oli
tin ei
Ġatn eÅ¡
A s
Ġsant yk
ĠiÅ¡si aiÅ¡k
ĠâĢ ¦
Ġv nt
ĠmÄĹg sta
Ġpor tal
B end
t iniais
Ġar m
Ġil gio
Ġparod yti
Ġmoter s
ĠraÅ¡ yti
ĠP ietÅ³
Ġskait men
Ġ '
Ġin telek
Ġsiek ti
au tÅ³
el l
âĢ Ķ
Ġli p
Ġpasi baig
Ġkom un
oj ama
B A
Ġk au
ub il
Ġturi zmo
ĠTarp tau
Ġapylink ÄĹs
0 2
ri d
e ci
t avo
Pr ek
Ġr aid
ar n
Ġdaug ybÄĹ
h al
Ġgali ausiai
Ġ3 4
Ġrungtyn es
ori t
Ġnus il
ĠBal tarus
Ġeil ÄĹ
Ġpad ed
mos fer
av imus
ar ai
or os
DaÅ¾ niausiai
Ġpastat Å³
ĠbiudÅ¾ eto
iesi og
Ġnesu pr
Ġmechan iz
Ġdalyk us
ĠP irk
Ġdid elÄĻ
) :
Ġtink lo
ĠÄ¯sp Å«
Ġf ig
Ġvadin amas
Å«n a
Ġb ud
Ġnar Å¡
ĠbaÅ¾ny Äįia
Ġe tik
Ġperi od
k aip
Ġpos ÄĹd
Ġgrup ÄĹje
Ġkil o
Ġes Äħ
p vz
Ġprogr amÅ³
ĠS u
alv a
Ġrieb alÅ³
at ÄĹs
Ġdr Äħ
ĠraÅ¡ ÄĹ
A D
Ġgen eral
ĠÅ¾od Å¾ius
ti e
oj ame
ĠdÄĹs t
Ġobjek tÅ³
Ġsm ar
ki os
ĠA ud
Ġsukur ta
Ġskyri us
Ġpagrind inÄĹs
Ġtelef ono
G B
Ġtr au
Ġg ais
Pir mas
ten os
l av
Ġpoveik Ä¯
Ġm egz
v es
Ġap rib
Ġrezultat as
Ġnu Å¾ud
Ġb liz
ĠnÄĹ Å¡
ak yti
ĠP av
Ġkom iteto
Ġmokytoj Å³
Ġpr ev
Ġspeci aliai
Ġvien intelis
Ġko ordin
ĠÅ¡v eln
Ġkain uoja
Ġat min
Ġpoveiki o
Ġpirm as
Ġpagrind inÄĹ
ÄĹj imai
Ġdur ys
or ti
201 4
inink ÄĹs
gal Ä¯
ĠtÅ«kst anÄįiÅ³
ĠpobÅ« dÅ¾io
Ġdid eli
Ġat rasti
ras truk
Ġk ÄĹd
ĠS h
y si
eg a
Ġsm ur
Ġ ais
Ġkar tos
Ġf iks
Ġgam yba
Ġlaik rod
Ġpatik o
Ġr ieÅ¡
Ġpasak ÄĹ
Ġvard Äħ
Ġkalb Å³
N eb
en er
Ġl aÅ¡
v ys
Ġ15 0
P am
Ġeur op
ĠJ an
tinÄĹs e
Ġat ÄĹjo
Ġstud entÅ³
Ġauk lÄĹ
avivald ybÄĹs
Ġkil ometr
Ġvalg yti
7 5
tek s
ĠJ ur
and en
Ġkom it
Ġbendradarbi avimo
Ġvien uol
Ġarch yv
Ġsk aud
ist ams
Ġtr o
ij omis
Ġv ic
av imÅ³
Ġsu man
pr ÄĻs
Ġlauk e
Ġinstitu cijÅ³
esni u
Ġsv eÄįiÅ³
Ġeksp loat
Ġinte gr
Ġdom in
ĀĀĀĀĀĀĀĀ ĀĀĀĀĀĀĀĀ
Ġaplink a
B endr
Ġs tor
Ġparduotuv ÄĹs
201 3
Ġvertin imo
k aus
Ġkiekvien a
ĠÅ¾ av
Ġsveik atai
Ġmokytoj a
âĢľ )
Ġvaik ais
I O
Ġplat form
ĠP ak
Ġm ad
Ġpasin audoti
Ġval s
R aÅ¡
an os
uoj anÄįiÅ³
Ġruden Ä¯
Ġaplink oje
Ġsim b
ĠÅ¾iem Äħ
V ad
k ienÄĹ
st rak
ĠiÅ¡band yti
Ġn ag
ur s
Ġk aul
ĠÅ¡i ukÅ¡
Ġpo ra
Ġin spek
Ġ ~
ĠS im
t aip
im ato
Ġadminis tr
um b
Ġnuotrauk os
Ġne kilnoj
ĠÅ¾ini os
y Äįiau
Ġs idab
paÅ¾ ind
Ġs in
Ġat mosfer
Ġpak ar
Ġd aktar
cij oms
Ġak tÅ³
Ġ $
Ġsim bol
k on
Kar tu
u tis
Ġpad ÄĹk
ĠÅ¾od Å¾io
Ġtr as
Ġbibliote kos
Ġkult Å«ra
Ġinf rastruk
ol d
Ġkos me
Ġar g
Ġties iai
ĠÅ¡ aukÅ¡
Ġkonkr eÄįi
Ġki tu
ĠiÅ¡sil av
Ġpo Å¾ym
Ġpavasar Ä¯
ent ams
anÄįi oms
Ġper trauk
Ġalkoho lio
3 70
Ġfil mas
Ġprak tiÅ¡kai
Ġkel etas
ĠMarijamp olÄĹs
ĠÅ¾ ad
Ġaplank yti
ĠV i
Ġnep al
Ġaug al
v ÄĹs
ĠM al
Ġkit am
V ieÅ¡
Ġdaug iausiai
Ġsuk elti
ĠVokieti joje
ĠL a
. :
uoj anti
ieri Å³
Ġnepri klaus
ĠÅ¾od Å¾iai
inink ui
Ġsut aup
oj imus
ak as
Ġkoki us
Ġu n
Ġpar ko
d r
iÅ³ s
ĠUkrain os
Ġper Å¾iÅ«rÄĹti
Ġtau p
Ġat stat
Ġpristat yti
Ä® si
Ġid ÄĹja
ĠR im
Ġgamin tojÅ³
Ġstik lo
Ġatei ties
k op
E M
ĠDiev as
f f
or s
ĠV l
ĠsÅ«n us
Ġsm a
Ġhtt p
Ġap at
tin ÄĹmis
ÄĹd a
P A
Ġnor isi
Ġfil mo
b erg
Ġvid eo
eg ist
Ġpapl Å«d
tr ai
I L
ĠAleks and
Äħ sias
Ġkal tin
Ġpram on
Ġvien ame
Ġlaik ui
Ġed uk
Ġeksp on
oj imai
ar m
Ġm ados
Ġkontr ol
at au
Ġlab or
ÄĹsi u
uk ti
Ġprojek tus
I A
Ġpatir timi
Ġliter atÅ«r
Ġpri Å¾iÅ«r
ĠÄ¯dom u
Ġauk so
Ġkok ybÄĹ
K nyg
ÄĹd ama
ir dÅ¾iai
Ġilg a
P aÅ¾
Ġpras me
Ġpeln ÄĹ
Ġinf ek
ĠpradÅ¾i a
Ġat eina
ym ais
Ġvald yti
avi Äįiaus
ĠP o
v akar
Ġb okÅ¡
nel yg
4 4
Ġsk alb
Ġbend ras
ĠS al
Ġpris imin
ta cija
ĠÄ¯vairi os
T el
ĠS kaityti
Ġsti l
Ġpor eik
ĠeÅ¾er o
Ġfestiv alio
ĠbÅ« tinai
Ġtikri ausiai
tuv o
mo bi
aug a
Ġalko h
Ġegz amin
Å½ mog
Å¡k umo
d inti
Ġt y
ĠP etr
emok ra
ytoj a
K aina
Ġypat ingai
Ġnug al
O K
s ul
Ġpoilsi o
ĠÄ¯stat ymÅ³
Ġankst yv
Ġglob os
mok es
R us
Ġkod as
Ġkom erc
ÄĹj ais
ĠiÅ¡Å¡ Å«
Ġn a
Ġprogr amas
ins kas
am et
Ġr at
ĠN er
Ġsum a
In form
Vis os
T iesiog
Ġne ati
anÄįi ame
Ġl Å«k
ĠÅ¡i am
ĠP R
aÅ¾ u
Ġrekl amos
ĠÅ¡il dymo
Ġvir us
eiki Å³
ĠI II
ĠF r
Ġpapildom Å³
Ġsu paÅ¾ind
Ġreng inio
Ġb audÅ¾i
Ġj urid
er ti
idÅ¾i aug
Ġtvar kos
Ġsieki ama
ti ja
Ġsak yti
S T
ien io
Ġ3 7
ĠÅ¾enkl as
Ġats in
il o
Ġnuos to
Ġkain Å³
olog ija
Ġter ap
Ġat rad
Ġal yv
ĠÅ¡ au
ĠrÅ« b
ĠÄ¯reng ti
Ġsim p
Ġtink ami
Ġgin Äį
h i
Ġsup ra
Ġpapildom ai
Ġteis mas
te in
Ġnuomon ÄĻ
Ġd eb
Ġfil mÅ³
Ġr en
us tel
Ġsusid om
Ġbald ai
Ġpag aminti
ĠÅł al
Ġb aus
Ġsu rasti
6 5
Ġpriemon ÄĹmis
ĠuÅ¾ g
au to
ĠV ik
Ġmed vil
Ġ200 6
Ġt ÄĻsi
Ġpatal pÅ³
ÄĻs tu
Nor ÄĹdami
Ġdol eriÅ³
ĠX V
Ġtikr Å³
ãĤ¢ãĤ¢ ãĤ¢ãĤ¢
ĠÅ¡ okiÅ³
Ġkuri ai
em p
Ġpuos el
Ġin struk
Ġbu te
Ġlaip sniÅ³
K uo
Ġner v
tin Äħ
inink Äħ
ĠkÅ«r ybos
Ġbendr auti
Ġmeil ÄĹ
ti enÄĹ
Ġplo tas
ini Å¡kai
t vark
u te
e im
Ġdv id
Ġmod elis
Ġak s
Ġam Å¾in
is tat
Ġval ymo
Ġpasir eng
DaÅ¾ nai
Ġpa ki
Ġpaskir ties
ĠdidÅ¾i ausiÅ³
ori ai
is tas
Ġt ame
ÄĹl yje
ter ap
ĠneÅ¡i oj
Ġrekl am
Ġd ata
M erg
Ġmais tas
ard as
Ġleid o
ĠbÅ«d Äħ
ch em
Ġnukr eip
Ġpre ki
Ġ uog
Åł al
ting Äħ
Europ os
ĠiÅ¡ var
ik o
l in
Ġprezid ento
Ġdipl om
K at
Ġlaikotarp Ä¯
Ġdal imi
Ġgam inti
ri kos
Ġapg yvend
Ġim tis
Ġstat yb
6 8
ytoj ams
eri ais
ĠiÅ¡ tik
al inis
uo li
Ġreikalav imÅ³
Ġuniver s
L ap
Ġmed ienos
Åłi Äħ
Ġmo to
Ġmais tÄħ
au tas
ĠÅ¡eim oje
Ġpirk imo
Ġmir ÄĹ
ĠvieÅ¡ b
Ġnep ag
ĠlÅ«k es
Ġdalyk ai
Ġsvarbi ausiÅ³
Ġerdv ÄĹje
Ġval sti
ĠatsiÅ¾vel giant
Ġ3 2
Ġvald ybos
Ġb el
ĠÅ¾iÅ«r ÄĹti
t virtin
Ġfon do
Ġmag istr
Ġb urn
Ġvaid menÄ¯
ĠneÅ¾ ino
E su
Ġpasaul inio
Ġapib rÄĹÅ¾
j am
Ġdarb e
Ġreg uliar
p ir
ĠD ar
ĠÅ¾aid imai
Ġkod eks
Ġnegal ÄĹjo
ĠTrump os
Ġveiksm us
Ġpr ovin
ĠÅ¡vent ÄĻ
Ġj auk
o tÅ³
al s
Ġsri tyse
ĠmaÅ¾ as
Å«ri o
Ġl au
Å« Å¾
ykl ÄĹs
Ġilg Äħ
t enka
Ġkon d
Si Å«l
Ġtink amÄħ
Ġpagrind u
ĠIn ter
c a
Ġc er
aul ÄĹs
Ġap ima
ĠG er
ĠuÅ¾ fiks
ĠT ai
ausi te
ĠdÅ¾i ug
Ġpali ko
eid imo
tr Äħ
in tar
Ġadres u
Ġspeci aliz
Ġproces Äħ
ov Äħ
ĠK as
Ġid ÄĹjÅ³
om p
Ġgr ÄħÅ¾in
ÄĹjus Ä¯
A ukÅ¡
Ġh a
Ġes m
z o
l er
aik ÄĹ
Ġtiksl Å³
Ġkit ur
Ġpir men
Gr ei
Ġtaisykl es
Ġproces o
ar yti
Ġpasi v
9 5
Ġrank a
Å¡ to
Ġat paÅ¾
A tr
Ġvarto ti
N aud
F il
ri klausom
Ġatsisak yti
ĠÄ¯ pro
Ġol imp
Ġatkreip ti
Ġlaik omas
a Äį
ĠiÅ¡d ÄĹs
in to
Ġpakr ant
li j
eik Å¡ti
el ÄĹmis
Å½ monÄĹs
Å« m
ĠrÅ« mÅ³
av iÅ¡k
ĠpareiÅ¡k ÄĹ
Ġsanty kiai
Ġvaik Äħ
ÄĹl es
Ġvyr o
ĠÄ¯vair Å«s
Ġper nelyg
Ġatv ejÅ³
ĠuÅ¾d av
Ġinstitu to
Ġspaud os
Ġmet alo
ĠpaÅ¡al inti
Ġpalaik yti
ki jos
E C
ien Å³
yÅ¾i aus
Ġnaudoj amos
Ġvadov ai
Ġpas kai
ĠC entr
ali as
Ġdaug elÄ¯
yn ai
Ġmerg inos
Ġid ÄĹjos
Ġkomis ija
Ġgyven tojams
orti men
Ġnak v
Ġkomand Äħ
Ġlaim ÄĹ
in osi
Ġk ank
Ġatsak yti
Ġk ati
Ġpers onal
ori aus
Ġsavivald ybiÅ³
Ġk uk
tik as
ar mon
aikÅ¡ Äįi
Ġtinkl alap
tr al
Ġpirm ÄħjÄħ
Ġkur o
b et
Ġkelion iÅ³
ĠD on
AT O
T U
Å¾ ini
N audoj
tu k
tr aukia
Ġvadin ama
vi li
Ġav ar
A C
Ġatv yko
ĠÄ¯ l
Ġsien Å³
V ie
anÄįi omis
Ġmin utes
Ġ200 4
v aÅ¾i
am ais
ĠpaÅ¾ as
im naz
Ġd es
pi a
Ġsve Äįiai
Ġstat yti
Ġtarn yba
Ġpab and
Daug elis
i Å¡kio
Ġpas au
---- ----
Ġem ig
Ġnuotrauk as
Ġar om
ĠuÅ¾d irb
ĠpaplÅ«d im
at ÄĹ
Ġvais iÅ³
Ġpral eisti
Ġpap li
k eviÄįius
ĠÅł i
inink ais
Ġgim imo
ĠprieÅ¡ tar
Ġsilp n
k ime
Ġs li
Ġk a
S tr
ĠaukÅ¡ Äįio
ĠdÅ¾iaug sm
Ġ200 5
Ġapsaug oti
ag a
to liau
Ġarg um
ĠvarÅ¾yb ose
ie tiÅ¡k
Ġform ul
in ter
Ġant ra
Ġmerg ait
Ġsavivald ybÄĹ
Ġag res
un ka
Ġnor ÄĹtÅ³
gi a
Ġpriek Ä¯
Ġtik ÄĹtis
tuv ÄĹs
Ġbendruomen ÄĹ
ĠsÄħ vok
ĠuÅ¾ baig
Ġpoli tika
Ġsulauk ÄĹ
ĠvarÅ¾ ybÅ³
Ġmat eri
ĠP u
ĠÅ¾ym iai
Ġplan Äħ
am etr
Ġmeil ÄĻ
ik lis
Ġorganiz acija
? âĢľ
ĠdeÅ¡imt me
Ġlang ai
Ġdvar o
oj Å«
Ġband o
Ġgali a
Vis Å³
Ġsistem oje
Ġ Ã
ĠvirÅ¡ Å«n
Ġpo ez
it h
Ġgrei Äįiausiai
ie tÄĹ
ĠNor veg
ai ni
im ybÄĹ
Ġapsaug a
Ġstog o
Ġtri ukÅ¡
Ġr u
ind ami
Ġtro Å¡k
ĠpaÄįi am
Ġskl and
P il
ĠA B
Ġgra f
Ġabej o
ĠpanaÅ¡ iai
4 8
ĠA uto
yn ÄĻ
mat avimai
Ġs ÄĹkmÄĹs
Åłi oje
K vie
ĠÄ¯d ieg
ti ems
Ġdaik tÅ³
ĠiÅ¡l ieka
ĠÅ¾od is
Ġnuotrauk Å³
Vilni us
Ġvartoj imo
al l
Ġh ig
T O
Ġspind uli
Ġgrei t
Ġnor ÄĹjo
ĠR o
Ġpateiki ami
Ġlaisv ÄĻ
D alyv
p ad
Ġst eig
6 7
Ġnepak ank
od amas
Ġpal engv
Ġvit amin
Ġcukr aus
Ġlyg Ä¯
Ġau tori
Ġvyri ausi
Ġpinig ai
radien Ä¯
Ġsimp tom
Ġgeri ausiÄħ
am oji
ĠprieÅ¾i Å«ra
Ġl Äħst
Ġvaik u
Ġdid esnÄĹ
Ġeksper im
Ġpask yr
Pan aÅ¡
Ġre aliz
T yr
Lietuv a
Ġdarb ui
d u
Ġvirtuv ÄĹs
Ġp yk
ÄįiÅ³ jÅ³
av er
on t
Ġnar ko
ori z
M ies
Ġgali os
ĠaukÅ¡ to
Ġriz ikos
Ġ ÄĹm
lam ent
Ġklien tams
Ġdain os
Ġsu per
Ġskir tÄħ
usi u
Ġsu pl
am ieji
i ur
Ġpri gim
Ġnumat yta
Ġr oÅ¾
gi rio
ĠpaÅ¾ inti
c er
ĠÄ¯k Å«r
ies Äįio
Ġry tÄħ
Ġatsi palaid
ĠaukÅ¡ tis
Ġp ietÅ³
Ġmokytoj ai
.... ....
Ġpal yd
Ġseks ual
ing ais
Ġpadid inti
um e
ÄĹ tum
Ġnep er
Ġpan audoti
Ġm ak
Ġsug alv
ĠA i
Ġap k
Ġp ojÅ«
j ungi
Ġm Å«Å¡
Ġkoki u
adien io
Ġrungtyn iÅ³
Ñ ĥ
Ġr uoÅ¾
Ġf ail
A u
Ġviz i
Ġpriv at
ÄĹ lius
d ymas
Ġvais tÅ³
Ġkol on
ĠpaÅ¡ nek
Ġapygard os
Ġtrans li
ĠA ug
ĠiÅ¡v ad
Ġpak vies
r at
Ġas ortimen
Ġdaugi ab
Ġpristat ymo
Ġvadov o
Åł iemet
ĠdidÅ¾i ausia
ĠK ÄĹd
inink ystÄĹs
Ġpirm ojo
Ġj oms
ĠdÅ¾iaug s
ĠsudÄĹting a
Ġkv ep
Ġp iet
Ġremon to
Ġm aki
Ġkain as
Ġpil nai
** **
Ġnaud inga
p h
Ġpirm Å³jÅ³
Ġkeli ais
ov iz
Ġpapras tas
ĠvieÅ¡ ai
ĠryÅ¡ io
Ġpal Å«k
ep ar
Ġatstov Å³
Ġp et
ĠdÄĹm esys
Ġpirm osios
Ġpla Äįiai
Ġsu var
Ġsprend imai
Ġkr os
K aÅ¾
Ġlaik ytis
ĠÅ¾aid imÄħ
Ġpl y
ĠkÅ«n Äħ
Ġk aup
Ġkab in
ĠgrÄ¯Å¾ ti
ĠtÄĹv as
ĠiÅ¡mok ti
ard o
Ġpak ab
Ġ eig
uol is
ĠÄ¯s is
toj ui
ĠB l
ĠmÄĹs os
ÄĹj imui
Ġpriklaus ÄĹ
Ġkor pus
N em
Ġerdv ÄĹs
Ġsuk aup
Ġsto vi
Ġnor ime
eid ÄĹ
Ġketuri Å³
ist aus
s tÅ³
Ġpar em
ĠaukÅ¡ Äįiau
pj aus
Ġauto mat
ting Å³
in anÄįiÅ³
Ġr etai
Ġparod os
Ġreng inys
te liai
ĠÄįempion ato
P oli
il as
Ġdr Äħs
ac inÄĹs
Ġnaud os
ĠsiÅ«l ome
Ġnu Å¡
Ġsum aiÅ¡
Å« ti
ĠÅ¡e imai
anÄįi oje
ra b
ov i
T A
um uli
ĠE g
eviÄį ienÄĹ
Äħ mon
Ġvie toj
Ġinvesti cijÅ³
Ġav al
ĠgraÅ¾ us
Ġprie Å¾iÅ«r
Ġenerg etikos
l ine
ÄĹ tinai
Ġl Å«p
Ġs an
ov er
ĠÅ¾em iau
Ġde bi
oj ant
ĠD i
ri u
Ġlygi ai
Ġdrabu Å¾iÅ³
S kir
l op
Ġl en
E B
Ġstengi asi
Daug uma
Ġsocial inio
Ġn af
Ġchar ak
d ino
ĠR ob
ĠRus ija
Ġger Å³
Ġkonkurs e
an ija
ĠU ni
ol e
z mas
ĠR as
ĠX IX
ĠjÄĹg Å³
Ġpavyzd ys
Ä® dom
ĠS tr
b od
Ġatostog Å³
ĠP ri
Ġistori joje
v yr
Ġgyven vie
A d
uotoj Å³
Ġdraug ai
Ġsos tinÄĹs
ain Å³
Ġenerg ija
Ġsk and
Ġform Å³
r is
Ġnuo mos
on uose
Ġpos ÄĹ
f il
Ġsud ÄĹti
ĠU kmerg
ĠmaÅ¾i ausiai
ĠÄ¯v eikti
Ki tas
ĠiÅ¡saug oti
usi am
Ġilg alaik
ĠÄ¯t am
Ġi lius
r d
ĠmaÅ¾ a
tori ja
ĠKin ijos
201 1
Ġlin ijos
Ġvisuomen ei
ĠB as
Ġveid rod
Ġv aliu
Ġatsakom ybÄĹs
Ġproc entÅ³
d irb
Ġsuk Å«r
ĠK ÄĻstu
ind amas
Ġpi giau
o zi
Å¡k is
ĠÄ¯gyvend inimo
D U
Ġpl ieno
Ġgydytoj as
Ġg ÄĹliÅ³
ĠiÅ¡ t
Ġpers on
Ġpersi k
Ġtyr imÄħ
uo tÄĹ
ĠV el
el ÄĹje
auj ama
Nor int
st Äħ
Ġtur g
Ġlais vai
Ġat kur
ĠK ultÅ«ros
ä ¸
201 2
Ġmokes Äįio
Ġadminis t
ĠG ar
ĠÄ¯ tik
ĠpripaÅ¾ inti
ĠEl ektr
d Äħ
Ġmok ÄĹjimo
Ġ ali
T Äħ
Ġti ki
Ġsk und
ÄĹs ime
Ġd emokr
Ġd ub
Ġkel yje
ori u
Ġfunk cija
Ġpa kil
ĠJ uod
ĠjÄĹg os
Ġlem ia
Ġsavait es
Ġsu tr
esni am
e at
ro b
o lio
ĠLietuv iÅ³
Ġatk Å«rimo
Ġt eÅ¡
Ġ5 5
] .
Ġperd irb
Ġkai r
Ilg is
Ġplauk us
Ġteis ingai
Ġniek ur
Ġv iÅ¡
Ġci tr
s as
raÅ¡ tis
Ġs tul
Ġarchitek tÅ«ros
T as
ar Äħ
ĠÅ¡i ai
b ur
Ġn ut
s tu
al inÄĹs
ĠÄ¯ traukti
lik os
Ġnes ud
Ġinstitu cijos
Ġtari ant
Ġdokum en
Ġb er
Ġeks kurs
Ġnetur ÄĹtÅ³
Ġelg tis
t eik
ali ais
Ġai Å¡ki
ins ime
Ġsu kil
ĠÄ¯t virtin
Ġli ber
Ġpro pag
ij imo
tim u
p av
ki ais
Ġprie sk
Sv arbu
Ġat ak
ĠÅ¡al tinis
ĠÅ¾ ud
Ġkelion ÄĹ
Ġsavivald ybÄĹje
ĠjauÄįi asi
Ġpard uoti
Ġsusij usi
uo tus
Ġrenk asi
ĠvarÅ¾ ybos
Ġrank os
Ġnesug eb
S ak
ek si
Ġfunk cijas
ek o
ĠU tenos
ĠiÅ¡ tir
teri o
Ġatskir ai
ai zd
Ġplan o
Ġknyg as
uk Å¡Äįi
Ġstud ijas
Ġmet as
Ġaug in
ĠP VM
ĠiÅ¡laid Å³
Ġprof il
9 8
K o
ĠÅ¡al dy
ykl oje
ĠValst ybÄĹs
Ġt uoj
ĠÄ¯vy kiÅ³
ĠP a
Ġmok ymosi
Ġb akteri
ĠA Å¡
l ÄĹp
ĠM ik
Ġst al
Ġkruo pÅ¡
Ġvidur yje
yb ar
ĠryÅ¡ iÅ³
Ġso ci
Vis gi
Ġjau ni
Ġtar yba
Ġlyg is
t uotas
om ÄĹs
Ġnuk ent
ĠkaÅ¾ kur
Ġatsp alv
Ġs erijos
Ġr aud
ausi ais
E O
Ġd oz
i Å«r
an is
Ġem oc
ÄĹ tÄħ
Ġpatvirtin o
Ġt oje
Ġpar ametr
ĠpadÄĹ tÄ¯
tin Å³
Ġtur intis
Ġpard avimo
t aus
Ġ ev
Ġkomp on
Ġd emokra
te d
Ġaliej us
Ġkompiuteri o
uoj antys
ĠprancÅ«z Å³
Ġgrind Å³
ĠA b
Ġci vi
Ġtink amas
Ġbran gi
ĠItal ijos
Ġrank omis
Ġrekomend uojama
Ġpr os
Ġpatek o
Ġorganiz mo
Äĸ S
ĠIz ra
Ġskyri uje
ĠKr et
Ġmil Å¾ini
Ġr et
Ġiniciatyv a
Ġpenk tadienÄ¯
Ġ6 5
ĠÄ¯ m
ĠS tat
Ġtarpusav yje
Ġ4 00
ĠpavirÅ¡ iaus
Ġsiek ÄĹ
Ġ7 5
tos e
Ġsmar kiai
Ġpast angÅ³
Ġkonc ent
ĠÅ¾od Å¾iais
Ġl op
ĠdidÅ¾i ausiÄħ
ĠvaÅ¾i uoti
Ġb ag
Ġpuslap yje
ĠaikÅ¡ tel
Ġrau menÅ³
KlaipÄĹd os
Ġ200 3
ĠiÅ¡ tr
Ġri t
ĠkaÅ¾k oki
aug as
Ġrib Å³
B r
ĠuÅ¾ ima
ĠiÅ¡l eido
d emokr
Ġpl ak
Ġpil n
Ġdraug ijos
Ġdien ai
Ġregi one
Ġm ug
Ġ3 3
e u
cij ose
Ġv aÅ¾
Ġbaig ÄĹsi
Ġpad ovan
To liau
Ġtur inÄ¯
ĠapÅ¡ vie
Ġs ij
Ġpal anki
r aus
Ġvaland os
ĠiÅ¡ aug
Ġmo bili
eis tÅ³
Ġak men
ĠLR T
ĠiÅ¡kov ojo
Ġab iejÅ³
Ġkarjer os
A iÅ¡ku
ÄĹm ÄĹs
Ġpat eikia
tuv Äħ
I R
Ġversl Äħ
ĠmarÅ¡k inÄĹ
Ġtur intys
Ġtvar kÄħ
Pirm iausia
v iz
Ð ²
inar ijos
Ġdarb dav
g en
I s
Ġgink l
av Å³
Ġcentr Äħ
ĠmedÅ¾i ok
Ġbuv ÄĻ
Ġkom bin
P ab
tinink Å³
vyd as
ĠÄįempion ate
Ġaps kaiÄįi
Ġry to
ĠÅ¡ok ol
L ie
w s
Pro f
P op
T R
8 8
Ġpareig Å«n
p or
Ġnor as
B uv
ĠKr istaus
auj ame
Ġn amas
Ġkon tra
Ġci vil
Ġkeli au
. "
Ġsav ybiÅ³
g as
ĠbÅ«d ais
Ġelg esio
Ġneat si
Ġstab il
Ġkov oti
z as
Å¡ o
ijos e
ĠkÅ«r iniÅ³
ĠÅ¾em ÄĻ
s id
V okie
Ġpasi prieÅ¡
Mok sl
Ġry Å¾
Ġkeli auti
ĠÅ¾ ol
ir urg
D irb
Ġsp ustel
Ġtemper atÅ«ros
Ġd uoti
T inka
v y
Ġ100 0
Ġker am
Ġpar kas
ĠJ ono
ĠprieÅ¾as ties
Ġdraug ais
Ġpritaik yti
Ġpil ieÄįiÅ³
Ġkalb ama
J ums
om en
ei car
ĠuÅ¾ mokes
Ġak cijos
ĠPas aulio
N eg
ob ul
Ġvakar e
Ġpir mo
N u
Ġsekm adienÄ¯
A ug
ĠDidÅ¾i osios
Ġs oli
j i
tÄħ jÄ¯
Ġpar amÄħ
ĠD arbo
Ġpr aras
Ġskiri a
anÄįiÅ³ jÅ³
Ġt h
Ġpasirod o
Ġpa Å¾iÅ«r
Ġj uoda
Ġpatvirtin imo
Ġsveik ata
ĠÅ¡eÅ¡ tadienÄ¯
Ġpateik ÄĹ
ĠÄ¯r angÄħ
== ==
Ġnurod yti
im ie
Ġnepav yko
Ġ3 9
Ġtarpusav io
Ġvaizd as
Ġpati ems
Ġg aud
Ġ ÄħÅ¾
Åłi ais
ĠkÅ«d i
Ġnuo ty
Ġor kes
Ġpak l
Toki a
rus k
Ġp e
Ļ Ĥ
Ġblog ai
in Äįi
p raÅ¡
Ġt enk
Ġsep tyn
ut ÄĹmis
Ġsuvok ti
Ġpad ÄĹtis
J AV
Ġad vok
ĠtaÅ¡k us
Ġkat alog
esni ais
Ġknyg oje
ĠÄ¯ mok
Ġd ai
Äħ ja
Ġgal va
ĠsudÄĹ tyje
Ġpramog Å³
as tr
Ġsimb oli
Ġpri ÄĹmÄĹ
I C
yg os
ĠpoÅ¾iÅ«r is
ĠB et
ubil iej
Ġdovan Å³
Ġkoj Å³
S od
Ġk enk
Ġgrup ÄĻ
y rag
SR S
Ġ4 4
Ġkep ur
ĠÄ¯v ed
s tom
R y
Ġsu jung
Ġsum Äħ
ĠsÄħ Å¾in
s a
ĠneÄ¯ pras
aisv ÄĹs
Ġpristat ymas
Ġmok a
aÅ¾ Äħ
Ġs iej
Ġorganiz uoja
Ġdaik tus
Ġautomati Å¡kai
Ġsi uv
J ame
eik s
Ġklaus imai
Ġpab rÄĹ
Ġin st
en is
Ġaps kaitos
Ġligon inÄĹs
or ai
Å« dÅ¾io
Ġsaug o
Ġdir Å¾
auj antis
i ama
Ġkambar ys
Ġproblem Äħ
Ġsov ie
ĠaikÅ¡ tÄĹje
s v
er a
ici on
Ġsavait galÄ¯
Ġstraipsn is
Ġtaisykl ÄĹs
Ġma Äį
ij aus
M S
Ġsuteik s
Ġfinans avimo
ĠG ied
Ġm amos
ol et
Ġjau tr
ci onal
ĠmÄĹg autis
N S
Ġatv aÅ¾i
k ol
ag ys
Ġaks esu
Ġkilometr Å³
Ġt yl
ei Äįi
Ġdovan a
Ġegzist uoja
ĠraÅ¡ oma
ĠÅ¡al ys
Ġtink lÅ³
Ġsen am
ĠAnt anas
El ektr
ĠS veik
e ur
lamen to
Ġskat inti
Ġpar ag
Ġkonc ep
ut yje
Ĩ Ĵ
ĠN ATO
iÅ³ jÅ³
Ġkeli os
Ġjaus mas
in anti
Sv eiki
ak u
Ġvyk usi
Ġl auÅ¾
er o
ir v
ĠTra kÅ³
Ġsavai me
as t
Ġes anÄįiÅ³
ĠmedÅ¾iag as
ĠK el
____ ____
Ġreg lament
Ġsk onio
ang eli
Ġj u
Ġbend ro
Å¡ t
Ġpris it
Ġremi antis
Ġl ub
uo lio
uol Ä¯
Ġt ank
om us
Ġskelbi a
6 4
Ġband ÄĹ
t iniame
Ġpagrind as
Ġobjek tyv
Ġadres as
Ġskir tum
ĠÄ¯s im
Ġvil n
um ais
plink os
ĠÄ¯vairi ais
Ġspr og
ab ili
ĠB end
Ġuos to
Ñ ı
Ġpr epar
Ġlauk ti
M uz
K it
Ġbr uoÅ¾
Ġmieste lio
iu jor
Ġj uose
kir st
Ġveik ÄĹ
Ġnetur ÄĹjo
ĠI gn
Ġpri orit
eis kite
Ġprisim inti
Ġlabor atori
Ġsant uo
tuv Å³
Ġmer as
ĠÄ¯ kai
Ġ4 2
on i
ĠÅ¾iniaskl aidos
y po
ie go
Ġid enti
Ġkal n
ov es
Ġpatog u
Ġdv ej
l aiv
Ġk aun
Ġpan aud
Ġpasteb ÄĹjo
ri ja
Ġvidut inio
L K
Ġtiksl us
ĠG ab
osi te
am omis
Ġmod ern
Ġsveik atÄħ
Ġnug aros
c inis
201 0
Ġvald ymas
k om
Ġar tÄĹj
li p
Ġtur tÄħ
Gali te
Ġpasi tar
od a
Ġskyri Å³
Ġinterjer o
ĠG e
Ġpartn er
Ġnep a
Ġnar ÄĹ
ei Å¡
ĠDidÅ¾i ojo
Ġstai ga
Ġpager inti
pl ek
ti ek
Ġpor os
ĠiÅ¡g elb
! âĢľ
ĠjÄĹg a
Ġor as
Ġprisi paÅ¾
Ġmat yt
" :
ĠiÅ¡laid as
Ġ4 8
Ġtyr imus
Ġd ukr
Ġli cen
ĠiÅ¡ kr
ĠR i
Ġmod elio
ĠdrÄħ siai
ĠÅ¾em yn
ĠmedÅ¾i Å³
p ak
Vis as
Ġsl ÄĹp
ĠB u
Ġvyk do
Ġsav ybes
Ġne tol
ÄĹj usios
ali ojo
Ġsi urb
ĠiÅ¡s prÄĻsti
ĠpoÅ¾iÅ«ri u
Ġk vai
ÄĻ Å¾
Ġneb log
ĠPanev ÄĹÅ¾
Ġvon ios
kai tÄĹs
At sak
am oje
Pagrind inis
ĠS uom
A ÄįiÅ«
K el
Ġr evoliu
Ġreikal ingi
ÄĹr ÄĹ
Ġmuzik Äħ
yb inÄĹ
Ġvaik Å¡Äįi
yd o
ĠT h
ĠÅ¡e imÅ³
ĠpaÅ¾ vel
ĠpasiÅ«l ymai
Ġp ei
Ġgra fik
ĠÅ¾in au
Ġmoto cik
Ġstraipsn yje
Ġsavai ÄįiÅ³
l s
G am
ĠeilÄĹ raÅ¡
yl is
Ġmokykl ose
ĠVil niÅ³
ĠB ut
... ]
Ġsv ars
Ġtol im
ies e
Ġpili akal
d Å³
R ank
Ġpatalp ose
Ġtik ro
Ġnes varbu
ai kio
S ek
ĠG en
Ġvidut iniÅ¡kai
Ġdid esnÄ¯
Ġprar ad
Ġgam iniÅ³
J am
Ġsprend Å¾i
lik o
Ġlaik oma
ĠryÅ¡ Ä¯
Ġpard uod
Ġkuri omis
Ġrami ai
ĠN uo
Ġk alv
Ġmies tuose
Pat s
b ÄĹg
Ġf eder
Ġdet aliÅ³
Ġteat ras
ĠÅ¾ vel
Ġpriemon ÄĻ
Ġveikl oje
ĠC o
ĠdarÅ¾ oviÅ³
6 9
Ġjau tri
Ġdirek torÄĹ
Ġproduk tas
Ġpag arb
osi omis
up er
Ġterm inas
Ġpras m
ĠbÅ«s to
Ġtoki ais
Ġ Q
Ġspar Äįiai
Ġelem entÅ³
Â °
Ġtur inio
Ġpartiz anÅ³
c id
Ñ ĭ
Ġsv og
Ġpas veik
ĠÄ¯vairi ausiÅ³
ĠJ uoda
Ġm Å«r
al ais
Ġnes p
ĠiÅ¡r aiÅ¡k
Tik rai
c inÄĹs
Ġpas tov
el d
evi ÄįiÅ«tÄĹ
Ġgam ta
f e
ĠÄ¯stat ymas
ĠÄ¯kur ta
Ġne ver
Ġdarbuotoj ams
Ġab i
uo tu
ĠÅ¾ uvo
Ġal aus
ĠgrÄħÅ¾ inti
D arbo
ĠkÅ«n as
am ÄħjÄ¯
Ġpergal ÄĻ
Ġsk ers
oj ÄĻs
Ġsk ur
ak ÄĹ
Ġnepas teb
Ġprogram oje
Ġprie ig
Ġsus irg
Ġatsi g
unk u
Ġpirm ieji
Ġautomobi liai
Ġenerg ijÄħ
dom i
ygi ai
S ieki
Ġ }
ĠBaÅ¾ny Äįios
ĠuÅ¾ aug
ĠpavirÅ¡ iÅ³
o tel
Ġscen ar
Ġpaslaug omis
P aprastai
Ġl iek
al iniÅ³
Ġsusij usiÅ³
ĠneÅ¾in au
Ġsu pjaus
Ġbliz g
aug i
Ġver tina
Ġâ ĨĴ
Ġm aud
ĠgrÄ¯Å¾ o
tek Å³
n er
ĠS avivaldybÄĹs
ĠÅ¡ird is
u e
Ġbi olog
ail os
ĠneiÅ¡ v
ĠV in
Ġvadov Å³
Ġkvie Äįiame
Ġtal p
Ġskir tÅ³
ci o
Ġsri ÄįiÅ³
Ġpavasar io
Ġsupr anta
ĠpasirÅ«p inti
uoj amÅ³
ĠÅ¾i d
Ġpatenk inti
Ġk auk
Ġsen ov
Ġmit ybos
vir tina
ĠvieÅ¡ ojo
7 7
ĠaukÅ¡Äįi ausios
m uose
Ġpagamin tas
Ġpam ÄĹg
pl e
ĠT o
ĠB ir
J uos
Pard uodu
li uz
Ġprak tik
Ġar k
Ġkal nÅ³
e olog
Ġpus ry
te z
Ġper veÅ¾
Ġtrump omis
aki au
ĠÅ¡ aud
Ġnep aisant
Ġkonsul ta
p el
ĠkÅ«r imo
Ġti tu
Ġn ud
Ġstud ijos
Åł eÅ¡
Ġbu hal
Ġinf o
Ġpris kir
Ġpasku tinÄ¯
Ġveikl ai
Ġsak ant
Ġap aÄįi
to d
z el
Ġmuziej uje
ir o
ĠV ien
Å¾i aus
Ġpil iet
Ġel eg
ĠreikÅ¡ mÄĹs
Ġpaslap tis
ĠB i
Ġmok ÄĹ
Å« kl
Ġvari antas
ograf ijos
Ġdisk ut
ĠmedÅ¾iag Äħ
ni os
ĠGr yb
Ġb ene
ĠrÅ«p intis
tu zi
and os
ien e
Ġeur o
Nep aisant
Ġap tik
ĠR ud
Ġtend en
Ġpolitik Äħ
Ġfestival is
Ġvis ose
pr et
ar iÅ³
Ġbal ta
Ġki toje
Ġkor up
Ġorganiz uoti
Ġm u
Ġstud entai
Ġsti liÅ³
g os
Ġplan avimo
Ġmedic in
R ink
Ġmo bil
ĠÅ¡e imÄħ
d arb
ĠI S
Ġbal k
Ġvis uo
Ġasmen iÅ¡kai
Ġal erg
ĠsiÅ«l oma
ail es
Ġz on
uoj ate
or k
Ġatsin auj
ĠpabrÄĹÅ¾ ÄĹ
tori umi
h a
li c
Ġapr Å«p
Ġklaid Å³
ĠM i
ĠB irÅ¾
Ġau toriÅ³
um oje
Ġpat enka
ai Å¾
Ġvisuomen ÄĹje
Ġ =
ĠsÄħraÅ¡ as
N en
jos e
ie Äįiams
Ġtv enk
g ÄĹ
Ġatsak ÄĹ
ail s
Ġpirm ininko
ĠM ic
Ġoptim iz
Ġsv ies
B i
Ġdr ÄĹk
ĠJuoz as
tin imo
ĠS av
Ġnep il
Å¡ Ä®
s en
Ġfil mÄħ
Ġvar do
ĠpasiÅ«l ÄĹ
6 6
ĠiÅ¡ min
Ġk un
Ġg ili
Å¾i Å«ros
Ġnegali u
ĠAlg ird
8 5
to p
ĠS ocial
Ġf rak
Pas ku
Ġspeci f
Ġrud ens
Ġt ab
Ġpar ke
ati on
ĠÅł vietimo
ĠMar ijos
tu ku
Ġkov Äħ
ĠdÅ¾i ov
e Äį
N ed
ĠiÅ¡tek liÅ³
Ġv ÄĹjo
ans o
on tolog
Å¡k ÄĹs
Ġakim irk
Ñ Į
t anijos
Ġr ob
Ġsavaranki Å¡kai
uk ui
Ġrink od
Ġes antis
ĠneÄ¯ tik
Ġlaim ÄĹti
S kaityti
Ġgali oj
Ġsek re
A K
n ys
ĠpraÅ¡ ymÄħ
Ġtir p
t ad
Pirmas is
j aus
Å« v
Ġm em
Ġpriklausom ai
ĠRus ijoje
Ġk ieki
or ganiz
ĠM art
Ġparduotuv ÄĹ
ĠE r
Ġd eja
ĠKalÄĹd Å³
ĠS tan
iau ti
ien ei
Ġatei tÄ¯
ĠTel Å¡iÅ³
Ġilg omis
Ġlang Å³
is l
ech n
ie tÄĹs
Ġd ug
ĠÅ¾i Å«ri
Ġtiksl Äħ
ĠK ai
z a
ĠamÅ¾i uje
Ġpl ÄĹv
ĠiÅ¡v eÅ¾
Ġpaslaug a
ĠÅ¾enkl o
ang o
Ġpas idÅ¾iaug
Ġnaujien Å³
Ġen tuzi
rad ic
Ġd uÅ¡
ar ko
Ġgi tar
Ġsu kl
M as
Ġtr em
Ġreng inÄ¯
Pr ogr
ĠLenki joje
Ġspalv Äħ
ĠÄ¯var d
li os
ĠbÅ«kl ÄĹ
Ġpas tebi
um at
Ġspecialis tas
D A
Ġpi gi
Ġmoksl ininkai
ĠT am
ĠmÄĹlyn a
Ġabs oliu
Ġakadem ijos
Ġver tÄĻ
4 9
v Äħ
ĠbaÅ¾ny Äįioje
ĠR Å«
Ġatsi kr
Ġ200 2
Ġketvir tadienÄ¯
Ġapd or
ri au
Ġatsi v
Ġgaus u
bi a
ap ie
Ġsuk uria
Ar ba
Ġlie p
Ġpaslaug Äħ
ĠO l
Ġkreip ÄĹsi
Ġmok ÄĹsi
Ġvadin asi
Ġvir tu
aÅ¾ ai
Ġdiag noz
uli us
ch o
Ġnuomon ÄĹs
Ġn omin
ĠÅ¾ yg
Ġki tuose
ĠseniÅ«n ijos
Ġtarn au
ĠiÅ¡ ei
B irÅ¾
Ġ201 9
il l
Ġkl eb
ĠN emun
Ġatrod yti
ap l
ĠPr ek
t enk
ĠT he
ĠiÅ¡v aÅ¾i
Ġatvyk ti
Ġ ;
G yv
Ġkel nÄĹs
Ġpa Äįius
oj ome
Ġl ag
c as
ĠiÅ¡l aidos
Ġlie men
Å½ aid
f al
ĠS tas
Ġsov iet
Ġpas il
lo w
Ġdokum entai
in ans
a kiÅ³
Ġpop ieriaus
Ġpakei timo
Ġpastat yti
4 7
Ġrink inys
ĠGr aiki
Ġl Å«
Ġpakei tÄĹ
kl is
Ġdraud imas
Ġfunk cijos
T ink
ĠNep riklausom
ĠpriÄĹm imo
ĠruoÅ¡ i
Tau ragÄĹs
Ġali um
ĠAus tral
Ġproced Å«ros
of t
Ġpro to
ĠkeiÄįi asi
Ġsm agu
E n
Ġk var
Ġl yti
Ġatv eÅ¾
er m
Ġvyr ams
Ġak mens
Ġapsaug o
ĠK os
Ġdet alÄĹs
uli ai
T iek
Ġmat ema
Å¡ l
ĠB raz
r ie
Ġd anga
uomen ÄĹs
Ġakc ent
S tat
Ġreikalav imai
Ġpatog us
ĠP ov
Ġsuteik ÄĹ
Ġpavad inimÄħ
Ġdizain as
Ġp yrag
ĠapÅ¾ valg
tu ko
A ud
Ġd em
Ġtiksl ais
P R
Ġsusij ÄĻs
tiÅ¡k Äħ
ur e
Ġpatikr inti
Ġv yn
ol es
ĠamÅ¾i us
ĠkÅ«d ik
A b
Ġre fer
ĠiÅ¡sirink ti
ĠB endr
li ukas
Ġnetik ÄĹtai
Ġkomis ari
Ġkli Å«
ĠvieÅ¡ osios
Ġpalaik o
Sp alio
ÄĹ to
Ġsav ybÄĹs
ag os
uotoj ai
Ġskiri ama
kÅ¡ Äįiai
Ġpoveik is
ĠD ov
and o
ĠÄ¯vairi ose
Ġaptarn avimo
ĠGedim ino
ĠiÅ¡siaiÅ¡k inti
Ð ¼
t et
Ġnusipirk ti
Ġk yl
ĠreikÅ¡ mÄĻ
âĢľ ).
p ard
Ġtau rÄĹs
ĠÄ¯spÅ«d Ä¯
Ġniek am
Ġf antas
Ġpatir ti
200 9
o liÅ³
Ġats tum
Ġf ili
Ġak imis
Ġparti ja
ĠjÅ«r Å³
ti Å¡ki
Ġd ing
ĠG intar
Ġkarjer Äħ
u Äįio
Ġlin ija
Projek to
ĠÅ¾aid ÄĹ
uo tÄĻ
iÅ¡k umo
Ġproduk to
Ġpar k
Ġmalon iai
Ġry te
Ġher oj
ĠÅ¾od Ä¯
Ä ģ
Ġdel eg
Ġkond icion
Ġpareig Å³
Ġak cijÅ³
ÄĹn as
ĠpraneÅ¡ ime
Ġ ei
T ÄĹv
Ġprisid ÄĹti
auj anÄįiÅ³
enki a
Ġamb asad
Ġsp in
p eln
Ġind us
or g
ĠvieÅ¡ Å³jÅ³
in ukai
tÄĹs i
Ġat ein
ep ia
P ati
Ġter as
Ġplan us
ĠA uÅ¡
ind ow
ykÅ¡ ÄįiÅ³
Ġang l
Ġpar Äħ
Ġmat o
Ġa tim
ri joje
ĠiÅ¡gir sti
ĠE m
Ġini cij
T okie
Vil k
Ġtechnolog ija
Ġi k
ul ys
ĠbÅ«kl ÄĻ
ĠK ol
Ġpatek ti
Ġod ai
Ġpoten cial
S tud
ĠiÅ¡s ami
Ġsumok ÄĹti
Ġsu mon
Ġd avÄĹ
ĠR ase
Ġ å
Å«r is
Ġ200 1
Ġ <
eg uli
Å«r Äħ
C O
Ġpatal pos
n auj
Ġgr ie
ĠrÅ«Å¡ is
T a
toj ais
Ġklien to
Ġprojek tai
Ġpasl ÄĹp
Ġi sp
Ġdrus kos
N ÄĹra
ĠM yk
ĠE sti
Ġfak ult
Ã ¡
Ġek strak
al yje
Ġofici aliai
Ġren ov
Ġatsir as
Ġvai ravimo
vi ra
N uos
Ġsmeg enÅ³
Ġjud ÄĹjimo
Ġinter pret
Ġtik ÄĹjimo
Ġsusi form
Ġmoksl eiviÅ³
ĠgeleÅ¾ink elio
k ÄĹs
Ġj ubiliej
At l
j ei
t usi
Ġp ip
Ġug ni
Ġnuo tr
Ġtaik yti
Ġf l
Ġtvir tina
us ieji
uoj anÄįios
Ġkar Äħ
Ġnes uk
ĠÅ¾enkl Å³
uod avo
Ġkomand Å³
Ġgyven imui
te ko
Ġbr on
7 8
Ġg aiv
Ġpasteb ÄĹti
Ġbibliote ka
om et
ĠÄ¯vair aus
Ġvai ki
au b
Ġgyd ymas
Ġdaug eliui
Ġnor ÄĹÄįiau
ĠparaÅ¡ ÄĹ
ĠvieÅ¡bu Äįio
tel ÄĹjo
Ġprofes orius
Ġkie kio
ĠtreÄįi adienÄ¯
ĠÅł im
ani tar
Ġpas tab
ĠÅ½em ai
ytoj us
Ġg ed
ÄĹm imo
u tr
tu kai
yb as
Ġmok iniams
ĠN iujor
ĠÄ¯reng iniÅ³
te lio
Ġstraipsn iÅ³
Ġvadov avo
Ġgamin tojai
Ġetap as
taÅ¾ od
200 8
Ġkom for
F I
Ġnuo m
Ġpoky ÄįiÅ³
Ġm az
Ġvakar o
Ġgali oja
ting os
Pui kiai
Ġnusi teik
Ġnuotrauk a
Ġversl ui
Ġfotograf ijos
Å¡k umÄħ
Ġaps ir
Ġ12 0
ar v
el o
Ġnepriklausom ybÄĹs
Ġvakar Å³
Ġkar iÅ³
An ks
ĠraÅ¡ tu
ĠÄ¯gÅ« dÅ¾iÅ³
tu n
aliz acijos
Tr ump
Ġprojek te
Ġgalv oti
Ġpui k
Ġtel k
Ġrezultat Äħ
Ġes antys
ĠiÅ¡ rad
uoj amÄħ
Ġparduotuv ÄĹse
ra Å¾i
4 2
Å«k is
Ġkl avi
Ġplan as
Ġvers ija
Ki ti
( '
y tais
Ġper m
Ġm inti
Ġsak oma
Ġprek ÄĻ
Ġketur is
Ġv eda
Ġregist racijos
ĠJ is
ĠiÅ¡ tis
Ġsvarb iausias
en oje
or Äħ
Ġasmen iui
G im
acij ose
Ġm umis
Ġlau re
ĠI T
met ÄĹ
4 6
m l
Ġnaf tos
Ġprisijung ti
Tre Äįi
Kvie Äįiame
ĠryÅ¡ ius
Ġdvira ÄįiÅ³
Ġpar ama
Ġuniversit etas
aud ami
D iev
tu os
uo lius
Ġparap ijos
Ġsek tori
Ġmokes tÄ¯
ĠJo h
Ġsal os
ry Å¡k
tel es
aid as
Ġst and
ĠmaÅ¾ y
ĠAus tri
ind avo
Ket vir
ĠI lg
Ġsut uok
Ġch irurg
ki au
gi p
Ġvalstyb inÄĹs
ĠdÅ¾iaug tis
ies ti
ĠÅ¡ven ÄįiÅ³
Ġf r
ĠÅ¡al tiniÅ³
Ġcer emon
Ġsurink ti
Ġar ki
ĠR audon
ĠpoÅ¾iÅ«r Ä¯
ĠD rusk
Ġvestuv iÅ³
ĠpraneÅ¡ imÄħ
Ġnam Äħ
Ġjaus tis
uosi uose
ĠpasiraÅ¡ ÄĹ
Ġnes ÄĹkm
ĠtÄĹv ams
Ġvienin telÄĹ
Ġpavaduotoj as
esn e
Ġsitu acijos
ĠsÄħjung a
Lap kriÄįio
ĠrieÅ¡ u
Ġmaitin imo
ĠR oki
t var
Ġ6 00
Ġkv ad
ĠT omas
ud o
ic e
y j
ĠÅ¾aid ÄĹjÅ³
Ġdain a
ĠkaÅ¾ ko
ties iems
Ġr o
ĠD id
T u
Ġne aiÅ¡k
Ġml rd
Ġkr eipi
Ġap Å¾iÅ«r
ĠiÅ¡ augo
Ä® vai
ĠR omos
ĠM ich
Ġgyn ybos
ap ar
Ġs a
Ġrungtyn ÄĹse
i cial
Ġpastat as
ĠÄ¯pras ta
Ġm ui
Ġpri k
Ġs alo
Ġauk l
Ġasoci acija
ĠÅ¡ ou
Â ®
Ġatnauj inti
Ġlaisval aikio
et end
Ġlop Å¡
ĠkultÅ«r Äħ
ili us
vir Å¡
» ¿
l ug
Ġry tÅ³
Ġvis gi
usi ais
Ġv yno
acij omis
tÅ«r as
Ġnes ik
eli uose
ĠkraÅ¡ tas
R ekomend
ĠuÅ¾ trauk
Ġb ij
ĠB en
Ġan ot
Ġilga am
8 6
Ġst amb
al a
Ġmin ÄįiÅ³
Ġeksp ozi
M ums
Ġsaug oti
Ġstad i
Ġpal ank
ĠpaaiÅ¡k ÄĹjo
Ġak ys
ĠB elg
ÄĹn ai
Ġgyv ybÄĹs
ĠI R
ĠE k
ĠB o
Ġn o
Ġreik tÅ³
ï »¿
ki uose
ov us
ĠL u
Ġdarb ams
ĠT aip
Ġatsak ingas
ĠÅ¾ valg
ĠV I
Ġmat ome
Ġneabej o
ĠgraÅ¾ u
Å¡k u
' ,
D ÄĹv
Ġerdv ÄĻ
Ġvaizd Äħ
Ġrim tai
Ġpastat yta
Ġnar io
ĠS er
ĠÅ¾ini a
Ġlank ytojÅ³
Ġtarptau tiniÅ³
Ġnem alon
Ġsk yrÄĹ
ank s
Ġaplink ai
Ġap v
Ġdvid eÅ¡imt
Ġmiest us
Ġdrabu Å¾iai
ĠÅ¡ ach
Ġb ed
Ġmuz iejÅ³
Ġvam zd
Ġpozi tyv
ov ietÅ³
Ġl ai
Ġreng iniai
Ġkambar yje
tel Ä¯
Ġnurod yta
ĠL aur
ais to
Ġnuos ek
ĠK up
Ġvisuomen ÄĹ
Ġriz ik
ĠsÄħraÅ¡ e
ĠBri tanijos
Ġd a
ĠÄ¯mon ÄĹms
Ġmod eliÅ³
al os
ĠG ir
ĠjÄĹg as
ĠD ai
tÄħ jÄħ
ap o
ak os
c iniÅ³
ĠmaÅ¾ Å³
Ġv ÄĹÅ¾
Ġpro tok
Ġbi uro
O J
Ġprog imnaz
Ġtikr os
t iniuose
Ġcivi liz
men inÄĹ
vir at
Ġap yk
ĠiÅ¡ ÄĹjo
Ġskelb imai
Ġkatali kÅ³
Ġpav id
ĠS an
Ġp iev
on ais
Ġperd uoti
Ġniek aip
IJ A
S kait
ĠE stijos
ĠUkmerg ÄĹs
ÄĹ bul
ti eji
Ġbank as
uol ÄĹ
Ġh armon
Ġaliej aus
Ġbibliotek oje
Ġseks as
Ġpatog iai
Ġkambar Ä¯
Åł ven
L ik
Ġsod o
ap s
Ġinter viu
Vaik ai
ri os
Ġpat yrÄĹ
Ġautomobi lius
Ġspaus din
Ġvalstyb ei
ant us
Ġsaug umÄħ
ĠuÅ¾sak ymÄħ
ĠPal angos
D u
Ġsk ard
Ġdekor atyv
ĠÅ¾ing snis
Ġgeri ausius
d is
Ġnes usi
Ġpapildom Äħ
R ad
G ar
so ci
Ġdid inti
t uoja
Ġlaim ÄĹs
s kio
Ġnu trauk
ĠÄ¯sikÅ«r usi
Ġa z
Ġdv y
ĠMaskv os
Ġprak tikos
Ġpareig Å«nÅ³
Ġpatog i
yr o
Ġkoj os
im antas
az o
ĠVl ad
dÅ¾i ais
Ġpagrind o
ver Å¾
ĠAug us
ĠnuoÅ¡ ird
Ġvir Å¡k
Ġkategori joje
6 3
Ġled o
Ġnus k
Ġnustat ytas
Ġgeri ausi
Ġb o
Ġliud ij
Ġrek ord
Ġsocial demokr
Ġpel no
M I
ĠiÅ¡ val
Ġautomobi liu
Ġmokytoj as
Ġnusikal st
eÅ¡ io
Ġtren eris
Ġsim bo
ĠiÅ¡ sp
Ġpolitik ai
Ġasmen ybÄĹs
Ġkov a
Ġak umuli
Ġvyriaus ybÄĹs
or mon
ting o
Ġmat osi
ĠmaÅ¡ inos
Ġvyk ti
ver ti
Ġsusitik imas
Ġs uo
ĠNauj ienos
Ġan alog
Ġtam si
Ġb ev
Ġparod o
I m
Ä® mon
Ġ ing
P h
Ġpirm adienÄ¯
Ġkrauj agys
Ġla zd
p alv
Ġsunki au
I eÅ¡k
Ġkoki as
ul teto
in ome
ĠÄ¯sikÅ«r ÄĻs
in ÄĹjimo
ĠÅ¾ an
Ġsl ÄĹ
ĠbÅ«d amas
Ġ/ /
Ġpristat o
at yti
ĠÄ¯vy kio
Ġde pres
ki ui
ausias is
Ġvertin ti
K oki
K laus
id ÄĹs
Ġs tum
L aim
Lietuv iÅ³
ĠdÅ¾iaug i
anta z
ĠiÅ¡s isk
ĠiÅ¡l eis
ac e
Ġnagr inÄĹj
Ġfinans iniÅ³
ting umo
Ġemo cijÅ³
Ġper l
Ġmo tina
M iÅ¡
ĠpajÄĹg Å³
r inÄĹs
ul Ä¯
Ġlie taus
Ġsen ovÄĹs
eg u
Ġtau tÅ³
Ġsvarb Å«s
Ġsusid ar
Ġs ter
Ġefektyv iai
Svarb iausia
Ġl e
uo tai
Ġkryp timi
Ġkon tein
Ġnepat og
Ġklaus imu
ĠsumaÅ¾ ÄĹjo
Ġser gan
Ġvien tis
ac iniÅ³
Ġaug imo
m ar
Ġvis am
k ie
uv al
ĠvieÅ¡bu ÄįiÅ³
Ġsam pr
b io
Ġpasitaik o
ĠBal ta
Ġatliek amas
Â ¬
Ġg ies
ĠV ol
ĠBri tan
Ġar ti
Ġatsakom ybÄĻ
pil d
ĠvirÅ¡ uje
Ġpasiv aikÅ¡Äįi
Ġ2 50
A P
Ġinteres Å³
M od
men t
Ġs andar
Ġant radienÄ¯
ĠMaÅ¾ eikiÅ³
Ġper Å¾iÅ«r
ĠiÅ¡kil m
Ġpr od
Ġdiag nos
es s
Ġsti lius
p aÅ¡
Ġprie var
j omis
Ġsusitik imo
g ais
Ġmokes tis
Ġaps up
Ġvakar us
ĠE x
ĠpaÄįi oje
Ġkiekvien os
ĠP aul
r en
Ġid ÄĹjÄħ
Ġpr asi
Ġnereik ÄĹtÅ³
ĠRob er
Ġtiksl o
alb ÄĹti
y ja
Ġtur tas
st ant
Ġtau ta
i ame
Ġvanden yje
id Å³
ĠÄ¯v es
t ÄĹja
Ġpastat ytas
Ġved ÄĹ
Ġsudar yta
Ġsu tiko
Ġpor t
ĠÅ¾ ygi
ag e
Ġdr aus
Ġ uol
Ġnuol atos
Anks Äįiau
K am
Ġbalt ymÅ³
ĠÄ¯s id
Ġpen kiÅ³
ĠpasiÅ«l ymÅ³
ĠpaukÅ¡ ÄįiÅ³
Ġs eg
200 7
P enk
ter s
Ġ Åª
us ti
Ġd Å¾ins
ĠM od
a Å¡k
en kite
Ġmin eral
ĠÄ¯stat ymÄħ
Ġnaud Äħ
ĠÄ¯ man
Ġtik isi
J Ä¯
Ġgr eta
Ġsv oris
Ġpasidal inti
Ġsu raÅ¡
er ÄĹ
iÅ¡k us
Ġtechnolog ijas
z e
ĠB ul
Ġscen os
enk ti
Ger ai
Ġam Å¾iÅ³
Ġdalyv iams
Ġb atai
Å«n Äħ
Ġspustel ÄĹkite
Ġlank s
ĠiÅ¡ ryÅ¡k
ĠA u
Ġkonkur enc
ĠB ud
Ġsi ur
Ġstraipsn Ä¯
Ġgyven tojus
Ġnar iams
Ġfak ulteto
Ġkomand ai
Ġner eiÅ¡kia
li uko
Ġrengi a
enti li
ĠkraÅ¡ te
Ġdalyv aus
Ġvam zdÅ¾i
ĠsÄħskai tÄħ
Ġes anti
ĠÄ¯dom us
o tos
Ġpap ro
ĠL ED
ir ti
ĠÅ¾al os
Ġnum eris
Ġekran o
ĠKÄĹd ainiÅ³
Ġskaus mas
Ġparod oje
Ġtarptau tinÄĹs
Ġkategori jos
tori jos
g er
Ġnup l
Ġnustat o
P raÅ¡
Ġsistem as
ĠÅłil utÄĹs
Ġpom id
Ġkon e
ĠL ie
ĠðŁ ĻĤ
vys kup
Ġnurod o
toj Äħ
ĠÄ¯vai zd
Ġink stÅ³
Ġ4 6
ĠpraÅ¡ ome
Ġtradi cijas
Ġneb uv
Ġj aud
Ġpie tus
Ġrink imuose
Å«d is
tÅ³ si
Ġaud inio
k Ä¯
aud Å³
Pirm Äħ
ĠuÅ¾d uo
Ġpoli tinÄĹs
Ġperd avimo
ĠpraneÅ¡ a
Å¡ a
and as
Ġfunk cijÄħ
ĠM ol
Ġnes ib
ykl inio
o ch
Ġteigi ama
Ġtrump ai
Ġ !
Ġveik ÄĹjas
Ġsm Å«
am ÄħjÄħ
Äįi omis
ĠÅłv eicar
Ġsupr ato
Ġvad ina
ĠÄ¯gÅ« dÅ¾ius
Ġkonkurs as
Ġ8 5
Ġres tau
Ġatitink amai
ĠvirÅ¡ u
Ġaki vaizdÅ¾i
ok yb
Ġsupr atau
Ġdal ij
ĠiÅ¡l eisti
à ¸
ĠÅ¡ nek
Ġteritori ja
Ġrink Äħ
Ġd uoda
ĠN U
v esti
Ġar Äįiau
Ġved ÄĹjas
Ġvert ybiÅ³
ali k
Ġnam ie
c s
i at
Su pr
Â ²
Ġtiek imo
Ġtarp e
G yd
Ġketuri as
ĠÄ¯reng ta
ties i
in site
Å £
T ar
ĠÅ¾iÅ«r ovÅ³
ĠvaldÅ¾i Äħ
ij oms
Ġvarto tojams
ĠÅ¡ uo
Ġkr an
Ġpl auki
Ġneb er
en u
aiÅ¡ i
Ġteritori jÅ³
toj u
ĠPl ung
Ġry Å¡k
Ġp li
Ġsn ieg
Ġuos tas
b as
Ġtink lap
ien ÄĻ
Ġduo nos
v an
Ġpoli cija
Ġpri ima
ĠÅ¡ird Ä¯
Ġv ili
Ġpraded ant
ĠÅ¡vie si
U N
ĠparaÅ¡ yti
lo tis
Ġgim inÄĹs
Ġparduotuv iÅ³
Ġdid eliu
Ġmin tys
ĠvÄĹ li
Ġnel eidÅ¾ia
ĠBer l
Ġdarbuotoj as
Ġsek toriaus
tuv iÅ³
ĠJ urg
ĠD alia
Ġlank ÄĹsi
ĠÅ¾in omi
Ġg ÄĹl
z os
Ġg ai
Ġs kil
ĠD arb
var g
Ġsaug iai
Ġprak tika
ĠM ak
Ġid ÄĹjas
Ġne j
Ġpastar uosius
Ġsud ed
ĠBaltarus ijos
Ġl az
Ġn av
Ġtur inÄįiÅ³
Rug sÄĹjo
Ġv ik
Ġpav yks
Ġsvetain ÄĹ
ĠsveÄįi ams
iausi os
ĠpamirÅ¡ ti
Ġpozi cijÄħ
Ġu z
tu Å¡
V os
Äįi ama
Ġa c
is to
ĠI N
ĠiÅ¡v ys
me tis
Ġbri tÅ³
Ġb io
Ġatskl eisti
Ġf ab
Ġtaik oma
Ġgam iniai
Ġsuk ÄĹlÄĹ
Ġti pÅ³
Ġau ten
Ġ ÄĹjo
Ġkan tr
Ġapsilank yti
ĠnatÅ«r aliai
ĠVieÅ¡ pa
ĠÅ¾in ome
ĠD ub
Äįi amas
at s
Ġnuo tekÅ³
ĠnuoÅ¡ irdÅ¾iai
sni ui
T ie
Ġk az
Ġbendr ojo
S K
Ġatsak o
usi ai
tÅ«r Äħ
Ġkonkurs Äħ
ĠkruopÅ¡ Äįiai
ul kiÅ³
Ġskr aid
Ġsud eg
ĠÅ¡lap imo
ĠKret ingos
Ġkli j
ĠR y
ĠD v
Ġpatal pas
Ġfunk cijÅ³
indow s
D i
ĠM ad
Ġkompiuteri Å³
P ras
Ġgamin tojo
ĠkÅ«d iki
ĠprieÅ¡ ingai
Ġgrup ei
O D
Ġsk yl
ĠN ik
Ġautobus Å³
Ġskai Äįiaus
Ġbal tÅ³
Vien Äħ
asar io
ĠIsp anijos
Ġbendr ov
Ġsuprant ama
ĠÅłiau liuose
ĠÅ¾ai dÅ¾i
ĠrÅ«Å¡ ies
Ġatrank os
Ġpad eng
Ġpip ir
Ġskon Ä¯
Ġvairuotoj as
Ġpateiki ama
Ġkir p
Ġp uÅ¡
S ut
Ġ ?
g res
Ġprof i
Ġprad ÄĹjau
Ġkel ti
ym uose
Ġpris kiri
Ġm enk
ĠÄ¯reng tas
f a
Ġreng ti
Ġdek o
ĠmaÅ¾ esnis
Ġscen oje
ĠbÅ« tinas
Å¾in au
Ġdaug elyje
uk a
Ġm yli
Ġsutaup yti
Ġmilij onÅ³
Ġd virat
Ġsav ininkas
on ijos
ĠÅ¡ uk
ĠpaaiÅ¡k inti
Ġpopuliar iausiÅ³
us e
Ġsuv oki
Ġ- -
Ġkvalifik acijos
ĠdÅ¾iaug iasi
ĠÄ¯vy kius
ĠÅ¡ uni
ĠKomis ijos
Ġveid Äħ
V P
Ġelem entai
ĠtÄĹv o
kite is
op er
Ġes anÄįios
Ġplauk ai
Ġsk yd
Ī Ĵ
ĠC on
Ġh ormon
Pas irink
ĠmaÅ¡ ina
Äħs teliÅ³
ĠÄ¯sak ymu
Ð ´
Ġapsaug Äħ
Ġan im
ĠiÅ¡sis kiria
Ġdemon str
Ġ199 0
ĠÅ¾ irg
ĠSe ime
Ġkonferen cijoje
d amos
and s
Ġnekilnoj amojo
Ġpil na
Ġpasirink imÄħ
Ġsm ÄĹlio
ĠAn tr
Ġpsich o
eri joje
Ġpl aÄįi
Ġnuosav ybÄĹs
ĠdÄĹÅ¾ ÄĹ
Ġp ails
ĠkaÅ¾k aip
Ġsuteik tas
Ġtol er
ĠlÄĹÅ¡ omis
Tarp tau
ĠneÅ¡io ti
ĠrÅ« mai
in tus
Ġug nies
c inio
ĠÄ¯t eik
4 3
Ġk aÅ¡
oj amas
Ġsub ti
ĠÅ¾aid ÄĹjai
Ġap kr
S c
ĠK ub
tin tas
Pl an
Ġel as
Ġlaik omi
Ġz onos
osi oms
Ġpasirink imo
sl as
Ġpaskir tas
Ġbend ravimo
Ġg y
Ġskamb a
Ġgrup es
N auja
Ġatr ink
K ovo
uol aiki
ĠG ro
Ġstipr us
au liÅ³
Ġpartn eriÅ³
Ġd av
ĠuÅ¾sis akyti
Ġpoli tiniÅ³
Ġsavan ori
ol Ä¯
Ġteritori jÄħ
ĠÄ¯raÅ¡ Å³
Ġ4 3
Ġjaus mÄħ
Ġlaik inai
en Äįia
Ġrank ose
ĠdidÅ¾i oji
Å½ od
Ġtr okÅ¡
Ġv an
Ġadminist ravimo
Å¾ eng
Ġat vaizd
e cial
ĠaiÅ¡k ino
oj ÄĻ
Ġarb atos
Ġb ÄĹd
ĠneiÅ¡v engi
Ġlyd eris
Ġgab en
Ġrink tinÄĹ
O P
Ġrib os
ĠVar Å¡
eg ul
tyn Å³
Ġteks to
Ġtur inti
Ġsprend imu
ov ok
Ġversl as
Ġgrei Äįio
Ġpasp aud
ÄĹj om
Ġreng inius
Ġskiri amas
ĠpavirÅ¡ ius
âĢľ ),
ĠuÅ¾s im
5 8
eli ams
Ġko Å¡
Gr up
os t
Ġnuo bod
Ġsve tim
Ġveter inarijos
Ġkal ÄĹd
ĠbaÅ¾ny ÄįiÄħ
Ġf er
Ġb an
I Å²
Gali ausiai
ĠdrÄĹg mÄĹs
ĠJ ei
am bi
ĠpripaÅ¾ ino
ĠÄ¯k Å«rÄĹ
ĠÅ¾mog umi
Ġsve Äįius
ĠuÅ¾k and
Ġank sti
Ġlink ÄĻ
ĠAlgird as
E G
Ġ4 7
Ġpasikei tÄĹ
ĠT i
ĠÅ¾od Å¾iu
Å¡ as
K az
ĠP oli
Ġpag erb
ĠpanaÅ¡ aus
Ġkontroli uoti
Ġporeiki Å³
Ġpri vers
aus kite
un t
esi u
In d
e y
Ġskaus mo
olog as
Ġlik ti
ĠÅ¾ alÄħ
ang oje
ĠA G
Ġpri jung
ĠaukÅ¡ tas
Ġneb eg
Ġsm ag
ĠlÅ«p Å³
ĠÅ¾em ÄĹ
ĠÄ¯kur tas
ran sp
Ġpriek yje
Ġf ol
Ġturnyr o
Ġvis oki
4 1
or Ä¯
Å½al girio
N ak
Ġrad o
Ġgi liai
Ġpapras Äįiausiai
Ġl ÄħsteliÅ³
ĠÄ¯ pareig
Ġg ied
end a
Ġnar ÄĹs
k uri
Ġmod elÄ¯
ĠT er
S ocial
Ġskir tingi
Ġvid urio
Ġinstitu tas
Ġtik ÄĹtina
Ġkvie Äįiami
ĠkÅ«r imas
ĠkÅ«r inys
Kit aip
uotoj as
Ġinte g
ĠAmeri koje
m ÄĹn
Ġskl ypo
Ġcharak teris
Ġn r
yn os
od e
Ġnuol aidos
Ġprad ÄĹs
Ġsos tinÄĹje
ĠV eng
Ġtau r
ĠÅ¾em ÄĹje
Ġdraug as
Ġrankov iÅ³
Ġrekon struk
ĠT ik
Å«r Å³
Ġskir tumas
Ġgatv iÅ³
Ġas tr
ĠLatv ijoje
ĠaukÅ¡ te
Ġilg alai
Ġpoky Äįius
Ã ·
ĠÄ¯staig a
Ġklas ÄĹ
im pi
Äį d
T S
ĠpaÅ¾ eidÅ¾i
ĠC ar
Ġnurod ÄĹ
Ġlaikotarp io
Ġg um
Ġoper acijos
Ġki toms
Ġj omis
Ġat kr
ĠV it
Ġkal no
st er
Ġgyv yb
Ġgr an
Ġtur istÅ³
ÄĹlyn a
uog iÅ³
ĠpaÄįi ame
st os
Ġsum os
ĠparuoÅ¡ ti
anti eji
ĠneiÅ¡ s
l en
ĠiÅ¡ aiÅ¡k
ĠG rig
aid imai
Ġelektron iniu
n ame
Ġvarik lis
Ġb egal
Ġti ri
ĠposÄĹd yje
ĠAnd rius
t ini
Ġkomunik acijos
Ġteik imo
c el
Ġpriim tas
toj imo
Ġdir v
Ġveik imo
Ġsk un
Ġbu tÅ³
ÄĹl imo
G eguÅ¾ÄĹs
tel e
ici Å¡kai
Ġvad as
Ġsek und
Ġtruk mÄĹ
Ġr ub
ĠneÄ¯ si
Ġ199 1
d avau
Ġri tu
Ġang li
Ġrom anti
J uod
ĠÅ¡vies a
ĠÅ¡un Å³
at ais
tech ni
Ä «
Ġel gi
iem uo
Ġ4 1
ĠiÅ¡ ki
Ġdi alog
Ġf antaz
Ġsusik aup
ar us
Ġklien tai
ĠÄ¯ kr
ul ÄĹs
ĠÂ ·
tom a
Ġkoncer tas
Ġjuos ta
Ġd ik
Ġd an
Ġsur engÄĹ
Ġtem os
Ġkomp ak
Ġpers eki
Ġpav ed
Ġprad ÄĹta
ĠmaÅ¾ os
Ġpakar to
ĠE gip
v alio
Ġ[ ...]
Ġlaikotarp is
Ġstai g
ĠC om
ĠmaÅ¾ inti
Ġmoksl iniÅ³
Ġstud entams
var kos
ra cijÄħ
trauk a
Ġvalst ybÄĻ
iest yje
ĠÄ¯staig ose
v ej
Ġgyd yti
oks id
ĠÅł ar
ĠkÅ«r iniai
Ġtvark yti
ien Äħ
An g
ĠÅ¾aid imus
Ġfirm os
in antys
Ġtu al
ĠL aim
Ġr ied
et ui
Ġnaudoj imas
li f
Par od
ali aus
au ta
Ġsk er
Ġsri ub
acij oms
Ġlig omis
b ÄĹ
ĠaukÅ¡ tÄħ
Ġkon teks
Ġvarik lio
ĠJÄĹz aus
U ni
Ġatliek ami
Ġrekl ama
Ġkri tik
uk ams
Ġvaik ystÄĹs
Ġsun kv
red ien
ĠT al
ĠÄ¯g yti
ĠÅ¡il tas
M W
ĠÅ¡vies Äħ
Ġsusij usius
Tur bÅ«t
id ro
Ġnes is
Ġprad ÄĹtas
Ġorganiz atoriai
Ġproces us
Ġpacien tÅ³
Ġkonferen cijos
D K
Ġnor Äħ
Ġl ov
ĠV Å¡Ä®
esn iems
Å¡ tas
Ġod ontolog
ingi ausiÅ³
P apras
ĠD om
Ġ eli
R ud
Ġpr etend
Ġpad angos
ĠA g
Ġrink imus
Ġnaudoj asi
Ġpaj amas
Ġbendruomen iÅ³
ir as
Ġskaus mÄħ
al ans
Ġtvirtin o
ĠP ra
Ġamerik ieÄįiÅ³
c entr
tim ui
G oogle
Ġre pr
ĠL aik
Ġjaun Å³
ĠBal tic
Tur ime
Ġm eÅ¡k
Ġnuv aÅ¾i
ĠbÅ«d o
Ġing redien
Ġvisuomen ÄĻ
es iÅ³
ĠpanaÅ¡ us
Ġrinkod aros
ĠI V
Ġkep imo
Ġjaus mus
Ġvien ai
Ġrezultat yv
ĠÅ¡ ep
Ġ8 6
ĠKlaipÄĹd a
Ġdrabu Å¾ius
Ġsaul ÄĹ
a w
ÄĹl e
Sieki ant
9 2
Ġplan uojama
B Å«d
ini a
ĠJ er
t uota
Ġkryp tis
Ġkrov iniÅ³
Ġprie l
Ġteat re
yb ÄĹms
ĠuÅ¾sak ymo
Ġs tim
ÄĹj ant
Ġgamin ami
ton e
ĠF or
Ġry tus
m ail
R eik
Ġkonferen cija
Ġl atv
ykl Å³
Ġvaik inas
Ġpatik im
Ġrank Äħ
Ġp lius
Ġsunkv eÅ¾
si o
Ġnar ius
Ġtik imybÄĹ
Ġnem ÄĹg
ĠNepriklausom ybÄĹs
Ġdeb es
Ġpadar yta
B eveik
yt ÄĻ
f i
Ġbi Äįi
Ġties Äħ
Ġnuotaik Äħ
ur k
ĠR eg
Ġm uÅ¡
Ġj ose
Ġ9 5
Ġveiksm ai
il ÄĹ
ĠÄ¯vairi omis
Nauj as
Ġskirting as
ĠD e
Ġgal ÄĹtume
Ġgal imas
S B
ais e
ar giai
ĠÅ¾ino te
Ġpasir enk
iÅ¡k umÄħ
Ġnes ul
G amin
Ġsusid uria
Ġprat ÄĻs
Ġv eg
Ġidenti fik
Ġn ame
ĠreÅ¾is ierius
ĠK o
k g
X X
Ġneabejo tinai
esp ond
ros oft
ev a
Ġkunig as
Ġbyl os
Ġr usi
Ġaps kai
ul ti
Ġpatar imÅ³
V D
ĠryÅ¡ ys
ĠJ as
Ġfestival yje
Ġlap Å³
SiÅ«l ome
Ġs il
Ġalb umas
Ġt avÄĻs
Ġgarb ÄĹs
ĠS ovietÅ³
Ġdra b
and Å³
o od
f unk
Ġkri z
ĠkÅ«r yba
Ġvis oms
Ġilg as
p e
ĠdÅ¾iaugs mo
ĠJapon ijos
Pan ev
ed ija
Ġkar ta
200 6
iz mo
ĠPrancÅ«z ijoje
Ġpl ÄĹÅ¡
ĠuÅ¾s ir
Ġagent Å«ros
viz i
ĠvieÅ¡b utyje
Ġpal aim
A ti
d ai
Ġpask amb
ĠJ ank
Ġpal iek
Ġh oriz
Ä¯ sti
Ġ uod
Ġkon stitu
Vis Äħ
Ġskry dÅ¾iÅ³
Atr odo
ĠiÅ¡rink tas
ĠG el
Ġbendr oviÅ³
Ġlauk ÄĹ
tuv u
Ġnetr Å«k
V ÄĹl
Ġpat virtina
rav imÄħ
Ġneb ent
Ġsusitik ti
Auto mobi
ÄĹli ais
Ġmin utÄĹs
ĠÅ¾ ada
ĠlÅ«kes Äįius
Ġgaranti ja
ĠdeÅ¡imt metÄ¯
ac inis
Ġpirk imÅ³
ĠatsiÅ¾vel g
Ġatm inties
ta cijÄħ
Ġkomand oje
ĠJ urb
Ġprisid ÄĹjo
Ġerdv ÄĹ
At lik
ĠAf rikos
ok a
Ġk in
Ġpat obul
Ġplo to
Ġkalb omis
Ġmas ÄĹs
Ġp ama
N etr
Ġbuv ome
Ġlengv as
Ġpak vietÄĹ
ĠPas aul
Ġkil ogr
ĠnÄĹÅ¡ tumo
aus t
Ġger ti
Ġkel eiviÅ³
ĠÅ¡ on
Å¡k umas
ch e
Ġpak raÅ¡
dom os
ĠapaÄįi oje
, -
Ġt rik
Ġf raz
Susi tik
9 7
Ġasmen is
oj ami
ul s
Ġbal ans
Ġkalb ant
Ġmokes Äįius
Ġplo Äįio
ĠC i
Ġsvetain ÄĻ
K ep
Ġpak eis
l ÄĻ
Ġcentr Å³
Ġd Å«
Ġv ab
Ġproduk cijos
ĠpanaÅ¡ i
ĠpaÅ¾eid imÅ³
ĠÅłved ijos
Ġpasir yÅ¾
Ġpri dÄĹ
in tÄ¯
f on
V ir
ĠsÄħraÅ¡ o
Ġnor ÄĹdami
Ġnuomon ÄĹ
ĠiÅ¡si g
Ġinst ali
Ġetap e
ĠR en
Ġgimnaz ijoje
Ġsuk el
ĠUr b
c tion
Ġatg aiv
Ġnacional inio
Ġdarb u
Ġlaik osi
U M
ĠJ am
ĠlÄĹÅ¡ as
Ġturnyr e
Ġte or
b and
Ġlyg oje
Ġobjek tus
Ġgam toje
Ġtre Äįd
O T
Ġreng imo
Ġsu pil
ĠÅ¡vent es
Ġtelef onÄħ
Ġdv ik
ĠL ib
in kiÅ³
ut inio
Or ganiz
200 0
Ġsus k
Ġatsisak ÄĹ
iek aiÅ¡
ul ÄĹ
Ġkom ent
Ġkr y
ain os
Sp alva
an u
Ġved ÄĹja
Ġvyk dymo
T er
, ...
Ġmerg inÅ³
un kiai
egistr uoti
te ka
tu osi
Ġatvir kÅ¡Äįiai
Ġsie los
V T
Ġanaliz ÄĹ
Ġkated ros
Ġvis uose
ĠG u
aid Äħ
Ġsus p
b os
tos i
Ġmen iu
od i
Ġkiem e
Ġre aliai
r ink
Ġdid esnÄĹs
eng va
ac inÄĹ
Ġaug int
ĠK ybar
An tra
ĠlaiÅ¡k Äħ
ter Ä¯
Ġgalv oje
Ġpapras Äįiau
ã Ģ
ĠaukÅ¡ tÅ³
M et
s im
ĠÅ¡ auk
Es ame
u Äįiai
Ġpastar uoju
Ġek str
Vis ada
Åł alia
ĠvÄĹ Å¾io
Ġim per
Ġarch eolog
Ġau toriaus
ĠmÄĹgst ami
Ġnes ir
Ġprogr es
ĠT e
Ġpateik ta
Äįi ant
Ġpoez ijos
ĠvirÅ¡ Å³
Ġpar engti
Ñģ ÑĤ
ĠpasiÅ«l ymÄħ
Ġaval ynÄĹ
Å«d ij
am inas
ĠuÅ¾ l
Ġvis omis
Ġ199 9
ĠÅ¡ amp
d amiesi
Ġgr yb
P us
t yr
Ġpenki as
el si
Ġpagrind iniai
ym os
Ġpl uoÅ¡
Ġsn iego
Ġplan uoja
and ens
Ġsand ÄĹli
ĠA plinkos
aud ÄĹ
Ġspecialis tÄĹ
Ġpl au
Ġmie go
Ġdetal es
Ġnus is
Ġn i
Ġsuv aÅ¾i
Gr Ä¯Å¾
Ġrad i
Ġmer o
Ġdid esnÄĻ
in Äįius
Ġpoky Äįiai
ĠMind augas
Ġadres Äħ
Se imo
ĠpabrÄĹ Å¾ia
Ġgrei tis
ur kÅ¡
pr at
ĠK aip
Ġsupl an
on es
Ġmie lai
Ġtransp ort
Ġdvasi os
Ġinteres us
ĠÅ¡i to
Ġdr amos
Ġgam ina
ĠV isi
ĠAt l
Ġturnyr as
Ġku pr
Ġpaj amos
Ġkap i
Ġd angos
ol a
ĠuÅ¾ kr
om ai
Ġgim tadien
Ġkop ly
Ġdrus ka
Ġfond Å³
m ais
Ġjaun imas
Ġvyk si
osi ose
aliz acija
Ġneb ÄĹra
Ġatsir asti
I AI
ek a
ĠJ ak
Ġs tori
Ġnus prÄĻs
ĠF il
Ġjud ÄĹti
Ġreguliar iai
Ġobjek tas
Ġpra Å¾
Ġkonstruk cijos
al inio
Ġm ol
Ġ5 8
Ġsvarb Äħ
ĠK am
Ġmo tinos
Ġ( -
en cijÄħ
S ant
Ġjau Äįia
Ġket v
Ġagres yv
Ġagent Å«ra
un tÄĹ
ĠItal ijoje
Ġpav arg
Ġsep tyni
bl og
7 1
Ġ6 8
Ġkak lo
ra j
Ġriz ika
ĠP h
Ġtaik omas
Ġg ard
Ġvad yb
ank st
aid Å³
Ġdv ejus
t av
ĠkarÅ¡ to
ĠA ukÅ¡Äįi
ĠÅ½ al
Ġskirting us
v ÄĹ
iet ÄĻ
ĠÅ¾v ak
ĠÅ¾in ojo
Å¾i Å«ra
uv a
Kiekvien a
Ġpasir eiÅ¡kia
tu kÅ³
J Äħ
ĠÅ¡oki o
Ġb as
ĠL ap
Ġarki vyskup
ki ams
ĠL ab
Ġi kiteis
dar Å¾
Ġsul aik
Ġtur ÄĹsite
Å¾i ui
n am
Ġnug ar
T ais
Ġpriesk on
Ġl aiki
aliz uoti
ĠÅ¡vel niai
Ġpusi au
Ġnes ut
K Å«r
ali oje
Ġpuiki os
Ġt auti
Ġap yv
Ġsug ad
Ġak torius
Ġpam aÅ¾u
Ġh idr
Ġvairuotoj o
aiÅ¡i ad
ĠS T
Ġkriteri jus
Ġhtt ps
ri kas
ĠaikÅ¡ tÄĹs
Ġlyg inant
ib li
ĠRase iniÅ³
v yl
tik s
ĠvirÅ¡ aus
is as
ĠraÅ¡ ytojas
Ġvadin ami
Ġpasin aud
9 6
Ġorganiz avo
irg in
ĠÄ¯ am
ĠuÅ¾ r
u ti
ĠdÅ¾iaug ÄĹsi
P aÅ¡
Ġgydytoj o
ni u
Ġeleg anti
Ġpra ÄĹjus
ĠVal d
ĠÅ¾aid ÄĹjas
7 6
Ġvai vad
Å½mog us
Ġnetek o
m ei
Ġaug alai
ograf ija
Ġs iÅ³sti
Ġpat ri
An d
ĠS aulius
ĠN av
Ġpaskelb ta
iz mas
Ġne va
Ġsuaug usiÅ³jÅ³
Å¡k ÄĹ
ĠuÅ¾ tenka
Ġtur ÄĹjau
Ġil gi
ĠiÅ¡lik o
ĠR em
Ġel ek
ed ijos
Ġsugeb ÄĹjo
Ġkuri oms
Ġsusitik imÄħ
At sis
Ġmoksl ininkÅ³
Ġpad ÄĹtÅ³
Ġar eÅ¡
Äį ienÄĹ
Ġkl imato
Ġim pl
Ġpasirod yti
Ġpasip uoÅ¡
aud as
Ġpalaik ymo
Ġpr esti
aik os
Ġkomplek tas
Ø §
yd er
Ġsugeb a
ĠgrieÅ¾ tai
Ġmed ik
J iems
Ġkar as
Ġbes ik
ti enos
Ġsen o
Ġci gar
ĠuÅ¾pil d
ĠP ap
Ġpapasak ojo
Ġsov ietÅ³
ĠiÅ¡l eistas
Ġg ud
ĠPard av
Ġre abili
ĠR um
tar o
Ġdarb ais
Ġv ÄĹs
ĠÄ¯r ank
Ġgal ÄĹtumÄĹte
y te
man o
Ġpirm uosius
Ġkor telÄĹs
Ġatsis p
Ġalb umÄħ
oj aus
ĠÅ¡i uolaiki
ĠtreÄįi Äħ
Ġnup irk
Ġpri Å¾iÅ«rÄĹti
Ġrung tyni
Ġlang o
Ġsum uÅ¡
ĠAngli jos
kir p
l d
Ġnep aprastai
Ġfak tas
ĠÅ¾ enk
Ġgydytoj ai
ausi omis
ykl Äħ
Ġimp erijos
ĠJ u
sm uo
S P
yv ena
ĠH D
ĠI s
Ġpuslap io
Ġvis u
od avo
Ġram ybÄĹs
ry Å¾
Ġtam siai
Ġd yk
Ġjuos tos
Ġpatiek alÅ³
Ġtradi cija
Ġdang aus
ĠÄħÅ¾ uol
es tin
Ġdovan os
et ÄĻ
Ġl im
ĠM es
Ġaptar ti
Ġjaun as
ank a
Ġli zd
Ġpasku tinis
ink ime
Ġak cija
Ġpagrind inio
Ġsen Å³
ĠÅ¡il d
ĠÐ ¿
Ġl ÄĹ
Ġsm Å«g
Ġbr olis
Ġpri lyg
Ġdid ÄĹja
Ġman ymu
ni ui
ĠÅ¡ tab
Ġgr un
Ġpan or
Vien i
Ġteri tor
Å« st
Ġnen u
Ġsurink o
Ġnugal ÄĹjo
Ġpam inÄĹ
Ġraj onas
Ġtr um
J oje
Ġvien iÅ¡
var i
Ġsusij usios
Ġtechn inÄĹs
ĠvertÄĹ tÅ³
ĠlÄĹk Å¡
ĠH ar
ili ja
bi liz
i fik
Ġorganiz me
Ġnacional inÄĹs
p ra
en ai
ĠA ir
Ġpapildom as
k ab
imas is
M ÄĹg
et es
Ġsutik ti
Ġp up
Ġnek alb
Ġprofil ak
Ġnu traukti
Ġaug ti
Åłiau liÅ³
Ġstebuk l
tinink as
Ġal k
Ġti p
Ġadministra cija
ĀĀĀĀĀĀĀĀĀĀĀĀĀĀĀĀ ĀĀĀĀĀĀĀĀĀĀĀĀĀĀĀĀ
ieri ai
7 4
aliz mo
ĠnatÅ«r alios
Ġmyg tukÄħ
Ġan tik
Ġypat ingÄħ
Ġ5 6
ĠÅ¾urn al
f r
c inÄĹ
Ġelg esÄ¯
od ama
Ġspaud ai
Ġim pr
Ġlauk Äħ
Ġbyl oje
Med Å¾i
Ġpasirink o
an cijos
Ġv ÄĹd
h tt
ur od
al g
var st
Ġnemok amas
Ġeksper tai
ĠvarÅ¾yb as
k yr
s on
ĠÄ¯mon ÄĻ
Ġtik tÅ³
Sv etain
imas i
Ġvar tÅ³
Ġrefer end
Ġriz ikÄħ
Ġsu tink
Ġpraei ties
Ġpas ist
Ã ³
Ġprod ius
ĠiÅ¡or ÄĹs
ĠPet ras
k am
Ġnuotaik a
Ġpriver sti
ĠD av
ĠSe imas
or b
ĠtaÅ¡k o
tr y
Ġatlik tas
Ġd ieg
ĠÄ¯dom iÅ³
Ġdvasi a
Ġsu tinka
ĠS ib
Ġkontr olÄĹ
ĠpraÅ¡ o
ĠmaÅ¾ Äħ
Ġtur inys
r Å«s
Ġtikr us
Ġatsakom ybÄĹ
Ġnaud ingas
Ġvad inti
ĠiÅ¡ klaus
Ġet er
I EN
Ġpaskelb ti
ov ams
tor ÄĹs
Ġatvir ai
i to
ĠL aisvÄĹs
Ġket ina
oc k
Ġduk ra
7 9
ĠpÄĹd sak
Ġk ub
Ġsus ie
ĠI sl
Ġv entili
Ġtink ama
ri z
Ġantr as
Ġvarto tojai
S M
Ġpavad inimu
yn us
Ġapgyvend inimo
BirÅ¾ elio
gi us
Ġsal ÄĹ
Ġger bi
ĠÄ¯v eik
Ġkl asi
l aik
Ġof icial
ins ko
ek ÄĹ
Ġpasi tel
EL FI
Ġp Å«s
ĠrÅ« muose
ĠS ch
Ġtink las
ym ams
Ġd o
Ġskirting ai
ĠdÄĹv ÄĹti
ĠkÅ«r inius
Ġneb es
f l
Ġgyv ai
ĠJ aun
Ġsusi Å¾
Ġlaikotar pi
Ġapim tis
ĠkÅ«r ÄĹ
Ġpusi aus
Ġs ir
R om
T V
Ġtaik omos
g alv
b urg
og i
. -
Ġgyv as
em inis
Ġgyven imu
B u
Ġnuo tol
ĠS tep
Ġvyr esni
Ġlietuv iÅ¡kai
Ġporeik Ä¯
em at
Ġ8 00
in av
Ġbaigi asi
5 9
Ġstipr inti
b ÄĹs
t iniams
ci Å¡k
Ġsk al
Ġlyti es
Ġdom ina
id om
Ġsod ybos
ĠG am
ĠÅ¾ai zd
Ġkr anto
Ġt ÄĻsti
ĠprieÅ¾iÅ«r Äħ
yb inio
ĠkÅ«r ÄĹjai
Ġpatvirtin ti
ĠÄ¯d ÄĹti
g u
Ġatskl eidÄĹ
enk ÄĹ
ĠgrÄ¯Å¾ ta
Ġap Å¾iÅ«rÄĹti
Ġorganiz mas
Ġbald us
oj asi
IM AS
Ġl ovos
Ġnev yk
um er
Ġorganiz avimo
Ġfiz inio
ĠK aina
in anÄįios
B us
yr ank
Ġpried ai
Ġl aidos
g lob
Ġprat ur
Ġpagalv oti
Ġap kal
N uol
N atÅ«r
ĠG ud
Ġkon stat
ĠveÅ¾ im
ĠJung tiniÅ³
ĠiÅ¡ ver
ĠP ab
Ġmin utÄĻ
Ġpaskol Äħ
Ġmok osi
ĠiÅ¡ eiti
n ink
R ez
Ġgali Äħ
Ġpatrauk li
ĠpanaÅ¡ Å«s
Ġtaik omi
Ġnustat ÄĹ
Ġtiks liau
Ġatk ak
Ġburn os
ĠJÄĹz us
ind ama
aud amas
ĠO land
ĠÅ¾in om
Vasar io
ĠS od
ĠiÅ¡g ird
Ġkambar iÅ³
Ġ5 2
ĠLa zd
Ġsuk uri
ĠÄ¯vyk d
ais t
Ġkuri ant
or ÄĹ
ĠuÅ¾ klaus
Ġapskri tyje
Ġnes il
Ġes mÄĹ
r eng
Ġnu teis
ÄĹjusi Äħ
Ġnak ties
Ġt ok
ro id
ĠÄ¯g ali
ĠN o
ĠrÅ«p inasi
Inter net
Ġkor eg
or u
Ġvitamin Å³
Ġtur ÄĹtumÄĹte
b rÄĹÅ¾
Ġval do
Toki os
ĠkÅ«r ÄĹjÅ³
ĠÄ¯ dÄĹ
Bal andÅ¾io
Ġgl aud
Ġapd irb
200 5
ie Äįio
ing omis
Ġ4 9
Ġkeis ta
Ġfil me
Ġr edag
200 4
Ġstruk tÅ«ra
Ġdang Å³
li ukai
ĠmiÅ¡k e
inter es
aiÅ¡k os
ĠÄ¯mon ÄĹje
Ġko ali
Ġg ausite
Ġinform uoti
an us
Ġ( ,
ĠpaÄįi ais
ĠÄĮ eki
V ol
Ġl yt
Ġkar alius
Ġm g
Ġsusid Å«r
t uoju
Ã ¤
Ġgatv ÄĹ
Ġkapit alo
and Ä¯
Ġpenk is
ĠiÅ¡v is
Ġd antis
men inÄĹs
Ġdokum entÄħ
Ġal iejÅ³
Ġnumat yti
elsi ant
Ġsvarb iÅ³
Ġb eg
Pas aul
ĠsÄħ j
Ġlang us
Ġkarali aus
Ġreiki amÄħ
Ġdain as
ĠpraneÅ¡ ti
N r
ï¿½ï¿½ ï¿½
V irÅ¡
Ġprofes inÄĹs
Ġatskl eidÅ¾ia
ri p
ĠAn ykÅ¡ÄįiÅ³
m er
Ġfunk cion
ri ausiai
V ytau
L yg
Ġ omen
Ġinvest uoti
Ġkodeks o
ĠP ad
Ġatk eli
Ġnor imÄħ
Ġ199 8
audÅ¾i a
ĠKaz imie
Ġpak uotÄĹs
Ġnor ÄĹjau
Ġtem Äħ
ĠÅ¾enkl ai
Ġkar iai
Ġbrand uol
eivi ams
Ġtap tÅ³
Pirm oji
Ġreng inyje
Ġgel ton
ĠiÅ¡s ir
ĠS te
Ġgyven s
Ġpirm ininkÄĹ
Ġes antÄ¯
ĠpradÅ¾i Äħ
Ġsusitik o
Ġnel eg
Ġol impi
ĠÅ¾uv Å³
ĠÄ¯sig ij
g Å³
ĠbÅ«d us
Ġd ÄĹti
Ä¯ Å¡
Ġvert ybes
cik lop
Ġb ÄĹgi
Ek sp
ĠIgn al
Netr ukus
T iki
ĠiÅ¡v yko
N acional
Ġmen Å³
Ġtelef onÅ³
Ġgim inai
eks as
Ġsusi gr
IÅ¡ matavimai
ĠÅ¾ ir
Ġmod eliai
lio ti
k im
Ġb ali
Ġmen as
to na
Ġvarto tojo
i osios
Ġlem p
Ġpavard ÄĹ
UÅ¾ s
Ġfon das
Ġpor tr
5 6
Ġligon inÄĹje
ĠdraudÅ¾i ama
ĠkvÄĹp avimo
Ġprisim ena
ki Å¡
Ġkur so
ator ÄĹ
Ġatkur ti
ĠiÅ¡m aiÅ¡
Ġdepartamen tas
ĠS ant
Å«r as
ul a
Ġrink ti
in ui
Ġsusid aro
ĠÅ¾uv ies
ad Äħ
y tum
Dr aug
Ġnuorod Äħ
ĠÅ¾ arn
Ġpaskol Å³
Valst ybÄĹs
ĠM ag
ta bu
an ce
Ġdaug ybÄĹs
ĠmaÅ¾ ÄĹja
iur li
g yvend
Ġelektron inÄĹs
Ġpavoj Å³
oj Å³
ĠÄ¯ran kiai
tin ÄĹms
Ġatskir ti
Ġtekst Äħ
ĠP aulius
kl as
ĠO n
ĠÅ¡i omis
ĠÄ¯ran kiÅ³
ĠKonstitu cijos
ank Å¡
ni as
Ġkokyb iÅ¡kai
ĠÄ¯sitik inÄĻs
S h
ĠvÄĹ liav
ĠÅ¡v ed
Ġkur or
ĠLond one
ĠparaÅ¡ yta
S an
ĠkraÅ¡ tÄħ
ank os
Ġkurs ai
âĢĻ ,
Ġprim en
Ġpatik sl
Ġnepr iekaiÅ¡
Ġproced Å«ra
Ġklini k
Ġgal ÄĹÄįiau
Ġlietuv is
ĠS lov
ol Å¡
Ġproduk tÄħ
ri bu
Ġam bi
ĠÄ¯stat ymus
Ġpolitik Å³
Ġreikal ingos
at ui
Å¡ os
S aug
Atsi Å¾vel
Ġsen as
Ġnuotaik os
Ġatsikr atyti
" ).
o tÄħ
ĠÅłven Äįi
c l
ĠiÅ¡si k
Ġpasid om
Ġkoncer tÅ³
Ġsien Äħ
Ġsusirink o
Ġiniciatyv os
Kiekvien Äħ
ing oje
I U
Ġgrei tas
el as
ĠL ink
Ġpaskir st
B aig
er t
Ġpas to
ĠGr uz
ĠnatÅ«r alus
Ġpiet vakar
Ġs irg
Ġbal tos
ĠpalÅ«k anÅ³
os o
ĠleidÅ¾i ama
in Äįios
Ġat eis
otel s
Ġtrump Äħ
Ġeksper tÅ³
Ġtik tai
ev o
Ġteis ingumo
ĠK unig
Ġg aila
ĠmaÅ¾ ina
Ġkei Äįia
Vis iÅ¡kai
ĠVar ÄĹn
Ñ ĩ
Ġkosme tikos
f ek
5 3
Ġnerv Å³
ĠSveik atos
ol l
auto bus
ang omis
Ġatliek ant
Ġnepr al
ap usi
et iniÅ³
Ġorgan Å³
ä º
Ġproces Å³
ĠO b
ĠM or
ĠÄ¯v eikÄĹ
Ġf ron
Ġg es
P et
p in
ĠÅ¾vaigÅ¾d ÄĹs
Äįi usi
Ġtrans form
am umo
ĠÄ¯g alio
Ġvyriaus ybÄĹ
ĠK u
ĠÄ¯sivaizd uoti
Ġpati ria
Ġporeik is
uot es
ĠaikÅ¡tel ÄĹje
Ġpirm os
Ġbyl Äħ
Ġties os
eri ui
Ġr oko
ĠMar ija
Ġvadovauj antis
Å¡ Äħ
Ġl ÄĹtai
ov ui
Ġl ÄĹmÄĹ
ro Å¾
Ġpal ink
Ġpus iÅ³
Am eri
tikr inti
ĠÅ¡il ta
L e
Ġpatar ia
5 4
ĠKomis ija
7 2
ĠÄ¯vairi uose
ĠÄ¯vyk s
ĠA dom
bÅ« tÅ³
F A
Ġne form
Ġpasitik ÄĹjimÄħ
ĠiÅ¡ mat
ĠÄ¯vai zdÅ¾i
ĠX VI
Pris tat
Ġpil ieÄįiai
Ġinfrastruk tÅ«ros
Ġdid esnio
Ġaug o
Ġmiest elyje
Ġbals Å³
Ġperk elti
Ġsav yje
ep i
ĠAz ijos
Ġim un
c eli
ĠapraÅ¡ ymas
Ġkil ÄĻs
Pran cÅ«z
Ġpapras Äįi
Ġpoli c
Ġoper atyv
Ġparti jÅ³
Ġatspind i
Ġsuteik ta
ĠÅ¾ ar
ĠplÄĹ tra
Es ant
id a
Ġpra ÄĹjusiÅ³
Å³ jÄ¯
Ġbendradarbi avimÄħ
Ġsimbol is
Ġmeto das
% ,
Niek o
Ġsri tÄ¯
eipi a
P K
Ġvairuotoj ai
er alÅ³
B l
ĠÄ¯dom i
Ġjuod os
ĠiÅ¡gyven ti
Ġd ulk
ĠplokÅ¡ tÄĹs
Ġnauj ienos
Ġdraug us
ie Äįius
Ġsup irk
Ġd ok
Ġtaik os
ĠVyriaus ybÄĹ
Ġilius tr
? ?
ĠVokieti ja
Ġgr aikÅ³
Ġstat ybÅ³
Ġr ytoj
200 3
Ġstandar tus
Ġsal ÄĹs
Ġnek al
Ġekonom inÄĹs
an ijoje
ĠÅ¡vie Å¾i
Ġinov atyv
Ġtr unka
Ġap a
Ġrink a
iÅ¡k umas
Ġbuv usio
ĠgÄĹr imÅ³
auj antys
Ġl y
ĠRad vili
Ġkokyb iÅ¡kas
Ġpe ties
Ġdaik tai
p iÅ³
ek as
ĠpaÅ¾ angi
Ġur ÄĹd
Ġstim uli
at ur
Ġpakank a
Ġvanden iui
ĠiÅ¡k el
ortu gal
Ġned elsiant
Ġ18 0
ĠÄį esn
Ġpas ij
ak alb
ĠprieÅ¾as tys
Ġfol kl
Å«n us
Ġb audos
Str aip
Ġmag net
ĠB os
Ġprofes inio
Ġsto ties
Ġapib endr
Ä®dom u
Ġnegal ime
ĠlietuviÅ¡k Å³
yt ei
Ġpapras tÄħ
ĠG ri
ãĤ¢ãĤ¢ãĤ¢ãĤ¢ ãĤ¢ãĤ¢ãĤ¢ãĤ¢
ĠtÅ«kst anÄįius
s ko
ÄĹ tus
Ġvie tiniÅ³
Ġo pozi
ĠLond ono
Ġp eÄįiÅ³
ĠÄ¯ n
Ġsustab dyti
Mo ter
Ġklas ÄĹje
6 2
ĠJ uli
em ti
DÅ¾i augi
Ġpar engÄĹ
Ġatliek ama
ĠkaÅ¾k ada
ad e
Ġproces e
Ġrod yti
ĠiÅ¡vaizd a
yn a
ĠÅ¾i bin
Ġint rig
ĠKÄĻstu tis
I G
Ġl emi
Ġpa Å¾iÅ«rÄĹti
Ġpat eis
o ur
Ġapylink ÄĹse
Ġdir ektyv
ĠB ern
Ġlietuv iams
Ġpil vo
Ġ199 5
in tai
Ġbu to
v aj
Ġpasieki a
ĠIzra elio
am inimo
c t
Ġik imok
N ug
Ġklub e
ĠuÅ¾pil dyti
Ġkrik Å¡
ev er
Sp eci
Ġkil ti
Ġ199 2
Ġlik s
ĠnebÅ« tinai
ĠDv asi
ĠG i
Ġsusi b
Ġ199 7
Ġg ausiai
Ġkurs us
ri jÅ³
Ġdar oma
yp e
ak a
tak ul
m aiÅ¡
Ġparod Äħ
man tas
Ġmas yv
gi ta
Ġpagrind Äħ
P vz
ĠÅ¡imt me
Ġspind uliÅ³
ĠB NS
Man oma
ĠmarÅ¡kinÄĹ liai
Ġr ai
Ġre Äįiau
Ġtvir tai
Ġkur jer
Äįi am
Ġkito kiÅ³
Ġsitu acijoje
Ġd ulkiÅ³
Å¾ d
mo bil
Ġvari antÄħ
Ġreng iniuose
Ġpasir inkite
Ġpapildom os
Ġpriek ab
ais ti
Ġpaver sti
V yk
Ġver Äįia
L A
Ġkeli ai
m atÅ³
Ġskelb imÅ³
ĠÅ¾ai dÅ¾ia
Ġform as
Ġgaus a
D vi
Ġprinci p
Ġprem ijos
Ġsantyk is
Ġgydytoj Äħ
D ÄĹk
Ġpad angÅ³
Ġorganiz mui
Ġnesk ub
ĠlÄĹÅ¡ os
Ġbend rijos
il ÄĹs
Ġkvap Äħ
Ġpak op
Ġmeil e
Ġpasi imti
Ġvairuotoj Å³
om ojo
ĠEurop Äħ
Ġpras mÄĻ
ĠI m
Ġvalstyb ÄĹje
Ġb ak
ĠnatÅ«r aliÅ³
Ġgam ybai
Ġg a
egori jos
ĠiÅ¡ trauk
ĠdidÅ¾i ulis
ĠÄ¯tam pos
Ġnum erÄ¯
Ġsuteiki ama
Ġ5 9
ĠPr Å«s
Ġsutrik imÅ³
ĠG oogle
Å«s ta
ni a
Ġreikal as
Ġauto rÄĹ
ĠpadÄĹti es
Ġsp ektr
Ġatlik ta
Ġleid imo
ĠV en
L enki
ĠaikÅ¡ telÄĹs
Ġtinkl araÅ¡
Ġlank y
Ġekstr em
ĠiÅ¡ pr
Ġtek sti
ĠÄ¯g ijo
ĠR aÅ¡
Ġnor o
n elÄĹ
Ġpal ap
Ġry tuose
Ġpergal ÄĹs
ĠpavyzdÅ¾i Å³
Ġfoto apar
Ġpil ies
Ġnedid elis
Ġdi ab
ĠLenki ja
ĠÅ¡il umÄħ
Ġfil mai
Ġnep aj
Ġatsis veik
vi us
Ġlang Äħ
5 7
Ġsusir Å«p
Ġpavad inimo
Ġnes in
ys te
p ÄĹ
Ġvad ybos
Ġatskir Å³
' s
ĠAnd ri
ĠÄĹm ÄĹsi
ĠaukÅ¡ ta
ĠPar lamento
Ġnepriklausom ai
Ġpar os
Ġki b
ymas is
ĠÅ¡ ali
ĠÄįempion atas
Ġd ez
Ġst end
Ġniek ad
Ġkompiuter Ä¯
Ġpastat ai
Ġbank Å³
ĠX III
Ġpro t
Ġdis kr
et ur
Ġkai ri
ĠÅ¡iukÅ¡ liÅ³
ĠÅ¾ini omis
ĠTau tÅ³
Ġs tu
Ġteig ti
Ġdi rig
Ġchar akteri
Ġelg esys
Ġteat r
Ġbendr ai
Ġaug imÄħ
Ġsav ijau
yder land
ÄĹn o
ĠÄ¯ temp
Ġmoksl as
Ġpra pl
Ġnusi vyl
Ġnes ig
st an
Ġhig ienos
Ġtr aukia
5 2
âĢľ :
Ġsak r
à ¤
Ġas fal
Ġabej oniÅ³
el a
ĠDiev Äħ
Ġpaim ti
Ġalium inio
ĠaikÅ¡ telÄĹ
r Ä¯Å¾
Ġes te
Ġreikal us
v yst
ĠmaÅ¡ in
ir e
Ġentuzi as
V A
Ġaug inti
T AS
ĠmaÅ¡ inÅ³
IJ OS
Ġskai to
ĠÅ¡i ose
Ġatsak ymÄħ
S um
ĠÅ¡im tus
ol Å³
ĠkrikÅ¡Äįi oniÅ³
ki Äħ
Ġnaudoj imÄħ
Ġm am
Ġantr asis
Ġkvap as
Å½ mon
Åłi uolaik
Ġtal en
A uÅ¡
ĠKr em
dÅ¾i ui
X V
ien tas
ĠdeÅ¡imt meÄįio
Ġteiki ama
Ġkeli auja
Ġa er
telk ti
ĠuÅ¾si im
Ġrez id
7 00
ĠÄ¯vy kiai
ri to
Ġmat au
yb inis
tas i
Ġnaud ingi
ĠprieÅ¡ ais
ĠmÄĹg ÄĹjÅ³
Ð ¹
is s
au ro
k y
Ġpus an
ori d
Ġki aul
oj antis
Ġstov ÄĹjimo
Ġ199 6
ĠB ron
Ġvit amino
ĠÄ¯ p
Ġvyr Äħ
ĠsunkveÅ¾ im
Ġdu j
Vaik Å³
Ġprim inÄĹ
Ġb enz
Ġkar t
n ep
Ġdr eb
R eg
Ġv ib
Ġsez onas
Ġpaskelb tas
Ġkei timas
ĠiÅ¡l yg
ĠRoki Å¡kio
E x
Ġmod ifik
o tai
Ġpavel d
Ġnep apras
ĠT ais
Ġh idro
Ġe tikos
Ġemo cijas
Ġdarbuotoj us
ÄĹjusi o
B ar
Ġpas ien
Ġmais tu
v at
in ÄĹjimas
anÄįi ose
Ġrungtyn ÄĹs
Ġsidab ro
Ġsal a
Ġ {
ÄĻ Å¡
tiÅ¡k os
Ġvyri ausiasis
ĠÅ¾mog iÅ¡k
g aliÅ³
tr u
oj usi
ĠB ag
Ġaud iniÅ³
ĠI l
ĠR oÅ¾
Ġsek ti
ĠPr ienÅ³
Ġlaiv Å³
ĠBas an
ĠsudÄĹ tis
ĠÅł is
Ġnustat ymo
E g
L R
Ġsus imÄħ
Ġpamok os
ĠbÄĹg ant
Ġv az
Ġpo b
auj anti
Ġdain Äħ
ĠbÅ«r ys
Ġnepr is
Ġpasitik ÄĹjimo
Ġ5 4
Ġnepriklausom ybÄĻ
Ġner e
Ġklub Å³
at er
Ġpral eid
Ġilg am
ĠlietuviÅ¡k os
Ġsav ininkai
Ġalb umo
d ik
ĠuÅ¾ tr
Ġdvigub ai
Ġpatik ÄĹti
ĠÅ¾vaigÅ¾ dÅ¾iÅ³
uomen Å³
Ġarchitek tÅ«r
te li
Ġdemokr at
Ġkit ame
ĠmaÅ¾ esnÄĹ
Ġl enki
Å« tÄĹ
Ġeki pa
V eik
am Å¾iÅ³
ĠrÅ«Å¡ ys
ang ai
ÄĹj ime
ĠiÅ¡s in
ĠapÅ¡ il
Ġpalaid inÄĹ
Ġvel tui
S A
Y pat
d al
Ġug dyti
ĠS aulÄĹs
ytoj ui
Ġrezultat u
Ġsur engti
ĠNemun o
Ġgeneral inis
Å« si
Ġan ali
Ġgalim ai
Si un
l ie
ali am
ok Å³
% .
Ġpasibaig us
es as
ĠÄ¯rod yti
k st
ĠÅłv Äį
Ġmas aÅ¾
Ġap Å¾vel
Ġstruk tÅ«ros
Ġb akal
Ġsi uÅ¾
Ġvirtuv ÄĹ
Ġdar ÄĹ
Ġpavoj us
ĠVel yk
Ġviz u
7 3
Ġfil mus
Turi u
Ġsu interes
te liu
ĠÄ¯ trauki
ĠÅ¾vilg snio
Ġsub alans
ĠÅ¡ lai
ĠF l
uk e
Ġat ras
ĠW il
Ġlab dar
Ġl ek
Ġnuostat Å³
al inÄĹ
Ġup ÄĹ
es ta
dÅ¾i au
ĠT u
Ġpasku tinÄĹs
Ġi sl
Ġes anÄįio
ĠaukÅ¡ tai
Ġsal oje
Ġjaun imui
on y
Ġned r
Ġgamin tojas
Ġpast angas
Ġsuk eli
aid ÄĹ
engi ant
ist iniÅ³
Ġatstov ÄĹ
ti ki
ĠpaÅ¾ in
ĠM a
Ġnag Å³
Å«nai tÄĹ
auj u
Ġpasau liui
Ġs fer
ĠÅ¡ ans
Å¾ uv
Ġkamer a
Ġmont avimas
ĠpaÅ¾ym ÄĹti
Ġs chem
Ġsmeg en
ĠU N
Ġsluok snis
Ġstori o
ĠRad vil
s ÄĹj
Ġpabaig a
id ai
Ġs arg
Ġpil is
ĠÅ¾urn alo
r op
Ġmel od
Ġt est
dÅ¾i os
Ġvai Å¡
Ġge ograf
Ġtri ko
r ganiz
Ġintelek tu
Ġne var
Ġpal ieka
Ġdalyv ius
Ġgyv Å«nai
Ġtr Äħ
Ġst ambi
Ġen ciklop
ĠbÅ«d ai
D is
M on
ĠpaÅ¡ tas
Ġnel yg
Ġjau na
ĠdeÅ¡imtme Äįius
ĠJung tinÄĹs
Sk elb
Ġpagamin ta
Ġsusi tvark
H otels
Ġlyg a
l yje
r om
ĠeÅ¾er as
Ġpati ri
qu e
Ġb aj
ĠÅ¡i tÄħ
Ġtarptau tinio
Ġdid esniÅ³
os p
Ġatvej us
ÄĹg iÅ³
a kius
Ġmerg aitÄĹs
Ġobjek to
E r
ĠV ir
Ġkunig Å³
Ġkonc entr
Ġdr ama
Ġpartn eriai
st ravo
Ġb aid
ĠR es
ĠÄ¯sig ali
Ġbendradarb iauti
Ġlo Å¡
Ġbilie tus
eÅ¡ i
ĠV irgin
ĠT om
tori ui
uoj amo
kir sti
ĠiÅ¡ raÅ¡
Ġapsis prend
in kitÄĹs
ĠBri us
Ġkraujagys liÅ³
ar is
Ġlik us
g in
j u
tyn iÅ³
Ġstudij uoti
Ġmaki aÅ¾o
Ġnor intiems
Ġlog oti
Ġat om
Ġsl op
Ġkoj as
ĠÄ¯reng iniai
Ġnuotrauk oje
Ġparduotuv ÄĻ
Ġzon oje
Ġjaun Å³jÅ³
Ġfo tos
Ġid ÄĹj
Ġpris ik
ĠDiev ui
F acebook
ĠneÄ¯ gal
Ġaplink iniÅ³
Ġsulauk ti
ĠuÅ¾d uoti
Ġskirting os
ĠakivaizdÅ¾i ai
Ġsveik at
ĠatsiÅ¾vel gti
Ġgalv oja
on omis
ĠE v
Ġg inti
Ġgars us
ĠS and
Ġfinans inÄĹs
ĠK aiÅ¡iad
Ġ1 10
Ġder a
atu ir
Ġkonkr et
Ġmalon u
Ġtarptau tinis
Pl aÄįiau
Ġaktu al
Ġsupr antu
ĠreikÅ¡ mÄĹ
u tÄĹje
Ġvykd oma
Ġdrab uÅ¾
Ġkomisari ato
Kalb ant
ĠP au
Ġteis e
ĠiÅ¡silav inimÄħ
Lab iausiai
ĠkrÅ« tinÄĹs
Ġsveik Äħ
ĠB ab
in siu
Ġnam ams
Ġsmul ki
Ġneturi u
Ġne utr
Ġpamok as
Pras id
Ġd oc
ĠdaÅ¾ ai
Ġstriuk ÄĹs
Ġtinkl Äħ
ĠNe w
li umi
Ġpav ien
Ġbendr os
ĠaukÅ¡ tyn
ot h
ant ÄĹ
Ġnes unkiai
kai to
Ġveik sniÅ³
ĠprocedÅ«r Å³
Ġp elÄĹs
Ġtrenir uotÄĹs
ĠS ab
k ap
ĠÅ¡il um
Pagrind inÄĹ
ĠsumaÅ¾ ina
ĠBirÅ¾ Å³
Ġvai ro
Ġsl ÄĹn
Ġati teko
tr us
At vyk
Ġlaik ÄĹ
Ġaktu ali
ĠÄ¯raÅ¡ as
Ġnu tol
8 9
f os
Ġstat yba
Ġpam uÅ¡
Ġ \
L auk
Ġpar eikal
ĠValst ybinÄĹs
Ġmoter Ä¯
": "
M in
Ġdeg uo
Ġkolektyv as
ĠPanevÄĹÅ¾ yje
ĠA ur
Ġad ap
Ã ¶
ÑĢ Ð°
Ġprofesion alÅ³
C entr
ĠLi ud
id e
Ġmokykl as
ĠuÅ¾si imti
Ġak Ä¯
Å½ iem
ĠbÅ« site
Ġkomp lik
Ã ¼
Ð¾Ð ²
ĠUni ver
Ġgimnaz ija
Ġsusisiek ti
Ne Å¾inau
Ġprek ÄĹ
h ol
N el
ĠVid ur
Ġskai tÄĹ
ĠiÅ¡vaizd Äħ
oj os
Ġst ak
Ġg ÄĹlÄĹs
eiÅ¡k ÄĹ
Ġpakvies ti
akar toj
Ġbals as
Ġb ut
ĠM erk
Ġatsis kait
Ġuniversit et
Ġapg alv
ĠÅ¾vaigÅ¾ dÄĹ
Tik riausiai
Ġstov ÄĹjo
Pasir odo
Ġtelef onas
uo mo
Ġs ag
Ġk W
in amÄħ
Ġm and
ÄĹk ime
Ġtek a
Ġkain omis
Ġv alios
ĠuÅ¾ rak
ĠÅ¾i au
Ġlaid Å³
m ies
Ġmoderni z
Ġnar iais
ĠJon avos
Niek as
tiesi og
Ġf ini
m y
Nes eniai
Ġvaizd ai
ĠpraneÅ¡ imas
is e
Ġpopuliar us
Ġpatog Å«s
Ġsuaug usiems
S up
Ġpageid auj
Ġmoksl eiviai
Per nai
Ġseks o
Ġsutvark yti
es iai
ing umu
Ġpro tÄĹ
Ġnereik ÄĹs
ĠA li
ul o
I Å¡k
Ġnuostat as
Ġmok ymai
Ġbat eliai
Reng inio
ĠdidÅ¾i Å³jÅ³
Ġpacien tams
Ġvyr u
Ġpras mÄĹs
Ġspeci fik
ĠJ Å«r
ĠÄ¯k al
6 1
od as
ĠÅ¾iniaskl aid
ĠÄ¯g al
ĠvalstybÄĹs e
Ġklien tas
Vilni uje
Ġpertrauk os
Ġtechni kÄħ
ĠtÄĹ ra
ĠÅ¾in omÅ³
Lie pos
le y
ult Å«r
s tis
Ġtarn ybÄħ
Ġgird ÄĹti
E P
Tik s
Ġantr ÄħjÄħ
N emok
Ġver tik
Ġats argiai
Ġbilie tÅ³
ĠneÄ¯ gali
ĠUkrain oje
ĠVlad im
Ġtiksl u
Pran eÅ¡
Ġstres o
at h
Ġgr as
Ġminti mis
Ġteiki amos
Ġbaim ÄĹs
ĠinÅ¾in er
ĠKal var
Ġten iso
Ġ eid
atv ÄĹs
Ġes anÄįius
Ġapdovan oti
ĠL au
Ġprev encijos
Ġkonteks te
ĠÅł irv
Ġd or
ĠÄ¯raÅ¡ Äħ
ĠMind augo
ĠnepaÅ¾ Ä¯st
uk so
Ġgar siai
ci a
5 1
Ġd on
Ġnaud a
Â »
tom at
Ġsiau r
Ġau toriai
Ġ6 4
Ġb ijo
Ġkos m
Ġtradi cijos
ĠS P
Ġpa auk
Ġak torÄĹ
Ġpert vark
yr as
ĠiÅ¡lik ti
Ġak menÅ³
Ġpapasak oti
Ġprog os
pat s
Ġsek asi
Ġperk el
Ġmergait ei
Ġl ob
Ġlik vid
Ã Ń
Ġsvetain iÅ³
Ġt onÅ³
Ġnepag eid
Ġapyk ai
Ġmetod us
kl ÄĹ
Ġv ÄĹjas
ĠV U
Ġtikr u
ĠÄ¯pras tai
8 2
Ġbe bÅ«tÅ³
Ġgau tas
Ġd atÄħ
Ġpr ez
Ġt ei
Ġgam inius
Ġvais tai
yl ÄĹ
Ġpas m
ĠÄ¯mon ei
ĠAk men
er as
Ġn ov
ul mon
Ġman oma
Ġpuslap Ä¯
Ġatostog as
s us
Å½ iÅ«r
9 4
imen u
Ġatsipalaid uoti
Ġ7 00
Sp ecial
Ġm y
tar p
teri jos
Ġgalim ybe
Ġpat var
Ġgali ojimo
Ġ199 4
Ġinformac iniÅ³
ĠZ aras
emi antis
Ġkoncer tÄħ
Ġres urs
Ġprinci pus
ĠV aikÅ³
Ġteis mÄħ
ĠÅ¡ abl
Ġnutar ÄĹ
Ġpritar ÄĹ
Ġter eikia
Ġkomit etas
ĠMar c
Ġvid uri
Ġv y
ĠMar Å¡k
ĠVal sti
Ġkeli uose
ait ytÄĹ
Ġkod Äħ
es tas
ĠR ol
ĠÅ¾aid yn
yk ti
ĠdidÅ¾i ÄħjÄħ
A us
Ġnaudoj imui
Ġs Å«nÅ³
ci pl
Ġpasim at
Ġnel eis
ĠneÅ¡ var
uos ime
Ġv oki
eikÅ¡ m
A G
Ġv engti
ĠÄ¯Å¾ valg
ĠgrÄħÅ¾ inimo
Ġatvyk sta
Ġpadid ÄĹjo
en ÄĹs
Ġatsak ymas
ĠVilk aviÅ¡k
Ġvasar a
Ġes anÄįiÄħ
Ġmen ininkÅ³
N oriu
Ġtur intiems
Ġju tik
Ġvadov auja
yÅ¾i uje
eik us
Ġlank ytojai
Ġap val
Ġnor ima
Ġreg lamen
Ġvais ius
Ġtie ki
ĠÄ¯s il
B and
Ġes tet
Ġmyl ÄĹti
od ÄĹ
tak os
ĠpraneÅ¡ imus
Ġstudij avo
M ic
Ġsteb ÄĹjimo
Ġkambar iai
Ġbank ro
Ġsuo rganiz
ĠM ÄĹlyna
ĠtrÅ«k umas
minis tra
Ġmod eli
im tas
ĠgroÅ¾ Ä¯
ĠmedÅ¾iag omis
Ġsvars to
t elis
Ġj ap
Ġmerg aitÄĹ
Ġne jau
rik Å¡Äįi
Ġses er
Ġp on
ag o
ĠÅ¾enkl us
Ġpagr Ä¯s
Ġindus tri
Ar tim
Ġpaaug liÅ³
ĠpaÅ¾ym ÄĹjo
Ġspaus d
ĠiÅ¡v eng
Ġgalim Å³
ot an
Ġbes ir
Ġkri zÄĹs
Ġdien o
ĠpÄĹs ÄįiÅ³jÅ³
Ġcentr u
Ġinform uoja
Ġv e
kait ÄĻ
Ġtobul ÄĹti
usi a
K or
Ġkenk sm
pl ÄĹÅ¡
Å«d Ä¯
Ġspalv as
k at
ĠÅ¾ lug
ĠbÅ«d ingas
ĠS aul
Ġkito ks
Ġd ist
Ġsma gi
ĠvieÅ¡bu Äįiai
Ġd eng
esi a
Ġval ymas
Ġpar kÄħ
M al
Ġor Äħ
Ġbe ton
Ġnuod ÄĹm
Toki Å³
ĠuÅ¾m irÅ¡
b ar
Ġraj onÅ³
Ġsug ri
atori umi
D e
ĠsudÄĹting as
Ġ199 3
ĠapÅ¡ vietimo
Ġatsak ymo
Ġap eig
ĠmÄĹnesi ais
in dÅ¾i
Ġekonom ika
9 3
ĠÄ¯sis av
li d
ĠÅ¾ais m
Ġpo Å¾em
Ġdalyv is
Å½al gir
Ġteori jos
Ġ5 3
Ġgelb ÄĹjimo
Ġpop ier
ei t
ĠA gn
Ġjoki u
ĠKin ijoje
Ġ5 1
Ġatvyk ÄĻ
l augos
ĠV an
ĠTur ki
m aÅ¾
Ġbuv usios
Kaun as
uoj antÄ¯
Ġindividu aliai
u ch
Ġneb ep
ĠÄ¯raÅ¡ yti
ĠdidÅ¾i ausi
j aun
in aras
Y M
ĠbiudÅ¾ etÄħ
ĠpaieÅ¡k a
Ġt abl
n om
Ġspor t
Ġdid elius
Ġatsid Å«rÄĹ
Ġregi onÅ³
Ġpagrind inÄ¯
ĠF ran
Ġreikal o
Ġit alÅ³
Ġmatema tikos
Ġ19 40
Ġt atuir
ĠÄ¯s ir
ĠuÅ¾d r
Ġkrauj yje
Ġneap s
on inÄĹs
Ġenerg et
Ġkolek cijos
Ġk int
vyd o
Ġs ing
Ġgim dymo
Ġveis lÄĹs
ĠnatÅ«r ali
Ġ6 2
r in
Ġdarbuotoj o
Ġsveik as
Ġpatar imai
en tui
Ġbul viÅ³
Ġatstov ais
Ġpert var
Ġnep an
eidÅ¾i ama
ĠvirÅ¡ ininkas
ĠL o
Ġvid Å³
Ġpagrind inius
damas is
Ġnauj ais
Ġkito kia
Pask elb
æ ľ
Mo teris
Ġgrei Äįiu
Ġnus id
ĠS ta
Ġprojek tui
Ġsupr ojek
Ġakivaizd u
D D
Vis us
Ġats il
Ġpaskol a
Å¡l uos
8 4
Ġpui kÅ³
Ġleid imÄħ
Ġati dÅ¾iai
Ġanaliz ÄĹs
M ir
Ġperk ant
Ġkalb oje
ĠPlung ÄĹs
P ok
Ġjud ÄĹjimas
Ġtiksl ai
a ja
an Å¾
Ġl es
Ġl ok
ĠS c
Ð ¿
Ġpriva ÄįiÅ³
Ġveiks mas
Ġketvir tÄ¯
Ġvyr auja
Ġinstitu cija
Ġsand ÄĹlyje
ĠtÅ«kst anÄįiai
ĠÅ« g
ul os
inamas is
Ġpl atÅ³
Ġbro liai
tin imas
man as
tim s
Ġpanaik inti
ykl ÄĹ
ĠInd ijos
z Å«
Ġgam tÄħ
P rak
ÄħÅ¾ inti
Ġpails ÄĹti
ĠR yg
Ġtur int
k ui
d ÄĹl
ĠM ac
Ġprinci pas
Ġpasirod ys
Ġjung tis
Ġsektori uje
d abar
Ġr aukÅ¡
ĠP ol
am am
Ġoper os
ĠpaÅ¾vel gti
L E
Ġniek uo
t ant
ij ungi
ĠÄ¯d arb
Ġgalu tinai
ĠÅ¾em dirb
Ġkamer os
Ġatvej is
Ġveiks mo
aip sniui
Ġpasis ak
ĠJuoz o
Ġansamb lis
V ais
av as
A bu
Ġugni ag
ĠneaiÅ¡k u
ĠÅ¡il uma
ĠbÅ«t ini
ĠaiÅ¡k ina
Ġsv eiki
ĠS il
ur m
Ġvyr ui
uoj i
S im
Å¾ Å³
ĠÅ¾mon os
Ġnem al
Ġeksp edi
Ġtra gi
Ġteis me
av usiÅ³
tuv ÄĹ
ĠL DK
ri f
Ġtink le
tinink ai
ĠPet erb
ra vi
Ġbu tÄħ
Ġpoten ci
Ġnorm a
Ġskaus m
Ġkonkr eÄįiai
Ġpens ijÅ³
ĠÅ¾ alia
ÄĹbul o
Ġgink lÅ³
ĠuÅ¾ imti
Ġh ip
Ġvirtuv ÄĹje
ĠV iÅ¡
Ġmoteri ai
Ġpoli tinis
ĠsuÅ¾ av
Ġkei timo
ok os
Ġsun kus
Ġgra Å¾iÅ³
K A
Ġau Å¡
S teb
ĠdeÅ¡im ties
ĠÅ¾ avi
ybÄĹs e
Ġger us
Ġpav aizd
Ġatsak ingai
Ġlin ijÅ³
or ge
ĠgraÅ¾i os
S al
Ġvykdom as
b aigi
ĠÅ¡ird yje
ĠÄ¯v esti
ĠI D
sk yrus
Ġabej onÄĹs
Ġs int
Ġtyr inÄĹj
Ġdal intis
in tuvas
Ġsitu acijÅ³
Ġmok ymÅ³
Ġnetr uk
uol ab
ĠdÅ¾i azo
ĠPet ro
ĠuÅ¾d uoÄįiÅ³
ed o
Ġgydytoj Å³
teri Å³
Ġfunk cional
ĠPl at
Ġapdovan ojimÅ³
Ġnu tiko
Ġsvaj oniÅ³
Ġsutar ÄįiÅ³
Ġdid esni
Ġparod Å³
Ġypat ingas
Ġpa Äįiai
ĠÅ½ il
ĠiÅ¡ eina
ing s
ĠruoÅ¾ tu
Ġkvad rat
Ġpus e
ĠDaug iau
ĠiÅ¡r eikÅ¡ti
Ġman imi
var io
Pard uodamas
Pr ezid
Å¡ il
ĠM et
Ġvienod ai
Ġplo tÄħ
Ġprasid ÄĹs
Ph one
Ġsudar ytas
Ġstatus Äħ
Ġpral eis
Ð ±
Ġar enoje
Ġpersonal o
p ÄĹs
ĠPrek ÄĹs
' '
ĠK ud
ĠstruktÅ«r Äħ
in ukas
Ġpad ÄĹj
Ġpadar o
ili jos
Ġsav ybÄĹmis
Ġdiskus ijos
ĠAl b
ĠKi ti
en i
ak sti
Ġtrump am
Ġgam ybÄħ
Gr uodÅ¾io
Ġin s
Ġgydytoj a
ÄĹl ÄĹmis
Ġskry dÅ¾iai
ĠsudÄĹ tÄ¯
al umo
Ġleng vi
ad oje
Ġtobul inti
Ġteks tas
ĠL ands
Ġpus fin
ĠGryb auskaitÄĹ
Ġkap inÄĹse
Ġsv orÄ¯
ĠV yri
ac inio
Ġâ ĪĴ
Ġreguli avimo
Ġrom an
Ġsimboli z
Ġpozi cijos
Kal ÄĹd
Ġtrenir uoÄįiÅ³
eri ams
Ġblog o
Ġvar tus
Ġnuostat os
ĠP ortugal
Ġatsi k
Ġpaj usti
uotoj o
ri c
Ġmas ÄĹ
Ġkurjer is
olÅ¡ ev
8 7
Ġkeis tis
ĠiÅ¡dÄĹs t
k eviÄįiaus
G el
Ġman yti
Ġkor ek
Ġgau tÅ³
Ġpas od
Ġinternet inÄĹje
Ġprie s
Ġbuhal ter
, ,
L ig
raÅ¡ to
auk Å³
Åł vies
Ġarb ata
ĠP op
Ġunik alus
ĠÅ¡im tÅ³
ĠgraÅ¾ Å«s
Ġmont avimo
Ġtik ina
ĠSÄħjung oje
oj imu
Ġvis okiÅ³
ip uli
Ġpral eido
tel ÄĹmis
J on
ie kite
Ġasmen iniÅ³
Vilk aviÅ¡kio
ĠJurb arko
Ġvaid muo
D ain
Ġprisid eda
ar to
Ġf asad
Ð½ Ð¸
r uoj
Ġpra ÄĹjo
y pi
Ġskaid r
Ġlap ai
ĠPal angoje
Ġkr yÅ¾i
eivi us
Ġa ÄįiÅ«
ĠKunig aikÅ¡
ĠiÅ¡t ver
ĠÅ¾enkl Äħ
Ġ ..
Ġkad aise
Ġsti p
Ġvien uo
Ġpad emon
Ġsl aug
Sud ÄĹtis
Ġmas tu
i ti
Ġtr auki
Ġprid Å«rÄĹ
Ġlip d
ĠS U
ĠNorveg ijos
ri ko
Ġsav ininkÅ³
ĠÅ«k ininkÅ³
Pask ui
Ġgrei tÄ¯
Ġrepr ez
Ġvyriausi ojo
Ġep iz
ĠdeÅ¡ ini
ĠÄ¯vaizd Ä¯
Ġimp ort
in ate
ĠD ir
ed ÄĹ
an kiai
ĠS ud
fo tograf
Ġgeri ausiu
ei Å¡ki
Ġelgi asi
k eln
Ġnurod ytas
Ġnetol iese
S ub
ĠR Å«d
men a
Ġpl ien
Ġvie tomis
b ie
Ġnep akartoj
Ġgyv ybÄĻ
tim ais
l ietuv
Ġtoki omis
Ġ14 0
ĠB irÅ¡
Ġmalon us
Ġgrei tÄħ
a tik
Aps kri
Ġnorm os
anÄįi uose
Ġmeis tri
Ġantr oje
Ġtri ta
!! !
ĠÄ¯raÅ¡ ai
Ġbu tas
Pra dÅ¾ia
Ġspecialis tus
me Äįiu
omis i
Ġelektron inio
Ġeg l
eli ko
ĠmÄħst ymo
ak e
Ġatrod ys
Ġsusid eda
Å½em ÄĹs
Ġrank ovÄĹs
G raÅ¾
Ġor e
Ġfilosof ijos
Ġpusiaus vyr
Ġrag ina
Ġkonsul tacijos
ĠreikÅ¡ ti
Ġsu vien
Ġl at
Ġartim Å³jÅ³
Ġgarant uoja
ĠpasidÅ¾iaug ti
daug iau
Ġpried Å³
ki b
g us
Ġkoleg ijos
ĠrÅ« pi
Ġf rag
B C
Ġkv ies
Ġpak el
Ġp ud
Ġtr ejus
s mas
. âĢĿ
Ġnus prÄĻsti
var d
Ġa f
ĠA T
Ġmir tÄ¯
ĠpaÄįi as
ĠVal en
ai niai
Ġpl ov
ĠÅ¾mon ijos
Ġpavad inti
Ġnumat ytas
Ġsunk umÅ³
ĠN BA
inÄįiÅ³ jÅ³
ĠsÄħ veik
8 3
Ġvalstyb inio
Ġpavyzd Ä¯
Ġakimir kÄħ
Ġpuik Å«s
to ras
il ind
J ung
ĠkÅ«ryb Äħ
Ġdaktar as
k uo
ĠgrÅ«d Å³
Ġneb ij
ĠÄ¯ Å¾vel
Ġintensyv iai
ĠÅ¾v ÄĹr
ĠÅ¡un ys
Ġuos te
Ġnuo peln
Ġ5 7
Ġpil nas
met yje
ex t
Ġskry dÅ¾io
Ġvers ijÄħ
am iems
Ġrad ik
ed ant
ĠbÅ« Äįiau
Nauj i
Ġprab angi
ĠpraneÅ¡ imÅ³
Ġrib as
t avimo
Ġbuv usiÅ³
eid imas
ĠmÄĹs a
li a
ĠsÄħn audos
Ġne lik
N ori
ĠaÅ¡ tri
Ġsusik los
Ġlig as
Ġgyvenvie tÄĹs
ĠpripaÅ¾ Ä¯sta
Ġsavan oriÅ³
ĠIgnal inos
Å¡ yps
Ġtarptau tinÄĹ
Ġskalb imo
Ġapsi pirk
Ġatg im
Ġdy dÅ¾iÅ³
ĠsusipaÅ¾ ino
ĠAnt ano
oÅ¾ em
ni ais
yb ose
Ġpuiki Äħ
ĠÄ¯tak a
Ġkau pi
Ġsep tin
Ġg avau
ĠS tar
Ġmok ymus
Ġorganiz mÄħ
Ġapd ailos
ran tÅ³
Ġpateik imo
Ġetap Äħ
Ġantr oji
Ġpro por
em ent
Ġtyr inÄĹ
Ġlaip snÄ¯
ĠP aÅ¡
Ġnemok ama
Ġdebi ut
Ġstov yklos
ĠK GB
-------- --------
Ġb yla
Ġr atÅ³
ch as
ymÄħ si
ĠvieÅ¡b utÄ¯
Ġasmen Ä¯
Ġrelig ijos
t ali
Ġbe je
Ġmat omas
ĠEur ol
ak Å³
ams ung
Ġim ti
ĠÅ¾uv is
ĠÅ¡ aun
Ġkompiu teris
eks u
Ġatrod ytÅ³
Ġpus metÄ¯
Ġklub ai
r ank
ĠR ag
Ġuos tÄħ
ĠÄ¯t amp
Ġnuoty kiÅ³
yt es
Ġprojekt avimo
9 1
ĠÅ¾iÅ«r ovai
Ġpristat ys
F o
Å«n ienÄĹ
Ġspalv omis
Ġligon inÄĻ
Ġelem entus
ni au
ĠÅ¾enkl u
i ose
ai lg
Ġpav yksta
ĠN yderland
Ġsocial inÄĻ
Ġliud ija
s Å³
Ġ 01
ĠkÅ«r inÄ¯
Ġsos tinÄĹ
Ġnu tik
Ġkil im
in ijos
si g
Ġbaig ti
Ġsu lt
S ausio
Ġtapat ybÄĹs
Å¾ ad
ĠpanaÅ¡ iÅ³
Ġkryp tÄ¯
is tikos
Ġreikal ingÅ³
Ġrekomend uojame
I P
Ġtam p
Å¾ u
Ġ194 5
Ġnaudoj antis
Ġpavad ino
ĠpavirÅ¡ i
Ġraudon a
G alv
ytoj Äħ
Ġmedvil nÄĹ
Ġprinci pu
Ġnes Äħmon
ol f
ĠIn form
ĠÅ¡ven tÄĹje
Ġgal Å³
Ġetap o
bi liÅ³
Ġnar iu
ĠKaun Äħ
Ġplat us
Ġsteng ÄĹsi
yk Ä¯
Ġev angeli
200 2
Ġremi asi
j oms
Pak laus
Ġnauj ag
Ġty liai
G raÅ¾i
ĠprieÅ¡ gais
Ġj Å«ra
Ġteis inÄĹs
Ġtil to
Ġbal so
Ġkal ori
Ġatm inimo
K las
ingi au
Ġpapil dyti
Ġgr ÄĻÅ¾
tuv us
Ġf as
Ġpak elti
Ġlik imas
Ġnen audoj
Ġpastat Äħ
" ),
ÄĹ tojai
Ġnauj asis
ĠD ELFI
az i
Ġry tas
Ġdes er
Ġproduk tyv
Ġvair uoti
Ġtiki uosi
Ġrink imai
Ġd omisi
Ġm ankÅ¡
Ġatskir as
Ġpasi teis
Ġdub en
on iz
Ġsub r
as k
Ġstat iniÅ³
Ġang liav
Ġprot est
Ġsez onui
Ġpersik ÄĹlÄĹ
olog ai
Ġpro tes
ting umÄħ
ĠS tal
Ġide aliai
Ġbat ali
Å«dij anÄįio
Ġlaid oje
g mail
Ġsuder inti
ĠK ij
om osios
ĠÅ« gio
ep ti
ĠÅ¾iniaskl aida
ac iniai
ĠbÅ«d inga
ĠÅ¾ iev
Ġcentr ai
egist rav
ĠAn tan
ĠB el
ĠKaral ystÄĹs
ĠapraÅ¡ o
Ġinv en
L ink
Ġplan Å¡
oj imui
Ġdal imis
ing am
raÅ¡ Äįio
yr Å³
ĠuÅ¾ uol
ĠI P
uo tÄĹje
Ġpaskat inti
Ġmat ÄĹ
Ġnuostab us
d id
Åłi aip
ĠÄ¯vertin imÄħ
tiÅ¡k Å³
jer as
Ġdirb tuv
Ġmokes Äįiai
irb ti
L a
Ne Ä¯
ĠL iv
Ġpastat ÄĹ
Ġpriek aiÅ¡
ĠD ÄĹl
Ġsu jungti
Ġper eiti
ĠH en
) )
Ġprog Äħ
tais yti
Ġpinig ais
ĠpasiraÅ¡ yti
Ġbend ravimas
eik a
ĠR ank
ĠAukÅ¡Äįi ausi
Ġneb Å«na
Ġpateik tas
Ġger ovÄĹs
Ġi liuz
ov ie
Ġaudi tori
ci z
ĠÅ¾ ind
Ġkiekvien ame
Ġmieg oti
Åł e
Ġfeder acijos
ĠNacional inÄĹs
val st
Ġil s
ĠrÅ«gÅ¡ ÄįiÅ³
ĠtÄĻsi asi
D F
Ġvald ymÄħ
an c
Ġvakar as
Ġpaklaus ti
S iek
ÄĹm us
Ġprietais Å³
Ġsvarb ios
Ġd atos
ÄĹ tojÅ³
Ġap lik
ĠÅ¡iaur ÄĻ
Ki tÄħ
Ġvidur inÄĹs
ĠÅ¡eim oms
Pap il
Ġbilie tai
tn audÅ¾i
Ġpristat yta
Ġmiest ai
vies ti
uoj anÄįius
Ġsm als
Ġtrad iciÅ¡kai
Ġatsisp ind
ÄĹj aus
Ġtap ybos
Ġal g
ĠiÅ¡k eli
Sek m
S ur
ĠÄ¯mon es
in tu
ĠDar ius
ĠmiÅ¡k Äħ
Ġs tebi
ĠUÅ¾ s
ĠsÄħskai tos
ĠiÅ¡l aisv
N ev
Ġsud om
Ġstrateg ijos
ĠGab rie
ĠTau rag
Ġapyv ar
Ġmit yba
ĠuÅ¾ ter
Ġdraug ams
ĠÅ¡il tn
Ġpardav imÅ³
Ġplan Å³
b ai
dav osi
Pat og
Ġpr el
ĠdaÅ¾ Å³
ĠnepamirÅ¡ ti
Ġpasi trauk
Ġdokum ento
Ġz ona
ĠÄ¯stat ymai
in ing
Ġprid ÄĹti
Ġnum ato
ĠaÅ¡ tun
Ġgyd ymÄħ
ĠuÅ¾ kl
ĠiÅ¡ paÅ¾
ĠpasiÅ«l ymas
iausi Äħ
Ġasmen inÄĹs
Ġkandid atÅ³
ĠBal s
j uos
Ġmet ro
Ġsavai tÄĹ
Ġfrag men
Ġvertin imas
ĠEsti joje
I E
si k
ĠkÅ«di kio
n ors
Ġrekomend uoja
eiki te
Ġteori ja
ĠpaÅ¾eid imus
ent uoti
Ġpaskir tis
ĠrÅ«gÅ¡ tis
Ġportal as
Ġsak au
Ġs ind
ĠÄ¯tar i
x t
C H
Ġdiskus ijÅ³
Ġaplink ybiÅ³
n in
Ġapd aila
A ki
Ġmano te
ĠMar ga
p oli
Ġpatvirtin tas
ak Äħ
aliz mas
Ġ20 20
Ġdy zel
Ġne ur
Ġkl im
L ank
r ut
I US
Ð ·
inink e
or ld
Å«k Å¡
Ar ch
tin ku
Ġplauk ams
ĠÄ¯ teis
ĠAngli joje
Ġnever ta
Ġpamok Å³
ĠVal stijos
in si
ink l
ĠÄ¯vyk is
Ġatsis kl
Ġtik ÄĹjimÄħ
ÄĹm imas
b uv
ĠU SB
ai mon
ĠpavyzdÅ¾i u
ist inio
Ġklaid a
Ġtap ÄĻs
tiÅ¡k umo
Ġdraug ija
Ġkov Å³
Ġantr ojo
ia funk
Ġpa Äįia
ĠiÅ¡l eista
Ġantr ÄħjÄ¯
Ġvyst ymosi
Ġauk Å³
**** ****
ic inos
ĠH er
Ġsuk ak
200 1
ĠKybar tÅ³
ĠIsl and
Ġekran e
Ġpasi traukÄĹ
Ġrei Å¡ki
Ġvykd ant
Ġlaik in
Ġbendruomen ÄĻ
on ÄĻ
Ġtink amos
ĠiÅ¡v adas
Ġprisijung ÄĹ
ir do
Ġprek yb
li ukÄħ
Ġpasi lik
Ġmi tolog
Ġap yrank
ĠT avo
Ġsusi taik
Ġvais tus
Ġap aÅ¡
Ġpui kiÅ³
ĠL K
I F
Ġpav yd
lo t
ĠdarÅ¾ elio
Ġm ain
Ġinov acijÅ³
Ġnuosto liÅ³
Ġkat ÄĹs
Ġnedid elÄĹ
Ġpers kaityti
Ġtruk mÄĹs
Ġkl aipÄĹd
oli v
ĠÅ¡al ims
ĠÅ¡iuolaik inÄĹs
ÄĹ tÄĹ
Ġstraip sniai
ĠPar yÅ¾iuje
Ġsap n
Ġpaskat ino
Ġkalb as
Ġkr imin
Ġgatv ÄĹse
ĠsÄĹkm ÄĹ
Ġsie la
Ġplan uoti
Ġgamin amas
ĠsÄħmon ingai
Ġvaik ystÄĹje
ol v
Ġpo etas
Ġlyd eriÅ³
ĠpranaÅ¡ umÄħ
Pag aliau
Ġypat inga
id al
Nauj os
Ġsmur to
Ġk yÅ¡
Ġtik ino
ĠpaÅ¾ inimo
Ġstatus as
v io
Ġsek a
Ġvien etÅ³
ĠR od
S aul
Ġat ribu
L atv
Ġpal eisti
ĠF acebook
Nep am
Ġtermin Äħ
ĠÄ¯sig ijo
Ġmokytoj o
ytoj os
Ġfrak cijos
Ġparlamen tar
ti onal
Ġsi lik
ĠLe on
ĠB ur
end o
Ġmed is
Ġpagr Ä¯st
Ġatlyg inimo
tuosi us
Ġval yti
Ġlaisv ÄĹ
ĠpasiruoÅ¡ ÄĻ
Ġaplank ÄĹ
Ġm ez
Å¡k ais
Ġak muo
Ġpunk te
am pa
Ġgri ov
sni ais
Ġrodik liai
ĠÅ«k is
S kr
d eÅ¡im
Ġsank ryÅ¾
Ġklub Äħ
Ġnesu tar
ĠÄĮ iurli
evi ÄįiÅ³
ĠÅ¾i b
I d
Ġder inti
Ġbendruomen ei
ĠÅ¾ym iÅ³
ĠRas a
Ġkr au
ĠÄ¯ jung
Ġgr et
Ġobjek tai
O b
eri jÄħ
ĠEurop a
Ġbuv imo
Ġpamat ÄĹ
or tÄħ
ĠtÅ«kst ant
Ġd ef
Ġvartoj imas
Ġatidar ymo
k auskas
Ġdaugiab uÄįiÅ³
ĠN em
Pop uliar
esn ÄĹmis
ĠÄ¯t eikÄĹ
ĠÅ½ mog
ĠÅ¡Ä¯ kart
Ġsma giai
Ġar e
Ġtak Å³
g ai
Ġkokyb iÅ¡kÄħ
Ġpamink las
Ġserg a
Ġatmosfer Äħ
Ġt av
Ġdid ina
S ti
Ġplas tiko
Ġauto r
an tr
K v
Ġkolek cija
Â ³
Å¡ Å³
R emiantis
Ġpik t
ta jame
Ġlaik us
ĠvÄĹl yv
ÄĹ liu
esn ei
K oks
ef ic
ĠB ro
Ġtre Äįia
ĠsugrÄ¯Å¾ ti
Ġkelion es
Ġilgai niui
Ġman ipuli
Ġ19 18
ĠMol ÄĹtÅ³
Nuol at
Ġsul ÄįiÅ³
N ei
Ġsiur bl
ĠnatÅ«r alaus
uotoj ams
Ġvab zdÅ¾i
ri ka
Ġpav ar
Ġmas ÄĻ
n ie
Ġpra g
on ams
raÅ¡ yti
Ġsu valg
b ri
Ġned ar
yk ime
Ġneb eb
Ġpresti Å¾
ing iems
enk o
Ġstand art
Ġkaul Å³
ĠraÅ¡ ytojÅ³
ĠK ri
Ġjaus ti
ĠsÅ«n aus
Ġvyskup as
........ ........
ĠpripaÅ¾ intas
b ank
u Äįius
ali Å³jÅ³
Ġmilij ard
Ġu krain
Ġmar at
Ġspaud oje
Panev ÄĹÅ¾io
Ġmin ima
Ġmetod ai
M aÅ¾i
ĠrÅ«Å¡ i
Ġgyv a
ĠiÅ¡ tar
199 0
Ġsocial inÄĹ
ĠÅ¡al tiniai
Ġmas aÅ¾as
Ġvard ai
Ġap i
ĠXV III
ĠÅ¡ak os
Ġg ailes
Ġch a
K uri
b ro
Ġpoilsi ui
Ġuniversit etÄħ
Ġd ingo
Ġsistem ai
Ġlank st
Ġkvap o
Ġprak tikÄħ
Ġuniversit etÅ³
Ġsklyp as
Vis iems
ĠsÄħlyg a
ĠÅł akiÅ³
Ġkor telÄĻ
DidÅ¾i oji
entar ai
Ġpirm yn
str uoti
Ġfin ale
Å¾ valg
Ġsk onis
y tumÄĹte
ĠM egz
uk l
Ġdokum entas
Ġvil ties
ĠrÅ«pes ÄįiÅ³
Ġkonstruk cija
ik lio
Ġpacien to
ĠS l
ĠÅ¡iuolaik inio
T ra
Ġsk ri
un ction
T h
ins kio
am umas
Ġneats iej
Ġgan ÄĹtinai
Ġak yse
ĠÅ¡eÅ¡ iÅ³
ur go
Ġki tai
Atl iek
Ġch or
te lius
ÄĹj imais
Ġnusikal timÅ³
Ġpad aug
ĠdÅ¾iaugi uosi
Ġpagr ei
ĠV ad
Ġpavaduotoj a
Ġkrem as
v ÄĹr
ĠÅ¡ iems
tiÅ¡k o
ĠpanaÅ¡ ios
ou tu
Ġr aus
Ġes anÄįiame
teri ai
ĠRum un
Ġdovan Äħ
V el
J uo
ob il
Ġtrump as
Ġsunaik inti
Ġpremjer as
al k
ĠA ps
Ġauto nom
ĠvaÅ¾i uoja
Ġreal ybÄĹs
Ġp ic
Ġoper acijÅ³
Ġsvarb Å³
ĠieÅ¡k ote
J as
h op
ĠP i
ĠgeleÅ¾ ies
Ġmoksl us
Ġinternet as
Ġsto tis
ĠneÄ¯si vaizd
ĠkÅ«dik is
Ġsantuo kos
Ġmed ita
P sich
Ġatsis tat
Ġstud ija
Ġfiz iÅ¡kai
Ġlaisval aik
Ġangl ies
T i
ap j
Ä® monÄĹs
8 1
mÄĹ lio
Rus ijos
Ġpal aipsniui
uok Å¡
ĠuÅ¾si ima
Ġmus ulmon
Ġpuslap iÅ³
ĠiÅ¡n audoti
Ġapsaug otas
Ġgal erijoje
Ġras ta
Ġnauj u
Ġartimiausi u
ali kÅ³
ĠatpaÅ¾ inti
Ġprad ÄĹjus
Ġkompan ijÅ³
Ġnuotrauk Äħ
Ġau tos
Ġsusi g
Ġpri traukti
ĠM eksi
ĠJ uk
Ġes ama
ĠA c
ĠtaÅ¡k Äħ
ĠreiÅ¡k inys
ĠÅ¡ak Å³
Ġbendradarbi avimas
iej us
Ġsusir asti
Ġteis mui
ĠÄ¯sipareig ojimÅ³
Ġnor intys
ali uose
ĠK ad
Ġ194 1
ĠÄ¯reng inys
Ġ6 6
Ġkosti um
Ġmokytoj os
Ġpabaig Äħ
Ġnuv al
ĠF inans
Ġkel erius
C D
Ġklaid as
ĠDov yd
Ġver tas
Ġaug imas
Ġsien as
Ġlyg men
Ġtau t
ĠPil ka
Ġat vira
ĠsÄĹkm ÄĻ
Ġkar Å¡Äįi
ĠtaÅ¡k as
Ġger inti
Pas teb
ĠjÅ«r oje
Nuo trauk
Ġmokytoj ams
Ġpad engti
ĠSuom ijos
Ġfotos es
ev as
ang us
Ġpristat ytas
Ġaktyv us
ar Å¡
ĠAr ch
Ġveikl as
Ġep och
Ġj umis
Ġ194 4
Ġhi po
w er
Vis ai
Ġchem ijos
ĠtemperatÅ«r Äħ
ĠS o
Ġslap taÅ¾od
Ġsli din
ak amp
ĠP us
ĠA P
Ġsod as
Ġ Ñģ
Ġasortimen tÄħ
Ġpri g
ĠkiauÅ¡ iniÅ³
Ġg and
uo tais
Sk amb
am at
av ime
uv oje
ĠsÄĹkl Å³
Ġatlik ÄĹjÅ³
Ġpop uli
ĠiÅ¡ met
Ġlig oniÅ³
en h
ĠiÅ¡sp aus
Ġsl ypi
ĠsÄħskai ta
ĠÅ¡uk uos
Ġb olÅ¡ev
Ġmok inius
Ġg ausi
ĠB MW
Ġk ava
ak c
Pas tat
Ġb y
Ġk Å«
f orto
Ġlin ijÄħ
Ġmikro autobus
Ġdirb ant
Nes varbu
Ġko efic
Ġatidar yti
Ġsl enk
Ġapsi gyven
Ġvai nik
Ġpozi cijas
Ġper tek
Ġim ig
Ġu lt
Ġbuv e
ff ice
Ġk orid
Ġtink lai
Ġkon ven
Ġsustipr inti
==== ====
ĠpabrÄĹÅ¾ ti
ĠÅ¡v ÄĻsti
c is
Ġner imÄħ
T echn
Ġgam yklos
ĠiÅ¡s idÄĹs
Ġt rag
ĠkraÅ¡to vaizdÅ¾i
ĠT en
Ġilgaam Å¾i
ĠÄ¯rank is
Ġpsich iat
Ġkai mÄħ
ĠS tud
ĠÅ¡im tai
Ver slo
Ġb uri
Ġdar osi
Ġvis apusi
Ġatsi praÅ¡
eiv is
Ġokup acijos
ki asi
olog Å³
Kon feren
Ġpartn eriais
ĠlaikraÅ¡ Äįio
ĠÅ¡imt meÄįio
ĠÄ¯ eina
Ġatsiv eria
ap us
S ug
ĠrÅ«gÅ¡ ties
ĠL en
Ġsveik a
Ġpas ienio
ĠdÄĹs tÄĹ
Y S
Ġlie Å¾uv
Ġvari antÅ³
ug en
Ġkeli us
Ġnusikal tÄĹ
ĠM ÄĹn
V aizd
Ġkon gres
ĠÄĮ i
V i
ĠM inis
Ġbl aksti
ĠÅłven tosios
Ġtiks li
Ġspor tas
Ġstul p
Ġner im
Ġvidu tinis
Ġteigi amai
Ġnauj ausiÄħ
F or
Ġdvar as
ĠmedÅ¾iok lÄĹs
ur Å³
Pui kus
Ġpus es
ĠsiÅ«l ÄĹ
ar u
ĠdÅ¾iaugsm Äħ
S em
ai ron
og en
p irm
Ġrank Å¡luos
Ġstipr ina
ĠdidÅ¾iul Ä¯
Ġsusitik ime
toj os
ĠKur Å¡iÅ³
uli u
Ġdom ÄĹtis
ĠÅ¡yps ena
R O
Ġval dom
Ġsr aig
Ġtik ÄĹti
Ġkas os
Ġefektyv umÄħ
ci u
in anÄįius
Ġpirm uoju
Å Ĥ
Ġberni ukui
V ai
Ġneg ird
ĠL or
ĠÅ¡eim ininkai
Ġgeb ÄĹjimus
B er
Ġtenden cijas
Ġpareig os
ĠsumaÅ¾ ÄĹja
ĠvieÅ¡bu tis
Ġkariuomen ÄĹ
on ez
ĠP ir
Ġpopuliar i
Ġpraei tÄ¯
Ġned alyv
Ġtem omis
irÅ¡ ta
ĠÅ¾enk liai
Ġapr anga
Rug pjÅ«Äįio
ĠVieÅ¡pa ties
ĠVarÄĹn os
Ġpavard ÄĹs
Ġpasin audoj
Ġspektak lis
Ġtur ÄĹjome
Ġkompleks as
Ġsportinink ai
Ġporeiki ams
ol u
Ġprofesional us
ĠJ og
å ¤
ĠAr tÅ«ras
Ġmagistr o
Ġpadid ina
ĠÅ½em aiÄįiÅ³
ĠS K
avi ÄįienÄĹ
ĠRÅ« ta
i f
Ġb atÅ³
Ġg avÄĻs
ĠiÅ¡vys ti
Ġt un
uos iu
Ġvid inÄĹs
eten z
ĠK Å«r
raÅ¡ ymas
ĠG re
ĠpaÅ¡ auk
ĠTur kijos
Ġre ali
ĠÄ¯tam pa
Ġreikal ingÄħ
Gal ime
Ġbe pr
Ġvadov ams
Ġbaz ÄĹs
Ġinform avo
ĠKor ÄĹjos
Pas aulio
t etas
Ġstatis tika
D alis
N egal
M il
ĠpapraÅ¡ ÄĹ
Ġnepil name
aÅ¾ od
ĠtÄĹv us
Ġvar tai
ĠSp or
Ġprie v
Ġreform os
Ġnemok ami
Ġnepat enk
d er
tum u
Ġpozi cija
Ġprogram inÄĹs
Ġdirb anÄįiÅ³
ĠÅ¡ach matÅ³
tr e
ĠiÅ¡s am
Ġi gn
pag al
es o
Ġpaj ud
Ġsveik os
Ġklien tui
ĠpaaiÅ¡k ino
Sp alv
ÄĦ Å¾
Ġkair ÄĹje
in imosi
ĠiÅ¡Å¡ Å«kis
A g
K omis
ut iniÅ³
kaiÄįi uoti
Ġpasig irti
Ġkl ausia
Ñ ħ
vil eg
Ġlaisv as
Ġkalb ame
ak t
aj us
Ġe x
Ġkontrol ÄĻ
Ġvykusi ame
Per k
Ġgyven tojas
ĠÄĮ ik
Åł K
adien is
ĠPr iek
Ġikiteis m
g alio
l abai
Ġlank yti
y tume
om Å³jÅ³
Ġskir tus
Ġmaksim aliai
Ġpard uodami
ĠS SRS
Ġsu vir
ĠK ir
p en
Ġnusi Å¾eng
Ġdvasi Äħ
Ġin cid
R E
' ).
Ġarb at
ap as
ĠRadvili Å¡kio
Å«r o
Ġleis tÅ³
Ġpopie Å¾ius
Ġomen yje
Ak tyv
Ġap mÄħ
Ġb en
Vad inasi
ĠÂ °
201 9
ĠPirk ÄĹjas
Ġpak li
tuv ÄĹje
ti joje
Ġpar ad
Ġsod yboje
ĠM uz
Ġproduk cija
Ġ198 9
r eg
Ġr el
Ġ16 0
Ġlik imo
Ġneblog ai
Ġapg ail
Ġsteng tis
Ġvadov u
Ġnev yriaus
Ġdirv oÅ¾em
oj ate
ĠÅ¾em ai
Ġatei ti
ĠMaskv oje
em os
Ġat rak
am uosius
ver sti
ĠG o
IN G
S ta
t uok
Ġmal d
Ð ³
k ti
Ġv alia
Ġkar din
Ġkam uolÄ¯
Ġr atas
Ġsukur tos
M eil
ĠMed Å¾i
el and
Ġefektyv umo
ĠC l
ĠGedim inas
ĠuÅ¾si kr
ĠÄ¯ Å¾ym
N T
Ġpram onÄĹ
V C
Ġp ed
Ġreak cija
Ġneg alv
Ġnurod oma
Ġsupr at
Ġkran te
ĠR os
Ġbal tas
Ġs Å«ri
Ġdirb antys
Ġprie inam
Ġmok yti
ces s
ĠS EO
en umer
h am
Ġsen osios
ĠprocedÅ«r as
æ Ĺ
ur Å«z
Ġc irk
ub o
ĠtriukÅ¡ mo
Ġst alas
Ġgim tadienio
Ġduo b
ali osios
Ġapdovan otas
Ġprovin cijos
Ġnacional inis
ĠTeis mo
el ei
ĠAntr ojo
ant os
astr of
Ġlik ÄĻ
Ġvalstyb iniÅ³
Ġnustat ytos
Ġpanaudoj imo
Ġmir tis
Ġvic eminis
uk ÄĹ
Ġefek tÄħ
U K
ri bo
Ġgrup e
Ġnepat inka
Ġnesud ÄĹ
st ame
K ada
ver n
Ġpasi tenk
Ġinternet inÄĹs
ub lic
ĠmaÅ¾ o
Ġtvir tas
Ġatid uoti
ĠN a
Ġsien a
ĠÅ¡ er
av ai
ĠM ano
Ġpri tvirtin
Ġf az
Ġtoki am
IÅ¡s kir
Ġkreip kitÄĹs
Ġ6 3
Ġsta Å¾
ĠT aÄįiau
Ġkat astrof
ĠraÅ¡ ytojo
, âĢľ
Ġtinkl uose
Ġgyven antys
Ġkl aidos
ĠC D
Ġsim pa
ĠZ ara
Ä®mon ÄĹ
aud avo
Ġskir stom
ĠD el
Ġf en
Ġeksp ort
Ġrep u
ĠKel mÄĹs
Ġgyven anÄįiÅ³
ĠvaikÅ¡Äįi oti
Ġjuod as
ĠplÄĹ trÄħ
Ġb angos
Ġmok o
ĠFr ank
Ġaliej umi
ĠÐ ²
ĠsÄĹd i
Ġat palaid
ei tÄĹ
Ġnustat ytÄħ
ĠaukÅ¡ tu
Ġpokalb iÅ³
ĠK nyg
Ġper ÄĹmÄĹ
m ÄĹms
ei Äįia
ĠÅ¾in ai
Ġ9 9
Ġbaim ÄĹ
Ġlenktyn iÅ³
Ġpav arÅ³
Ġduo na
Ġatvir as
ĠAleksand ras
Ġkokyb e
ink o
Ġskelb ti
Ġlak Å¡
T e
Ġkr ist
Ġpil nÄħ
ĠiÅ¡k yla
ĠbÅ«s im
Prof esi
Ġunik ali
Ġk inÅ³
ĠnusprÄĻs ta
Ġsusij usias
olog iniÅ³
et ais
Ġpard avimas
Ġband yti
19 40
Ġnaud odami
Ġskulp tÅ«r
Ġmin us
Ġvarg u
Ġklasi fik
Ġnetur ime
Ġgyven amÅ³jÅ³
Ġder inys
B aÅ¾ny
Ġdis ko
ans as
Ġnen aud
Ġl ova
Ġcentr uose
Ġkep ti
Ġv eng
Ġnaud ingos
Ġpirm oje
Ġpasak o
ĠSÄħjung a
Ġmis ija
Ġ evoliu
t etÄħ
Ġv esti
ĠseniÅ«n ijoje
Ä ĵ
Ġskub iai
ĠG raÅ¾
Ġnet radic
Ġf arm
ĠÄ¯sitik inti
ĠsÄħskai tas
Ġak cen
ĠÄ¯reng imas
ĠplÄĹ toti
Ġfer men
Ġvir sta
An kst
Ġsaug us
Ġvarto tojas
Å¡ vie
Ġtem as
Ġlaikotarpi ui
ĠVis os
er yje
ub l
iausi u
Ġpasik ar
Ġfiz inis
K okia
P O
Ġmo tin
pl auk
Ġvyr esn
ĠÄ¯vyk dyti
ĠT re
Ġlaip snio
ĠtÄĹv ais
Ġper ka
Ġr Å«s
Ġhum anitar
y Å¡k
Ġprem ija
ĠÄ¯si tvirtin
Ġnarko tikÅ³
tuv e
ĠV ie
ĠJ ok
Å¾ r
e Äįius
Ġgim d
Ġnumat oma
Ġneg er
Ġapsi g
ĠEk onom
Ġnak tis
Rez ultat
Ġdr oÅ¾
atori ams
r inÄĹ
Ġd ÄĹli
Ġmes ti
ĠruoÅ¡ iasi
I de
Ġpak eli
Ġlaim ingas
Mat yt
aus kaitÄĹs
Ġaug alas
Ġrodik lis
ĠT SRS
Ġ7 2
ĠpasiruoÅ¡ ti
S ul
ĠiÅ¡n agr
Ġpen kio
ĠlÄĹktuv o
osi u
ri ui
Ġjaus mÅ³
Ġsez one
M en
aÅ¡ ing
ĠÅ¾ olÄĹs
iÅ¡k is
Ġplan ai
m ir
Ġb ang
Ġmed aus
ĠÅ¾vaigÅ¾d utÄĹmis
ĠiÅ¡vaizd os
ĠK eli
ĠD anijos
Ġtar ÄĹ
Ġsuk r
Ġorganiz atoriÅ³
ĠJoh n
Ġab ip
s Äħ
Ġsal ÄĻ
Ġgr e
eis k
ĠsuÅ¾in ojo
ĠV ait
Ġveis liÅ³
ĠXV II
Ġpard uodamas
Ġatsak ymus
Ġpraras ti
ĠK av
Ġm inties
ĠVis ag
Ġdemokra tijos
N ek
y Äįia
Ġtaik ymo
R ek
Ġapklaus os
uoj anÄįio
Ġsod e
ĠiÅ¡vad Äħ
Ġdaug umos
ĠG l
ĠbÅ« stÄħ
Ġtarp uk
Ġtradi cijÅ³
ĠI ran
Ġnuo varg
Ġatsirad imo
auÅ¾ ÄĹ
ĠÅ¾ied ai
Kar tÄħ
am uose
Ġpal tai
Ġprisim inÄĹ
Ġvertin amas
pr og
pr ie
Ġnepageid auj
Ġsu ras
Ġhi per
kir ti
Ġpriver tÄĹ
Ġtradic iniÅ³
ĠA R
Ġkiekvien ais
Ġpers var
Ġproduk cijÄħ
Ġ13 0
Ġpasi Å«
Ġnav ig
i oje
Ġrib a
Ġtal k
ĠlietuviÅ¡k Äħ
omas is
ĠÄ¯staig oje
Ġkr yÅ¾
Ġpamat ysite
B ri
K ap
Ġpatrauk l
Ġrau menis
uot ame
Ġpri gl
Ġstriuk ÄĹ
pras m
Ġpatiek alai
Ġkov oje
ĠÅ½ aidimai
ĠÅ½ i
J ai
ĠryÅ¡ iai
ĠðŁ ĺ
Ġterap ijos
V aÅ¾i
Ġk um
Ġtitu lÄħ
Ġlent elÄĹs
ĠM eil
ic kas
Ġtur ÄĹtume
m od
Ġauk ci
Pirm ieji
Ñģ Ðº
ĠS uval
Ġam atÅ³
Ġmar ket
Ġor u
ÄĹjo te
Ġpaki lo
Ġelektron iniÅ³
ï ¼
ĠkrepÅ¡ ininkai
Ġblog as
ĠS ank
ĠuÅ¾mokes Äįio
Ġb ek
Ġpoli tinÄĹ
S S
Ġfiz iniÅ³
Sav ait
Ġmar g
20 20
li ukÅ³
Ġpagrind ines
ĠTÄĹv ynÄĹs
Ġkoj omis
ĠRus ijÄħ
Ġsv yr
Var Å¾
ik liai
Ġdaik tas
Ġtiek ÄĹjÅ³
Ġmal dos
Ġneg yv
Ġabsoliu Äįiai
Ġskers mens
Ġli Å«
ĠMegz tiniai
Å«k Ä¯
z mÄħ
Ġli t
Ġorganiz atorius
ĠM c
Ġmo tor
Daug iausia
Toki o
Ġteis mÅ³
ĠkÅ«r inio
Kom p
ĠL auk
ĠÄ¯r anki
Ġteks tÅ³
ĠapÅ¡vie timas
Ġkomp et
v aik
Pastar uoju
Ġproces ai
Ġn un
Ġnuotrauk ose
ĠÅ«k yje
oj amos
uk ÄĹs
Ġkar toj
and inav
ĠSt ank
Ġrug sÄĹj
d en
Ġplan etos
Ġsavivald os
Ġry Å¡kiai
ĠK ita
ok us
ĠPar yÅ¾iaus
ĠB ank
ĠÅ¾urnalis tas
Ġg ÄĹ
iej o
ĠdaÅ¾ nas
p aud
ĠN ext
ĠÅ¡ ul
Ġgyven amosios
Ġneturi te
ol ei
Ġpenk erius
Ġv es
M inis
Ġkiekvien oje
ĠKup iÅ¡kio
M ax
Ġnauj ojo
ĠÅ¡vent ei
ĠÅ¡ep et
Ġkiekvien u
ĠBaÅ¾ny Äįia
Ġt ÄĹtis
ĠmiÅ¡k as
Ġvais iai
Ġneat sak
Pard uod
i Å¡kiÅ³
ith u
Ġkoleg os
Ġdebi u
ĠSÄħj Å«dÅ¾io
ĠSv etain
ĠN et
Ġasmen ybÄĹ
ĠK ap
anÄįi osios
ĠpoÅ¾iÅ«ri o
pav yzdÅ¾iui
5 00
I ET
ĠÅ¡ak nÅ³
Ġpastat e
er gi
ĠjÅ«r Äħ
tyn ÄĹs
inti eji
und a
B o
ĠpasiprieÅ¡ inimo
ĠJ os
ĠM us
Ġpan eig
Ġrink osi
Ġgeri ausios
Ġtur is
e oti
ĠT echn
P i
tu kus
tak as
Ġob uoliÅ³
Ġpers kait
Ġj apon
u f
Ġgyven ame
ĠÅ½ yd
Ġlank o
F orm
ĠN es
Ġgalim ybÄĹmis
Ġmerg aiÄįiÅ³
Ġjud a
ĠmiÅ¡k uose
Ġap ip
ĠsuÅ¾ al
dÅ¾i oje
D ir
Ġsvarst yti
Ġsantyk Ä¯
n elÄĹs
ed Å¾i
Ġtvir tov
Ġ Î
Ġspeci alios
ĠRoÅ¾ inÄĹ
D efek
Ġ7 4
Ġeki pos
v ais
Ġsavait gali
g am
Ġpadid ÄĹja
ĠplÄĹ toj
ins kienÄĹ
ĠÅ¾urnalis tÅ³
ĠlÄĹktuv Å³
n ijos
ĠÅ¡un s
P C
er e
Pirm a
Ġbakal auro
Ġsl ÄĹg
S prend
Ġap n
ĠÅ¡eÅ¡ i
Ġm aÄįiau
U r
it ur
ĠnemaÅ¾ a
Ġgyven vietÄĹ
ĠÂ «
Pui kios
S kl
Ġlietuv iÅ¡kas
Ġgal erija
Ġpas yv
Ġeg o
C on
Ġtr y
ĠBasan aviÄįiaus
Ġelem entas
ĠAnd r
Ġapim ties
ĠEn erg
Ġpos t
Ġvald ÄĹ
ĠB at
Ġan ta
Ġats tumas
Ġgatv ÄĻ
Ġger ina
T ap
ĠdÅ¾i ovin
Ì ¨
Ġver Å¾
Ġveg et
im es
Ġra cion
Ġank Å¡
ĠinÅ¾in erijos
ul l
ĠuÅ¾sien Ä¯
S unku
ĠpanaÅ¡ u
Svetain ÄĹje
Ġ| |
ĠÅ½emai tijos
ik Å¡
w n
Ġais tr
Äįi uje
ĠÄ¯mon ÄĹse
ir ko
Ġsod yba
Ġign or
ĠÅ¡ Å«
Ġkiekvien ai
ĠKaiÅ¡iad oriÅ³
Ġstat inio
Ġsek un
ĠI van
Ġim uni
Ġredak torius
tin ta
ĠlaiÅ¡k us
Ġkalend or
ĠÅ¡ vark
ĠjÄĹg Äħ
ĠiÅ¡ dÅ¾i
Ġsusi vien
ĠAt s
an ori
Ġautomobi liams
Ġdi vizi
C i
y kit
Ġrad au
S n
Ġpakrant ÄĹje
Ġtransp ortu
l ais
ĠmedÅ¾i ai
pad is
op uliar
ĠkultÅ«r Å³
ti jÄħ
klausom ai
K il
tin u
Ġbaz i
Ġg uma
Ġlygi u
ĠBul gar
ĠÄį ek
Ġr atÄħ
it y
Ġpsich ikos
U T
Ġpro tas
Ġform uoti
ĠÄ¯raÅ¡ us
Ġliter atÅ«ra
ĠV yd
iÅ¡ skyrus
ĠKunigaikÅ¡ tys
ĠH o
ĠÄ¯vair ovÄĹ
Ġnep agr
ĠdidÅ¾iul ÄĹ
Ġskland Å¾iai
ant ais
ĠE s
Ġlaim ingi
Ġatidar yta
Ġpasm erk
Ġkar p
aÅ¾ Å³
ĠJ au
ag en
Ġprofes iniÅ³
ĠpraÄĹjusi ais
Ġbaz ÄĹje
Kon cer
Ġredak cija
Ġfolkl oro
ĠV asario
Ġproblem omis
Ġta Å¡kai
________ ________
Ġprogimnaz ijos
Ġistor iniÅ³
Ġj ach
Ġpasku tinÄĻ
ek sp
ĠprisipaÅ¾ ino
ĠÅ¡i taip
Ġkorup cijos
] ,
Ġprim inti
Ġnepas ik
Ġsurink imo
an ijÄħ
T ark
el ÄĹse
ĠreÅ¾is ieriaus
ĠK ro
Ġtau rÄĹ
ÄĹjusi us
im et
Å¡k osios
Ġpr ovok
Ġatl eisti
ed ik
ĠPr ieÅ¡
199 8
dÅ¾i asi
Ġtikr ais
na tional
ĠiÅ¡skir tinis
ĠGen eral
ĠK ali
Ġbed arb
Ġinstitu te
Ġnuolat inis
Aki vaizd
Ġval go
eto n
Ġpai lg
Ġpirm iausiai
Ġaplink ui
V yriaus
ĠtemperatÅ«r oje
Naudoj ant
ĠS PA
Ġdeg alÅ³
Ġtruk do
A uks
at l
Ġilg us
Ġsiau b
Ġsimptom ai
ĠprocedÅ«r Äħ
Ġsustab d
Ġsek ÄĹsi
O G
ĠkÅ«r ÄĹjas
R Å«
Ġsusitar imÄħ
Ġseg men
S tar
aug oti
Ġaug alus
ĠsuÅ¾ ad
takul niai
Ġrink inÄ¯
Tr ys
Ġatstov us
ĠbÄĹg imo
ĠiÅ¡ pil
3 00
Ġseks u
Ġdid ele
ĠsudÄĹti es
Ġprar ado
Ġs erija
tom i
Ġkop ij
Ġpasak os
Ġuni kal
Ġkryp ties
ĠiÅ¡l eid
Ġnusteb ino
Ġpralaim ÄĹjo
Ġtari f
Ġsv aig
Ġekran as
Ġkonstruk cijÅ³
om asi
Ġpri vileg
Ġapr angos
or tai
Ġd inas
Ġistori jÅ³
199 1
Ġprezid entÄĹ
Ġklaus imo
ĠÄ¯reng inius
ĠÄ¯sim yl
Ġne veik
Ġklaus ytis
Ġarm ijos
ĠSi gi
Ġcik lo
Ġaplink ybes
Ġsup apras
Ġatsak ymÅ³
Ġmat avimo
ĠS am
ĠÅ«k ininkai
v yri
Ġvalsti eÄįiÅ³
ES CO
Ġbaud Äħ
inÄĹ liai
Ġ9 8
eik is
Ġlaiv o
V ald
Ġh im
Ġd aliai
ĠiÅ¡si un
ĠÄ¯sak ymas
uv el
Ġtaisykl ÄĹ
ĠGraiki jos
ĠDidÅ¾i ojoje
Ġgim sta
Ġtvirtin imo
ĠpareigÅ«n ams
ĠuÅ¾ st
Ġsusij ung
ĠminkÅ¡ tas
ink eviÄįius
l aug
Ġveid as
ĠbÅ« ta
ĠkaÅ¾k oks
ĠgroÅ¾ is
Ġmom entu
Ġteis inga
Ġpik tnaudÅ¾i
Ġmor al
Ġkeram ikos
Ġsusid uri
au t
Ġpapildom o
ĠbÅ« gn
Ġmon i
Did elis
Ġor dino
le c
Vad ov
Pr oduk
Ġcivil inÄĹs
ĠmaÅ¡ inÄħ
Ġatas kaitos
En erg
Ġ9 00
Ġs ki
Ġpasi Å¡
Ġkomentar Å³
ĠpripaÅ¾ inimo
Ġalkoh ol
u Äįi
Ġspeciali Å³jÅ³
ĠK er
or ÄĹs
Ġsudar ymo
M us
Ġeksp orto
ĠP aÅ¾
Ġaud inys
ĠV asi
rav imui
Ġatk ar
Ġvert ybÄĹs
Pal yg
atÅ«r Äħ
ĠmiÅ¡ inys
Ġs ar
Vyr as
I tin
Ġvadin amos
G aliu
ĠÄ¯ tais
Ġpopie Å¾iaus
Ġkar tas
Ġsuk asi
ĠÄ¯steig ta
Ġc on
Ġapdovan ojimÄħ
ĠsÄħvok a
Ġgim ÄĻs
Ġreak cijos
Ġgerb ÄĹjÅ³
aul t
tar n
Ġsusisiek imo
Ġmed iena
Ġnusprend Å¾iau
ĠD is
Ġmil tÅ³
her e
Ġpast angos
Ġnaujien a
Ġup iÅ³
Ġpilie tis
ĠGro up
Ġv oÅ¾
ĠÅ¾i aur
Ġpama Äįiau
G en
in imais
ol fo
Ġatk ov
ol Äħ
ĠA rab
Ġats im
Kom plek
Ġsuk on
ama jame
ir kos
Ġpro tez
ku tÄĹ
Ġteleviz ija
Ġrenk antis
Ġdiplom at
ĠAl f
Ġreikal auti
outu be
Ġpie try
en te
Ġsker smuo
Ġg eguÅ¾
Ġs iÅ³s
Ġnaud ojo
Ġnurod ytÄħ
rik oje
Ġpalik uo
ĠprieÅ¾iÅ«r ai
ĠCh r
Ġjau ki
ĠÅ¾ais lai
Ġrez oliu
k liai
ej o
Ġpartn eris
L aisv
M ik
Ġak tus
Ġb omb
O l
Ġstik las
Ġseni ausiÅ³
IM O
Ġnor us
Ġtarn yb
Ġnos ies
Ġer z
199 2
Ġpus val
ĠÄ¯gyvend inant
d ant
ĠP am
M aisto
ĠVokieti jÄħ
an ia
uo lo
ub ern
ĠR ygos
or us
Ġne man
ĠL inas
Ġlig Äħ
ĠÅ¡ aliai
Ġs ex
k oti
199 5
st ra
Ġkoki ais
Ġdaug eliu
Ġvestuv es
Ġeduk ac
Ġatsi tiko
Ġatstov auja
Ġatlik s
KaÅ¾ k
eÅ¡ ti
Ġpav og
E X
Ġp sl
Ġilg Å³
Ġ end
in amÅ³
tadien is
Ġin sul
ĠpraneÅ¡ imo
J us
Ġpag elb
Ġsm ui
ĠiÅ¡ kas
ĠAustral ijos
ykl ÄĻ
ĠSp alva
s ud
Ġvilk aviÅ¡k
eis tos
Ġlaik antis
Ġatstov ams
Ġmem ori
ĠsÄħ Å¾
Ġprar anda
ĠKris tina
Ġelek tra
av om
Ġmiest elis
Ġpaband yti
Ġdizain Äħ
ĠG us
ĠÄ¯vyk Ä¯
Ġvie tiniai
Ġpak lus
Ġnu tinka
ut au
ting us
Nus tat
Ġsen Äħ
Ġangliav anden
Ġpolitik as
Ġatostog os
Ġneap yk
R eikal
ĠN ij
Ġstraip snius
Ġnep ali
p on
Ġr anda
Ġsmul kiÅ³
Ġgrup ÄĹse
ĠduÅ¡ o
Ġveikl Å³
Vis kÄħ
Ġkonkr eÄįiÅ³
is tÄĹ
Ġg ÄĹd
Ġpirk ÄĹjÅ³
Ġgim tadienÄ¯
Ġnedid eli
ĠÄ¯v aÅ¾i
Ġatskir Äħ
Ġak cijas
ĠuÅ¾d raus
Ġpriklaus ys
Ġvanden yno
ogr am
ty tis
Ġtil tas
Ġpl unk
Ġsvarb ius
Ġinvesti cijos
ĠpajÄĹg os
ĠÄ¯reng tos
J ÄĹz
ĠÅłal Äį
K okyb
is h
Ġab itur
Ġrink ai
199 7
d vi
ĠG yven
... >
194 5
Ġplastik iniai
ieri umi
iest Äħ
Ġmat om
ĠÅ¡al tinio
X IX
Ġkai mÅ³
Ġsusid or
Ġstud ijoje
Ġspektak lÄ¯
Ġn ac
ĠDrusk ininkÅ³
Ġdabar tinÄĹs
ed es
Ġsen jor
Ġspaud a
ĠÅ¾ing snÄ¯
Ġka ÄįiÅ³
ĠÄįi uÅ¾
ĠPrezid ento
Ġdiskr imin
Ġvadov auti
ĠsÄħ monÄĹs
Ġsaug omi
ĠdidÅ¾i ojo
j ud
Ġstip end
ĠiÅ¡sisk yr
ĠÅ½ yg
Ġpavard ÄĻ
ĠSocial inÄĹs
Ġst ali
Ġugd ymas
Ġsekre torius
ĠÄ¯s kai
ĠN id
ĠV aid
Ġpilie Äįiams
iÅ¡k ais
Ġchem iniÅ³
Ġn aci
ĠÅłiau liai
Ġek onomis
yst ei
Ġtiksl ams
ĠiÅ¡skir tin
Ġsti lis
Ġbrand os
st ai
Ġr aidos
Ġpris istat
kl ini
Ġtechn iniÅ³
ĠÄ¯vertin o
ĠtreÄįi as
R as
Ġsitu acijose
Ġskait ymo
gi ui
Ġinter aktyv
Ġsudar ytos
Ġtiksl ui
m s
Ġveik ÄĹjÅ³
Ġkokyb iÅ¡ki
Ġvidu tinÄĹs
Ġsusid urti
ĠpaieÅ¡k Äħ
ĠIr ena
Ġak to
Ġelektr inÄĹs
la y
Ġkredi tai
eÅ¾ is
Apskri tai
Ġsluok snÄ¯
ĠG yv
ĠBritan ijoje
ĠRem ig
Ġatsak ingi
Ġgrind ys
Ġned irb
Ġreabili tacijos
Ġmin imas
Ġdez in
Ġpasek mes
Ġsti eb
Ġtal pos
J uoz
Ġspecial istams
Ġnepad ar
Ġar ab
Ġtik ÄĹjimas
ĠV M
Ġtab ako
Ġaps kr
199 9
Ġpuslap is
Ġmyl im
Ġsocialdemokr atÅ³
Ġsul aukia
Ġpapild oma
Ġon line
Ġnes um
Ġsutr ump
Ġger esnis
r ov
Ġir kl
Ġperspektyv os
Ġprival umas
fil m
Ġseni Å«nas
em as
Ġrestoran Å³
er ÄĹs
ĠuÅ¾duo tÄ¯
At vir
ĠslÄĹ gio
Ġreag uoja
Ġgatv e
aud ies
Åł vie
ien tai
Ġpasirod ymÄħ
ĠiÅ¡im tis
ĠÄ¯spÅ« dÅ¾iÅ³
ĠteÅ¡ lÄħ
Ġband ymÅ³
i omis
un das
bur go
y paÄį
ĠÅ¡ ni
Ġkreipi asi
ed u
Ġsk ver
ĠL ina
re e
Ġrezultat o
ĠV DU
Ġats kiri
Äħj ung
tal as
ĠÅ¡ ar
Ġgr esia
Ġgr indÅ¾i
Ġsp ÄĹjo
Ġkie mo
Ġtr imis
ĠseniÅ«n ija
Ġster eoti
Ġb ad
Ġinstitu cijoms
Ġpalaik ÄĹ
ĠsupaÅ¾ind inti
Ġprie glob
avi ÄįiÅ«tÄĹ
Ġpop ieriÅ³
Ġnurod ytu
Ġpatog iau
ĠÅ¾ied Å³
Ġkalend oriÅ³
Ġtok iems
ĠpraÅ¡ yti
et inÄĹs
Ġadministrac inis
Ġ os
Ġtoki oje
DidÅ¾i ausias
Ġsur enk
ĠM ir
Y B
r oje
an aliz
Ġkaral ystÄĹs
ĠnÄĹ r
Ġmetod Å³
Ġkal tÄĹs
Å¡ki us
Pas tab
eks o
Ġpareig a
Ġk enÄįia
ĠS tri
Ġnaud od
sp aud
as h
Ġsaug umas
Ġbaud a
Ġper kr
ut ei
Ġbiur as
B el
ind ex
Ġskir st
s uk
ri l
Ġkr yÅ¾iaus
Ġner Å«dijanÄįio
Ġklien tus
ĠPas valio
Ġsekun dÅ¾iÅ³
ĠÅ¡ arv
Ġsportinink Å³
ĠpaÅ¾as tÅ³
Ġs olis
ĠÄ¯vyk sta
ĠdeÅ¡imt metyje
ĠD ari
O V
Ġapsis prÄĻsti
ol ÄĹje
Ġprofesion aliai
Ġmok inys
ĠreÅ¾ imo
Ġrestau r
ĠS MS
Ġz o
Ġsusil aukÄĹ
ĠÅ¡eim ininkas
au m
Ġkr ent
Ġ antis
Ġoper acija
aÅ¾ n
Ġpartiz an
Ġpriv aÅ¾i
ĠpripaÅ¾ Ä¯st
Ġd aig
ĠN ar
AtsiÅ¾vel giant
Ġpirm inink
Ġpasis kol
Ġgal imÄħ
Ġteis ÄĹjÅ³
Ġnep ar
b uvo
Ġvykdom i
å ½
ien tÅ³
E d
Ġlyg iÅ³
Ġsupjaus ty
Darb as
t iniam
s y
D ail
on ienÄĹ
Ġproduk tais
eder acijos
Ġnauj am
Ġpav ald
ĠPirk ÄĹjo
Kat egorijos
toj oje
Ġtr ink
A c
Ġpri trÅ«k
Ġind Å³
Ġneap si
Ġapmok ÄĹjimo
Ġatliek as
Bal tic
ĠZaras Å³
ĠiÅ¡tir p
A plink
Ġdalyk Äħ
kv ÄĹp
UÅ¾ si
od os
Ġgab ali
Ġneb et
eidÅ¾i ami
Ġnep ais
I Åª
Ġak toriÅ³
Ġspektak lio
ĠiÅ¡v akar
ĠgrÄĹs mÄĻ
ĠMar ius
Ġnepas id
av usios
htt p
d eg
ĠKan ados
i usi
Ġ6 1
ĠÅ¡ yp
Ġnaujien as
Ġilius tra
Ġmilij onus
Ġnuostab Å³
Ġpokalb io
ĠbÄĹg ti
Ġkov ojo
Ġdev yni
ĠAuto mobi
Ġm iÅ¡kai
Ġc ilind
Ġpl on
Ġprival oma
Ġimpr oviz
ĠAr gen
Ġbaz ÄĻ
Ġkos mos
Kas met
Ġ198 8
Kon kur
Ġraudon os
d es
Ġatm inti
ĠÅ¡al Äįio
Niek ada
ĠuÅ¾ truk
val ga
ĠJer uz
olog ÄĹ
Ġsta biliz
Ġkvalifik acijÄħ
Ġg o
ĠdaÅ¾ n
Ġkredi tas
ĠprieÅ¡ mok
irÅ¡ kite
ĠM ikal
Ġpramog os
ĠpaÅ¾eid imo
Ġl iemuo
Ġak cijÄħ
s Ä¯
ĠÄ¯spÅ«d is
Ġpr etenz
Ġc en
Ġkas kart
ĠAustri jos
Ġ ÄĹ
Ġtinklalap yje
Ġikimok yklinio
Ġblog a
K ultÅ«ros
tÄĹ ti
ĠÅ½ ymos
Ġrod omas
ĠÅłved ijoje
Ġd Å¾em
or n
ĠsÄĹd ynÄĹs
Ġlietuv ius
Ġmin tÄ¯
ĠS to
pras ti
Ġsen Å³jÅ³
egz ti
ĠJ ac
M etÅ³
Ġlaik ai
Ġlaikrod is
194 4
ĠT ol
Ġlav inimo
ĠIsp anijoje
ĠkaÅ¾k iek
ĠÄ¯rod ymÅ³
te liais
ĠD Å¾i
ĠiÅ¡n audoj
Bend ras
Ġs el
tod ail
Ġatvej ai
ĠsprendÅ¾i ant
ĠM ax
Ġnepas ir
AM AS
u ck
ĠiÅ¡ kirp
Ġportal e
soci acijos
a e
Ġk emp
Ġsen a
ĠM erg
F esti
adien iais
Ġsos tinÄĻ
ĠP L
V air
Ġkonferen cijÄħ
Ġgam yboje
ta Äįius
ĠPrancÅ«z ija
Ġmed ikai
Ġneb laiv
Ġspor tuoti
ausk is
Ġistori jas
Ġsavi Å¾ud
on im
Ġsaug umui
Ġpriim ami
Ġgars ÄĹja
Ġteiki amas
Ġt Å¡k
Ġskir tis
iausi us
Pagrind iniai
Ġhoriz ont
Ġj ub
eidÅ¾i amas
Ġparlamen to
ov u
Ä¯ vai
BÅ« tina
ovi Äįius
Ġmo li
Ġrestoran e
ĠnepamirÅ¡ kite
ĠpaukÅ¡ Äįiai
Ġtik imasi
el ektr
Ġskr andÅ¾io
Mok iniai
Ġypat ingi
D om
ĠposÄĹ dÅ¾io
ĠiÅ¡ kl
Ġp uokÅ¡
ĠpadÄĹk os
al iniai
st aig
v est
z g
ov ei
Ġsuk ÄĹl
ĠD ang
Ġatstov avo
ĠJon iÅ¡kio
ĠbÅ« rio
Ġbe tono
ĠA M
ĠL os
Å½ yd
Ġpab Å«ti
Ġnustat ytÅ³
Pab and
ai tienÄĹ
Äįi ausi
d aÅ¾
Akivaizd u
Ġsri tys
Ġanti bio
Ġskelbi ama
p ap
yl e
âĢ ĭ
Ġnauj ausias
ti ve
Ġpakei timai
tech n
Ġfinans inÄĻ
Ġ6 7
esniÅ³ jÅ³
v inas
Ġvil nos
ĠO s
R M
Ġn at
Ġmod elius
Ġsta cion
Ġstrateg ija
ig h
B ent
ĠÄ¯reng inio
Ġpor n
Ġrom anas
Ġsusik urti
Ġsiek s
F inans
in tais
ĠH ol
ĠmÄĹg stu
in antÄ¯
Ġs toj
G A
G i
Ġkom pr
vi ais
Sp ektak
Ġtermin Å³
iÅ¡k ÄĹs
ĠdarÅ¾ oves
Ġsud r
ĠlaiÅ¡k Å³
ĠÄ¯tamp Äħ
Ġsud alyv
", "
r ok
Ġp usias
ÄĹjus iems
ĠGe orge
Ġraj onuose
Kon s
ov s
ĠmaÅ¾ esnÄĹs
Ġtr eÄįiÅ³
Pr iek
Bal tijos
Ġaptarn avimas
Mies to
Ġkri zÄĹ
Ġgl eiv
aus tas
R audon
ĠAnd Å¾
alb a
Ġnuosek liai
Ġpl eÄįi
ĠK op
ĠrÅ« mus
Ġkurs Å³
Ġkur je
Ġkontr as
Ġpatalp oje
Ġm akar
Ġkar inÄĹs
Ġsmulk men
Ġpacien tai
ĠÄ¯s ijung
ĠdarÅ¾ ovÄĹs
Pui ki
Ġv aliÄħ
Ġgr uod
ĠK ul
Ġ0 9
ĠÅ¡im tÄħ
ĠÅ¡okol ado
ĠÅ¡vel ni
ĠrieÅ¡u tÅ³
V yri
Ġfak tÅ³
Ġpirm ajame
ĠiÅ¡v ados
Ġlatv iÅ³
ĠÄ¯ ter
Ġversl ininkai
ĠKon stan
Ġpadovan ojo
Äįi ausias
vald yti
Ġantr osios
ĠlaikraÅ¡ tis
Ġd inami
Ġpaskol as
Ġpatais os
Ġatlik ÄĹjas
Ġvakar uose
Mic rosoft
F i
kl aid
ĠI g
Ġpavad intas
ting umas
Ġnorm aliai
Ġneat sis
Ġreguli uoti
Ġatlik imo
Ġkri tikos
Å¾ ÄĹ
Ġpav ir
Ġlap kri
O C
Ġnet inka
Ġatv ÄĹs
Ġ6 9
Ġrekomend acijas
in in
Per s
Ġekstrak tas
sn yje
ĠRespublik oje
Ġpasid arÄĹ
Ġapib rÄĹ
Ġkep enÅ³
Ġstres Äħ
al ams
âĢľ ;
ĠPar lamen
ĠPro f
Ġor ai
O B
Ġder ÄĹtÅ³
Ġpaklaus ÄĹ
Ġform avimo
ĠM e
ĠgraÅ¾i Äħ
ĠnebÅ« tina
Ġats imin
ĠÄ¯stat yme
Ġcitr inos
m ulk
âĢľ ?
Ġjaun ieji
ĠÅ¾ini Äħ
S Å«d
Ġakimir kos
Ġbankro to
Ġprinci po
S un
ĠaikÅ¡ tÄĹ
ĠpirÅ¡ tÅ³
ĠÅ¡ Å«d
Nes u
ĠpraÅ¡ ymu
Ġcukr Å³
os f
Ġatsak inga
Ġavi acijos
Ġpaskir tÄ¯
Ġarchitek tÅ«ra
ij imas
Ġvyr esnio
Ġvaizd us
Ġang el
ĠneÄ¯gali Å³jÅ³
ant ama
Ġsusitik imai
Ġpagamin tos
ĠÄ¯sid arb
Ġpra ÄĹjusÄ¯
Ġkel eto
Ġb ai
Ġto p
ĠEv angeli
Ġs Å«r
ri jÄħ
Ġpasidom ÄĹti
eidÅ¾i ant
P u
ĠiÅ¡ jungti
Ki tos
kaiÄįi uota
Å«n u
D et
ĠG int
Ġor anÅ¾
Ġnuol aida
Ġkrauj Äħ
ĠaÅ¡tuo n
Ġpros pek
t esnis
ĠB ibli
tor e
Ġprinci pÅ³
Ġor din
ĠÄ¯s isk
Su Å¾in
Ġatstat yti
ĠDai va
Ġpasirod ymas
Ġkvie tÄĹ
Ġbes is
ĠÄ¯ran kius
ijos i
Ġter mo
Ġkombin ez
tep ij
G aila
Ġap els
Ġjud esi
: '
Ġnaud ingÅ³
ĠD o
Ġl t
Ġvai ni
K an
Ġli trÅ³
ic k
ĠÄ¯staig Äħ
ĠI eva
Ġketuri os
Ġtend encijos
Ġd eln
ĠvaÅ¾i uojant
K os
w it
Ġreik mÄĹms
Ġdev yn
n ag
ĠkunigaikÅ¡ Äįio
Ġdalyv avimÄħ
aus iems
Ġgr ub
Ġpra gyven
Geri ausia
ĠÅ¾emÄĹlap yje
Ġdain ininkÄĹ
ÅłeÅ¡ tadienÄ¯
au kio
ĠG ra
Ġsutik imÄħ
Ġvokie Äįiai
tak al
em ia
Åłiau rÄĹs
ĠRespublik a
ĠÅ¾aid yniÅ³
Ġneati tinka
Ġlap us
Ġpa blog
Ġbendr amin
A A
Ġats tumÄħ
ĠAr Å«nas
Projek tas
Å½algir is
jungi a
Ġbag aÅ¾
Ġ3 000
Ġmat ote
Ġide olog
ĠV aÅ¡ing
Å¾em io
Ä® sp
Ġkurs as
oles ter
Ġkar iniÅ³
ĠÄ¯ dar
Ġpr aus
ĠvieÅ¡ ojoje
erv atyv
Äĸ J
im ybÄĻ
Ġilg os
Ġvyk dÄĹ
ĠiÅ¡pl at
Ġdie tos
Ġbaz ÄĹ
Ġnakv ynÄĻ
Ġtau tiniÅ³
ĠA K
Ġuog Å³
Ġ8 8
Mar ijamp
ĠÅ¡ak nis
Ġpritaik ytas
Ġmod er
am oms
ĠÅª kio
ur ys
As men
Äįi uo
Ġ9 2
Ġfiz ikos
Ġnepasi tenk
Ġpad irb
Ġobjek tÄħ
Ġnuosto lius
Ġmies tui
Ġlie tus
Ġti tul
Ðµ ÑĢ
ĠKin ija
Ġpsicho terap
Å« kio
ĠpaÅ¾ym i
to me
ĠEg lÄĹ
Ġpsich ologijos
Ġvien erius
Ġpj ovimo
Ġpirk imas
Ġnenor ÄĹjo
uoj anÄįiÄħ
eiki ame
gan ist
Ġkoncent racija
Ġsub til
dÅ¾i ug
Ġpapil do
Ġpasveik ino
Ġm ono
ĠkraÅ¡ tu
Ġfiz i
ĠNauj osios
ĠÄ¯trauk tas
Ġjaun uoliai
ons ult
U V
Ġmok ymas
Ġvil tis
Ġlank ytojams
Ġatkreip ÄĹ
ĠlÄħst elÄĹs
mon iÅ³
Ġvakar ais
Ġpasid aryti
N K
og os
kai Äįiau
Ġrim tÅ³
Ġsti liumi
Ġpavoj aus
ĠF o
ĠiÅ¡m ÄĹg
Ġpasim ÄĹg
L engv
D P
Ġkito kios
Ġregist racija
Ġneat rod
Ġop on
Ġkompet encijos
ÄĹm ÄĻs
Ġses uo
Inform acija
ĠInter net
Ġpasek miÅ³
Ġkaimyn ai
ĠÄ¯sipareig oja
M ie
Ġvie tinÄĹs
ĠsiÅ«l omas
Ġtem p
Ġ0 8
y a
Tiki uosi
Ġmilij ono
ransp orto
ĠJ ol
ĠG ard
Ġs c
Å¡ ÄĹ
Ġkonferen cijÅ³
ingi ausias
Ġleid imas
F F
Ġnum eriu
A ukÅ¡Äįi
l ovas
oki o
Ġrezultat ais
yn uose
Ġkuk urÅ«z
A i
Ġbron zos
Ġsusitar ti
Ġregion uose
Ġkambar ius
Ġk ÄĹlÄĹ
teri ja
ĠbÅ«d ama
Ġlen tos
Ġtobul inimo
Ġl ÄĻÅ¡
ang iÅ³
Ġvaid ina
ang e
Ġakivaizd oje
ĠSk vern
ĠpraÅ¡ ÄĹ
M i
ĠÅ¡al ta
Ġpraktik oje
Ġpar al
ĠVieÅ¡ pats
i ojo
Ġprisit aikyti
Ġor kai
Ġsp rag
is tinÄĹs
Ġsal Äħ
Ġsaug aus
Ġnukreip ti
ĠIlg is
Ġpien Äħ
ĠÄ¯vertin imas
Ġkoncer to
Ġstrateg ijÄħ
ĠJapon ijoje
ĠkÄĹd ÄĹs
Ġtak si
Ġdis cipl
ĠW indows
Ġanaliz uoti
Ġpoli tinio
uni go
Å½mog aus
ĠkaÅ¾k odÄĹl
ĠiÅ¡laik o
Ì ĥ
Ġreg is
Ġpristat ymÄħ
Ġsign at
ĠLazd ijÅ³
ĠdidÅ¾i ausios
Ġagent Å«r
> >
Ġelem entar
Ġmechaniz mas
Ġm ink
t alÅ³
ĠvirÅ¡ ija
... âĢľ
Ġnor u
Ġpasi un
Pat ar
Ġskai Äįiai
Ġparink ti
Ġmokykl ai
Ġnori ai
Ġpav yk
ĠieÅ¡k ojo
Ġskait ytojÅ³
ÄĹ tu
uo Å¾as
ÄĹj oje
ĠÄ¯am Å¾
ub as
Äįi amos
ĠM asi
Ġatk Å«r
Ġjap onÅ³
Ġeur us
Ġsteb ÄĹjo
Ġprigim ties
Ġmol ek
Ġplatform a
Ġsuv okia
Ġautomati z
ĠSk uod
ĠAi rijos
B log
Ġrod os
ĠVid aus
Ġd il
ĠKris tus
Ġd inam
ĠM er
Ġgeri ausio
Ġtaik ant
Ġpavoj inga
Ġkom pres
ĠkiauÅ¡ inius
yn ei
Ġprival umÅ³
ĠaikÅ¡ telÄĻ
Ġnepasi tik
ĠPrÅ«s ijos
ĠmÄĹlyn os
Man e
Ġr atai
uos tabu
Å¡ ak
Ġap eli
Ġpag arba
g yv
Ġtechnolog ijÄħ
D ev
ĠP AR
yg a
Äįi umi
ĠdÅ¾iug ina
Ġt Å«ris
ĠÅ¡v ei
Ġlietuv iÅ¡ka
Ġfak tÄħ
Prof es
Ġpav ÄĹs
ait ÄĻ
Ġreikal ingus
Ġgrie tin
Ġkai rÄĹs
Ġkolek cijÄħ
ĠuÅ¾ kirsti
BÅ« klÄĹ
R o
auki tÄĹs
d ys
ĠaukÅ¡ tÅ³jÅ³
ĠMart ynas
ie lg
Ġt egul
ĠÅ¡i tas
P L
ol os
Ġatmosfer a
ali Å¡kai
MaÅ¾ ai
ĠS of
ĠM antas
ĠiÅ¡si pl
on ija
Ġspeci aliÅ³
ĠPag ÄĹgiÅ³
ĠV y
Ġvar p
ĠH e
ĠT il
Ġak tai
Ġniek uomet
A pl
res as
ĠR ed
ĠuÅ¾im tumo
Ġband oma
Ġpagrind Å³
Ġatsi imti
Ġnesi tik
an auskas
ĠgyvÅ«n us
ĠtÄĻsi a
om oji
Ġgamin amos
ĠaukÅ¡Äįi ausio
Ġb ÄĹda
Ġr aiÅ¡
Ġnor ÄĹdamas
Ġsteb ÄĹs
Ġkantr ybÄĹs
Å« b
Ġas o
Ġvers ijos
ĠS ol
ĠÅ¾em iÅ³
ĠÐ ¸
Ġti kiu
Ġkain uos
ĠA vi
Ġvietov ÄĹse
c ent
Ġter Å¡
Ġkap sul
O f
Ġap m
Ġkoncent racijos
ĠuÅ¾baig ti
in aro
Ġap aug
ĠbÅ«s enÄħ
Ġrespublik os
c al
Ġap y
techni kos
Ġrink ÄĹjÅ³
Ġpasiek s
W h
auj anÄįios
Ġko oper
IN K
Ġtapat ybÄĻ
Ġrealiz uoti
Ġasmen inio
d ie
Ġlaid o
Ġveik sniai
Ġne tiesiog
Ġlais va
Ġvanden tie
Ġpab endr
Ġatei tis
amin ta
Ġch oras
g ri
Ġs ykÄ¯
Ġsprend Å¾ia
otan ikos
Ġpagrind inÄĻ
Ġl oj
ĠÅ¡vie siai
et inis
i ant
v nt
Ġ Yra
si on
Å½ uv
Ġkal cio
ĠmÄħst yti
Ġnaudoj ame
ĠiÅ¡ anks
Ġnusprend Å¾ia
Ġnepri tar
Ù Ħ
tuk ais
P os
ra bu
ĠkraÅ¡ tÅ³
el ÄĹms
op oli
ĠNacional inio
Ġmas aÅ¾o
Ġapylink es
pres s
Ġ Ø
Ġterap ija
e an
ĠJ ud
S C
Ġsun kiÅ³
Ġprivat umo
Ġv ingi
R am
ĠkunigaikÅ¡ tys
ĠGintar as
em o
uosi te
in Äįio
Ġatsid Å«r
Ġkleb onas
Ap ple
Ġatitik ti
ĠDiev u
Ġru tu
er os
ĠS us
Ġbakteri jÅ³
isl ovas
u a
Ġbals uoti
Ġdai li
Ġblog iau
Ġpamink lÅ³
Ħ ¢
od ai
Ġkiem Äħ
ĠM iÅ¡
H z
ĠUN ESCO
) {
ie do
Ġtarptau tinÄĹje
radarb i
ĠKar ol
Ġsuvar toj
Ġisp anÅ³
1 50
Ġg Äħs
ĠÅ¡ lif
ĠraÅ¡ ymo
. ;
Ġasmen inÄ¯
ĠvÄĹli ava
Ġpir am
ĠÄ¯staig oms
Ġskamb ÄĹjo
Ġpi an
ĠÅ¡il dy
ĠPat al
Ġgeb a
ĠdÅ¾iaugs mas
M ag
ĠiÅ¡vakar ÄĹse
Ġdid eles
Ġpam ald
Ġger kl
P ac
V andens
el k
on inis
ĠV aik
at ink
Ġr ol
to ni
Ġpatiek alus
i ami
aud yti
Ġsk ie
med Å¾io
Ġm amai
Ġgr oti
Ġaktyv umo
Ġscen Äħ
ĠP AS
Ġiniciatyv Äħ
ĠÄ¯ jungti
Ġpal ei
Ġnegali te
Ġteksti lÄĹs
uomen ÄĹ
rai Å¾
Ġnorm Å³
n ÄĻ
Ġaplink ybÄĹs
Ġband ymas
Ġvyr us
c ed
ĠiÅ¡s ak
baig us
Ġprab ÄĹg
Ġkokyb iÅ¡kos
Ġl amin
Ġf an
ĠminÄĹ tÅ³
ik liÅ³
Ġnedid elÄ¯
em ijos
ĠiÅ¡gelb ÄĹti
Ġnuv er
ys ta
Ġh omos
Ġdalij asi
Ġr ato
IÅ¡ l
Ġfilosof ija
uo toje
Ġvil ki
Ġdokumen tuose
te kos
Ġpavasar is
ĠPag rind
ĠpaÅ¡nek ovas
Ġatitik tÅ³
ĠR ug
Åłi a
ĠE ugen
Ġpasak ojimas
Ġfinans avimÄħ
ĠM ies
Ġk e
Ġr enka
Ġtik imÄĹs
Ġtvark araÅ¡
ĠSk andinav
Ġamb as
ĠdaÅ¾ ais
Ġvari antai
Ġbat us
Ġlog istikos
Ġs uol
Ġparduotuv es
Ġbes imok
ĠiÅ¡r eikÅ¡
Ġprinci pai
Ġep id
Ġakadem ijoje
ĠÅ¡tab o
Ġes Äħs
Ġt ose
Ġklas ÄĻ
Ġne virÅ¡
Ġtarn auti
Ġpasau liu
Ġsusitik imus
Ġpasitik ÄĹti
Ġnesib aigi
Ġm aj
iej aus
Ġpatvirtin ta
Ġki auliÅ³
ĠÅ¾od ynas
Ġefektyv iau
Ġlyg us
Ġtend encija
ĠM in
Ġpav eikti
I ON
w e
ek torius
si Å¡kai
Ġnes ur
Ġskol os
ĠKaral ystÄĹje
Ġneb en
P aj
uv ienÄĹ
N eto
ĠrugsÄĹj Ä¯
Ġpag ard
ov skis
ĠuÅ¾s uk
Ġsutrik imai
ĠpirmÄħ sias
Ġpasig aminti
D er
me Äįiui
Ġpasi tei
Ġjau Äįiu
Å¡ ius
tr op
Ġuni form
Ġkurs Äħ
Sud ÄĹ
Paskelb ta
Ġatsiliep imus
Ġlaik ys
Ġstor is
Å«n ui
BÅ« tÅ³
L eid
Ġvadovauj ama
and Äħ
Ġpirm ininku
Ġsluok sniÅ³
ĠkÅ«diki ams
Vien intelis
Ġpo eto
Ġorganiz avimas
Ġjaus mai
Ġpastar Å³jÅ³
ĠdidÅ¾i osios
ĠÄ¯staig as
IS T
Ġg avimo
Ġr eli
Ġpastat us
Ġatlyg inimÄħ
ag oje
Ġrus ai
Ġkor teliÅ³
Ġmen Äħ
Ġdail ininkas
gal is
Ġo Å¾
Ġteleviz oriÅ³
Ġnaud ingumo
ĠiÅ¡rink ti
Ġreag uoti
li auskas
aud ama
Ġapmok estin
S U
Ġdaug ÄĹja
ĠpÄĹs Äįiomis
Ġdokum ent
Ġr ie
Ġklini kos
and art
Ġnen usi
ht ml
ĠEgip to
ĠT ies
ic a
Ġtri um
ÄĹli ams
Ġauk os
ĠB lu
Ġras tas
Å¾i ama
Ġfiz inÄ¯
ĠiÅ¡ ankst
Ġpag yven
ĠiÅ¡skir ti
Ġpateiki amas
Ġpie tuose
Ġneigi amai
Ġpasirink tas
ĠÄ¯ pil
c on
Ġkan alÅ³
Ġsul auki
Ġmas to
ieki a
ĠMyk olo
ĠR ec
ĠEg id
Ġkor telÄĹ
Ġsiek dami
Ġdvar e
ĠÅ¾iÅ«r ovams
Ġg ubern
Ġy ou
Ġpokalb Ä¯
Ġasmen inÄĻ
Ġkompiuter yje
Ġparametr ai
ĠPr is
Ġsusirink imas
Ġnes unku
Ġstatis tikos
ov ÄĹmis
p asi
er kite
Ġgal ÄĹtum
Ġtvark ymas
ĠÄĮ ep
Ġw ith
Ġmui tinÄĹs
ĠM A
Ġbals Äħ
ĠÄ¯ Å¡
ĠiÅ¡v ada
Ġegz oti
ĠÅ¡veln us
ĠR ink
Ġpapras ti
Ġpacien tas
y tomis
ĠiÅ¡lik s
Ġd antys
Ġbal Å³
Ġnelaim ÄĹs
N uoÅ¡
Ġch ore
ĠtreÄįiÅ³ jÅ³
F OR
ĠÅ¾aid ime
Ġkoj Äħ
199 3
Ġfotograf ijÅ³
ĠS au
Ġmalon umÄħ
ĠV IS
Ġvandentie kio
Ġatsis ako
Ġpasis av
ult Å«ra
Ġbaig ÄĻs
ĠuÅ¾m ig
Ġvietov iÅ³
esn ÄĹje
Ġnaud okite
Ġregistr uotis
Ġpj es
tik oje
Ġ8 2
ĠÄįempion atÄħ
Ġneg atyv
Ġnuos prend
al ti
Ġkoki omis
Ġpristat omos
Ġtechnolog ijomis
Ġpaskut iniÅ³
ep s
ĠdÄĹm es
ĠLenki jÄħ
UÅ¾ sak
Ġnet yÄįia
Ġkov oja
id en
Ġpak vie
ĠaukÅ¡Äįi ausi
vis Å³
Ġmeis tras
ĠPak ruoj
red it
Ġnes t
Ġv akc
Ġsutik imo
Ġdid ÄĹj
Ġsanty kiuose
Ġstog as
ĠÅ¡iuolaik iniÅ³
ĠÄ¯reng imo
od r
Ġpatik s
Ġpunk tas
Ġsli d
Ġkoleg Å³
Ġnor ÄĹs
ĠraÅ¡ to
Ġch oro
199 6
ĠÄ¯ neÅ¡
Ġgi liau
ij ÄĻ
ur is
ĠvirÅ¡ ininko
ĠÅ¾al a
Ġvarto tojui
ĠpadÄĹk oti
Ġs Å«rio
al ui
Ġteis ingas
Ġpasku tinÄĹ
amen to
ĠjÄĹg omis
Ġpaj ung
ĠpaÅ¾ym ÄĹjimÄħ
Var to
Ġpig men
ord s
Ġmok ama
Ġh ib
ĠiÅ¡d av
L eng
Ġer t
Ġpav alg
Ġatnauj inimo
Ġpaskut inius
Ġpasid ar
os as
Ġner eg
ĠTeis ÄĹs
Ġkonkur encijos
Ġpaveik s
Kaz imie
ĠÐ ½
ĠkÅ«n ui
urb uli
Ġpaskut inio
ĠÅ¡ m
Ġsv ar
ĠÅ¡im to
ĠN emok
S aulÄĹs
ks kurs
Penk tadienÄ¯
Ġplau ÄįiÅ³
Ġpatenk intas
Ġstengi amÄĹs
N eÅ¡io
Ġf one
stat ymo
e e
Pard av
Ġprojek tams
Ġtinkami ausiÄħ
} ,
si a
ytu je
er ta
Ġsupra timÄħ
Ġnepri im
l ei
Ġtau tai
07 700
Ġtaisykl ÄĹmis
uomo ti
on iniÅ³
T M
ĠÅ¾ alios
v in
Ġd at
Ġpasaul ÄĹ
Re gi
ĠaikÅ¡ tÄĻ
Ġnegal ÄĹs
Ġnu eiti
Ġnu trÅ«k
D al
J uoda
Ġkaimyn Å³
ĠvieÅ¡ oji
Ġd yg
tar Å³
Ġmeis trai
Ġkaz ino
ĠSank t
ĠS erg
Ġfinans uoti
Ġlaisv Äħ
Ġder ybÅ³
Nauj asis
D Å¾
ĠB enz
b Å³
ĠmÄĹs Äħ
K ri
Ð¾ ÑĢ
ĠP re
rip t
Ġnaud ai
ĠS me
Ġkri to
Ġtradic inÄĹs
Ġm ai
am ina
Ġmed ikÅ³
Ġpur kÅ¡
tadien iais
Ġne val
Ġdokum entais
ki Å¡kiÅ³
al uose
ĠM oti
ĠS avivald
Ġ19 20
Ġatnauj intas
S tov
Ġnuk eli
Ġ19 39
ĠNiujor ko
ak r
Ġd ÄĹd
ĠNorveg ijoje
Ġin tui
et inÄĹ
Ġbendr Å³
yk st
ĠW h
Ġbendr osios
S Äħ
ĠC ol
Ġ urb
ĠÅ¾ Å«
Ġdaug umÄħ
ĠÅ¡eÅ¡ is
Ġv ol
ĠP ie
Ġpop ietÄĻ
Ġsiun Äįia
Ġaso cij
bl e
ĠÄ¯s tojo
Ġversl ininkas
Ar tÄĹj
Ġkompiuteri ai
Ġrelig ija
v iai
R ob
Ġk ant
uoj amus
ĠuÅ¾s kl
Pas ik
Nori te
ki ant
Ġas ist
Ġab strak
Ġberni ukas
Å«s ti
Å½ i
E m
amÄħ sias
Ġskys ÄįiÅ³
R en
j ÄĹ
Ġri ki
Ġtris deÅ¡imt
ÄĹj ausi
Ġbals u
Ġne ai
Ġorganiz uojamas
Ġpedagog Å³
az z
ĠpasivaikÅ¡Äįi oti
Ġsind r
u Äį
ĠpoÅ¾ym iÅ³
Ġvien us
Ġpatik imas
ĠskaiÄįi uoti
ĠS mÄĹlio
Ġgatv ÄĹmis
Ġag ur
iki p
ĠM oz
Ġalyv uogiÅ³
Ġpor Å³
Ġnuorod a
Ġvald yba
Ġabs olv
Ġne kr
ingi ausia
Ġregion inio
ĠbÅ«d ami
Ġati dav
Ġsoli dar
Ġvaik inai
am ame
ok Å¡Äįi
Ġp ulk
var ka
Ġlaisv os
Ġypat ingo
Ġkredi tÅ³
Ġmat menys
ĠÄ¯sik Å«rÄĹ
ĠvirÅ¡k inimo
ame tis
uol ys
ali omis
ul as
Ġnaud otas
Ġbr ok
ĠL abai
yt ame
Ġatlik tÅ³
Ġpasi Å¾iÅ«rÄĹti
anÄįi oji
ĠÄ¯gyvend inimÄħ
Ġsluok snio
O rigin
N usi
yb iniai
tat os
V it
T ol
Ġam Å¾
Ġdal yko
ĠÅ¡vent ÄĹms
Ġtv oros
Ġply telÄĹs
ki ra
Ġlabdar os
t ap
im anto
ÄĻ st
ĠpaÅ¡ il
Ġregistr uoti
ĠraÅ¡ tas
ĠpraneÅ¡ imai
ĠTar yba
Ġnepa tik
I tal
Ġne men
Ġl ot
Ġparti jÄħ
ĠÄ¯sipareig ojimus
Ġjud ÄĹjimÄħ
Ġkalori jÅ³
L in
ai dÅ¾i
Ġvidur amÅ¾iÅ³
ĠÅ¾urnal istams
Ġbaigi ant
Ġgam tiniÅ³
Ġnes aug
Ġlaim ÄĻ
in ukÅ³
iek vien
Ġklien tais
P inig
p an
at ams
auk Å¡Äįi
Ġaps unk
Ties Äħ
Po int
ĠÅ¾emÄĹlap Ä¯
Ġsald um
ĠF er
Ġprofesional ai
Ġh erb
Ġistor inÄĹs
Ġnusteb inti
Ġatspalv iÅ³
Ġeksper tas
ĠV atik
ĠÅ¾vej ybos
ĠV MI
Ġ7 7
il e
ĠpabÄĹg ti
PaÅ¾ ym
Ð° Ð»
Ġemo cijos
Ġbel ieka
S ÄĹkm
Ġsupra timo
ĠreÅ¾ imas
Ġpj Å«kl
Pa aiÅ¡k
Par eig
ĠdÄĹv ÄĹta
Ġm ili
V idu
kir s
Ġinspek cijos
Ġpamink lo
Vien os
ĠÅ¡il dymas
Ġatspar us
Ġantr os
Pask ut
ĠpoÅ¾ym iai
en cijai
ul e
Ġnei lg
ĠAl ber
ĠpraÄĹjusi Äħ
Ġtem Å³
ĠÄ¯sig ijimo
Ġtal pa
Ger a
Ġvar gÅ¡
ĠKal ining
Ġinstrum entÅ³
Ġch olester
Ġlaiv as
Ġlaisv o
Ġkategori ja
ĠK raÅ¡to
Ġnet aik
ĠneiÅ¡ si
ing esnis
ĠuÅ¾s eg
Ġkomand as
ĠsÄĹkl os
Ġpl yÅ¡
Ġsuv en
ed ame
Ġkam uoli
Ġtekst ai
Ġpagarb Äħ
ĠN ev
Ã Ĺ
Ġpasi tikrinti
ĠmÄĹn uo
rikÅ¡Äįi on
uoj antiems
ĠmaÅ¾ esni
e Äįia
Ġper ved
ĠsugrÄ¯Å¾ o
Ġlyd eriai
ĠuÅ¾siÄĹm imai
Ġpapras tÅ³
ĠK eliÅ³
Ġdu jos
e kiÅ³
on ytÄĹ
h an
tr yÄįiÅ³
ĠV P
Ġbl aiv
Ã ł
Ġ7 8
ĠparaiÅ¡k as
ĠiÅ¡sami ai
ĠiÅ¡ki lo
Ġc om
Ġmedvil nÄĹs
Ġat rado
Ġpadar ytas
Ġnusil eido
ĠgalÄĹs ime
Ġd os
ĠE N
Ġdraug ÄĹ
Ġprofes ijos
Ġnepav yksta
ĠuÅ¾dirb ti
194 1
Ġorien t
Aud i
Ġelektron ikos
ĠÅłil alÄĹs
ĠÄĮiurli onio
Ġegzamin Äħ
Ġind ik
tik us
å ħ
ĠvaldÅ¾i ai
c inÄ¯
ĠD et
Ġnu ties
t rad
Ġnes l
ÄĹj ama
Ġ194 6
Ġm ÄĹl
ne y
Ġakimirk sniu
Ġ æ
Ġak toriai
Ġaksesu arai
Ġkatali ki
ĠK arb
Ð½ Ñĭ
Susi paÅ¾
Ġparag auti
Ġgalv oju
Ġlaim inga
T ÄĹ
Ġautomobi liui
Ġrekonstruk cijos
ĠB art
Ġatitink amÄħ
Ġpaveiksl as
d ovan
ĠN T
... )
ĠlietuviÅ¡k o
Ġes anÄįioje
Ġspaud imÄħ
Ġpas kaitos
Ġkorpus as
Ner etai
Ġnep ab
Ġver d
at uose
Ġteritorijos e
Ġg li
San trauka
ĠCh ar
ĠuÅ¾ tv
Å½ urn
Ġsk ep
Ġkalb ÄĹtis
ĠkrÅ« tinÄĻ
Ġkompeten cijÄħ
T eigi
Ġkat ÄĹ
ĠpabÄĹg ÄĹliÅ³
an tiesiems
Ġkryp ÄįiÅ³
ĠÅ¡okol ad
Ġgen e
Ġprir eiks
Ġpral eidÅ¾ia
Ġsluok sniu
Sveik atos
Ġglaud Å¾iai
Ġk aÄįi
Ġlyd erio
ĠiÅ¡g ar
Ġr etas
Ġsocial iniuose
nio lik
C C
ĠÐ ¾
ijungi a
ĠaÅ¡ tr
Ġvien ij
ĠÅ¾yd ai
Ġturin Äįios
Ġpavad inta
Ġauk a
Ġprad ÄĹjome
AN D
y ota
ĠuÅ¾ter Å¡
Ġreikal ai
ĠÅ¾ibin tai
Ġtau todail
jer o
aukÅ¡ tis
Ġveiki anÄįiÅ³
ĠAukÅ¡ tai
uokl ÄĹs
Ġlaip snis
Ġatstum u
g atv
Ġpagarb os
Ġdaktar o
U krain
Ġv yÅ¡
Ġprie inama
Ġpalyg inus
Ġfestival Ä¯
Automobi liÅ³
v Å³
M P
fin ans
Ġra gan
Ġsukur tÄħ
Ġparem ti
ĠÅ¡iaur ÄĹje
G e
ĠM MA
Ġp Å«k
ver tÄĹ
Ġvad o
Ġbiur ok
Ġsrau to
Ġlaisvalaik Ä¯
ĠSpor tinÄĹ
ĠkaÅ¾k am
Ġpatyr ÄĻ
Ġkap iniÅ³
DÅ¾i ug
M a
Ġnauj iems
Par aÅ¡
Ġsr ovÄĹs
Ġsie lÄħ
aud a
r auk
Ġne Å¾ym
Ġp Å«l
ĠÄ¯vairi oms
Ġdeguo nies
ĠÄ¯stat ymu
Ġmo Äįi
Ġsaug ojimo
At ei
Ġsvarst ÄĹ
Ġinternet inÄĻ
Ġnemok amÄħ
aus to
c iniai
ĠÅ¡e imas
Ġdovan as
Ġpoli tinÄĻ
ĠÅ¾in utÄĻ
Ġatlik ÄĹjai
Ġleid iniÅ³
Ġspecialis to
Ġti pÄħ
Ġnus p
Ġsukn elÄĻ
au tÄħ
ĠdidÅ¾iul ÄĻ
Ġlen kai
Ġnuostat a
ĠminÄĹ ta
Ġnauj omis
ord e
ĠT op
Ġparametr us
Ġnagr inÄĹti
Ġatlyg inimas
Ġsuvok imas
Ġsus toj
ĠpasiÅ¾ym ÄĹjo
j ob
uri Å³
Ġgal erijos
ĠkliÅ« tis
Ġ7 6
Ġne eil
ĠteisÄĹs augos
usi ame
Ġkain avo
Ġakadem ija
ĠNU O
Ġgyv ul
ytoj ais
ĠaukÅ¡Äįi ausiÄħ
ĠnetrÅ«k sta
engi ama
Ġkul inar
ch ron
Ġm ul
Ġram ybÄĻ
at si
Ġsav Å³
uokl is
Ġvir to
ĠNiujor ke
m uz
tori ais
ĠeÅ¾er Å³
ĠpavyzdÅ¾i ai
Ġpasiek imus
Ġper Å¾
Ġsvies to
ĠtrÅ«k o
ĠPr ie
Ġp olis
Å¡ ys
ĠP rod
Ġam or
ĠsiÅ«l omi
Ġser ver
Ġjaun uoliÅ³
ÄĹjusi ais
ĠRi Äį
S er
ĠÄ¯reng inÄ¯
oj imais
Ġlauk s
ĠsudÄĹ kite
Ġteiki amÅ³
Ġper galiÅ³
Ġpro tÄħ
ĠN at
Å¾ ÄĹs
Ġtvark omi
ĠMas k
Ġnesupr anta
Ġprev enc
oj anti
Ġpokalb is
ĠU n
Ġkoleg omis
Ġ ov
Ġdaik tÄħ
ĠT or
Ġon k
T okÄ¯
Ġpirm ame
ĠÄ¯rod ÄĹ
tin us
ef er
Ġgeb ÄĹjimÅ³
Ger as
Ġnenori u
ĠÅ¾aidyn ÄĹse
Ġpenk tadienio
ĠB ra
Ġdarb uose
Ġteis ÄĹjas
Ġplauk imo
ĠuÅ¾tikr ins
ĠjauÄįi uosi
Ġrep or
Ġcik las
U L
Ġpei z
f unction
ĠÄ¯kur ti
Ġstengi uosi
gi ama
Åłi am
ĠRober tas
Ġslidin ÄĹjimo
tel ÄĹje
è ¯
Ġprival umus
Ġw eb
Ġreikal ui
Ġsuform uoti
Ġpastov iai
OJ E
ars el
Kon kurs
Ġcik lÄħ
Ġpateik tos
Ġrim tas
ĠMaÅ¾ eiki
Ġaudi to
ĠuÅ¾sak ymus
Ġklaid Äħ
ĠS erb
yn ais
Ġtek ti
Ġgri uv
Ġgeb ÄĹjimas
Ġpareng tas
egz ist
ĠgraÅ¾i ausiÅ³
Ġrekomend acijos
MedÅ¾i aga
up io
ĠVarÅ¡ uvos
Ġsta Äįi
ĠdÄĹ kl
Ġ19 80
ĠgrÄĹs mÄĹ
ins kis
T al
ta Å¾as
Ġanti oksid
ĠAlg imantas
ĠValsti jÅ³
R K
Ġdid meninÄĹ
Ġkated ra
ĠU V
å ı
ĠÄ¯dieg ti
ain as
ain ÄĹs
olei bus
Ġsvarb iau
Ġim asi
Ġtrump alaik
Ġlub Å³
Ġl ies
ĠAtl anto
r et
r ys
w a
ĠÄ¯sig yj
T IN
ti eÄįiÅ³
av ietÄĹs
ĠS ur
Ġtur o
Ġpoli klini
ĠkÅ«r imÄħ
ytoj u
Ġkonkret aus
Ġnu ÄĹjo
w ay
Ġ 00
Ġ8 4
ĠVik toras
Å¡ iai
or eg
Ġsrau tas
R es
Ġ ausk
ch i
ĠiÅ¡d uoti
an kiÅ³
Ġ15 00
ĠiÅ¡Å¡Å« kius
ĠStas ys
ĠsÄĹd ÄĹti
ĠieÅ¡k ant
Pav asar
ĠkÅ«ryb inÄĹs
ĠLaik raÅ¡tis
iek imo
s Äįio
Ġkito kio
og a
Ġpriemon e
Ġkrauj as
Ġvid inis
oj anÄįiÅ³
Ġpolitik oje
oj ai
Ġbase inas
Ġport alo
Ġc ar
Ġsusitik imÅ³
ĠPar k
Ġsen s
Ġpil v
Ġataskai ta
Ġkl ausi
Ġdid ysis
Ġautomobil yje
eid us
Ġeig Äħ
inink uose
ĠP C
Ġartim ieji
Tik imÄĹs
Ġgab al
ĠÅłveicar ijos
ĠI Åł
g ird
ĠsudÄĹ tingi
Buv au
Pa tik
Ġabs ur
Ġtrau mÅ³
Äįi ose
Ġnusk amb
Ġbendradarbi auja
ÄįiÅ« tÄĹs
ĠpuoÅ¡ ia
Ġsklyp Å³
an cija
Ġf osf
Ġekran Äħ
eur op
olet inÄĹ
Ġat vi
Ġsp yg
ĠapibÅ«d inti
ĠM airon
ĠpaÅ¾ eisti
ĠiÅ¡si vys
ĠPov ilas
Ġkom forto
Ġm eg
Ġegzamin Å³
ĠÅ¡i ur
ĠdeÅ¡ inÄĹje
ag as
Ġkeli oms
Ġlent yn
Ġk oja
Ġpergal ÄĹ
T os
N R
tuv ÄĻ
Ġartim iesiems
Ġmetod Äħ
ĠÄ¯vair iems
Ġkal nas
Ġpareig Å«nas
Ġpr ailg
Ġkamp u
Ġkamp anijos
Ġgal ingas
Ġefek tas
pl an
Ġpartner ystÄĹs
am ose
ĠD eiv
dom ai
Ġistori kas
Ġprisit aik
Ġtr uko
Gyven imas
Ġk eb
Ġimp uls
Ġetik et
c inÄĻ
Ġregi onas
egori ja
ĠpraÅ¡ ymus
i oji
Ġkr on
Ġtr ej
Åł iek
J onas
ĠÅ¾ali Å³jÅ³
Ġpat ink
Ġre organiz
Ġcentr aliz
T vark
ĠZ ig
ili p
ĠX IV
Ġpatar imus
Ġnaudo ta
ĠkarÅ¡ ta
ĠVid urio
D I
ĠuÅ¾ tek
ĠuÅ¾r egistr
Ġbui ties
Ġmed inÄĹs
Ġmilij onai
AuÅ¡ ros
Ġsup ak
Ġspaud imo
atori ui
ĠMo tinos
Ġnegal ÄĹtÅ³
n eb
Ġnu im
ĠvarÅ¾ ovÅ³
iv idu
anti ja
ĠÄ¯raÅ¡ o
ĠÅ¾ and
Ġpateik tÄħ
ilp n
ĠÄ¯kai tin
R U
Ġpas kl
Ġdv ejÅ³
Ġdvira Äįiu
Ġgars Å³
Ġveik ÄĹjai
erc edes
ĠTeis ingumo
Ġsvaj onÄĹ
Ġs alÅ³
ĠiÅ¡tir ti
ĠTam siai
Ġh ek
Ġdal ijosi
Ġc o
Ġorkai tÄĹje
at om
Ġdraug o
irk Å¡
tu liÅ³
Å¾ od
Ġvaliu tos
Ġnem ato
Ġgal Å«n
Pagrind inÄĹs
ĠAkmen ÄĹs
ĠneÅ¾in ojo
Ġkariuomen ÄĻ
Ġs uom
Ġprie p
ĠÅ¾urn alas
ĠÄ¯spÅ« dÅ¾iais
k Å«r
ĠA tÄĹ
Ġprad iniÅ³
ĠiÅ¡v yst
Ġruden iui
evi Äįiui
Ġprietais as
es to
ĠiÅ¡raiÅ¡k a
Ġnek et
li ukus
ĠS kir
Ġperd avÄĹ
ĠiÅ¡skir tinai
ĠTeis mas
Ġb anga
Ġgimnaz ijÄħ
Ġma gi
Mies tas
Fo tograf
Ġsav ir
ĠD ail
Ġmoksl Äħ
Ġliep sn
j onas
Ġjoki a
Ġvietov ÄĹs
ĠteÅ¡ los
Ġkel eiv
ĠAleksand ro
ykl ose
ĠpaÅ¾as ties
Ġtriko taÅ¾
Ġprietais ai
Ġsus kirst
kai Äįius
Ġpaskut ini
Ner eikia
paÅ¡ to
Su tar
Ġpirmen ybÄĹse
Ġstovykl Äħ
Ġsunki os
ĠdÄĹÅ¾ ÄĹs
K ÄĹd
ĠMich a
ĠR aud
eiki ama
Ġpor no
ĠÅ¡eim yn
Ġpar si
ĠT ib
Ġtiek ÄĹjai
j eigu
ĠparuoÅ¡ tas
w agen
Ġpir ties
ĠÅ¡ok ti
Ġvartoj amas
Ġskulp tÅ«ros
ĠpaplÅ«dim io
ti ena
ut h
Ġpiliet ybÄĹs
ub er
Å½od Å¾iu
Ġsutar tyje
ĠKaz lÅ³
Ġpav ieÅ¡
ĠKat alikÅ³
ĠAf ganist
Ġlaik omos
Ġkontra k
Ġkal nus
ĠuÅ¾trauk tuku
d avi
Ġpasak Å³
ĠMarÅ¡k iniai
Prad inÄĹ
ami o
Ġsus imok
ĠKÄĻstu Äįio
ik oje
Ġtren erio
. /
Ġnek on
Ġsta bili
eÅ¡ ÄĹ
ĠDon el
Ġperdirb imo
D okum
Ġkri p
t fin
Ġnaudoj amÅ³
Ġv eli
ĠÄ¯si bÄĹg
â Ħ¢
L o
Ġvil tÄ¯
Ġprofesion aliÅ³
ĠÅłirv intÅ³
ĠU l
Ġnuorod os
Ġpasi b
ĠUÅ¾s ienio
Ġkito kÄ¯
Ġofici ali
Ġpomid orÅ³
Ġtekst us
Ä¯s tu
Ġuos tam
Ġj oks
ĠM az
Ġpavid alu
Ġatliek amos
Pastab a
Ġlyd i
Ġslap ukus
I B
J okiÅ³
ĠÅ¾iÅ«r int
ĠS ut
Ġbals avimo
å °
IÅ¡ si
Ġp ogr
Ġasmen inius
Ġnes uvo
Ġsidab r
Ġne liko
T ri
iz oli
Ġsubjek tÅ³
s av
ĠÅ¾ Å«kl
Ġsus toti
Ġmalon i
199 4
Ġgret ose
Ġskirting ose
ĠÅ¾iem ai
ĠiÅ¡mok Å³
Ġprokur atÅ«ros
Ġsvarbiausi us
Ġne vien
Ġbro liÅ³
ra p
ig ht
Ġvartoj imÄħ
ĠdÅ¾ins ai
æĹ ¶
Ġkr enta
ĠÅ¾iem a
ĠtrÅ«k umÅ³
Ġprofi lio
ac inÄ¯
A bi
Ġteigi amÄħ
c ore
ĠRaudon a
ĠuÅ¾dar yti
ĠB arb
ĠÅ¾em e
ĠÅ¾in omos
l ink
Ġmoksl eiviams
Ġministr ÄĹ
Ġap tink
Ġpaskelb imo
tu al
Ġspeci aliÄħ
Auto mobil
Sus is
S avivaldybÄĹs
ĠB us
ĠS aug
ci Å¡kus
ĠAl d
Å½in au
ĠI v
Geri au
Ġg ur
Ä®si vaizd
ĠÄ¯pro Äįius
Ġpili gr
ar y
Ġper e
Ġkati l
Ì Ħ
Ġspecial ybÄĻ
Ġbat eri
av ori
Ġindividu alius
ĠiÅ¡n yk
k alb
Ġskat inimo
Ġpartiz anai
Ġgais ro
Ġneigi amÄħ
ĠpraÅ¡ ymo
Ġinfek cijos
Ġpastar aisiais
ĠÅ¡au liÅ³
Ġvien etas
Ġdalyv avimas
ĠMaÅ¾ osios
Ġpamok sl
å½ ©
ĠL ais
Ġetn ograf
Ġrekl amÄħ
Ġtransp ortas
on inÄĹ
Ġgrup ÄĹms
ĠiÅ¡g yvena
Ġnustat oma
ĠkiÅ¡en ÄĹs
Ðµ Ð½
Ġk ali
Ġl iej
ĠG arg
Ġpasi tiko
Ġpateik tÅ³
Ġmegz tukas
Ġaktu alu
Ġmiest elÄ¯
Ġpa ÄĹmÄĹ
ĠneiÅ¡vengi amai
li jos
Ġkar kas
ĠpaÅ¾eid imas
Ġpra vaÅ¾i
Ġtarptau tinÄ¯
Ġrod ÄĹ
ĠtÄĹv eliai
ĠÄ¯steig ÄĹ
Ġavar ijos
Ġ3 50
Ġrau men
C IJA
Ġj uvel
ori umi
ĠT ail
Ġstud entas
Ġvaizd Å³
Kas dien
Ġpakrant ÄĹs
Ġl ei
Ġvad ino
Ġsij onas
ok ti
si os
Ġab iem
oli d
ĠAd am
ĠJ K
Ġc oliÅ³
ĠÅ¾arn yno
Ġpatog ios
Ġsusitvark yti
Ġnugar oje
ĠK ovo
Å«d i
ĠiÅ¡mok os
Ġsv y
Ġeki paÅ¾
Ġd Å«m
gr ÄĻÅ¾
ĠÅ½ iem
ieÅ¡ tar
ĠkraÅ¡to tyr
ĠL iu
Ġpak enkti
Ġmis ijÄħ
Ġdvy lik
Ġp is
Ġsocial ines
Ġpageid avimus
Ġpritaik yta
ĠapÅ¾valg os
Ġbat erijos
ĠbÅ«s ena
Ġsk iep
Ġpasik eisti
Ġautobus u
s in
ed Å¾io
ĠÅ¾ engti
Ġmie las
Ġtinkl us
ĠNer ies
ĠiÅ¡vyk ti
Ġpast angomis
Ġatkr eipia
ĠS ar
Ġlit urg
Ġk unigo
Ġsim fon
Ġalternatyv a
ĠnatÅ«r alu
Ġtikras is
Ġaspek tus
ĠTarptau tinÄĹs
Ġvien Å³
Ġpamok a
Knyg os
d ytÅ³
Ġveiki anti
ĠuÅ¾m egzti
k ÄĻ
Ġnep rad
Ġsenam iesÄįio
Ġnauj osios
Ġ19 50
Ġd ant
Ġdien oms
Ġpatar tina
ausk ui
Ġdemokr atÅ³
Ġgav ÄĻ
eat ro
D ek
ĠmÅ«Å¡ io
ĠVeng rijos
ĠS ig
Sus irink
Ġpir tis
Ġbal eto
Ġkolektyv o
Ġes anÄįias
ar ius
ï¿½ï¿½ ï¿½ï¿½
ĠiÅ¡sisk yrÄĹ
or do
ai li
Ġst alÄħ
Ġnepas iek
ys ÄįiÅ³
Ġtur ting
Prek ÄĹs
âĢ ¯
Ġpasak ojama
Ġsitu acijas
ĠtrÅ«k umus
u tat
oj osi
alis tas
Ġpasik laus
ĠdrÄĹg n
ĠAp ie
n aus
Ġakimirk Å³
Ġtau tÄħ
Ġrank en
Ġteat rÄħ
Ġmerg in
Pra dÅ¾ioje
sn ys
Ġkar Å«n
Ġtir Å¡
Ġspecial Å³
Ðµ ÑĤ
ant ÄĹs
olog inÄĹs
Ġatsitik tinai
D ÄĹm
Ġapsaug ai
Ġapskri tis
Ġdetal ÄĹmis
Ġpak eliui
Ġnuopeln us
ĠkraÅ¡tovaizdÅ¾i o
Ġr eis
Ġgyv uliÅ³
Ġe inant
bu tis
ĠrÅ«b Å³
Ġmais tui
Ġmen ininkas
uod amos
Ġdieno raÅ¡
ĠÅ« kiÅ³
Ġdaug ybe
Ġatmin tis
ind a
Ġpuosel ÄĹti
ĠSlov aki
Ġbilie tÄħ
Ġvienuol yno
Ġbakteri jos
A F
ĠM ig
ĠL ank
Ġan Å«k
Ġpateiki amos
ĠSe imÄħ
E Å¾er
Ġgars as
Ġr inkitÄĹs
Ġman ev
Ġmal da
ĠkaÅ¾k uo
b ran
Ġr aiÅ¡kos
Ġuod eg
ĠLands berg
Ġpr om
Ġvis tiek
ĠiÅ¡p ard
P D
Ġgalim i
Ġvertin ami
Ġgau ta
Ġgrei ta
ĠN K
Ġkriteri jÅ³
Ġsocial inius
v yko
Ġpri aug
Ġvalstyb es
Ġdrabu Å¾iais
Ġsieki ame
Ġup ÄĻ
Ġnetink amai
ĠmaÅ¾ inimo
Ġpager ina
Ġmig d
N ÄĹ
S uv
Ġmed iniÅ³
ĠÄ¯g auna
Ne pr
Ġrestoran as
Ġm Äħs
ij ÄĻs
Ġbaim ÄĻ
Eksp er
ot yr
Å¾i ams
Å½ ym
Ġseptyn iÅ³
ĠDari aus
ĠiÅ¡ vir
ins is
Ġstovykl oje
ĀĀĀĀĀĀĀĀĀĀĀĀĀĀĀĀĀĀĀĀĀĀĀĀĀĀĀĀĀĀĀĀ ĀĀĀĀĀĀĀĀĀĀĀĀĀĀĀĀĀĀĀĀĀĀĀĀĀĀĀĀĀĀĀĀ
man Å³
ap az
Ġeil ÄĻ
Ġtradi cijÄħ
B ank
u j
Ġg ylis
li avos
Pr em
Ġdirb ame
Ġpasireng ÄĻ
Ġnusikal timus
ĠlÄĹktuv u
ĠJ ava
ĠsÄħlyg oms
k an
Ġlaisval aiki
å ®
ĠnuoÅ¡ ir
Ġb oks
ĠÄ¯sitik inÄĻ
Ġvals Äįiuje
W indows
Ġfak tiÅ¡kai
Ġdar au
ĠsÄħ si
Merg elÄĹs
Ġgrei to
I sp
st us
ilie jÅ³
ĠÅłvenÄįi oniÅ³
ĠiÅ¡ ieÅ¡k
al ija
ĠiÅ¡tek lius
k liÅ³
Ġsvarbi Äħ
ĠaukÅ¡ tum
Ä® pras
Ġinfrastruk tÅ«ra
Ġsod Äħ
Ġcirk uli
Ġstandar tÅ³
lo tas
Ġnen umat
Ġgen oc
Ġneb aig
Ġdain avo
ĠplÄĹ trai
Ġrecep tÄħ
Ġsaug oma
Ġbyl Å³
ĠnorÄĹtÅ³ si
Ġplatform os
ĠÄ¯r egistr
Ġterm ino
Ġdaug umai
Ġpri trauk
Ġteis ingÄħ
Ġsod ybÄħ
Ġpriim ta
Pri klausomai
ĠneÄ¯tik ÄĹ
Ġv ynas
b endr
Ġm ent
ĠG im
Ġkor po
Ġatsispind i
ĠAr m
ol ai
Ġarchitek tas
imen ame
Ġaps in
ĠpripaÅ¾ inta
ĠÅ¾ing snius
on ic
19 18
ĠGr ei
Nor ÄĹÄįiau
Ġnetik sl
ĠAs mens
Ġbase ino
ĠVidur Å¾emio
S istem
Ġpask yrÄĹ
AI K
Ġpop ierius
ĠÄ¯ ver
Ġbal tar
Ġrem ia
ĠX II
Ġsusirink imo
T avo
and uo
ĠA L
Ġdet alÄĹ
ĠgraÅ¾ Å³
Ġerdv es
Geri ausias
u ra
ĠiÅ¡k ep
Ġpag im
ĠÅ¾valg ybos
Knyg a
Ġnuv eÅ¾
eg ÄĹ
ĠÅ¡il tÄħ
Ġpasirink ta
Ġenerg e
AN T
Ġ7 3
Ġsav ininkams
ĠValst yb
Net gi
ĠL iep
ĠPr am
Ġplat aus
Ġoper acijÄħ
Ġtol ygiai
Ġpavoj ingas
Ġpaveiksl Å³
Ġmit ybÄħ
ĠatneÅ¡ ÄĹ
! )
ks wagen
Ġfor umo
Ġataskai tÅ³
Ġpabendr auti
ĠdeÅ¡ inÄĻ
ĠS n
ĠH el
Ġstipr Å«s
Ġkompozi torius
Atsi praÅ¡
Ġun ijos
un kite
Ġak ies
Ġrug pjÅ«
Ġdalyv avimo
P M
Ġor Å³
Ġsukur tÅ³
Ġklaus ÄĹ
Ġint ym
Ġnebeg ali
Ġatvyk st
ĠinÅ¾in ierius
d ata
Ġtink amo
ik inÄĹs
eri uose
ĠiÅ¡g erti
ĠsÄħn ariÅ³
Ġne tikr
Ġkosme tika
V ik
Ġi f
Ġpaskir ti
Ġkriz ÄĻ
ĠÐ º
Ġvairuotoj ams
Ġskl eisti
Ġprasid ÄĹjus
Ġlaid a
z Äħ
Ġpok erio
and is
ĠR iet
Ġtr ob
Ġgyven antis
Ġsusitar imo
Ġpens ijos
. ]
ĠiÅ¡val yti
Ġli tu
ĠÅ«k Ä¯
ak ai
Ġpas ielg
Ġkeli auj
Ġes mÄĻ
Ġrink o
Ġfor tepij
Ġplunk sn
ĠD onal
ĠneÅ¾ inia
Ġit ali
u tinis
Ġpl ovimo
ĠmaÅ¾ umÅ³
audo tos
Ġnukent ÄĹjo
ĠM el
Ġtak as
l eris
Ġmin tyse
Ġjaus mo
Ġprival umai
ĠÅ¡un Ä¯
ĠÅ¾ied as
S uper
Ġpad angas
Ì ģ
Ġtoki ose
Ġnustat ytus
Å¡ te
Ġmerg inÄħ
Ġpirk ÄĹjas
Ġkoleg ija
Åł eim
Ġnepr ar
Ġmedvil n
ĠÄ¯kÅ«r ÄĹjas
Ġar tis
Ġmil tus
n yje
il is
ĠF orm
Ġdiskus ija
ĠsuÅ¾ aidÄĹ
K okie
j uod
imÄħ si
k iem
u ter
Ġt aus
Ġvaland a
J ud
O ro
ĠJaun imo
Ġaptik ti
M alon
ĠnemaÅ¾ Äħ
ien to
Ġlank ytis
ĠÅłalÄį ininkÅ³
Ġskirting ais
am umÄħ
ĠÅ¾ r
yn es
Ġsekm adienio
Ġilg amet
ul Å³
i amas
Å¡k Ä¯
ĠK rik
ĠT S
Ġprojekt avimas
D v
Ġpopuliar umo
Ġapar atas
lÄĹp ÄĹ
d uo
ab a
Ġkal ÄĹjimo
ĠkÅ«ryb iniÅ³
Ġprat ÄĻsti
Ġinte lig
Ġatvyk ÄĻs
Ġtiesiog inÄĹs
Ġberni ukÅ³
Ġpasi telk
Ġatsis kaityti
Ġversl ininkÅ³
d ÄĹs
ĠÅ¡eÅ¡ ias
ĠneuÅ¾ m
Ġkompiuteri u
ĠÅ¡al to
ĠruoÅ¡ ti
tuv es
op o
Ġprojek tu
Ġpard uoda
en Äįi
198 9
Ġtarn ybÅ³
yd avau
Ġprezid entu
ĠplokÅ¡ ÄįiÅ³
Ġger u
Vid ur
o terap
Ġsu aktyv
ov ais
Ġgalv ojau
ĠposÄĹd is
ĠkÅ«di kiÅ³
Ġvaik inÅ³
Ġor laiv
Ġvadov ybÄĹ
Ġtr ejÅ³
Ġdef ici
R enk
Ġanaliz ÄĻ
Ð° ÑĤ
D ovan
ĠuÅ¾skl anda
Å½ ied
ĠPr ojek
Ġturin Äįius
Ġ; )
ĠpaÅ¡ ven
Ġn iu
J ono
ĠP ers
Ġnauj oji
Ġkompr omis
ak ti
Ġpar eikÅ¡ti
Ġ0 5
Ġdraug u
Ġveiksm Äħ
Ġpasis ekÄĹ
Ġpagerb ti
Ġaplinkos aug
Ġmoli Å«g
Ġcigar eÄįiÅ³
Ġs at
ĠÅ«k inink
p yr
Ġpri ar
Ġ198 7
ĠÅ¡i uose
Ġpro te
Ġs h
Ġsimbo liÅ³
Ġvertin ama
Ġ Å¾io
Ġspr ÄĻs
ĠidÄĹj omis
Ġmies tu
Ġp og
ĠaukÅ¡ tÄ¯
Vien o
Ġsu ver
Ġher ojus
RaÅ¡ o
s h
Ġat ver
in anÄįiÄħ
Ä¯s kaitant
ĠpapuoÅ¡ ti
om ais
Ġmet af
Ä¯ sl
Ġnedid elÄĹs
Mat menys
Ġnacional iniÅ³
Ġnev eikia
Ġkom uni
Ġz onÄħ
Ġsie ja
ĠRim antas
Ñ Ĩ
Ġaug ina
Ġtarn yboje
Ġgri po
Ġsut virtin
u zd
eli ks
Ġcharakteri o
Ġs ch
ĠÅ¡imt metÄ¯
ĠliteratÅ«r Äħ
Ġ9 6
Ġbendr auja
Ġturnyr Äħ
eÄįi ams
ĠmÄĹg ÄĹjai
Ġspecialis tais
ĠMok slo
il k
Ġindividu aliÅ³
ĠaukÅ¡ tyje
ĠÅ¾mon Äħ
bl ok
Ġjud esiÅ³
en ir
Sekm adienÄ¯
Ġant raÅ¡
Ġtam pri
Ġvizi to
ĠÄ¯k Å«n
Ġrib Äħ
Ġpal aidinÄĹs
Ġpil ka
Ġnus istat
ĠAgn ÄĹ
Ġpatiksl inti
kai tom
Ġkompon entÅ³
Ġaktyv umas
Ġvar go
ĠÅ¡ven tov
Ġmom ento
Ġbaus mÄĹs
ĠÅ¾ali uz
Grei tai
Ġpr enumer
Ġ0 3
ĠÅ¾em es
Ġsut ap
ĠsiÅ«l omos
Å« gÅ¡
Ġsocial iniai
ĠD ain
on to
ĠartÄĹj ant
ie rÄĹ
esi gn
Ġatv eria
Ġsmul kiai
Naud odami
Ġrod omi
Ġ0 6
Vakar Å³
oj antys
Ġsp uog
Ġtarptau tiniame
aj aus
Ġvard Å³
ä ¹
usi oje
Ġcukr umi
j is
aiÅ¡k a
Ġpatar ÄĹjas
Ġnutar imu
uok liÅ³
Ġdal inasi
Ġap eti
olog ijÄħ
Ġgerb ÄĹjai
ĠtÄĻs ÄĹ
Ġnauj ÄħjÄ¯
o o
ÄĹ tojas
ri kÄħ
Ġ194 9
Ġgyd ymui
ĠÄ¯s imin
Ġkonflik to
Ġtrau mos
ĠuÅ¾tr unka
Ġgars Äħ
od Å³
Ġsav ininko
Al ytaus
Ġentuzi az
y Å¾iÅ³
Ġg liuko
Ġrieb alai
atori ais
ĠAr vydas
Ġmat oma
Ġbendrov ei
var styti
ĠÄįempi onas
Ġvaliu ta
Ġnustat ymas
Ġk n
Bendr ovÄĹ
Ġbur bul
Ġatidar ymas
Ġketv erius
om u
ĠÄ¯sitik inusi
Ġcukr us
Atsak ymas
Ġnurod ytos
Ġdiagnos tikos
Ġdar ome
Ġjub iliejÅ³
Ġkal nÄħ
Ġpozi cijoje
Ġgav us
ĠÅ¾ mo
Ġvalstyb inÄĹ
Ġangli Å¡kai
Ġsir up
Ġpl ytÅ³
au tos
av imais
Ġpalaik ymas
ub e
ĠpaÅ¾ad ÄĹjo
Ġpotencial Äħ
t uojamas
ili aus
Ġskol Å³
V a
Ġli z
entÅ³ jÅ³
ĠsÄħj Å«dÅ¾io
S ep
Ġdug no
ĠreÅ¾ imÄħ
c kas
Ġnesil aik
t l
R ed
or f
ĠL M
Ġbuv usÄ¯
Ġlaim i
am uoju
Ġsav as
Ġsergan tiems
Ġkar oli
ĠkraÅ¡ tus
Ġbesik eiÄįi
Ġpl ÄĹsti
Ġskl eidÅ¾i
Ġhum oro
Ġpasirink tÄħ
Ġatstov auj
Ġteigi amÅ³
st el
Ġrom ano
Keli onÄĹ
Ġpakarto tinai
Ġpasirod ymo
Ġdid eliais
Ġprisijung imo
Ġs ai
Ġpik tin
Ġpasp auskite
Ġide ali
ĠIS O
Ġvis kuo
damas i
Ġsult ys
ĠÅł koti
Ġm irk
ĠP e
Ġprojek tuose
B as
Ġmie l
Ġnel eido
ĠpasiÅ«l ymo
Ġl Å«Å¾
Ġprie gl
Ġpasir enka
Sp or
Ġnel engva
Ġapgail est
Ġpien as
Ġatsistat yd
ĠLatv ija
ĠaiÅ¡k us
ĠA v
ĠKali for
Ġim s
ĠL ev
Ġinternet Äħ
Ġsureng ta
ĠC or
Ġdarbo tvark
Ġpadar ys
Ġgeb ÄĹjimÄħ
uokl ÄĹ
V S
ĠT ri
Ġgars iÅ³
ĠvarÅ¾ ÄĹsi
Ġmeis tr
Ġfak tai
Ġkunig ai
Pris im
Ġb ra
Ġprin ces
Ġsusigr ÄħÅ¾inti
V O
Ġleid inys
Ġgatv es
ĠbirÅ¾ elÄ¯
Ġdi apaz
ĠnarÅ¡ yklÄĹs
ĠuÅ¾fiks uoti
Ġdain uoti
es ter
Ġnumat ytos
w ed
ĠO d
ph p
ĠvÄĹli avos
Ġner aÅ¡
ĠsiÅ«l yti
DÅ¾iaugi amÄĹs
P or
Ġ2 20
ĠpraÅ¡ oma
ĠBir utÄĹ
Ġver timo
Ġsen iau
Ġform ato
Ġsvaj onÄĹs
Ġ19 19
Ġbaid ar
Ġr ang
ĠS tu
Ġilg o
ĠÄį er
Kr eip
ĠmÄĹnes iai
Ġbank ai
ĠÄ¯dom ios
os ime
ci au
Ġgr ybÅ³
Ġsek toriÅ³
Ġvidur kis
Ġrengi ant
D Äĸ
r ei
ĠbÅ« si
ĠÄ¯pras tas
Ġsiun tos
ymu isi
Ġpaveiksl Äħ
Ġmig racijos
Ġelg s
ĠJung tinÄĹje
ĠRom oje
Äį as
Ġinterjer Äħ
Ġbibliotek Å³
Ġgitar a
er tu
ĠuÅ¾ b
Ġrekon str
ĠamÅ¾in ai
Ġtrum pa
T eko
l Å«s
Ġstov ykla
uri u
Ġkelio lika
ĠparaiÅ¡k Äħ
= "
tar as
ĠiÅ¡g r
Ġg imus
ĠÄ¯vaizdÅ¾i o
Ġmobili ojo
Ġlinksm ai
Ġpra var
Ġnorm as
Is torija
ien as
Ġskry dÅ¾ius
ĠKalÄĹd as
Ġapa Äįios
Ġal us
ĠÄ¯m uÅ¡
Ġbuv imas
t ver
Ġ Å
Ġmas k
L ygiai
al umÄħ
Ġnor inÄįiÅ³
Ġsteb ina
ĠM Å«sÅ³
Ġre fl
Ġ om
al p
Ġmen ki
K ino
ĠAl ytuje
Ġpasek mÄĹs
Ġnep lan
Ġfin alÄħ
Ġrel je
ĠV ene
Ġpateik tus
Ġvasar ai
ni Äħ
Ġpl ati
Ġdarb davi
Ġvarik liÅ³
Ġval domas
Ġprel imin
Ġ8 7
Ġstipr Å³
ĠeÅ¾er Äħ
Ġnepakank amai
Ġgr Ä¯Å¡
Ġegz amino
Ġrengi amas
ĠsveÄįi as
aun amas
Ġsen os
ÄĹk Å¡
ĠiÅ¡d al
Prek ÄĹ
ĠInter national
Ġnepav yks
P P
Ġgaus us
Ġleid ykla
Ġrestoran o
Ġtik ÄĹjosi
Ġfin al
Ġpapildom us
Ġministeri jai
Ġemig r
enk ÄĹs
ĠÄ¯t eikti
Ġvidu tinÄĹ
C o
Ġpatri oti
y zel
Ġbes il
Ġide alus
Ġtiesiog iniÅ³
ĠÄ¯kvÄĹp imo
Ġnaujag im
Åł im
Ġtau tinÄĹs
cen z
Ġprie das
dÅ¾i ams
Ġrink ose
ech ni
Laik as
in ime
Ġtar kim
Ġatlik ÄĹja
ĠrÅ«p inosi
Ġkaln uose
B ilie
ĠÅ¾urn ale
Ġpri jungti
Ä®si g
ĠJ eigu
Ġmalon umas
Ġpavad inimai
ec t
Ġapsir eng
ĠBelg ijos
m it
Ġbals avo
Ġsveik ai
Ġbi ÄįiÅ³
Ġrez ist
s ÄĹ
Ġn eig
Ġb ej
ĠmaÅ¾ ame
Ġspeci alius
ĠPanevÄĹÅ¾ ys
Ġm ainÅ³
Ġkeli avo
ĠÅ¾iniasklaid oje
ĠiÅ¡laik ÄĹ
Ð¾Ð »
Ġdvid eÅ¡im
Ġmez g
Ger os
ĠlauÅ¾ o
Ġataskai tÄħ
Ġskund Äħ
tori ams
D S
usi c
Ġasmen ybÄĻ
Ap raÅ¡ymas
ÄĻs ta
Ġdezin fek
ur as
Ġrau menys
Ġfakult ete
ov skio
Ġger anori
ĠR E
Ġpagrind iniu
Ġgeneral inio
ĠAlg irdo
Ġteritori jas
f u
Ġpakei timus
Sen i
Ġnakv ynÄĹs
Ġtikr ovÄĹs
ÄĹli uose
Ġprez ervatyv
ĠsÄħ m
Ġpriskir ti
Ġ0 7
ĠPau liaus
Ġkap inÄĹs
Ġn iÅ¡
ĠiÅ¡g yd
Ġdail ininkÅ³
b y
an ui
Åłi uos
Ġpasid aro
Ġdomin uoja
Ġnurod ytÅ³
Ġpos tÄħ
Ġneteis ÄĹtai
ĠbaÅ¾ny ÄįiÅ³
Ġvadov ui
Nor ime
Ġbag aÅ¾o
Ġapdirb imo
M O
ĠiÅ¡k elti
ĠAk adem
ok Äħ
Ġman ÄĹ
Ġ17 0
Ġnemok a
Ġrom anÄħ
Ġdirb u
celi ar
e pr
uo tomis
Ġsu telk
Ġmet ines
Ġvid inÄĹ
k el
Ġb amb
ĠC as
Ġrei ting
Ġper Å¡al
âĢĻ .
Ġprid ed
Å¾ a
Ġats kira
Diev as
ĠÅ¡eim ininkÅ³
Ġskelb imÄħ
Sc ript
tr oli
Ġpak alb
Ġaktyv i
Ġbar zd
Ġkilogr amÅ³
Ġaptar ÄĹ
t Å«
Ġpag rob
Ġparod ose
Ð¾Ð ´
le x
DidÅ¾i ausia
Ġtaup yti
Ġdepres ija
Ġsta Äįia
Ġkok tei
Ġ0 4
Ġkokyb iÅ¡ka
Ġb uk
ĠR aimon
Ġinform avimo
Ġsavait ei
Ġper ÄĹjo
Ġes amÄħ
Ġ$ ('
Ġkieki u
Ġasortimen tas
Ġfiz inÄĹs
ĠSt amb
ĠB ui
Ġbend ri
ĠP asi
Ġfig Å«r
ĠiÅ¡skir tinÄĹ
Ġsavait galio
Ġleis ta
Ġsimboliz uoja
A lg
Ġpalengv inti
Ġangliavanden iÅ³
Ġgau b
Ġreal ybÄĹ
Ġski lt
Ġtur im
ĠVer slo
ĠÄ¯sikÅ«r ÄĻ
Ġprir eikus
Ġsk ald
Ġfin alo
ĠÅ¡ak nys
amen u
Ġsavaitgali ais
Ġdirb antis
1 20
Ġ19 70
ĠkarÅ¡ tÄħ
Ġseri jÄħ
ĠiÅ¡Å¡Å« kiÅ³
Ġsiurbl ys
k ub
ed ros
.. ...
Ġvyskup ijos
ĠSk elb
Ġtar Å¡os
Ġdvar Äħ
B ul
Å¾ is
Åł ved
Ġh ier
Ġmat omi
tr ol
Ġefektyv us
au z
Ġsv iestÄħ
Pr am
ĠbruoÅ¾ Å³
ĠiÅ¡skir tinio
Ġnepakank a
Ġtink amÅ³
ĠK TU
ĠKl as
Ġcen tim
j ono
men imis
y dÅ¾io
Ġkav Äħ
LK D
ĠAuÅ¡ ra
A pi
Ġatstov o
ĠkliÅ« ÄįiÅ³
TÄĹ vai
Ġpasitik ÄĹjimas
DÄĹv ÄĹta
ĠJ ie
Ġdarb ininkÅ³
Ġsusid Å«rÄĹ
ad i
Ġmuzik antai
ĠCi vil
U g
[ âĢ¦]
Ġapyl inkiÅ³
ĠpaÅ¾ em
Ġansamb lio
Ġpriesk oniÅ³
Ġscenar ijÅ³
isi on
Ġjuos tÄħ
aÅ¾i au
Ġsut ampa
Ġdraug Äħ
Ġnepriklaus omos
v Ä¯
ĠKazimie ras
Ġlink me
dav ome
ĠpluoÅ¡ to
ĠEurol ygos
Ġprincip ais
Ġgyv avimo
Ġbrang us
ĠparaiÅ¡k os
Ġlauk Å³
Ġtarn auja
Antr asis
At kreip
AU J
Ġvals Äįiaus
ĠQ u
ĠsusiÅ¾ av
ĠmedÅ¾i us
ĠuÅ¾sid irbti
ĠN ÄĹr
uol ÄĹs
ĠauklÄĹ tiniai
ĠÄĮeki jos
Ġsocial inis
Å«ri au
K iau
Ġsiek is
Ġstab dÅ¾iÅ³
Ġpraei tyje
ĠL ukÅ¡
Ġprek ybÄħ
ĠÄ¯gyvend ina
ĠÅ¾ym iausiÅ³
ĠAf rikoje
Ġdr ob
ki lo
Ġpras tai
ĠN ap
ĠkaÅ¾k okiÅ³
ĠÅ½em ÄĹje
ĠÅł eÅ¡
Ġmig r
Ġgraf ikos
Ġmar in
Ġaps il
Ġrim t
ĠVilkaviÅ¡k yje
gi os
Ġp ublic
âĢ¦ âĢľ
ĠkonkreÄįi os
tus iÅ³
Ġmy liu
Åł iai
Ġvon ia
Ġkrauj osp
Ġrekomend uoju
ant ams
Ġprie Å¡k
Ġsuv aid
Ġmeis trÅ³
vil ÄĹ
ĠÅ¾urnalis tai
s iÅ³
in amai
ĠO rai
Ġatmin tÄ¯
ĠiÅ¡k ÄĹlÄĹ
Ġlaid as
eli ja
k eli
ar eikÅ¡m
ĠÄ¯dom Å«s
ĠposÄĹd Ä¯
K T
Ġkon tek
el f
ĠkrikÅ¡Äįion iÅ¡k
ĠgeleÅ¾ink eliÅ³
ty Äįio
Ġsaus Ä¯
Ġsie l
Ġner ad
ĠiÅ¡mok o
Ġteis iniÅ³
Ġkandid atas
Ġduk art
Ġsk audÅ¾i
ur to
Ġburn Äħ
ĠI ki
ĠT R
ĠneÄ¯tik ÄĹtinai
Ġarchitek tÅ³
ĠÅ¡v yt
Ġskait ykite
ax y
ĠJurg is
ow n
ĠÄ¯st ri
ĠraÅ¡ yt
Ġch l
Ġpoil sis
E I
ĠÅ¡iandien os
ĠH it
ĠKar olis
Ġpunk to
Ġdraud imÄħ
Ġb os
Ġpirm adienio
Ġjaun imÄħ
Ġmen ininkai
Ġunivers alus
yn u
Ġtyr imais
ĠÅ¡ved Å³
Ġfak tus
ĠTau tos
Ġgaun amas
ĠL ithu
b uro
Ġdaug iafunk
T rad
ĠÅł e
Ġm ada
Pasi baigus
Pasir inkite
Klaus imas
ĠvaÅ¾i avimo
Ġmok inio
Ġtam pr
Ġ7 1
Ġskamb inti
Ġk enkia
us o
Ġkair ÄĻ
Ġenciklop ed
ĠneÄ¯ vyk
ĠveÅ¾ ti
ĠVM VT
Ġgruod Ä¯
Ġlent elÄĹje
Ġm irÅ¡ta
Ġan onim
tinink o
Ġpj aus
k ais
ĠK ep
dom u
ĠreiÅ¡k ÄĹ
ĠTÄĹv o
in ÄįiÄħ
yk as
ĠC an
Ġrad io
Ġpalengv ina
an air
Ġbro lio
ino te
il a
ĠiÅ¡g auti
Ġautobus ai
ĠpagrÄ¯s tas
Ġatsis iÅ³sti
Ġpopuliar Å«s
s Äħjung
Ġat ÄĹjus
Moter ys
Ġatstov auti
kl Ä¯
g Äħ
Ġlaik ymo
Ġpenk eriÅ³
Au torius
Ġantr ame
Ġplat in
ys ti
Ġkraujo tak
Ġprieig Äħ
A plinkos
ov ÄĹje
Ġmed alius
Ġsen us
k in
Ġder liaus
Ġdom ÄĹjosi
ĠÅ¡ok o
ny tÄĹs
ĠuÅ¾ ÄĹm
Ġvaik Å¡
R ag
ap n
T radic
li pti
ĠplokÅ¡ tÄĹ
Ġmom entas
B O
Ġpat rio
ak is
Ġre pres
Ġal gos
K in
Ġsukil imo
ä »
Ġk ed
Ġversl e
ĠsiÅ«l omÅ³
ĠiÅ¡tis us
Ġciviliz acijos
Ġpusiausvyr Äħ
Ġgarb ei
Ġnebuv au
ĠS uper
Ġelem entais
Vaik ams
Ġkomun istÅ³
Ġrank ena
Ġpasaul inÄ¯
Ketvir tadienÄ¯
ing esni
Ġstr eik
Ġnuotrauk omis
ĠI X
Ġaplink ybÄĹmis
ĠkÄĹl inyje
O p
t ÄĹjo
Ġar tÄĹja
TreÄįi adienÄ¯
Ġpil Ä¯
Ġmieste liÅ³
ir Äħ
Ġtik inÄįiÅ³jÅ³
Ġsudar ys
yk us
ÄĹn uose
Ġim ita
Ġlauki ame
Pag aminimo
ĠatÅ¡ auk
Pirk ÄĹjas
im at
Ġskirting o
Ġpalaik ymÄħ
Ġveis l
Ġveik imÄħ
ĠnuÅ¾ud yti
ĠuÅ¾ uo
Ġak menys
ĠÄ¯si verÅ¾
Ġkontroli uoja
ĠÅ¡ urm
Åł vel
Ġsusi p
h el
Ġr ÄĹÅ¾
Ġpaj Å«r
Ġremon tÄħ
ĠiÅ¡s iÅ³sti
ĠÄ¯rod o
ĠÄ¯tik inti
P ig
Ġkoncer tai
Ġbyl oja
ĠbiudÅ¾ etas
ĠgeguÅ¾ ÄĻ
Ġapsilank ÄĹ
Ġt ing
Ġsv arÅ³
ĠMarijamp olÄĹje
ĠlÅ« pas
Keli onÄĹs
ĠuÅ¾duo tys
ĠS ausio
Ġsp intos
G D
Ġseni Å«nai
Ġprieig os
ĠB ak
G ed
Ġsusid ari
Ġsusid aryti
Ġr ate
ĠdarÅ¾ elÄ¯
Ġnesugeb a
Rekomend uojama
ĠaukÅ¡ tojo
Moksl ininkai
ĠraÅ¡ tÅ³
ĠVik torija
Ġs ol
Ġekonom iniÅ³
ĠruoÅ¡ tis
Kaun e
ĠiÅ¡p opuliar
ĠÄ¯ prat
ĠÅ½ ali
Ġkal tas
Ġjaun iÅ³
Ġpriver Äįia
al ÄĹje
ĠN ob
ĠdeÅ¡im tis
Ġpaj ÄĹgi
Ġatv ÄĹrÄĹ
tin ys
Ġpasak yta
ĠapraÅ¡ yti
Å½em iau
ĠpraÄĹjusi o
Ġalk Å«n
Ġgyven u
Ġbal ti
Ġmoksl ininkas
kar Äįiais
ĠL uko
ĠN ov
ĠÄ¯g yja
Ġstar to
Ġtobul ai
R egistr
Ġm inÄĹti
ac inÄĻ
Pro blem
Ġmil teliai
ĠÄ¯s k
ĠturÄĹs ime
Ġkontak tÅ³
Ġpavasar iui
Ġmergait ÄĹms
Ġtel pa
AI T
ĠBerl yno
kai n
tin tÅ³
Ġpacien tui
Ġ194 7
ĠdrÄĹg mÄĻ
Ġpa Äįio
Ġkap o
ĠÐ ´
Ġpasis kirst
ved ÄĹ
Ġpak eistas
Ġnuv eikti
Ġprofesion ali
ĠG B
Ġlauk us
Ġtelef onai
Ġmo Äįiu
Ġaktyv Å«s
ĠSp orto
Ġgrand inÄĹs
Ġt or
Ġn aiv
Ġsem inaras
Ġpaskyr oje
ĠiÅ¡ jung
raÅ¡ ÄĹ
Ġapg aul
ĠatÅ¡ aukti
Ġvyst ymo
yv Å³
Ġtr ims
Gim ÄĹ
ĠN i
Ġpakei Äįia
ĠdrÄħ si
Ġvid inÄ¯
ig a
Ġsur emon
ĠiÅ¡ei tis
Ġleid ybos
ĠÅ½ uk
Ġtvark ingai
ok ol
aid Å¾
Ġmar m
ĠbÄĹg a
Ġvyskup o
ĠÅ½mog aus
ĠP el
Ġreikal ais
aud oja
Ġkomplek tai
Ġprivers tas
ÄĹj antis
Ġsoci aliai
aÅ¡ as
? )
ĠS ek
Ġsav im
Ġrat lan
Äįi Å«nas
ĠB arsel
ÄĹl ÄĻs
Ġvien ija
ĠmaÅ¾ Å³jÅ³
ĠAn takal
iÅ³s tas
Ġkl os
Ġtoki ai
Ġpasik albÄĹti
Ġr alio
Ġskaud a
ĠiÅ¡ eiv
Ġpl okÅ¡Äįi
Ġbend raÅ¾
Ġner ekomend
Ġvadov ÄĹs
Ġypat umai
Nuos tab
ĠpasiruoÅ¡ ÄĻs
Ġnugal ÄĹti
ur tas
Ġki ber
Ġsal onas
Ġsklyp Äħ
Ġkomfor tÄħ
a a
Ġak tas
Ġtvark ingas
ĠNauj Å³jÅ³
ĠginÄį Å³
c an
Ġ198 5
ĠkÅ«n u
em per
ĠD al
Ġlo tynÅ³
Ġpras mÄĹ
Ġbr ÄĹÅ¾
Ġgamin ama
Ġsveikat ingumo
Ġjaun esni
ĠK en
eri jus
Ġgi ri
tai tÄĹ
Ġgam ykla
Ġintelek to
Ġgydytoj u
Ġpiliakal nis
ĠÅ¾iÅ«r ÄĹjo
J ur
ĠuÅ¾ uot
un a
Ġantr o
Ġ0 2
ĠTr um
Ġpert eikti
Ġnepri paÅ¾
D R
ĠprieÅ¡tar auja
Ġsti ch
ĠJung tinÄĹse
p lotis
ÄĹl imas
Ġfotograf as
gi ais
ec k
Kom entarai
ĠiÅ¡s kiri
Ġug nÄ¯
ĠminkÅ¡ ta
Ġbev il
var as
Ġsus mulk
ĠKud irkos
Ġvanden ys
Ġklasik inÄĹs
Ġmo biliÅ³
Ġreikal avimas
Ġnegal ÄĹjau
Ġkry Å¾ius
im an
Ġnu tek
Ġgr ieb
Ġval stijos
Ġgr ob
Ġkai tos
Ġinstitu cijas
r ÄħÅ¾
Ġstat ybai
ĠpaÅ¡al ina
ĠSi rijos
Ġlab ui
Ġsaus as
MaÅ¾ daug
n iek
ĠeilÄĹraÅ¡ ÄįiÅ³
Ġsek torius
ĠdÅ« mÅ³
Ġg aid
ien ai
Ġgali Å³
Ġnen um
ĠkultÅ«r ai
Ġnenus tat
Ġjau tÄĹsi
Vytau tas
Ġgalim us
Ġor ui
Ġteleviz ijÄħ
Ġligon inÄĹ
ĠDr aug
S os
Ġpak yl
Ġeksper tiz
Ġoper acijas
ĠdÄĹst ytojas
194 6
ÄĹ kit
Ġd eiv
ykl as
auÅ¾ ti
Ġgyv ybei
aid o
ĠS Å«d
ĠkrepÅ¡ ininkas
Ġpasidal ino
ĠÅ½ in
Ġsal one
Ġjungi a
ed ev
Ġpareig Äħ
Ġatliek ame
ie ti
I l
ĠPal enkÄĹs
ĠGruz ijos
Ġprofesional Å«s
ĠliÅ«d na
ĠpraneÅ¡ ta
Ġnor veg
ĠiÅ¡s kiria
Ġmar iÅ³
Ġpasieki amas
b end
Ġpal aukti
Ġhormon Å³
p ort
Ġkov as
Ġband ymai
Ġregistr e
st ÄĹ
per k
Ġder l
Ġs ei
ĠiÅ¡s prend
Ġatg auti
Ġnes uv
Ġlaisv Å³
ĠpasimÄĹg auti
ed os
ĠiÅ¡r eiÅ¡kÄĹ
å Ľ
r auti
Var iklis
val k
Ġfab rik
Ġpirm us
Ġprivat aus
ĠuÅ¾dav inys
R aj
in anÄįio
anÄįi ojo
ĠuÅ¾siÄĹm imÅ³
ĠL KL
at ch
ed it
ĠatneÅ¡ a
on tan
Ġnel aik
F iz
Ġskun dÅ¾iasi
Ġopozi cijos
Ġgim dos
ĠG ali
ĠmarÅ¡ru tÄħ
ĠG PS
las tik
Ġkan ap
Ġgaun asi
ĠValstijos e
i lio
Ġpas uk
ĠlaÅ¡ iÅ¡
Ġind ai
Ġpaskai tas
Ġkam Å¡
Ġpasirod Å¾i
ĠV asar
Ġkito kie
ĠMic rosoft
Ġd umb
Ġpaslaug oms
Ġslap ta
Ġsp audÅ¾i
tÄĹ tÅ³
Ġ7 9
raÅ¡ o
Ġtur tingi
Vis o
Ġsveik o
Ġtarptau tinÄĻ
Ġkryp tys
Ġakimir kas
Ġpaslap ÄįiÅ³
am Å¾iais
ĠÅ¡un ims
Ġg uli
Ġdabar tinÄĹ
Ġgrind is
ri aus
Ġdirb tuvÄĹs
Ġnak timis
Ġpasto vi
ĠstruktÅ«r iniÅ³
au tojai
Ġins tink
L auki
ais tas
ĠbirÅ¾ os
ÅłÄ¯ kart
darÅ¾ elio
Nepam irÅ¡kite
g eri
P ie
ĠpraÅ¡ ymas
Ġ198 6
Ġpas imok
esi ui
ĠZ eland
s kir
Kom piu
veÅ¾ ti
Ġgalim os
Ġmokytoj us
ĠbruoÅ¾ ai
ãĤ¢ãĤ¢ãĤ¢ãĤ¢ãĤ¢ãĤ¢ãĤ¢ãĤ¢ ãĤ¢ãĤ¢ãĤ¢ãĤ¢ãĤ¢ãĤ¢ãĤ¢ãĤ¢
vo ra
ĠS kr
Ġval domi
Ġsocial inÄ¯
ad Å³
ĠL aisv
ĠMart yno
T ER
Ġnes ant
Ġ12 5
tor s
ĠÅ¾yg Ä¯
Ġaplinkos augos
Ġsusitar imas
ink sm
ĠR ub
Ð¾Ð ¼
Ġkonkur encija
ĠK il
B es
Ġab on
Ġr asi
Ġpar enk
ĠD zÅ«
pr ojek
Ġmin ÄĹjau
B at
Ġkon ver
Ġim it
ĠsÄħÅ¾in ingai
Ġpra vers
Ġprogram avimo
ĠkÄĹl inio
ĠMat ul
19 39
Ġpatrauk ÄĹ
Ġskait ytojai
Pat ys
Ġgyven anti
ĠsÄħraÅ¡ us
Ġak vari
Ġvys tosi
Ġambi c
olog inis
Ġkeis tas
Ġsupra timas
ĠTar ybÅ³
un s
Ġbald ais
Ġnet enk
imi tyv
Ġ ).
Ġpasir eikÅ¡ti
ĠÄħÅ¾ uolo
Pra ÄĹjus
ĠlÄħst eles
Ġdid vyri
aÅ¾n yt
E F
Ġfinans avimas
ĠkaÅ¾k okia
Ġner imo
Ġsl augos
Ġfor umas
Ġkoki am
Ġnuostab aus
Ġmik ros
ĠdrÄħs os
Ġtrauk os
ĠÅ¾iau riai
ĠM echan
Ġpaj Å«rio
Ġkomentar us
ad ing
Ġdain ininkas
Ġpatiek alas
V G
Ġprisim en
Vytau to
var o
Ġvykdom os
ĠTi pas
ej au
Ġpaaug l
Ġtarpuk ario
sis iÅ³sti
Ġkompan ijÄħ
Ġm ÄĹÅ¡
Ġvertin imÄħ
ĠKom plek
T C
ĠiÅ¡skir tinÄ¯
Rus ija
Ant radienÄ¯
Ġsmegen ys
Ġvid inÄĻ
ĠdÄĹÅ¾ utÄĹs
Ġb rig
Ġsek ÄĹ
pas ak
Ġdik tat
Ġgalv as
oviz ijos
Ġbaig sis
w ard
ĠJÅ«r atÄĹ
ĠK v
ĠvÄĹ Å¾iu
Ġdist an
Å¾iÅ«r int
Ġautomobi liais
I z
inÄĹj ant
tog ÄĹs
ĠvÄĹd inimo
Ġgyvens enos
Ã ¨
ĠL as
Ġbul v
Ġatsi lik
ĠÅ¡ak a
Ġstadi one
ur et
ĠÄ¯gyvend inimas
deÅ¡im ties
d ir
Ġpat aik
ĠpraÅ¡ au
Ġspecial us
Ġfinans inÄĹ
ĠTrump as
ĠuÅ¾ vir
ĠÅ¡al tiniuose
Ġkonserv atori
ĠR egistr
ĠT oki
Ġli uter
Ġlauk as
Ġdan ties
Ġpapildom i
Ġsavan oriai
ciÅ¡k aus
Ġgr aik
am ent
Ġs Å«k
ĠCentr o
l ok
Ġtri b
Ġind Äħ
Ġscenar ijus
Ġatsiliep imai
Ġlov oje
O per
ĠA S
Ġketvir tÄħ
Ġpuiki ausiai
P AR
eks ual
â Ĩ
Ġp ut
Ġpirk ÄĹjai
Ġmarket ingo
auk s
eil is
ĠpradÅ¾i ug
ĠVyri ausi
Äįi ojo
Ġskyr imo
07700 70
Å¾ inÄĹ
Ġsur eguli
Daug iausiai
Ġs Å«ris
Ġned arb
Ġeur ai
Ġeil ÄĹje
Ġviz ijÄħ
Ġkar aliÅ³
Ġvertin o
ĠRam Å«nas
ov iet
Ġli f
ai nius
Å¾ os
Ġplauk ti
Ġbepr oti
Ġerdv iÅ³
Ġkond ens
ĠDai nius
Vid uje
Äįi ausia
ĠV III
ĠÅ¡eÅ¡ io
ĠDidÅ¾i oji
Ġtau tinio
ĠsÄĹkm ingas
ĠÅł vie
ĠÄ¯vertin tas
Ġcer kv
j an
o tus
Ġv ej
Ġgyv os
Ġnauj oviÅ³
Pl at
ĠuÅ¾k ari
Ġrelig iniÅ³
Ġbiur e
ĠapÅ¾ valga
Ġaktyv umÄħ
ab os
Ġesm iniÅ³
Ñ Ī
Ġr amus
ĠElektr ÄĹnÅ³
pr oc
Ġsutar tys
ĠL uk
las h
erb aidÅ¾
ĠMar k
Ġskys Äįio
Ġpuol ÄĹjas
IN A
Ġstipri os
ĠtrokÅ¡ ta
Ġ194 8
Ġbibliote kÄħ
Ġ ÄĹd
Ġger esniÅ³
Lietuv iai
ĠpapraÅ¡ yti
L ais
u Å¡k
ĠnÄĹ Å¡Äįi
k ak
ĠdÅ¾iaugi amÄĹs
Ġorganiz acijoms
ĠFinans Å³
ĠÅ¾ali avÅ³
R ak
Ġtransp or
Ðµ Ð»
Ġpam Äħst
Ġreform a
emp li
Ġkonsulta cijas
int ame
PrieÅ¡ ingai
ĠBag d
Ġpak ait
kal nio
Ġ5 000
Ġkar ui
Ġkon tÅ«r
K up
Ġsu pa
Ġprofes oriaus
oz ÄĹs
T egul
Ġ us
ĠPran ciÅ¡kus
Ġtir ti
Ġpak oreg
Reik ÄĹtÅ³
Ġsak yÄįiau
Å« tÅ³
ĠS ub
Ġrem ti
Ġat oki
Ġkoki oje
Ġpareng ta
Ġaprib oti
low job
ÄĹl ÄĹje
ang r
Ġefektyv umas
ĠAz ijoje
k elb
Å¡k umu
Ġf avori
uo Äįiau
ter Å³
Ġlyd er
Nep t
ĠgÄĹr imai
in or
Å¾i ant
Pirm osios
ĠdeÅ¡im tys
ĠL IET
ĠM aÄįi
ĠsÄħ var
Ġgin taro
Ġle gi
ĠrÄĹm ÄĹjÅ³
Ġrevoliu cijos
G ra
yk Å¡Äįi
Ġsuvok imo
lÄĹp ti
k omis
Ġk ieno
Å« kiÅ³
Vien u
Ġhib rid
in inkiÅ³
ĠrÅ«b ai
X L
ĠVelyk Å³
el em
ik e
Ġnuo mo
Ġak l
Ġvadin amÄħ
iest eris
D on
Ġkvie timÄħ
Ġskelb ÄĹ
Ġneigi amÅ³
ĠRol andas
YM AS
ĠstaÄįi akamp
Ġsmur tÄħ
ĠT rak
Ġkorpus o
G intar
Ġt omis
Ġtr unk
ez ijos
Pra ei
re x
Ġpas kaityti
Ġpar yÅ¡k
Ġprasid ed
Ġrengi ami
ĠGr and
ĠRemig ijus
Å«r oje
Ġ19 60
Ġ3 60
Ġkor espond
ĠDvasi os
Ġypat ingos
Ġbais u
ov iniÅ³
Ġsusiform avo
Ġv amp
Ġrink tinÄĻ
ĠuÅ¾mokes tis
L it
Ġsen eliÅ³
Ġketvir tfin
Ġpreki auti
Ġkatalog as
Ġinternet iniÅ³
Ġlink smas
Ġnupirk ti
N amai
gi Å¡kai
Ġmerg inai
Â ·
av Äħ
Åłv entÄĹs
Ġnep asis
ĠG eri
ow er
ĠpakraÅ¡ tyje
Ġk alio
Ġ% ,
Ġtaur ÄĻ
DÅ¾iaugi uosi
ait ei
ĠÄ¯k Å«rimo
Ġkl aj
Ġ ç
ĠÅ¡ird imi
Ġkonserv atoriÅ³
olog o
alis tÅ³
Ġtik o
Ġpo tv
Ġgam inio
Ġtradic inis
ĠmÄħst ymÄħ
ĠlopÅ¡ elio
car on
k ep
ĠP ok
L S
Ġmin eralÅ³
Ġrecep tÅ³
Ġgarant uoti
Pap ild
ĠÄ¯ ÄĹjimo
em b
Ġpasip ik
ver Äįia
Ġpagalv ÄĹs
ĠbÅ«r Ä¯
Ġsimptom us
S ÄĹd
re en
ĠKar aliau
Ġsk ais
Ġvien kar
ver b
ĠF I
Ġkondicion ierius
Ġpeln Äħ
Ġr amin
ĠÅ¡il tai
ĠuÅ¾siÄĹm imus
Tyr imo
Ġaug alo
Ġreguli avimas
ĠP erk
Ġten is
Ġpag ul
Ġekonom ikÄħ
ĠÅ¾v ejÅ³
ĠÅ¡i aud
Pra ÄĹjusiÄħ
Ġsureng tas
M ad
Ġnesusi pra
ĠÅ¾and ik
Ġdarbuotoj ais
Ġapd ail
Ġkeliau tojÅ³
ĠuÅ¾sak yti
Ġry Å¡kus
Ù ħ
ĠÅ¡Å«d as
an y
Ġpag yv
Ġteb ÄĹra
ĠÅ¾ad ÄĹjo
Ġpirmen ybiÅ³
Ġprad ÄĹjÄĻs
Ġpuiki u
Ġsunk umus
Ġtras os
Progr ama
M inkÅ¡
Ġpris ilie
ĠiÅ¡gir do
ĠAl ex
Ġgarsi akalb
è µ
Å¡ e
Ġvadov Äħ
Ġtvir ta
Ġmok ymÄħ
ĠgrÄ¯Å¾ t
veÅ¾ ÄĹ
Ġkonflik tÅ³
Ġval o
Ġtr oleibus
ĠE P
Ġ< ...>
ĠM T
Ġprir eikÄĹ
ag Å³
Åª k
ĠÄįi uoÅ¾
C ar
u ki
Ġviz ija
Ġeig a
s il
Ġdraug ÄĹs
Ġpov anden
ĠmÄĹg ÄĹjams
Li ter
Ġc inam
Ġgaun ame
ant Å«ros
Ġpagrind inÄĹje
laug Å³
Ġgr oja
ArtÄĹj ant
os kop
ĠÅ¾ais lÅ³
vat umo
ĠÅ½ od
Vokie tija
k ams
ÄĹ giai
ĠbÅ«s imo
Ġkokyb ei
Ġsuform ul
Ġpanaud otas
4 00
Ġreikal auj
Ġtrik amp
ĠL ukas
Ġorganiz acijas
ĠsÄħn audas
ys tem
Ġnusi peln
Ġegz empli
ĠBerl yne
Ġt on
Ġpopuliar iausi
Ġkal ad
AI S
M C
Ġkeis tai
B iblio
ĠmaÅ¾ ais
Vasar Äħ
Ġatmosfer os
ĠDon atas
ĠJava Script
en tat
Ġnes imato
ĠmÄħst ymas
ĠÅ¾ar nos
Ġkito kiÄħ
Ġkoncer tus
Ġpapil dÄĹ
Ġteigi amas
Ġde form
OL AI
ĠPal anga
Re al
eg as
Ġkel niÅ³
Al b
bo x
sni uose
Ġpartn erio
Ġvykd ymÄħ
Ġkelion ei
ĠÅ¾vilg snis
gr ei
ĠskaiÄįi avimo
av ed
ĠiÅ¡ ilg
ĠA dv
Ġsp alÄ¯
Ġsuk ti
ĠU K
Ġ8 1
Ġnustat omas
ĠKr istÅ³
ĠInd ijoje
pir ko
ĠPakruoj o
Ġtvirtin ti
? ..
Ġlik imÄħ
ĠUkrain a
ĠO ro
Ġform uoja
Ġkoali cijos
Ġkor tele
ĠKalvar ijos
Ġati dÄĹ
tiÅ¡k u
Ġnuosav ybÄĹ
Ġsusib Å«r
ĠÅ¾ eld
Ġpob Å«dÄ¯
Ġsul tis
Ġver ti
Pav ad
Ġpatar iama
am iesÄįio
Ġpasiek imÅ³
Ġnug ri
Ġnereik ÄĹjo
Ġor g
Ġb it
Ġkom er
F in
Ġnaudoj ate
Ġapdovan ojimai
Ġdarbuotoj a
ĠÅ¾an ro
Ġskaitmen inÄĹs
ai lo
ĠiÅ¡d r
ĠsupaÅ¾ind ino
Ġeksper imen
ĠSp eci
Ġmel s
ĠsuÅ¾in osite
ĠkÅ«diki ui
Ġfor ume
Ġpuod Äħ
ĠÄ¯gal inti
ĠAutomobi liÅ³
Ġmed alÄ¯
Ġmoksl inÄĹs
Ġned aro
ĠiÅ¡g ars
g raf
ĠneiÅ¡ l
M is
ĠPr istat
ĠtÅ«kst anÄįio
Ġneb egal
M ama
ek om
ĠiÅ¡silav inimo
Ġgr ojo
Ġrud os
inam ÄĹs
Ġbat ukai
Ġg umos
Ġver g
ĠviÅ¡ tienos
S par
Ġinspek cija
s ek
Ġskiri amos
ĠÄ¯spÅ«d ingas
ĠÄ¯vertin imo
ĠlaiÅ¡k e
Ġypat umus
Ġpuiki a
M inÄĹ
Ġpardav imai
ĠuÅ¾ teks
ĠK air
Ġprezid ent
Ġrag ino
Ġatl aid
Ġkei tÄĹsi
Ġformul ÄĹ
ĠW eb
ĠIn ga
Ġdang uje
Ġply teliÅ³
ĠskaiÄįi uoja
Ġreik menys
Ġpasiek tas
Ġnov atori
Ġsampr ata
Ġ erg
ĠiÅ¡s prÄĻs
ĠpÄĹd Å³
Ġapskai tÄħ
Ġmed iniai
Ġlaid Äħ
Ġinteg racijos
s ch
Ġsavivald ybei
Ġsocial iniame
an oriÅ³
yp as
Ġsusidom ÄĹjimo
aud imo
t avimas
S til
ab il
Ġkito ki
ton Äħ
Ġperk eli
sm Äħ
ĠiÅ¡d avimo
Ġpatikr inimo
Ġats iÅ³sti
Ġvard us
Ġpasis tat
Pasi Å«l
Ġarom atas
Ġstu buro
Ġprad inio
Ġklub ui
ĠKaz ach
ĠItal ija
M ac
Ã ¸
il s
Ġdabar tinis
ĠkÅ«ryb oje
Eg z
t uotos
en io
Ġugd ymui
Knyg oje
auk ÄĹs
Ġneat l
Ġatidar ytas
ausk ienÄĹs
Ġorkes tras
B ro
ij ui
iz z
e h
ĠVal das
Ġmok ÄĹjo
Ġtiks liÅ³
Ġpakil ti
] :
Ġpas ijus
Ġunik alÅ³
Ġpu tÅ³
Ġvyriausi oji
ir eng
ĠÅ¡al tinÄ¯
ĠÅ¾ing sniÅ³
t esni
Ġp Å«
ti kiÅ³
Pr imename
Ġmed Ä¯
Ġket ver
Ġnos Ä¯
Ġlapkri tÄ¯
Ġpasteb ÄĹjau
Ġvari antus
Å½ ali
Ġbes idom
Ġetik etÄĹs
ĠN aud
ĠuÅ¾si brÄĹÅ¾
Å½ ais
Ġpiliet ybÄĻ
j aur
ed eral
Inform uojame
Ġneatsiej ama
Sus id
Ġgink lus
Ġprisi imti
Ġpatyr ÄĻs
l yd
eln ÄĹs
Ġnesugeb ÄĹjo
Ġles b
Ġpra bil
an ch
ov imas
ĠMon ika
Ġmat ai
ĠsÄħn audÅ³
Ġgener olas
i tÅ³
Ġl enta
Ġbendruomen ÄĹje
t usios
? "
Ġneg yven
N esi
ys kup
Ġnorm alu
tiÅ¡k umÄħ
Ġteis ÄĹmis
Ġnes kl
Ġst yg
Ġpagr Ä¯sti
l ygi
Ġf und
Ġpadal iniÅ³
Ġpramon ÄĹje
ĠRud a
Ġsto telÄĹs
ĠuÅ¾sak ymÅ³
ĠÄ¯mok Å³
ĠgrÄĹs mÄĹs
r ug
Å¾ ai
ank Å³
Ġteis ingumas
Ġlink ÄĻs
Ġmetod ais
Ver ta
Ġ9 7
ĠMok sl
Å¡k ojo
ĠlaiÅ¡k as
ĠÄ¯trauk ta
ĠBaltarus ijoje
Ġnac iÅ³
l uok
Ġpavoj ingÅ³
Ġasmen inis
ĠÄ¯pras tÄħ
Bend radarbi
Ġtvir tÄħ
esn ÄĹse
lo ck
Ġtvar ko
Ġpamok Äħ
ĠiÅ¡ kri
Ġvartoj a
d ina
Ġat met
Ġpasid idÅ¾i
Ġpadal inio
ĠuÅ¾sis ak
ĠE K
Lenki jos
S O
al ÄĻ
Ġsusis iekite
ĠNij olÄĹ
Ġs akiau
Ġper Å¡
iej uose
ĠMar tin
Ġnup ieÅ¡
Ġkonkurs Å³
Äį o
Ġapdovan ojimus
Ġfotograf ija
ĠStat ybos
g av
eid avo
Ġtarptau tinÄĹse
ĠapmÄħ st
y toje
Ġnug ara
Ġlin ijas
Ġelektron inÄĹje
Ġkal nai
Ġdalyk ais
ĠD auk
ĠkultÅ«r inio
ĠÄ¯am Å¾in
n imi
Ġg ÄĹles
Ġraud onas
ausi au
Ġnen urod
ĠRus ijai
ĠpaÅ¾Ä¯st amas
Ġmieg Äħ
Ġpri Å¾iÅ«ri
Ġtvark ymÄħ
ĠPrezid entÄĹ
Ġam at
Ġneb el
Sod ros
yd amos
Ġgen tis
Ġsimptom Å³
M ES
Ġner imas
Ġatvir os
Ġinstitu cijomis
ĠpojÅ« tÄ¯
Ġst eigi
ĠH oliv
ĠÄ¯si trauk
Ġdvira Äįio
198 8
PanaÅ¡ u
ĠKalining rado
el os
Ġnepr ieÅ¡tar
Ġnel auk
ĠtreÄįi asis
Ġkak l
ĠK uro
Ġbank e
Ġpropor c
Ġnor ÄĹtumÄĹte
ĠuÅ¾p akal
Ġnuostab iai
B ur
P AS
ĠA sta
Ġstatus o
Ġver timas
Ġsul aikyti
Ġlie pÄħ
Ġkr am
Ġdr ug
Ġjog os
Ġpam atÅ³
ÄĹj anti
Ġsav a
Ġskirtum ai
K K
Ġveiki antis
l auskas
Ġmo lio
Ġartim a
ĠpaÅ¾eid imÄħ
Ġnukr yp
Ġjaus m
Ġministeri joje
Ġprem ijÄħ
Ġpasig roÅ¾
Ġsav aip
ĠbÅ« siu
ĠL is
s er
oz ÄĹ
ĠRyg oje
t Å«s
Ġfig Å«ros
ĠdrÄĹk ina
z in
Ġtur b
Ġneg rÄ¯Å¾
Ġsvetain ÄĹse
ÄĦÅ¾ uol
Ġd engi
Ġatm int
Ġserv et
ĠtemperatÅ«r ai
Ġding sta
ĠraÅ¡ ytoja
Ġtei r
ĠMarc ink
ing ame
Ġmedic ina
J uose
K uro
Ġm Å«si
ĠB VP
Ġvalstyb e
Ġkai ta
ES T
Ġsulauk ÄĻs
L iet
je v
Ġfak torius
Ġlauk uose
Ġpunk tÄħ
ĠiÅ¡si verÅ¾
Ġauto m
ĠÄ¯si klaus
ĠpaÅ¾ eis
Ġdvi ta
Ġsiun timo
Ġsu riÅ¡
Ġlank ytojus
Ġapklaus a
Ek onom
Ġtinklap yje
Ġkonkurs uose
ĠBl ack
s ur
Ġskiri ami
ĠpriÄĹm imas
Ġr aug
Ġsaug omÅ³
Ġinf li
rak m
Ġb unk
ĠparaÅ¡ ytas
Pra ÄĹjusÄ¯
ing Å³jÅ³
Ġal s
Ġfeder acija
av al
eg o
ĠbokÅ¡ tas
et iniai
ĠnatÅ«r alÅ³
ĠD Å¾ins
Ġatlik us
ĠmiÅ¡k us
Ġkry Å¾iÅ³
ĠÅ«k ininkas
lik as
ĠkunigaikÅ¡ tis
Ġsl ep
Ġtrenir uotes
uli ais
Ġdet ektyv
PanaÅ¡ iai
up ÄĹs
ĠmaÅ¾ us
Pri val
Ġprival u
ĠpasidÅ¾iaug ÄĹ
eto je
ĠbÅ«s enos
AU G
ĠBut keviÄįius
ĠÄ¯gÅ« dÅ¾iai
Ġnud aÅ¾
po z
Pirm adienÄ¯
Ġlent elÄĻ
B Å«s
and u
Ġtinkl inio
un o
yd amiesi
ãĥ ¼
Ġgal ut
Ġsusi tuok
ĠtrÅ«k umo
Ġkai lio
Ġporeiki ai
Ġsumon tuoti
Ġgarsi ausiÅ³
ĠAustral ijoje
Ġmaud ymosi
ar iai
Ġdr amat
ĠLiud v
O d
ĠV iet
ĠU p
Ġmen ininko
Ġpriim ant
Ġpuslap ius
Ġger esnÄĹs
ĠtreÄįi ÄħjÄħ
Ġgaranti jos
Ġartim as
ĠiÅ¡pl ÄĹs
Ġskan us
un ch
Ġant sto
am entÅ³
Sak oma
Ġk inta
ĠÄ¯pro ÄįiÅ³
entas is
ĠÅ¾ygi o
n ing
ra cijÅ³
Ġtur imÄħ
ĠkaÅ¾k okÄ¯
ĠÄ¯vard ij
al umas
d us
Ġgal imo
Ġsuteik imo
Ġneigi amas
Ġvidur Ä¯
ĠS em
ĠAnd re
ĠRÅ«d os
O n
ĠP ui
Ġvid us
ir Å¡k
ol ÄĻ
ĠnepamirÅ¡ t
M arg
Pag alv
ĠtriukÅ¡ m
ĠÄįi ul
Ġalyv os
ar iu
ĠiÅ¡or iniÅ³
Ġp yl
Ġcentr inÄĹs
Nauj oji
ĠpaslÄĹp ti
Ġmai tina
Ġdr amb
sta gr
eid imÄħ
ĠM P
Ġskl eidÅ¾ia
ĠbÅ«s imÄħ
Ats kir
Ġataskai tas
Ġpav al
ĠpasiraÅ¡ yta
Ġkvar tal
et inio
Ġpas Äħ
Ġkan celiar
Ġkaup ti
av oje
Ġatliek os
Ġministr Å³
Ġslap ukai
Ġsuaug usieji
ĠO m
âĢ¦ .
ĠÅłv ies
" ;
K unig
eg ti
Ġnacional inÄĹ
EN T
ĠÅłar Å«nas
D an
man n
Ġstov ÄĹti
au Å¾i
Ġproc ento
Ġpakop os
K ul
ĠN E
Ġpavad inimÅ³
Ġvyst yti
S lap
Ġorigin ali
inimas is
Ġcholester olio
Ġdis er
Ilg ai
Ġraid ÄĹs
ti tu
ĠsiÅ«l au
Ġpriemon ÄĹms
Ġjaun uolis
ĠPas laugos
Mok yklos
Ġm Ä¯sl
MaÅ¾ a
tuv ais
Ġpra eina
SD P
ĠNU OLAI
em e
Ġgyven amÄħjÄħ
Ġger esnÄ¯
Ġbend ravimÄħ
Ġnusi pel
tom os
r ar
alb os
Ġpab r
Ġtem pi
Ġlik usi
Ġpilie Äįio
Reng inyje
Ĺ ı
av ar
Ġsp yr
Ġvil na
ĠÅ½al girio
Ġinformac inÄĹs
Ġb angÅ³
to kai
espond entÅ³
wit ter
Ġkamer Å³
Ġs y
Ġl yÄįiÅ³
Ġne vil
Ġkr ovin
x x
Ġg ÄĹda
ĠM os
ĠSkuod o
ĠÅ¡al inimo
g el
ÄĹj omÄĹs
Ġatsp aus
ĠiÅ¡m inties
Ġnustat ymus
Ġlyd ÄĹjo
Ġgalu tinis
Ned id
ï»¿ ï»¿
ui z
pirk ti
Ġtras a
ri Å¡ti
ĠÅ¡ edev
ĠbÅ« tume
Ġatlyg inimai
ilg is
Ġatsiliep imÅ³
Ġapskai ta
Ġgud r
Ġevangeli kÅ³
al inÄĻ
Ġform atu
IT E
Ġsubjek tyv
Ġmug ÄĹ
Ġnepas ak
ĠSu tar
sp alv
ard core
Ġpat aikÄĹ
Ġ11 2
Ġsaug omas
Ġporeiki o
ĠbÅ« kite
Ġak tais
Ġcentr inÄĹje
ĠPl aÄįiau
Ġreikal avo
ĠparaiÅ¡k Å³
Ġb aug
ĠG ai
ĠgÄĹ rio
R ung
Ġk ra
Ġneb ijo
Ġlent elÄĹ
Ġmok iniais
on do
Ġvarik lÄ¯
ĠR ita
Ġdirb s
ies tis
Ġry Å¾iÅ³
ĠuÅ¾sis pyr
in c
is tus
Vokie tijos
Klas ik
Ġap Å¾iÅ«ros
ĠieÅ¡k oma
Ġskyri ai
ĠlaiÅ¡k ai
Ġapsis toti
Ġkvad r
ĠPeterb urg
Ġned arbo
Ġpaklaus a
Ġpob Å«dis
ĠBirÅ¡ tono
ta Äįiau
ĠValst ybinÄĹ
ĠXX I
Ġnuomon iÅ³
E sm
s ai
s ki
Ġsugalv ojo
riu Å¡k
y tuvas
Ġin jek
Ġgam inimo
ard i
Savait galÄ¯
Ġpl auti
Ġpam atai
F C
ab o
ĠK ras
Ġkil usi
Ġneteis ingai
Ġpusan tro
Ġv o
and Å¾i
ĠprieÅ¡ Å³
Ġfutbol ininkas
yr ai
Ġtikr inti
Ġtikr oji
Ġnusiteik ÄĻ
kir styti
Ġkompeten cijÅ³
ĠnemÄĹg sta
DÄĹk ojame
at es
Ġteis m
Ġpasak oti
Ġdarbdav ys
N umat
Ġvard an
Ġgin ek
Ġug nis
Ġpam ato
Ġakc entas
pr is
Ġvisuomen e
Antr oji
Ġparod ys
Ġlag amin
Ġpastab as
L aisvÄĹs
Ġpapras tos
pard uotuv
Ġgars ai
ĠÄ¯dom iai
Ġpali kite
Ġkod o
Ġnesupr ant
ĠMyk olas
Ġfail us
Ġpakei timÅ³
Ġne egzist
Ġnumat ytÄħ
n au
Ġ8 3
Ġprinci pÄħ
ĠÄ¯kv epi
p here
ĠÅ¾uv Ä¯
ĠuÅ¾deg imas
Ġbi ograf
Ġpro tu
Ġpriklausom ybÄĹs
Ġak us
Ġdebiut avo
ĠÅ¡eÅ¡ tadienio
Ad ministra
Ġgau tÄħ
Bal ta
et uose
ĠKr isti
Ġkiber net
Marijamp olÄĹs
Ġpaskir ta
S idab
Ġsu j
Ġadministr atorius
sk ienÄĹ
Ġvald oma
Ġkri ok
Ġpadovan oti
Ġk aukÄĹ
et h
Ġpens ijÄħ
ĠJ umis
Ġ197 5
Ġsvyr uoja
Ġ ie
Ġpagrind us
ĠiÅ¡kilm ingai
Ġdalyv io
ĠR eng
Ġpaskai tÅ³
Ġnesin ori
Ġbal tÄħ
Ġbas utÄĹs
ç ļ
Ġapg inti
ĠiÅ¡sin uomoti
il ti
Ġk ÄĹbul
yk Å³
Ġpri pil
Ġ19 38
Ġsovie tinÄĹs
Ġcharak terÄ¯
Ġs ÄĹ
Ġvald ytojas
Ġniu ans
ĠA sociacijos
Ġpra timus
Ġmel ag
m ÄĹje
s c
Ġn ykÅ¡
ĠkÅ«n e
Ġviz ual
Ġne kl
ins kaitÄĹ
ĠtreÄįi ojo
Ð¸ ÑĤ
Ġsrau tÄħ
ĠpaÅ¾ eidÅ¾ia
ĠuÅ¾s ukti
Ġvadov autis
h n
r am
ĠB ob
ĠvaÅ¾i avo
Ġfail Å³
l ÄĹmis
Ġlik tÅ³
Ġliep ÄĹ
Ġdialog o
Ġner as
Ġsimb oliu
Ġ9 4
ĠÄ¯vair ovÄĻ
eÄįi ais
Ġsos tine
Ġreikal aujama
Ġ198 4
Ġambasad orius
Ġproduk tams
ez i
Ġatk arp
g s
uoj anÄįias
And roid
pr iek
Ġjauk us
Ġskirtum us
ĠA uks
Ġaktyv Å³
Ġdirb antiems
Ġkam uolio
ĠÅ¾ ymus
Ġapdor ojimo
Ġeil es
Ġblog Äħ
ĠdeÅ¡ inÄĹs
a jÅ³
å ¹
ĠW i
ĠbokÅ¡ to
Ġpatar imais
ĠapibÅ«d ina
kur ti
J uolab
Ġkal iniÅ³
Ġmuzik ai
Ġantra jame
ĠÅ¡vie Å¾iÅ³
Ġekonom inÄĹ
Ġkapi tonas
ĠV Ä®
ĠpaaiÅ¡k ina
ĠnugalÄĹ tojai
Ġorganiz acijÄħ
ĠÅ¡ ono
ĠpaÅ¾ inÄįiÅ³
Ġkamer Äħ
Ġkonf ig
Ġvien ybÄĹs
ÄĹd avau
Ġkomerc inÄĹs
ĠV enc
ĠdarÅ¾ elyje
Ġrodik liÅ³
m erg
Ġi Phone
y e
ĠS tok
ingi ausi
Ġliek n
ĠB aj
Ġnen uv
B Å«na
ĠneiÅ¡ d
Ġvietov ÄĹje
li ja
ĠâĤ¬ .
tik l
V an
aun ama
Ġ8 9
Ġskir to
Ġperd uoda
Ġdisk om
Ġneber eikia
Ġpet neÅ¡
ĠSe imui
Ġatlyg inimÅ³
Ġnes ÄħÅ¾in
Ġskulp tÅ«ra
ĠliteratÅ«r oje
ĠS ing
Ġlaip tais
ek do
Ġvadov aud
Ġplauk o
ĠR u
Ġaktyv iÅ³
ĠaukÅ¡t esni
ĠK auk
ĠdÄĹv ÄĹtas
Koki os
Ġreg ener
Ġjaun os
Ġsiun timas
Ġgal ÄĹjau
Ġbur ok
Ġskir tumo
O ffice
k or
ĠiÅ¡ matavimai
ĠaiÅ¡k inti
ĠgyvÅ«n ams
y c
Î ±
Ġned er
Ġvic epr
Ġvien iems
Ġkal ÄĹjime
Ġvidur inÄĻ
B ene
ĠJur gita
Ġaktyv aus
mos phere
ent s
Ġskilt yje
em ija
Ġfinans inius
Å¾ e
to mas
Ġvadov us
ĠuÅ¾sak ymas
Ġmag nio
ĠP aj
Ġdraug ystÄĹs
Ġgyd o
Ġpr es
Å½ S
ĠK A
li Å¡kai
og o
Ġstipr inimo
Ġreiki amus
uoj amÄĹs
ĠgrÄ¯Å¾ ÄĻs
Ġekskurs ijos
Åł vietimo
ĠraÅ¡ tÄħ
Ġnuolat inÄĹs
Ġtarnau tojÅ³
Ġkuri ama
Ġgra vi
Ġdail ininko
B ald
li uku
ĠÅ¾em aiÄįiÅ³
ĠOr ganiz
Ġduo nÄħ
ĠNyderland Å³
ĠL E
vie Å¡
Ġingredien tÅ³
ĠLau ra
Ġdu etas
Ġerdv ÄĹse
Ġnutar imo
Ġnuorod Å³
ĠP VC
Ġper imti
Ġorganiz uojami
Ġvertin gi
uÅ¡ as
Ġreguli uojamas
Ġakcent avo
F ak
Ġkam uolius
Gel eÅ¾
Ġindividu alios
Ġkonf iden
p lg
Ä® vertin
Ġvir p
Ġpatar ti
Ġ197 6
Ġsuk Äįi
ĠKr ok
Ġmug ÄĹje
ĠL it
Ġkov ai
Ġketuri o
Ġrep ertu
ĠsÄħjung Å³
Ġnusprend ÄĹme
Val g
Ġorigin alus
S ie
Ġskait ytojams
Ġlaip tÅ³
af e
Ġtap usi
Ġkan alo
Ġnep ra
Ġapk ab
S tai
Ġdalyv aujant
ĠveÅ¾ imo
ĠNob elio
an ausko
ci us
Ġvals Äįius
Pasku tinis
r uto
Ġparad oks
Ġsav ig
Ġpasieki ama
Ġvaivad ijoje
Ġveis lÄĹ
Ġger esnÄĹ
Ġapsis augoti
ĠJÄĹz Å³
Ġp se
en ce
aik a
ĠK im
ik lÄ¯
ĠiÅ¡lik ÄĻ
ĠÄ¯steig tas
ĠVi ol
ĠpÅ«l ingas
V arg
Ġpatik ino
Ġunik aliÄħ
ĠperveÅ¾ imas
ykl es
Ġapdovan ojimas
Ġfond Äħ
Ġamor tiz
ĠÅ¾ym i
Ġket inama
ĠX I
Ġstik lai
AM E
M M
Ġdalyv auj
Ġizoli acija
T vir
u x
men os
ĠCh ris
am aisiais
Ġstat ybiniÅ³
Ġatspar i
ĠpavirÅ¡i uje
Ġnauj ausius
ho w
uks em
Ġf onas
Ġrank inio
Ġjaun ystÄĹs
Ġnum erio
Ġbran giai
ĠÅ¡yps osi
Ð ¶
Ġsusirink ÄĻ
op ij
Ġn uli
Ġpak ep
Ġ197 9
Ġkokyb iÅ¡k
ĠkultÅ«r iniÅ³
t urb
Ġpar as
eg n
ĠJ i
ĠC O
Konkur so
Ġatvyk us
iest Ä¯
Ġsin chron
ĠM is
Ġsaug omos
Ġnuostab iÅ³
ĠÄ¯sak ymo
Ġmen inÄĹs
Ġdiskut uoti
ĠkarÅ¡ Äįio
ĠVl adas
irÅ¡ t
Ġpaskirst ymo
Ġdal eliÅ³
Ġnes ate
Ġbendr ovÄĻ
Ġplan e
Ġrim ta
Ġatsid uria
Ġtechn inÄĹ
Ġsod Å³
ag net
Ġdid esniu
Ġsto ti
Ġresurs Å³
ĠbÅ« n
Ġap artamen
Ġak tÄħ
Ġinfek cija
Ġpag on
Toki Äħ
N o
ĠN ek
Ġpak uoÄįiÅ³
Ġfin an
Ġsmeg enis
ĠprieÅ¡gais rinÄĹs
ĠH an
Ġkokyb iÅ¡kÅ³
ĠdÅ¾iaugsm u
an kius
Ġklasik inio
a tijos
ki ja
Ġskr uos
Ġnesu tik
Ġsiej amas
Supr antama
ĠD abar
19 20
Ġdovan oti
Ġalg orit
ties a
ÄĹz ui
Ġlot yni
at Ä¯
ĠiÅ¡rink ta
aÅ¾ us
vi ce
Ġind eks
ĠiÅ¡si vyst
h u
ĠiÅ¡ gan
ĠpaÅ¾ intis
ĠKar o
Ġpipir Å³
y tina
Ġpakei timas
Ġlank ÄĹ
ĠÅ¾iÅ«r ovus
Ġsl avÅ³
ĠprieÅ¾as tÄ¯
Ġmie la
Ġtri uÅ¡
ĠuÅ¾siÄĹm imas
Ġapsin uod
ins k
ab le
Ġrodik lius
Ġbal andÄ¯
Ġlinksm a
ĠkitÄħ met
Ġmis ijos
ta f
Ġem oci
ĠneÄ¯ man
ĠSuom ijoje
Ġstud entus
ĠprieÅ¡mok yklinio
Ġbal to
Å¡i uose
Ġprogram inÄĹ
Ġspaud imas
Ġbat erija
Ġt vora
Ġpoli cijai
Ġfail Äħ
Ġt oji
Ġapyk ak
Ġkl est
ĠH il
B aigi
Ġe inam
Ġkuri amas
ĠpareiÅ¡k imÄħ
Ġvais tas
ĠD VD
Ġistor inis
Ġgerb ti
Grup ÄĹ
Ġfotograf uoti
Ġpeln as
K er
Ġbran giau
ĠkÅ«dik Ä¯
erv is
aus kÄħ
Ġnuol aidÅ³
oki tÄĹs
A v
Ġmaksim alus
Ġaspek tas
ĠbÅ«d ingi
ĠAud rius
t mas
Kiekvien am
ĠsÄħvok os
ti enÄĹs
ĠlÄĹk tuvas
Ġpedagog ai
ĠsuÅ¾in ojau
Ġjuos tÅ³
U tenos
Ġsk au
tim e
ines s
Ġprir eikia
G ir
ĠM u
ĠpaÅ¡nek ovÄĹ
Ġpr imityv
Ġatsi tinka
Ġatsp al
Ġvaizd ais
AI P
Ġarchyv o
Ġm Å«
Ġor d
Ġtrium f
Ġspor tui
Ġstog Å³
t esnÄĹ
á »
ĠdidÅ¾i uotis
Neg ana
ç Ķ
Ġant radien
ĠkÄĹl imo
è ½
Ġper im
eik ÄĹs
ĠV ac
mon ÄĹ
X IV
Ġsal ono
ras mus
EM OK
ĠDan ie
ĠvÄĹl gi
Ġcentim etr
R em
Ġpoli tolog
Ġklavi Å¡
Ġsaul ÄĹg
Ġkomplek tÄħ
Ġprovin cijoje
ĠP un
Ġpopuliar ios
el la
vil as
ĠLib eralÅ³
Ġkam pas
Ġn ard
Ġkambar iuose
Ġlanky tinÅ³
ĠG ran
Ġadvok atas
Ġsav ybÄĹ
ĠT ad
Ġkri tikÅ³
Ġsutrik imus
ĠmedÅ¾io tojÅ³
ĠkraÅ¡ tuose
Ġdraud imu
Ġinter val
ĠvÄĹl ai
Ġkonflik tas
Ġsp ontan
ÄĹd amos
Ġkeli aujant
Ġnu traukÄĹ
Ġatnauj inimas
ĠdÄĹÅ¾ utÄĹ
ĠgyvÅ«n ais
Vasar os
ĠÄ¯kvÄĹp ÄĹ
n Å«s
Ġkom b
Ġinstitu cijose
Ġdeg imo
Ġaptarn avimÄħ
Ġm amÄħ
ÄĹm iau
yn c
ĠkrÅ« ties
U B
p eriai
an ÄĹ
pr op
Ġtarp inink
Ġprofes ijÄħ
Ġdid esnius
Ä¯ jÄ¯
Ġsv et
ĠbÅ«s imÅ³
Ġveik snys
ĠKlaipÄĹd Äħ
Ġkasdien ybÄĹs
ĠuÅ¾d eng
Ġpasikar toj
Ġs teri
Ġpatog iu
Ø ±
ĠJol anta
in form
um pa
ĠC ity
ak Å¡
ci ai
Ġsil u
ĠMairon io
Ġpatog umui
? âĢľ,
ĠD uomenÅ³
ĠraÅ¡ tais
up o
Ġsusid arÄĹ
Ġsen ojo
Ġnu fotograf
ĠtÄĹv Äħ
Ġbaus mÄĻ
Ġdirb au
Ġblog io
Ġklini kÅ³
{ "
ĠV SD
Ġvil ni
Ġkoncer te
ĠLandsberg is
Ġskr ydis
Ġskan ÄĹs
Ġteori jÄħ
R i
Ġkomis ijÄħ
Ġpriz Äħ
Ġveiksm ais
Ġbendradarbi aujant
Ġregistr o
Gamin tojas
Ġgr etas
ch en
Ġtek tÅ³
ĠsÅ«n ui
Ì ĩ
ĠÅ¾ va
Trump ai
k W
Ġdaik to
ĠpaÅ¾iÅ«r Å³
ĠAi rijoje
Vaik as
ĠPatal ynÄĹs
Ġneg alia
ĠiÅ¡Å¡ Å«kÄ¯
ĠÅ¡al tinius
Ġjud esio
Ġmikro f
D uomenÅ³
Ġpirm inÄĹs
ĠiÅ¡m esti
nink Å³
ĠÅ¡i oms
ĠbÅ« ties
anti jos
ĠPrezid ent
Ġpozi cijÅ³
Ġsaug Å«s
ĠÄĮ es
Ġ195 4
Ġb em
ĠiÅ¡ taisyti
ĠDarb inis
Ġvizu aliai
Ġkomentar ai
ĠKris tu
Ġsoviet meÄįiu
ĠB an
K I
Ġekonom inÄĻ
ĠÄ¯kvÄĹp ti
Ġtvenk inys
Ġs ÄĹk
Ġnei Å¡k
ĠPu tinas
ygi o
ĠVieÅ¡ Å³jÅ³
ĠAmeri kÄħ
Ġsaug i
Ġtermin ai
Ġrep eti
d ytas
Ġtar kime
enk Å³
Ġdvy lika
Ġilg esnÄ¯
amb l
EN D
ĠS usis
no w
R ib
yl Ä¯
Ġugd yt
oj om
Ġsug ed
Ġtelef one
G alÅ³
k ul
ĠÅ¡il ti
Ġinfrastruk tÅ«rÄħ
Ġlenktyn ÄĹse
Grei Äįiausiai
ĠrugpjÅ« tÄ¯
Ġne rib
ĠuÅ¾tikr intai
Ġnuk rito
ĠDan ijoje
C om
Ġs mog
ĠP art
Ġnet enka
Ġsl ink
Fil mas
D viejÅ³
ec kas
V iÅ¡
Ġatskir us
çļ Ħ
Ġkol ed
Ġtarptau tinius
M or
ie Äįiais
ĠaÅ¡tuo niÅ³
odi ako
Ġg astr
on ia
ĠÅ½ uv
Ġais tra
htt ps
Ġform oje
Ġaliej ai
Ġnepriklaus oma
Ġjurid iniÅ³
Ġli gi
Vakar e
ĠgÄĹr ybiÅ³
Ġtras oje
Ġnusis tov
Ġkompleks o
Ġprisimin imai
t le
Å¡k oji
ĠuÅ¾d arb
Ġpavad inimus
Ġprival omas
Ġadministrac iniÅ³
Ä® gyvend
Ġh em
ĠÄ¯vair ovÄĹs
Ġsusi raÅ¡
Ġypat ingÅ³
Ġsurink ta
ĠNUOLAI DA
es tro
Ġg ail
Ġdraug ui
Ġmuzik antÅ³
ĠdÄĹÅ¾ utÄĻ
Ġjautri ai
ĠÄ¯p ÄĹd
Ġsuvok imÄħ
ĠGied rius
TÄĹv as
Ġsus ilpn
ĠgÄĹr imas
Ä¯vai r
Ġlyg inti
Ġkep en
Ġkovo tojÅ³
Ġinteres ams
Ġbaus mÄĹ
XV III
V iz
Ġpra timai
Ġpap ai
Ġpil d
Ġsutrik imas
on iniai
Ġkr eiv
ĠiÅ¡k yl
Ġsand oriÅ³
Ġreg lamento
Ġpietry Äįius
ĠSkvern elis
Ġkri auk
Ġpuol ÄĹ
ĠuÅ¾dr austi
Å¾ b
ĠU g
ĠW orld
Ġdvas inio
Ġgav usi
Ġsusidor oti
ĠNer ingos
ĠLt d
ĠmÄĹnesi ams
ĠjauÄįi amas
Ġnaik inti
Ġsprend imais
ĠvirÅ¡ ut
Ġkepur ÄĹs
Å¡ io
ĠT adas
Ġrud uo
ĠkarÅ¡ tas
Ġvirus as
ĠiÅ¡pr ovok
Ġak tuose
Ġc ink
Ġeksperim ent
E IK
Ġj ÄĹzui
Ġger esnio
Ġgav osi
Ġbase ine
ĠpÄĹs tininkÅ³
Ġ1 01
ĠC V
Ġmir ti
ĠiÅ¡or ÄĹje
Ġrank raÅ¡
Ġtruk mÄĻ
Ġaug inimo
Ä® reng
ĠneiÅ¡ n
Ġnek okyb
ĠÅ¾ym ÄĹs
wed bank
Ġm um
ĠL S
Ġlabor ator
Ġm ÄĹgi
Ġsu telkti
ĠpieÅ¡ iniÅ³
Ġorien tuo
Ġlegend a
ĠBritan ija
Åłe imos
Ġmet inÄĹs
Ġatvir u
Ġatitink amÅ³
ĠtrÄħ Å¡Å³
ĠV ali
Ġpopuliar iausias
ĠgÄĹr imo
Ġprokur oras
ĠNer inga
O ne
Ġpad av
val sti
Ġpaj uto
Ñ İ
Ġspe c
Ġinterjer as
Ġsk y
Ġpel k
mok sl
ĠsugrÄ¯Å¾ ta
Ġr oz
Ġpi giai
Ġdiev iÅ¡k
Ġvir ti
Ġegzamin us
Ġs anitar
Ġl os
Pr ekiÅ³
Ġsiun tÅ³
staig os
au ri
Ġcitr inÅ³
ĠC r
E A
Ġprad inÄĹs
ist iniai
Ġekspozi cija
l umas
n av
Ġneb Å«d
Ġvid inio
Al eks
Ġapylink ÄĹ
os to
Ġvid iniÅ³
ĠX S
ĠbirÅ¾ oje
ĠÅ¡ali gatv
Ġdramat urg
ĠE C
Ġspecial Å«s
Ġklasik inis
Pardav ÄĹjas
E kskurs
Ġdarbuotoj ui
Ġteat rÅ³
D el
R egist
Ġver Äįi
eis i
vald as
ÄĹ c
Ġats iÅ³
Ġrom ÄĹnÅ³
Ġistor inio
ĠSigi tas
Ġkam po
ĠdÄĹm iÅ³
Ġatidar ÄĹ
Ġpremjer o
omp on
Ġrank ovÄĹ
Ġkoncep cija
ĠV ikip
Bend ra
Negal ima
ĠÅ¡vie timas
IA US
ĠDonel aiÄįio
eb o
Ġpirm aisiais
Ġgy lio
Rud en
Ġrod oma
Ġfilosof as
Ġkas p
k yri
Ġnes up
Ġrud a
Es Äħ
1 10
ĠÅł l
ĠEurop e
Ġtarn avo
Ġindividu alÅ³
Å¾ mog
Ġr aida
Ġvik tor
Ġdabar tinÄĻ
Ġnurod ymus
Ġob lig
Ġapk ep
li Äħ
Pastar asis
ra c
Ġneb and
Ġdizain eriÅ³
Ġrecep tas
Ġprisim enu
S aus
ĠS ti
e gi
Ġzo ologijos
ĠmaÅ¾ meninÄĹ
Ġmin er
Ġleid inio
Ġpas akiau
Ġinternet inÄĹ
Ġgro tuvas
ĠR ich
Ġkoleg a
in ÄĹjimÄħ
ĠAnd roid
e et
ĠnaÅ¡ ta
b ras
ĠiÅ¡dÄĹs tyti
S o
Ġkomis ijai
Ġgam tai
Ġprid ÄĹjo
r ui
Ġsu imtas
tuÅ¡ ÄĹs
s el
Ġnauj ausiÅ³
Ġskir tumÄħ
ĠÅ¡var us
ĠpasiÅ«l a
Dis kus
ĠmaÄį o
Ġsv ir
ef onas
Ġved ÄĹjo
ĠÄ¯vyk ti
lav as
B ud
S to
od s
Ġkomand ir
ĠÅ¡ven Äįia
Ġnepri val
Ġkategori jÅ³
Ġdirek toriumi
ĠgraÅ¾ aus
Ġskelb imas
ĠÄ¯spÅ« dÅ¾ius
Ġro Å¾iÅ³
Kazimie ro
arb on
inink ystÄĹ
Ġsistem ose
Ù Ĩ
Ġt oms
Ġsu mas
Ġnepa tiko
PraÅ¡ ome
k oj
Ġd uos
auj asi
Ġned els
Ġaud iniai
ÄĹl us
ĠS ij
Ġvai v
ĠtaÅ¡k ais
p ui
Ġl ep
ĠÅ¡ aÅ¡
Ġv ls
Ġinvesti cijas
Ġty Äįia
ev os
Å½ vaigÅ¾
ĠÅ¾uv ys
Ġinteres ai
Ġfilm avimo
Ġcentr ui
Ġpried us
Ġnetol er
Ġnat rio
ĠT IK
Ġvyn uog
19 19
irink ti
ĠkrikÅ¡Äįion ys
c us
ĠA U
Ġgyv i
uÅ¡ o
Ġpatais as
Ġneatsi Å¾vel
rex it
Ġbr uoÅ¾as
up ti
Å½ ini
ons as
Ġbaigi a
Ġskirtum Å³
Ġatom inÄĹs
Ġsudalyv auti
T T
ĠS iau
Ġtap etai
Ġapmok ÄĹti
ĠsusimÄħ styti
tik lis
ĠU gn
Ġprid er
L ib
Ġnor ÄĹjosi
ĠD u
Ġvadov ais
amin tas
Ġnor ÄĹsite
ĠS amsung
Ġsu valdyti
Ġvartoj ant
Ġinvesti cija
Ġsusie ti
Ġpo z
Ġdy dÅ¾iai
Ġprezid entÄĹs
Parod os
Ġvien aip
Ġgr ani
Ġpl Å«d
ĠJ ov
AM A
Ġnenori te
y z
in tuvai
ĠpanaÅ¡ ius
ĠprieÅ¾as timi
Ġkvap Å³
ĠÅ¾emÄĹlap is
ĠV aiÅ¡
Ġpasis ek
ĠminÄĹ tas
Ġmet e
Ġjaun atv
Ġtvir tos
Ġvi olet
Ġpavel dÄħ
Ġpipir ais
ed as
Pr og
Ġatskir os
kaiÄįi uojama
Ġnereikal auja
Ġkontra cep
Ġpedagog as
Ġsusik Å«r
ĠsÄħskai tÅ³
BÅ« kite
Ġaprib ojimÅ³
Ġarab Å³
f ic
v ent
Ġk rakm
vie tÄĹs
Ġatvir Äħ
Ġgyv end
Ġman iki
uotos e
Ġsubjek to
Ġ9 3
aks as
ĠÅ¡aldy tuve
Ġpasilik ti
Ġatsak ymai
Par uoÅ¡
Nem aÅ¾ai
as men
Ġnen uk
ĠtÄĻs ÄĹsi
AC IJOS
Ġkonkr etÅ³
L V
eto oth
ĠrÄĹm imo
Ġatspar umÄħ
ĠRom ual
Ġret karÄįiais
Ġatkov ojo
Ġkel eiviai
Ġvirtuv ÄĻ
Ġjurid inio
Ġgel s
Ġgyn ÄĹjas
Ġneats kl
Ġkompens uoti
L og
ĠMar g
ĠÄ¯pras tÅ³
Ġsiurb liai
Ġsen ÄĹjimo
Ġlik usÄ¯
ĠAp ple
Diev o
Ġ4 50
Ġekonom iÅ¡kai
Ġlaboratori jos
Ġneform aliojo
N amÅ³
un do
Ġtuoj au
ĠPeterb urgo
Teigi ama
z ÄĻ
Ġkoply Äįia
Ġspausd inimo
Ġtaip ogi
ĠLaim a
Ġlie mens
ĠlaiÅ¡k o
Ġdep utat
at inÄĹs
ĠK ab
Ġpiliakal nio
Ġm ÄĹ
ĠvÄĹÅ¾ ys
FOR MA
Ġsant uok
ĠL G
Ne w
ĠtreÄįi osios
Sm agu
l erio
Ġsk el
Ġpasi tinka
ĠraÅ¡ tai
Ġkarjer a
ĠaukÅ¡t esnÄĹs
Ġrenk ami
ĠiÅ¡ bl
ĠUniver siteto
Ġpak ran
tor inis
Ġpristat oma
Ġinv az
Ġvienuo lik
Ġministr u
Ġpuslap iuose
Ġneai Å¡ki
ĠSlov ÄĹn
ĠJ Ä¯
Ġer dvi
Ġvis ad
Ġl imi
Ġpasi auk
ĠneuÅ¾ tenka
Ġstebuk las
DÅ¾iug u
Ġkil s
in oje
ĠVis uomenÄĹs
Å¡k omis
ĠpaÅ¾ angos
ĠaukÅ¡ tus
Ġry t
ĠD yzel
Ġdarbdav iÅ³
Ġj okie
ĠM it
Ġp aukÅ¡Äįi
Ġhier arch
Ġpasaul inÄĹs
Ġfilm uose
Ġnus ir
Ġlap o
Ġartim uosius
ud u
Ġnuo b
Ġrank darb
t Å«ri
Ġpil kos
Ġind ÄĹlÄ¯
MaÅ¾ eikiÅ³
Ġstud ijÄħ
ĠmaÅ¾ esnÄĻ
entÄĹ ti
oros kop
Ġnusi Å¡yps
Ġkaim ai
med Å¾iÅ³
pr om
Ġspaus dinti
f t
Ġlab ir
Ġdirek cijos
ĠreÅ¾ imu
Ġl ovÄħ
ab i
Ġper mat
Ġgyv Å«nas
ĠiÅ¡si pil
Ġpav ers
Ġprofes ija
l ing
Ġg ad
ĠD us
vel n
Ġsign alas
Ati dar
ĠMies to
Ġfinan siÅ¡kai
pr of
Ġinstitu tÄħ
Ġkav inÄĹs
Ġsal dÅ¾i
ĠKan adoje
ĠSkandinav ijos
Ġvalstyb inis
Buv ÄĻs
ĠgÄĹl ÄĹmis
M G
ĠaukÅ¡Äįi ausias
in tojo
ĠN ic
Ġatsirad imÄħ
Ġti pai
ej er
ĠraÅ¡ y
Ġpritaik ytos
yk is
Ġtr am
Ġtr eti
Ġ196 8
Ġtams oje
Ġded ame
Ġarm ija
emi um
Ġskr ydÄ¯
ut ais
ĠM B
Ġdirb anti
Ġpristat omi
Ġapa Äįia
Ġkar e
ĠJas ik
ĠslÄĹn yje
Ġkrov inius
Ġkonkr eÄįius
Ġleis tis
Ġraj onÄħ
d an
om ÄħjÄ¯
gal ima
Ġpok ario
D iena
n an
Ġram ina
ĠreikÅ¡m ingas
Ġj unt
pos t
ĠprotÄĹ viÅ³
Ġkor teles
Ġnes lÄĹpÄĹ
iz mÄħ
Ġorganiz uojam
ĠkrÅ« tinÄĹ
ĠsÄħskai toje
Ġpig us
N uk
Ġkeli amus
Ġpak etÄħ
Ġparti jai
Ġpanaudoj imas
ri t
Ġnuo g
usi omis
Ġc uk
ĠiÅ¡s imok
om ÄħjÄħ
enk sm
ĠT iÅ¡k
Vyr ai
ek os
ĠV yk
ĠT a
tar ÄĹ
Ġprof sÄħjung
Ġst Å«k
ĠleidÅ¾i antis
ĠAr tim
ĠiÅ¡gyven o
ori ui
Ġnu tuk
ĠÄ¯vairi ai
Ġkuo pos
Ġw h
NuoÅ¡ irdÅ¾iai
ĠvieÅ¡ nag
Ġpritar ia
Ġsaug Å³
enki tÄĹs
Ġtur ÄĹdami
Ġkos met
ĠEgid ijus
Ġgal Äħ
Ġra fin
Ġlank osi
Ġatk uri
Ġmyl imÄħ
ĠapskaiÄįi uoti
ĠÅ¾aid ÄĹjams
Ġvasar Ä¯
Ġpagalv ojau
oki u
Ġdv iems
Ġvalsti joje
uo te
ĠAr mÄĹn
ĠsavivaldybÄĹs e
Ġfak toriÅ³
Pat al
Ġmem bran
uo liais
lo ok
Reng inys
Ne abej
Ġreguli uoja
Ġkonf isk
Ġgyven am
Ġdr as
Ġnam ais
ĠmÄĹnesi ui
Ġ2 30
Ġklini ka
Ġlietuv io
Ġry tinÄĹje
ĠMad ri
ĠV ÄĹl
Ġrink tinÄĹje
Ġarch e
Merg ina
A ir
ĠaukÅ¡ ti
Ġkrik Å¡to
ĠrÅ«k yti
Ġteras a
Ġri Å¡
ĠdÄĹk ingi
Ġne pras
Ġ197 8
Ġpis tol
ĠiÅ¡skir tinÄĹs
ĠKunigaikÅ¡tys tÄĹs
Ġsen elis
a jos
Ġdid esnes
Ġbaig tas
ĠKaz ys
ĠKub ilius
tin ant
ĠC K
At nauj
Ġnuv eik
Ġduk tÄĹ
ï¼ Į
V U
Vien ame
Ġkap Å³
ĠBraz ilijos
Ġrib otas
Net ur
Ġsr ovÄĹ
Ġpokalb iai
ĠmobiliÅ³ jÅ³
Ġpat y
ĠpasiÅ«l yta
Ġspor tÄħ
Ġlaiv Äħ
in amo
in tume
tat a
Ġmikro b
Ġmini os
197 5
Ġadministrac inio
Ġdukr os
ang Å«s
Ġch r
Ġorkes tro
Ġ198 3
Ġpenkias deÅ¡imt
Ġgyn imo
Ġses ijos
Ġpanaudoj ant
Ġver Äįiau
Ġpapras to
ĠpaÅ¾eid imai
Ġkelion ÄĹje
Ġpaver Äįia
Bendr ovÄĹs
Ġkomentar Äħ
Ġsupjausty kite
Ġvis iÅ¡kÄħ
Ġpasi traukti
Ġantr op
Ġap tiko
Ġnuolat inio
Ġpai ni
AukÅ¡ tos
Ġbend rav
Ġspeci aliu
ĠiÅ¡tr inti
urn ak
Ġprogram omis
ek onom
ĠmaÅ¾ esnÄ¯
ĠE B
ĠÄĮ ia
Ġtradic inÄĹ
ĠpriÄĹm imÄħ
Ġkonserv atyv
ĠpaÅ¾Ä¯st amÅ³
Ġj uolab
ĠpadÄĹ tyje
Ġult rag
Ġasmen imis
ĠÅ¡al imis
ĠieÅ¡k ome
Ġfinans ines
Ġatei Äįiai
Ġgaranti jÄħ
Ġmug ÄĹs
ĠR ek
Ġlang as
ĠTaurag ÄĹje
ag ar
Ġspar n
Ġaud inius
Ġpie tinÄĹje
Ġkri tuliÅ³
Ġrung tyje
ĠmiÅ¡ inÄ¯
ĠÅłveicar ijoje
ni c
Ġgam ykloje
Ġd us
Ġr ÄĹ
Ġbal z
Ġlaik omasi
ĠO g
ĠkaÅ¾ in
Ġkil mÄĻ
Ġlygi aver
ĠmarÅ¡ru tas
Ġlim f
Ġne ribo
Ġkandid atai
Ġ19 30
Ġasmen inÄĹ
Ġpusry ÄįiÅ³
K O
ĠVal anÄįi
ĠpieÅ¡ ti
ĠBrius elyje
ĠdidÅ¾i ausio
Ġstai giai
J apon
Ġpad ÄĹkl
ðŁ ĺ
U kmerg
ĠH otel
ĠÄĮ er
i Phone
in Äį
Ġmotyv acijos
Ġastr onom
ĠA C
tem pti
Ġfas ado
Ġgyven antiems
ĠnatÅ«r alÅ«s
Ġankst esniÅ³
ar ais
Ġneap l
Ġistor inÄĻ
ĠÅ¡i ta
Ġcentr us
ĠÄĮ empi
ĠH els
ĠreiÅ¡k iniÅ³
Geri ausiai
ĠNap ole
MES IO
Ġsp ir
tin tos
Ġprad ÄĹjusi
K AS
t ÄĹmis
v ÄĹp
ĠP lotis
tum ti
ĠpaÅ¾ Ä¯sta
Ġpas en
Ġdirb iniÅ³
ĠÅ½ iÅ«r
Ġbend ravo
Ġarb atÄħ
Nuos tabi
Ġinter ven
Ġseptyni as
Ġautobus o
T ransporto
ri ki
ec o
ĠleidÅ¾i asi
Ġkok os
Ġrengi amos
ĠpabÄĹg o
Ġb eri
je vas
ĠÄ¯r engi
tab il
Ġ ait
ĠmaÅ¾ ylis
Pop ie
ĠS idab
Ġnes ijau
Ġsuteik tÅ³
Ġat ÄĹmimo
vi Å¡kiÅ³
Ġatsi rib
ok uro
Ġtur ÄĹÄįiau
Ġmergin oms
Ġjau nik
ĠÅ«k ininkams
ÑĢ Ðµ
Grup ÄĹs
Ġvidur inÄĹje
Ġbank Äħ
ĠmÅ«Å¡ is
ĠvabzdÅ¾i Å³
t ymo
ĠM ur
Ġkamp Äħ
Ġaus Å³
Ġra cional
ĠK et
ĠraÅ¡ ykite
Ġb ab
Ġvadov ybÄĹs
Ġdid inimo
Ġprak tiniÅ³
ĠuÅ¾tikr inant
ĠÅ¾v yr
ĠparuoÅ¡ ÄĹ
Ġpavel das
Ġdefek tu
Ġkompozi toriÅ³
ĠsumaiÅ¡ ykite
ĠuÅ¾ me
ĠteÅ¡ la
Ġpasik eis
Ġapsigyven o
ĠÄ¯stat ymais
Ġdvas inÄĹs
ĠâĢ Ŀ
per s
ĠV irb
Ġvestuv ÄĹs
ĠÅ¡ auki
Ġpoil sÄ¯
Ġnaci on
R espublik
ri ve
Ġr ent
Ġvis uma
G ro
yd i
Å¾in ys
Ġpristat ome
Ġtechn inÄĻ
Ġkil ÄĻ
Ġkvie ÄįiÅ³
ĠiÅ¡d uoda
Ġgarb ÄĻ
ku lio
Ġnug arÄħ
ĠtreÄįi oji
Ġkosmos o
Ġdang us
trÅ«k ti
ĠProd uk
uk ytÄĹs
Ġpl onas
ĠÅ¡m aikÅ¡
G ri
ĠR okas
ĠneÄ¯gal iesiems
ĠÅ¡ mei
Ġsugalv oti
ej aus
up i
Did elÄĹ
ĠU ten
Ġ197 2
j uo
Ġbu tai
ori Å¡kai
Ġkr uv
Tik ÄĹtina
Ġsanty kiams
Ġautobus as
ĠmarÅ¡ru tu
Ġpasirink imu
Ġlie Äįia
iÅ³s kite
ĠO na
Ġnetur ÄĹjau
Ġpriva tiz
v ÄĻ
ĠK uz
Ġnauj ov
Ġnu dÅ¾iug
Ġpatik imÄħ
ĠNÄĹr ies
ĠF in
Ġpergal es
ĠÄ¯mok os
N O
Ġl aÅ¾
Ġnes veik
l iniÅ³
Ġkup inas
ĠPu tino
ĠBen edik
S and
Ġplan uojate
Ġvil ÄįiÅ³
Ġpramog a
Ġlaure atas
k er
Ġrank oje
Ġnuovarg is
1 000
Ġprogram inÄĻ
ĠB oris
Ġtiek imas
Ġnegali Äħ
Ġskelb imus
aik Äħ
st rav
ĠgÄĹr imus
Ġsp i
vir us
Ġmal Å¡
Ġlaik ÄĹsi
ĠEl ena
Ġin do
ĠsumaiÅ¡ yti
ĠÅ¡ rif
Ġpris ig
s es
Ġnaudoj u
Ġkonsulta cijÅ³
Ġpapli tusi
Ġatsiras tÅ³
Ġvestuv ÄĹms
Pok alb
Ġ19 33
Ġpadar iau
Ġdu jas
ĠSÄħjung Äħ
ĠGarg Å¾
ĠÄ¯vaizd is
Äįi ausiÅ³
Ġat verti
auk is
ĠÄ¯rod yta
Ġstabil umÄħ
Muz ikos
Ġpard uodu
BÅ«d amas
z ijos
ĠapibrÄĹÅ¾ ti
Ġekonom inio
ĠPl us
al inÄ¯
ĠSod Å³
Ġkredi tÄħ
Ġklini koje
Ġsu kib
ry Å¾i
ĠÅ¾id inio
G ab
Ġprie inamas
Ġtaik o
ĠSal om
in ais
Ġaus is
d intas
rabu Å¾iai
T iems
Ġnedid elÄĻ
ra gi
194 9
Ġfili alo
Ġlai vai
ĠMod elis
Ġprog ai
ĠG arb
Ġa kir
ĠneuÅ¾ si
Ġ198 2
Ġmikro organiz
Å¡k oje
Ġeki pÄħ
Ġbi ologijos
Ġsusij usiÄħ
Ġkop ijÄħ
ĠpapuoÅ¡ alÅ³
AtsipraÅ¡ ome
Ġt egu
Ġmed inÄĹ
Ġatsir and
Mies te
ĠGir ÄĹno
Ġk anÄįios
Ġd z
Ġteis ÄĹjai
Ġ10 4
Ġtur as
Ġvar io
Ġgam inys
Ġklas ika
ĠÄ¯kv epia
Ġpalaid otas
Ġtav imi
Ġd au
ili akal
Ġtik ÄĹjo
Ġimp erija
Ä® tar
Ġpan ev
Ġsto ka
sto mas
ys im
Ġtink amus
Ġkompozi cijos
ĠaÅ¡tuo ni
Ġneg ailes
Ġtrauk iniÅ³
Ġhomos eksu
ĠKazach st
ĠiÅ¡p li
as tro
Ġmet iniÅ³
ori ais
ĠKom piu
am il
ĠplÄĹ to
tyv iai
J ose
Ġp ami
Ġtris palv
Ġpaved imu
ĠÄ¯amÅ¾ inti
Ġmet alÅ³
men as
Ġtr op
An tras
tin giau
Ġdv el
Ġnesu pras
Ġmegz tiniai
! "
ĠT omo
Ġsveik ino
Ġ2 40
antys is
ĠS id
ĠS uk
Ġlig oms
eÅ¡ a
ĠÅ¾in ojau
N eiÅ¡
l im
in anÄįias
Ġt yli
an te
Ġvaliu tÅ³
Ġteis inÄĻ
zd a
ĠbÅ« tinos
ĠpirmÄħ kart
ĠÅ¡iaur inÄĹje
Ðº Ð°
B ÄĹg
ĠAuÅ¡ ros
T urn
vi to
Vien in
ĠpoÅ¾ym ius
in tojas
Ġper n
Ġrib ose
ed ijÄħ
Ġnepriklaus o
Ġsusirg ti
b ei
ĠS par
ĠR ap
ĠmaÅ¾ ieji
Ġhidr aul
N E
Ġsvaj oja
Ġpul s
ĠBir utÄĹs
Ġkorup cija
Ġpavalg yti
ĠN ag
Ġmalon umo
ĠuÅ¾dar ymo
ini k
ĠÄ¯dieg ta
v asar
ĠPardav ÄĹjas
ĠVisag ino
ĠraÅ¡ iau
ĠpraÅ¡ ymÅ³
Ġaksesu arÅ³
Ġdukr Äħ
B enz
Ġsun audoj
Ġpartn eriu
ĠNor s
Ġsuprant ame
Ġkoreg uoti
, "
Ġvertin ant
Ġstikl inÄĹs
Ypat ingai
Ġtur istai
Ġform omis
Ġnuostabi Äħ
G lob
ĠO ne
Ð½ Ð°
Ġbaud Å³
Ġvis iÅ¡kas
Ġdy dÅ¾iu
ĠvieÅ¡bu Äįius
yb inius
Tik r
ĠBend rijos
ĠBenz inas
uo liams
et s
Ġilg esnis
Ġskaus mai
Ġpyk Äįio
P ol
Ġp ump
ĠÅł er
Ġb aÅ¾nyt
yb ÄĹn
Ġpasik onsult
ĠK Å«
Ġmetod ika
Ġteb uvo
Ġneg ail
Ġsvetain es
ĠSp ort
ĠskaiÄįi umi
Ġsusitaik yti
ĠS M
Ġpri art
Ġpadar ytÄħ
Inter neto
Tra kÅ³
ĠMedÅ¾i aga
AM S
Î ¿
ali ui
ĠU SD
Ġpral aid
ĠGint autas
Ġnu film
Ġkop Å«st
Ġpapli tÄĻs
Å¡k asis
ĠA N
Ġmok s
Ġpui ku
ĠminÄĹ tÄħ
Ġdis pon
ĠÅ¾enkl ais
Ġprofi liÅ³
S il
Ġl ing
Ġtarn ybai
Ġup elio
Ġs ed
tat e
ĠKl aus
Ġsusirink ime
ĠÄ¯steig ti
ĠpasipuoÅ¡ ti
ĠP or
ĠÅ¾v ÄĹ
Ġveiki anÄįios
uv Äħ
usi uosius
Ġmie ga
Ġvalstyb ÄĹms
Ġkamp e
ĠplÄĹv elÄĹs
Ġatidav ÄĹ
Ġd en
Ġmin ÄĹjo
ĠuÅ¾tikr inimo
ĠM etÅ³
Ġkor oz
Ġprad ÄĹtos
Ġatim ti
ĠÅ¾iniasklaid ai
Ġfiz inÄĻ
Nak v
Ġkad encijos
ĠV as
yt ÄĹmis
Ġpastar asis
Å¡ im
ĠbÄĹd Å³
ĠÄ¯skai toje
M ind
Ġaplank o
iel d
G R
Ġat metÄĹ
Ġpat ep
ĠiÅ¡man i
Ġvykst ant
Åłal ies
G l
ĠY ork
Ġtransport avimo
Ġsus ting
Ġneb r
ĠÄ¯spÅ«d inga
Ġd uod
ĠAu tomat
Ġn au
Ġsk ied
Ġmok amas
Ġmin int
ac inius
Ġg ob
ĠÅ½ ib
ĠÅ¾ iedo
Ġper eina
Ġkon di
Ġhoriz on
keln ÄĹs
Ġveiki ausiai
S L
n en
Ġsul aikÄĹ
ĠdÄĹk ojame
Ġnesud er
Ġsk Å³
Vie toj
M el
Ġpav akar
Ġpirk ÄĹjams
Ġatgaiv inti
ĠB on
ĠpajÄĹg as
ĠOland ijos
ĠÄ¯Å¾vel gti
Ġdal inosi
Ġpard uota
Ġkonkur uoti
Ġpiln aver
ori uje
Sp orto
Ġsav ik
tr an
Ġd antu
ĠpasiÅ«l ys
Ġbalt ymai
Ġgalu tinÄ¯
ĠVladim iras
R oÅ¾
al Å¡
ĠB og
Ġnauj ausi
Ġdirek torÄĹs
Ġlauk ai
Ġvienin telÄ¯
ĠkvÄĹp uoti
H er
Ġgyven imus
ĠiÅ¡si vad
ĠkultÅ«r inÄĹs
Ġvarik liu
Ġpasil ieka
19 50
Ġklaus ti
Leng vai
Ġvi tr
ĠÄ¯var dinti
Ġsiek dama
Ġpasak ojimo
ĠAd ministra
Ġskur do
Ġpapil das
Ġtarptau tiniu
ĠÄ¯vair ove
r eto
ĠF M
Ġorganiz acijai
Ġslap yv
T aik
Ġgel tona
ĠÅ¡eim ininkÄĹ
Ġkrem Äħ
Ġmak Å¡
Ġal Å³
Ġfig Å«ra
Ġ} );
L G
am on
ĠL V
Ġrink Å³
Pas in
Ġpj aust
at iniÅ³
ĠÄ¯raÅ¡ ytas
Uni ver
Ġvicepr ezid
M ÄĹn
Ġin takas
Ġram ybÄĹ
Ġpav ÄĹl
Ġdok tor
f ak
s ub
Ġsvies tu
ĠT eatro
ĠS uv
Ġpar azi
Å«k o
Ġsusitik s
Ġsusir enka
Ġtrem tiniÅ³
Ġatmint yje
Ġ( +
Ġnuo to
G ars
Ġkvep i
Ġk eik
Ġs uoli
Ġauto rÄĹs
Ġdarbdav io
v u
Ù Ī
ĠKr ymo
Ġ10 5
inamas i
Ġpig iÅ³
Ġpoli tinÄ¯
Ġdi agr
Ġprogram ose
Ġaspek tai
Ġfr om
Ġsus tojo
Ġstatis tikÄħ
ĠatpaÅ¾ Ä¯st
uotÅ³ jÅ³
Ġsuprant amas
ĠKol umb
S amsung
Ġb ep
per is
Ġartimiausi Äħ
Meil ÄĹ
dÅ¾i uose
Ġdraug iÅ¡kas
ÄĹli ui
ĠmarÅ¡k iniai
Ġpla Äįia
Ġpati eki
Ġatnauj inta
Ġgrand in
Aps ilank
Ġdvej etÅ³
Ġnuotol iniu
e kio
poz ic
Ġsm al
vad as
ĠdidÅ¾iul ÄĹs
ĠposÄĹ dÅ¾iÅ³
ingi o
av imosi
Ġpav erg
ĠSim on
A dv
au tojÅ³
Ġnauj Å³jÅ³
h os
ĠV II
Ġkoki ai
Ġatl etikos
Ġbr Å«kÅ¡
Ġdang umi
ĠS ad
Ġlengv os
ĠKalÄĹd os
ĠuÅ¾sir egistrav
Ġpaslap tÄ¯
c inius
Ġpersonal as
om er
ĠÅ¡ onÄħ
ĠaukÅ¡ tosios
Ġpoez ija
Ġdoz ÄĹs
Ġaukl ÄĹjimo
Ġk ÄĹbulo
Ġvisuomen inÄĹs
Ġprepar atÅ³
Ġseminar us
Ġaspek tÅ³
om ieji
ĠT aigi
Ġvakar ienÄĹs
UÅ¾s ienio
ĠStok hol
f ai
Ġgarb ÄĹ
Ġm oki
ĠB il
Ġgav ome
Of ici
Ġ ï¿½
Ġpas akius
Ġkop Å«s
Ġvarg on
Ġsij on
h as
un as
Ġpoli cijÄħ
ĠgrÄĹs m
Ġvaik ino
Ġtais yti
ĠÅ¡vies tuvai
eik os
Ġpor tu
Ġpaveiksl ai
B lu
Ġaktyv ios
inam ojo
Ġlauki ami
ĠM eÅ¡k
ĠR io
E f
ĠaukÅ¡Äįi ausia
ĠAl l
Ġsuteiki amas
Ġilgalai kio
al es
usi oms
ĠÅ¾aid ÄĹjus
ĠPran as
Ġkelion ÄĹms
ĠiÅ¡band ÄĹ
omet ro
I Å¡ki
tik tinai
Ġ1 18
ĠiÅ¡skir tiniÅ³
Ġl ÄĹliÅ³
Ġapsi k
Ġk iet
Ġs olo
aik is
Ġgyv Å«no
Ġgaun ama
Ġsvaj ones
Ġ197 4
ĠvaÅ¾ inÄĹti
Ġlaz er
ĠDyzel inas
B N
Ġf i
Ġgrafik Äħ
Ġsar af
er tas
Ġreng ÄĹ
ĠKur Å¡
Ġmodern us
Profesi onal
ol fas
ĠG il
ĠdaÅ¾ yti
li do
alis tai
Ġkoncer tavo
Ġnepas ieki
Ġspeciali osios
tiÅ¡k us
Ġrekomend acijÅ³
Ġkodeks as
Ġnar iui
Ġpaaug liams
atink lio
Ġvid e
ird ies
Ġgrei tosios
ĠsÄĹkm ingÄħ
ĠPl an
Vien oje
Ġprar and
Ġkabin ete
Ġuniversitet uose
ĠN ak
ij oj
ĠbruoÅ¾ us
Ġvaik Å¡to
Ġmetod u
Ġpaaug liai
ĠP os
tai n
ĠÄ¯v eÅ¾
ĠBal tr
Ġskat ino
ĠG lob
Ġtobul as
Ġprab angos
ti eÄįiai
Ġpasak ys
Ġnaudo tÅ³
Ġkav inÄĹje
Ġr ÄĹk
ĠJ ulius
ug e
Ġelektr om
Ġras ime
Ġsustipr ina
ĠVirgin ija
Ġpasibaig ÄĻs
ĠAud ron
Ġlaikrod Å¾io
man u
Ġpadal inys
ĠiÅ¡klaus yti
Ġvis umÄħ
yl ÄĹs
ĠdÅ¾i u
Ġvanden Å³
Ġ197 7
Ä® stat
ĠkrÅ« m
ote ch
Ket uri
ĠsmÅ« gio
ĠraÅ¡ au
tiÅ¡k umas
ĠDav id
aun ami
Ġdi viz
Ġteleviz oriaus
Ġarchyv as
Ġvarik liai
ĠS tor
ĠT est
Ġel ast
Ġdirb ÄĻs
Ġklas es
ĠÄįempi onu
Ġpremjer a
Ġmon etÅ³
n ug
an au
uok liai
Ġbar jer
Nep riklausom
Ġperspektyv as
V estuv
Ġs amb
Ġkoj inÄĹs
Ġtaup ymo
Ġpas Äħmon
Ġsin ag
ut look
ĠÄ¯rod ymas
Ġpirm Å³
ĠdeÅ¡imtme ÄįiÅ³
Ġbend rija
ĠC ap
dom Å³
Ġjuos toje
Ġgyven tojais
ĠÄ¯tvirtin ti
Ã «
ĠX L
ĠsÄĹd ÄĹjo
Ġskys tis
Ġpanaud ota
Ġl ev
Ġpasinaud ojo
ÄĹ tojo
n uol
IÅ¡ vyk
ĠÄ¯ brÄĹÅ¾
Ġcentr inis
ĠÅ¡vie Äįi
Ġpardav ÄĹ
A uk
Ġsk ar
Ġgr amÅ³
ĠnemaÅ¾ as
Ġporeiki ui
ĠpavirÅ¡i umi
p ur
Ġtur imas
aliz uoja
Ġpoveiki u
Ġne valg
Ġgird i
P aÅ¾i
Ġpras isk
au liai
[...]
