{"<s>":0,"<pad>":1,"</s>":2,"<unk>":3,"<mask>":4,"!":5,"\"":6,"#":7,"$":8,"%":9,"&":10,"'":11,"(":12,")":13,"*":14,"+":15,",":16,"-":17,".":18,"/":19,"0":20,"1":21,"2":22,"3":23,"4":24,"5":25,"6":26,"7":27,"8":28,"9":29,":":30,";":31,"<":32,"=":33,">":34,"?":35,"@":36,"A":37,"B":38,"C":39,"D":40,"E":41,"F":42,"G":43,"H":44,"I":45,"J":46,"K":47,"L":48,"M":49,"N":50,"O":51,"P":52,"Q":53,"R":54,"S":55,"T":56,"U":57,"V":58,"W":59,"X":60,"Y":61,"Z":62,"[":63,"\\":64,"]":65,"^":66,"_":67,"`":68,"a":69,"b":70,"c":71,"d":72,"e":73,"f":74,"g":75,"h":76,"i":77,"j":78,"k":79,"l":80,"m":81,"n":82,"o":83,"p":84,"q":85,"r":86,"s":87,"t":88,"u":89,"v":90,"w":91,"x":92,"y":93,"z":94,"{":95,"|":96,"}":97,"~":98,"¡":99,"¢":100,"£":101,"¤":102,"¥":103,"¦":104,"§":105,"¨":106,"©":107,"ª":108,"«":109,"¬":110,"®":111,"¯":112,"°":113,"±":114,"²":115,"³":116,"´":117,"µ":118,"¶":119,"·":120,"¸":121,"¹":122,"º":123,"»":124,"¼":125,"½":126,"¾":127,"¿":128,"À":129,"Á":130,"Â":131,"Ã":132,"Ä":133,"Å":134,"Æ":135,"Ç":136,"È":137,"É":138,"Ê":139,"Ë":140,"Ì":141,"Í":142,"Î":143,"Ï":144,"Ð":145,"Ñ":146,"Ò":147,"Ó":148,"Ô":149,"Õ":150,"Ö":151,"×":152,"Ø":153,"Ù":154,"Ú":155,"Û":156,"Ü":157,"Ý":158,"Þ":159,"ß":160,"à":161,"á":162,"â":163,"ã":164,"ä":165,"å":166,"æ":167,"ç":168,"è":169,"é":170,"ê":171,"ë":172,"ì":173,"í":174,"î":175,"ï":176,"ð":177,"ñ":178,"ò":179,"ó":180,"ô":181,"õ":182,"ö":183,"÷":184,"ø":185,"ù":186,"ú":187,"û":188,"ü":189,"ý":190,"þ":191,"ÿ":192,"Ā":193,"ā":194,"Ă":195,"ă":196,"Ą":197,"ą":198,"Ć":199,"ć":200,"Ĉ":201,"ĉ":202,"Ċ":203,"ċ":204,"Č":205,"č":206,"Ď":207,"ď":208,"Đ":209,"đ":210,"Ē":211,"ē":212,"Ĕ":213,"ĕ":214,"Ė":215,"ė":216,"Ę":217,"ę":218,"Ě":219,"ě":220,"Ĝ":221,"ĝ":222,"Ğ":223,"ğ":224,"Ġ":225,"ġ":226,"Ģ":227,"ģ":228,"Ĥ":229,"ĥ":230,"Ħ":231,"ħ":232,"Ĩ":233,"ĩ":234,"Ī":235,"ī":236,"Ĭ":237,"ĭ":238,"Į":239,"į":240,"İ":241,"ı":242,"Ĳ":243,"ĳ":244,"Ĵ":245,"ĵ":246,"Ķ":247,"ķ":248,"ĸ":249,"Ĺ":250,"ĺ":251,"Ļ":252,"ļ":253,"Ľ":254,"ľ":255,"Ŀ":256,"ŀ":257,"Ł":258,"ł":259,"Ń":260,"ai":261,"in":262,"Ġp":263,"ÄĹ":264,"as":265,"Å³":266,"Ġk":267,"Ġs":268,"ti":269,"au":270,"Å¡":271,"os":272,"ie":273,"al":274,"ar":275,"Ġi":276,"Å¾":277,"Ġt":278,"Ġn":279,"is":280,"an":281,"us":282,"Äħ":283,"Ġv":284,"Ġd":285,"Ġm":286,"am":287,"im":288,"en":289,"at":290,"Ä¯":291,"ri":292,"Ġir":293,"âĢ":294,"Ġb":295,"Ġg":296,"ei":297,"Å«":298,"er":299,"uo":300,"li":301,"ki":302,"to":303,"ÄĹs":304,"ra":305,"Äį":306,"es":307,"Äįi":308,"Ġj":309,"on":310,"av":311,"et":312,"ij":313,"ad":314,"ĠÄ¯":315,"Ġr":316,"Ġsu":317,"Ġl":318,"je":319,"Ġpr":320,"om":321,"ĠâĢ":322,"ap":323,"aus":324,"ur":325,"ini":326,"ir":327,"ĠÅ¡":328,"tu":329,"ĠiÅ¡":330,"ak":331,"or":332,"el":333,"Å¾i":334,"Ġne":335,"ais":336,"ien":337,"ok":338,"Ġpas":339,"te":340,"ÄĹj":341,"ÄĻ":342,"tik":343,"Ġat":344,"ĠÅ¾":345,"ek":346,"tin":347,"il":348,"ali":349,"tÅ³":350,"ink":351,"yb":352,"Ġpa":353,"aug":354,"Ġap":355,"ta":356,"od":357,"um":358,"oje":359,"aip":360,"iÅ³":361,"Å¡k":362,"tas":363,"id":364,"âĢľ":365,"aik":366,"tr":367,"imo":368,"cij":369,"Ġkad":370,"ĠâĢĵ":371,"og":372,"yv":373,"Ġu":374,"uri":375,"eik":376,"em":377,"oj":378,"Ġ(":379,"si":380,"Ġy":381,"ĠâĢŀ":382,"ant":383,"Ġvis":384,"Ġ1":385,"ys":386,"arb":387,"ĠL":388,"ni":389,"ab":390,"ui":391,"ov":392,"tuv":393,"ym":394,"ol":395,"uv":396,"Ġyra":397,"Ġtik":398,"Ġsav":399,"ÄĹl":400,"gi":401,"ed":402,"aÅ¾":403,"tis":404,"ĠuÅ¾":405,"uos":406,"yk":407,"uk":408,"ĠK":409,"Å«r":410,"Ġpat":411,"and":412,"ĠV":413,"eli":414,"ik":415,"st":416,"ĠS":417,"Ġf":418,"Ġmet":419,"yti":420,"ĠbÅ«":421,"toj":422,"iek":423,"ÂŃ":424,"Ġ2":425,"ĠP":426,"ĠA":427,"ing":428,"aud":429,"Ġnuo":430,"ausi":431,"Ġar":432,"auk":433,"Ġgal":434,"Ġsk":435,"ietuv":436,"imas":437,"usi":438,"Ġprie":439,"Åł":440,"ul":441,"tÄħ":442,"Ġkuri":443,"uvo":444,"Ġo":445,"Ġpar":446,"end":447,"Ġper":448,"..":449,"Ġin":450,"Ġsp":451,"un":452,"ĠM":453,"Å«s":454,"men":455,"Ġpo":456,"ÄĹm":457,"eis":458,"ame":459,"Ġkur":460,"auj":461,"iniÅ³":462,"mon":463,"ÄįiÅ³":464,"ams":465,"dÅ¾i":466,"uoj":467,"eg":468,"Ġbuvo":469,"Ġki":470,"ci":471,"Ġkar":472,"Ġtai":473,"tos":474,"ijos":475,"oki":476,"ĠÅ¡i":477,"Ġmok":478,"Ġgr":479,"eri":480,"ank":481,"Ġvien":482,"ĠJ":483,"ag":484,"inti":485,"ĠB":486,"ÄĹjo":487,"Ġti":488,"ies":489,"ama":490,"Ġpri":491,"ĠR":492,"raÅ¡":493,"Ġ-":494,"Ġsavo":495,"Ġkaip":496,"ch":497,"tai":498,"tat":499,"Ġdaug":500,"Ġval":501,"inÄĹs":502,"Ġkai":503,"Ġats":504,"ĠT":505,"Äįiau":506,"amas":507,"acij":508,"ĠLietuv":509,"ĠD":510,"Ġtr":511,"Ġpag":512,"Ġpl":513,"00":514,"inÄĹ":515,"eiki":516,"Ġgyv":517,"pr":518,"Ġsv":519,"Ġnes":520,"imÄħ":521,"yje":522,"Ġgali":523,"eng":524,"ÄĻs":525,"iau":526,"ter":527,"inis":528,"omis":529,"Ġpro":530,"inio":531,"Ġjau":532,"ami":533,"aid":534,"tar":535,"yg":536,"yn":537,"mo":538,"Ġtur":539,"Ġdal":540,"tÄĹ":541,"rad":542,"Ġkl":543,"ĠE":544,"Ġapie":545,"uose":546,"Ġdarb":547,"ori":548,"inink":549,"kl":550,"Ġdar":551,"iÅ¡k":552,"yr":553,"Ġlaik":554,"io":555,"Ġbet":556,"iz":557,"orm":558,"Ġkon":559,"jÅ³":560,"alb":561,"aÅ¡":562,"sl":563,"Ġpav":564,"Ġpir":565,"lik":566,"avo":567,"vai":568,"Ġpad":569,"Ġvie":570,"Ġtar":571,"yd":572,"ÄĹti":573,"ĠG":574,"Ġlab":575,"kir":576,"ĠN":577,"tus":578,"Ġkom":579,"Ġgyven":580,"anÄįi":581,"ang":582,"Å«sÅ³":583,"tori":584,"Ġbei":585,"ep":586,"iem":587,"Ġnet":588,"Ġdid":589,"Ġkr":590,"ino":591,"uoti":592,"var":593,"Ġtaip":594,"Ġto":595,"Ġgalim":596,"ybÄĹs":597,"Ġak":598,"Ġc":599,"ev":600,"01":601,"jos":602,"aÄįiau":603,"liÅ³":604,"ent":605,"Å«n":606,"iniai":607,"iai":608,"up":609,"Ġver":610,"Ġnep":611,"ina":612,"osi":613,"ud":614,"Ġsus":615,"op":616,"Ġre":617,"ub":618,"ĠI":619,"Å½":620,"Ġpasi":621,"asi":622,"Ġvar":623,"ut":624,"ija":625,"Ġor":626,"eig":627,"ÄĹd":628,"kai":629,"kite":630,"Ġ3":631,"ĠLietuvos":632,"ÄĹje":633,"ose":634,"eÅ¡":635,"ind":636,"ymo":637,"Ġman":638,"ĠdÄĹl":639,"Ġvaik":640,"lio":641,"Ġkeli":642,"val":643,"ain":644,"Ġnauj":645,"esn":646,"Ġdien":647,").":648,"eikia":649,"Ġnaud":650,"Ġger":651,"enk":652,"Ġpak":653,"tim":654,"Ġlabai":655,"ykl":656,"...":657,"ĠÅ¾mon":658,"sp":659,"Ġdr":660,"âĢľ,":661,"ĠjÅ³":662,"Ġpirm":663,"Ġkas":664,"Ġiki":665,"Ġreik":666,"Ġturi":667,"Ġbend":668,"ime":669,"ĠÅł":670,"ojo":671,"ras":672,"uomen":673,"Ġa":674,"Ġveik":675,"Ġli":676,"Ġnor":677,"ĠÅ¡v":678,"Ġmed":679,"oti":680,"âĢŀ":681,"Ġpra":682,"Ġnei":683,"ver":684,"ro":685,"iems":686,"imÅ³":687,"Ġas":688,"Ġteis":689,"ÄĹg":690,"vir":691,"amos":692,"Ġarb":693,"ĠmetÅ³":694,"Ġpap":695,"ties":696,"Å¡ki":697,"ung":698,"ĠbÅ«ti":699,"Ġau":700,"ej":701,"cijos":702,"Ġsuk":703,"kas":704,"Äįia":705,"Ġes":706,"eid":707,"Ġaps":708,"tÄĹs":709,"âĢĵ":710,"Ġnus":711,"bi":712,"form":713,"Ġe":714,"ĠsÄħ":715,"odÄĹl":716,"Ġpris":717,"),":718,"Ġvad":719,"ug":720,"Ġ19":721,"Ġarba":722,"aun":723,"Äįio":724,"Ġmetu":725,"Ġkiek":726,"Ġtoki":727,"Ġjo":728,"ĠÅ¡al":729,"Å«k":730,"Ġjis":731,"ytoj":732,"vi":733,"Ġdir":734,"Ġauk":735,"gan":736,"Ġsi":737,"Ġpasir":738,"Ġneb":739,"Tai":740,"Ġ\"":741,"ÄĹn":742,"uod":743,"ja":744,"Ġkalb":745,"oma":746,"ybos":747,"Ġskir":748,"Ġgam":749,"erg":750,"iausi":751,"Ġtarp":752,"avimo":753,"lg":754,"zd":755,"Ġsud":756,"Ġvyk":757,"tais":758,"tyv":759,"Å«ros":760,"umo":761,"ĠC":762,"aig":763,"aul":764,"ko":765,"alv":766,"Äįius":767,"esi":768,"ÄĹmis":769,"Ġbus":770,"Ġ201":771,"Ġ4":772,"anti":773,"olog":774,"Ġ5":775,"Ġpal":776,"Ġtiek":777,"imai":778,"ada":779,"Ġel":780,"ting":781,"ĠmaÅ¾":782,"ÄĹtÅ³":783,"Ġte":784,"lo":785,"sti":786,"oms":787,"ĠVil":788,"pi":789,"Ġmo":790,"inÄ¯":791,"Äįiai":792,"Ġtikr":793,"ĠiÅ¡s":794,"inius":795,"Ġek":796,"ĠtaÄįiau":797,"ĠprieÅ¡":798,"yl":799,"ĠnÄĹ":800,"elis":801,"uli":802,"az":803,"tÄ¯":804,"Ġant":805,"ono":806,"me":807,"acijos":808,"antis":809,"Ġdaugiau":810,"Ġauto":811,"Ġbal":812,"Ġnam":813,"imus":814,"uz":815,"ĠmÅ«sÅ³":816,"ome":817,"Ġgalima":818,"iej":819,"Ġkurie":820,"ka":821,"Ġrink":822,"auti":823,"cial":824,"uoja":825,"tem":826,"Ġneg":827,"ĠÄ¯si":828,"mog":829,"Ġtink":830,"Ġprog":831,"Ġjos":832,"vien":833,"ez":834,"Ġan":835,"Ġmies":836,"19":837,"Ġprad":838,"Ä®":839,"Äħj":840,"irÅ¡":841,"kr":842,"ĠpaÅ¾":843,"âĢľ.":844,"inÄĻ":845,"pa":846,"tel":847,"Ġproc":848,"Ġra":849,"pl":850,"vie":851,"Ġbendr":852,"Ġpam":853,"ganiz":854,"Ġpask":855,"dom":856,"Ġbe":857,"Ġh":858,"Ġatv":859,"Ġsen":860,"ums":861,"ĠÄ¯vai":862,"aÅ¾i":863,"Ġst":864,"Åłi":865,"ĠÄ¯r":866,"entr":867,"mas":868,"ĠU":869,"Ġsusi":870,"liau":871,"liai":872,"Ġsut":873,"Âł":874,"ard":875,"met":876,"it":877,"Ġasmen":878,"Ġkok":879,"Ġdalyv":880,"Ġvid":881,"aiÅ¡k":882,"ojek":883,"ymas":884,"ius":885,"cija":886,"ÄĹk":887,"ait":888,"ĠÅ¾mog":889,"aim":890,"kiÅ³":891,"amb":892,"yri":893,"Ġreikal":894,"Pr":895,"klaus":896,"ĠaukÅ¡":897,"ĠdaÅ¾":898,"Ġsak":899,"mok":900,"trauk":901,"abar":902,"ĠÅ¾em":903,".,":904,"Ġinter":905,"inimo":906,"Å«d":907,"osios":908,"Ġ6":909,"ult":910,"Ġjie":911,"Å«l":912,"Vis":913,"eb":914,"ĠF":915,"imu":916,"Ġvai":917,"tov":918,"tinÄĹs":919,"Ġpus":920,"Ġvalst":921,"Ġorganiz":922,"Ġsvarb":923,"Ġinform":924,"istem":925,"ans":926,"ĠnÄĹra":927,"Ġmat":928,"sta":929,"ĠVilni":930,"ĠEur":931,"ĠuÅ¾s":932,"rind":933,"uotoj":934,"ĠbÅ«d":935,"Ġmin":936,"ens":937,"akar":938,"Å³jÅ³":939,"ic":940,"Ġpan":941,"ausiai":942,"teri":943,"na":944,"Ġapl":945,"Ġilg":946,"Ġatsi":947,"Ġnar":948,"Ġpasl":949,"Ġpoli":950,"ig":951,"Å¾iÅ«r":952,"Ġsistem":953,"Ġkuris":954,"Ġtap":955,"ĠbÅ«tÅ³":956,"ac":957,"Ġjog":958,"Ġniek":959,"Ġtam":960,"Ġkol":961,"ÄĹsi":962,"Ġdirb":963,"ybÄĹ":964,"ĠH":965,"ĠmedÅ¾i":966,"Ġcentr":967,"Ġner":968,"Ġjei":969,"elio":970,"ĠÄ¯st":971,"ĠrÅ«":972,"Ġlietuv":973,"uoÅ¡":974,"Ġpati":975,"Ġry":976,"Ġreikia":977,"Ġal":978,"Ġsti":979,"umÄħ":980,"Pas":981,"Ġprojek":982,"Ġnaudoj":983,"Ġtuo":984,"Ġnu":985,"oli":986,"IÅ¡":987,"kur":988,"ĠÅ½":989,"Ġspe":990,"Ġvadov":991,"Ġmokykl":992,"ĠkÅ«r":993,"ia":994,"Ġspr":995,"Ġis":996,"Ġgeri":997,"int":998,"kiai":999,"ĠÄ¯v":1000,"Ġsm":1001,"ĠraÅ¡":1002,"Å¾in":1003,"eto":1004,"ijoje":1005,"ĠtodÄĹl":1006,"uol":1007,"Ġklaus":1008,"ran":1009,"teb":1010,"Ġdarbo":1011,"Ġpagal":1012,"ÄĹms":1013,"Ġmuz":1014,"Ġgrei":1015,"Ġvand":1016,"Ġgim":1017,"kÄħ":1018,"Ġveikl":1019,"rod":1020,"acija":1021,"ijÄħ":1022,"ĠmÄĹn":1023,"Ġprogr":1024,"per":1025,"ÄĹv":1026,"anÄįiÅ³":1027,"ĠaÅ¡":1028,"Ġrank":1029,"ĠO":1030,"Ġpil":1031,"oji":1032,"ima":1033,"iÅ¡kai":1034,"ĠÅ¡e":1035,"ĠkÄħ":1036,"Ġati":1037,"umas":1038,"eks":1039,"Ġstr":1040,"imui":1041,"Ġaug":1042,"ĠÄ¯vairi":1043,"yta":1044,"Ġpard":1045,"ybÄĻ":1046,"ib":1047,"Å¡kai":1048,"ail":1049,"kio":1050,"do":1051,"uje":1052,"ĠiÅ¡l":1053,"Ġgrup":1054,"Ġ8":1055,"ĠÄįia":1056,"Ġmoksl":1057,"ist":1058,"tum":1059,"Ġpasak":1060,"Ġji":1061,"Ġkiekvien":1062,"esni":1063,"âĢĿ":1064,"asar":1065,"kos":1066,"Ġsun":1067,"ĠÄ¯g":1068,"ĠEurop":1069,"ili":1070,"Ġform":1071,"Ġsaug":1072,"eidÅ¾i":1073,"nai":1074,"ieÅ¡":1075,"Ġpagrind":1076,"atori":1077,"aj":1078,"onas":1079,"amÄħ":1080,"yt":1081,"nyg":1082,"bl":1083,"Ġkoki":1084,"iniu":1085,"Ġlaiko":1086,"TaÄįiau":1087,"Ġatl":1088,"ÄĹja":1089,"Ġjuos":1090,"Ġgar":1091,"Ġpaslaug":1092,"no":1093,"Ġ200":1094,"Ġkal":1095,"Ġautomo":1096,"Ġmetais":1097,"Ġtech":1098,"Ġsveik":1099,"Ġpab":1100,"ĠLietuvoje":1101,"Ġ7":1102,"Ġpui":1103,"ate":1104,"elb":1105,"lt":1106,"ems":1107,"tina":1108,"Ġvyr":1109,"Ġnors":1110,"Ġdabar":1111,"Ġsl":1112,"eigu":1113,"Ġraj":1114,"okie":1115,"ingas":1116,"man":1117,"Ġvienas":1118,"Ġtau":1119,"vald":1120,"ÄĹjimo":1121,"amÅ³":1122,"eil":1123,"ĠÅ¾aid":1124,"ĠÄ¯mon":1125,"paÅ¾":1126,"ijÅ³":1127,"ingai":1128,"Ġvald":1129,"alÅ³":1130,"ĠdidÅ¾i":1131,"Ġaplink":1132,"tud":1133,"aliÅ³":1134,"ĠAn":1135,"tom":1136,"ef":1137,"tak":1138,"Ġkel":1139,"lius":1140,"adien":1141,"Ġsprend":1142,"Ġprof":1143,"ĠiÅ¡v":1144,"sm":1145,"ĠÅ¾in":1146,"Ġgra":1147,"eÅ¾":1148,"Ġkurios":1149,"unk":1150,"Ġpor":1151,"Ġreg":1152,"eisti":1153,"Ġstat":1154,"201":1155,"ĠjÄ¯":1156,"Ġprek":1157,"Ġim":1158,"Ġad":1159,"Å¾io":1160,"avi":1161,"Ġatlik":1162,"sn":1163,"Ġkult":1164,"Ġpasaul":1165,"Ġatsak":1166,"atv":1167,"ÄĮ":1168,"Ġpriemon":1169,"ines":1170,"Ġ10":1171,"uÅ¾":1172,"Ġdraug":1173,"Ġtel":1174,"auki":1175,"Jei":1176,"po":1177,"tor":1178,"ĠÅ¾moniÅ³":1179,"ĠÅ¡il":1180,"Ġsavi":1181,"Ġam":1182,"avimas":1183,"ĠvieÅ¡":1184,"art":1185,"amai":1186,"ĠuÅ¾d":1187,"ektr":1188,"Ġri":1189,"ird":1190,"Ġjaun":1191,"ikos":1192,"Ġtyr":1193,"tinis":1194,"ieki":1195,"ymÄħ":1196,"Ġknyg":1197,"Ġspalv":1198,"onal":1199,"Ġfil":1200,"Ġlyg":1201,"Ġtikrai":1202,"antys":1203,"Ġrez":1204,"Ġmano":1205,"oks":1206,"ĠdienÄħ":1207,"ausiÅ³":1208,"omas":1209,"Ġpras":1210,"Ġduomen":1211,"âĢ¦":1212,"eda":1213,"Taip":1214,"Ġdv":1215,"Ġplan":1216,"inga":1217,"Ġket":1218,"iu":1219,"ĠKaun":1220,"Ġmes":1221,"Ġtvar":1222,"toje":1223,"net":1224,"rik":1225,"tinÄĹ":1226,"tek":1227,"ĠpaÅ¡":1228,"ĠmedÅ¾iag":1229,"ĠkartÄħ":1230,"ĠkitÅ³":1231,"joje":1232,"ĠÄ¯s":1233,"oduk":1234,"Ġtiesi":1235,"uÅ¡":1236,"aliz":1237,"Ġpran":1238,"Ġned":1239,"Lietuv":1240,"Ġab":1241,"ins":1242,"Ġko":1243,"tikr":1244,"Ġistori":1245,"aliai":1246,"rav":1247,"Ġnuos":1248,"inas":1249,"ienÄĹ":1250,"Ġapsaug":1251,"Ġleng":1252,"zdÅ¾i":1253,"Ġstud":1254,"esti":1255,"ine":1256,"Ġsudar":1257,"Ġsum":1258,"tog":1259,"re":1260,"Ġkam":1261,"inimas":1262,"Ġskai":1263,"Ġlig":1264,"Ġkov":1265,"Ġtiesiog":1266,"Ġso":1267,"orto":1268,"Ġtiksl":1269,"Ġrek":1270,"ytas":1271,"Ġkomand":1272,"Ir":1273,"iÅ¡":1274,"Ġuni":1275,"ĠkaÅ¾":1276,"Ġnustat":1277,"va":1278,"ÄĹse":1279,"Ġ9":1280,"inys":1281,"Ġmen":1282,"kri":1283,"Ġmoter":1284,"alo":1285,"Ġpadar":1286,"Ġ,":1287,"tikos":1288,"Ġproduk":1289,"ÄĹjas":1290,"ingi":1291,"At":1292,"Ġpapras":1293,"so":1294,"Ġsek":1295,"ovan":1296,"yp":1297,"auja":1298,"Ġkain":1299,"Ġdu":1300,"ÄĹjus":1301,"Ġgyd":1302,"Ġpasirink":1303,"ĠEuropos":1304,"Ġversl":1305,"Ġmetus":1306,"evi":1307,"Å«ra":1308,"Ġkv":1309,"ininkas":1310,"Ġpop":1311,"Ġkil":1312,"virtin":1313,"ĠpaÄįi":1314,"ĠjÅ«sÅ³":1315,"Ġmie":1316,"Ġtem":1317,"sni":1318,"tojÅ³":1319,"Ġbuv":1320,"ĠvienÄħ":1321,"Ġmiesto":1322,"Ġkartu":1323,"tyje":1324,"Ġ|":1325,"site":1326,"tijos":1327,"oja":1328,"dÅ¾io":1329,"Ġ15":1330,"tiniÅ³":1331,"Ġbl":1332,"pras":1333,"vil":1334,"ĠMar":1335,"eliÅ³":1336,"ato":1337,"Nor":1338,"ĠVilniaus":1339,"iev":1340,"elÄĹs":1341,"blem":1342,"Ġsug":1343,"Ġsavivald":1344,"Ġautomobi":1345,"Ġatvej":1346,"Ġmod":1347,"Ġreng":1348,"Ar":1349,"Ġsal":1350,"ÄĹjÅ³":1351,"iniais":1352,"ÄĹÅ¾":1353,"Ġvakar":1354,"irm":1355,"raf":1356,"Ġnen":1357,"ĠkuriÅ³":1358,"Ġlais":1359,"cijÄħ":1360,"mÄĹs":1361,"zi":1362,"Ġparod":1363,"Ġank":1364,"Ġvir":1365,"bu":1366,"ump":1367,"Ġvisi":1368,"Ġid":1369,"Ġbr":1370,"Ġch":1371,"atos":1372,"acijÄħ":1373,"Ġfin":1374,"Ġen":1375,"inÄĹje":1376,"ieji":1377,"Ġkomp":1378,"str":1379,"An":1380,"Ġproblem":1381,"ĠvirÅ¡":1382,"ublik":1383,"ybiÅ³":1384,"Ġbi":1385,"ĠÅ¾od":1386,"ininkÅ³":1387,"Ġsri":1388,"Ġnel":1389,"ĠAl":1390,"tau":1391,"engi":1392,"ektyv":1393,"Ġkat":1394,"Ġlik":1395,"jÄħ":1396,"irk":1397,"Ġnum":1398,"tyn":1399,"stitu":1400,"Ġpristat":1401,"ĀĀ":1402,"Ġta":1403,"Ġminis":1404,"ati":1405,"Ġlauk":1406,"ĠdÄĹm":1407,"uni":1408,"lyg":1409,"tra":1410,"uok":1411,"ĠÅ¡eim":1412,"atÅ«r":1413,"esÄ¯":1414,"Ġelektr":1415,"cijÅ³":1416,"ultat":1417,"Ġtechn":1418,"ÄħjÄħ":1419,"Ġod":1420,"yba":1421,"ĠÅ¾monÄĹs":1422,"Ġpastat":1423,"Ġnem":1424,"ytÅ³":1425,"entÅ³":1426,"Ġdvi":1427,"ob":1428,"Ġpriklaus":1429,"Ġpaj":1430,"fik":1431,"ausias":1432,"ny":1433,"tab":1434,"ano":1435,"eÅ¡im":1436,"eÄįi":1437,"inig":1438,"alio":1439,"iausia":1440,"kait":1441,"kiri":1442,"ĠdÅ¾i":1443,"Ġ18":1444,"aiÅ¡":1445,"Be":1446,"one":1447,"ku":1448,"Ġmais":1449,"Ġnori":1450,"Ap":1451,"eikti":1452,"Ġatrod":1453,"ĠâĢľ":1454,"iais":1455,"Ġties":1456,"timo":1457,"ĠiÅ¡g":1458,"Ġ12":1459,"Ġter":1460,"esp":1461,"Ġgalite":1462,"yriaus":1463,"enki":1464,"Po":1465,"ĠvÄĹ":1466,"ieÅ¡k":1467,"Kai":1468,"ios":1469,"Ġlie":1470,"Ġrezultat":1471,"Bet":1472,"Ġpapil":1473,"Ġvisuomen":1474,"ĠpradÅ¾i":1475,"Ġ20":1476,"Ġklas":1477,"ĠpasiÅ«l":1478,"Vien":1479,"kus":1480,"Ġpavad":1481,"ĠKl":1482,"uotas":1483,"ĠmÄĹg":1484,"aikÅ¡":1485,"Ġgalv":1486,"Kaip":1487,"eip":1488,"¿½":1489,"Ġnuol":1490,"ï¿½":1491,"Ġmal":1492,"ĠBal":1493,"ĠjÄħ":1494,"ĠPr":1495,"tiÅ¡k":1496,"Ġnur":1497,"torius":1498,"vel":1499,"Ġviena":1500,"amin":1501,"Ġlaim":1502,"Ġeur":1503,"anÄįios":1504,"Å«t":1505,"Ġspecial":1506,"Ġten":1507,"Ġsocial":1508,"elÄ¯":1509,"Ġpinig":1510,"Ġeksp":1511,"Ġ/":1512,"imi":1513,"Ġcm":1514,"ĠneÄ¯":1515,"kÅ³":1516,"usiÅ³":1517,"Ġdi":1518,"ĠÅ¡Ä¯":1519,"gal":1520,"paÄį":1521,"uota":1522,"Ġvaizd":1523,"Ġkuo":1524,"ininkai":1525,"Ġrod":1526,"ww":1527,"Ġinternet":1528,"atyv":1529,"Ġlank":1530,"Ġdarbuotoj":1531,"alus":1532,"Ġjam":1533,"Å¾iÅ³":1534,"elÄĹ":1535,"Ġind":1536,"jung":1537,"ĠmaÅ¾i":1538,"Ġvasar":1539,"ĠvÄĹl":1540,"Å«kst":1541,"aulio":1542,"Jis":1543,"Ġsant":1544,"ĠÄ¯reng":1545,"Ġsul":1546,"Ġkiti":1547,"amen":1548,"ĠvalstybÄĹs":1549,"Ġsur":1550,"etas":1551,"Ġatsis":1552,"ĠieÅ¡k":1553,"taik":1554,"ĠW":1555,"usios":1556,"andien":1557,"alia":1558,"ĠKr":1559,"min":1560,"Ġtarn":1561,"Ġdalis":1562,"ĠÄ¯stat":1563,"ot":1564,"Ġgyvenimo":1565,"pat":1566,"Ġpirk":1567,"ĠtÄĹv":1568,"Tik":1569,"ygi":1570,"Ġdain":1571,"Ġuniver":1572,"tui":1573,"Ġsukur":1574,"omi":1575,"tys":1576,"Ġgerai":1577,"Ġantr":1578,"okum":1579,"le":1580,"Ġer":1581,"Ġmar":1582,"AV":1583,"Ġjums":1584,"ĠvisÄħ":1585,"onÅ³":1586,"yzdÅ¾i":1587,"ausia":1588,"Ġpagalb":1589,"asis":1590,"esnis":1591,"jer":1592,"Nuo":1593,"ÄĹjimas":1594,"Ġfinans":1595,"yko":1596,"Ġpareig":1597,"fer":1598,"abai":1599,"Ġatliek":1600,"Ġnurod":1601,"pos":1602,"espublik":1603,"Ġpats":1604,"egz":1605,"Ġkri":1606,"minis":1607,"yvend":1608,"Ġrajono":1609,"ÄĹjai":1610,"Ġenerg":1611,"ĠlietuviÅ³":1612,"ĠiÅ¡si":1613,"ĠsÄħlyg":1614,"Ġpatir":1615,"lap":1616,"Ġjoki":1617,"pas":1618,"Ġkor":1619,"ĠtÅ«kst":1620,"adienÄ¯":1621,"ĠX":1622,"ĠiÅ¡k":1623,"aipÄĹd":1624,"Ġug":1625,"Ġatstov":1626,"uoju":1627,"ÄĹjau":1628,"atÅ³":1629,"eidÅ¾ia":1630,"Daug":1631,"Ġtaik":1632,"ĠkraÅ¡":1633,"10":1634,"uliar":1635,"jek":1636,"Ġvietos":1637,"ena":1638,"ĠÅłv":1639,"Ġsusid":1640,"Ġpasiek":1641,"ĠÅ¡ios":1642,"urn":1643,"Ġsieki":1644,"ĠvisÅ³":1645,"piu":1646,"par":1647,"angi":1648,"tuose":1649,"aÅ¾ny":1650,"ty":1651,"of":1652,"Ä¯Å¾":1653,"ied":1654,"ĠpraneÅ¡":1655,"Ġdalyk":1656,"tinai":1657,"Ne":1658,"Ġsutar":1659,"Ġrei":1660,"Ġ0":1661,"umi":1662,"ĠvaikÅ³":1663,"onom":1664,"mÄħ":1665,"Ġkonkur":1666,"ĠkurÄ¯":1667,"Ġdokum":1668,"atas":1669,"Ġtri":1670,"Ġvisus":1671,"Ġband":1672,"Å¾as":1673,"ĠZ":1674,"ĠtÄħ":1675,"ÄĹmÄĹ":1676,"res":1677,"intas":1678,"idÅ¾i":1679,"Ġapd":1680,"Ġder":1681,"Ġskait":1682,"ry":1683,"\",":1684,"Ġspeci":1685,"Ġdis":1686,"Ġvais":1687,"kil":1688,"UÅ¾":1689,"Ġmas":1690,"ĠdaÅ¾ni":1691,"etÄħ":1692,"Ġtek":1693,"Per":1694,"ymÅ³":1695,"dyti":1696,"Ġras":1697,"Ġmerg":1698,"inos":1699,"Pag":1700,"las":1701,"aci":1702,"dar":1703,"Å¡Äįi":1704,"Ġob":1705,"uotuv":1706,"inta":1707,"Ġsteb":1708,"Å¾iai":1709,"ĠkultÅ«ros":1710,"rak":1711,"ĠRus":1712,"Ġsavait":1713,"etain":1714,"18":1715,"Ġkelion":1716,"eris":1717,"emon":1718,"Ġvandens":1719,"Ġlabiau":1720,"Lietuvos":1721,"Ġproces":1722,"irb":1723,"ĠÅ¡iÅ³":1724,"ÄĹr":1725,"ovÄĹs":1726,"ĠKauno":1727,"II":1728,"Ġkonc":1729,"ĠkÅ«n":1730,"ĠÅ«":1731,"eigi":1732,"Ġgamin":1733,"ÄĹjusi":1734,"200":1735,"sk":1736,"esio":1737,"erv":1738,"tal":1739,"ĠsiÅ«l":1740,"ĠdaÅ¾nai":1741,"Ġleid":1742,"ĠÄ¯sig":1743,"tojai":1744,"ĠVal":1745,"ĠturÄĹtÅ³":1746,"Ġ16":1747,"vaizd":1748,"Ġtapo":1749,"ĠÅ¡io":1750,"uojama":1751,"ĠamÅ¾i":1752,"ton":1753,"eiv":1754,"20":1755,"das":1756,"Ġpatog":1757,"entas":1758,"anÄįius":1759,"Ġtais":1760,"Ġpasirod":1761,"iniame":1762,"tojo":1763,"Ġaktyv":1764,"Ġtada":1765,"Ġinstitu":1766,"tinÄĻ":1767,"Su":1768,"eveik":1769,"Ġfo":1770,"iausiai":1771,"ĠypaÄį":1772,"eriÅ³":1773,"go":1774,"dymo":1775,"Gal":1776,"ykite":1777,"iet":1778,"Äįiu":1779,"aiv":1780,"Ġsusij":1781,"ĠJÅ«sÅ³":1782,"ezid":1783,"Ġmir":1784,"ĠsudÄĹ":1785,"ĠÄį":1786,"Ġjeigu":1787,"ieri":1788,"Ġpatik":1789,"Ġlink":1790,"Ġnusi":1791,"dÄĹ":1792,"istr":1793,"Ġprak":1794,"Ġtad":1795,"antÄ¯":1796,"Ġtechnolog":1797,"pil":1798,"inimÄħ":1799,"Ġlap":1800,"Ġvadin":1801,"ĠÅ¾ini":1802,"Ġkurio":1803,"anas":1804,"Ġkito":1805,"ĠSe":1806,"Ġvanden":1807,"Ġlaisv":1808,"ĠÄ¯k":1809,"Ġmokytoj":1810,"ĠvarÅ¾":1811,"ĠÅ¾emÄĹs":1812,"Ġpers":1813,"amo":1814,"Ġpasaulio":1815,"ĠuÅ¾tikr":1816,"onÄħ":1817,"Ġgatv":1818,"ÄĹp":1819,"ĠpraÅ¡":1820,"lis":1821,"cijas":1822,"est":1823,"AS":1824,"Ġnegali":1825,"Ġtas":1826,"ÄħjÄ¯":1827,"ienos":1828,"ĠIn":1829,"Ġvisada":1830,"Ġtoliau":1831,"lÅ³":1832,"Ġstraip":1833,"Ġsod":1834,"Ġpriim":1835,"omos":1836,"ambar":1837,"Ġkap":1838,"yven":1839,"dÅ¾iÅ³":1840,"ĠÅ¾mogaus":1841,"ĠÅ¡ven":1842,"Ġprival":1843,"amp":1844,"Sv":1845,"rag":1846,"Ġnepri":1847,"ĠjÅ«s":1848,"eln":1849,"ymus":1850,"dami":1851,"Ġparduotuv":1852,"ĠuÅ¾sien":1853,"Ġet":1854,"imais":1855,"ĠÄ¯staig":1856,"Ġbu":1857,"ukas":1858,"tinÄ¯":1859,"Ġklub":1860,"ana":1861,"ĠAr":1862,"Ġkit":1863,"Ġadminis":1864,"ĠpanaÅ¡":1865,"enka":1866,"ĠÅ¾mogus":1867,"Ġbendruomen":1868,"Ġtran":1869,"Ġklien":1870,"ytis":1871,"Ġz":1872,"aur":1873,"Ġjiems":1874,"Ġrug":1875,"Ġ14":1876,"angos":1877,"avimÄħ":1878,"Ġdienos":1879,"Ġ30":1880,"ĠlaikÄħ":1881,"ĠRespublik":1882,"ĠsakÄĹ":1883,"Ġtoks":1884,"ĠuÅ¾si":1885,"intis":1886,"damas":1887,"bul":1888,"davo":1889,"ĠvÄĹliau":1890,"Ġskirting":1891,"Ġvertin":1892,"dv":1893,"ukai":1894,"Ġvil":1895,"Ġtvark":1896,"Ġspecialis":1897,"Ġatveju":1898,"Ġbank":1899,"enkl":1900,"DÄĹl":1901,"irink":1902,"Ġ11":1903,"ystÄĹs":1904,"In":1905,"ims":1906,"ĠÅ¡vie":1907,"ÄĹme":1908,"Ġdirek":1909,"ÄĹÅ¡":1910,"Ġteri":1911,".)":1912,"Ġmokes":1913,"tÄĻ":1914,"Ġnebuvo":1915,"sich":1916,"acional":1917,"ĠvisiÅ¡kai":1918,"rig":1919,"Ġplauk":1920,"ĠkitÄħ":1921,"Man":1922,"Ġ100":1923,"Jeigu":1924,"yzdÅ¾iui":1925,"alis":1926,"Ġtrad":1927,"ĠÅ¡iuo":1928,"eÅ¡imt":1929,"Å«ri":1930,"Ġ13":1931,"Ġnieko":1932,"irÅ¾":1933,"Å«p":1934,"Ġsvetain":1935,"Ġvaland":1936,"ÄĹkm":1937,"Ġ17":1938,"ĠKar":1939,"ĠÅ¡is":1940,"imis":1941,"Ġsupr":1942,"--":1943,"ĠÄ¯gyvend":1944,"Ġkons":1945,"Ġvalstyb":1946,"alas":1947,"iv":1948,"ĠÄ¯dom":1949,"Å¡kia":1950,"Ġoro":1951,"vertin":1952,"Å«z":1953,"ĠÅ¡alies":1954,"ĠnamÅ³":1955,"AB":1956,"Ġbeveik":1957,"ingos":1958,"ond":1959,"Ġnug":1960,"ĠneiÅ¡":1961,"atai":1962,"cen":1963,"Ġmums":1964,"Ġnuolat":1965,"Ġkambar":1966,"ÄĹjimÄħ":1967,"tika":1968,"alai":1969,"Ġsitu":1970,"ukÅ¡":1971,"ĠKlaipÄĹd":1972,"Ġpok":1973,"Ġfunk":1974,"Pirm":1975,"kius":1976,"Ġsusitik":1977,"Sp":1978,"ilie":1979,"Ġnuotrauk":1980,"tink":1981,"iniams":1982,"Ġitin":1983,"Ġtransp":1984,"ĠvietÄħ":1985,"engti":1986,"liu":1987,"Ġskl":1988,"Ġanks":1989,"ingÄħ":1990,"50":1991,"Ġteig":1992,"Ġ:":1993,"Ġnegal":1994,"ĠJAV":1995,"Ġtelef":1996,"ĠsavivaldybÄĹs":1997,"etr":1998,"tol":1999,"12":2000,"Ġneat":2001,"Ġtarptau":2002,"Ġ[":2003,"ĠDiev":2004,"ukr":2005,"Ġ199":2006,"omend":2007,"he":2008,"tn":2009,"mÅ³":2010,"Ġsub":2011,"eliai":2012,"Ġef":2013,"ĠÅ¡vent":2014,"Ġfak":2015,"Ġviskas":2016,"Ġjud":2017,"Ġsako":2018,"aukÅ¡":2019,"Ġtrump":2020,"Ġvarto":2021,"dien":2022,"Ġmuzik":2023,"ĠÄ¯raÅ¡":2024,"Ġjaus":2025,"eÅ¡k":2026,"Kar":2027,"Ġpateik":2028,"esnÄĹ":2029,"ĠteisÄĹs":2030,"Ġstipr":2031,"Ġekonom":2032,"Ġveiksm":2033,"Ġmus":2034,"ĠÄĮ":2035,"Ġnek":2036,"ĠmaÅ¾iau":2037,"Ġpabaig":2038,"uko":2039,"Nors":2040,"ÄĹte":2041,"Å¡kio":2042,"ĠmiÅ¡k":2043,"ybes":2044,"Ġpram":2045,"Ġteigi":2046,"Ġinv":2047,"TodÄĹl":2048,"Ġpral":2049,"Äįios":2050,"Ġveiklos":2051,"ĠÅ¡vies":2052,"Ġbaig":2053,"Ġpali":2054,"alios":2055,"Ġem":2056,"Ġkuriame":2057,"uosius":2058,"ĠÅ¾enkl":2059,"Kad":2060,"Ġperd":2061,"Ġypat":2062,"Ġvisai":2063,"Ġsuv":2064,"isi":2065,"ma":2066,"Ġkitos":2067,"Ġverslo":2068,"Ġlengv":2069,"Ġsim":2070,"anÄįio":2071,"Ġapsaugos":2072,"Ġkvie":2073,"epÅ¡":2074,"Ġplo":2075,"Ġregi":2076,"Ġteritori":2077,"tinio":2078,"Ġnak":2079,"Ġarch":2080,"Ġgen":2081,"Ġkontr":2082,"ĠneÅ¡":2083,"Vil":2084,"Ġrad":2085,"ten":2086,"Ġpuikiai":2087,"30":2088,"ĠÂ":2089,"ĠÄ¯sp":2090,"anga":2091,"Ġtol":2092,"Ġkep":2093,"gr":2094,"ĠbÅ«t":2095,"ĠÅ¾iÅ«r":2096,"Ġsez":2097,"pri":2098,"Ġpatar":2099,"ĠsumaÅ¾":2100,"Ġâ":2101,"auskas":2102,"ĠkuriÄħ":2103,"ĠÅ¡iÄħ":2104,"bil":2105,"Ġpapildom":2106,"ausio":2107,"Ġkalba":2108,"ĠGr":2109,"ijas":2110,"AÅ¡":2111,"empi":2112,"Ġprasid":2113,"Ġpasaulyje":2114,"Ġeil":2115,"ĠturÄĹjo":2116,"edi":2117,"ÄĹliÅ³":2118,"ĠÅłiau":2119,"Ġkuriuos":2120,"tÄĹje":2121,"Ġpatvirtin":2122,"Ġprofes":2123,"gn":2124,"Ġspor":2125,"Ġatrodo":2126,"ĠryÅ¡":2127,"Ġblog":2128,"lai":2129,"Ġobjek":2130,"audÅ¾i":2131,"ĠprieÅ¾as":2132,"etai":2133,"\".":2134,"ata":2135,"din":2136,"Ġpsich":2137,"Ġpopuliar":2138,"ĠbaÅ¾ny":2139,"Å«nas":2140,"Kiek":2141,"Ġpatal":2142,"Ġang":2143,"prend":2144,"Ġpos":2145,"ĠaiÅ¡k":2146,"acijÅ³":2147,"tomis":2148,"Ġdur":2149,"aukia":2150,"Ġskiri":2151,"Ġinformacijos":2152,"Ġpasid":2153,"Ġmeil":2154,"Ġmalon":2155,"ĠPal":2156,"Gr":2157,"ĠiÅ¡r":2158,"Ġmokyklos":2159,"ĠÅ¡eÅ¡":2160,"Ġsveikatos":2161,"ĠiÅ¡d":2162,"Ġkompiu":2163,"Ġmaisto":2164,"Ġlygi":2165,"Ġaud":2166,"Äħs":2167,"ne":2168,"uma":2169,"okÅ¡":2170,"Ki":2171,"aras":2172,"Ġlang":2173,"Labai":2174,"Ġsto":2175,"ĠkaÅ¾k":2176,"Ġgi":2177,"ÄĻsti":2178,"uosi":2179,"Ġerdv":2180,"ĠnatÅ«r":2181,"Tuo":2182,"IN":2183,"ĠdÅ¾iaug":2184,"Ġpalaik":2185,"ĠÅ¡iandien":2186,"mÄĹ":2187,"Ġoper":2188,"ĠsuÅ¾":2189,"Ġartim":2190,"Ġkurioje":2191,"15":2192,"Ġministeri":2193,"ĠRespublikos":2194,"ros":2195,"Ġpasik":2196,"ovÄĹ":2197,"atÄħ":2198,"iniuose":2199,"Ġegz":2200,"ijo":2201,"inkite":2202,"ĠÄ¯vairiÅ³":2203,"ĠÄ¯vertin":2204,"laus":2205,"Ġveid":2206,"Ġde":2207,"Ġkm":2208,"ĠbÅ«s":2209,"Ġrib":2210,"und":2211,"Ġvietoje":2212,"Ġml":2213,"ĠkrepÅ¡":2214,"ĠtokiÅ³":2215,"ingÅ³":2216,"Ġvaikams":2217,"Ġag":2218,"ĠaikÅ¡":2219,"Ġatei":2220,"ÄĹlÄĹ":2221,"tri":2222,"tiniai":2223,"utÄĹs":2224,"Ġvisas":2225,"Ġrung":2226,"ymai":2227,"Ġnemok":2228,"uÄįiÅ³":2229,"Ġstov":2230,"pj":2231,"naz":2232,"inant":2233,"Ġsistema":2234,"erio":2235,"Ġvos":2236,"arg":2237,"aup":2238,"inai":2239,"Ġof":2240,"Ġsanty":2241,"ÄĹta":2242,"Toki":2243,"uojamas":2244,"ieÄįiÅ³":2245,"Ġpamat":2246,"ĠÅ¡ird":2247,"ĠbÅ«du":2248,"Ġsukn":2249,"ĠpradÄĹjo":2250,"ÄĹtis":2251,"000":2252,"ytos":2253,"Ġdovan":2254,"ĠtaÅ¡k":2255,"bol":2256,"ĠdarbÄħ":2257,"Ġpre":2258,"arp":2259,"Ġnetur":2260,"tÅ«r":2261,"ausiÄħ":2262,"ĠÐ":2263,"Å«rÄĹ":2264,"Ġfiz":2265,"Ġmeto":2266,"Ġkalbos":2267,"antas":2268,"eÄįiÅ³":2269,"cÅ«z":2270,"inÅ³":2271,"Ġmuzikos":2272,"ĠduomenÅ³":2273,"Å¾ym":2274,"Ġdek":2275,"Mes":2276,"ieka":2277,"Ġvard":2278,"Ġteat":2279,"Äįiaus":2280,"Ġ25":2281,"ingo":2282,"Jie":2283,"Ġgauti":2284,"anda":2285,"cm":2286,"Å«nÅ³":2287,"tinink":2288,"ĠjÄĹg":2289,"toriaus":2290,"Ġmon":2291,"Å¾vel":2292,"oc":2293,"Ġkrauj":2294,"Ġlyd":2295,"radarb":2296,"ĠamÅ¾iaus":2297,"ks":2298,"Åłis":2299,"ĠÅ¾ino":2300,"Ġgreitai":2301,"ers":2302,"Ġvisiems":2303,"oÅ¾":2304,"Ġtren":2305,"ĠAm":2306,"ĠÄįempi":2307,"ĀĀĀĀ":2308,"ĠreikÅ¡":2309,"Ġvys":2310,"audoj":2311,"ento":2312,"ininko":2313,"ymu":2314,"Ġved":2315,"Ġatskir":2316,"Ġlaikotar":2317,"Ġcentro":2318,"ĠgalÄĹtÅ³":2319,"Taigi":2320,"Ġneturi":2321,"ĠvaldÅ¾i":2322,"Ġbent":2323,"ĠÅ¾i":2324,"bÅ«t":2325,"Ġsave":2326,"Ġmieste":2327,"sit":2328,"Ġci":2329,"Ġpasis":2330,"uoda":2331,"ÄĹjÄĻs":2332,"Ġdet":2333,"ech":2334,"Ġgeriau":2335,"Ġnaudoti":2336,".âĢľ":2337,"Ġsistemos":2338,"vark":2339,"yno":2340,"ydis":2341,"tograf":2342,"Ĥ¬":2343,"ytÄĹ":2344,"ĠÅ¡eimos":2345,"Ġpatys":2346,"inÄĹti":2347,"ĠVilniuje":2348,"Ġkaina":2349,"siu":2350,"umu":2351,"Ġpaskelb":2352,"erni":2353,"ĠsÄĹkm":2354,"Ġsau":2355,"Ġkan":2356,"lob":2357,"entai":2358,"Å¾ius":2359,"ĠgrupÄĹs":2360,"11":2361,"izain":2362,"Dar":2363,"ĠES":2364,"la":2365,"ĠviskÄħ":2366,"timas":2367,"mos":2368,"Ġaptar":2369,"Ġgydytoj":2370,"ĠVokie":2371,"Ġpadid":2372,"ĠNr":2373,"eviÄįius":2374,"aidos":2375,"ukus":2376,"Ġgel":2377,"Ġapskri":2378,"unig":2379,"ĠrÅ«p":2380,"Ġnamuose":2381,"ĠdaÅ¾niausiai":2382,"Ġnuomon":2383,"Ġsiek":2384,"Pav":2385,"ari":2386,"Ġatn":2387,"ga":2388,"aro":2389,"struk":2390,"Ġnumat":2391,"anÄįiÄħ":2392,"ÄĮia":2393,"Ġpaskir":2394,"nos":2395,"Ġsuteik":2396,"Ġdy":2397,"ijai":2398,"Ġvisa":2399,"ĠeurÅ³":2400,"oniÅ³":2401,"âĢĻ":2402,"ĠpadÄĹti":2403,"ĠpripaÅ¾":2404,"uojant":2405,"Ġkei":2406,"mat":2407,"ĠgrÄ¯Å¾":2408,"ici":2409,"ÄĹsite":2410,"ĠsÄħraÅ¡":2411,"ĠrÅ«Å¡":2412,"Ġskat":2413,"lÄĹ":2414,"ĠpaslaugÅ³":2415,"Ġkoncer":2416,"ĠparaÅ¡":2417,"Ġspalvos":2418,"Ġtokia":2419,"ĠÄ¯monÄĹs":2420,"Ġkomis":2421,"Ġvaikai":2422,"ĠÅ¡aliÅ³":2423,"ĠPas":2424,"Ġvair":2425,"AI":2426,"onai":2427,"Ji":2428,"sÄĹjo":2429,"ĠgyvenimÄħ":2430,"Ġprezid":2431,"ĠÅ¾ais":2432,"anki":2433,"esnÄĹs":2434,"Ġplat":2435,"ĠÄ¯vyk":2436,"umos":2437,"Ġatlikti":2438,"Ġbendradarb":2439,"ĠbÅ«na":2440,"nas":2441,"Ġtu":2442,"veik":2443,"ĠiÅ¡mok":2444,"etÅ³":2445,"rÄĹ":2446,"Ġsporto":2447,"Ġrekomend":2448,"ĠvaÅ¾i":2449,"oz":2450,"ovas":2451,"Ġatk":2452,"ĠÄ¯tak":2453,"amus":2454,"ĠÅ¾ym":2455,"Ġministr":2456,"Ġvidur":2457,"Mok":2458,"Ġ...":2459,"Ġkasdien":2460,"Ġlaip":2461,"Ġvisos":2462,"Ġkompl":2463,"ĠkeliÅ³":2464,"Ġmiest":2465,"Ġsta":2466,"ip":2467,"iblio":2468,"ĠLenki":2469,"Ġkartais":2470,"Ġparti":2471,"tiÅ¡kai":2472,"Ġ50":2473,"ĠkokybÄĹs":2474,"ĠSÄħj":2475,"imin":2476,"avos":2477,"inka":2478,"ĠprieÅ¾i":2479,"bus":2480,"ĠuÅ¾sak":2481,"Ġpenk":2482,"Ġprofesi":2483,"Ġtuomet":2484,"niÅ³":2485,"Ġkokyb":2486,"Ġjas":2487,"Ġdizain":2488,"Ġpadaryti":2489,"yse":2490,"viejÅ³":2491,"sis":2492,"ĠplÄĹ":2493,"Ġkitas":2494,"uotÅ³":2495,"ĠÅ¡im":2496,"aliu":2497,"ĠÅ¾urn":2498,"Ġtobul":2499,"ĠgyventojÅ³":2500,"urg":2501,"otas":2502,"aisiais":2503,"Ġreikalav":2504,"ĠÄ¯t":2505,"tadienÄ¯":2506,"uotos":2507,"Ġrasti":2508,"ĠautomobiliÅ³":2509,"Par":2510,"ĠtreÄįi":2511,"Ġapg":2512,"ietÅ³":2513,"eguÅ¾":2514,"Ġviso":2515,"ĠkÅ«ryb":2516,"ybÅ³":2517,"anijos":2518,"tume":2519,"emok":2520,"ĠkodÄĹl":2521,"intÅ³":2522,"Ġkada":2523,"__":2524,"tinÄĹje":2525,"Ġav":2526,"Ġil":2527,"Ġmane":2528,"ĠÅ«kio":2529,"Ġvyksta":2530,"Ġtie":2531,"Ġ.":2532,"Ġpriklauso":2533,"Ð°":2534,"ĠdarÅ¾":2535,"Ġsvarbu":2536,"rÄĹs":2537,"Ġbals":2538,"Ġsaul":2539,"Ġadministra":2540,"ec":2541,"iui":2542,"ograf":2543,"Ġnorm":2544,"www":2545,"Ġmuziej":2546,"Ġatvyk":2547,"Ġpov":2548,"tinka":2549,"Pat":2550,"ĠmÄĹnesÄ¯":2551,"olÄĹs":2552,"dÅ¾iai":2553,"Ġpasteb":2554,"Ġelektron":2555,"Ġkitus":2556,"Ġdaik":2557,"Ġ2018":2558,"timi":2559,"Nes":2560,"ĠâĢĶ":2561,"Ġvaid":2562,"Sk":2563,"Ġvyko":2564,"Ġkreip":2565,"Ġvieta":2566,"Ġefektyv":2567,"Ġtiks":2568,"17":2569,"Ġup":2570,"Ġkos":2571,"Ġtvir":2572,"tiko":2573,"ĠinformacijÄħ":2574,"gio":2575,"Ġvieno":2576,"tojas":2577,"Ġrud":2578,"Äħst":2579,"16":2580,"Ġ#":2581,"emi":2582,"Ð¾":2583,"Ġatvir":2584,"Ġketvir":2585,"Ġtampa":2586,"Ġpai":2587,"ÄħÅ¾":2588,"ĠÅ½em":2589,"Nauj":2590,"ĠdienÅ³":2591,"iniam":2592,"ovo":2593,"Ġprogram":2594,"Ġelg":2595,"ĠkultÅ«r":2596,"ĠÅ«k":2597,"klausom":2598,"ĠJums":2599,"Å«nai":2600,"Ġtinkl":2601,"Ġdeg":2602,"ĠgalimybÄĻ":2603,"Å¡kiÅ³":2604,"giau":2605,"ĠbirÅ¾":2606,"ĠkrÅ«":2607,"uto":2608,"eiti":2609,"Ġdaryti":2610,"Ġtechni":2611,"Ġpadeda":2612,"ĠdÄĹmesÄ¯":2613,"40":2614,"idu":2615,"Ġinf":2616,"esniÅ³":2617,"Ġpuiki":2618,"tumÄĹte":2619,"ĠÅ¡iek":2620,"Ġgars":2621,"ojimo":2622,"Ġnuv":2623,"Ġsup":2624,"ako":2625,"Ġspaud":2626,"ika":2627,"Ġkoj":2628,"antiems":2629,"Ġtris":2630,"ĠRusijos":2631,"Ġlaikas":2632,"Ġprin":2633,"Ġmokslo":2634,"Ġveikia":2635,"ĠreiÅ¡kia":2636,"Ġtinka":2637,"yla":2638,"onu":2639,"ĠPar":2640,"Dabar":2641,"ĠpaÅ¾ym":2642,"usius":2643,"ĠbÅ«kl":2644,"toriÅ³":2645,"Ġtal":2646,"feren":2647,"Ġbiblio":2648,"ĠCh":2649,"Ġlin":2650,"Äĸ":2651,"ieno":2652,"egori":2653,"ĠanksÄįiau":2654,"eiÅ¡k":2655,"ĠpirmÄħ":2656,"Ġini":2657,"ĠiÅ¡skir":2658,"iki":2659,"Ġpriek":2660,"Ġprim":2661,"Ġpakei":2662,"Ġpartn":2663,"IS":2664,"Ġjai":2665,"ĠPran":2666,"Ġdalyvavo":2667,"ĠleidÅ¾ia":2668,"anÅ³":2669,"inama":2670,"Kas":2671,"nio":2672,"Ġnepas":2673,"Kiekvien":2674,"ĠTr":2675,"eviz":2676,"ĠuÅ¾sienio":2677,"Ġnacional":2678,"elyje":2679,"aki":2680,"avau":2681,"MÅ«sÅ³":2682,"af":2683,"ĠgraÅ¾i":2684,"ieg":2685,"Ġgimnaz":2686,"lÄĹs":2687,"Ġdraud":2688,"ĠbÅ«tent":2689,"Ġkaim":2690,"ĠÅ¾iem":2691,"ĠdarbÅ³":2692,"Ġasmens":2693,"Ġbes":2694,"Ġtransporto":2695,"ĠvisuomenÄĹs":2696,"ĠnemaÅ¾":2697,"Pasak":2698,"ĠKal":2699,"ĠÅ¡ak":2700,"Ġdirbti":2701,"Ġskyri":2702,"liz":2703,"iÅ¡kas":2704,"ber":2705,"entus":2706,"Ġperk":2707,"inÄĹmis":2708,"Ġkartus":2709,"andÅ¾io":2710,"pÅ³":2711,"Ġsudaro":2712,"ausios":2713,"andar":2714,"tams":2715,"oro":2716,"inamas":2717,"okÄ¯":2718,"Ġskamb":2719,"Ä¯st":2720,"Ġnepr":2721,"Ġuniversit":2722,"usio":2723,"ĠiÅ¡b":2724,"ars":2725,"AT":2726,"alÄħ":2727,"bo":2728,"pus":2729,"ÄĹkite":2730,"imti":2731,"ulk":2732,"vaig":2733,"ord":2734,"siai":2735,"ĠSÄħjung":2736,"tinas":2737,"ĠapraÅ¡":2738,"ĠLietuva":2739,"antÅ³":2740,"ikal":2741,"elÄĻ":2742,"niai":2743,"ĠdviejÅ³":2744,"ÄĹdami":2745,"Ġlenk":2746,"PrieÅ¡":2747,"vz":2748,"Ġsavai":2749,"ĠsÄħjung":2750,"ĠÄ¯vair":2751,"ĠSeimo":2752,"Ġodos":2753,"snio":2754,"Ġskr":2755,"ĠpinigÅ³":2756,"eguÅ¾ÄĹs":2757,"Ġstik":2758,"ach":2759,"ĠtrÅ«k":2760,"Ġnaudo":2761,"ĠTau":2762,"Ġatsir":2763,"Ġseni":2764,"Yra":2765,"inam":2766,"Ġlabiausiai":2767,"Ġstipri":2768,"muo":2769,"ukÅ³":2770,"ĠlÄĹÅ¡":2771,"Ġuos":2772,"OS":2773,"ynas":2774,"ieb":2775,"ĠnaujÄħ":2776,"ĠÅ¾v":2777,"ĠgraÅ¾":2778,"ingumo":2779,"kriÄįio":2780,"14":2781,"ĠKon":2782,"ĠveiklÄħ":2783,"Ġkunig":2784,"AR":2785,"okai":2786,"Ġkod":2787,"neto":2788,"Ġkelias":2789,"Ġporeiki":2790,"Ġpakank":2791,"tuo":2792,"....":2793,"199":2794,"Ġtemper":2795,"Ġvalg":2796,"inÄĹj":2797,"Ġprojekto":2798,"Ġapdovan":2799,"ĠkÅ«no":2800,"rai":2801,"su":2802,"Ġinformacija":2803,"daug":2804,"kv":2805,"umÅ³":2806,"70":2807,"rÅ³":2808,"ĠdeÅ¡imt":2809,"Vilni":2810,"ĠreÅ¾":2811,"agr":2812,"ĠKlaipÄĹdos":2813,"ald":2814,"Ġcentras":2815,"Ġgana":2816,"Ġ24":2817,"Ġrungtyn":2818,"Ġvartoj":2819,"avÄĻs":2820,"Ġpaskol":2821,"Jau":2822,"ravimo":2823,"eliu":2824,"Ġeksper":2825,"esnÄ¯":2826,"ort":2827,"Ġapib":2828,"atorius":2829,"mai":2830,"enos":2831,"ĠÄįempion":2832,"Ġfesti":2833,"Ġnesu":2834,"Ġkt":2835,"oci":2836,"ern":2837,"ĠpavirÅ¡":2838,"Ġmyl":2839,"ytau":2840,"Äįiais":2841,"Ġprekybos":2842,"Ġfotograf":2843,"vo":2844,"Ġdra":2845,"Ġdiena":2846,"lamen":2847,"itek":2848,"Ġmeno":2849,"Ġlengvai":2850,"Ġres":2851,"ĠÄ¯pras":2852,"13":2853,"alius":2854,"ologijos":2855,"inar":2856,"Ġpuslap":2857,"inÄĹse":2858,"rÄĹÅ¾":2859,"ĠnebÅ«":2860,"ÄĹtas":2861,"Å¾iÅ«rÄĹti":2862,"ĠpaaiÅ¡k":2863,"Ġkovo":2864,"Ðµ":2865,"Ġkab":2866,"liaus":2867,"Ġgaus":2868,"Ġkaro":2869,"atÅ«ros":2870,"Ġteiki":2871,"iesi":2872,"mÄĻ":2873,"Ġ2017":2874,"ĠUAB":2875,"Ġmln":2876,"Ġpalik":2877,"Ġautomobil":2878,"ĠiÅ¡laik":2879,"irg":2880,"Ġapsi":2881,"Å¾er":2882,"ĠÅ¡alia":2883,"vaigÅ¾":2884,"Tr":2885,"Ġatitink":2886,"Ġatsirad":2887,"ĠSk":2888,"Ġmetod":2889,"Ġtaisykl":2890,"utÄĹ":2891,"ĠÄ¯d":2892,"Ġdail":2893,"Ġkita":2894,"Ġsien":2895,"ãĤ":2896,"Ġsiun":2897,"Ġkonkurs":2898,"Ġskyriaus":2899,"Ġjuo":2900,"ĠkraÅ¡to":2901,"ĠturÄĹti":2902,"Ġgaun":2903,"uojami":2904,"Ġnedid":2905,"ĠPan":2906,"Ġtos":2907,"Ġatr":2908,"ĠsavaitÄĻ":2909,"Apie":2910,"Ġrekl":2911,"jai":2912,"elius":2913,"ytÄħ":2914,"Ġbald":2915,"Ġdom":2916,"Ġpozi":2917,"Ġbendradarbi":2918,"ĠdalÄ¯":2919,"Ġelem":2920,"endr":2921,"ÄĹlÄĹs":2922,"Ġsurink":2923,"ĠnaujÅ³":2924,"Ġindiv":2925,"Å½in":2926,"ĠjokiÅ³":2927,"apras":2928,"Ġteks":2929,"Ġskelb":2930,"aks":2931,"aiki":2932,"Pl":2933,"Ġdarbus":2934,"Ġpavoj":2935,"Ġliter":2936,"kaiÄįi":2937,"eta":2938,"onÄĹs":2939,"Åłiuo":2940,"Ġser":2941,"ados":2942,"ĠSp":2943,"Ġkryp":2944,"Ġ40":2945,"ĠÅ¾monÄĹms":2946,"Ġpaslaugas":2947,"com":2948,"ÄĹlis":2949,"ho":2950,"erijos":2951,"Ġmil":2952,"ymui":2953,"Ġabej":2954,"Ġsunku":2955,"ĠÅ¾uv":2956,"Ġbat":2957,"uotis":2958,"Jo":2959,"Ġlaid":2960,"valg":2961,"Ġsuteikia":2962,"Ġ22":2963,"Ġkredi":2964,"ES":2965,"audon":2966,"Ġjuod":2967,"Ġsaus":2968,"Kon":2969,"Ġsupras":2970,"cijoje":2971,"ĠÅ¡ok":2972,"ĠÄ¯vy":2973,"Ġkonkr":2974,"Ġpolitik":2975,"ĠkiekvienÄħ":2976,"elti":2977,"Å¡kas":2978,"oliu":2979,"Bal":2980,"ĠpriemoniÅ³":2981,"sak":2982,"Ġadres":2983,"Ġkiekvienas":2984,"Ġnuk":2985,"Nep":2986,"Ġligon":2987,"ce":2988,"ÄĹjos":2989,"ÄĹli":2990,"ĠLietuvÄħ":2991,"Ġremon":2992,"ĠâĤ¬":2993,"ron":2994,"manoma":2995,"inami":2996,"Ġkomandos":2997,"isk":2998,"ieÄįiai":2999,"Ġnamo":3000,"ote":3001,"Ġleis":3002,"Net":3003,"Ġketuri":3004,"Ġskaus":3005,"kaityti":3006,"ĠÅ¡iol":3007,"ĠNauj":3008,"siteto":3009,"Ġglob":3010,"ĠtÅ³":3011,"Ġgalime":3012,"ĠprekiÅ³":3013,"ĠÂ»":3014,"ĠsÄħs":3015,"Ġpasku":3016,"ĠmedÅ¾iagÅ³":3017,"Ġsr":3018,"urb":3019,"ÄįiÅ«":3020,"Ġstraipsn":3021,"Ġvert":3022,"Ġteleviz":3023,"los":3024,"ï¿½ï¿½":3025,"rio":3026,"Ġsukurti":3027,"utbol":3028,"Ġvairuotoj":3029,"Ġilgis":3030,"Ġvaldymo":3031,"esnio":3032,"ĠskaiÄįius":3033,"ĠpaÅ¡al":3034,"ĠÅ¡iaur":3035,"Ġrom":3036,"Ġpastar":3037,"tan":3038,"cien":3039,"auÅ¾":3040,"ĠruoÅ¡":3041,"aigi":3042,"Å¡kiai":3043,"lÄħ":3044,"da":3045,"25":3046,"EN":3047,"ĠLi":3048,"nÅ³":3049,"ĠÄ®":3050,"nis":3051,"ÄĹjome":3052,"ĠprieÅ¾iÅ«ros":3053,"stat":3054,"eno":3055,"ĠpaieÅ¡k":3056,"Ġnereik":3057,"anta":3058,"iemet":3059,"ĠiÅ¡n":3060,"Ġpi":3061,"Ġvyri":3062,"Ġilgai":3063,"Ġatsp":3064,"menÅ³":3065,"Ġprinci":3066,"Ġtikslas":3067,"Ġatnauj":3068,"Ġsos":3069,"Ð¸":3070,"Ġdang":3071,"ĠsÄĹd":3072,"ĠÅ¾inias":3073,"Kl":3074,"Ġ+":3075,"Ġkomanda":3076,"Ġai":3077,"ĠbÅ«tina":3078,"Ġtokio":3079,"Ġ2016":3080,"Ġpritaik":3081,"Ġscen":3082,"âĢĺ":3083,"uodÅ¾io":3084,"giai":3085,"Ġkitaip":3086,"Ġtruk":3087,"eido":3088,"edag":3089,"Tur":3090,"anÄįias":3091,"Ġkoks":3092,"Å¡ti":3093,"uolaik":3094,"ĠAmeri":3095,"Ġkrik":3096,"iams":3097,"Ġtokios":3098,"ĠDidÅ¾i":3099,"uojame":3100,"Ġtokie":3101,"ĠsusipaÅ¾":3102,"Ġatidar":3103,"ĠmaÅ¡":3104,"inÄħ":3105,"Ġkop":3106,"Ġskirtas":3107,"tumo":3108,"ete":3109,"ĠmedÅ¾iagos":3110,"Ġsie":3111,"ungi":3112,"ĠAnd":3113,"eina":3114,"Ġ23":3115,"Ġskirti":3116,"Ġnepat":3117,");":3118,"Ġveikla":3119,"Ġsve":3120,"Ġprid":3121,"alu":3122,"pjÅ«":3123,"ps":3124,"Ġpamok":3125,"Ġsulauk":3126,"ĠpavyzdÅ¾iui":3127,"Ġenergijos":3128,"Ġvadovas":3129,"Äįiui":3130,"erius":3131,"Ġriz":3132,"Ġmetai":3133,"ĠuÅ¾k":3134,"tojams":3135,"Ġviz":3136,"Ġetap":3137,"ĠreikÄĹtÅ³":3138,"Ġarchitek":3139,"Ġistorijos":3140,"Ġkurias":3141,"Visi":3142,"Ġrus":3143,"AM":3144,"ĠsudÄĹting":3145,"oriÅ³":3146,"Ġkarto":3147,"ĠrugsÄĹjo":3148,"iÅ¡ka":3149,"inei":3150,"Ġniekada":3151,"ininkÄĹ":3152,"km":3153,"Ġirgi":3154,"Ġlaiku":3155,"Å¡ka":3156,"ÄĹjÄĻ":3157,"enÅ³":3158,"Ġkitais":3159,"aÄįi":3160,"Ġkelis":3161,"ieÅ¾":3162,"ER":3163,"Ġmedic":3164,"mens":3165,"ĠkeletÄħ":3166,"Ġneap":3167,"ilij":3168,"Ġsusik":3169,"Ġtak":3170,"Ġpateiki":3171,"Al":3172,"Ġkaimo":3173,"Ġdarbas":3174,"asite":3175,"ven":3176,"adem":3177,"ybÄħ":3178,"Ġgyventi":3179,"Ġvykd":3180,"ĠÅ¡ie":3181,"ĠsiÅ«":3182,"Ġprogramos":3183,"Ġfutbol":3184,"Tad":3185,"Ġinterneto":3186,"Ġsusirink":3187,"ĠkarÅ¡":3188,"Ġaplinkos":3189,"Ties":3190,"AL":3191,"ĠÄ¯sigyti":3192,"ĠÅ¾yd":3193,"audoti":3194,"Ġop":3195,"Ġpatr":3196,"ĠgrupÄĹ":3197,"ĠparuoÅ¡":3198,"auÅ¡":3199,"Ġrim":3200,"ĠÅ¾vaigÅ¾":3201,"nyr":3202,"eriai":3203,"sias":3204,"Ġnaujas":3205,"olis":3206,"ĠPl":3207,"Ġseks":3208,"inus":3209,"Ġmik":3210,"Ġkadangi":3211,"ĠtÄĹ":3212,"Ġformos":3213,"ex":3214,"Ġteigia":3215,"mus":3216,"Ġkainos":3217,"Ġmoteris":3218,"Pra":3219,"AN":3220,"Ġsvarbi":3221,"ĠAt":3222,"Ġpavasar":3223,"Ġkelio":3224,"aliÄħ":3225,"erb":3226,"Kr":3227,"Ġuniversiteto":3228,"Ġinici":3229,"60":3230,"ase":3231,"Ġmel":3232,"ĠEl":3233,"ausk":3234,"ĠÄ¯sik":3235,"Ġturime":3236,"Ġpaveik":3237,"ĠneÅ¾in":3238,"Ġdep":3239,"Jos":3240,"Ġw":3241,"Ġkonferen":3242,"Ġgau":3243,"Ġniekas":3244,"Ġprisim":3245,"alÄĹ":3246,"onis":3247,"ijung":3248,"Ġsand":3249,"Ġnetik":3250,"ĠVytau":3251,"Ġpacien":3252,"22":3253,"Ġnev":3254,"traukti":3255,"Ġgyn":3256,"rib":3257,"tadien":3258,"Ġkeis":3259,"Ġindividu":3260,"ĠVis":3261,"kaitÄĹ":3262,"ÄĹlyn":3263,"eral":3264,"arÅ³":3265,"DaÅ¾":3266,"Ġpardav":3267,"ĠteisÄĻ":3268,"Ġpagalbos":3269,"Kom":3270,"Ġtarsi":3271,"Ġdalyvauti":3272,"uomet":3273,"Å«no":3274,"Ġpaslaugos":3275,"Ġproced":3276,"ĠTar":3277,"krain":3278,"Ġnusprend":3279,"ĠdÄĹmesio":3280,"Ġskirta":3281,"ĠÅ¾mones":3282,"Ġkurs":3283,"Ġkli":3284,"Ġreguli":3285,"Ġkoleg":3286,"dama":3287,"ĠpaÅ¾eid":3288,"elig":3289,"Ġslap":3290,"Ġkategori":3291,"Ġbyl":3292,"ĠÄ¯rod":3293,"Ġpaprastai":3294,"okite":3295,"kup":3296,"baig":3297,"alog":3298,"ru":3299,"ly":3300,"Ġatg":3301,"Ġkari":3302,"telÄĹs":3303,"ĠeÅ¾er":3304,"Ġkompiuteri":3305,"Ġvaiko":3306,"ĠÅ¾inoma":3307,"Ġesu":3308,"Ġ21":3309,"ĠdÄĹs":3310,"ck":3311,"Ġprem":3312,"Ġpateikti":3313,"zmo":3314,"ĠKaune":3315,".).":3316,"ĠÄ¯spÅ«d":3317,"uog":3318,"ĠgeguÅ¾ÄĹs":3319,"ĠgÄĹr":3320,"Ġklaid":3321,"ĠbÄĹg":3322,"Ġsrityje":3323,"Ġspalio":3324,"Ġcentre":3325,"Ġregistr":3326,"ĠproduktÅ³":3327,"Ġ,,":3328,"Ġnetr":3329,"Ġdarbai":3330,"Ġdrabu":3331,"Ġkie":3332,"aitin":3333,"ienÄĹs":3334,"Ġjuk":3335,"Ġrankov":3336,"Ġgarb":3337,"ĠpasiraÅ¡":3338,"ĠnariÅ³":3339,"Ġapyl":3340,"usÄ¯":3341,"Ġbaz":3342,"efek":3343,"ĠpradÄĹti":3344,"Ġturnyr":3345,"Ġvirtuv":3346,"ytojÅ³":3347,"ou":3348,"Ġnusikal":3349,"Juk":3350,"ĠbirÅ¾elio":3351,"udÅ¾":3352,"yrÄĹ":3353,"ojoje":3354,"istÅ³":3355,"Åª":3356,"Ġprisid":3357,"teliÅ³":3358,"ĠpradÅ¾ioje":3359,"Ġistorija":3360,"racijos":3361,"Ġpavel":3362,"tine":3363,"ynÄĹs":3364,"enti":3365,"ĠskaiÄįi":3366,"ĠvieÅ¡bu":3367,"Ġvari":3368,"Ġpatek":3369,"intys":3370,"tines":3371,"Ġint":3372,"eja":3373,"gÅ¡":3374,"Ġvienos":3375,"Ġtradi":3376,"aitÄĹ":3377,"Ġapr":3378,"teris":3379,"Ġgro":3380,"ĠdÄĹÅ¾":3381,"80":3382,"ĠgalÄĹjo":3383,"inu":3384,"ĠtokÄ¯":3385,"Ġide":3386,"ke":3387,"Ġnereikia":3388,"ĠÄ¯sitik":3389,"ĠlÄĹk":3390,"Ġvyks":3391,"rigin":3392,"ateg":3393,"Ġinternetu":3394,"lus":3395,"kÅ¡":3396,"Ġvienu":3397,"Ġatsid":3398,"Ġsugeb":3399,"tÅ«ros":3400,"ĠÄ¯moniÅ³":3401,"ĠveÅ¾":3402,"ĠdarbuotojÅ³":3403,"Ġdirba":3404,"ite":3405,"Ġveiki":3406,"Ġkino":3407,"Ġrodo":3408,"Ġmilij":3409,"pareig":3410,"Ġpik":3411,"tumas":3412,"aisv":3413,"Ġtapti":3414,"artamen":3415,"eles":3416,"jÄ¯":3417,"ogr":3418,"Ġstruk":3419,"rus":3420,"ĠaukÅ¡Äįi":3421,"Ġanaliz":3422,"Ġgyvena":3423,"Ġdvar":3424,"UR":3425,"Ġnarys":3426,"Ġaplank":3427,"akal":3428,"Ġpasiekti":3429,"Val":3430,"Ġsutik":3431,"Ġdalies":3432,"ilp":3433,"Ġsausio":3434,"ytojas":3435,"Ġdienomis":3436,"Ġ194":3437,"ĠDievo":3438,"ĠdÄĹ":3439,"Ġasoci":3440,"uro":3441,"Ġaliej":3442,"ele":3443,"dav":3444,"uot":3445,"Ġvarik":3446,"entar":3447,"Ġgri":3448,"ÑĤ":3449,"pirk":3450,"ĠiÅ¡or":3451,"inkÅ¡":3452,"Ġliepos":3453,"intos":3454,"ve":3455,"Ġkokia":3456,"Ġkonf":3457,"iejÅ³":3458,"Ġpatikr":3459,"ĠÅ¾al":3460,"Äįiame":3461,"ĠÅ¡un":3462,"ĠlapkriÄįio":3463,"Åłiandien":3464,"Ġkuriuo":3465,"ijus":3466,"aros":3467,"Ġmag":3468,"cijai":3469,"ĠÅ¡ioje":3470,"ojimas":3471,"liais":3472,"kiu":3473,"ÄĹnÅ³":3474,"//":3475,"ausius":3476,"Ġlaiv":3477,"ĠVar":3478,"timÄħ":3479,"sime":3480,"ĠÅ¾ing":3481,"**":3482,"ĠPanev":3483,"Ġstab":3484,"elia":3485,"ĠmaÅ¾ai":3486,"Pard":3487,"Ġnetgi":3488,"vies":3489,"ara":3490,"ĠlaiÅ¡k":3491,"Ġsugr":3492,"Ġpie":3493,"Å¡i":3494,"pjÅ«Äįio":3495,"Ġatskl":3496,"Ġfor":3497,"Ġtokiu":3498,"Ġduomenis":3499,"Ġrengi":3500,"amojo":3501,"24":3502,"inÄįiÅ³":3503,"ĠVilk":3504,"Ġistor":3505,"kal":3506,"ĠlietuviÅ¡k":3507,"ĠpriemonÄĹs":3508,"Ġugdymo":3509,"Ġpeln":3510,"ybe":3511,"Ġeis":3512,"Ġalb":3513,"Vaik":3514,"Ġram":3515,"Ġlaikotarp":3516,"atÅ«ra":3517,"monÄĹs":3518,"Äįiams":3519,"Ġnamus":3520,"Gali":3521,"Ġteko":3522,"Ġpakankamai":3523,"orius":3524,"Ġgyvenime":3525,"encijos":3526,"Ġgab":3527,"jas":3528,"Ġnorite":3529,"ĠiÅ¡band":3530,"Ġpoil":3531,"Ġdidelis":3532,"Ġprat":3533,"ons":3534,"Ġlem":3535,"Kaun":3536,"ĠtiesÅ³":3537,"eji":3538,"Ġpasitik":3539,"Ġatsakom":3540,"Ġministerijos":3541,"umus":3542,"ĠsiÅ«lo":3543,"Ġtradic":3544,"ĠapÅ¡":3545,"iausias":3546,"Ġtarybos":3547,"ĠdÄĹlto":3548,"ĠiÅ¡lik":3549,"ÄĹÄįiau":3550,"Ġkompan":3551,"ĠvietÅ³":3552,"ĠdydÅ¾io":3553,"Ġnariai":3554,"US":3555,"Ġmm":3556,"Ġkamp":3557,"ĠpaÄįiu":3558,"Ġduo":3559,"elbi":3560,"ĠBri":3561,"Ġkvap":3562,"telÄĹ":3563,"ĠBaltijos":3564,"ĠVilnius":3565,"ojau":3566,"Ġsem":3567,"ĠteigÄĹ":3568,"okiÅ³":3569,"Ġelektros":3570,"ydamas":3571,"Ġjus":3572,"Ġatsisak":3573,"Ġpasakyti":3574,"Ġstog":3575,"echan":3576,"tuoti":3577,"Ġsunki":3578,"ĠproblemÅ³":3579,"Ġgeb":3580,"Ġteik":3581,"Ġ26":3582,"Ġsluok":3583,"Ġdvas":3584,"Ġrelig":3585,"Ġgink":3586,"Ġpagalba":3587,"ĠpadÄĹs":3588,"Pri":3589,"ĠÅłil":3590,"tuvas":3591,"Ġ60":3592,"Ġskol":3593,"Ġpsicholog":3594,"Kadangi":3595,"ĠLatv":3596,"ydami":3597,"Ġtavo":3598,"ĠPrancÅ«z":3599,"Ġvaikus":3600,"ĠbiudÅ¾":3601,"ukÄħ":3602,"Ġnuostat":3603,"Ġnutar":3604,"ĠsistemÄħ":3605,"arst":3606,"ĠgalÄĹs":3607,"Ġvokie":3608,"Ġgera":3609,"vers":3610,"Ġpabaigoje":3611,"Ġmieg":3612,"tovai":3613,"Ġpakeisti":3614,"Ġekran":3615,"Ġjung":3616,"Ġpoky":3617,"Ġ28":3618,"Ġiniciatyv":3619,"ĠÅ¡vietimo":3620,"ow":3621,"ulis":3622,"pozi":3623,"ĠatsiÅ¾vel":3624,"Ġprograma":3625,"Ġkitiems":3626,"kreip":3627,"Ġ2015":3628,"ĠnemaÅ¾ai":3629,"uodamas":3630,"ĠmoterÅ³":3631,"rijos":3632,"ĠbalandÅ¾io":3633,"Ġpolicijos":3634,"Ġakadem":3635,"anto":3636,"IM":3637,"ota":3638,"Ger":3639,"Ġsuaug":3640,"Ġnup":3641,"Ġpasin":3642,"angÅ³":3643,"odo":3644,"sniÅ³":3645,"noz":3646,"Ġpj":3647,"Ġtrauk":3648,"ÄĹlio":3649,"ĠMaÅ¾":3650,"ĠbÅ«das":3651,"ĠneuÅ¾":3652,"ĠplokÅ¡":3653,"umai":3654,"eo":3655,"ĠÅ¡alyje":3656,"Ġnepriklausom":3657,"Ð½":3658,"Si":3659,"23":3660,"co":3661,"pal":3662,"arbu":3663,"ĠiÅ¡m":3664,"ĠSÄħjungos":3665,"ĠklasÄĹs":3666,"utÄ¯":3667,"Ġrieb":3668,"ilank":3669,"Ġatos":3670,"Ġvaizdo":3671,"ÑĢ":3672,"Ġrajone":3673,"ĠleidÅ¾i":3674,"ĠÅ¡iuolaik":3675,"Ġpagamin":3676,"Ġalko":3677,"dy":3678,"Ġgav":3679,"Ġ27":3680,"tt":3681,"ĠsÄħskai":3682,"Ġturite":3683,"ĠmÄĹnesi":3684,"Ġsuprasti":3685,"Ġnegu":3686,"vad":3687,"ay":3688,"Ġatlyg":3689,"Ġknygos":3690,"ĠgruodÅ¾io":3691,"Ġsvaj":3692,"bÅ«":3693,"ĠbendruomenÄĹs":3694,"yklos":3695,"ĠLenkijos":3696,"Ġkuria":3697,"ĠÄ¯statymo":3698,"ĠpareiÅ¡k":3699,"tro":3700,"Ġtrup":3701,"Ġrenk":3702,"ĠÅ¾ied":3703,"Ġtuos":3704,"Ġtrenir":3705,"Ġapylink":3706,"Ġspar":3707,"uria":3708,"ĠMas":3709,"Ġankst":3710,"Ġpagalv":3711,"Ġ>":3712,"Ġ198":3713,"ĠkartÅ³":3714,"usiÄħ":3715,"onus":3716,"ĠÅ¡ilumos":3717,"Ġvidaus":3718,"ĠasmenÅ³":3719,"Ġgamtos":3720,"imams":3721,"inyje":3722,"Ġstrateg":3723,"Tiesa":3724,"Ġatostog":3725,"estuv":3726,"Ġplas":3727,"âĢĿ,":3728,"Äįiausiai":3729,"tinius":3730,"Ġvers":3731,"omÅ³":3732,"Ġdienas":3733,"Ġatm":3734,"Ġinvesti":3735,"ĠkÅ«d":3736,"ĠVakar":3737,"atoriÅ³":3738,"MaÅ¾":3739,"Ġsiekiant":3740,"edagog":3741,"Ġkariuomen":3742,"Ġkomplek":3743,"ĠPet":3744,"jo":3745,"vok":3746,"Ġjaunimo":3747,"ita":3748,"ĠVyriaus":3749,"alifik":3750,"ÄĹz":3751,"uoz":3752,"enas":3753,"Ġgamybos":3754,"ĠKaz":3755,"Mat":3756,"Å¾ia":3757,"Vienas":3758,"ĠgreiÄįiau":3759,"Ñģ":3760,"Ġimp":3761,"aliau":3762,"ĠmÄĹnes":3763,"Ġpasirinkti":3764,"esnÄĻ":3765,"ÄĹliau":3766,"ÄĹÅ¾io":3767,"PavyzdÅ¾iui":3768,"uojamos":3769,"----":3770,"eti":3771,"Na":3772,"Ġsep":3773,"Ġpatiek":3774,"ĠpasaulÄ¯":3775,"Ġnebus":3776,"Ġnuotaik":3777,"Ġtipo":3778,"ĠrÄĹm":3779,"Ġrasite":3780,"Ġatstovai":3781,"aviÅ¡kio":3782,"ava":3783,"ĠprekÄĹs":3784,"ĠiÅ¡Å¡":3785,"Ġgird":3786,"ĠsuknelÄĹs":3787,"Ġaktu":3788,"Mano":3789,"ÄĹjÄħ":3790,"Ġvaikas":3791,"usiems":3792,"atoriai":3793,"raÅ¾":3794,"Ġpel":3795,"Ġ:)":3796,"Ġnepak":3797,"ÄĹjams":3798,"Ġ2014":3799,"raz":3800,"ĠâĢ¢":3801,"Ġsutrik":3802,"ĠiÅ¡pl":3803,"erk":3804,"Ġbar":3805,"ykÅ¡":3806,"ĠpajÄĹg":3807,"vis":3808,"Ġkurti":3809,"Ġses":3810,"Pro":3811,"ĠgalimybÄĹ":3812,"Pagrind":3813,"Ġmokykloje":3814,"ĠmaÅ¾daug":3815,"engÄĹ":3816,"Ġkonstruk":3817,"ĠgalbÅ«t":3818,"liui":3819,"Å¡iÅ³":3820,"rÄħ":3821,"ani":3822,"omo":3823,"ĠÅ¾ali":3824,"nek":3825,"Ġgyventojai":3826,"tinos":3827,"ÄĹt":3828,"Tarp":3829,"Ġautomobilio":3830,"ĠValst":3831,"truk":3832,"esys":3833,"Ġpaslap":3834,"kart":3835,"ĠsÅ«n":3836,"Ġdalyje":3837,"alÄĹs":3838,"toti":3839,"ektak":3840,"Ġnaujo":3841,"ĠII":3842,"rasti":3843,"uotÄħ":3844,"Ġpast":3845,"ÄĹdamas":3846,"Ġprisi":3847,"Ġspaus":3848,"ystÄĹ":3849,"pres":3850,"amÄĹs":3851,"ĠpasiÅ¾ym":3852,"Å½inoma":3853,"ĠÅ¡iame":3854,"Prie":3855,"nÄħ":3856,"Ġgl":3857,"lar":3858,"ĠY":3859,"ĀĀĀĀĀĀĀĀ":3860,"ĠÅłiauliÅ³":3861,"osof":3862,"ĠJon":3863,"Ġkuriose":3864,"Ġdydis":3865,"Ġpilie":3866,"imuose":3867,"tolog":3868,"Ġkuriems":3869,"Ġtermin":3870,"teis":3871,"ytojai":3872,"ado":3873,"âĢĿ.":3874,"oris":3875,"ĠmaiÅ¡":3876,"uoÅ¾":3877,"oko":3878,"Ġbibliote":3879,"Ġstandar":3880,"ĠVid":3881,"acijas":3882,"Ġtvarka":3883,"ĠjauÄįi":3884,"Pan":3885,"ĠÄ¯kur":3886,"Ġkarjer":3887,"entÄħ":3888,"dÅ¾ius":3889,"Eur":3890,"ĠgeleÅ¾":3891,"arbo":3892,"ĠuÅ¾pil":3893,"tros":3894,"ba":3895,"onio":3896,"ĠjÅ«r":3897,"Ġred":3898,"Ġesame":3899,"Ġcukr":3900,"nÄĹs":3901,"Å¾em":3902,"Ġnauja":3903,"snis":3904,"andid":3905,"Pagal":3906,"Ġmer":3907,"eniai":3908,"ĠLR":3909,"Ġklausimus":3910,"Ġgyvenimas":3911,"els":3912,"ĠtyrimÅ³":3913,"ĠAd":3914,"Ġtrys":3915,"toran":3916,"Ġpager":3917,"://":3918,"Ġpramog":3919,"Ġsov":3920,"tino":3921,"Ġpriimti":3922,"ĠgalÄĹsite":3923,"ãĤ¢":3924,"Ġdepartamen":3925,"ĠÅ¾ai":3926,"Ġorigin":3927,"Pal":3928,"aidinÄĹs":3929,"Ġ29":3930,"Ġpergal":3931,"Ġ%":3932,"tras":3933,"ĠjÅ«ros":3934,"oras":3935,"inasi":3936,"ybai":3937,"Ak":3938,"ĠprojektÄħ":3939,"Ġsusitar":3940,"Ġstatybos":3941,"eki":3942,"ytÄĹs":3943,"Ġpaveiksl":3944,"Ġinteres":3945,"ave":3946,"Ġsiekia":3947,"ĠÄ¯sikÅ«r":3948,"ininkams":3949,"ÄĹliai":3950,"Ġrag":3951,"Ġlent":3952,"Ġmatyti":3953,"ĠstudijÅ³":3954,"Ver":3955,"amÅ³jÅ³":3956,"Ġgalvos":3957,"ĠuÅ¾tikrinti":3958,"Ġrinktis":3959,"fo":3960,"Ġspind":3961,"toriai":3962,"ĠpaÄįios":3963,"pti":3964,"ĠÅ¡iuos":3965,"ĠreikalÅ³":3966,"Ġvadovauj":3967,"aitis":3968,"ĠÄ¯var":3969,"Ġtema":3970,"Ġsiau":3971,"Ġmaitin":3972,"pÄħ":3973,"yÅ¾i":3974,"menys":3975,"ĠmedÅ¾iaga":3976,"DidÅ¾i":3977,"ĠseniÅ«n":3978,"Ġpartijos":3979,"amu":3980,"Ġegzist":3981,"Å¡kos":3982,"ĠmÄĹs":3983,"ĠIÅ¡":3984,"tul":3985,"Ġturto":3986,"Ġsaugumo":3987,"Ġnustatyti":3988,"Ġker":3989,"Ġgin":3990,"Ġpatrauk":3991,"EL":3992,"Ġvasario":3993,"tingi":3994,"land":3995,"Ġmokykla":3996,"ĠteisiÅ³":3997,"ĠdeÅ¡":3998,"ĠiÅ¡vyk":3999,"Ġmor":4000,"ragÄĹs":4001,"Ġtv":4002,"Ġdefek":4003,"ĠNor":4004,"26":4005,"Ġol":4006,"Ġtikri":4007,"Ġmiestas":4008,"ĠprogramÄħ":4009,"ãĤ¢ãĤ¢":4010,"ĠpusÄĻ":4011,"Ġmechan":4012,"Ġsuvok":4013,"ual":4014,"Ġlog":4015,"olo":4016,"ĠkelionÄĹs":4017,"Ġvyras":4018,"ĠiÅ¡saug":4019,"Ġapmok":4020,"tam":4021,"Ġakim":4022,"Ġx":4023,"Ġpasig":4024,"Ġnepav":4025,"Ġatid":4026,"Ġkaimyn":4027,"Iki":4028,"Ġpraei":4029,"Ġprofesion":4030,"Ġsunk":4031,"ĠdeÅ¡im":4032,"Ġchem":4033,"ĠUkrain":4034,"Ġnaujos":4035,"Ġmotyv":4036,"Å¾ud":4037,"Ġgerokai":4038,"Ġinvest":4039,"erc":4040,"Ġpedagog":4041,"ale":4042,"Tada":4043,"ejÅ³":4044,"Ġdaro":4045,"Ġduomenys":4046,"ĠkalbÄĹjo":4047,"Ġlaukia":4048,"ĠdrÄĹg":4049,"Ġlaikais":4050,"Ġgalimybes":4051,"inimui":4052,"aina":4053,"Ġkolektyv":4054,"Ġtrans":4055,"2018":4056,"toja":4057,"Ġliko":4058,"atu":4059,"ĠUÅ¾":4060,"Ġkolek":4061,"ĠuÅ¾m":4062,"Ġprojektas":4063,"eiviÅ³":4064,"iesiems":4065,"lu":4066,"Mo":4067,"Ġfon":4068,"Ġaki":4069,"ĠJung":4070,"ĠVokieti":4071,"ĠkeliÄħ":4072,"ĠpieÅ¡":4073,"Å¾iu":4074,"ĠÄ¯Å¾":4075,"ĠlitÅ³":4076,"ymosi":4077,"tame":4078,"Ġklausimas":4079,"Ġvasaros":4080,"iÅ¡kÄħ":4081,"Ilg":4082,"194":4083,"ier":4084,"21":4085,"ĠkrikÅ¡Äįi":4086,"ĠtrijÅ³":4087,"Pui":4088,"Ġpalyg":4089,"ĠmÄĹgst":4090,"Ġdirektorius":4091,"Ġvidut":4092,"enc":4093,"anÄįiu":4094,"Å¾iÅ«ri":4095,"imok":4096,"Ġpradeda":4097,"ET":4098,"ĠÄ¯ranga":4099,"ĠEuropoje":4100,"Ġaptarn":4101,"ene":4102,"Ġautobus":4103,"ÄĹlÄ¯":4104,"umui":4105,"Ġapsis":4106,"Ġpunk":4107,"Ġsusis":4108,"ĠÅ¡alyse":4109,"ĠminÄĹ":4110,"ĠmiÅ¡":4111,"eliui":4112,"ĠÅ¡iemet":4113,"anÄįiais":4114,"ona":4115,"Ġbilie":4116,"ias":4117,"Ġskry":4118,"ĠistorijÄħ":4119,"ĠAng":4120,"ĠneÅ¾":4121,"Å¡kÄħ":4122,"cep":4123,"iÅ¡kos":4124,"ON":4125,"ĠÅ¾iniÅ³":4126,"Ä¯s":4127,"ijamp":4128,"Ġmi":4129,"ĠÅ¡l":4130,"Ġakis":4131,"Var":4132,"Ġwww":4133,"Å«g":4134,"ĠuÅ¾dar":4135,"ĠkainÄħ":4136,"mu":4137,"ĠrugpjÅ«Äįio":4138,"ĠturÄĹs":4139,"ĠAp":4140,"ĠVokietijos":4141,"eistas":4142,"ravo":4143,"eten":4144,"ĠpusÄĹs":4145,"Buvo":4146,"Ġtenka":4147,"uotÄĹs":4148,"Ġkak":4149,"veÅ¾":4150,"ĠpaÄįiÅ³":4151,"Ġinte":4152,"Ġkamer":4153,"ĠJo":4154,"ĠgrieÅ¾":4155,"alyv":4156,"Ġpraded":4157,"nes":4158,"Ġprivalo":4159,"Ġpasirinkimas":4160,"ĠÄ¯sak":4161,"Ġpagr":4162,"Ġatvejais":4163,"atus":4164,"ovÅ³":4165,"Ġpaklaus":4166,"Ġtvirtin":4167,"Ġdauguma":4168,"mi":4169,"Ġpersp":4170,"âĢ¢":4171,"Med":4172,"Pasi":4173,"ingus":4174,"oviÅ³":4175,"for":4176,"Ġrau":4177,"iname":4178,"adas":4179,"cion":4180,"ensyv":4181,"inÄĹms":4182,"ĠpuoÅ¡":4183,"Ġbro":4184,"avimui":4185,"Ð¾Ð":4186,"ĠrÅ«gÅ¡":4187,"ajame":4188,"ĠiÅ¡laid":4189,"Ġprisijung":4190,"27":4191,"âĢ¦]":4192,"di":4193,"Ġma":4194,"Ġtarpu":4195,"28":4196,"utÄĻ":4197,"egistr":4198,"timÅ³":4199,"Åłios":4200,"Ġunik":4201,"Ġkuriuose":4202,"Ġkandid":4203,"Ġrak":4204,"Ġgrind":4205,"Ġtautos":4206,"Ġprar":4207,"gar":4208,"meÄįio":4209,"Vilniaus":4210,"Ġgavo":4211,"Ġge":4212,"ĠbÅ«klÄĹs":4213,"ĠÅ¡eima":4214,"Ġsprendimas":4215,"ĠmokiniÅ³":4216,"==":4217,"ĠieÅ¡koti":4218,"ĠÄ¯vyko":4219,"Ġkvalifik":4220,"Ġskelbi":4221,"alaus":4222,"riÅ³":4223,"ĠbendrovÄĹs":4224,"Ġpaties":4225,"yrus":4226,"ierius":4227,"ĠiÅ¡sil":4228,"noj":4229,"tipr":4230,"ĠKin":4231,"ĠLt":4232,"Ġme":4233,"utes":4234,"ykla":4235,"uodami":4236,"usias":4237,"ĠminuÄįiÅ³":4238,"Ġtarnybos":4239,"ĠMo":4240,"ĠpasiruoÅ¡":4241,"uom":4242,"ĠmokesÄįiÅ³":4243,"ĠJus":4244,"de":4245,"ÄĹtai":4246,"emokr":4247,"yboje":4248,"ĠAk":4249,"Ġpokalb":4250,"Ġpamatyti":4251,"Ġsilp":4252,"tabi":4253,"bin":4254,"Ġvestuv":4255,"Ġknyga":4256,"ved":4257,"Ġtikras":4258,"Pak":4259,"Ġskub":4260,"VI":4261,"ĠpirÅ¡":4262,"Ant":4263,"yps":4264,"tukas":4265,"Daugiau":4266,"ĠmÄħst":4267,"ĠJuoz":4268,"tojus":4269,"Ġpatenk":4270,"ĠdalykÅ³":4271,"Ġstudij":4272,"ĠÅ¾mogui":4273,"Ġakc":4274,"Mar":4275,"torÄĹ":4276,"avimai":4277,"Ġstengi":4278,"ĠatÅ¡":4279,"ĠknygÅ³":4280,"Ġsavan":4281,"kia":4282,"kurs":4283,"tok":4284,"Ġsuteiki":4285,"Ġprofesional":4286,"uojasi":4287,"Ġtari":4288,"ĠItal":4289,"ĠtokiÄħ":4290,"ĠmeilÄĹs":4291,"ĠSt":4292,"29":4293,"ĠreÅ¾is":4294,"ĠvaldÅ¾ios":4295,"Ġmokymo":4296,"ĠnuoÅ¡":4297,"Å²":4298,"Ġesant":4299,"Ġatspar":4300,"Ġdvira":4301,"Ġproga":4302,"Ġpinigus":4303,"Ġnuostab":4304,"Ġdiskus":4305,"tiz":4306,"Kol":4307,"uoliÅ³":4308,"ĠgalimybÄĹs":4309,"Ġjame":4310,"iÅ³sti":4311,"Ġvietas":4312,"giu":4313,"ÅłÄ¯":4314,"Ġsn":4315,"Ġsusir":4316,"ulp":4317,"Ġapsilank":4318,"Ġpirma":4319,"ĠpaukÅ¡":4320,"ovin":4321,"omÄħ":4322,"tion":4323,"ybÄĹje":4324,"kar":4325,"Ġpriva":4326,"imos":4327,"Ġlauko":4328,"VÄĹliau":4329,"tikÄħ":4330,"eliais":4331,"ĠkaÅ¾kÄħ":4332,"Ġmeis":4333,"Ġliud":4334,"iÄħ":4335,"ĠsÄĹkmingai":4336,"Ġgeras":4337,"Ġled":4338,"Ġbrand":4339,"Ġpoveik":4340,"iest":4341,"giant":4342,"Ġprab":4343,"ĠpradÅ¾iÅ³":4344,"ĠspalvÅ³":4345,"ÄĹra":4346,"ĠplaukÅ³":4347,"Ġdraudimo":4348,"Ġteatro":4349,"Ġsvarbus":4350,"Ġ000":4351,"Did":4352,"ĠskirtingÅ³":4353,"ĠTel":4354,"ĠsprendimÄħ":4355,"Ġkul":4356,"ĠÅ¡irdies":4357,"Ġfilosof":4358,"Ġfutbolo":4359,"ĠsÄħlygas":4360,"Ġ197":4361,"ynÄĹ":4362,"ĠNe":4363,"Ġkokios":4364,"ĠiÅ¡p":4365,"Ġdaugelis":4366,"augo":4367,"pag":4368,"Ġlygio":4369,"Ġorgan":4370,"Ġrestoran":4371,"kaitos":4372,"Ġkraujo":4373,"ĠpasirodÄĹ":4374,"Ġpoilsi":4375,"Ġraudon":4376,"Ġnaudojamas":4377,"yst":4378,"ĠRad":4379,"Ġmokiniai":4380,"To":4381,"Ġtarpus":4382,"jus":4383,"Ġneteis":4384,"apon":4385,"tacijos":4386,"Ġinternete":4387,"Ġkasmet":4388,"Ġapim":4389,"Ġnaujien":4390,"ausiu":4391,"austi":4392,"gub":4393,"ĠminkÅ¡":4394,"Ġpersi":4395,"avus":4396,"ĠÅ¡alis":4397,"ĠtechnologijÅ³":4398,"ĠkrepÅ¡inio":4399,"Ġok":4400,"Ġredak":4401,"Ġstalo":4402,"Kur":4403,"inimu":4404,"enÄħ":4405,"Ġmikro":4406,"Ġpadal":4407,"Ġnepam":4408,"aÅ¾o":4409,"liams":4410,"Ġrinkos":4411,"OR":4412,"Ġsumok":4413,"tosios":4414,"Ġproblema":4415,"ĠsaulÄĹs":4416,"Ġ2012":4417,"ĠÅ¡var":4418,"Ġkir":4419,"kis":4420,"ĠdÄĹv":4421,"ĠvasarÄħ":4422,"KÄħ":4423,"Ġthe":4424,"Ġnul":4425,"ĠpatÄ¯":4426,"br":4427,"Ġspektak":4428,"Ġpvz":4429,"ÄįiÄħ":4430,"odami":4431,"AU":4432,"III":4433,"imosi":4434,"ĠprasidÄĹjo":4435,"th":4436,"ysite":4437,"gim":4438,"ĠgrÄħÅ¾":4439,"ÄĹkl":4440,"ĠiÅ¡rink":4441,"ĠÅ¾urnalis":4442,"Ġ2013":4443,"ðŁ":4444,"ĠVilkaviÅ¡kio":4445,"____":4446,"Ġturin":4447,"Ġvyst":4448,"Ġnaudotis":4449,"Ġ(âĢŀ":4450,"Ġpasidal":4451,"ĠdidelÄĹ":4452,"air":4453,"Ġ80":4454,"Ġdirbo":4455,"Ġnukr":4456,"jame":4457,"ytus":4458,"ĠpapuoÅ¡":4459,"erija":4460,"Ġkg":4461,"Ġanti":4462,"Ġtokius":4463,"augos":4464,"nius":4465,"ãģ":4466,"Ġdalyviai":4467,"Ġvit":4468,"Ġorganizacijos":4469,"35":4470,"lÄ¯":4471,"ĠJÅ«s":4472,"Ġpatinka":4473,"Ġduomenimis":4474,"tingas":4475,"ĠÅ¾iniaskl":4476,"Ġneigi":4477,"inÄĻs":4478,"ĠÄ¯monÄĹ":4479,"Ġmanau":4480,"ĠÅ¡iais":4481,"ykliÅ³":4482,"Ġrep":4483,"Ġdaugi":4484,"Ġbrang":4485,"ĠnebÅ«tÅ³":4486,"nuo":4487,"Ġbaigi":4488,"erÄ¯":4489,"Ġsavimi":4490,"ĠtÄĹvÅ³":4491,"Ġvon":4492,"Ġtil":4493,"Ġfoto":4494,"ĠÄįi":4495,"Ġpirmininkas":4496,"Ġpriemones":4497,"Ġep":4498,"Ġveis":4499,"BÅ«":4500,"antai":4501,"Ġasmenys":4502,"ova":4503,"tep":4504,"tyse":4505,"Ġvyriaus":4506,"Ġspeciali":4507,"avÄĹ":4508,"ĠgerÄħ":4509,"Ġdel":4510,"Ġgeros":4511,"Ġagent":4512,"ĠVieÅ¡":4513,"olÄĹ":4514,"Ġligos":4515,"IT":4516,"JÅ³":4517,"unik":4518,"Ġemo":4519,"avimu":4520,"ĠkiauÅ¡":4521,"ĠPalaidinÄĹs":4522,"kaitant":4523,"Ġvisuomet":4524,"abej":4525,"Ġpapild":4526,"ojimÅ³":4527,"aida":4528,"ĠÄ¯sipareig":4529,"ore":4530,"amasis":4531,"Ġremi":4532,"rius":4533,"ĠAus":4534,"ĠmarÅ¡":4535,"Ġtarpusav":4536,"Ġparamos":4537,"audos":4538,"Ġtir":4539,"Ġsienos":4540,"ĠsvetainÄĹje":4541,"Ġruden":4542,"ema":4543,"Ġkiekvieno":4544,"Ġesate":4545,"uoÄįiÅ³":4546,"Ġpaskut":4547,"Ġspalva":4548,"Ġvarg":4549,"Pa":4550,"toms":4551,"Ġreikalavimus":4552,"Ġkeisti":4553,"Ġreiki":4554,"Ġvykdom":4555,"Sus":4556,"lam":4557,"ĠkokÄ¯":4558,"Å¾iais":4559,"Ġverta":4560,"yÅ¡":4561,"ook":4562,"Ġpasakojo":4563,"ĠmokslÅ³":4564,"ĠÄ¯kv":4565,"ĠiÅ¡gyven":4566,"ĠkalbÄĹti":4567,".),":4568,"Ġpasikei":4569,"Ġpageid":4570,"Ġintensyv":4571,"ĠprojektÅ³":4572,"Ġatas":4573,"Ġvel":4574,"Ġasmuo":4575,"Ġeki":4576,"ĠÅ¾vaigÅ¾d":4577,"ĠAlg":4578,"Dr":4579,"anÄįia":4580,"Ġpirmasis":4581,"Ġprietais":4582,"Ġkreiptis":4583,"ĠÄ¯gyvendinti":4584,"vilg":4585,"Ġstai":4586,"yzd":4587,"tir":4588,"ĠsÄħjungos":4589,"isti":4590,"ĠdaÅ¾niau":4591,"ĠsavÄĻs":4592,"ĠÄ¯tar":4593,"Ġduk":4594,"uokite":4595,"Ġatsiranda":4596,"ĠvalstybiÅ³":4597,"engv":4598,"ĠAmerikos":4599,"ĠiÅ¡man":4600,"asak":4601,"angÄħ":4602,"Es":4603,"Ġgil":4604,"ĠtÄĹvai":4605,"ĠKat":4606,"ĠlÄĹÅ¡Å³":4607,"Ġforma":4608,"Ġsvarbiausia":4609,"Ġmedicinos":4610,"Ġpartiz":4611,"ĠmedÅ¾io":4612,"Ġfilm":4613,"Ġpaaug":4614,"ĠiÅ¡sk":4615,"IK":4616,"ybei":4617,"Ġpla":4618,"aranki":4619,"vyd":4620,"eikÄĹ":4621,"yÅ¾":4622,"Ġklubo":4623,"metÄ¯":4624,"eipi":4625,"Ġeiti":4626,"Ġdrus":4627,"ĠrankovÄĹmis":4628,"Ġmirties":4629,"ĠpriÄĹm":4630,"Ġtinkamai":4631,"ĠmokyklÅ³":4632,"iÅ¡ki":4633,"Ġpatalp":4634,"Ġgimnazijos":4635,"Ġabs":4636,"Ġpolitikos":4637,"Ġpriv":4638,"ikÄħ":4639,"Ġpakr":4640,"Ġmoderni":4641,"ĠsuÅ¾ino":4642,"aila":4643,"Ġstraipsnio":4644,"ĠatÅ¾":4645,"Ġkontak":4646,"sto":4647,"aviÄįius":4648,"Ġdarbuotojai":4649,"menÄ¯":4650,"ĠSi":4651,"Ġoptim":4652,"Ġ(\"":4653,"Ġleg":4654,"Åłie":4655,"iÅ¡kÅ³":4656,"ĠTeis":4657,"ĠkeiÄįi":4658,"Ġlengviau":4659,"ĠraÅ¡o":4660,"Ġnorint":4661,"ĠvarÅ¾yb":4662,"Ġpamink":4663,"Ġchar":4664,"Ġbanko":4665,"ingu":4666,"Ġ[âĢ¦]":4667,"Ġinformac":4668,"KodÄĹl":4669,"tumÄħ":4670,"Ġmont":4671,"se":4672,"Ġgalo":4673,"Ġkonsul":4674,"kit":4675,"Ġatsirado":4676,"aminti":4677,"Ġnagr":4678,"ĠmÄĹlyn":4679,"avÄĻ":4680,"ĠkaÅ¾kas":4681,"ĠLT":4682,"Ġatkreip":4683,"Ġpried":4684,"Ġ*":4685,"Ġsuteikti":4686,"Ch":4687,"Ġbur":4688,"oju":4689,"eriu":4690,"tÅ«ra":4691,"Vid":4692,"Ġgero":4693,"Ġmoterys":4694,"Ġnamai":4695,"Ġberni":4696,"El":4697,"Ġinterjer":4698,"ĠvertÄĹ":4699,"Ġgydymo":4700,"Ġnaudojant":4701,"Ġfestiv":4702,"ĠligÅ³":4703,"Ġkyla":4704,"iks":4705,"ĠtaÅ¡kÅ³":4706,"ysis":4707,"orio":4708,"Ġskan":4709,"Ġliaud":4710,"ĠiÅ¡kil":4711,"ĠtuÅ¡":4712,"taÅ¾":4713,"ĠBar":4714,"ydavo":4715,"Å¡kÅ³":4716,"aksim":4717,"ĠiÅ¡sis":4718,"ĠMed":4719,"ĠpusÄĹje":4720,"ĠÄĹmÄĹ":4721,"ĠrankÅ³":4722,"Ġkompiuter":4723,"Ġteismo":4724,"ator":4725,"eter":4726,"ĠÄ¯gÅ«":4727,"Ġdiev":4728,"Ġaus":4729,"Ġvyskup":4730,"Ġofici":4731,"Ġfestival":4732,"Ġdalykas":4733,"Ġvieni":4734,"arba":4735,"ĠkiÅ¡":4736,"Ġdaugiausia":4737,"Ġparap":4738,"tic":4739,"nt":4740,"Ġ196":4741,"Ġand":4742,"Ġpert":4743,"ĠmokyklÄħ":4744,"Ġmit":4745,"Ġporeikius":4746,"Ġsign":4747,"ĠÅ¾mogÅ³":4748,"ĠreiÅ¡k":4749,"Ġveido":4750,"ovos":4751,"ĠnaktÄ¯":4752,"Ġbendra":4753,"dÅ¾ia":4754,"Ġkrem":4755,"auna":4756,"ĠIr":4757,"Ġpur":4758,"Ġnegalima":4759,"Ġsvarst":4760,"ĠInd":4761,"ĠÅ¡ventÄĹs":4762,"Ġpavaduotoj":4763,"ĠPanevÄĹÅ¾io":4764,"cik":4765,"Ġ2011":4766,"imp":4767,"enta":4768,"Ġjais":4769,"Ġ35":4770,"pek":4771,"Ġ195":4772,"Pask":4773,"ĠiÅ¡tek":4774,"inties":4775,"Ġneto":4776,"Ġnuorod":4777,"Ġklini":4778,"eria":4779,"Ġkuriais":4780,"ĠaukÅ¡t":4781,"Tam":4782,"Ġpirmiausia":4783,"ĠinÅ¾in":4784,"eiÅ¡kia":4785,"198":4786,"pro":4787,"tÅ³jÅ³":4788,"Kauno":4789,"prÄĻsti":4790,"Ġtekst":4791,"Ġlauki":4792,"pu":4793,"Ġnustatyta":4794,"ĠvyrÅ³":4795,"ĠdÄĹk":4796,"ĠAnt":4797,"ĠtikrÅ³jÅ³":4798,"okur":4799,"ĠklientÅ³":4800,"Ġstar":4801,"idab":4802,"ĠuÅ¾raÅ¡":4803,"ĠdalyviÅ³":4804,"Ġdvasi":4805,"Ġminim":4806,"jau":4807,"ybÄĹmis":4808,"Ġneats":4809,"log":4810,"Ġmoteri":4811,"Ġskys":4812,"ĠanglÅ³":4813,"ĠlÄĹktuv":4814,"tinti":4815,"ĠsÄħn":4816,"Ġproblemas":4817,"ydÄ¯":4818,"amosios":4819,"Ġpoveiki":4820,"Ġ2010":4821,"Ġbaim":4822,"ĠpÄĹd":4823,"antu":4824,"ĠvokieÄįiÅ³":4825,"Ġvisoje":4826,"Å«rimo":4827,"ĠVer":4828,"JÅ«s":4829,"Ġregion":4830,"ĠgalimybiÅ³":4831,"Savo":4832,"ĠrusÅ³":4833,"ĠpavyzdÅ¾i":4834,"Ġhtt":4835,"Ġpareng":4836,"les":4837,"Ġpuikus":4838,"Ġpig":4839,"ĠiÅ¡vengti":4840,"2017":4841,"Ġeismo":4842,"onos":4843,"Niek":4844,"mui":4845,"Ä¯sta":4846,"avivald":4847,"ĠaukÅ¡tos":4848,"Ġskaid":4849,"anÄįiai":4850,"ĠÅ¡lap":4851,"Åłtai":4852,"ĠâĢĺ":4853,"ininkus":4854,"Ġlak":4855,"Ġnetek":4856,"ĠlaikraÅ¡":4857,"ĠÄ¯staigÅ³":4858,"idas":4859,"Ġsmul":4860,"Ġpritar":4861,"be":4862,"Ġrinkoje":4863,"ÄĹtumÄĹte":4864,"ÄĹlap":4865,"ĠÄ¯manoma":4866,"asti":4867,"aujant":4868,"egal":4869,"ĠTur":4870,"ÄħÅ¾in":4871,"ĠBaÅ¾ny":4872,"Ġpens":4873,"aisant":4874,"07":4875,"ĠknygÄħ":4876,"ÄĹgi":4877,"eder":4878,"Ġlinksm":4879,"Ġpavyzd":4880,"ĠÅ¡iaurÄĹs":4881,"ÄĹjui":4882,"Ġmis":4883,"Ġtyrimo":4884,"Ġdev":4885,"not":4886,"aiÄįiÅ³":4887,"ĠlaikÅ³":4888,"Ġpaskui":4889,"Ġviduje":4890,"uliÅ³":4891,"Ġnuosav":4892,"Ġlengva":4893,"Ġsuprant":4894,"eviÄįiaus":4895,"Ġnaudojami":4896,"ĠneÅ¡i":4897,"mati":4898,"Galima":4899,"Ġspecialistai":4900,"Å¡ko":4901,"ĠLietuvai":4902,"33":4903,"Ġsprendimus":4904,"Ġbuvau":4905,"Ġsavaranki":4906,"Ġpriz":4907,"ĠsuÅ¾in":4908,"ĠdokumentÅ³":4909,"Ġkav":4910,"iausiÅ³":4911,"zÄĹs":4912,"ĠbÅ«r":4913,"ĠpamirÅ¡":4914,"aitÄĹs":4915,"ED":4916,"Projek":4917,"kitÄĹs":4918,"ĠKalÄĹd":4919,"ynÅ³":4920,"Geri":4921,"ysime":4922,"ĠMok":4923,"Ġvienin":4924,"Ġkuriam":4925,"ĠÄ¯vertinti":4926,"esnius":4927,"IX":4928,"alaik":4929,"ĠreikÅ¡m":4930,"ĠpasiÅ«lyti":4931,"Pad":4932,"sniai":4933,"99":4934,"ĠgatvÄĹs":4935,"enÄĹ":4936,"ĠKom":4937,"ĠÅ¾inoti":4938,"ĠklausimÄħ":4939,"Å½em":4940,"Ġaktyviai":4941,"entais":4942,"Tau":4943,"ĠJÄĹz":4944,"nus":4945,"Keli":4946,"Ġher":4947,"yni":4948,"ĠGed":4949,"ĠpradÅ¾ios":4950,"Ġpriver":4951,"ĠKor":4952,"Ġpirkti":4953,"Ġpieno":4954,"tifik":4955,"ÄĹtume":4956,"ĠMon":4957,"SR":4958,"Ġsam":4959,"ĠprieÅ¾asÄįiÅ³":4960,"Ġpasek":4961,"Ġsunkiai":4962,"Sud":4963,"etÄĹ":4964,"gti":4965,"iaus":4966,"lika":4967,"tingai":4968,"Ġdol":4969,"Ġ70":4970,"ĠiÅ¡gir":4971,"okas":4972,"Sen":4973,"ĠÅ¾vilg":4974,"Ġgerb":4975,"prieÅ¡":4976,"yksta":4977,"ich":4978,"ĠliteratÅ«ros":4979,"ĠMarijamp":4980,"Ġrecep":4981,"ĠsutartÄ¯":4982,"Ġkontroli":4983,"Pris":4984,"Ġvisame":4985,"Ġstiliaus":4986,"Ġregist":4987,"racija":4988,"Ġpublik":4989,"ĠmiestÄħ":4990,"Ġkiem":4991,"ĠkalbÄħ":4992,"ĠpaieÅ¡kos":4993,"ein":4994,"Ġdeklar":4995,"vietimo":4996,"Ġmama":4997,"tinga":4998,"intÄħ":4999,"yne":5000,"ĠprancÅ«z":5001,"ĠsÄħmon":5002,"atoriaus":5003,"ĠMat":5004,"entu":5005,"ĠpoÅ¾iÅ«r":5006,"Ġapar":5007,"ĠVakarÅ³":5008,"intiems":5009,"Ġteori":5010,"Ġnelaim":5011,"05":5012,"eista":5013,"tern":5014,"ĠÅ¡ventÄĹ":5015,"amiesi":5016,"Ġtiesiogiai":5017,"Ġkomentar":5018,"ĠmÄĹnesio":5019,"ĠesmÄĹs":5020,"Ġsklyp":5021,"45":5022,"pai":5023,"Ġkokie":5024,"Ġvietov":5025,"Ġtiems":5026,"ĠrÅ«pes":5027,"Ġteritorijoje":5028,"Ġvanduo":5029,"Ġgaliu":5030,"Ġkiekis":5031,"Ġpavard":5032,"Ġ31":5033,"onÄĹ":5034,"Ġturiu":5035,"acijai":5036,"Ġperi":5037,"ĠdÄĹka":5038,"ietis":5039,"Ġanksto":5040,"Ġdipl":5041,"ĠRytÅ³":5042,"Ġreal":5043,"avome":5044,"ausko":5045,"ĠiÅ¡ties":5046,"Prad":5047,"Ġpenki":5048,"Ġkompozi":5049,"Ġmintis":5050,"ĠPil":5051,"enz":5052,"Pir":5053,"Ġpatyr":5054,"uc":5055,"Ġgarso":5056,"Ġink":5057,"iÅ¡ko":5058,"Ġteigimu":5059,"Ġadministrac":5060,"Ġklasik":5061,"til":5062,"ĠLe":5063,"Ġpriklausom":5064,"ieriaus":5065,"ge":5066,"ĠmÄĹnesiÅ³":5067,"tes":5068,"entÄĹ":5069,"trÅ«k":5070,"nÄĹ":5071,"ometr":5072,"ĠPag":5073,"ĠÄ¯steig":5074,"ejus":5075,"Ġgan":5076,"39":5077,"ĠÅ¾aisti":5078,"Ġ2009":5079,"ĠuÅ¾siÄĹm":5080,"Ġla":5081,"fin":5082,"ĠsugrÄ¯Å¾":5083,"Ġpaprasta":5084,"eviÄį":5085,"Ġterm":5086,"Ġpasieki":5087,"Ġvietose":5088,"ĠautomobilÄ¯":5089,"Ġvardu":5090,"Ġokup":5091,"ybinÄĹs":5092,"ĠveiksmÅ³":5093,"tiÅ¡kas":5094,"Å«Å¡":5095,"Ġbui":5096,"Ġkompleks":5097,"Ġgarsi":5098,"ĠlaisvÄĹs":5099,"ĠÅ¡tai":5100,"ĠBer":5101,"Ġgyveno":5102,"MA":5103,"Ġkiekvienam":5104,"Ġatsilie":5105,"Ġpareigas":5106,"ÄĹjimÅ³":5107,"Vakar":5108,"mm":5109,"ainiÅ³":5110,"Ġrezultatus":5111,"Ġugd":5112,"Ġsezono":5113,"Ġseminar":5114,"Ġbul":5115,"Europ":5116,"amerik":5117,"vid":5118,"inamos":5119,"tono":5120,"jungti":5121,"Ġekolog":5122,"snÄ¯":5123,"Antr":5124,"ĠsveÄįi":5125,"Ġkonsult":5126,"ĠdantÅ³":5127,"ĠplÄĹtros":5128,"ĠKur":5129,"ĠGal":5130,"ĠbaÅ¾nyÄįios":5131,"Ġdalyvauja":5132,"Ġpasakoja":5133,"Manau":5134,"Ġatgal":5135,"uojantis":5136,"dos":5137,"IJ":5138,"ĠuÅ¾sid":5139,"Anot":5140,"inimÅ³":5141,"38":5142,"qu":5143,"aprastai":5144,"red":5145,"palaid":5146,"Ġbesi":5147,"Kartais":5148,"ĠuÅ¾sis":5149,"cijomis":5150,"Ġsmulk":5151,"37":5152,"ystÄĻ":5153,"ĠparduotuvÄĹje":5154,"ĠreikÄĹs":5155,"Ġkrov":5156,"neÅ¡":5157,"timus":5158,"ikas":5159,"ynÄħ":5160,"aukÄĹ":5161,"ĠpaÅ¡to":5162,"Ġkonserv":5163,"Ġasmenims":5164,"ĠrÅ«Å¡iÅ³":5165,"ingumÄħ":5166,"ark":5167,"ĠsusipaÅ¾inti":5168,"Ġmom":5169,"Ġpanaik":5170,"Ġdie":5171,"Ġja":5172,"ytu":5173,"ĠpaÅ¡tu":5174,"ĠpadÄĹ":5175,"ĠtikrÄħ":5176,"Ġnuoma":5177,"The":5178,"Ġleisti":5179,"ĠklausimÅ³":5180,"ĠrinkimÅ³":5181,"Ġilgiau":5182,"Ġtre":5183,"Ġnepasi":5184,"ĠstruktÅ«r":5185,"akteri":5186,"auskaitÄĹ":5187,"tarus":5188,"ĠpriemonÄĹ":5189,"vietÄĹ":5190,"Ġsituacija":5191,"ĠsukÅ«rÄĹ":5192,"ĠgrÄĹs":5193,"ĠAleks":5194,"Tuomet":5195,"ingumas":5196,"Ġbiur":5197,"styti":5198,"Ġmini":5199,"Ġ2008":5200,"Ġdizaino":5201,"!!":5202,"36":5203,"kÄĹ":5204,"Ġnaudojimo":5205,"Ġtend":5206,"ĠÄ¯ran":5207,"ytojo":5208,"Å¡al":5209,"Ġpatirties":5210,"ĠprocedÅ«r":5211,"Ġkaimas":5212,"ĠskaiÄįiÅ³":5213,"ĠpajamÅ³":5214,"Ġorien":5215,"etos":5216,"ĠTrump":5217,"Ġreform":5218,"ojimÄħ":5219,"Deja":5220,"ocial":5221,"Atsi":5222,"ĠrezultatÅ³":5223,"ĠÄ¯staigos":5224,"ĠPer":5225,"ĠtÄĻs":5226,"trauki":5227,"aÅ¾as":5228,"tikÅ³":5229,"Ġnesi":5230,"aiko":5231,"Ġkaime":5232,"yme":5233,"ĠXX":5234,"ĠkiekÄ¯":5235,"mis":5236,"ts":5237,"Ġpen":5238,"Ġpasp":5239,"ystÄĹje":5240,"ãĥ":5241,"ulio":5242,"ĠEUR":5243,"Viena":5244,"med":5245,"Ġrodik":5246,"Ġlieka":5247,"ah":5248,"ĠdidÅ¾iul":5249,"Ġkup":5250,"Beje":5251,"Ġnemokamai":5252,"etikos":5253,"Ġatlieka":5254,"Ġministerija":5255,"ĠAf":5256,"ĠiÅ¡laikyti":5257,"Ġgarant":5258,"Ġpavadinimas":5259,"Kiekvienas":5260,"intelis":5261,"vyk":5262,"timis":5263,"etÄĹs":5264,"ĠÅ¡ia":5265,"Ġsekm":5266,"ĠsumaÅ¾inti":5267,"ytaus":5268,"Ġpuod":5269,"ÄĻsi":5270,"Lietuvoje":5271,"Ġkovos":5272,"olas":5273,"uoto":5274,"ĠpasirÅ«p":5275,"Ġpapasak":5276,"Ġpuol":5277,"alap":5278,"OL":5279,"Ġatitinka":5280,"ĠDan":5281,"ĠuÅ¾tikrina":5282,"Ð»":5283,"eÄįiai":5284,"Ġsuform":5285,"tyti":5286,"Kalb":5287,"ĠdainÅ³":5288,"ĠdaliÅ³":5289,"ĠMil":5290,"ĠbuvÄĻs":5291,"ĠaiÅ¡ku":5292,"inimai":5293,"riai":5294,"Ġsmeg":5295,"Ġlietuviai":5296,"Ġnuostabi":5297,"Ġjoje":5298,"Ġveikti":5299,"Ġprasideda":5300,"ĠprieÅ¾astis":5301,"ÄĹsti":5302,"ĠÅ¾emÄĹlap":5303,"Åłio":5304,"rado":5305,"ĠkvieÄįia":5306,"ĠÅ¡ias":5307,"Ġrem":5308,"ygard":5309,"autis":5310,"ininku":5311,"Ġreak":5312,"Ġbibliotek":5313,"tur":5314,"oto":5315,"ĠiÅ¡vaizd":5316,"Ġnenori":5317,"Re":5318,"Ġamerik":5319,"Ġjuok":5320,"ÄĹdavo":5321,"gali":5322,"anai":5323,"ĠsÄħraÅ¡Äħ":5324,"ĠgeleÅ¾ink":5325,"Ġpavyko":5326,"Ġmokytis":5327,"Ġvisais":5328,"Ġkuomet":5329,"Ġpul":5330,"ĠSen":5331,"nik":5332,"Ġpabaigos":5333,"Ġministras":5334,"Ġkatali":5335,"imÄĹs":5336,"Ġkonflik":5337,"ĠBr":5338,"Ġstri":5339,"Ġ36":5340,"ĠÄ¯takos":5341,"Ġdiag":5342,"nel":5343,"Ġmig":5344,"Ġteikia":5345,"ĠkokiÅ³":5346,"Ġeks":5347,"tyni":5348,"avusi":5349,"veg":5350,"ĠÅłiaurÄĹs":5351,"ĠodÄħ":5352,"Pastar":5353,"Ġsrau":5354,"Å«tent":5355,"ĠNacional":5356,"ĠJonas":5357,"ikai":5358,"Ġrami":5359,"gyven":5360,"Ġseniai":5361,"Ġtaigi":5362,"Li":5363,"ÄĹju":5364,"Ġsportinink":5365,"aikyti":5366,"mes":5367,"Ġrezultatai":5368,"ĠTÄĹv":5369,"ĠpaskelbÄĹ":5370,"ÄĹlÄĻ":5371,"Ġvaikui":5372,"trÅ³":5373,"Ġ45":5374,"Ġadministracijos":5375,"alon":5376,"ĠsuÅ¾inoti":5377,"Ġnetoli":5378,"yÄįiÅ³":5379,"2016":5380,"tiniu":5381,"okia":5382,"Ġsprendimo":5383,"Ġkarali":5384,"liuose":5385,"ĠpranaÅ¡":5386,"Ġsustipr":5387,"stijos":5388,"Ġnusteb":5389,"Ġnemat":5390,"ĠmetrÅ³":5391,"ĠkokiÄħ":5392,"ĠpoÅ¾iÅ«ri":5393,"slo":5394,"Ġpom":5395,"usis":5396,"Ġapskrities":5397,"ĠTarp":5398,"Ġprekes":5399,"Ġ500":5400,"Ġnedaug":5401,"Ġatsarg":5402,"Ġvisur":5403,"Ner":5404,"ĠSv":5405,"ĠtruputÄ¯":5406,"Ã©":5407,"kiria":5408,"urti":5409,"Åłil":5410,"Gyven":5411,"tadienio":5412,"ÄĹjusiÅ³":5413,"iÅ¡ku":5414,"Ġauga":5415,"ĠAukÅ¡":5416,"ĠsocialinÄĹs":5417,"ĠÅ¡viesos":5418,"Ġiz":5419,"Ġtams":5420,"ĠkrikÅ¡Äįion":5421,"ĠlaimÄĹjo":5422,"Ġgir":5423,"Ġatliko":5424,"Ġnuod":5425,"Ġklausimais":5426,"Äįioje":5427,"ultÅ«ros":5428,"Ġva":5429,"ĠÄ¯rangos":5430,"Ġtechnologijos":5431,"Ġvyrai":5432,"ĠieÅ¡ko":5433,"uoliai":5434,"umis":5435,"Ġautorius":5436,"Ġsusisiek":5437,"Ġateityje":5438,"lov":5439,"ĠsÄħlygos":5440,"ĠgimÄĹ":5441,"Ġvidu":5442,"Ats":5443,"Ġnelabai":5444,"197":5445,"ĠmiestÅ³":5446,"kilnoj":5447,"traukÄĹ":5448,"Ġatsitik":5449,"Ġbalt":5450,"Ġkomisijos":5451,"Ġnesus":5452,"ÄĹkmÄĹs":5453,"Ġprocesas":5454,"ĠpabrÄĹÅ¾":5455,"BÅ«tent":5456,"Ġklubas":5457,"acijoje":5458,"Ġaudi":5459,"Ġgelb":5460,"Ġmuzika":5461,"alÅ«s":5462,"timai":5463,"ĠLond":5464,"ikÅ³":5465,"ĠpatirtÄ¯":5466,"Ġsuder":5467,"ĠbÅ«davo":5468,"Ġneseniai":5469,"ĠKomis":5470,"ces":5471,"her":5472,"Am":5473,"Ġefek":5474,"Ġgeriausia":5475,"toji":5476,"ĠdefektÅ³":5477,"ĠmÄĹnesius":5478,"ĠVyriausybÄĹs":5479,"Ġasociacijos":5480,"tuvai":5481,"ĠdidelÄ¯":5482,"Ġcik":5483,"Ġsrities":5484,"ĠKonstitu":5485,"jor":5486,"Ġvi":5487,"skis":5488,"Ġapygard":5489,"ack":5490,"Ġpalaid":5491,"ĠdidelÄĹs":5492,"Ġ90":5493,"Ġpanaudoj":5494,"ravimas":5495,"Ġskulp":5496,"ĠsprÄĻsti":5497,"Ġsald":5498,"ĠgroÅ¾io":5499,"ĠmarÅ¡k":5500,"Ġtelefonu":5501,"kad":5502,"ĠvakarÄħ":5503,"Ġprokur":5504,"ĠÅłven":5505,"Ġoda":5506,"ane":5507,"ĠaiÅ¡kiai":5508,"Åłiau":5509,"55":5510,"uojam":5511,"Ġbran":5512,"Ġpaveldo":5513,"ĠdujÅ³":5514,"Ġon":5515,"niausiai":5516,"ĠsvetainÄĹs":5517,"Ġbri":5518,"ĠsprendimÅ³":5519,"Ġlaikotarpiu":5520,"Ġlaisval":5521,"ĠbaigÄĹ":5522,"Ġpol":5523,"Ġapskritai":5524,"tebi":5525,"Ġseri":5526,"bili":5527,"aulius":5528,"ĠÅ¡alÄ¯":5529,"Ġapklaus":5530,"Ġgrand":5531,"ĠmokÄĹti":5532,"Ġtep":5533,"Åłv":5534,"agu":5535,"Ġgeriausiai":5536,"Ġserg":5537,"Auto":5538,"ĠaugalÅ³":5539,"Ġnuomone":5540,"Ġataskai":5541,"ĠDÅ¾":5542,"ĠAs":5543,"ĠÄ¯sivaizd":5544,"Ġvykst":5545,"Ġjokios":5546,"ĠkunigaikÅ¡":5547,"Ġnauji":5548,"Ġgaranti":5549,"ĠsuÅ¡":5550,"Ġjokio":5551,"Ġbais":5552,"IV":5553,"esu":5554,"Ġfond":5555,"Ġvam":5556,"09":5557,"ĠatliekÅ³":5558,"ĠgyvÅ«nÅ³":5559,"ÄĹjimus":5560,"uvos":5561,"ĠsÄħlygomis":5562,"ĠPrezid":5563,"Ġbase":5564,"34":5565,"Ġit":5566,"imen":5567,"engia":5568,"Ġlav":5569,"Aps":5570,"inantis":5571,"100":5572,"usiÅ³jÅ³":5573,"car":5574,"bal":5575,"ĠOr":5576,"Ġsubjek":5577,"Ġdokumentus":5578,"Ġstatis":5579,"ĠTV":5580,"ĠgraÅ¾iai":5581,"Ġnoriu":5582,"ĠsituacijÄħ":5583,"Ġpagrindinis":5584,"eikÅ¡":5585,"Kal":5586,"ĠdailÄĹs":5587,"etu":5588,"ĠreikÄĹjo":5589,"ĠkokybÄĻ":5590,"ĠantrÄħ":5591,"Ġstebuk":5592,"Pap":5593,"etus":5594,"Ġskiriasi":5595,"ÄĹjosi":5596,"06":5597,"Ġlaikyti":5598,"Ġur":5599,"Å½al":5600,"ortas":5601,"aukti":5602,"ĠlenkÅ³":5603,"Ġkompens":5604,"Ġgeriausias":5605,"Ġ300":5606,"OM":5607,"Ġmaksim":5608,"Ġneabej":5609,"ybiniÅ³":5610,"VM":5611,"Ġblok":5612,"ĠpabÄĹg":5613,"Ġpatirtis":5614,"ĠÅłved":5615,"Svarb":5616,"ĠturbÅ«t":5617,"ĠEd":5618,"Å¾iau":5619,"ĠsalÄĹje":5620,"Ġtra":5621,"Ġvykdyti":5622,"Ġprir":5623,"Ġsteng":5624,"Ġdidelio":5625,"ĠIsp":5626,"ĠeilÄĹs":5627,"nies":5628,"ĠnugalÄĹ":5629,"ĠnusprendÄĹ":5630,"ĠsezonÄħ":5631,"viÅ³":5632,"ÄĹtina":5633,"ĠgatvÄĹje":5634,"Ġdalys":5635,"ĠnaÅ¡":5636,"abl":5637,"ĠdurÅ³":5638,"tasis":5639,"ovai":5640,"istai":5641,"ĠpaÅ¾Ä¯st":5642,"ĠmiÅ¡ko":5643,"Ġserv":5644,"iena":5645,"ijau":5646,"ĠaÅ¡tuo":5647,"Ġketur":5648,"Ġvag":5649,"ove":5650,"ĠgyvÅ«n":5651,"Ġnaujus":5652,"ĠÅ¡yps":5653,"ilg":5654,"telk":5655,"ÄĹjimu":5656,"ĠnepamirÅ¡":5657,"Ġrankas":5658,"Ġtelevizijos":5659,"Ġvienam":5660,"Ġsutartis":5661,"Tokiu":5662,"Ġekonomikos":5663,"Å¡kus":5664,"uodu":5665,"Ġreikalingas":5666,"Ġveiks":5667,"PS":5668,"Teis":5669,"Tre":5670,"ĠpadÄĹjo":5671,"albÅ«t":5672,"lan":5673,"Ġ2007":5674,"Ġdviem":5675,"31":5676,"ojus":5677,"Darb":5678,"ĠmanÄĻs":5679,"Ġinov":5680,"yra":5681,"Ġproblemos":5682,"Dydis":5683,"ĠpareigÅ«nai":5684,"ĠvalstybÄĹ":5685,"ĠÅ¡oki":5686,"radien":5687,"ĠkÄĹl":5688,"Ġperspektyv":5689,"evoliu":5690,"Ġtoli":5691,"ternatyv":5692,"Toks":5693,"ĠatÅ¾vil":5694,"inÄĹjo":5695,"ĠvertÄĹs":5696,"ĠvalandÅ³":5697,"Ġsantykius":5698,"iasi":5699,"Ġpralaim":5700,"Ġpremjer":5701,"tikai":5702,"Ġdvigub":5703,"Susi":5704,"yto":5705,"Ġplotis":5706,"ĠAngli":5707,"Ġtave":5708,"tÄĹj":5709,"St":5710,"nu":5711,"Ġkelia":5712,"Ġproduktus":5713,"Ġamb":5714,"Ġdemon":5715,"Ġpapl":5716,"ĠpÄĹs":5717,"Ġeg":5718,"eikal":5719,"ĠÅ¾aidimÅ³":5720,"Ġlo":5721,"yks":5722,"Ġsutvark":5723,"ĠaplinkÄħ":5724,"Ġatitik":5725,"ĠvandenÄ¯":5726,"ĠÅ¡iaip":5727,"ĠneÄ¯manoma":5728,"idr":5729,"tÄĻs":5730,"ĠpaÄįiÄħ":5731,"ĠTauragÄĹs":5732,"ĠÅ¡imt":5733,"ovÄĻ":5734,"viu":5735,"asad":5736,"Ġparlamen":5737,"miÅ³":5738,"ĠpobÅ«":5739,"ĠpagrindiniÅ³":5740,"\")":5741,"Ġgalu":5742,"iep":5743,"Ġpaim":5744,"ĠMan":5745,"Ġprojekt":5746,"Ġdirektoriaus":5747,"ĠiÅ¡kart":5748,"Ġduris":5749,"Ġkokio":5750,"EK":5751,"riÅ¡":5752,"Ġtaps":5753,"Kita":5754,"Ġeina":5755,"Ġregiono":5756,"tv":5757,"ĠÅ¾monÄĹmis":5758,"elg":5759,"Ġnesk":5760,"ĠKi":5761,"Ðº":5762,"ĠÄ¯vairius":5763,"Ġprezidentas":5764,"aiÄįio":5765,"Ġtikra":5766,"Ġkaral":5767,"Ġsusil":5768,"Ġpaskat":5769,"deÅ¡imt":5770,"Ġteikti":5771,"yli":5772,"Pirk":5773,"varbu":5774,"Ġparink":5775,"ĠLatvijos":5776,"amino":5777,"ĠgeriausiÅ³":5778,"ysiu":5779,"Ġavi":5780,"Ġsustab":5781,"ĠpagalbÄħ":5782,"uokl":5783,"ĠKris":5784,"urid":5785,"ĠsuknelÄĹ":5786,"Ġdepartamento":5787,"ket":5788,"ukais":5789,"ĠpasiÅ¾ymi":5790,"UAB":5791,"ÄĹtos":5792,"lig":5793,"Ġnesug":5794,"ĠapibÅ«d":5795,"ĠklasiÅ³":5796,"Ġprekyba":5797,"04":5798,"Vasar":5799,"telÄĻ":5800,"ĠÄ¯kvÄĹp":5801,"Ġparoda":5802,"iso":5803,"ĠBe":5804,"TI":5805,"ĠkontrolÄĹs":5806,"urio":5807,"Ġsukelia":5808,"telek":5809,"spek":5810,"Ġaspek":5811,"Ġgale":5812,"196":5813,"ĠMind":5814,"ong":5815,"Ġpien":5816,"Ġvienod":5817,"ĠsudarÄĹ":5818,"ild":5819,"Ġlenktyn":5820,"03":5821,"ĠformÄħ":5822,"ĠsantykiÅ³":5823,"Ġfirm":5824,"uks":5825,"ĠRom":5826,"aceb":5827,"omin":5828,"ĠpusÄĹ":5829,"Ġliga":5830,"ĠupÄĹs":5831,"Ġpernai":5832,"RA":5833,"ĠpadarÄĹ":5834,"zÄĹ":5835,"ht":5836,"ÄįiÅ«tÄĹ":5837,"Ġtechnikos":5838,"Ġrezerv":5839,"inÄĹja":5840,"ĠDaug":5841,"ĠsavaitÄĹs":5842,"ĠvaldÅ¾ia":5843,"Ġdaugelio":5844,"Ġkomunik":5845,"ĠspecialistÅ³":5846,"uku":5847,"ĠÅ¾aidimas":5848,"Åłiame":5849,"ĠÅ¡vel":5850,"Ġproduktai":5851,"Ġtes":5852,"Ġakimir":5853,"pÅ¡":5854,"Ġsukurtas":5855,"Ġpusi":5856,"Ġkompeten":5857,"ĠgalvÄħ":5858,"Ġreikalinga":5859,"ĠsistemÅ³":5860,"ĠVytauto":5861,"vas":5862,"ĠÄ¯skaitant":5863,"Ġbaud":5864,"Ġtechnika":5865,"Ġhi":5866,"Or":5867,"omb":5868,"fas":5869,"Ġgauna":5870,"aktar":5871,"ĠbendrovÄĹ":5872,"tonas":5873,"Ġstovykl":5874,"samb":5875,"KlaipÄĹd":5876,"sniu":5877,"ĠatÅ¾vilgiu":5878,"Ġpaskolos":5879,"Ġatrank":5880,"Ġprimena":5881,"ĠRam":5882,"Ġnenus":5883,"Ġvok":5884,"oog":5885,"Ġpuos":5886,"Turi":5887,"ĠkvÄĹp":5888,"Ġpastato":5889,"Ġprognoz":5890,"ĠpasiekÄĹ":5891,"emun":5892,"ĠpristatÄĹ":5893,"Ġpasim":5894,"ĠkelionÄĻ":5895,"Sav":5896,"Ġsutarties":5897,"uodama":5898,"Ġdekor":5899,"Ġkosti":5900,"Viskas":5901,"ĠkilmÄĹs":5902,"Ġteises":5903,"ĠdidÅ¾iausias":5904,"Ġautomobilis":5905,"Sveik":5906,"Reng":5907,"Ġteritorijos":5908,"Ġkompanijos":5909,"Ten":5910,"Ġvienoje":5911,"ĠparodÄĹ":5912,"ĠakiÅ³":5913,"iniui":5914,"ĠRe":5915,"Ġtyrimai":5916,"Ġkitose":5917,"ĠtaisykliÅ³":5918,"Ġ38":5919,"Äįiuose":5920,"Ġplastik":5921,"ĠPirm":5922,"08":5923,"loat":5924,"gl":5925,"ortu":5926,"Ġkapit":5927,"koje":5928,"2015":5929,"araÅ¡":5930,"Ġskatina":5931,"Ġstriuk":5932,"Ket":5933,"Ġnenor":5934,"esnes":5935,"Ġed":5936,"Ġdisk":5937,"Ġkambario":5938,"Ġskyr":5939,"Ġnaudojama":5940,"ria":5941,"Ġpoten":5942,"Ġkonkurso":5943,"ordin":5944,"ĠuÅ¾deg":5945,"aktyv":5946,"ĠMaskv":5947,"audo":5948,"ĠKan":5949,"ĠiÅ¡kov":5950,"Ġvandeniu":5951,"ĠÅ¾aidimo":5952,"Pran":5953,"ĠÄ¯vairias":5954,"ĠsÄĹkl":5955,"ĠdaugybÄĻ":5956,"Ġneretai":5957,"Ġpaver":5958,"inau":5959,"ĠpramonÄĹs":5960,"Ġjungi":5961,"ĠAz":5962,"ĠvartotojÅ³":5963,"Ġmuziejus":5964,"teto":5965,"Ġpopie":5966,"Ġgul":5967,"Ġgener":5968,"Ġpalikti":5969,"ĠÅ¾odÅ¾iÅ³":5970,"tiÅ¡ka":5971,"Ġpasip":5972,"ĠÅ¾ydÅ³":5973,"Ġtiesa":5974,"ÄĦ":5975,"Ġsvarbiausi":5976,"ĠÅ½emÄĹs":5977,"Ġpili":5978,"ĠnepaÅ¾":5979,"ovimo":5980,"encija":5981,"ĠEn":5982,"onui":5983,"ax":5984,"Ġkalend":5985,"aukite":5986,"ĠiÅ¡im":5987,"Ġtokias":5988,"ĠbendrÄħ":5989,"Ġskaityti":5990,"Valst":5991,"iel":5992,"fiks":5993,"Ġstikl":5994,"Ġalkoho":5995,"Sm":5996,"Ġsritis":5997,"ekomend":5998,"JÅ«sÅ³":5999,"eiviai":6000,"Ġatspind":6001,"ĠÄ¯takÄħ":6002,"ĠvalandÄħ":6003,"ĠgroÅ¾":6004,"entÄĹs":6005,"ĠÅ¾inomas":6006,"Ġteb":6007,"orÅ³":6008,"Ġbuvusi":6009,"Ġdetal":6010,"ario":6011,"Ġnereikal":6012,"Lab":6013,"Ġmoterims":6014,"Ġvardas":6015,"ĠliÅ«d":6016,"ĠteisÄĹ":6017,"Ġtapat":6018,"ĠpraneÅ¡ÄĹ":6019,"Inter":6020,"Ġatsiliep":6021,"Ġartimiausi":6022,"vos":6023,"menis":6024,"yniÅ³":6025,"angl":6026,"ĠÅ¾vej":6027,"ĠuÅ¾im":6028,"ĠfinansÅ³":6029,"ĠvadovÄĹ":6030,"ĠdraugÅ³":6031,"eivi":6032,"Ġnetrukus":6033,"tei":6034,"Ġmyg":6035,"âĤ¬":6036,"Ġpasaulis":6037,"ĠNep":6038,"Ġliaudies":6039,"inimus":6040,"Ġnebe":6041,"ĠVai":6042,"GalbÅ«t":6043,"Ġ2000":6044,"Ġkruo":6045,"strum":6046,"ĠrÅ«k":6047,"are":6048,"Ġlegend":6049,"Ġautomati":6050,"ÅłiÅ³":6051,"Ġtyrimas":6052,"ID":6053,"plink":6054,"Ġpalyginti":6055,"auskienÄĹ":6056,"ĠuÅ¾sienyje":6057,"snius":6058,"Ġnub":6059,"Ġministro":6060,"ĠmarÅ¡ru":6061,"anÄħ":6062,"SD":6063,"ĠgrÅ«d":6064,"Ġpu":6065,"Ek":6066,"Ġrand":6067,"arÄĹ":6068,"Ġrespublik":6069,"ĠapÅ¾":6070,"Ġtipas":6071,"Ġsudaryti":6072,"ĠporÄħ":6073,"Ġnepad":6074,"ĠdideliÅ³":6075,"Ġstatus":6076,"LT":6077,"ĠiÅ¡sirink":6078,"ĠÄ¯trauk":6079,"Ġkated":6080,"antÄħ":6081,"ĠuÅ¾duotis":6082,"Ġpirmoji":6083,"ĠTra":6084,"ĠuÅ¾p":6085,"tech":6086,"Ġsaugos":6087,"Ġku":6088,"Ġsureng":6089,"Ġdrauge":6090,"Ġsertifik":6091,"ĠstebÄĹti":6092,"Å¾ins":6093,"liav":6094,"ĠPat":6095,"ĠPard":6096,"ĠuÅ¾ÄĹmÄĹ":6097,"ĠparaiÅ¡k":6098,"Ġmetal":6099,"Ġgryn":6100,"ĠtemperatÅ«r":6101,"Ġ)":6102,"ĠbÅ«tin":6103,"ĠtemperatÅ«ra":6104,"Ġstad":6105,"Ġ&":6106,"Ġsunaik":6107,"Å¾o":6108,"ĠSm":6109,"ĠrinktinÄĹs":6110,"Visa":6111,"ĠpaÅ¾ad":6112,"ĠTarybos":6113,"ĠDr":6114,"ĠpapraÅ¡":6115,"Pasir":6116,"Ġauks":6117,"ĠsÄħlygÅ³":6118,"Ġ()":6119,"ĠtrÅ«ksta":6120,"Rug":6121,"oogle":6122,"Ġalternatyv":6123,"Ġkavos":6124,"aikÅ³":6125,"ĠsusijÄĻ":6126,"ĠdydÄ¯":6127,"ĠkariuomenÄĹs":6128,"Ġpasitaik":6129,"Ġvertus":6130,"ĠUr":6131,"domas":6132,"Ġabu":6133,"Ġremontas":6134,"Ġkriteri":6135,"Ġvilk":6136,"Ġvisko":6137,"ĠpirmÄħjÄ¯":6138,"Ġnusipirk":6139,"Ġnetink":6140,"Ġreag":6141,"Ġveter":6142,"Ġstipriai":6143,"Ġmergina":6144,"ĠJapon":6145,"Ġhum":6146,"avosi":6147,"Ġpatais":6148,"Ġesi":6149,"Ġima":6150,"ydama":6151,"Ġvalandas":6152,"Se":6153,"alÄ¯":6154,"Ġkeliu":6155,"ĠbÅ«dÅ³":6156,"ajam":6157,"Ġsank":6158,"amasi":6159,"ĠkiÅ¡en":6160,"ajai":6161,"ĠÅ¾mona":6162,"tukÄħ":6163,"ĠAlytaus":6164,"ĠpasiÅ«lymus":6165,"Ġsap":6166,"ĠsocialiniÅ³":6167,"ĠPrancÅ«zijos":6168,"Ġnaudoja":6169,"Reikia":6170,"nÄ¯":6171,"dÅ¾iu":6172,"ĠKaunas":6173,"ido":6174,"Ġtvarkymo":6175,"ĠðŁ":6176,"ĠorganizacijÅ³":6177,"Ġreikalauja":6178,"ĠVytautas":6179,"angas":6180,"Ġlygos":6181,"IÅ¡s":6182,"Ġakivaizd":6183,"ĠKlaipÄĹdoje":6184,"acebook":6185,"Ġse":6186,"ĠpraÄĹjusi":6187,"ĠdraudÅ¾i":6188,"90":6189,"Ġkompanija":6190,"Vyr":6191,"Äįias":6192,"Laik":6193,"Ġmetams":6194,":)":6195,"Suk":6196,"Ġnaujai":6197,"Nus":6198,"Ġnos":6199,"Ġatstovas":6200,"ĠÅ¾iemos":6201,"Ġkredito":6202,"Ġtrak":6203,"YpaÄį":6204,"ĠryÅ¡ki":6205,"KL":6206,"ĠmiÅ¡kÅ³":6207,"Ġdidesnis":6208,"Ġuniversitete":6209,"temp":6210,"gir":6211,"Ġetn":6212,"kes":6213,"Ġskirtos":6214,"Jaun":6215,"iuose":6216,"195":6217,"Ġansamb":6218,"arch":6219,"Ġstres":6220,"32":6221,"lys":6222,"inusi":6223,"iteto":6224,"Ġsvorio":6225,"Ġkitomis":6226,"ĠiÅ¡skyrus":6227,"Ġded":6228,"Ġrekon":6229,"ĠbaldÅ³":6230,"Ġinstrum":6231,"vaizdÅ¾i":6232,"anÄįiam":6233,"Ġpagaliau":6234,"iam":6235,"Ġmuziejaus":6236,"ĠatrodÄĹ":6237,"ĠKaral":6238,"ĠgrupiÅ³":6239,"Äįiami":6240,"ĠplaÄįiau":6241,"ĠpaminÄĹti":6242,"Ġnaik":6243,"ĠrenginiÅ³":6244,"ĠIz":6245,"ĠPro":6246,"DÅ¾i":6247,"Ġtiksliai":6248,"kmerg":6249,"Ġradijo":6250,"ĠGedim":6251,"ĠneÅ¡io":6252,"Ġskon":6253,"Ġizoli":6254,"tinei":6255,"ĠatneÅ¡":6256,"As":6257,"Ġsantyk":6258,"ĠiÅ¡siaiÅ¡k":6259,"ĠâĢ¦":6260,"Ġvnt":6261,"ĠmÄĹgsta":6262,"Ġportal":6263,"Bend":6264,"tiniais":6265,"Ġarm":6266,"Ġilgio":6267,"Ġparodyti":6268,"Ġmoters":6269,"ĠraÅ¡yti":6270,"ĠPietÅ³":6271,"Ġskaitmen":6272,"Ġ'":6273,"Ġintelek":6274,"Ġsiekti":6275,"autÅ³":6276,"ell":6277,"âĢĶ":6278,"Ġlip":6279,"Ġpasibaig":6280,"Ġkomun":6281,"ojama":6282,"BA":6283,"Ġkau":6284,"ubil":6285,"Ġturizmo":6286,"ĠTarptau":6287,"ĠapylinkÄĹs":6288,"02":6289,"rid":6290,"eci":6291,"tavo":6292,"Prek":6293,"Ġraid":6294,"arn":6295,"ĠdaugybÄĹ":6296,"hal":6297,"Ġgaliausiai":6298,"Ġ34":6299,"Ġrungtynes":6300,"orit":6301,"Ġnusil":6302,"ĠBaltarus":6303,"ĠeilÄĹ":6304,"Ġpaded":6305,"mosfer":6306,"avimus":6307,"arai":6308,"oros":6309,"DaÅ¾niausiai":6310,"ĠpastatÅ³":6311,"ĠbiudÅ¾eto":6312,"iesiog":6313,"Ġnesupr":6314,"Ġmechaniz":6315,"Ġdalykus":6316,"ĠPirk":6317,"ĠdidelÄĻ":6318,"):":6319,"Ġtinklo":6320,"ĠÄ¯spÅ«":6321,"Ġfig":6322,"Ġvadinamas":6323,"Å«na":6324,"Ġbud":6325,"ĠnarÅ¡":6326,"ĠbaÅ¾nyÄįia":6327,"Ġetik":6328,"Ġperiod":6329,"kaip":6330,"ĠposÄĹd":6331,"ĠgrupÄĹje":6332,"Ġkilo":6333,"ĠesÄħ":6334,"pvz":6335,"ĠprogramÅ³":6336,"ĠSu":6337,"alva":6338,"ĠriebalÅ³":6339,"atÄĹs":6340,"ĠdrÄħ":6341,"ĠraÅ¡ÄĹ":6342,"AD":6343,"Ġgeneral":6344,"ĠÅ¾odÅ¾ius":6345,"tie":6346,"ojame":6347,"ĠdÄĹst":6348,"ĠobjektÅ³":6349,"Ġsmar":6350,"kios":6351,"ĠAud":6352,"Ġsukurta":6353,"Ġskyrius":6354,"ĠpagrindinÄĹs":6355,"Ġtelefono":6356,"GB":6357,"Ġtrau":6358,"Ġgais":6359,"Pirmas":6360,"tenos":6361,"lav":6362,"ĠpoveikÄ¯":6363,"Ġmegz":6364,"ves":6365,"Ġaprib":6366,"Ġrezultatas":6367,"ĠnuÅ¾ud":6368,"Ġbliz":6369,"ĠnÄĹÅ¡":6370,"akyti":6371,"ĠPav":6372,"Ġkomiteto":6373,"ĠmokytojÅ³":6374,"Ġprev":6375,"Ġspecialiai":6376,"Ġvienintelis":6377,"Ġkoordin":6378,"ĠÅ¡veln":6379,"Ġkainuoja":6380,"Ġatmin":6381,"Ġpoveikio":6382,"Ġpirmas":6383,"ĠpagrindinÄĹ":6384,"ÄĹjimai":6385,"Ġdurys":6386,"orti":6387,"2014":6388,"ininkÄĹs":6389,"galÄ¯":6390,"ĠtÅ«kstanÄįiÅ³":6391,"ĠpobÅ«dÅ¾io":6392,"Ġdideli":6393,"Ġatrasti":6394,"rastruk":6395,"ĠkÄĹd":6396,"ĠSh":6397,"ysi":6398,"ega":6399,"Ġsmur":6400,"Ġais":6401,"Ġkartos":6402,"Ġfiks":6403,"Ġgamyba":6404,"Ġlaikrod":6405,"Ġpatiko":6406,"ĠrieÅ¡":6407,"ĠpasakÄĹ":6408,"ĠvardÄħ":6409,"ĠkalbÅ³":6410,"Neb":6411,"ener":6412,"ĠlaÅ¡":6413,"vys":6414,"Ġ150":6415,"Pam":6416,"Ġeurop":6417,"ĠJan":6418,"tinÄĹse":6419,"ĠatÄĹjo":6420,"ĠstudentÅ³":6421,"ĠauklÄĹ":6422,"avivaldybÄĹs":6423,"Ġkilometr":6424,"Ġvalgyti":6425,"75":6426,"teks":6427,"ĠJur":6428,"anden":6429,"Ġkomit":6430,"Ġbendradarbiavimo":6431,"Ġvienuol":6432,"Ġarchyv":6433,"Ġskaud":6434,"istams":6435,"Ġtro":6436,"ijomis":6437,"Ġvic":6438,"avimÅ³":6439,"Ġsuman":6440,"prÄĻs":6441,"Ġlauke":6442,"ĠinstitucijÅ³":6443,"esniu":6444,"ĠsveÄįiÅ³":6445,"Ġeksploat":6446,"Ġintegr":6447,"Ġdomin":6448,"ĀĀĀĀĀĀĀĀĀĀĀĀĀĀĀĀ":6449,"Ġaplinka":6450,"Bendr":6451,"Ġstor":6452,"ĠparduotuvÄĹs":6453,"2013":6454,"Ġvertinimo":6455,"kaus":6456,"Ġkiekviena":6457,"ĠÅ¾av":6458,"Ġsveikatai":6459,"Ġmokytoja":6460,"âĢľ)":6461,"Ġvaikais":6462,"IO":6463,"Ġplatform":6464,"ĠPak":6465,"Ġmad":6466,"Ġpasinaudoti":6467,"Ġvals":6468,"RaÅ¡":6469,"anos":6470,"uojanÄįiÅ³":6471,"ĠrudenÄ¯":6472,"Ġaplinkoje":6473,"Ġsimb":6474,"ĠÅ¾iemÄħ":6475,"Vad":6476,"kienÄĹ":6477,"strak":6478,"ĠiÅ¡bandyti":6479,"Ġnag":6480,"urs":6481,"Ġkaul":6482,"ĠÅ¡iukÅ¡":6483,"Ġpora":6484,"Ġinspek":6485,"Ġ~":6486,"ĠSim":6487,"taip":6488,"imato":6489,"Ġadministr":6490,"umb":6491,"Ġnuotraukos":6492,"Ġnekilnoj":6493,"ĠÅ¾inios":6494,"yÄįiau":6495,"Ġsidab":6496,"paÅ¾ind":6497,"Ġsin":6498,"Ġatmosfer":6499,"Ġpakar":6500,"Ġdaktar":6501,"cijoms":6502,"ĠaktÅ³":6503,"Ġ$":6504,"Ġsimbol":6505,"kon":6506,"Kartu":6507,"utis":6508,"ĠpadÄĹk":6509,"ĠÅ¾odÅ¾io":6510,"Ġtras":6511,"Ġbibliotekos":6512,"ĠkultÅ«ra":6513,"Ġinfrastruk":6514,"old":6515,"Ġkosme":6516,"Ġarg":6517,"Ġtiesiai":6518,"ĠÅ¡aukÅ¡":6519,"ĠkonkreÄįi":6520,"Ġkitu":6521,"ĠiÅ¡silav":6522,"ĠpoÅ¾ym":6523,"ĠpavasarÄ¯":6524,"entams":6525,"anÄįioms":6526,"Ġpertrauk":6527,"Ġalkoholio":6528,"370":6529,"Ġfilmas":6530,"ĠpraktiÅ¡kai":6531,"Ġkeletas":6532,"ĠMarijampolÄĹs":6533,"ĠÅ¾ad":6534,"Ġaplankyti":6535,"ĠVi":6536,"Ġnepal":6537,"Ġaugal":6538,"vÄĹs":6539,"ĠMal":6540,"Ġkitam":6541,"VieÅ¡":6542,"Ġdaugiausiai":6543,"Ġsukelti":6544,"ĠVokietijoje":6545,"ĠLa":6546,".:":6547,"uojanti":6548,"ieriÅ³":6549,"Ġnepriklaus":6550,"ĠÅ¾odÅ¾iai":6551,"ininkui":6552,"Ġsutaup":6553,"ojimus":6554,"akas":6555,"Ġkokius":6556,"Ġun":6557,"Ġparko":6558,"dr":6559,"iÅ³s":6560,"ĠUkrainos":6561,"ĠperÅ¾iÅ«rÄĹti":6562,"Ġtaup":6563,"Ġatstat":6564,"Ġpristatyti":6565,"Ä®si":6566,"ĠidÄĹja":6567,"ĠRim":6568,"ĠgamintojÅ³":6569,"Ġstiklo":6570,"Ġateities":6571,"kop":6572,"EM":6573,"ĠDievas":6574,"ff":6575,"ors":6576,"ĠVl":6577,"ĠsÅ«nus":6578,"Ġsma":6579,"Ġhttp":6580,"Ġapat":6581,"tinÄĹmis":6582,"ÄĹda":6583,"PA":6584,"Ġnorisi":6585,"Ġfilmo":6586,"berg":6587,"Ġvideo":6588,"egist":6589,"ĠpaplÅ«d":6590,"trai":6591,"IL":6592,"ĠAleksand":6593,"Äħsias":6594,"Ġkaltin":6595,"Ġpramon":6596,"Ġviename":6597,"Ġlaikui":6598,"Ġeduk":6599,"Ġekspon":6600,"ojimai":6601,"arm":6602,"Ġmados":6603,"Ġkontrol":6604,"atau":6605,"Ġlabor":6606,"ÄĹsiu":6607,"ukti":6608,"Ġprojektus":6609,"IA":6610,"Ġpatirtimi":6611,"ĠliteratÅ«r":6612,"ĠpriÅ¾iÅ«r":6613,"ĠÄ¯domu":6614,"Ġaukso":6615,"ĠkokybÄĹ":6616,"Knyg":6617,"ÄĹdama":6618,"irdÅ¾iai":6619,"Ġilga":6620,"PaÅ¾":6621,"Ġprasme":6622,"ĠpelnÄĹ":6623,"Ġinfek":6624,"ĠpradÅ¾ia":6625,"Ġateina":6626,"ymais":6627,"Ġvaldyti":6628,"aviÄįiaus":6629,"ĠPo":6630,"vakar":6631,"ĠbokÅ¡":6632,"nelyg":6633,"44":6634,"Ġskalb":6635,"Ġbendras":6636,"ĠSal":6637,"Ġprisimin":6638,"tacija":6639,"ĠÄ¯vairios":6640,"Tel":6641,"ĠSkaityti":6642,"Ġstil":6643,"Ġporeik":6644,"ĠeÅ¾ero":6645,"Ġfestivalio":6646,"ĠbÅ«tinai":6647,"Ġtikriausiai":6648,"tuvo":6649,"mobi":6650,"auga":6651,"Ġalkoh":6652,"Ġegzamin":6653,"Å½mog":6654,"Å¡kumo":6655,"dinti":6656,"Ġty":6657,"ĠPetr":6658,"emokra":6659,"ytoja":6660,"Kaina":6661,"Ġypatingai":6662,"Ġnugal":6663,"OK":6664,"sul":6665,"Ġpoilsio":6666,"ĠÄ¯statymÅ³":6667,"Ġankstyv":6668,"Ġglobos":6669,"mokes":6670,"Rus":6671,"Ġkodas":6672,"Ġkomerc":6673,"ÄĹjais":6674,"ĠiÅ¡Å¡Å«":6675,"Ġna":6676,"Ġprogramas":6677,"inskas":6678,"amet":6679,"Ġrat":6680,"ĠNer":6681,"Ġsuma":6682,"Inform":6683,"Visos":6684,"Tiesiog":6685,"Ġneati":6686,"anÄįiame":6687,"ĠlÅ«k":6688,"ĠÅ¡iam":6689,"ĠPR":6690,"aÅ¾u":6691,"Ġreklamos":6692,"ĠÅ¡ildymo":6693,"Ġvirus":6694,"eikiÅ³":6695,"ĠIII":6696,"ĠFr":6697,"ĠpapildomÅ³":6698,"ĠsupaÅ¾ind":6699,"Ġrenginio":6700,"ĠbaudÅ¾i":6701,"Ġjurid":6702,"erti":6703,"idÅ¾iaug":6704,"Ġtvarkos":6705,"Ġsiekiama":6706,"tija":6707,"Ġsakyti":6708,"ST":6709,"ienio":6710,"Ġ37":6711,"ĠÅ¾enklas":6712,"Ġatsin":6713,"ilo":6714,"Ġnuosto":6715,"ĠkainÅ³":6716,"ologija":6717,"Ġterap":6718,"Ġatrad":6719,"Ġalyv":6720,"ĠÅ¡au":6721,"ĠrÅ«b":6722,"ĠÄ¯rengti":6723,"Ġsimp":6724,"Ġtinkami":6725,"ĠginÄį":6726,"hi":6727,"Ġsupra":6728,"Ġpapildomai":6729,"Ġteismas":6730,"tein":6731,"ĠnuomonÄĻ":6732,"Ġdeb":6733,"ĠfilmÅ³":6734,"Ġren":6735,"ustel":6736,"Ġsusidom":6737,"Ġbaldai":6738,"Ġpagaminti":6739,"ĠÅłal":6740,"Ġbaus":6741,"Ġsurasti":6742,"65":6743,"ĠpriemonÄĹmis":6744,"ĠuÅ¾g":6745,"auto":6746,"ĠVik":6747,"Ġmedvil":6748,"Ġ2006":6749,"ĠtÄĻsi":6750,"ĠpatalpÅ³":6751,"ÄĻstu":6752,"NorÄĹdami":6753,"ĠdoleriÅ³":6754,"ĠXV":6755,"ĠtikrÅ³":6756,"ãĤ¢ãĤ¢ãĤ¢ãĤ¢":6757,"ĠÅ¡okiÅ³":6758,"Ġkuriai":6759,"emp":6760,"Ġpuosel":6761,"Ġinstruk":6762,"Ġbute":6763,"ĠlaipsniÅ³":6764,"Kuo":6765,"Ġnerv":6766,"tinÄħ":6767,"ininkÄħ":6768,"ĠkÅ«rybos":6769,"Ġbendrauti":6770,"ĠmeilÄĹ":6771,"tienÄĹ":6772,"Ġplotas":6773,"iniÅ¡kai":6774,"tvark":6775,"ute":6776,"eim":6777,"Ġdvid":6778,"Ġmodelis":6779,"Ġaks":6780,"ĠamÅ¾in":6781,"istat":6782,"Ġvalymo":6783,"Ġpasireng":6784,"DaÅ¾nai":6785,"Ġpaki":6786,"Ġpaskirties":6787,"ĠdidÅ¾iausiÅ³":6788,"oriai":6789,"istas":6790,"Ġtame":6791,"ÄĹlyje":6792,"terap":6793,"ĠneÅ¡ioj":6794,"Ġreklam":6795,"Ġdata":6796,"Merg":6797,"Ġmaistas":6798,"ardas":6799,"Ġleido":6800,"ĠbÅ«dÄħ":6801,"chem":6802,"Ġnukreip":6803,"Ġpreki":6804,"Ġuog":6805,"Åłal":6806,"tingÄħ":6807,"Europos":6808,"ĠiÅ¡var":6809,"iko":6810,"lin":6811,"Ġprezidento":6812,"Ġdiplom":6813,"Kat":6814,"ĠlaikotarpÄ¯":6815,"Ġdalimi":6816,"Ġgaminti":6817,"rikos":6818,"Ġapgyvend":6819,"Ġimtis":6820,"Ġstatyb":6821,"68":6822,"ytojams":6823,"eriais":6824,"ĠiÅ¡tik":6825,"alinis":6826,"uoli":6827,"ĠreikalavimÅ³":6828,"Ġunivers":6829,"Lap":6830,"Ġmedienos":6831,"ÅłiÄħ":6832,"Ġmoto":6833,"ĠmaistÄħ":6834,"autas":6835,"ĠÅ¡eimoje":6836,"Ġpirkimo":6837,"ĠmirÄĹ":6838,"ĠvieÅ¡b":6839,"Ġnepag":6840,"ĠlÅ«kes":6841,"Ġdalykai":6842,"ĠsvarbiausiÅ³":6843,"ĠerdvÄĹje":6844,"Ġvalsti":6845,"ĠatsiÅ¾velgiant":6846,"Ġ32":6847,"Ġvaldybos":6848,"Ġbel":6849,"ĠÅ¾iÅ«rÄĹti":6850,"tvirtin":6851,"Ġfondo":6852,"Ġmagistr":6853,"Ġburn":6854,"ĠvaidmenÄ¯":6855,"ĠneÅ¾ino":6856,"Esu":6857,"Ġpasaulinio":6858,"ĠapibrÄĹÅ¾":6859,"jam":6860,"Ġdarbe":6861,"Ġreguliar":6862,"pir":6863,"ĠDar":6864,"ĠÅ¾aidimai":6865,"Ġkodeks":6866,"ĠnegalÄĹjo":6867,"ĠTrumpos":6868,"Ġveiksmus":6869,"Ġprovin":6870,"ĠÅ¡ventÄĻ":6871,"Ġjauk":6872,"otÅ³":6873,"als":6874,"Ġsrityse":6875,"ĠmaÅ¾as":6876,"Å«rio":6877,"Ġlau":6878,"Å«Å¾":6879,"yklÄĹs":6880,"ĠilgÄħ":6881,"tenka":6882,"Ġkond":6883,"SiÅ«l":6884,"ĠtinkamÄħ":6885,"Ġpagrindu":6886,"ĠInter":6887,"ca":6888,"Ġcer":6889,"aulÄĹs":6890,"Ġapima":6891,"ĠGer":6892,"ĠuÅ¾fiks":6893,"ĠTai":6894,"ausite":6895,"ĠdÅ¾iug":6896,"Ġpaliko":6897,"eidimo":6898,"trÄħ":6899,"intar":6900,"Ġadresu":6901,"Ġspecializ":6902,"ĠprocesÄħ":6903,"ovÄħ":6904,"ĠKas":6905,"ĠidÄĹjÅ³":6906,"omp":6907,"ĠgrÄħÅ¾in":6908,"ÄĹjusÄ¯":6909,"AukÅ¡":6910,"Ġha":6911,"Ġesm":6912,"zo":6913,"ler":6914,"aikÄĹ":6915,"ĠtikslÅ³":6916,"Ġkitur":6917,"Ġpirmen":6918,"Grei":6919,"Ġtaisykles":6920,"Ġproceso":6921,"aryti":6922,"Ġpasiv":6923,"95":6924,"Ġranka":6925,"Å¡to":6926,"ĠatpaÅ¾":6927,"Atr":6928,"Ġvartoti":6929,"Naud":6930,"Fil":6931,"riklausom":6932,"Ġatsisakyti":6933,"ĠÄ¯pro":6934,"Ġolimp":6935,"Ġatkreipti":6936,"Ġlaikomas":6937,"aÄį":6938,"ĠiÅ¡dÄĹs":6939,"into":6940,"Ġpakrant":6941,"lij":6942,"eikÅ¡ti":6943,"elÄĹmis":6944,"Å½monÄĹs":6945,"Å«m":6946,"ĠrÅ«mÅ³":6947,"aviÅ¡k":6948,"ĠpareiÅ¡kÄĹ":6949,"Ġsantykiai":6950,"ĠvaikÄħ":6951,"ÄĹles":6952,"Ġvyro":6953,"ĠÄ¯vairÅ«s":6954,"Ġpernelyg":6955,"ĠatvejÅ³":6956,"ĠuÅ¾dav":6957,"Ġinstituto":6958,"Ġspaudos":6959,"Ġmetalo":6960,"ĠpaÅ¡alinti":6961,"Ġpalaikyti":6962,"kijos":6963,"EC":6964,"ienÅ³":6965,"yÅ¾iaus":6966,"Ġnaudojamos":6967,"Ġvadovai":6968,"Ġpaskai":6969,"ĠCentr":6970,"alias":6971,"ĠdaugelÄ¯":6972,"ynai":6973,"Ġmerginos":6974,"ĠidÄĹjos":6975,"Ġkomisija":6976,"Ġgyventojams":6977,"ortimen":6978,"Ġnakv":6979,"ĠkomandÄħ":6980,"ĠlaimÄĹ":6981,"inosi":6982,"Ġkank":6983,"Ġatsakyti":6984,"Ġkati":6985,"Ġpersonal":6986,"oriaus":6987,"ĠsavivaldybiÅ³":6988,"Ġkuk":6989,"tikas":6990,"armon":6991,"aikÅ¡Äįi":6992,"Ġtinklalap":6993,"tral":6994,"ĠpirmÄħjÄħ":6995,"Ġkuro":6996,"bet":6997,"ĠkelioniÅ³":6998,"ĠDon":6999,"ATO":7000,"TU":7001,"Å¾ini":7002,"Naudoj":7003,"tuk":7004,"traukia":7005,"Ġvadinama":7006,"vili":7007,"Ġavar":7008,"AC":7009,"Ġatvyko":7010,"ĠÄ¯l":7011,"ĠsienÅ³":7012,"Vie":7013,"anÄįiomis":7014,"Ġminutes":7015,"Ġ2004":7016,"vaÅ¾i":7017,"amais":7018,"ĠpaÅ¾as":7019,"imnaz":7020,"Ġdes":7021,"pia":7022,"ĠsveÄįiai":7023,"Ġstatyti":7024,"Ġtarnyba":7025,"Ġpaband":7026,"Daugelis":7027,"iÅ¡kio":7028,"Ġpasau":7029,"--------":7030,"Ġemig":7031,"Ġnuotraukas":7032,"Ġarom":7033,"ĠuÅ¾dirb":7034,"ĠpaplÅ«dim":7035,"atÄĹ":7036,"ĠvaisiÅ³":7037,"Ġpraleisti":7038,"Ġpapli":7039,"keviÄįius":7040,"ĠÅłi":7041,"ininkais":7042,"Ġgimimo":7043,"ĠprieÅ¡tar":7044,"Ġsilpn":7045,"kime":7046,"Ġsli":7047,"Ġka":7048,"Str":7049,"ĠaukÅ¡Äįio":7050,"ĠdÅ¾iaugsm":7051,"Ġ2005":7052,"Ġapsaugoti":7053,"aga":7054,"toliau":7055,"Ġargum":7056,"ĠvarÅ¾ybose":7057,"ietiÅ¡k":7058,"Ġformul":7059,"inter":7060,"Ġantra":7061,"Ġmergait":7062,"ĠsavivaldybÄĹ":7063,"Ġagres":7064,"unka":7065,"ĠnorÄĹtÅ³":7066,"gia":7067,"ĠpriekÄ¯":7068,"ĠtikÄĹtis":7069,"tuvÄĹs":7070,"ĠbendruomenÄĹ":7071,"ĠsÄħvok":7072,"ĠuÅ¾baig":7073,"Ġpolitika":7074,"ĠsulaukÄĹ":7075,"ĠvarÅ¾ybÅ³":7076,"Ġmateri":7077,"ĠPu":7078,"ĠÅ¾ymiai":7079,"ĠplanÄħ":7080,"ametr":7081,"ĠmeilÄĻ":7082,"iklis":7083,"Ġorganizacija":7084,"?âĢľ":7085,"ĠdeÅ¡imtme":7086,"Ġlangai":7087,"Ġdvaro":7088,"ojÅ«":7089,"Ġbando":7090,"Ġgalia":7091,"VisÅ³":7092,"Ġsistemoje":7093,"ĠÃ":7094,"ĠvirÅ¡Å«n":7095,"Ġpoez":7096,"ith":7097,"ĠgreiÄįiausiai":7098,"ietÄĹ":7099,"ĠNorveg":7100,"aini":7101,"imybÄĹ":7102,"Ġapsauga":7103,"Ġstogo":7104,"ĠtriukÅ¡":7105,"Ġru":7106,"indami":7107,"ĠtroÅ¡k":7108,"ĠpaÄįiam":7109,"Ġskland":7110,"Pil":7111,"ĠAB":7112,"Ġgraf":7113,"Ġabejo":7114,"ĠpanaÅ¡iai":7115,"48":7116,"ĠAuto":7117,"ynÄĻ":7118,"matavimai":7119,"ĠsÄĹkmÄĹs":7120,"Åłioje":7121,"Kvie":7122,"ĠÄ¯dieg":7123,"tiems":7124,"ĠdaiktÅ³":7125,"ĠiÅ¡lieka":7126,"ĠÅ¾odis":7127,"ĠnuotraukÅ³":7128,"Vilnius":7129,"Ġvartojimo":7130,"all":7131,"Ġhig":7132,"TO":7133,"Ġspinduli":7134,"Ġgreit":7135,"ĠnorÄĹjo":7136,"ĠRo":7137,"Ġpateikiami":7138,"ĠlaisvÄĻ":7139,"Dalyv":7140,"pad":7141,"Ġsteig":7142,"67":7143,"Ġnepakank":7144,"odamas":7145,"Ġpalengv":7146,"Ġvitamin":7147,"Ġcukraus":7148,"ĠlygÄ¯":7149,"Ġautori":7150,"Ġvyriausi":7151,"Ġpinigai":7152,"radienÄ¯":7153,"Ġsimptom":7154,"ĠgeriausiÄħ":7155,"amoji":7156,"ĠprieÅ¾iÅ«ra":7157,"ĠlÄħst":7158,"Ġvaiku":7159,"ĠdidesnÄĹ":7160,"Ġeksperim":7161,"Ġpaskyr":7162,"PanaÅ¡":7163,"Ġrealiz":7164,"Tyr":7165,"Lietuva":7166,"Ġdarbui":7167,"du":7168,"ĠvirtuvÄĹs":7169,"Ġpyk":7170,"ÄįiÅ³jÅ³":7171,"aver":7172,"ont":7173,"Ġnarko":7174,"oriz":7175,"Mies":7176,"Ġgalios":7177,"ĠaukÅ¡to":7178,"Ġrizikos":7179,"ĠÄĹm":7180,"lament":7181,"Ġklientams":7182,"Ġdainos":7183,"Ġsuper":7184,"ĠskirtÄħ":7185,"usiu":7186,"Ġsupl":7187,"amieji":7188,"iur":7189,"Ġprigim":7190,"Ġnumatyta":7191,"ĠroÅ¾":7192,"girio":7193,"ĠpaÅ¾inti":7194,"cer":7195,"ĠÄ¯kÅ«r":7196,"iesÄįio":7197,"ĠrytÄħ":7198,"Ġatsipalaid":7199,"ĠaukÅ¡tis":7200,"ĠpietÅ³":7201,"Ġmokytojai":7202,"........":7203,"Ġpalyd":7204,"Ġseksual":7205,"ingais":7206,"Ġpadidinti":7207,"ume":7208,"ÄĹtum":7209,"Ġneper":7210,"Ġpanaudoti":7211,"Ġmak":7212,"Ġsugalv":7213,"ĠAi":7214,"Ġapk":7215,"ĠpojÅ«":7216,"jungi":7217,"ĠmÅ«Å¡":7218,"Ġkokiu":7219,"adienio":7220,"ĠrungtyniÅ³":7221,"Ñĥ":7222,"ĠruoÅ¾":7223,"Ġfail":7224,"Au":7225,"Ġvizi":7226,"Ġprivat":7227,"ÄĹlius":7228,"dymas":7229,"ĠvaistÅ³":7230,"Ġkolon":7231,"ĠpaÅ¡nek":7232,"Ġapygardos":7233,"Ġtransli":7234,"ĠAug":7235,"ĠiÅ¡vad":7236,"Ġpakvies":7237,"rat":7238,"Ġasortimen":7239,"Ġdaugiab":7240,"Ġpristatymo":7241,"Ġvadovo":7242,"Åłiemet":7243,"ĠdidÅ¾iausia":7244,"ĠKÄĹd":7245,"ininkystÄĹs":7246,"Ġpirmojo":7247,"Ġjoms":7248,"ĠdÅ¾iaugs":7249,"ĠsudÄĹtinga":7250,"Ġkvep":7251,"Ġpiet":7252,"Ġremonto":7253,"Ġmaki":7254,"Ġkainas":7255,"Ġpilnai":7256,"****":7257,"Ġnaudinga":7258,"ph":7259,"ĠpirmÅ³jÅ³":7260,"Ġkeliais":7261,"oviz":7262,"Ġpaprastas":7263,"ĠvieÅ¡ai":7264,"ĠryÅ¡io":7265,"ĠpalÅ«k":7266,"epar":7267,"ĠatstovÅ³":7268,"Ġpet":7269,"ĠdÄĹmesys":7270,"Ġpirmosios":7271,"ĠplaÄįiai":7272,"Ġsuvar":7273,"Ġsprendimai":7274,"Ġkros":7275,"KaÅ¾":7276,"Ġlaikytis":7277,"ĠÅ¾aidimÄħ":7278,"Ġply":7279,"ĠkÅ«nÄħ":7280,"Ġkaup":7281,"Ġkabin":7282,"ĠgrÄ¯Å¾ti":7283,"ĠtÄĹvas":7284,"ĠiÅ¡mokti":7285,"ardo":7286,"Ġpakab":7287,"Ġeig":7288,"uolis":7289,"ĠÄ¯sis":7290,"tojui":7291,"ĠBl":7292,"ĠmÄĹsos":7293,"ÄĹjimui":7294,"ĠpriklausÄĹ":7295,"Ġkorpus":7296,"Nem":7297,"ĠerdvÄĹs":7298,"Ġsukaup":7299,"Ġstovi":7300,"Ġnorime":7301,"eidÄĹ":7302,"ĠketuriÅ³":7303,"istaus":7304,"stÅ³":7305,"Ġparem":7306,"ĠaukÅ¡Äįiau":7307,"pjaus":7308,"Ġautomat":7309,"tingÅ³":7310,"inanÄįiÅ³":7311,"Ġretai":7312,"Ġparodos":7313,"Ġrenginys":7314,"teliai":7315,"ĠÄįempionato":7316,"Poli":7317,"ilas":7318,"ĠdrÄħs":7319,"acinÄĹs":7320,"Ġnaudos":7321,"ĠsiÅ«lome":7322,"ĠnuÅ¡":7323,"ĠsumaiÅ¡":7324,"Å«ti":7325,"ĠÅ¡eimai":7326,"anÄįioje":7327,"rab":7328,"ovi":7329,"TA":7330,"umuli":7331,"ĠEg":7332,"eviÄįienÄĹ":7333,"Äħmon":7334,"Ġvietoj":7335,"ĠinvesticijÅ³":7336,"Ġaval":7337,"ĠgraÅ¾us":7338,"ĠprieÅ¾iÅ«r":7339,"Ġenergetikos":7340,"line":7341,"ÄĹtinai":7342,"ĠlÅ«p":7343,"Ġsan":7344,"over":7345,"ĠÅ¾emiau":7346,"Ġdebi":7347,"ojant":7348,"ĠDi":7349,"riu":7350,"Ġlygiai":7351,"ĠdrabuÅ¾iÅ³":7352,"Skir":7353,"lop":7354,"Ġlen":7355,"EB":7356,"Ġstengiasi":7357,"Dauguma":7358,"Ġsocialinio":7359,"Ġnaf":7360,"Ġcharak":7361,"dino":7362,"ĠRob":7363,"ĠRusija":7364,"ĠgerÅ³":7365,"Ġkonkurse":7366,"anija":7367,"ĠUni":7368,"ole":7369,"zmas":7370,"ĠRas":7371,"ĠXIX":7372,"ĠjÄĹgÅ³":7373,"Ġpavyzdys":7374,"Ä®dom":7375,"ĠStr":7376,"bod":7377,"ĠatostogÅ³":7378,"ĠPri":7379,"Ġistorijoje":7380,"vyr":7381,"Ġgyvenvie":7382,"Ad":7383,"uotojÅ³":7384,"Ġdraugai":7385,"ĠsostinÄĹs":7386,"ainÅ³":7387,"Ġenergija":7388,"Ġskand":7389,"ĠformÅ³":7390,"ris":7391,"Ġnuomos":7392,"onuose":7393,"ĠposÄĹ":7394,"fil":7395,"ĠsudÄĹti":7396,"ĠUkmerg":7397,"ĠmaÅ¾iausiai":7398,"ĠÄ¯veikti":7399,"Kitas":7400,"ĠiÅ¡saugoti":7401,"usiam":7402,"Ġilgalaik":7403,"ĠÄ¯tam":7404,"Ġilius":7405,"rd":7406,"ĠmaÅ¾a":7407,"torija":7408,"ĠKinijos":7409,"2011":7410,"Ġlinijos":7411,"Ġvisuomenei":7412,"ĠBas":7413,"Ġveidrod":7414,"Ġvaliu":7415,"ĠatsakomybÄĹs":7416,"ĠprocentÅ³":7417,"dirb":7418,"ĠsukÅ«r":7419,"ĠKÄĻstu":7420,"indamas":7421,"Ġpigiau":7422,"ozi":7423,"Å¡kis":7424,"ĠÄ¯gyvendinimo":7425,"DU":7426,"Ġplieno":7427,"Ġgydytojas":7428,"ĠgÄĹliÅ³":7429,"ĠiÅ¡t":7430,"Ġperson":7431,"Ġpersik":7432,"ĠtyrimÄħ":7433,"uotÄĹ":7434,"ĠVel":7435,"elÄĹje":7436,"aujama":7437,"Norint":7438,"stÄħ":7439,"Ġturg":7440,"Ġlaisvai":7441,"Ġatkur":7442,"ĠKultÅ«ros":7443,"ä¸":7444,"2012":7445,"ĠmokesÄįio":7446,"Ġadminist":7447,"ĠGar":7448,"ĠÄ¯tik":7449,"ĠpripaÅ¾inti":7450,"ĠElektr":7451,"dÄħ":7452,"ĠmokÄĹjimo":7453,"Ġali":7454,"TÄħ":7455,"Ġtiki":7456,"Ġskund":7457,"ÄĹsime":7458,"Ġdemokr":7459,"Ġdub":7460,"Ġkelyje":7461,"oriu":7462,"Ġfunkcija":7463,"Ġpakil":7464,"ĠJuod":7465,"ĠjÄĹgos":7466,"Ġlemia":7467,"Ġsavaites":7468,"Ġsutr":7469,"esniam":7470,"eat":7471,"rob":7472,"olio":7473,"ĠLietuviÅ³":7474,"ĠatkÅ«rimo":7475,"ĠteÅ¡":7476,"Ġ55":7477,"].":7478,"Ġperdirb":7479,"Ġkair":7480,"Ilgis":7481,"Ġplaukus":7482,"Ġteisingai":7483,"Ġniekur":7484,"ĠviÅ¡":7485,"Ġcitr":7486,"sas":7487,"raÅ¡tis":7488,"Ġstul":7489,"ĠarchitektÅ«ros":7490,"Tas":7491,"arÄħ":7492,"ĠÅ¡iai":7493,"bur":7494,"Ġnut":7495,"stu":7496,"alinÄĹs":7497,"ĠÄ¯traukti":7498,"likos":7499,"Ġnesud":7500,"Ġinstitucijos":7501,"Ġtariant":7502,"Ġdokumen":7503,"Ġber":7504,"Ġekskurs":7505,"ĠneturÄĹtÅ³":7506,"Ġelgtis":7507,"teik":7508,"aliais":7509,"ĠaiÅ¡ki":7510,"insime":7511,"Ġsukil":7512,"ĠÄ¯tvirtin":7513,"Ġliber":7514,"Ġpropag":7515,"ijimo":7516,"timu":7517,"pav":7518,"kiais":7519,"Ġpriesk":7520,"Svarbu":7521,"Ġatak":7522,"ĠÅ¡altinis":7523,"ĠÅ¾ud":7524,"ĠkelionÄĹ":7525,"ĠsavivaldybÄĹje":7526,"ĠjauÄįiasi":7527,"Ġparduoti":7528,"Ġsusijusi":7529,"uotus":7530,"Ġrenkasi":7531,"ĠvarÅ¾ybos":7532,"Ġrankos":7533,"Ġnesugeb":7534,"Sak":7535,"eksi":7536,"Ġfunkcijas":7537,"eko":7538,"ĠUtenos":7539,"ĠiÅ¡tir":7540,"terio":7541,"Ġatskirai":7542,"aizd":7543,"Ġplano":7544,"Ġknygas":7545,"ukÅ¡Äįi":7546,"Ġstudijas":7547,"Ġmetas":7548,"Ġaugin":7549,"ĠPVM":7550,"ĠiÅ¡laidÅ³":7551,"Ġprofil":7552,"98":7553,"Ko":7554,"ĠÅ¡aldy":7555,"ykloje":7556,"ĠValstybÄĹs":7557,"Ġtuoj":7558,"ĠÄ¯vykiÅ³":7559,"ĠPa":7560,"Ġmokymosi":7561,"Ġbakteri":7562,"ĠAÅ¡":7563,"lÄĹp":7564,"ĠMik":7565,"Ġstal":7566,"ĠkruopÅ¡":7567,"Ġviduryje":7568,"ybar":7569,"ĠryÅ¡iÅ³":7570,"Ġsoci":7571,"Visgi":7572,"Ġjauni":7573,"Ġtaryba":7574,"Ġlygis":7575,"tuotas":7576,"omÄĹs":7577,"Ġnukent":7578,"ĠkaÅ¾kur":7579,"Ġatspalv":7580,"Ġserijos":7581,"Ġraud":7582,"ausiais":7583,"EO":7584,"Ġdoz":7585,"iÅ«r":7586,"anis":7587,"Ġemoc":7588,"ÄĹtÄħ":7589,"Ġpatvirtino":7590,"Ġtoje":7591,"Ġparametr":7592,"ĠpadÄĹtÄ¯":7593,"tinÅ³":7594,"Ġturintis":7595,"Ġpardavimo":7596,"taus":7597,"Ġev":7598,"Ġkompon":7599,"Ġdemokra":7600,"ted":7601,"Ġaliejus":7602,"Ġkompiuterio":7603,"uojantys":7604,"ĠprancÅ«zÅ³":7605,"ĠgrindÅ³":7606,"ĠAb":7607,"Ġcivi":7608,"Ġtinkamas":7609,"Ġbrangi":7610,"ĠItalijos":7611,"Ġrankomis":7612,"Ġrekomenduojama":7613,"Ġpros":7614,"Ġpateko":7615,"Ġorganizmo":7616,"ÄĸS":7617,"ĠIzra":7618,"Ġskyriuje":7619,"ĠKret":7620,"ĠmilÅ¾ini":7621,"Ġret":7622,"Ġiniciatyva":7623,"ĠpenktadienÄ¯":7624,"Ġ65":7625,"ĠÄ¯m":7626,"ĠStat":7627,"Ġtarpusavyje":7628,"Ġ400":7629,"ĠpavirÅ¡iaus":7630,"ĠsiekÄĹ":7631,"Ġ75":7632,"tose":7633,"Ġsmarkiai":7634,"ĠpastangÅ³":7635,"Ġkoncent":7636,"ĠÅ¾odÅ¾iais":7637,"Ġlop":7638,"ĠdidÅ¾iausiÄħ":7639,"ĠvaÅ¾iuoti":7640,"Ġbag":7641,"Ġpuslapyje":7642,"ĠaikÅ¡tel":7643,"ĠraumenÅ³":7644,"KlaipÄĹdos":7645,"Ġ2003":7646,"ĠiÅ¡tr":7647,"Ġrit":7648,"ĠkaÅ¾koki":7649,"augas":7650,"ĠribÅ³":7651,"Br":7652,"ĠuÅ¾ima":7653,"ĠiÅ¡leido":7654,"demokr":7655,"Ġplak":7656,"Ġpiln":7657,"Ġdraugijos":7658,"Ġdienai":7659,"Ġregione":7660,"Ġmug":7661,"Ġ33":7662,"eu":7663,"cijose":7664,"ĠvaÅ¾":7665,"ĠbaigÄĹsi":7666,"Ġpadovan":7667,"Toliau":7668,"ĠturinÄ¯":7669,"ĠapÅ¡vie":7670,"Ġsij":7671,"Ġpalanki":7672,"raus":7673,"Ġvalandos":7674,"ĠiÅ¡aug":7675,"Ġmobili":7676,"eistÅ³":7677,"Ġakmen":7678,"ĠLRT":7679,"ĠiÅ¡kovojo":7680,"ĠabiejÅ³":7681,"Ġkarjeros":7682,"AiÅ¡ku":7683,"ÄĹmÄĹs":7684,"Ġpateikia":7685,"tuvÄħ":7686,"IR":7687,"ĠverslÄħ":7688,"ĠmarÅ¡kinÄĹ":7689,"Ġturintys":7690,"ĠtvarkÄħ":7691,"Pirmiausia":7692,"viz":7693,"Ð²":7694,"inarijos":7695,"Ġdarbdav":7696,"gen":7697,"Is":7698,"Ġginkl":7699,"avÅ³":7700,"ĠcentrÄħ":7701,"ĠmedÅ¾iok":7702,"ĠbuvÄĻ":7703,"Ġkombin":7704,"Pab":7705,"tininkÅ³":7706,"vydas":7707,"ĠÄįempionate":7708,"ĠapskaiÄįi":7709,"Ġryto":7710,"ĠÅ¡okol":7711,"Lie":7712,"ws":7713,"Prof":7714,"Pop":7715,"TR":7716,"88":7717,"ĠpareigÅ«n":7718,"por":7719,"Ġnoras":7720,"Buv":7721,"ĠKristaus":7722,"aujame":7723,"Ġnamas":7724,"Ġkontra":7725,"Ġcivil":7726,"Ġkeliau":7727,".\"":7728,"ĠsavybiÅ³":7729,"gas":7730,"ĠbÅ«dais":7731,"Ġelgesio":7732,"Ġneatsi":7733,"Ġstabil":7734,"Ġkovoti":7735,"zas":7736,"Å¡o":7737,"ijose":7738,"ĠkÅ«riniÅ³":7739,"ĠÅ¾emÄĻ":7740,"sid":7741,"Vokie":7742,"ĠpasiprieÅ¡":7743,"Moksl":7744,"ĠryÅ¾":7745,"Ġkeliauti":7746,"ĠÅ¾ol":7747,"irurg":7748,"Dirb":7749,"Ġspustel":7750,"ĠtemperatÅ«ros":7751,"Ġduoti":7752,"Tinka":7753,"vy":7754,"Ġ1000":7755,"Ġkeram":7756,"Ġparkas":7757,"ĠJono":7758,"ĠprieÅ¾asties":7759,"Ġdraugais":7760,"Ġpritaikyti":7761,"ĠpilieÄįiÅ³":7762,"Ġkalbama":7763,"Jums":7764,"omen":7765,"eicar":7766,"ĠuÅ¾mokes":7767,"Ġakcijos":7768,"ĠPasaulio":7769,"Neg":7770,"obul":7771,"Ġvakare":7772,"Ġpirmo":7773,"Nu":7774,"ĠsekmadienÄ¯":7775,"Aug":7776,"ĠDidÅ¾iosios":7777,"Ġsoli":7778,"ji":7779,"tÄħjÄ¯":7780,"ĠparamÄħ":7781,"ĠDarbo":7782,"Ġpraras":7783,"Ġskiria":7784,"anÄįiÅ³jÅ³":7785,"Ġth":7786,"Ġpasirodo":7787,"ĠpaÅ¾iÅ«r":7788,"Ġjuoda":7789,"Ġpatvirtinimo":7790,"Ġsveikata":7791,"ĠÅ¡eÅ¡tadienÄ¯":7792,"ĠpateikÄĹ":7793,"ĠÄ¯rangÄħ":7794,"====":7795,"Ġnurodyti":7796,"imie":7797,"Ġnepavyko":7798,"Ġ39":7799,"Ġtarpusavio":7800,"Ġvaizdas":7801,"Ġpatiems":7802,"Ġgaud":7803,"ĠÄħÅ¾":7804,"Åłiais":7805,"ĠkÅ«di":7806,"Ġnuoty":7807,"Ġorkes":7808,"Ġpakl":7809,"Tokia":7810,"rusk":7811,"Ġpe":7812,"ĻĤ":7813,"Ġblogai":7814,"inÄįi":7815,"praÅ¡":7816,"Ġtenk":7817,"Ġseptyn":7818,"utÄĹmis":7819,"Ġsuvokti":7820,"ĠpadÄĹtis":7821,"JAV":7822,"Ġadvok":7823,"ĠtaÅ¡kus":7824,"Ġkatalog":7825,"esniais":7826,"Ġknygoje":7827,"ĠÄ¯mok":7828,"Ġdai":7829,"Äħja":7830,"Ġgalva":7831,"ĠsudÄĹtyje":7832,"ĠpramogÅ³":7833,"astr":7834,"Ġsimboli":7835,"ĠpriÄĹmÄĹ":7836,"IC":7837,"ygos":7838,"ĠpoÅ¾iÅ«ris":7839,"ĠBet":7840,"ubiliej":7841,"ĠdovanÅ³":7842,"ĠkojÅ³":7843,"Sod":7844,"Ġkenk":7845,"ĠgrupÄĻ":7846,"yrag":7847,"SRS":7848,"Ġ44":7849,"Ġkepur":7850,"ĠÄ¯ved":7851,"stom":7852,"Ry":7853,"Ġsujung":7854,"ĠsumÄħ":7855,"ĠsÄħÅ¾in":7856,"sa":7857,"ĠneÄ¯pras":7858,"aisvÄĹs":7859,"Ġpristatymas":7860,"Ġmoka":7861,"aÅ¾Äħ":7862,"Ġsiej":7863,"Ġorganizuoja":7864,"Ġdaiktus":7865,"ĠautomatiÅ¡kai":7866,"Ġsiuv":7867,"Jame":7868,"eiks":7869,"Ġklausimai":7870,"ĠpabrÄĹ":7871,"Ġinst":7872,"enis":7873,"Ġapskaitos":7874,"ĠligoninÄĹs":7875,"orai":7876,"Å«dÅ¾io":7877,"Ġsaugo":7878,"ĠdirÅ¾":7879,"aujantis":7880,"iama":7881,"Ġkambarys":7882,"ĠproblemÄħ":7883,"Ġsovie":7884,"ĠaikÅ¡tÄĹje":7885,"sv":7886,"era":7887,"icion":7888,"ĠsavaitgalÄ¯":7889,"Ġstraipsnis":7890,"ĠtaisyklÄĹs":7891,"ĠmaÄį":7892,"ijaus":7893,"MS":7894,"Ġsuteiks":7895,"Ġfinansavimo":7896,"ĠGied":7897,"Ġmamos":7898,"olet":7899,"Ġjautr":7900,"cional":7901,"ĠmÄĹgautis":7902,"NS":7903,"ĠatvaÅ¾i":7904,"kol":7905,"agys":7906,"Ġaksesu":7907,"ĠkilometrÅ³":7908,"Ġtyl":7909,"eiÄįi":7910,"Ġdovana":7911,"Ġegzistuoja":7912,"ĠraÅ¡oma":7913,"ĠÅ¡alys":7914,"ĠtinklÅ³":7915,"Ġsenam":7916,"ĠAntanas":7917,"Elektr":7918,"ĠSveik":7919,"eur":7920,"lamento":7921,"Ġskatinti":7922,"Ġparag":7923,"Ġkoncep":7924,"utyje":7925,"ĨĴ":7926,"ĠNATO":7927,"iÅ³jÅ³":7928,"Ġkelios":7929,"Ġjausmas":7930,"inanti":7931,"Sveiki":7932,"aku":7933,"Ġvykusi":7934,"ĠlauÅ¾":7935,"ero":7936,"irv":7937,"ĠTrakÅ³":7938,"Ġsavaime":7939,"ast":7940,"ĠesanÄįiÅ³":7941,"ĠmedÅ¾iagas":7942,"ĠKel":7943,"________":7944,"Ġreglament":7945,"Ġskonio":7946,"angeli":7947,"Ġju":7948,"Ġbendro":7949,"Å¡t":7950,"Ġprisit":7951,"Ġremiantis":7952,"Ġlub":7953,"uolio":7954,"uolÄ¯":7955,"Ġtank":7956,"omus":7957,"Ġskelbia":7958,"64":7959,"ĠbandÄĹ":7960,"tiniame":7961,"Ġpagrindas":7962,"Ġobjektyv":7963,"Ġadresas":7964,"Ġskirtum":7965,"ĠÄ¯sim":7966,"Ġviln":7967,"umais":7968,"plinkos":7969,"ĠÄ¯vairiais":7970,"Ġsprog":7971,"abili":7972,"ĠBend":7973,"Ġuosto":7974,"Ñı":7975,"Ġprepar":7976,"Ġlaukti":7977,"Muz":7978,"Kit":7979,"ĠbruoÅ¾":7980,"Ġmiestelio":7981,"iujor":7982,"Ġjuose":7983,"kirst":7984,"ĠveikÄĹ":7985,"ĠneturÄĹjo":7986,"ĠIgn":7987,"Ġpriorit":7988,"eiskite":7989,"Ġprisiminti":7990,"Ġlaboratori":7991,"Ġsantuo":7992,"tuvÅ³":7993,"Ġmeras":7994,"ĠÄ¯kai":7995,"Ġ42":7996,"oni":7997,"ĠÅ¾iniasklaidos":7998,"ypo":7999,"iego":8000,"Ġidenti":8001,"Ġkaln":8002,"oves":8003,"Ġpatogu":8004,"Ġdvej":8005,"laiv":8006,"Ġkaun":8007,"Ġpanaud":8008,"ĠpastebÄĹjo":8009,"rija":8010,"Ġvidutinio":8011,"LK":8012,"Ġtikslus":8013,"ĠGab":8014,"osite":8015,"amomis":8016,"Ġmodern":8017,"ĠsveikatÄħ":8018,"Ġnugaros":8019,"cinis":8020,"2010":8021,"Ġvaldymas":8022,"kom":8023,"ĠartÄĹj":8024,"lip":8025,"ĠturtÄħ":8026,"Galite":8027,"Ġpasitar":8028,"oda":8029,"ĠskyriÅ³":8030,"Ġinterjero":8031,"ĠGe":8032,"Ġpartner":8033,"Ġnepa":8034,"ĠnarÄĹ":8035,"eiÅ¡":8036,"ĠDidÅ¾iojo":8037,"Ġstaiga":8038,"Ġpagerinti":8039,"plek":8040,"tiek":8041,"Ġporos":8042,"ĠiÅ¡gelb":8043,"!âĢľ":8044,"ĠjÄĹga":8045,"Ġoras":8046,"ĠprisipaÅ¾":8047,"Ġmatyt":8048,"\":":8049,"ĠiÅ¡laidas":8050,"Ġ48":8051,"Ġtyrimus":8052,"Ġdukr":8053,"Ġlicen":8054,"ĠiÅ¡kr":8055,"ĠRi":8056,"Ġmodelio":8057,"ĠdrÄħsiai":8058,"ĠÅ¾emyn":8059,"ĠmedÅ¾iÅ³":8060,"pak":8061,"Visas":8062,"ĠslÄĹp":8063,"ĠBu":8064,"Ġvykdo":8065,"Ġsavybes":8066,"Ġnetol":8067,"ÄĹjusios":8068,"aliojo":8069,"Ġsiurb":8070,"ĠiÅ¡sprÄĻsti":8071,"ĠpoÅ¾iÅ«riu":8072,"Ġkvai":8073,"ÄĻÅ¾":8074,"Ġneblog":8075,"ĠPanevÄĹÅ¾":8076,"Ġvonios":8077,"kaitÄĹs":8078,"Atsak":8079,"amoje":8080,"Pagrindinis":8081,"ĠSuom":8082,"AÄįiÅ«":8083,"Kel":8084,"Ġrevoliu":8085,"Ġreikalingi":8086,"ÄĹrÄĹ":8087,"ĠmuzikÄħ":8088,"ybinÄĹ":8089,"ĠvaikÅ¡Äįi":8090,"ydo":8091,"ĠTh":8092,"ĠÅ¡eimÅ³":8093,"ĠpaÅ¾vel":8094,"ĠpasiÅ«lymai":8095,"Ġpei":8096,"Ġgrafik":8097,"ĠÅ¾inau":8098,"Ġmotocik":8099,"Ġstraipsnyje":8100,"ĠsavaiÄįiÅ³":8101,"ls":8102,"Gam":8103,"ĠeilÄĹraÅ¡":8104,"ylis":8105,"Ġmokyklose":8106,"ĠVilniÅ³":8107,"ĠBut":8108,"...]":8109,"Ġsvars":8110,"Ġtolim":8111,"iese":8112,"Ġpiliakal":8113,"dÅ³":8114,"Rank":8115,"Ġpatalpose":8116,"Ġtikro":8117,"Ġnesvarbu":8118,"aikio":8119,"Sek":8120,"ĠGen":8121,"ĠvidutiniÅ¡kai":8122,"ĠdidesnÄ¯":8123,"Ġprarad":8124,"ĠgaminiÅ³":8125,"Jam":8126,"ĠsprendÅ¾i":8127,"liko":8128,"Ġlaikoma":8129,"ĠryÅ¡Ä¯":8130,"Ġparduod":8131,"Ġkuriomis":8132,"Ġramiai":8133,"ĠNuo":8134,"Ġkalv":8135,"Ġmiestuose":8136,"Pats":8137,"bÄĹg":8138,"Ġfeder":8139,"ĠdetaliÅ³":8140,"Ġteatras":8141,"ĠÅ¾vel":8142,"ĠpriemonÄĻ":8143,"Ġveikloje":8144,"ĠCo":8145,"ĠdarÅ¾oviÅ³":8146,"69":8147,"Ġjautri":8148,"ĠdirektorÄĹ":8149,"Ġproduktas":8150,"Ġpagarb":8151,"osiomis":8152,"uper":8153,"Ġterminas":8154,"Ġprasm":8155,"ĠbÅ«sto":8156,"Ġtokiais":8157,"ĠQ":8158,"ĠsparÄįiai":8159,"ĠelementÅ³":8160,"Â°":8161,"Ġturinio":8162,"ĠpartizanÅ³":8163,"cid":8164,"Ñĭ":8165,"Ġsvog":8166,"Ġpasveik":8167,"ĠÄ¯vairiausiÅ³":8168,"ĠJuoda":8169,"ĠmÅ«r":8170,"alais":8171,"Ġnesp":8172,"ĠiÅ¡raiÅ¡k":8173,"Tikrai":8174,"cinÄĹs":8175,"Ġpastov":8176,"eld":8177,"eviÄįiÅ«tÄĹ":8178,"Ġgamta":8179,"fe":8180,"ĠÄ¯statymas":8181,"ĠÄ¯kurta":8182,"Ġnever":8183,"Ġdarbuotojams":8184,"Ġabi":8185,"uotu":8186,"ĠÅ¾uvo":8187,"Ġalaus":8188,"ĠgrÄħÅ¾inti":8189,"Darbo":8190,"ĠkÅ«nas":8191,"amÄħjÄ¯":8192,"ĠpergalÄĻ":8193,"Ġskers":8194,"ojÄĻs":8195,"Ġskur":8196,"akÄĹ":8197,"Ġnepasteb":8198,"Ġprogramoje":8199,"Ġprieig":8200,"Ġsusirg":8201,"Ġatsig":8202,"unku":8203,"Ġpirmieji":8204,"Ġautomobiliai":8205,"ĠenergijÄħ":8206,"domi":8207,"ygiai":8208,"Sieki":8209,"Ġ}":8210,"ĠBaÅ¾nyÄįios":8211,"ĠuÅ¾aug":8212,"ĠpavirÅ¡iÅ³":8213,"otel":8214,"Ġscenar":8215,"Ġpaslaugomis":8216,"Paprastai":8217,"Ġliek":8218,"aliniÅ³":8219,"ĠsusijusiÅ³":8220,"ĠneÅ¾inau":8221,"Ġsupjaus":8222,"Ġblizg":8223,"augi":8224,"Ġvertina":8225,"ĠâĨĴ":8226,"Ġmaud":8227,"ĠgrÄ¯Å¾o":8228,"tekÅ³":8229,"ner":8230,"ĠSavivaldybÄĹs":8231,"ĠÅ¡irdis":8232,"ue":8233,"Ġbiolog":8234,"ailos":8235,"ĠneiÅ¡v":8236,"ĠVin":8237,"ĠvadovÅ³":8238,"ĠkvieÄįiame":8239,"Ġtalp":8240,"ĠskirtÅ³":8241,"cio":8242,"ĠsriÄįiÅ³":8243,"Ġpavasario":8244,"Ġsupranta":8245,"ĠpasirÅ«pinti":8246,"uojamÅ³":8247,"ĠÅ¾id":8248,"Ġpatenkinti":8249,"Ġkauk":8250,"Ġsenov":8251,"Ġmitybos":8252,"virtina":8253,"ĠvieÅ¡ojo":8254,"77":8255,"ĠaukÅ¡Äįiausios":8256,"muose":8257,"Ġpagamintas":8258,"ĠpamÄĹg":8259,"ple":8260,"ĠTo":8261,"ĠBir":8262,"Juos":8263,"Parduodu":8264,"liuz":8265,"Ġpraktik":8266,"Ġark":8267,"ĠkalnÅ³":8268,"eolog":8269,"Ġpusry":8270,"tez":8271,"ĠperveÅ¾":8272,"Ġtrumpomis":8273,"akiau":8274,"ĠÅ¡aud":8275,"Ġnepaisant":8276,"Ġkonsulta":8277,"pel":8278,"ĠkÅ«rimo":8279,"Ġtitu":8280,"Ġnud":8281,"Ġstudijos":8282,"ÅłeÅ¡":8283,"Ġbuhal":8284,"Ġinfo":8285,"Ġpriskir":8286,"ĠpaskutinÄ¯":8287,"Ġveiklai":8288,"Ġsakant":8289,"ĠapaÄįi":8290,"tod":8291,"zel":8292,"Ġmuziejuje":8293,"iro":8294,"ĠVien":8295,"Å¾iaus":8296,"Ġpiliet":8297,"Ġeleg":8298,"ĠreikÅ¡mÄĹs":8299,"Ġpaslaptis":8300,"ĠBi":8301,"ĠmokÄĹ":8302,"Å«kl":8303,"Ġvariantas":8304,"ografijos":8305,"Ġdiskut":8306,"ĠmedÅ¾iagÄħ":8307,"nios":8308,"ĠGryb":8309,"Ġbene":8310,"ĠrÅ«pintis":8311,"tuzi":8312,"andos":8313,"iene":8314,"Ġeuro":8315,"Nepaisant":8316,"Ġaptik":8317,"ĠRud":8318,"Ġtenden":8319,"ĠpolitikÄħ":8320,"Ġfestivalis":8321,"Ġvisose":8322,"pret":8323,"ariÅ³":8324,"Ġbalta":8325,"Ġkitoje":8326,"Ġkorup":8327,"Ġorganizuoti":8328,"Ġmu":8329,"Ġstudentai":8330,"ĠstiliÅ³":8331,"gos":8332,"Ġplanavimo":8333,"Ġmedicin":8334,"Rink":8335,"Ġmobil":8336,"ĠÅ¡eimÄħ":8337,"darb":8338,"ĠIS":8339,"Ġbalk":8340,"Ġvisuo":8341,"ĠasmeniÅ¡kai":8342,"Ġalerg":8343,"ĠsiÅ«loma":8344,"ailes":8345,"Ġzon":8346,"uojate":8347,"ork":8348,"Ġatsinauj":8349,"ĠpabrÄĹÅ¾ÄĹ":8350,"toriumi":8351,"ha":8352,"lic":8353,"ĠaprÅ«p":8354,"ĠklaidÅ³":8355,"ĠMi":8356,"ĠBirÅ¾":8357,"ĠautoriÅ³":8358,"umoje":8359,"Ġpatenka":8360,"aiÅ¾":8361,"ĠvisuomenÄĹje":8362,"Ġ=":8363,"ĠsÄħraÅ¡as":8364,"Nen":8365,"jose":8366,"ieÄįiams":8367,"Ġtvenk":8368,"gÄĹ":8369,"ĠatsakÄĹ":8370,"ails":8371,"Ġpirmininko":8372,"ĠMic":8373,"Ġoptimiz":8374,"Ġsvies":8375,"Bi":8376,"ĠdrÄĹk":8377,"ĠJuozas":8378,"tinimo":8379,"ĠSav":8380,"Ġnepil":8381,"Å¡Ä®":8382,"sen":8383,"ĠfilmÄħ":8384,"Ġvardo":8385,"ĠpasiÅ«lÄĹ":8386,"66":8387,"ĠiÅ¡min":8388,"Ġkun":8389,"Ġgili":8390,"Å¾iÅ«ros":8391,"Ġnegaliu":8392,"ĠAlgird":8393,"85":8394,"top":8395,"ĠSocial":8396,"Ġfrak":8397,"Pasku":8398,"Ġspecif":8399,"Ġrudens":8400,"Ġtab":8401,"Ġparke":8402,"ation":8403,"ĠÅłvietimo":8404,"ĠMarijos":8405,"tuku":8406,"ĠkovÄħ":8407,"ĠdÅ¾iov":8408,"eÄį":8409,"Ned":8410,"ĠiÅ¡tekliÅ³":8411,"ĠvÄĹjo":8412,"anso":8413,"ontolog":8414,"Å¡kÄĹs":8415,"Ġakimirk":8416,"ÑĮ":8417,"tanijos":8418,"Ġrob":8419,"ĠsavarankiÅ¡kai":8420,"ukui":8421,"Ġrinkod":8422,"Ġesantis":8423,"ĠneÄ¯tik":8424,"ĠlaimÄĹti":8425,"Skaityti":8426,"Ġgalioj":8427,"Ġsekre":8428,"AK":8429,"nys":8430,"ĠpraÅ¡ymÄħ":8431,"Ġtirp":8432,"tad":8433,"Pirmasis":8434,"jaus":8435,"Å«v":8436,"Ġmem":8437,"Ġpriklausomai":8438,"ĠRusijoje":8439,"Ġkieki":8440,"organiz":8441,"ĠMart":8442,"ĠparduotuvÄĹ":8443,"ĠEr":8444,"Ġdeja":8445,"ĠKalÄĹdÅ³":8446,"ĠStan":8447,"iauti":8448,"ienei":8449,"ĠateitÄ¯":8450,"ĠTelÅ¡iÅ³":8451,"Ġilgomis":8452,"ĠlangÅ³":8453,"isl":8454,"echn":8455,"ietÄĹs":8456,"Ġdug":8457,"ĠÅ¾iÅ«ri":8458,"ĠtikslÄħ":8459,"ĠKai":8460,"za":8461,"ĠamÅ¾iuje":8462,"ĠplÄĹv":8463,"ĠiÅ¡veÅ¾":8464,"Ġpaslauga":8465,"ĠÅ¾enklo":8466,"ango":8467,"ĠpasidÅ¾iaug":8468,"ĠnaujienÅ³":8469,"Ġentuzi":8470,"radic":8471,"ĠduÅ¡":8472,"arko":8473,"Ġgitar":8474,"Ġsukl":8475,"Mas":8476,"Ġtrem":8477,"ĠrenginÄ¯":8478,"Progr":8479,"ĠLenkijoje":8480,"ĠspalvÄħ":8481,"ĠÄ¯vard":8482,"lios":8483,"ĠbÅ«klÄĹ":8484,"Ġpastebi":8485,"umat":8486,"Ġspecialistas":8487,"DA":8488,"Ġpigi":8489,"Ġmokslininkai":8490,"ĠTam":8491,"ĠmÄĹlyna":8492,"Ġabsoliu":8493,"Ġakademijos":8494,"ĠvertÄĻ":8495,"49":8496,"vÄħ":8497,"ĠbaÅ¾nyÄįioje":8498,"ĠRÅ«":8499,"Ġatsikr":8500,"Ġ2002":8501,"ĠketvirtadienÄ¯":8502,"Ġapdor":8503,"riau":8504,"Ġatsiv":8505,"Ġgausu":8506,"bia":8507,"apie":8508,"Ġsukuria":8509,"Arba":8510,"Ġliep":8511,"ĠpaslaugÄħ":8512,"ĠOl":8513,"ĠkreipÄĹsi":8514,"ĠmokÄĹsi":8515,"Ġvadinasi":8516,"Ġvirtu":8517,"aÅ¾ai":8518,"Ġdiagnoz":8519,"ulius":8520,"cho":8521,"ĠnuomonÄĹs":8522,"Ġnomin":8523,"ĠÅ¾yg":8524,"Ġkituose":8525,"ĠseniÅ«nijos":8526,"Ġtarnau":8527,"ĠiÅ¡ei":8528,"BirÅ¾":8529,"Ġ2019":8530,"ill":8531,"Ġkleb":8532,"ĠNemun":8533,"Ġatrodyti":8534,"apl":8535,"ĠPrek":8536,"tenk":8537,"ĠThe":8538,"ĠiÅ¡vaÅ¾i":8539,"Ġatvykti":8540,"Ġ;":8541,"Gyv":8542,"ĠkelnÄĹs":8543,"ĠpaÄįius":8544,"ojome":8545,"Ġlag":8546,"cas":8547,"ĠiÅ¡laidos":8548,"Ġliemen":8549,"Å½aid":8550,"fal":8551,"ĠStas":8552,"Ġsoviet":8553,"Ġpasil":8554,"low":8555,"Ġdokumentai":8556,"inans":8557,"akiÅ³":8558,"Ġpopieriaus":8559,"Ġpakeitimo":8560,"Ġpastatyti":8561,"47":8562,"Ġrinkinys":8563,"ĠGraiki":8564,"ĠlÅ«":8565,"ĠpakeitÄĹ":8566,"klis":8567,"Ġdraudimas":8568,"Ġfunkcijos":8569,"Tink":8570,"ĠNepriklausom":8571,"ĠpriÄĹmimo":8572,"ĠruoÅ¡i":8573,"TauragÄĹs":8574,"Ġalium":8575,"ĠAustral":8576,"ĠprocedÅ«ros":8577,"oft":8578,"Ġproto":8579,"ĠkeiÄįiasi":8580,"Ġsmagu":8581,"En":8582,"Ġkvar":8583,"Ġlyti":8584,"ĠatveÅ¾":8585,"erm":8586,"Ġvyrams":8587,"Ġakmens":8588,"Ġapsaugo":8589,"ĠKos":8590,"ĠdetalÄĹs":8591,"uliai":8592,"Tiek":8593,"Ġmatema":8594,"Å¡l":8595,"ĠBraz":8596,"rie":8597,"Ġdanga":8598,"uomenÄĹs":8599,"Ġakcent":8600,"Stat":8601,"Ġreikalavimai":8602,"Ġpatogus":8603,"ĠPov":8604,"ĠsuteikÄĹ":8605,"ĠpavadinimÄħ":8606,"Ġdizainas":8607,"Ġpyrag":8608,"ĠapÅ¾valg":8609,"tuko":8610,"Aud":8611,"Ġdem":8612,"Ġtikslais":8613,"PR":8614,"ĠsusijÄĻs":8615,"tiÅ¡kÄħ":8616,"ure":8617,"Ġpatikrinti":8618,"Ġvyn":8619,"oles":8620,"ĠamÅ¾ius":8621,"ĠkÅ«dik":8622,"Ab":8623,"Ġrefer":8624,"ĠiÅ¡sirinkti":8625,"ĠBendr":8626,"liukas":8627,"ĠnetikÄĹtai":8628,"Ġkomisari":8629,"ĠkliÅ«":8630,"ĠvieÅ¡osios":8631,"Ġpalaiko":8632,"Spalio":8633,"ÄĹto":8634,"ĠsavybÄĹs":8635,"agos":8636,"uotojai":8637,"Ġskiriama":8638,"kÅ¡Äįiai":8639,"Ġpoveikis":8640,"ĠDov":8641,"ando":8642,"ĠÄ¯vairiose":8643,"Ġaptarnavimo":8644,"ĠGedimino":8645,"ĠiÅ¡siaiÅ¡kinti":8646,"Ð¼":8647,"tet":8648,"Ġnusipirkti":8649,"Ġkyl":8650,"ĠreikÅ¡mÄĻ":8651,"âĢľ).":8652,"pard":8653,"ĠtaurÄĹs":8654,"ĠÄ¯spÅ«dÄ¯":8655,"Ġniekam":8656,"Ġfantas":8657,"Ġpatirti":8658,"2009":8659,"oliÅ³":8660,"Ġatstum":8661,"Ġfili":8662,"Ġakimis":8663,"Ġpartija":8664,"ĠjÅ«rÅ³":8665,"tiÅ¡ki":8666,"Ġding":8667,"ĠGintar":8668,"ĠkarjerÄħ":8669,"uÄįio":8670,"Ġlinija":8671,"Projekto":8672,"ĠÅ¾aidÄĹ":8673,"uotÄĻ":8674,"iÅ¡kumo":8675,"Ġprodukto":8676,"Ġpark":8677,"Ġmaloniai":8678,"Ġryte":8679,"Ġheroj":8680,"ĠÅ¾odÄ¯":8681,"Äģ":8682,"Ġdeleg":8683,"Ġkondicion":8684,"ĠpareigÅ³":8685,"ĠakcijÅ³":8686,"ÄĹnas":8687,"ĠpraneÅ¡ime":8688,"Ġei":8689,"TÄĹv":8690,"ĠprisidÄĹti":8691,"aujanÄįiÅ³":8692,"enkia":8693,"Ġambasad":8694,"Ġspin":8695,"peln":8696,"Ġindus":8697,"org":8698,"ĠvieÅ¡Å³jÅ³":8699,"inukai":8700,"tÄĹsi":8701,"Ġatein":8702,"epia":8703,"Pati":8704,"Ġteras":8705,"Ġplanus":8706,"ĠAuÅ¡":8707,"indow":8708,"ykÅ¡ÄįiÅ³":8709,"Ġangl":8710,"ĠparÄħ":8711,"Ġmato":8712,"Ġatim":8713,"rijoje":8714,"ĠiÅ¡girsti":8715,"ĠEm":8716,"Ġinicij":8717,"Tokie":8718,"Vilk":8719,"Ġtechnologija":8720,"Ġik":8721,"ulys":8722,"ĠbÅ«klÄĻ":8723,"ĠKol":8724,"Ġpatekti":8725,"Ġodai":8726,"Ġpotencial":8727,"Stud":8728,"ĠiÅ¡sami":8729,"ĠsumokÄĹti":8730,"Ġsumon":8731,"ĠdavÄĹ":8732,"ĠRase":8733,"Ġå":8734,"Å«ris":8735,"Ġ2001":8736,"Ġ<":8737,"eguli":8738,"Å«rÄħ":8739,"CO":8740,"Ġpatalpos":8741,"nauj":8742,"Ġgrie":8743,"ĠrÅ«Å¡is":8744,"Ta":8745,"tojais":8746,"Ġkliento":8747,"Ġprojektai":8748,"ĠpaslÄĹp":8749,"Ġisp":8750,"Ġdruskos":8751,"NÄĹra":8752,"ĠMyk":8753,"ĠEsti":8754,"Ġfakult":8755,"Ã¡":8756,"Ġekstrak":8757,"alyje":8758,"Ġoficialiai":8759,"Ġrenov":8760,"Ġatsiras":8761,"Ġvairavimo":8762,"vira":8763,"Nuos":8764,"ĠsmegenÅ³":8765,"ĠjudÄĹjimo":8766,"Ġinterpret":8767,"ĠtikÄĹjimo":8768,"Ġsusiform":8769,"ĠmoksleiviÅ³":8770,"ĠgeleÅ¾inkelio":8771,"kÄĹs":8772,"Ġjubiliej":8773,"Atl":8774,"jei":8775,"tusi":8776,"Ġpip":8777,"Ġugni":8778,"Ġnuotr":8779,"Ġtaikyti":8780,"Ġfl":8781,"Ġtvirtina":8782,"usieji":8783,"uojanÄįios":8784,"ĠkarÄħ":8785,"Ġnesuk":8786,"ĠÅ¾enklÅ³":8787,"uodavo":8788,"ĠkomandÅ³":8789,"Ġgyvenimui":8790,"teko":8791,"Ġbron":8792,"78":8793,"Ġgaiv":8794,"ĠpastebÄĹti":8795,"Ġbiblioteka":8796,"omet":8797,"ĠÄ¯vairaus":8798,"Ġvaiki":8799,"aub":8800,"Ġgydymas":8801,"Ġdaugeliui":8802,"ĠnorÄĹÄįiau":8803,"ĠparaÅ¡ÄĹ":8804,"ĠvieÅ¡buÄįio":8805,"telÄĹjo":8806,"Ġprofesorius":8807,"Ġkiekio":8808,"ĠtreÄįiadienÄ¯":8809,"ĠÅłim":8810,"anitar":8811,"Ġpastab":8812,"ĠÅ½emai":8813,"ytojus":8814,"Ġged":8815,"ÄĹmimo":8816,"utr":8817,"tukai":8818,"ybas":8819,"Ġmokiniams":8820,"ĠNiujor":8821,"ĠÄ¯renginiÅ³":8822,"telio":8823,"ĠstraipsniÅ³":8824,"Ġvadovavo":8825,"Ġgamintojai":8826,"Ġetapas":8827,"taÅ¾od":8828,"2008":8829,"Ġkomfor":8830,"FI":8831,"Ġnuom":8832,"ĠpokyÄįiÅ³":8833,"Ġmaz":8834,"Ġvakaro":8835,"Ġgalioja":8836,"tingos":8837,"Puikiai":8838,"Ġnusiteik":8839,"Ġnuotrauka":8840,"Ġverslui":8841,"Ġfotografijos":8842,"Å¡kumÄħ":8843,"Ġapsir":8844,"Ġ120":8845,"arv":8846,"elo":8847,"ĠnepriklausomybÄĹs":8848,"ĠvakarÅ³":8849,"ĠkariÅ³":8850,"Anks":8851,"ĠraÅ¡tu":8852,"ĠÄ¯gÅ«dÅ¾iÅ³":8853,"tun":8854,"alizacijos":8855,"Trump":8856,"Ġprojekte":8857,"Ġgalvoti":8858,"Ġpuik":8859,"Ġtelk":8860,"ĠrezultatÄħ":8861,"Ġesantys":8862,"ĠiÅ¡rad":8863,"uojamÄħ":8864,"ĠparduotuvÄĹse":8865,"raÅ¾i":8866,"42":8867,"Å«kis":8868,"Ġklavi":8869,"Ġplanas":8870,"Ġversija":8871,"Kiti":8872,"('":8873,"ytais":8874,"Ġperm":8875,"Ġminti":8876,"Ġsakoma":8877,"ĠprekÄĻ":8878,"Ġketuris":8879,"Ġveda":8880,"Ġregistracijos":8881,"ĠJis":8882,"ĠiÅ¡tis":8883,"Ġsvarbiausias":8884,"enoje":8885,"orÄħ":8886,"Ġasmeniui":8887,"Gim":8888,"acijose":8889,"Ġmumis":8890,"Ġlaure":8891,"ĠIT":8892,"metÄĹ":8893,"46":8894,"ml":8895,"Ġnaftos":8896,"Ġprisijungti":8897,"TreÄįi":8898,"KvieÄįiame":8899,"ĠryÅ¡ius":8900,"ĠdviraÄįiÅ³":8901,"Ġparama":8902,"Ġuniversitetas":8903,"audami":8904,"Diev":8905,"tuos":8906,"uolius":8907,"Ġparapijos":8908,"Ġsektori":8909,"ĠmokestÄ¯":8910,"ĠJoh":8911,"Ġsalos":8912,"ryÅ¡k":8913,"teles":8914,"aidas":8915,"Ġstand":8916,"ĠmaÅ¾y":8917,"ĠAustri":8918,"indavo":8919,"Ketvir":8920,"ĠIlg":8921,"Ġsutuok":8922,"Ġchirurg":8923,"kiau":8924,"gip":8925,"ĠvalstybinÄĹs":8926,"ĠdÅ¾iaugtis":8927,"iesti":8928,"ĠÅ¡venÄįiÅ³":8929,"Ġfr":8930,"ĠÅ¡altiniÅ³":8931,"Ġceremon":8932,"Ġsurinkti":8933,"Ġarki":8934,"ĠRaudon":8935,"ĠpoÅ¾iÅ«rÄ¯":8936,"ĠDrusk":8937,"ĠvestuviÅ³":8938,"ĠpraneÅ¡imÄħ":8939,"ĠnamÄħ":8940,"Ġjaustis":8941,"uosiuose":8942,"ĠpasiraÅ¡ÄĹ":8943,"ĠnesÄĹkm":8944,"ĠtÄĹvams":8945,"ĠvienintelÄĹ":8946,"Ġpavaduotojas":8947,"esne":8948,"Ġsituacijos":8949,"ĠsÄħjunga":8950,"LapkriÄįio":8951,"ĠrieÅ¡u":8952,"Ġmaitinimo":8953,"ĠRoki":8954,"tvar":8955,"Ġ600":8956,"Ġkvad":8957,"ĠTomas":8958,"udo":8959,"ice":8960,"yj":8961,"ĠÅ¾aidÄĹjÅ³":8962,"Ġdaina":8963,"ĠkaÅ¾ko":8964,"tiesiems":8965,"Ġro":8966,"ĠDid":8967,"Tu":8968,"ĠneaiÅ¡k":8969,"Ġmlrd":8970,"Ġkreipi":8971,"ĠapÅ¾iÅ«r":8972,"ĠiÅ¡augo":8973,"Ä®vai":8974,"ĠRomos":8975,"ĠMich":8976,"Ġgynybos":8977,"apar":8978,"Ġsa":8979,"ĠrungtynÄĹse":8980,"icial":8981,"Ġpastatas":8982,"ĠÄ¯prasta":8983,"Ġmui":8984,"Ġprik":8985,"Ġsalo":8986,"Ġaukl":8987,"Ġasociacija":8988,"ĠÅ¡ou":8989,"Â®":8990,"Ġatnaujinti":8991,"Ġlaisvalaikio":8992,"etend":8993,"ĠlopÅ¡":8994,"ĠkultÅ«rÄħ":8995,"ilius":8996,"virÅ¡":8997,"»¿":8998,"lug":8999,"ĠrytÅ³":9000,"Ġvisgi":9001,"usiais":9002,"Ġvyno":9003,"acijomis":9004,"tÅ«ras":9005,"Ġnesik":9006,"eliuose":9007,"ĠkraÅ¡tas":9008,"Rekomend":9009,"ĠuÅ¾trauk":9010,"Ġbij":9011,"ĠBen":9012,"Ġanot":9013,"Ġilgaam":9014,"86":9015,"Ġstamb":9016,"ala":9017,"ĠminÄįiÅ³":9018,"Ġekspozi":9019,"Mums":9020,"Ġsaugoti":9021,"Ġstadi":9022,"Ġpalank":9023,"ĠpaaiÅ¡kÄĹjo":9024,"Ġakys":9025,"ĠBelg":9026,"ÄĹnai":9027,"ĠgyvybÄĹs":9028,"ĠIR":9029,"ĠEk":9030,"ĠBo":9031,"Ġno":9032,"ĠreiktÅ³":9033,"ï»¿":9034,"kiuose":9035,"ovus":9036,"ĠLu":9037,"Ġdarbams":9038,"ĠTaip":9039,"Ġatsakingas":9040,"ĠÅ¾valg":9041,"ĠVI":9042,"Ġmatome":9043,"Ġneabejo":9044,"ĠgraÅ¾u":9045,"Å¡ku":9046,"',":9047,"DÄĹv":9048,"ĠerdvÄĻ":9049,"ĠvaizdÄħ":9050,"Ġrimtai":9051,"Ġpastatyta":9052,"Ġnario":9053,"ĠSer":9054,"ĠÅ¾inia":9055,"ĠlankytojÅ³":9056,"ĠtarptautiniÅ³":9057,"Ġnemalon":9058,"ĠskyrÄĹ":9059,"anks":9060,"Ġaplinkai":9061,"Ġapv":9062,"ĠdvideÅ¡imt":9063,"Ġmiestus":9064,"ĠdrabuÅ¾iai":9065,"ĠÅ¡ach":9066,"Ġbed":9067,"ĠmuziejÅ³":9068,"Ġvamzd":9069,"Ġpozityv":9070,"ovietÅ³":9071,"Ġlai":9072,"Ġrenginiai":9073,"Ġkambaryje":9074,"telÄ¯":9075,"Ġnurodyta":9076,"ĠLaur":9077,"aisto":9078,"Ġnuosek":9079,"ĠKup":9080,"ĠvisuomenÄĹ":9081,"Ġrizik":9082,"ĠsÄħraÅ¡e":9083,"ĠBritanijos":9084,"Ġda":9085,"ĠÄ¯monÄĹms":9086,"ĠmodeliÅ³":9087,"alos":9088,"ĠGir":9089,"ĠjÄĹgas":9090,"ĠDai":9091,"tÄħjÄħ":9092,"apo":9093,"akos":9094,"ciniÅ³":9095,"ĠmaÅ¾Å³":9096,"ĠvÄĹÅ¾":9097,"Ġprotok":9098,"Ġbiuro":9099,"OJ":9100,"Ġprogimnaz":9101,"Ġtikros":9102,"tiniuose":9103,"Ġciviliz":9104,"meninÄĹ":9105,"virat":9106,"Ġapyk":9107,"ĠiÅ¡ÄĹjo":9108,"Ġskelbimai":9109,"ĠkatalikÅ³":9110,"Ġpavid":9111,"ĠSan":9112,"Ġpiev":9113,"onais":9114,"Ġperduoti":9115,"Ġniekaip":9116,"IJA":9117,"Skait":9118,"ĠEstijos":9119,"ĠUkmergÄĹs":9120,"ÄĹbul":9121,"tieji":9122,"Ġbankas":9123,"uolÄĹ":9124,"Ġharmon":9125,"Ġaliejaus":9126,"Ġbibliotekoje":9127,"Ġseksas":9128,"Ġpatogiai":9129,"ĠkambarÄ¯":9130,"Åłven":9131,"Lik":9132,"Ġsodo":9133,"aps":9134,"Ġinterviu":9135,"Vaikai":9136,"rios":9137,"ĠpatyrÄĹ":9138,"Ġautomobilius":9139,"Ġspausdin":9140,"Ġvalstybei":9141,"antus":9142,"ĠsaugumÄħ":9143,"ĠuÅ¾sakymÄħ":9144,"ĠPalangos":9145,"Du":9146,"Ġskard":9147,"Ġdekoratyv":9148,"ĠÅ¾ingsnis":9149,"Ġgeriausius":9150,"dis":9151,"Ġnesusi":9152,"ĠpapildomÄħ":9153,"Rad":9154,"Gar":9155,"soci":9156,"Ġdidinti":9157,"tuoja":9158,"ĠlaimÄĹs":9159,"skio":9160,"Ġnutrauk":9161,"ĠÄ¯sikÅ«rusi":9162,"Ġaz":9163,"Ġdvy":9164,"ĠMaskvos":9165,"Ġpraktikos":9166,"ĠpareigÅ«nÅ³":9167,"Ġpatogi":9168,"yro":9169,"Ġkojos":9170,"imantas":9171,"azo":9172,"ĠVlad":9173,"dÅ¾iais":9174,"Ġpagrindo":9175,"verÅ¾":9176,"ĠAugus":9177,"ĠnuoÅ¡ird":9178,"ĠvirÅ¡k":9179,"Ġkategorijoje":9180,"63":9181,"Ġledo":9182,"Ġnusk":9183,"Ġnustatytas":9184,"Ġgeriausi":9185,"Ġbo":9186,"Ġliudij":9187,"Ġrekord":9188,"Ġsocialdemokr":9189,"Ġpelno":9190,"MI":9191,"ĠiÅ¡val":9192,"Ġautomobiliu":9193,"Ġmokytojas":9194,"Ġnusikalst":9195,"eÅ¡io":9196,"Ġtreneris":9197,"Ġsimbo":9198,"ĠiÅ¡sp":9199,"Ġpolitikai":9200,"ĠasmenybÄĹs":9201,"Ġkova":9202,"Ġakumuli":9203,"ĠvyriausybÄĹs":9204,"ormon":9205,"tingo":9206,"Ġmatosi":9207,"ĠmaÅ¡inos":9208,"Ġvykti":9209,"verti":9210,"Ġsusitikimas":9211,"Ġsuo":9212,"ĠNaujienos":9213,"Ġanalog":9214,"Ġtamsi":9215,"Ġbev":9216,"Ġparodo":9217,"Im":9218,"Ä®mon":9219,"Ġing":9220,"Ph":9221,"ĠpirmadienÄ¯":9222,"Ġkraujagys":9223,"Ġlazd":9224,"palv":9225,"Ġsunkiau":9226,"IeÅ¡k":9227,"Ġkokias":9228,"ulteto":9229,"inome":9230,"ĠÄ¯sikÅ«rÄĻs":9231,"inÄĹjimo":9232,"ĠÅ¾an":9233,"ĠslÄĹ":9234,"ĠbÅ«damas":9235,"Ġ//":9236,"Ġpristato":9237,"atyti":9238,"ĠÄ¯vykio":9239,"Ġdepres":9240,"kiui":9241,"ausiasis":9242,"Ġvertinti":9243,"Koki":9244,"Klaus":9245,"idÄĹs":9246,"Ġstum":9247,"Laim":9248,"LietuviÅ³":9249,"ĠdÅ¾iaugi":9250,"antaz":9251,"ĠiÅ¡sisk":9252,"ĠiÅ¡leis":9253,"ace":9254,"ĠnagrinÄĹj":9255,"ĠfinansiniÅ³":9256,"tingumo":9257,"ĠemocijÅ³":9258,"Ġperl":9259,"Ġmotina":9260,"MiÅ¡":9261,"ĠpajÄĹgÅ³":9262,"rinÄĹs":9263,"ulÄ¯":9264,"Ġlietaus":9265,"ĠsenovÄĹs":9266,"egu":9267,"ĠtautÅ³":9268,"ĠsvarbÅ«s":9269,"Ġsusidar":9270,"Ġster":9271,"Ġefektyviai":9272,"Svarbiausia":9273,"Ġle":9274,"uotai":9275,"Ġkryptimi":9276,"Ġkontein":9277,"Ġnepatog":9278,"Ġklausimu":9279,"ĠsumaÅ¾ÄĹjo":9280,"Ġsergan":9281,"Ġvientis":9282,"aciniÅ³":9283,"Ġaugimo":9284,"mar":9285,"Ġvisam":9286,"kie":9287,"uval":9288,"ĠvieÅ¡buÄįiÅ³":9289,"Ġsampr":9290,"bio":9291,"Ġpasitaiko":9292,"ĠBalta":9293,"Ġatliekamas":9294,"Â¬":9295,"Ġgies":9296,"ĠVol":9297,"ĠBritan":9298,"Ġarti":9299,"ĠatsakomybÄĻ":9300,"pild":9301,"ĠvirÅ¡uje":9302,"ĠpasivaikÅ¡Äįi":9303,"Ġ250":9304,"AP":9305,"ĠinteresÅ³":9306,"Mod":9307,"ment":9308,"Ġsandar":9309,"ĠantradienÄ¯":9310,"ĠMaÅ¾eikiÅ³":9311,"ĠperÅ¾iÅ«r":9312,"ĠiÅ¡kilm":9313,"Ġprod":9314,"Ġdiagnos":9315,"ess":9316,"Ġstilius":9317,"paÅ¡":9318,"Ġprievar":9319,"jomis":9320,"Ġsusitikimo":9321,"gais":9322,"Ġmokestis":9323,"Ġapsup":9324,"Ġvakarus":9325,"ĠEx":9326,"ĠpaÄįioje":9327,"Ġkiekvienos":9328,"ĠPaul":9329,"ren":9330,"ĠidÄĹjÄħ":9331,"Ġprasi":9332,"ĠnereikÄĹtÅ³":9333,"ĠRober":9334,"Ġtikslo":9335,"albÄĹti":9336,"yja":9337,"Ġturtas":9338,"stant":9339,"Ġtauta":9340,"iame":9341,"Ġvandenyje":9342,"idÅ³":9343,"ĠÄ¯ves":9344,"tÄĹja":9345,"Ġpastatytas":9346,"ĠvedÄĹ":9347,"Ġsudaryta":9348,"Ġsutiko":9349,"Ġport":9350,"ĠÅ¾ygi":9351,"age":9352,"Ġdraus":9353,"Ġuol":9354,"Ġnuolatos":9355,"AnksÄįiau":9356,"Kam":9357,"ĠbaltymÅ³":9358,"ĠÄ¯sid":9359,"ĠpenkiÅ³":9360,"ĠpasiÅ«lymÅ³":9361,"ĠpaukÅ¡ÄįiÅ³":9362,"Ġseg":9363,"2007":9364,"Penk":9365,"ters":9366,"ĠÅª":9367,"usti":9368,"ĠdÅ¾ins":9369,"ĠMod":9370,"aÅ¡k":9371,"enkite":9372,"Ġmineral":9373,"ĠÄ¯statymÄħ":9374,"ĠnaudÄħ":9375,"ĠÄ¯man":9376,"Ġtikisi":9377,"JÄ¯":9378,"Ġgreta":9379,"Ġsvoris":9380,"Ġpasidalinti":9381,"ĠsuraÅ¡":9382,"erÄĹ":9383,"iÅ¡kus":9384,"Ġtechnologijas":9385,"ze":9386,"ĠBul":9387,"Ġscenos":9388,"enkti":9389,"Gerai":9390,"ĠamÅ¾iÅ³":9391,"Ġdalyviams":9392,"Ġbatai":9393,"Å«nÄħ":9394,"ĠspustelÄĹkite":9395,"Ġlanks":9396,"ĠiÅ¡ryÅ¡k":9397,"ĠAu":9398,"Ġkonkurenc":9399,"ĠBud":9400,"Ġsiur":9401,"ĠstraipsnÄ¯":9402,"Ġgyventojus":9403,"Ġnariams":9404,"Ġfakulteto":9405,"Ġkomandai":9406,"ĠnereiÅ¡kia":9407,"liuko":9408,"Ġrengia":9409,"entili":9410,"ĠkraÅ¡te":9411,"Ġdalyvaus":9412,"ĠvamzdÅ¾i":9413,"ĠsÄħskaitÄħ":9414,"Ġesanti":9415,"ĠÄ¯domus":9416,"otos":9417,"Ġpapro":9418,"ĠLED":9419,"irti":9420,"ĠÅ¾alos":9421,"Ġnumeris":9422,"Ġekrano":9423,"ĠKÄĹdainiÅ³":9424,"Ġskausmas":9425,"Ġparodoje":9426,"ĠtarptautinÄĹs":9427,"Ġkategorijos":9428,"torijos":9429,"ger":9430,"Ġnupl":9431,"Ġnustato":9432,"PraÅ¡":9433,"Ġsistemas":9434,"ĠÅłilutÄĹs":9435,"Ġpomid":9436,"Ġkone":9437,"ĠLie":9438,"ĠðŁĻĤ":9439,"vyskup":9440,"Ġnurodo":9441,"tojÄħ":9442,"ĠÄ¯vaizd":9443,"ĠinkstÅ³":9444,"Ġ46":9445,"ĠpraÅ¡ome":9446,"Ġtradicijas":9447,"Ġnebuv":9448,"Ġjaud":9449,"Ġpietus":9450,"Ġrinkimuose":9451,"Å«dis":9452,"tÅ³si":9453,"Ġaudinio":9454,"kÄ¯":9455,"audÅ³":9456,"PirmÄħ":9457,"ĠuÅ¾duo":9458,"ĠpolitinÄĹs":9459,"Ġperdavimo":9460,"ĠpraneÅ¡a":9461,"Å¡a":9462,"andas":9463,"ĠfunkcijÄħ":9464,"ĠMol":9465,"Ġnesib":9466,"yklinio":9467,"och":9468,"Ġteigiama":9469,"Ġtrumpai":9470,"Ġ!":9471,"ĠveikÄĹjas":9472,"ĠsmÅ«":9473,"amÄħjÄħ":9474,"Äįiomis":9475,"ĠÅłveicar":9476,"Ġsuprato":9477,"Ġvadina":9478,"ĠÄ¯gÅ«dÅ¾ius":9479,"Ġkonkursas":9480,"Ġ85":9481,"Ġrestau":9482,"Ġatitinkamai":9483,"ĠvirÅ¡u":9484,"ĠakivaizdÅ¾i":9485,"okyb":9486,"Ġsupratau":9487,"Ġdalij":9488,"ĠiÅ¡leisti":9489,"à¸":9490,"ĠÅ¡nek":9491,"Ġteritorija":9492,"ĠrinkÄħ":9493,"Ġduoda":9494,"ĠNU":9495,"vesti":9496,"ĠarÄįiau":9497,"ĠvedÄĹjas":9498,"ĠvertybiÅ³":9499,"alik":9500,"Ġnamie":9501,"cs":9502,"iat":9503,"Supr":9504,"Â²":9505,"Ġtiekimo":9506,"Ġtarpe":9507,"Gyd":9508,"Ġketurias":9509,"ĠÄ¯rengta":9510,"tiesi":9511,"insite":9512,"Å£":9513,"Tar":9514,"ĠÅ¾iÅ«rovÅ³":9515,"ĠvaldÅ¾iÄħ":9516,"ijoms":9517,"Ġvartotojams":9518,"ĠÅ¡uo":9519,"Ġkran":9520,"Ġplauki":9521,"Ġneber":9522,"enu":9523,"aiÅ¡i":9524,"ĠteritorijÅ³":9525,"toju":9526,"ĠPlung":9527,"ĠryÅ¡k":9528,"Ġpli":9529,"Ġsnieg":9530,"Ġuostas":9531,"bas":9532,"Ġtinklap":9533,"ienÄĻ":9534,"Ġduonos":9535,"van":9536,"Ġpolicija":9537,"Ġpriima":9538,"ĠÅ¡irdÄ¯":9539,"Ġvili":9540,"Ġpradedant":9541,"ĠÅ¡viesi":9542,"UN":9543,"ĠparaÅ¡yti":9544,"lotis":9545,"ĠgiminÄĹs":9546,"ĠparduotuviÅ³":9547,"Ġdideliu":9548,"Ġmintys":9549,"ĠvÄĹli":9550,"ĠneleidÅ¾ia":9551,"ĠBerl":9552,"Ġdarbuotojas":9553,"Ġsektoriaus":9554,"tuviÅ³":9555,"ĠJurg":9556,"ĠDalia":9557,"ĠlankÄĹsi":9558,"ĠÅ¾inomi":9559,"ĠgÄĹl":9560,"zos":9561,"Ġgai":9562,"Ġskil":9563,"ĠDarb":9564,"varg":9565,"Ġsaugiai":9566,"Ġpraktika":9567,"ĠMak":9568,"ĠidÄĹjas":9569,"Ġnej":9570,"Ġpastaruosius":9571,"Ġsuded":9572,"ĠBaltarusijos":9573,"Ġlaz":9574,"Ġnav":9575,"ĠturinÄįiÅ³":9576,"RugsÄĹjo":9577,"Ġvik":9578,"Ġpavyks":9579,"ĠsvetainÄĹ":9580,"ĠsveÄįiams":9581,"iausios":9582,"ĠpamirÅ¡ti":9583,"ĠpozicijÄħ":9584,"Ġuz":9585,"tuÅ¡":9586,"Vos":9587,"Äįiama":9588,"Ġac":9589,"isto":9590,"ĠIN":9591,"ĠiÅ¡vys":9592,"metis":9593,"ĠbritÅ³":9594,"Ġbio":9595,"Ġatskleisti":9596,"Ġfab":9597,"Ġtaikoma":9598,"Ġgaminiai":9599,"ĠsukÄĹlÄĹ":9600,"ĠtipÅ³":9601,"Ġauten":9602,"ĠÄĹjo":9603,"Ġkantr":9604,"Ġapsilankyti":9605,"ĠnatÅ«raliai":9606,"ĠVieÅ¡pa":9607,"ĠÅ¾inome":9608,"ĠDub":9609,"Äįiamas":9610,"ats":9611,"ĠnuotekÅ³":9612,"ĠnuoÅ¡irdÅ¾iai":9613,"sniui":9614,"Tie":9615,"Ġkaz":9616,"Ġbendrojo":9617,"SK":9618,"Ġatsako":9619,"usiai":9620,"tÅ«rÄħ":9621,"ĠkonkursÄħ":9622,"ĠkruopÅ¡Äįiai":9623,"ulkiÅ³":9624,"Ġskraid":9625,"Ġsudeg":9626,"ĠÅ¡lapimo":9627,"ĠKretingos":9628,"Ġklij":9629,"ĠRy":9630,"ĠDv":9631,"Ġpatalpas":9632,"ĠfunkcijÅ³":9633,"indows":9634,"Di":9635,"ĠMad":9636,"ĠkompiuteriÅ³":9637,"Pras":9638,"Ġgamintojo":9639,"ĠkÅ«diki":9640,"ĠprieÅ¡ingai":9641,"Ġgrupei":9642,"OD":9643,"Ġskyl":9644,"ĠNik":9645,"ĠautobusÅ³":9646,"ĠskaiÄįiaus":9647,"ĠbaltÅ³":9648,"VienÄħ":9649,"asario":9650,"ĠIspanijos":9651,"Ġbendrov":9652,"Ġsuprantama":9653,"ĠÅłiauliuose":9654,"ĠÅ¾aidÅ¾i":9655,"ĠrÅ«Å¡ies":9656,"Ġatrankos":9657,"Ġpadeng":9658,"Ġpipir":9659,"ĠskonÄ¯":9660,"Ġvairuotojas":9661,"Ġpateikiama":9662,"Ġkirp":9663,"ĠpuÅ¡":9664,"Sut":9665,"Ġ?":9666,"gres":9667,"Ġprofi":9668,"ĠpradÄĹjau":9669,"Ġkelti":9670,"ymuose":9671,"Ġpriskiri":9672,"Ġmenk":9673,"ĠÄ¯rengtas":9674,"fa":9675,"Ġrengti":9676,"Ġdeko":9677,"ĠmaÅ¾esnis":9678,"Ġscenoje":9679,"ĠbÅ«tinas":9680,"Å¾inau":9681,"Ġdaugelyje":9682,"uka":9683,"Ġmyli":9684,"Ġsutaupyti":9685,"ĠmilijonÅ³":9686,"Ġdvirat":9687,"Ġsavininkas":9688,"onijos":9689,"ĠÅ¡uk":9690,"ĠpaaiÅ¡kinti":9691,"ĠpopuliariausiÅ³":9692,"use":9693,"Ġsuvoki":9694,"Ġ--":9695,"Ġkvalifikacijos":9696,"ĠdÅ¾iaugiasi":9697,"ĠÄ¯vykius":9698,"ĠÅ¡uni":9699,"ĠKomisijos":9700,"ĠveidÄħ":9701,"VP":9702,"Ġelementai":9703,"ĠtÄĹvo":9704,"kiteis":9705,"oper":9706,"ĠesanÄįios":9707,"Ġplaukai":9708,"Ġskyd":9709,"ĪĴ":9710,"ĠCon":9711,"Ġhormon":9712,"Pasirink":9713,"ĠmaÅ¡ina":9714,"ÄħsteliÅ³":9715,"ĠÄ¯sakymu":9716,"Ð´":9717,"ĠapsaugÄħ":9718,"Ġanim":9719,"ĠiÅ¡siskiria":9720,"Ġdemonstr":9721,"Ġ1990":9722,"ĠÅ¾irg":9723,"ĠSeime":9724,"Ġkonferencijoje":9725,"damos":9726,"ands":9727,"Ġnekilnojamojo":9728,"Ġpilna":9729,"ĠpasirinkimÄħ":9730,"ĠsmÄĹlio":9731,"ĠAntr":9732,"Ġpsicho":9733,"erijoje":9734,"ĠplaÄįi":9735,"ĠnuosavybÄĹs":9736,"ĠdÄĹÅ¾ÄĹ":9737,"Ġpails":9738,"ĠkaÅ¾kaip":9739,"Ġsuteiktas":9740,"Ġtoler":9741,"ĠlÄĹÅ¡omis":9742,"Tarptau":9743,"ĠneÅ¡ioti":9744,"ĠrÅ«mai":9745,"intus":9746,"Ġugnies":9747,"cinio":9748,"ĠÄ¯teik":9749,"43":9750,"ĠkaÅ¡":9751,"ojamas":9752,"Ġsubti":9753,"ĠÅ¾aidÄĹjai":9754,"Ġapkr":9755,"Sc":9756,"ĠKub":9757,"tintas":9758,"Plan":9759,"Ġelas":9760,"Ġlaikomi":9761,"Ġzonos":9762,"osioms":9763,"Ġpasirinkimo":9764,"slas":9765,"Ġpaskirtas":9766,"Ġbendravimo":9767,"Ġgy":9768,"Ġskamba":9769,"Ġgrupes":9770,"Nauja":9771,"Ġatrink":9772,"Kovo":9773,"uolaiki":9774,"ĠGro":9775,"Ġstiprus":9776,"auliÅ³":9777,"ĠpartneriÅ³":9778,"Ġdav":9779,"ĠuÅ¾sisakyti":9780,"ĠpolitiniÅ³":9781,"Ġsavanori":9782,"olÄ¯":9783,"ĠteritorijÄħ":9784,"ĠÄ¯raÅ¡Å³":9785,"Ġ43":9786,"ĠjausmÄħ":9787,"Ġlaikinai":9788,"enÄįia":9789,"Ġrankose":9790,"ĠdidÅ¾ioji":9791,"Å½od":9792,"ĠtrokÅ¡":9793,"Ġvan":9794,"Ġadministravimo":9795,"Å¾eng":9796,"Ġatvaizd":9797,"ecial":9798,"ĠaiÅ¡kino":9799,"ojÄĻ":9800,"Ġarbatos":9801,"ĠbÄĹd":9802,"ĠneiÅ¡vengi":9803,"Ġlyderis":9804,"Ġgaben":9805,"ĠrinktinÄĹ":9806,"OP":9807,"Ġribos":9808,"ĠVarÅ¡":9809,"egul":9810,"tynÅ³":9811,"Ġteksto":9812,"Ġturinti":9813,"Ġsprendimu":9814,"ovok":9815,"Ġverslas":9816,"ĠgreiÄįio":9817,"Ġpaspaud":9818,"ÄĹjom":9819,"Ġrenginius":9820,"Ġskiriamas":9821,"ĠpavirÅ¡ius":9822,"âĢľ),":9823,"ĠuÅ¾sim":9824,"58":9825,"eliams":9826,"ĠkoÅ¡":9827,"Grup":9828,"ost":9829,"Ġnuobod":9830,"Ġsvetim":9831,"Ġveterinarijos":9832,"ĠkalÄĹd":9833,"ĠbaÅ¾nyÄįiÄħ":9834,"Ġfer":9835,"Ġban":9836,"IÅ²":9837,"Galiausiai":9838,"ĠdrÄĹgmÄĹs":9839,"ĠJei":9840,"ambi":9841,"ĠpripaÅ¾ino":9842,"ĠÄ¯kÅ«rÄĹ":9843,"ĠÅ¾mogumi":9844,"ĠsveÄįius":9845,"ĠuÅ¾kand":9846,"Ġanksti":9847,"ĠlinkÄĻ":9848,"ĠAlgirdas":9849,"EG":9850,"Ġ47":9851,"ĠpasikeitÄĹ":9852,"ĠTi":9853,"ĠÅ¾odÅ¾iu":9854,"Å¡as":9855,"Kaz":9856,"ĠPoli":9857,"Ġpagerb":9858,"ĠpanaÅ¡aus":9859,"Ġkontroliuoti":9860,"ĠporeikiÅ³":9861,"Ġprivers":9862,"auskite":9863,"unt":9864,"esiu":9865,"Ind":9866,"ey":9867,"Ġskausmo":9868,"ologas":9869,"Ġlikti":9870,"ĠÅ¾alÄħ":9871,"angoje":9872,"ĠAG":9873,"Ġprijung":9874,"ĠaukÅ¡tas":9875,"Ġnebeg":9876,"Ġsmag":9877,"ĠlÅ«pÅ³":9878,"ĠÅ¾emÄĹ":9879,"ĠÄ¯kurtas":9880,"ransp":9881,"Ġpriekyje":9882,"Ġfol":9883,"Ġturnyro":9884,"Ġvisoki":9885,"41":9886,"orÄ¯":9887,"Å½algirio":9888,"Nak":9889,"Ġrado":9890,"Ġgiliai":9891,"ĠpaprasÄįiausiai":9892,"ĠlÄħsteliÅ³":9893,"ĠÄ¯pareig":9894,"Ġgied":9895,"enda":9896,"ĠnarÄĹs":9897,"kuri":9898,"ĠmodelÄ¯":9899,"ĠTer":9900,"Social":9901,"Ġskirtingi":9902,"Ġvidurio":9903,"Ġinstitutas":9904,"ĠtikÄĹtina":9905,"ĠkvieÄįiami":9906,"ĠkÅ«rimas":9907,"ĠkÅ«rinys":9908,"Kitaip":9909,"uotojas":9910,"Ġinteg":9911,"ĠAmerikoje":9912,"mÄĹn":9913,"Ġsklypo":9914,"Ġcharakteris":9915,"Ġnr":9916,"ynos":9917,"ode":9918,"Ġnuolaidos":9919,"ĠpradÄĹs":9920,"ĠsostinÄĹje":9921,"ĠVeng":9922,"Ġtaur":9923,"ĠÅ¾emÄĹje":9924,"Ġdraugas":9925,"ĠrankoviÅ³":9926,"Ġrekonstruk":9927,"ĠTik":9928,"Å«rÅ³":9929,"Ġskirtumas":9930,"ĠgatviÅ³":9931,"Ġastr":9932,"ĠLatvijoje":9933,"ĠaukÅ¡te":9934,"Ġilgalai":9935,"ĠpokyÄįius":9936,"Ã·":9937,"ĠÄ¯staiga":9938,"ĠklasÄĹ":9939,"impi":9940,"Äįd":9941,"TS":9942,"ĠpaÅ¾eidÅ¾i":9943,"ĠCar":9944,"ĠnurodÄĹ":9945,"Ġlaikotarpio":9946,"Ġgum":9947,"Ġoperacijos":9948,"Ġkitoms":9949,"Ġjomis":9950,"Ġatkr":9951,"ĠVit":9952,"Ġkalno":9953,"ster":9954,"Ġgyvyb":9955,"Ġgran":9956,"ĠturistÅ³":9957,"ÄĹlyna":9958,"uogiÅ³":9959,"ĠpaÄįiame":9960,"stos":9961,"Ġsumos":9962,"ĠparuoÅ¡ti":9963,"antieji":9964,"ĠneiÅ¡s":9965,"len":9966,"ĠiÅ¡aiÅ¡k":9967,"ĠGrig":9968,"aidimai":9969,"Ġelektroniniu":9970,"name":9971,"Ġvariklis":9972,"Ġbegal":9973,"Ġtiri":9974,"ĠposÄĹdyje":9975,"ĠAndrius":9976,"tini":9977,"Ġkomunikacijos":9978,"Ġteikimo":9979,"cel":9980,"Ġpriimtas":9981,"tojimo":9982,"Ġdirv":9983,"Ġveikimo":9984,"Ġskun":9985,"ĠbutÅ³":9986,"ÄĹlimo":9987,"GeguÅ¾ÄĹs":9988,"tele":9989,"iciÅ¡kai":9990,"Ġvadas":9991,"Ġsekund":9992,"ĠtrukmÄĹ":9993,"Ġrub":9994,"ĠneÄ¯si":9995,"Ġ1991":9996,"davau":9997,"Ġritu":9998,"Ġangli":9999,"Ġromanti":10000,"Juod":10001,"ĠÅ¡viesa":10002,"ĠÅ¡unÅ³":10003,"atais":10004,"techni":10005,"Ä«":10006,"Ġelgi":10007,"iemuo":10008,"Ġ41":10009,"ĠiÅ¡ki":10010,"Ġdialog":10011,"Ġfantaz":10012,"Ġsusikaup":10013,"arus":10014,"Ġklientai":10015,"ĠÄ¯kr":10016,"ulÄĹs":10017,"ĠÂ·":10018,"toma":10019,"Ġkoncertas":10020,"Ġjuosta":10021,"Ġdik":10022,"Ġdan":10023,"ĠsurengÄĹ":10024,"Ġtemos":10025,"Ġkompak":10026,"Ġperseki":10027,"Ġpaved":10028,"ĠpradÄĹta":10029,"ĠmaÅ¾os":10030,"Ġpakarto":10031,"ĠEgip":10032,"valio":10033,"Ġ[...]":10034,"Ġlaikotarpis":10035,"Ġstaig":10036,"ĠCom":10037,"ĠmaÅ¾inti":10038,"ĠmoksliniÅ³":10039,"Ġstudentams":10040,"varkos":10041,"racijÄħ":10042,"trauka":10043,"ĠvalstybÄĻ":10044,"iestyje":10045,"ĠÄ¯staigose":10046,"vej":10047,"Ġgydyti":10048,"oksid":10049,"ĠÅłar":10050,"ĠkÅ«riniai":10051,"Ġtvarkyti":10052,"ienÄħ":10053,"Ang":10054,"ĠÅ¾aidimus":10055,"Ġfirmos":10056,"inantys":10057,"Ġtual":10058,"ĠLaim":10059,"Ġried":10060,"etui":10061,"Ġnaudojimas":10062,"lif":10063,"Parod":10064,"aliaus":10065,"auta":10066,"Ġsker":10067,"Ġsriub":10068,"acijoms":10069,"Ġligomis":10070,"bÄĹ":10071,"ĠaukÅ¡tÄħ":10072,"Ġkonteks":10073,"Ġvariklio":10074,"ĠJÄĹzaus":10075,"Uni":10076,"Ġatliekami":10077,"Ġreklama":10078,"Ġkritik":10079,"ukams":10080,"ĠvaikystÄĹs":10081,"Ġsunkv":10082,"redien":10083,"ĠTal":10084,"ĠÄ¯gyti":10085,"ĠÅ¡iltas":10086,"MW":10087,"ĠÅ¡viesÄħ":10088,"Ġsusijusius":10089,"TurbÅ«t":10090,"idro":10091,"Ġnesis":10092,"ĠpradÄĹtas":10093,"Ġorganizatoriai":10094,"Ġprocesus":10095,"ĠpacientÅ³":10096,"Ġkonferencijos":10097,"DK":10098,"ĠnorÄħ":10099,"Ġlov":10100,"ĠVÅ¡Ä®":10101,"esniems":10102,"Å¡tas":10103,"Ġodontolog":10104,"ingiausiÅ³":10105,"Papras":10106,"ĠDom":10107,"Ġeli":10108,"Rud":10109,"Ġpretend":10110,"Ġpadangos":10111,"ĠAg":10112,"Ġrinkimus":10113,"Ġnaudojasi":10114,"Ġpajamas":10115,"ĠbendruomeniÅ³":10116,"iras":10117,"ĠskausmÄħ":10118,"alans":10119,"Ġtvirtino":10120,"ĠPra":10121,"ĠamerikieÄįiÅ³":10122,"centr":10123,"timui":10124,"Google":10125,"Ġrepr":10126,"ĠLaik":10127,"ĠjaunÅ³":10128,"ĠBaltic":10129,"Turime":10130,"ĠmeÅ¡k":10131,"ĠnuvaÅ¾i":10132,"ĠbÅ«do":10133,"Ġingredien":10134,"ĠvisuomenÄĻ":10135,"esiÅ³":10136,"ĠpanaÅ¡us":10137,"Ġrinkodaros":10138,"ĠIV":10139,"Ġkepimo":10140,"Ġjausmus":10141,"Ġvienai":10142,"Ġrezultatyv":10143,"ĠÅ¡ep":10144,"Ġ86":10145,"ĠKlaipÄĹda":10146,"ĠdrabuÅ¾ius":10147,"ĠsaulÄĹ":10148,"aw":10149,"ÄĹle":10150,"Siekiant":10151,"92":10152,"Ġplanuojama":10153,"BÅ«d":10154,"inia":10155,"ĠJer":10156,"tuota":10157,"Ġkryptis":10158,"ĠkroviniÅ³":10159,"Ġpriel":10160,"Ġteatre":10161,"ybÄĹms":10162,"ĠuÅ¾sakymo":10163,"Ġstim":10164,"ÄĹjant":10165,"Ġgaminami":10166,"tone":10167,"ĠFor":10168,"Ġrytus":10169,"mail":10170,"Reik":10171,"Ġkonferencija":10172,"Ġlatv":10173,"yklÅ³":10174,"Ġvaikinas":10175,"Ġpatikim":10176,"ĠrankÄħ":10177,"Ġplius":10178,"ĠsunkveÅ¾":10179,"sio":10180,"Ġnarius":10181,"ĠtikimybÄĹ":10182,"ĠnemÄĹg":10183,"ĠNepriklausomybÄĹs":10184,"Ġdebes":10185,"Ġpadaryta":10186,"Beveik":10187,"ytÄĻ":10188,"fi":10189,"ĠbiÄįi":10190,"ĠtiesÄħ":10191,"ĠnuotaikÄħ":10192,"urk":10193,"ĠReg":10194,"ĠmuÅ¡":10195,"Ġjose":10196,"Ġ95":10197,"Ġveiksmai":10198,"ilÄĹ":10199,"ĠÄ¯vairiomis":10200,"Naujas":10201,"Ġskirtingas":10202,"ĠDe":10203,"ĠgalÄĹtume":10204,"Ġgalimas":10205,"SB":10206,"aise":10207,"argiai":10208,"ĠÅ¾inote":10209,"Ġpasirenk":10210,"iÅ¡kumÄħ":10211,"Ġnesul":10212,"Gamin":10213,"Ġsusiduria":10214,"ĠpratÄĻs":10215,"Ġveg":10216,"Ġidentifik":10217,"Ġname":10218,"ĠreÅ¾isierius":10219,"ĠKo":10220,"kg":10221,"XX":10222,"Ġneabejotinai":10223,"espond":10224,"rosoft":10225,"eva":10226,"Ġkunigas":10227,"Ġbylos":10228,"Ġrusi":10229,"Ġapskai":10230,"ulti":10231,"ĠpatarimÅ³":10232,"VD":10233,"ĠryÅ¡ys":10234,"ĠJas":10235,"Ġfestivalyje":10236,"ĠlapÅ³":10237,"SiÅ«lome":10238,"Ġsil":10239,"Ġalbumas":10240,"ĠtavÄĻs":10241,"ĠgarbÄĹs":10242,"ĠSovietÅ³":10243,"Ġdrab":10244,"andÅ³":10245,"ood":10246,"funk":10247,"Ġkriz":10248,"ĠkÅ«ryba":10249,"Ġvisoms":10250,"Ġilgas":10251,"pe":10252,"ĠdÅ¾iaugsmo":10253,"ĠJaponijos":10254,"Panev":10255,"edija":10256,"Ġkarta":10257,"2006":10258,"izmo":10259,"ĠPrancÅ«zijoje":10260,"ĠplÄĹÅ¡":10261,"ĠuÅ¾sir":10262,"ĠagentÅ«ros":10263,"vizi":10264,"ĠvieÅ¡butyje":10265,"Ġpalaim":10266,"Ati":10267,"dai":10268,"Ġpaskamb":10269,"ĠJank":10270,"Ġpaliek":10271,"Ġhoriz":10272,"Ä¯sti":10273,"Ġuod":10274,"Ġkonstitu":10275,"VisÄħ":10276,"ĠskrydÅ¾iÅ³":10277,"Atrodo":10278,"ĠiÅ¡rinktas":10279,"ĠGel":10280,"ĠbendroviÅ³":10281,"ĠlaukÄĹ":10282,"tuvu":10283,"ĠnetrÅ«k":10284,"VÄĹl":10285,"Ġpatvirtina":10286,"ravimÄħ":10287,"Ġnebent":10288,"Ġsusitikti":10289,"Automobi":10290,"ÄĹliais":10291,"ĠminutÄĹs":10292,"ĠÅ¾ada":10293,"ĠlÅ«kesÄįius":10294,"Ġgarantija":10295,"ĠdeÅ¡imtmetÄ¯":10296,"acinis":10297,"ĠpirkimÅ³":10298,"ĠatsiÅ¾velg":10299,"Ġatminties":10300,"tacijÄħ":10301,"Ġkomandoje":10302,"ĠJurb":10303,"ĠprisidÄĹjo":10304,"ĠerdvÄĹ":10305,"Atlik":10306,"ĠAfrikos":10307,"oka":10308,"Ġkin":10309,"Ġpatobul":10310,"Ġploto":10311,"Ġkalbomis":10312,"ĠmasÄĹs":10313,"Ġpama":10314,"Netr":10315,"Ġbuvome":10316,"Ġlengvas":10317,"ĠpakvietÄĹ":10318,"ĠPasaul":10319,"Ġkilogr":10320,"ĠnÄĹÅ¡tumo":10321,"aust":10322,"Ġgerti":10323,"ĠkeleiviÅ³":10324,"ĠÅ¡on":10325,"Å¡kumas":10326,"che":10327,"ĠpakraÅ¡":10328,"domos":10329,"ĠapaÄįioje":10330,",-":10331,"Ġtrik":10332,"Ġfraz":10333,"Susitik":10334,"97":10335,"Ġasmenis":10336,"ojami":10337,"uls":10338,"Ġbalans":10339,"Ġkalbant":10340,"ĠmokesÄįius":10341,"ĠploÄįio":10342,"ĠCi":10343,"ĠsvetainÄĻ":10344,"Kep":10345,"Ġpakeis":10346,"lÄĻ":10347,"ĠcentrÅ³":10348,"ĠdÅ«":10349,"Ġvab":10350,"Ġprodukcijos":10351,"ĠpanaÅ¡i":10352,"ĠpaÅ¾eidimÅ³":10353,"ĠÅłvedijos":10354,"ĠpasiryÅ¾":10355,"ĠpridÄĹ":10356,"intÄ¯":10357,"fon":10358,"Vir":10359,"ĠsÄħraÅ¡o":10360,"ĠnorÄĹdami":10361,"ĠnuomonÄĹ":10362,"ĠiÅ¡sig":10363,"Ġinstali":10364,"Ġetape":10365,"ĠRen":10366,"Ġgimnazijoje":10367,"Ġsukel":10368,"ĠUrb":10369,"ction":10370,"Ġatgaiv":10371,"Ġnacionalinio":10372,"Ġdarbu":10373,"Ġlaikosi":10374,"UM":10375,"ĠJam":10376,"ĠlÄĹÅ¡as":10377,"Ġturnyre":10378,"Ġteor":10379,"band":10380,"Ġlygoje":10381,"Ġobjektus":10382,"Ġgamtoje":10383,"ĠtreÄįd":10384,"OT":10385,"Ġrengimo":10386,"Ġsupil":10387,"ĠÅ¡ventes":10388,"ĠtelefonÄħ":10389,"Ġdvik":10390,"ĠLib":10391,"inkiÅ³":10392,"utinio":10393,"Organiz":10394,"2000":10395,"Ġsusk":10396,"ĠatsisakÄĹ":10397,"iekaiÅ¡":10398,"ulÄĹ":10399,"Ġkoment":10400,"Ġkry":10401,"ainos":10402,"Spalva":10403,"anu":10404,"ĠvedÄĹja":10405,"Ġvykdymo":10406,"Ter":10407,",...":10408,"ĠmerginÅ³":10409,"unkiai":10410,"egistruoti":10411,"teka":10412,"tuosi":10413,"ĠatvirkÅ¡Äįiai":10414,"Ġsielos":10415,"VT":10416,"ĠanalizÄĹ":10417,"Ġkatedros":10418,"Ġvisuose":10419,"ĠGu":10420,"aidÄħ":10421,"Ġsusp":10422,"bos":10423,"tosi":10424,"Ġmeniu":10425,"odi":10426,"Ġkieme":10427,"Ġrealiai":10428,"rink":10429,"ĠdidesnÄĹs":10430,"engva":10431,"acinÄĹ":10432,"Ġaugint":10433,"ĠKybar":10434,"Antra":10435,"ĠlaiÅ¡kÄħ":10436,"terÄ¯":10437,"Ġgalvoje":10438,"ĠpaprasÄįiau":10439,"ãĢ":10440,"ĠaukÅ¡tÅ³":10441,"Met":10442,"sim":10443,"ĠÅ¡auk":10444,"Esame":10445,"uÄįiai":10446,"Ġpastaruoju":10447,"Ġekstr":10448,"Visada":10449,"Åłalia":10450,"ĠvÄĹÅ¾io":10451,"Ġimper":10452,"Ġarcheolog":10453,"Ġautoriaus":10454,"ĠmÄĹgstami":10455,"Ġnesir":10456,"Ġprogres":10457,"ĠTe":10458,"Ġpateikta":10459,"Äįiant":10460,"Ġpoezijos":10461,"ĠvirÅ¡Å³":10462,"Ġparengti":10463,"ÑģÑĤ":10464,"ĠpasiÅ«lymÄħ":10465,"ĠavalynÄĹ":10466,"Å«dij":10467,"aminas":10468,"ĠuÅ¾l":10469,"Ġvisomis":10470,"Ġ1999":10471,"ĠÅ¡amp":10472,"damiesi":10473,"Ġgryb":10474,"Pus":10475,"tyr":10476,"Ġpenkias":10477,"elsi":10478,"Ġpagrindiniai":10479,"ymos":10480,"ĠpluoÅ¡":10481,"Ġsniego":10482,"Ġplanuoja":10483,"andens":10484,"ĠsandÄĹli":10485,"ĠAplinkos":10486,"audÄĹ":10487,"ĠspecialistÄĹ":10488,"Ġplau":10489,"Ġmiego":10490,"Ġdetales":10491,"Ġnusis":10492,"Ġni":10493,"ĠsuvaÅ¾i":10494,"GrÄ¯Å¾":10495,"Ġradi":10496,"Ġmero":10497,"ĠdidesnÄĻ":10498,"inÄįius":10499,"ĠpokyÄįiai":10500,"ĠMindaugas":10501,"ĠadresÄħ":10502,"Seimo":10503,"ĠpabrÄĹÅ¾ia":10504,"Ġgreitis":10505,"urkÅ¡":10506,"prat":10507,"ĠKaip":10508,"Ġsuplan":10509,"ones":10510,"Ġmielai":10511,"Ġtransport":10512,"Ġdvasios":10513,"Ġinteresus":10514,"ĠÅ¡ito":10515,"Ġdramos":10516,"Ġgamina":10517,"ĠVisi":10518,"ĠAtl":10519,"Ġturnyras":10520,"Ġkupr":10521,"Ġpajamos":10522,"Ġkapi":10523,"Ġdangos":10524,"ola":10525,"ĠuÅ¾kr":10526,"omai":10527,"Ġgimtadien":10528,"Ġkoply":10529,"Ġdruska":10530,"ĠfondÅ³":10531,"mais":10532,"Ġjaunimas":10533,"Ġvyksi":10534,"osiose":10535,"alizacija":10536,"ĠnebÄĹra":10537,"Ġatsirasti":10538,"IAI":10539,"eka":10540,"ĠJak":10541,"Ġstori":10542,"ĠnusprÄĻs":10543,"ĠFil":10544,"ĠjudÄĹti":10545,"Ġreguliariai":10546,"Ġobjektas":10547,"ĠpraÅ¾":10548,"Ġkonstrukcijos":10549,"alinio":10550,"Ġmol":10551,"Ġ58":10552,"ĠsvarbÄħ":10553,"ĠKam":10554,"Ġmotinos":10555,"Ġ(-":10556,"encijÄħ":10557,"Sant":10558,"ĠjauÄįia":10559,"Ġketv":10560,"Ġagresyv":10561,"ĠagentÅ«ra":10562,"untÄĹ":10563,"ĠItalijoje":10564,"Ġpavarg":10565,"Ġseptyni":10566,"blog":10567,"71":10568,"Ġ68":10569,"Ġkaklo":10570,"raj":10571,"Ġrizika":10572,"ĠPh":10573,"Ġtaikomas":10574,"Ġgard":10575,"Ġvadyb":10576,"ankst":10577,"aidÅ³":10578,"Ġdvejus":10579,"tav":10580,"ĠkarÅ¡to":10581,"ĠAukÅ¡Äįi":10582,"ĠÅ½al":10583,"Ġskirtingus":10584,"vÄĹ":10585,"ietÄĻ":10586,"ĠÅ¾vak":10587,"ĠÅ¾inojo":10588,"Å¾iÅ«ra":10589,"uva":10590,"Kiekviena":10591,"ĠpasireiÅ¡kia":10592,"tukÅ³":10593,"JÄħ":10594,"ĠÅ¡okio":10595,"Ġbas":10596,"ĠLap":10597,"Ġarkivyskup":10598,"kiams":10599,"ĠLab":10600,"Ġikiteis":10601,"darÅ¾":10602,"Ġsulaik":10603,"ĠturÄĹsite":10604,"Å¾iui":10605,"nam":10606,"Ġnugar":10607,"Tais":10608,"Ġprieskon":10609,"Ġlaiki":10610,"alizuoti":10611,"ĠÅ¡velniai":10612,"Ġpusiau":10613,"Ġnesut":10614,"KÅ«r":10615,"alioje":10616,"Ġpuikios":10617,"Ġtauti":10618,"Ġapyv":10619,"Ġsugad":10620,"Ġaktorius":10621,"ĠpamaÅ¾u":10622,"Ġhidr":10623,"Ġvairuotojo":10624,"aiÅ¡iad":10625,"ĠST":10626,"Ġkriterijus":10627,"Ġhttps":10628,"rikas":10629,"ĠaikÅ¡tÄĹs":10630,"Ġlyginant":10631,"ibli":10632,"ĠRaseiniÅ³":10633,"vyl":10634,"tiks":10635,"ĠvirÅ¡aus":10636,"isas":10637,"ĠraÅ¡ytojas":10638,"Ġvadinami":10639,"Ġpasinaud":10640,"96":10641,"Ġorganizavo":10642,"irgin":10643,"ĠÄ¯am":10644,"ĠuÅ¾r":10645,"uti":10646,"ĠdÅ¾iaugÄĹsi":10647,"PaÅ¡":10648,"Ġgydytojo":10649,"niu":10650,"Ġeleganti":10651,"ĠpraÄĹjus":10652,"ĠVald":10653,"ĠÅ¾aidÄĹjas":10654,"76":10655,"Ġvaivad":10656,"Å½mogus":10657,"Ġneteko":10658,"mei":10659,"Ġaugalai":10660,"ografija":10661,"ĠsiÅ³sti":10662,"Ġpatri":10663,"And":10664,"ĠSaulius":10665,"ĠNav":10666,"Ġpaskelbta":10667,"izmas":10668,"Ġneva":10669,"ĠsuaugusiÅ³jÅ³":10670,"Å¡kÄĹ":10671,"ĠuÅ¾tenka":10672,"ĠturÄĹjau":10673,"Ġilgi":10674,"ĠiÅ¡liko":10675,"ĠRem":10676,"Ġelek":10677,"edijos":10678,"ĠsugebÄĹjo":10679,"Ġkurioms":10680,"ĠsusitikimÄħ":10681,"Atsis":10682,"ĠmokslininkÅ³":10683,"ĠpadÄĹtÅ³":10684,"ĠareÅ¡":10685,"ÄįienÄĹ":10686,"Ġklimato":10687,"Ġimpl":10688,"Ġpasirodyti":10689,"ĠpasipuoÅ¡":10690,"audas":10691,"Ġpalaikymo":10692,"Ġpresti":10693,"aikos":10694,"Ġkomplektas":10695,"Ø§":10696,"yder":10697,"Ġsugeba":10698,"ĠgrieÅ¾tai":10699,"Ġmedik":10700,"Jiems":10701,"Ġkaras":10702,"Ġbesik":10703,"tienos":10704,"Ġseno":10705,"Ġcigar":10706,"ĠuÅ¾pild":10707,"ĠPap":10708,"Ġpapasakojo":10709,"ĠsovietÅ³":10710,"ĠiÅ¡leistas":10711,"Ġgud":10712,"ĠPardav":10713,"Ġreabili":10714,"ĠRum":10715,"taro":10716,"Ġdarbais":10717,"ĠvÄĹs":10718,"ĠÄ¯rank":10719,"ĠgalÄĹtumÄĹte":10720,"yte":10721,"mano":10722,"Ġpirmuosius":10723,"ĠkortelÄĹs":10724,"Ġatsisp":10725,"ĠalbumÄħ":10726,"ojaus":10727,"ĠÅ¡iuolaiki":10728,"ĠtreÄįiÄħ":10729,"Ġnupirk":10730,"ĠpriÅ¾iÅ«rÄĹti":10731,"Ġrungtyni":10732,"Ġlango":10733,"ĠsumuÅ¡":10734,"ĠAnglijos":10735,"kirp":10736,"ld":10737,"Ġnepaprastai":10738,"Ġfaktas":10739,"ĠÅ¾enk":10740,"Ġgydytojai":10741,"ausiomis":10742,"yklÄħ":10743,"Ġimperijos":10744,"ĠJu":10745,"smuo":10746,"SP":10747,"yvena":10748,"ĠHD":10749,"ĠIs":10750,"Ġpuslapio":10751,"Ġvisu":10752,"odavo":10753,"ĠramybÄĹs":10754,"ryÅ¾":10755,"Ġtamsiai":10756,"Ġdyk":10757,"Ġjuostos":10758,"ĠpatiekalÅ³":10759,"Ġtradicija":10760,"Ġdangaus":10761,"ĠÄħÅ¾uol":10762,"estin":10763,"Ġdovanos":10764,"etÄĻ":10765,"Ġlim":10766,"ĠMes":10767,"Ġaptarti":10768,"Ġjaunas":10769,"anka":10770,"Ġlizd":10771,"Ġpaskutinis":10772,"inkime":10773,"Ġakcija":10774,"Ġpagrindinio":10775,"ĠsenÅ³":10776,"ĠÅ¡ild":10777,"ĠÐ¿":10778,"ĠlÄĹ":10779,"ĠsmÅ«g":10780,"Ġbrolis":10781,"Ġprilyg":10782,"ĠdidÄĹja":10783,"Ġmanymu":10784,"niui":10785,"ĠÅ¡tab":10786,"Ġgrun":10787,"Ġpanor":10788,"Vieni":10789,"Ġteritor":10790,"Å«st":10791,"Ġnenu":10792,"Ġsurinko":10793,"ĠnugalÄĹjo":10794,"ĠpaminÄĹ":10795,"Ġrajonas":10796,"Ġtrum":10797,"Joje":10798,"ĠvieniÅ¡":10799,"vari":10800,"Ġsusijusios":10801,"ĠtechninÄĹs":10802,"ĠvertÄĹtÅ³":10803,"ĠlÄĹkÅ¡":10804,"ĠHar":10805,"ilija":10806,"biliz":10807,"ifik":10808,"Ġorganizme":10809,"ĠnacionalinÄĹs":10810,"pra":10811,"enai":10812,"ĠAir":10813,"Ġpapildomas":10814,"kab":10815,"imasis":10816,"MÄĹg":10817,"etes":10818,"Ġsutikti":10819,"Ġpup":10820,"Ġnekalb":10821,"Ġprofilak":10822,"Ġnutraukti":10823,"Ġaugti":10824,"ÅłiauliÅ³":10825,"Ġstebukl":10826,"tininkas":10827,"Ġalk":10828,"Ġtip":10829,"Ġadministracija":10830,"ĀĀĀĀĀĀĀĀĀĀĀĀĀĀĀĀĀĀĀĀĀĀĀĀĀĀĀĀĀĀĀĀ":10831,"ieriai":10832,"74":10833,"alizmo":10834,"ĠnatÅ«ralios":10835,"ĠmygtukÄħ":10836,"Ġantik":10837,"ĠypatingÄħ":10838,"Ġ56":10839,"ĠÅ¾urnal":10840,"fr":10841,"cinÄĹ":10842,"ĠelgesÄ¯":10843,"odama":10844,"Ġspaudai":10845,"Ġimpr":10846,"ĠlaukÄħ":10847,"Ġbyloje":10848,"MedÅ¾i":10849,"Ġpasirinko":10850,"ancijos":10851,"ĠvÄĹd":10852,"htt":10853,"urod":10854,"alg":10855,"varst":10856,"Ġnemokamas":10857,"Ġekspertai":10858,"ĠvarÅ¾ybas":10859,"kyr":10860,"son":10861,"ĠÄ¯monÄĻ":10862,"ĠtiktÅ³":10863,"Svetain":10864,"imasi":10865,"ĠvartÅ³":10866,"Ġreferend":10867,"ĠrizikÄħ":10868,"Ġsutink":10869,"Ġpraeities":10870,"Ġpasist":10871,"Ã³":10872,"Ġprodius":10873,"ĠiÅ¡orÄĹs":10874,"ĠPetras":10875,"kam":10876,"Ġnuotaika":10877,"Ġpriversti":10878,"ĠDav":10879,"ĠSeimas":10880,"orb":10881,"ĠtaÅ¡ko":10882,"try":10883,"Ġatliktas":10884,"Ġdieg":10885,"ĠÄ¯domiÅ³":10886,"Ġdvasia":10887,"Ġsutinka":10888,"ĠSib":10889,"ĠkontrolÄĹ":10890,"ĠpraÅ¡o":10891,"ĠmaÅ¾Äħ":10892,"Ġturinys":10893,"rÅ«s":10894,"Ġtikrus":10895,"ĠatsakomybÄĹ":10896,"Ġnaudingas":10897,"Ġvadinti":10898,"ĠiÅ¡klaus":10899,"Ġeter":10900,"IEN":10901,"Ġpaskelbti":10902,"ovams":10903,"torÄĹs":10904,"Ġatvirai":10905,"ito":10906,"ĠLaisvÄĹs":10907,"Ġketina":10908,"ock":10909,"Ġdukra":10910,"79":10911,"ĠpÄĹdsak":10912,"Ġkub":10913,"Ġsusie":10914,"ĠIsl":10915,"Ġventili":10916,"Ġtinkama":10917,"riz":10918,"Ġantras":10919,"Ġvartotojai":10920,"SM":10921,"Ġpavadinimu":10922,"ynus":10923,"Ġapgyvendinimo":10924,"BirÅ¾elio":10925,"gius":10926,"ĠsalÄĹ":10927,"Ġgerbi":10928,"ĠÄ¯veik":10929,"Ġklasi":10930,"laik":10931,"Ġoficial":10932,"insko":10933,"ekÄĹ":10934,"Ġpasitel":10935,"ELFI":10936,"ĠpÅ«s":10937,"ĠrÅ«muose":10938,"ĠSch":10939,"Ġtinklas":10940,"ymams":10941,"Ġdo":10942,"Ġskirtingai":10943,"ĠdÄĹvÄĹti":10944,"ĠkÅ«rinius":10945,"Ġnebes":10946,"fl":10947,"Ġgyvai":10948,"ĠJaun":10949,"ĠsusiÅ¾":10950,"Ġlaikotarpi":10951,"Ġapimtis":10952,"ĠkÅ«rÄĹ":10953,"Ġpusiaus":10954,"Ġsir":10955,"Rom":10956,"TV":10957,"Ġtaikomos":10958,"galv":10959,"burg":10960,"ogi":10961,".-":10962,"Ġgyvas":10963,"eminis":10964,"Ġgyvenimu":10965,"Bu":10966,"Ġnuotol":10967,"ĠStep":10968,"Ġvyresni":10969,"ĠlietuviÅ¡kai":10970,"ĠporeikÄ¯":10971,"emat":10972,"Ġ800":10973,"inav":10974,"Ġbaigiasi":10975,"59":10976,"Ġstiprinti":10977,"bÄĹs":10978,"tiniams":10979,"ciÅ¡k":10980,"Ġskal":10981,"Ġlyties":10982,"Ġdomina":10983,"idom":10984,"Ġsodybos":10985,"ĠGam":10986,"ĠÅ¾aizd":10987,"Ġkranto":10988,"ĠtÄĻsti":10989,"ĠprieÅ¾iÅ«rÄħ":10990,"ybinio":10991,"ĠkÅ«rÄĹjai":10992,"Ġpatvirtinti":10993,"ĠÄ¯dÄĹti":10994,"gu":10995,"ĠatskleidÄĹ":10996,"enkÄĹ":10997,"ĠgrÄ¯Å¾ta":10998,"ĠapÅ¾iÅ«rÄĹti":10999,"Ġorganizmas":11000,"Ġbaldus":11001,"ojasi":11002,"IMAS":11003,"Ġlovos":11004,"Ġnevyk":11005,"umer":11006,"Ġorganizavimo":11007,"Ġfizinio":11008,"ĠKaina":11009,"inanÄįios":11010,"Bus":11011,"yrank":11012,"Ġpriedai":11013,"Ġlaidos":11014,"glob":11015,"Ġpratur":11016,"Ġpagalvoti":11017,"Ġapkal":11018,"Nuol":11019,"NatÅ«r":11020,"ĠGud":11021,"Ġkonstat":11022,"ĠveÅ¾im":11023,"ĠJungtiniÅ³":11024,"ĠiÅ¡ver":11025,"ĠPab":11026,"ĠminutÄĻ":11027,"ĠpaskolÄħ":11028,"Ġmokosi":11029,"ĠiÅ¡eiti":11030,"nink":11031,"Rez":11032,"ĠgaliÄħ":11033,"Ġpatraukli":11034,"ĠpanaÅ¡Å«s":11035,"Ġtaikomi":11036,"ĠnustatÄĹ":11037,"Ġtiksliau":11038,"Ġatkak":11039,"Ġburnos":11040,"ĠJÄĹzus":11041,"indama":11042,"audamas":11043,"ĠOland":11044,"ĠÅ¾inom":11045,"Vasario":11046,"ĠSod":11047,"ĠiÅ¡gird":11048,"ĠkambariÅ³":11049,"Ġ52":11050,"ĠLazd":11051,"Ġsukuri":11052,"ĠÄ¯vykd":11053,"aist":11054,"Ġkuriant":11055,"orÄĹ":11056,"ĠuÅ¾klaus":11057,"Ġapskrityje":11058,"Ġnesil":11059,"ĠesmÄĹ":11060,"reng":11061,"Ġnuteis":11062,"ÄĹjusiÄħ":11063,"Ġnakties":11064,"Ġtok":11065,"roid":11066,"ĠÄ¯gali":11067,"ĠNo":11068,"ĠrÅ«pinasi":11069,"Internet":11070,"Ġkoreg":11071,"oru":11072,"ĠvitaminÅ³":11073,"ĠturÄĹtumÄĹte":11074,"brÄĹÅ¾":11075,"Ġvaldo":11076,"Tokios":11077,"ĠkÅ«rÄĹjÅ³":11078,"ĠÄ¯dÄĹ":11079,"BalandÅ¾io":11080,"Ġglaud":11081,"Ġapdirb":11082,"2005":11083,"ieÄįio":11084,"ingomis":11085,"Ġ49":11086,"Ġkeista":11087,"Ġfilme":11088,"Ġredag":11089,"2004":11090,"ĠstruktÅ«ra":11091,"ĠdangÅ³":11092,"liukai":11093,"ĠmiÅ¡ke":11094,"interes":11095,"aiÅ¡kos":11096,"ĠÄ¯monÄĹje":11097,"Ġkoali":11098,"Ġgausite":11099,"Ġinformuoti":11100,"anus":11101,"Ġ(,":11102,"ĠpaÄįiais":11103,"ĠÄĮeki":11104,"Vol":11105,"Ġlyt":11106,"Ġkaralius":11107,"Ġmg":11108,"ĠsusidÅ«r":11109,"tuoju":11110,"Ã¤":11111,"ĠgatvÄĹ":11112,"Ġkapitalo":11113,"andÄ¯":11114,"Ġpenkis":11115,"ĠiÅ¡vis":11116,"Ġdantis":11117,"meninÄĹs":11118,"ĠdokumentÄħ":11119,"ĠaliejÅ³":11120,"Ġnumatyti":11121,"elsiant":11122,"ĠsvarbiÅ³":11123,"Ġbeg":11124,"Pasaul":11125,"ĠsÄħj":11126,"Ġlangus":11127,"Ġkaraliaus":11128,"ĠreikiamÄħ":11129,"Ġdainas":11130,"ĠpraneÅ¡ti":11131,"Nr":11132,"ï¿½ï¿½ï¿½":11133,"VirÅ¡":11134,"ĠprofesinÄĹs":11135,"ĠatskleidÅ¾ia":11136,"rip":11137,"ĠAnykÅ¡ÄįiÅ³":11138,"mer":11139,"Ġfunkcion":11140,"riausiai":11141,"Vytau":11142,"Lyg":11143,"Ġomen":11144,"Ġinvestuoti":11145,"Ġkodekso":11146,"ĠPad":11147,"Ġatkeli":11148,"ĠnorimÄħ":11149,"Ġ1998":11150,"audÅ¾ia":11151,"ĠKazimie":11152,"ĠpakuotÄĹs":11153,"ĠnorÄĹjau":11154,"ĠtemÄħ":11155,"ĠÅ¾enklai":11156,"Ġkariai":11157,"Ġbranduol":11158,"eiviams":11159,"ĠtaptÅ³":11160,"Pirmoji":11161,"Ġrenginyje":11162,"Ġgelton":11163,"ĠiÅ¡sir":11164,"ĠSte":11165,"Ġgyvens":11166,"ĠpirmininkÄĹ":11167,"ĠesantÄ¯":11168,"ĠpradÅ¾iÄħ":11169,"Ġsusitiko":11170,"Ġneleg":11171,"Ġolimpi":11172,"ĠÅ¾uvÅ³":11173,"ĠÄ¯sigij":11174,"gÅ³":11175,"ĠbÅ«dus":11176,"ĠdÄĹti":11177,"Ä¯Å¡":11178,"Ġvertybes":11179,"ciklop":11180,"ĠbÄĹgi":11181,"Eksp":11182,"ĠIgnal":11183,"Netrukus":11184,"Tiki":11185,"ĠiÅ¡vyko":11186,"Nacional":11187,"ĠmenÅ³":11188,"ĠtelefonÅ³":11189,"Ġgiminai":11190,"eksas":11191,"Ġsusigr":11192,"IÅ¡matavimai":11193,"ĠÅ¾ir":11194,"Ġmodeliai":11195,"lioti":11196,"kim":11197,"Ġbali":11198,"Ġmenas":11199,"tona":11200,"Ġvartotojo":11201,"iosios":11202,"Ġlemp":11203,"ĠpavardÄĹ":11204,"UÅ¾s":11205,"Ġfondas":11206,"Ġportr":11207,"56":11208,"ĠligoninÄĹje":11209,"ĠdraudÅ¾iama":11210,"ĠkvÄĹpavimo":11211,"Ġprisimena":11212,"kiÅ¡":11213,"Ġkurso":11214,"atorÄĹ":11215,"Ġatkurti":11216,"ĠiÅ¡maiÅ¡":11217,"Ġdepartamentas":11218,"ĠSant":11219,"Å«ras":11220,"ula":11221,"Ġrinkti":11222,"inui":11223,"Ġsusidaro":11224,"ĠÅ¾uvies":11225,"adÄħ":11226,"ytum":11227,"Draug":11228,"ĠnuorodÄħ":11229,"ĠÅ¾arn":11230,"ĠpaskolÅ³":11231,"ValstybÄĹs":11232,"ĠMag":11233,"tabu":11234,"ance":11235,"ĠdaugybÄĹs":11236,"ĠmaÅ¾ÄĹja":11237,"iurli":11238,"gyvend":11239,"ĠelektroninÄĹs":11240,"ĠpavojÅ³":11241,"ojÅ³":11242,"ĠÄ¯rankiai":11243,"tinÄĹms":11244,"Ġatskirti":11245,"ĠtekstÄħ":11246,"ĠPaulius":11247,"klas":11248,"ĠOn":11249,"ĠÅ¡iomis":11250,"ĠÄ¯rankiÅ³":11251,"ĠKonstitucijos":11252,"ankÅ¡":11253,"nias":11254,"ĠkokybiÅ¡kai":11255,"ĠÄ¯sitikinÄĻs":11256,"Sh":11257,"ĠvÄĹliav":11258,"ĠÅ¡ved":11259,"Ġkuror":11260,"ĠLondone":11261,"ĠparaÅ¡yta":11262,"San":11263,"ĠkraÅ¡tÄħ":11264,"ankos":11265,"Ġkursai":11266,"âĢĻ,":11267,"Ġprimen":11268,"Ġpatiksl":11269,"ĠnepriekaiÅ¡":11270,"ĠprocedÅ«ra":11271,"Ġklinik":11272,"ĠgalÄĹÄįiau":11273,"Ġlietuvis":11274,"ĠSlov":11275,"olÅ¡":11276,"ĠproduktÄħ":11277,"ribu":11278,"Ġambi":11279,"ĠÄ¯statymus":11280,"ĠpolitikÅ³":11281,"Ġreikalingos":11282,"atui":11283,"Å¡os":11284,"Saug":11285,"AtsiÅ¾vel":11286,"Ġsenas":11287,"Ġnuotaikos":11288,"Ġatsikratyti":11289,"\").":11290,"otÄħ":11291,"ĠÅłvenÄįi":11292,"cl":11293,"ĠiÅ¡sik":11294,"Ġpasidom":11295,"ĠkoncertÅ³":11296,"ĠsienÄħ":11297,"Ġsusirinko":11298,"Ġiniciatyvos":11299,"KiekvienÄħ":11300,"ingoje":11301,"IU":11302,"Ġgreitas":11303,"elas":11304,"ĠLink":11305,"Ġpaskirst":11306,"Baig":11307,"ert":11308,"Ġpasto":11309,"ĠGruz":11310,"ĠnatÅ«ralus":11311,"Ġpietvakar":11312,"Ġsirg":11313,"Ġbaltos":11314,"ĠpalÅ«kanÅ³":11315,"oso":11316,"ĠleidÅ¾iama":11317,"inÄįios":11318,"Ġateis":11319,"otels":11320,"ĠtrumpÄħ":11321,"ĠekspertÅ³":11322,"Ġtiktai":11323,"evo":11324,"Ġteisingumo":11325,"ĠKunig":11326,"Ġgaila":11327,"ĠmaÅ¾ina":11328,"ĠkeiÄįia":11329,"VisiÅ¡kai":11330,"ĠVarÄĹn":11331,"Ñĩ":11332,"Ġkosmetikos":11333,"fek":11334,"53":11335,"ĠnervÅ³":11336,"ĠSveikatos":11337,"oll":11338,"autobus":11339,"angomis":11340,"Ġatliekant":11341,"Ġnepral":11342,"apusi":11343,"etiniÅ³":11344,"ĠorganÅ³":11345,"äº":11346,"ĠprocesÅ³":11347,"ĠOb":11348,"ĠMor":11349,"ĠÄ¯veikÄĹ":11350,"Ġfron":11351,"Ġges":11352,"Pet":11353,"pin":11354,"ĠÅ¾vaigÅ¾dÄĹs":11355,"Äįiusi":11356,"Ġtransform":11357,"amumo":11358,"ĠÄ¯galio":11359,"ĠvyriausybÄĹ":11360,"ĠKu":11361,"ĠÄ¯sivaizduoti":11362,"Ġpatiria":11363,"Ġporeikis":11364,"uotes":11365,"ĠaikÅ¡telÄĹje":11366,"Ġpirmos":11367,"ĠbylÄħ":11368,"Ġtiesos":11369,"eriui":11370,"Ġroko":11371,"ĠMarija":11372,"Ġvadovaujantis":11373,"Å¡Äħ":11374,"ĠlÄĹtai":11375,"ovui":11376,"ĠlÄĹmÄĹ":11377,"roÅ¾":11378,"Ġpalink":11379,"ĠpusiÅ³":11380,"Ameri":11381,"tikrinti":11382,"ĠÅ¡ilta":11383,"Le":11384,"Ġpataria":11385,"54":11386,"ĠKomisija":11387,"72":11388,"ĠÄ¯vairiuose":11389,"ĠÄ¯vyks":11390,"ĠAdom":11391,"bÅ«tÅ³":11392,"FA":11393,"Ġneform":11394,"ĠpasitikÄĹjimÄħ":11395,"ĠiÅ¡mat":11396,"ĠÄ¯vaizdÅ¾i":11397,"ĠXVI":11398,"Pristat":11399,"ĠpilieÄįiai":11400,"ĠinfrastruktÅ«ros":11401,"Ġdidesnio":11402,"Ġaugo":11403,"Ġmiestelyje":11404,"ĠbalsÅ³":11405,"Ġperkelti":11406,"Ġsavyje":11407,"epi":11408,"ĠAzijos":11409,"Ġimun":11410,"celi":11411,"ĠapraÅ¡ymas":11412,"ĠkilÄĻs":11413,"PrancÅ«z":11414,"ĠpaprasÄįi":11415,"Ġpolic":11416,"Ġoperatyv":11417,"ĠpartijÅ³":11418,"Ġatspindi":11419,"Ġsuteikta":11420,"ĠÅ¾ar":11421,"ĠplÄĹtra":11422,"Esant":11423,"ida":11424,"ĠpraÄĹjusiÅ³":11425,"Å³jÄ¯":11426,"ĠbendradarbiavimÄħ":11427,"Ġsimbolis":11428,"Ġmetodas":11429,"%,":11430,"Nieko":11431,"ĠsritÄ¯":11432,"eipia":11433,"PK":11434,"Ġvairuotojai":11435,"eralÅ³":11436,"Bl":11437,"ĠÄ¯domi":11438,"Ġjuodos":11439,"ĠiÅ¡gyventi":11440,"Ġdulk":11441,"ĠplokÅ¡tÄĹs":11442,"Ġnaujienos":11443,"Ġdraugus":11444,"ieÄįius":11445,"Ġsupirk":11446,"Ġdok":11447,"Ġtaikos":11448,"ĠVyriausybÄĹ":11449,"Ġiliustr":11450,"??":11451,"ĠVokietija":11452,"ĠgraikÅ³":11453,"ĠstatybÅ³":11454,"Ġrytoj":11455,"2003":11456,"Ġstandartus":11457,"ĠsalÄĹs":11458,"Ġnekal":11459,"ĠekonominÄĹs":11460,"anijoje":11461,"ĠÅ¡vieÅ¾i":11462,"Ġinovatyv":11463,"Ġtrunka":11464,"Ġapa":11465,"Ġrinka":11466,"iÅ¡kumas":11467,"Ġbuvusio":11468,"ĠgÄĹrimÅ³":11469,"aujantys":11470,"Ġly":11471,"ĠRadvili":11472,"ĠkokybiÅ¡kas":11473,"Ġpeties":11474,"Ġdaiktai":11475,"piÅ³":11476,"ekas":11477,"ĠpaÅ¾angi":11478,"ĠurÄĹd":11479,"Ġstimuli":11480,"atur":11481,"Ġpakanka":11482,"Ġvandeniui":11483,"ĠiÅ¡kel":11484,"ortugal":11485,"Ġnedelsiant":11486,"Ġ180":11487,"ĠÄįesn":11488,"Ġpasij":11489,"akalb":11490,"ĠprieÅ¾astys":11491,"Ġfolkl":11492,"Å«nus":11493,"Ġbaudos":11494,"Straip":11495,"Ġmagnet":11496,"ĠBos":11497,"Ġprofesinio":11498,"Ġstoties":11499,"Ġapibendr":11500,"Ä®domu":11501,"Ġnegalime":11502,"ĠlietuviÅ¡kÅ³":11503,"ytei":11504,"ĠpaprastÄħ":11505,"ĠGri":11506,"ãĤ¢ãĤ¢ãĤ¢ãĤ¢ãĤ¢ãĤ¢ãĤ¢ãĤ¢":11507,"ĠtÅ«kstanÄįius":11508,"sko":11509,"ÄĹtus":11510,"ĠvietiniÅ³":11511,"Ġopozi":11512,"ĠLondono":11513,"ĠpeÄįiÅ³":11514,"ĠÄ¯n":11515,"Ġsustabdyti":11516,"Moter":11517,"ĠklasÄĹje":11518,"62":11519,"ĠJuli":11520,"emti":11521,"DÅ¾iaugi":11522,"ĠparengÄĹ":11523,"Ġatliekama":11524,"ĠkaÅ¾kada":11525,"ade":11526,"Ġprocese":11527,"Ġrodyti":11528,"ĠiÅ¡vaizda":11529,"yna":11530,"ĠÅ¾ibin":11531,"Ġintrig":11532,"ĠKÄĻstutis":11533,"IG":11534,"Ġlemi":11535,"ĠpaÅ¾iÅ«rÄĹti":11536,"Ġpateis":11537,"our":11538,"ĠapylinkÄĹse":11539,"Ġdirektyv":11540,"ĠBern":11541,"Ġlietuviams":11542,"Ġpilvo":11543,"Ġ1995":11544,"intai":11545,"Ġbuto":11546,"vaj":11547,"Ġpasiekia":11548,"ĠIzraelio":11549,"aminimo":11550,"ct":11551,"Ġikimok":11552,"Nug":11553,"Ġklube":11554,"ĠuÅ¾pildyti":11555,"ĠkrikÅ¡":11556,"ever":11557,"Speci":11558,"Ġkilti":11559,"Ġ1992":11560,"Ġliks":11561,"ĠnebÅ«tinai":11562,"ĠDvasi":11563,"ĠGi":11564,"Ġsusib":11565,"Ġ1997":11566,"Ġgausiai":11567,"Ġkursus":11568,"rijÅ³":11569,"Ġdaroma":11570,"ype":11571,"aka":11572,"takul":11573,"maiÅ¡":11574,"ĠparodÄħ":11575,"mantas":11576,"Ġmasyv":11577,"gita":11578,"ĠpagrindÄħ":11579,"Pvz":11580,"ĠÅ¡imtme":11581,"ĠspinduliÅ³":11582,"ĠBNS":11583,"Manoma":11584,"ĠmarÅ¡kinÄĹliai":11585,"Ġrai":11586,"ĠreÄįiau":11587,"Ġtvirtai":11588,"Ġkurjer":11589,"Äįiam":11590,"ĠkitokiÅ³":11591,"Ġsituacijoje":11592,"ĠdulkiÅ³":11593,"Å¾d":11594,"mobil":11595,"ĠvariantÄħ":11596,"Ġrenginiuose":11597,"Ġpasirinkite":11598,"Ġpapildomos":11599,"Ġpriekab":11600,"aisti":11601,"Ġpaversti":11602,"Vyk":11603,"ĠverÄįia":11604,"LA":11605,"Ġkeliai":11606,"matÅ³":11607,"ĠskelbimÅ³":11608,"ĠÅ¾aidÅ¾ia":11609,"Ġformas":11610,"Ġgausa":11611,"Dvi":11612,"Ġprincip":11613,"Ġpremijos":11614,"Ġsantykis":11615,"ĠgydytojÄħ":11616,"DÄĹk":11617,"ĠpadangÅ³":11618,"Ġorganizmui":11619,"Ġneskub":11620,"ĠlÄĹÅ¡os":11621,"Ġbendrijos":11622,"ilÄĹs":11623,"ĠkvapÄħ":11624,"Ġpakop":11625,"Ġmeile":11626,"Ġpasiimti":11627,"ĠvairuotojÅ³":11628,"omojo":11629,"ĠEuropÄħ":11630,"ĠprasmÄĻ":11631,"ĠIm":11632,"ĠvalstybÄĹje":11633,"Ġbak":11634,"ĠnatÅ«raliÅ³":11635,"Ġgamybai":11636,"Ġga":11637,"egorijos":11638,"ĠiÅ¡trauk":11639,"ĠdidÅ¾iulis":11640,"ĠÄ¯tampos":11641,"ĠnumerÄ¯":11642,"Ġsuteikiama":11643,"Ġ59":11644,"ĠPrÅ«s":11645,"ĠsutrikimÅ³":11646,"ĠGoogle":11647,"Å«sta":11648,"nia":11649,"Ġreikalas":11650,"ĠautorÄĹ":11651,"ĠpadÄĹties":11652,"Ġspektr":11653,"Ġatlikta":11654,"Ġleidimo":11655,"ĠVen":11656,"Lenki":11657,"ĠaikÅ¡telÄĹs":11658,"ĠtinklaraÅ¡":11659,"Ġlanky":11660,"Ġekstrem":11661,"ĠiÅ¡pr":11662,"Ġteksti":11663,"ĠÄ¯gijo":11664,"ĠRaÅ¡":11665,"Ġnoro":11666,"nelÄĹ":11667,"Ġpalap":11668,"Ġrytuose":11669,"ĠpergalÄĹs":11670,"ĠpavyzdÅ¾iÅ³":11671,"Ġfotoapar":11672,"Ġpilies":11673,"Ġnedidelis":11674,"Ġdiab":11675,"ĠLenkija":11676,"ĠÅ¡ilumÄħ":11677,"Ġfilmai":11678,"Ġnepaj":11679,"Ġatsisveik":11680,"vius":11681,"ĠlangÄħ":11682,"57":11683,"ĠsusirÅ«p":11684,"Ġpavadinimo":11685,"Ġnesin":11686,"yste":11687,"pÄĹ":11688,"Ġvadybos":11689,"ĠatskirÅ³":11690,"'s":11691,"ĠAndri":11692,"ĠÄĹmÄĹsi":11693,"ĠaukÅ¡ta":11694,"ĠParlamento":11695,"Ġnepriklausomai":11696,"Ġparos":11697,"Ġkib":11698,"ymasis":11699,"ĠÅ¡ali":11700,"ĠÄįempionatas":11701,"Ġdez":11702,"Ġstend":11703,"Ġniekad":11704,"ĠkompiuterÄ¯":11705,"Ġpastatai":11706,"ĠbankÅ³":11707,"ĠXIII":11708,"Ġprot":11709,"Ġdiskr":11710,"etur":11711,"Ġkairi":11712,"ĠÅ¡iukÅ¡liÅ³":11713,"ĠÅ¾iniomis":11714,"ĠTautÅ³":11715,"Ġstu":11716,"Ġteigti":11717,"Ġdirig":11718,"Ġcharakteri":11719,"Ġelgesys":11720,"Ġteatr":11721,"Ġbendrai":11722,"ĠaugimÄħ":11723,"Ġsavijau":11724,"yderland":11725,"ÄĹno":11726,"ĠÄ¯temp":11727,"Ġmokslas":11728,"Ġprapl":11729,"Ġnusivyl":11730,"Ġnesig":11731,"stan":11732,"Ġhigienos":11733,"Ġtraukia":11734,"52":11735,"âĢľ:":11736,"Ġsakr":11737,"à¤":11738,"Ġasfal":11739,"ĠabejoniÅ³":11740,"ela":11741,"ĠDievÄħ":11742,"Ġpaimti":11743,"Ġaliuminio":11744,"ĠaikÅ¡telÄĹ":11745,"rÄ¯Å¾":11746,"Ġeste":11747,"Ġreikalus":11748,"vyst":11749,"ĠmaÅ¡in":11750,"ire":11751,"Ġentuzias":11752,"VA":11753,"Ġauginti":11754,"TAS":11755,"ĠmaÅ¡inÅ³":11756,"IJOS":11757,"Ġskaito":11758,"ĠÅ¡iose":11759,"ĠatsakymÄħ":11760,"Sum":11761,"ĠÅ¡imtus":11762,"olÅ³":11763,"ĠkrikÅ¡ÄįioniÅ³":11764,"kiÄħ":11765,"ĠnaudojimÄħ":11766,"Ġmam":11767,"Ġantrasis":11768,"Ġkvapas":11769,"Å½mon":11770,"Åłiuolaik":11771,"Ġtalen":11772,"AuÅ¡":11773,"ĠKrem":11774,"dÅ¾iui":11775,"XV":11776,"ientas":11777,"ĠdeÅ¡imtmeÄįio":11778,"Ġteikiama":11779,"Ġkeliauja":11780,"Ġaer":11781,"telkti":11782,"ĠuÅ¾siim":11783,"Ġrezid":11784,"700":11785,"ĠÄ¯vykiai":11786,"rito":11787,"Ġmatau":11788,"ybinis":11789,"tasi":11790,"Ġnaudingi":11791,"ĠprieÅ¡ais":11792,"ĠmÄĹgÄĹjÅ³":11793,"Ð¹":11794,"iss":11795,"auro":11796,"ky":11797,"Ġpusan":11798,"orid":11799,"Ġkiaul":11800,"ojantis":11801,"ĠstovÄĹjimo":11802,"Ġ1996":11803,"ĠBron":11804,"Ġvitamino":11805,"ĠÄ¯p":11806,"ĠvyrÄħ":11807,"ĠsunkveÅ¾im":11808,"Ġduj":11809,"VaikÅ³":11810,"ĠpriminÄĹ":11811,"Ġbenz":11812,"Ġkart":11813,"nep":11814,"Ġdreb":11815,"Reg":11816,"Ġvib":11817,"Ġsezonas":11818,"Ġpaskelbtas":11819,"Ġkeitimas":11820,"ĠiÅ¡lyg":11821,"ĠRokiÅ¡kio":11822,"Ex":11823,"Ġmodifik":11824,"otai":11825,"Ġpaveld":11826,"Ġnepapras":11827,"ĠTais":11828,"Ġhidro":11829,"Ġetikos":11830,"Ġemocijas":11831,"Ġdarbuotojus":11832,"ÄĹjusio":11833,"Bar":11834,"Ġpasien":11835,"Ġmaistu":11836,"vat":11837,"inÄĹjimas":11838,"anÄįiose":11839,"ĠrungtynÄĹs":11840,"Ġsidabro":11841,"Ġsala":11842,"Ġ{":11843,"ÄĻÅ¡":11844,"tiÅ¡kos":11845,"Ġvyriausiasis":11846,"ĠÅ¾mogiÅ¡k":11847,"galiÅ³":11848,"tru":11849,"ojusi":11850,"ĠBag":11851,"ĠaudiniÅ³":11852,"ĠIl":11853,"ĠRoÅ¾":11854,"Ġsekti":11855,"ĠPrienÅ³":11856,"ĠlaivÅ³":11857,"ĠBasan":11858,"ĠsudÄĹtis":11859,"ĠÅłis":11860,"Ġnustatymo":11861,"Eg":11862,"LR":11863,"ĠsusimÄħ":11864,"Ġpamokos":11865,"ĠbÄĹgant":11866,"Ġvaz":11867,"Ġpob":11868,"aujanti":11869,"ĠdainÄħ":11870,"ĠbÅ«rys":11871,"Ġnepris":11872,"ĠpasitikÄĹjimo":11873,"Ġ54":11874,"ĠnepriklausomybÄĻ":11875,"Ġnere":11876,"ĠklubÅ³":11877,"ater":11878,"Ġpraleid":11879,"Ġilgam":11880,"ĠlietuviÅ¡kos":11881,"Ġsavininkai":11882,"Ġalbumo":11883,"dik":11884,"ĠuÅ¾tr":11885,"Ġdvigubai":11886,"ĠpatikÄĹti":11887,"ĠÅ¾vaigÅ¾dÅ¾iÅ³":11888,"uomenÅ³":11889,"ĠarchitektÅ«r":11890,"teli":11891,"Ġdemokrat":11892,"Ġkitame":11893,"ĠmaÅ¾esnÄĹ":11894,"Ġlenki":11895,"Å«tÄĹ":11896,"Ġekipa":11897,"Veik":11898,"amÅ¾iÅ³":11899,"ĠrÅ«Å¡ys":11900,"angai":11901,"ÄĹjime":11902,"ĠiÅ¡sin":11903,"ĠapÅ¡il":11904,"ĠpalaidinÄĹ":11905,"Ġveltui":11906,"SA":11907,"Ypat":11908,"dal":11909,"Ġugdyti":11910,"ĠSaulÄĹs":11911,"ytojui":11912,"Ġrezultatu":11913,"Ġsurengti":11914,"ĠNemuno":11915,"Ġgeneralinis":11916,"Å«si":11917,"Ġanali":11918,"Ġgalimai":11919,"Siun":11920,"lie":11921,"aliam":11922,"okÅ³":11923,"%.":11924,"Ġpasibaigus":11925,"esas":11926,"ĠÄ¯rodyti":11927,"kst":11928,"ĠÅłvÄį":11929,"ĠmasaÅ¾":11930,"ĠapÅ¾vel":11931,"ĠstruktÅ«ros":11932,"Ġbakal":11933,"ĠsiuÅ¾":11934,"ĠvirtuvÄĹ":11935,"ĠdarÄĹ":11936,"Ġpavojus":11937,"ĠVelyk":11938,"Ġvizu":11939,"73":11940,"Ġfilmus":11941,"Turiu":11942,"Ġsuinteres":11943,"teliu":11944,"ĠÄ¯trauki":11945,"ĠÅ¾vilgsnio":11946,"Ġsubalans":11947,"ĠÅ¡lai":11948,"ĠFl":11949,"uke":11950,"Ġatras":11951,"ĠWil":11952,"Ġlabdar":11953,"Ġlek":11954,"ĠnuostatÅ³":11955,"alinÄĹ":11956,"ĠupÄĹ":11957,"esta":11958,"dÅ¾iau":11959,"ĠTu":11960,"ĠpaskutinÄĹs":11961,"Ġisl":11962,"ĠesanÄįio":11963,"ĠaukÅ¡tai":11964,"Ġsaloje":11965,"Ġjaunimui":11966,"ony":11967,"Ġnedr":11968,"Ġgamintojas":11969,"Ġpastangas":11970,"Ġsukeli":11971,"aidÄĹ":11972,"engiant":11973,"istiniÅ³":11974,"ĠatstovÄĹ":11975,"tiki":11976,"ĠpaÅ¾in":11977,"ĠMa":11978,"ĠnagÅ³":11979,"Å«naitÄĹ":11980,"auju":11981,"Ġpasauliui":11982,"Ġsfer":11983,"ĠÅ¡ans":11984,"Å¾uv":11985,"Ġkamera":11986,"Ġmontavimas":11987,"ĠpaÅ¾ymÄĹti":11988,"Ġschem":11989,"Ġsmegen":11990,"ĠUN":11991,"Ġsluoksnis":11992,"Ġstorio":11993,"ĠRadvil":11994,"sÄĹj":11995,"Ġpabaiga":11996,"idai":11997,"Ġsarg":11998,"Ġpilis":11999,"ĠÅ¾urnalo":12000,"rop":12001,"Ġmelod":12002,"Ġtest":12003,"dÅ¾ios":12004,"ĠvaiÅ¡":12005,"Ġgeograf":12006,"Ġtriko":12007,"rganiz":12008,"Ġintelektu":12009,"Ġnevar":12010,"Ġpalieka":12011,"Ġdalyvius":12012,"ĠgyvÅ«nai":12013,"ĠtrÄħ":12014,"Ġstambi":12015,"Ġenciklop":12016,"ĠbÅ«dai":12017,"Dis":12018,"Mon":12019,"ĠpaÅ¡tas":12020,"Ġnelyg":12021,"Ġjauna":12022,"ĠdeÅ¡imtmeÄįius":12023,"ĠJungtinÄĹs":12024,"Skelb":12025,"Ġpagaminta":12026,"Ġsusitvark":12027,"Hotels":12028,"Ġlyga":12029,"lyje":12030,"rom":12031,"ĠeÅ¾eras":12032,"Ġpatiri":12033,"que":12034,"Ġbaj":12035,"ĠÅ¡itÄħ":12036,"Ġtarptautinio":12037,"ĠdidesniÅ³":12038,"osp":12039,"Ġatvejus":12040,"ÄĹgiÅ³":12041,"akius":12042,"ĠmergaitÄĹs":12043,"Ġobjekto":12044,"Er":12045,"ĠVir":12046,"ĠkunigÅ³":12047,"Ġkoncentr":12048,"Ġdrama":12049,"Ġpartneriai":12050,"stravo":12051,"Ġbaid":12052,"ĠRes":12053,"ĠÄ¯sigali":12054,"Ġbendradarbiauti":12055,"ĠloÅ¡":12056,"Ġbilietus":12057,"eÅ¡i":12058,"ĠVirgin":12059,"ĠTom":12060,"toriui":12061,"uojamo":12062,"kirsti":12063,"ĠiÅ¡raÅ¡":12064,"Ġapsisprend":12065,"inkitÄĹs":12066,"ĠBrius":12067,"ĠkraujagysliÅ³":12068,"aris":12069,"Ġlikus":12070,"gin":12071,"ju":12072,"tyniÅ³":12073,"Ġstudijuoti":12074,"ĠmakiaÅ¾o":12075,"Ġnorintiems":12076,"Ġlogoti":12077,"Ġatom":12078,"Ġslop":12079,"Ġkojas":12080,"ĠÄ¯renginiai":12081,"Ġnuotraukoje":12082,"ĠparduotuvÄĻ":12083,"Ġzonoje":12084,"ĠjaunÅ³jÅ³":12085,"Ġfotos":12086,"ĠidÄĹj":12087,"Ġprisik":12088,"ĠDievui":12089,"Facebook":12090,"ĠneÄ¯gal":12091,"ĠaplinkiniÅ³":12092,"Ġsulaukti":12093,"ĠuÅ¾duoti":12094,"Ġskirtingos":12095,"ĠakivaizdÅ¾iai":12096,"Ġsveikat":12097,"ĠatsiÅ¾velgti":12098,"Ġgalvoja":12099,"onomis":12100,"ĠEv":12101,"Ġginti":12102,"Ġgarsus":12103,"ĠSand":12104,"ĠfinansinÄĹs":12105,"ĠKaiÅ¡iad":12106,"Ġ110":12107,"Ġdera":12108,"atuir":12109,"Ġkonkret":12110,"Ġmalonu":12111,"Ġtarptautinis":12112,"PlaÄįiau":12113,"Ġaktual":12114,"Ġsuprantu":12115,"ĠreikÅ¡mÄĹ":12116,"utÄĹje":12117,"Ġvykdoma":12118,"ĠdrabuÅ¾":12119,"Ġkomisariato":12120,"Kalbant":12121,"ĠPau":12122,"Ġteise":12123,"ĠiÅ¡silavinimÄħ":12124,"Labiausiai":12125,"ĠkrÅ«tinÄĹs":12126,"ĠsveikÄħ":12127,"ĠBab":12128,"insiu":12129,"Ġnamams":12130,"Ġsmulki":12131,"Ġneturiu":12132,"Ġneutr":12133,"Ġpamokas":12134,"Prasid":12135,"Ġdoc":12136,"ĠdaÅ¾ai":12137,"ĠstriukÄĹs":12138,"ĠtinklÄħ":12139,"ĠNew":12140,"liumi":12141,"Ġpavien":12142,"Ġbendros":12143,"ĠaukÅ¡tyn":12144,"oth":12145,"antÄĹ":12146,"Ġnesunkiai":12147,"kaito":12148,"ĠveiksniÅ³":12149,"ĠprocedÅ«rÅ³":12150,"ĠpelÄĹs":12151,"ĠtreniruotÄĹs":12152,"ĠSab":12153,"kap":12154,"ĠÅ¡ilum":12155,"PagrindinÄĹ":12156,"ĠsumaÅ¾ina":12157,"ĠBirÅ¾Å³":12158,"Ġvairo":12159,"ĠslÄĹn":12160,"Ġatiteko":12161,"trus":12162,"Atvyk":12163,"ĠlaikÄĹ":12164,"Ġaktuali":12165,"ĠÄ¯raÅ¡as":12166,"Ġnutol":12167,"89":12168,"fos":12169,"Ġstatyba":12170,"ĠpamuÅ¡":12171,"Ġ\\":12172,"Lauk":12173,"Ġpareikal":12174,"ĠValstybinÄĹs":12175,"ĠmoterÄ¯":12176,"\":\"":12177,"Min":12178,"Ġdeguo":12179,"Ġkolektyvas":12180,"ĠPanevÄĹÅ¾yje":12181,"ĠAur":12182,"Ġadap":12183,"Ã¶":12184,"ÑĢÐ°":12185,"ĠprofesionalÅ³":12186,"Centr":12187,"ĠLiud":12188,"ide":12189,"Ġmokyklas":12190,"ĠuÅ¾siimti":12191,"ĠakÄ¯":12192,"Å½iem":12193,"ĠbÅ«site":12194,"Ġkomplik":12195,"Ã¼":12196,"Ð¾Ð²":12197,"ĠUniver":12198,"Ġgimnazija":12199,"Ġsusisiekti":12200,"NeÅ¾inau":12201,"ĠprekÄĹ":12202,"hol":12203,"Nel":12204,"ĠVidur":12205,"ĠskaitÄĹ":12206,"ĠiÅ¡vaizdÄħ":12207,"ojos":12208,"Ġstak":12209,"ĠgÄĹlÄĹs":12210,"eiÅ¡kÄĹ":12211,"Ġpakviesti":12212,"akartoj":12213,"Ġbalsas":12214,"Ġbut":12215,"ĠMerk":12216,"Ġatsiskait":12217,"Ġuniversitet":12218,"Ġapgalv":12219,"ĠÅ¾vaigÅ¾dÄĹ":12220,"Tikriausiai":12221,"ĠstovÄĹjo":12222,"Pasirodo":12223,"Ġtelefonas":12224,"uomo":12225,"Ġsag":12226,"ĠkW":12227,"inamÄħ":12228,"Ġmand":12229,"ÄĹkime":12230,"Ġteka":12231,"Ġkainomis":12232,"Ġvalios":12233,"ĠuÅ¾rak":12234,"ĠÅ¾iau":12235,"ĠlaidÅ³":12236,"mies":12237,"Ġmoderniz":12238,"Ġnariais":12239,"ĠJonavos":12240,"Niekas":12241,"tiesiog":12242,"Ġfini":12243,"my":12244,"Neseniai":12245,"Ġvaizdai":12246,"ĠpraneÅ¡imas":12247,"ise":12248,"Ġpopuliarus":12249,"ĠpatogÅ«s":12250,"Ġsuaugusiems":12251,"Sup":12252,"Ġpageidauj":12253,"Ġmoksleiviai":12254,"Pernai":12255,"Ġsekso":12256,"Ġsutvarkyti":12257,"esiai":12258,"ingumu":12259,"ĠprotÄĹ":12260,"ĠnereikÄĹs":12261,"ĠAli":12262,"ulo":12263,"IÅ¡k":12264,"Ġnuostatas":12265,"Ġmokymai":12266,"Ġbateliai":12267,"Renginio":12268,"ĠdidÅ¾iÅ³jÅ³":12269,"Ġpacientams":12270,"Ġvyru":12271,"ĠprasmÄĹs":12272,"Ġspecifik":12273,"ĠJÅ«r":12274,"ĠÄ¯kal":12275,"61":12276,"odas":12277,"ĠÅ¾iniasklaid":12278,"ĠÄ¯gal":12279,"ĠvalstybÄĹse":12280,"Ġklientas":12281,"Vilniuje":12282,"Ġpertraukos":12283,"ĠtechnikÄħ":12284,"ĠtÄĹra":12285,"ĠÅ¾inomÅ³":12286,"Liepos":12287,"ley":12288,"ultÅ«r":12289,"stis":12290,"ĠtarnybÄħ":12291,"ĠgirdÄĹti":12292,"EP":12293,"Tiks":12294,"ĠantrÄħjÄħ":12295,"Nemok":12296,"Ġvertik":12297,"Ġatsargiai":12298,"ĠbilietÅ³":12299,"ĠneÄ¯gali":12300,"ĠUkrainoje":12301,"ĠVladim":12302,"Ġtikslu":12303,"PraneÅ¡":12304,"Ġstreso":12305,"ath":12306,"Ġgras":12307,"Ġmintimis":12308,"Ġteikiamos":12309,"ĠbaimÄĹs":12310,"ĠinÅ¾iner":12311,"ĠKalvar":12312,"Ġteniso":12313,"Ġeid":12314,"atvÄĹs":12315,"ĠesanÄįius":12316,"Ġapdovanoti":12317,"ĠLau":12318,"Ġprevencijos":12319,"Ġkontekste":12320,"ĠÅłirv":12321,"Ġdor":12322,"ĠÄ¯raÅ¡Äħ":12323,"ĠMindaugo":12324,"ĠnepaÅ¾Ä¯st":12325,"ukso":12326,"Ġgarsiai":12327,"cia":12328,"51":12329,"Ġdon":12330,"Ġnauda":12331,"Â»":12332,"tomat":12333,"Ġsiaur":12334,"Ġautoriai":12335,"Ġ64":12336,"Ġbijo":12337,"Ġkosm":12338,"Ġtradicijos":12339,"ĠSP":12340,"Ġpaauk":12341,"ĠaktorÄĹ":12342,"Ġpertvark":12343,"yras":12344,"ĠiÅ¡likti":12345,"ĠakmenÅ³":12346,"Ġpapasakoti":12347,"Ġprogos":12348,"pats":12349,"Ġsekasi":12350,"Ġperkel":12351,"Ġmergaitei":12352,"Ġlob":12353,"Ġlikvid":12354,"ÃŃ":12355,"ĠsvetainiÅ³":12356,"ĠtonÅ³":12357,"Ġnepageid":12358,"Ġapykai":12359,"Ġmetodus":12360,"klÄĹ":12361,"ĠvÄĹjas":12362,"ĠVU":12363,"Ġtikru":12364,"ĠÄ¯prastai":12365,"82":12366,"ĠbebÅ«tÅ³":12367,"Ġgautas":12368,"ĠdatÄħ":12369,"Ġprez":12370,"Ġtei":12371,"Ġgaminius":12372,"Ġvaistai":12373,"ylÄĹ":12374,"Ġpasm":12375,"ĠÄ¯monei":12376,"ĠAkmen":12377,"eras":12378,"Ġnov":12379,"ulmon":12380,"Ġmanoma":12381,"ĠpuslapÄ¯":12382,"Ġatostogas":12383,"sus":12384,"Å½iÅ«r":12385,"94":12386,"imenu":12387,"Ġatsipalaiduoti":12388,"Ġ700":12389,"Special":12390,"Ġmy":12391,"tarp":12392,"terijos":12393,"Ġgalimybe":12394,"Ġpatvar":12395,"Ġgaliojimo":12396,"Ġ1994":12397,"ĠinformaciniÅ³":12398,"ĠZaras":12399,"emiantis":12400,"ĠkoncertÄħ":12401,"Ġresurs":12402,"Ġprincipus":12403,"ĠVaikÅ³":12404,"ĠteismÄħ":12405,"ĠÅ¡abl":12406,"ĠnutarÄĹ":12407,"ĠpritarÄĹ":12408,"Ġtereikia":12409,"Ġkomitetas":12410,"ĠMarc":12411,"Ġviduri":12412,"Ġvy":12413,"ĠMarÅ¡k":12414,"ĠValsti":12415,"Ġkeliuose":12416,"aitytÄĹ":12417,"ĠkodÄħ":12418,"estas":12419,"ĠRol":12420,"ĠÅ¾aidyn":12421,"ykti":12422,"ĠdidÅ¾iÄħjÄħ":12423,"Aus":12424,"Ġnaudojimui":12425,"ĠsÅ«nÅ³":12426,"cipl":12427,"Ġpasimat":12428,"Ġneleis":12429,"ĠneÅ¡var":12430,"uosime":12431,"Ġvoki":12432,"eikÅ¡m":12433,"AG":12434,"Ġvengti":12435,"ĠÄ¯Å¾valg":12436,"ĠgrÄħÅ¾inimo":12437,"Ġatvyksta":12438,"ĠpadidÄĹjo":12439,"enÄĹs":12440,"Ġatsakymas":12441,"ĠVilkaviÅ¡k":12442,"Ġvasara":12443,"ĠesanÄįiÄħ":12444,"ĠmenininkÅ³":12445,"Noriu":12446,"Ġturintiems":12447,"Ġjutik":12448,"Ġvadovauja":12449,"yÅ¾iuje":12450,"eikus":12451,"Ġlankytojai":12452,"Ġapval":12453,"Ġnorima":12454,"Ġreglamen":12455,"Ġvaisius":12456,"Ġtieki":12457,"ĠÄ¯sil":12458,"Band":12459,"Ġestet":12460,"ĠmylÄĹti":12461,"odÄĹ":12462,"takos":12463,"ĠpraneÅ¡imus":12464,"Ġstudijavo":12465,"Mic":12466,"ĠstebÄĹjimo":12467,"Ġkambariai":12468,"Ġbankro":12469,"Ġsuorganiz":12470,"ĠMÄĹlyna":12471,"ĠtrÅ«kumas":12472,"ministra":12473,"Ġmodeli":12474,"imtas":12475,"ĠgroÅ¾Ä¯":12476,"ĠmedÅ¾iagomis":12477,"Ġsvarsto":12478,"telis":12479,"Ġjap":12480,"ĠmergaitÄĹ":12481,"Ġnejau":12482,"rikÅ¡Äįi":12483,"Ġseser":12484,"Ġpon":12485,"ago":12486,"ĠÅ¾enklus":12487,"ĠpagrÄ¯s":12488,"Ġindustri":12489,"Artim":12490,"ĠpaaugliÅ³":12491,"ĠpaÅ¾ymÄĹjo":12492,"Ġspausd":12493,"ĠiÅ¡veng":12494,"ĠgalimÅ³":12495,"otan":12496,"Ġbesir":12497,"ĠkrizÄĹs":12498,"Ġdieno":12499,"ĠpÄĹsÄįiÅ³jÅ³":12500,"Ġcentru":12501,"Ġinformuoja":12502,"Ġve":12503,"kaitÄĻ":12504,"ĠtobulÄĹti":12505,"usia":12506,"Kor":12507,"Ġkenksm":12508,"plÄĹÅ¡":12509,"Å«dÄ¯":12510,"Ġspalvas":12511,"kat":12512,"ĠÅ¾lug":12513,"ĠbÅ«dingas":12514,"ĠSaul":12515,"Ġkitoks":12516,"Ġdist":12517,"Ġsmagi":12518,"ĠvieÅ¡buÄįiai":12519,"Ġdeng":12520,"esia":12521,"Ġvalymas":12522,"ĠparkÄħ":12523,"Mal":12524,"ĠorÄħ":12525,"Ġbeton":12526,"ĠnuodÄĹm":12527,"TokiÅ³":12528,"ĠuÅ¾mirÅ¡":12529,"bar":12530,"ĠrajonÅ³":12531,"Ġsugri":12532,"atoriumi":12533,"De":12534,"ĠsudÄĹtingas":12535,"Ġ1993":12536,"ĠapÅ¡vietimo":12537,"Ġatsakymo":12538,"Ġapeig":12539,"ĠmÄĹnesiais":12540,"indÅ¾i":12541,"Ġekonomika":12542,"93":12543,"ĠÄ¯sisav":12544,"lid":12545,"ĠÅ¾aism":12546,"ĠpoÅ¾em":12547,"Ġdalyvis":12548,"Å½algir":12549,"Ġteorijos":12550,"Ġ53":12551,"ĠgelbÄĹjimo":12552,"Ġpopier":12553,"eit":12554,"ĠAgn":12555,"Ġjokiu":12556,"ĠKinijoje":12557,"Ġ51":12558,"ĠatvykÄĻ":12559,"laugos":12560,"ĠVan":12561,"ĠTurki":12562,"maÅ¾":12563,"Ġbuvusios":12564,"Kaunas":12565,"uojantÄ¯":12566,"Ġindividualiai":12567,"uch":12568,"Ġnebep":12569,"ĠÄ¯raÅ¡yti":12570,"ĠdidÅ¾iausi":12571,"jaun":12572,"inaras":12573,"YM":12574,"ĠbiudÅ¾etÄħ":12575,"ĠpaieÅ¡ka":12576,"Ġtabl":12577,"nom":12578,"Ġsport":12579,"Ġdidelius":12580,"ĠatsidÅ«rÄĹ":12581,"ĠregionÅ³":12582,"ĠpagrindinÄ¯":12583,"ĠFran":12584,"Ġreikalo":12585,"ĠitalÅ³":12586,"Ġmatematikos":12587,"Ġ1940":12588,"Ġtatuir":12589,"ĠÄ¯sir":12590,"ĠuÅ¾dr":12591,"Ġkraujyje":12592,"Ġneaps":12593,"oninÄĹs":12594,"Ġenerget":12595,"Ġkolekcijos":12596,"Ġkint":12597,"vydo":12598,"Ġsing":12599,"Ġgimdymo":12600,"ĠveislÄĹs":12601,"ĠnatÅ«rali":12602,"Ġ62":12603,"rin":12604,"Ġdarbuotojo":12605,"Ġsveikas":12606,"Ġpatarimai":12607,"entui":12608,"ĠbulviÅ³":12609,"Ġatstovais":12610,"Ġpertvar":12611,"Ġnepan":12612,"eidÅ¾iama":12613,"ĠvirÅ¡ininkas":12614,"ĠLo":12615,"ĠvidÅ³":12616,"Ġpagrindinius":12617,"damasis":12618,"Ġnaujais":12619,"Ġkitokia":12620,"Paskelb":12621,"æľ":12622,"Moteris":12623,"ĠgreiÄįiu":12624,"Ġnusid":12625,"ĠSta":12626,"Ġprojektui":12627,"Ġsuprojek":12628,"Ġakivaizdu":12629,"DD":12630,"Visus":12631,"Ġatsil":12632,"Ġpaskola":12633,"Å¡luos":12634,"84":12635,"ĠpuikÅ³":12636,"ĠleidimÄħ":12637,"ĠatidÅ¾iai":12638,"ĠanalizÄĹs":12639,"Mir":12640,"Ġperkant":12641,"Ġkalboje":12642,"ĠPlungÄĹs":12643,"Pok":12644,"ĠjudÄĹjimas":12645,"Ġtikslai":12646,"aja":12647,"anÅ¾":12648,"Ġles":12649,"Ġlok":12650,"ĠSc":12651,"Ð¿":12652,"ĠprivaÄįiÅ³":12653,"Ġveiksmas":12654,"ĠketvirtÄ¯":12655,"Ġvyrauja":12656,"Ġinstitucija":12657,"ĠsandÄĹlyje":12658,"ĠtÅ«kstanÄįiai":12659,"ĠÅ«g":12660,"ulos":12661,"inamasis":12662,"ĠplatÅ³":12663,"Ġbroliai":12664,"tinimas":12665,"manas":12666,"tims":12667,"Ġpanaikinti":12668,"yklÄĹ":12669,"ĠIndijos":12670,"zÅ«":12671,"ĠgamtÄħ":12672,"Prak":12673,"ÄħÅ¾inti":12674,"ĠpailsÄĹti":12675,"ĠRyg":12676,"Ġturint":12677,"kui":12678,"dÄĹl":12679,"ĠMac":12680,"Ġprincipas":12681,"Ġpasirodys":12682,"Ġjungtis":12683,"Ġsektoriuje":12684,"dabar":12685,"ĠraukÅ¡":12686,"ĠPol":12687,"amam":12688,"Ġoperos":12689,"ĠpaÅ¾velgti":12690,"LE":12691,"Ġniekuo":12692,"tant":12693,"ijungi":12694,"ĠÄ¯darb":12695,"Ġgalutinai":12696,"ĠÅ¾emdirb":12697,"Ġkameros":12698,"Ġatvejis":12699,"Ġveiksmo":12700,"aipsniui":12701,"Ġpasisak":12702,"ĠJuozo":12703,"Ġansamblis":12704,"Vais":12705,"avas":12706,"Abu":12707,"Ġugniag":12708,"ĠneaiÅ¡ku":12709,"ĠÅ¡iluma":12710,"ĠbÅ«tini":12711,"ĠaiÅ¡kina":12712,"Ġsveiki":12713,"ĠSil":12714,"urm":12715,"Ġvyrui":12716,"uoji":12717,"Sim":12718,"Å¾Å³":12719,"ĠÅ¾monos":12720,"Ġnemal":12721,"Ġekspedi":12722,"Ġtragi":12723,"Ġteisme":12724,"avusiÅ³":12725,"tuvÄĹ":12726,"ĠLDK":12727,"rif":12728,"Ġtinkle":12729,"tininkai":12730,"ĠPeterb":12731,"ravi":12732,"ĠbutÄħ":12733,"Ġpotenci":12734,"Ġnorma":12735,"Ġskausm":12736,"ĠkonkreÄįiai":12737,"ĠpensijÅ³":12738,"ĠÅ¾alia":12739,"ÄĹbulo":12740,"ĠginklÅ³":12741,"ĠuÅ¾imti":12742,"Ġhip":12743,"ĠvirtuvÄĹje":12744,"ĠViÅ¡":12745,"Ġmoteriai":12746,"Ġpolitinis":12747,"ĠsuÅ¾av":12748,"Ġkeitimo":12749,"okos":12750,"Ġsunkus":12751,"ĠgraÅ¾iÅ³":12752,"KA":12753,"ĠauÅ¡":12754,"Steb":12755,"ĠdeÅ¡imties":12756,"ĠÅ¾avi":12757,"ybÄĹse":12758,"Ġgerus":12759,"Ġpavaizd":12760,"Ġatsakingai":12761,"ĠlinijÅ³":12762,"orge":12763,"ĠgraÅ¾ios":12764,"Sal":12765,"Ġvykdomas":12766,"baigi":12767,"ĠÅ¡irdyje":12768,"ĠÄ¯vesti":12769,"ĠID":12770,"skyrus":12771,"ĠabejonÄĹs":12772,"Ġsint":12773,"ĠtyrinÄĹj":12774,"Ġdalintis":12775,"intuvas":12776,"ĠsituacijÅ³":12777,"ĠmokymÅ³":12778,"Ġnetruk":12779,"uolab":12780,"ĠdÅ¾iazo":12781,"ĠPetro":12782,"ĠuÅ¾duoÄįiÅ³":12783,"edo":12784,"ĠgydytojÅ³":12785,"teriÅ³":12786,"Ġfunkcional":12787,"ĠPlat":12788,"ĠapdovanojimÅ³":12789,"Ġnutiko":12790,"ĠsvajoniÅ³":12791,"ĠsutarÄįiÅ³":12792,"Ġdidesni":12793,"ĠparodÅ³":12794,"Ġypatingas":12795,"ĠpaÄįiai":12796,"ĠÅ½il":12797,"ĠiÅ¡eina":12798,"ings":12799,"ĠruoÅ¾tu":12800,"Ġkvadrat":12801,"Ġpuse":12802,"ĠDaugiau":12803,"ĠiÅ¡reikÅ¡ti":12804,"Ġmanimi":12805,"vario":12806,"Parduodamas":12807,"Prezid":12808,"Å¡il":12809,"ĠMet":12810,"Ġvienodai":12811,"ĠplotÄħ":12812,"ĠprasidÄĹs":12813,"Phone":12814,"Ġsudarytas":12815,"ĠstatusÄħ":12816,"Ġpraleis":12817,"Ð±":12818,"Ġarenoje":12819,"Ġpersonalo":12820,"pÄĹs":12821,"ĠPrekÄĹs":12822,"''":12823,"ĠKud":12824,"ĠstruktÅ«rÄħ":12825,"inukas":12826,"ĠpadÄĹj":12827,"Ġpadaro":12828,"ilijos":12829,"ĠsavybÄĹmis":12830,"Ġdiskusijos":12831,"ĠAlb":12832,"ĠKiti":12833,"eni":12834,"aksti":12835,"Ġtrumpam":12836,"ĠgamybÄħ":12837,"GruodÅ¾io":12838,"Ġins":12839,"Ġgydytoja":12840,"ÄĹlÄĹmis":12841,"ĠskrydÅ¾iai":12842,"ĠsudÄĹtÄ¯":12843,"alumo":12844,"Ġlengvi":12845,"adoje":12846,"Ġtobulinti":12847,"Ġtekstas":12848,"ĠLands":12849,"Ġpusfin":12850,"ĠGrybauskaitÄĹ":12851,"ĠkapinÄĹse":12852,"ĠsvorÄ¯":12853,"ĠVyri":12854,"acinio":12855,"ĠâĪĴ":12856,"Ġreguliavimo":12857,"Ġroman":12858,"Ġsimboliz":12859,"Ġpozicijos":12860,"KalÄĹd":12861,"ĠtreniruoÄįiÅ³":12862,"eriams":12863,"Ġblogo":12864,"Ġvartus":12865,"Ġnuostatos":12866,"ĠPortugal":12867,"Ġatsik":12868,"Ġpajusti":12869,"uotojo":12870,"ric":12871,"ĠmasÄĹ":12872,"Ġkurjeris":12873,"olÅ¡ev":12874,"87":12875,"Ġkeistis":12876,"ĠiÅ¡dÄĹst":12877,"keviÄįiaus":12878,"Gel":12879,"Ġmanyti":12880,"Ġkorek":12881,"ĠgautÅ³":12882,"Ġpasod":12883,"ĠinternetinÄĹje":12884,"Ġpries":12885,"Ġbuhalter":12886,",,":12887,"Lig":12888,"raÅ¡to":12889,"aukÅ³":12890,"Åłvies":12891,"Ġarbata":12892,"ĠPop":12893,"Ġunikalus":12894,"ĠÅ¡imtÅ³":12895,"ĠgraÅ¾Å«s":12896,"Ġmontavimo":12897,"Ġtikina":12898,"ĠSÄħjungoje":12899,"ojimu":12900,"ĠvisokiÅ³":12901,"ipuli":12902,"Ġpraleido":12903,"telÄĹmis":12904,"Jon":12905,"iekite":12906,"ĠasmeniniÅ³":12907,"VilkaviÅ¡kio":12908,"ĠJurbarko":12909,"Ġvaidmuo":12910,"Dain":12911,"Ġprisideda":12912,"arto":12913,"Ġfasad":12914,"Ð½Ð¸":12915,"ruoj":12916,"ĠpraÄĹjo":12917,"ypi":12918,"Ġskaidr":12919,"Ġlapai":12920,"ĠPalangoje":12921,"ĠkryÅ¾i":12922,"eivius":12923,"ĠaÄįiÅ«":12924,"ĠKunigaikÅ¡":12925,"ĠiÅ¡tver":12926,"ĠÅ¾enklÄħ":12927,"Ġ..":12928,"Ġkadaise":12929,"Ġstip":12930,"Ġvienuo":12931,"Ġpademon":12932,"Ġslaug":12933,"SudÄĹtis":12934,"Ġmastu":12935,"iti":12936,"Ġtrauki":12937,"ĠpridÅ«rÄĹ":12938,"Ġlipd":12939,"ĠSU":12940,"ĠNorvegijos":12941,"riko":12942,"ĠsavininkÅ³":12943,"ĠÅ«kininkÅ³":12944,"Paskui":12945,"ĠgreitÄ¯":12946,"Ġreprez":12947,"Ġvyriausiojo":12948,"Ġepiz":12949,"ĠdeÅ¡ini":12950,"ĠÄ¯vaizdÄ¯":12951,"Ġimport":12952,"inate":12953,"ĠDir":12954,"edÄĹ":12955,"ankiai":12956,"ĠSud":12957,"fotograf":12958,"Ġgeriausiu":12959,"eiÅ¡ki":12960,"Ġelgiasi":12961,"keln":12962,"Ġnurodytas":12963,"Ġnetoliese":12964,"Sub":12965,"ĠRÅ«d":12966,"mena":12967,"Ġplien":12968,"Ġvietomis":12969,"bie":12970,"Ġnepakartoj":12971,"ĠgyvybÄĻ":12972,"timais":12973,"lietuv":12974,"Ġtokiomis":12975,"Ġ140":12976,"ĠBirÅ¡":12977,"Ġmalonus":12978,"ĠgreitÄħ":12979,"atik":12980,"Apskri":12981,"Ġnormos":12982,"anÄįiuose":12983,"Ġmeistri":12984,"Ġantroje":12985,"Ġtrita":12986,"!!!":12987,"ĠÄ¯raÅ¡ai":12988,"Ġbutas":12989,"PradÅ¾ia":12990,"Ġspecialistus":12991,"meÄįiu":12992,"omisi":12993,"Ġelektroninio":12994,"Ġegl":12995,"eliko":12996,"ĠmÄħstymo":12997,"ake":12998,"Ġatrodys":12999,"Ġsusideda":13000,"Å½emÄĹs":13001,"ĠrankovÄĹs":13002,"GraÅ¾":13003,"Ġore":13004,"Ġfilosofijos":13005,"Ġpusiausvyr":13006,"Ġragina":13007,"Ġkonsultacijos":13008,"ĠreikÅ¡ti":13009,"Ġsuvien":13010,"Ġlat":13011,"ĠartimÅ³jÅ³":13012,"Ġgarantuoja":13013,"ĠpasidÅ¾iaugti":13014,"daugiau":13015,"ĠpriedÅ³":13016,"kib":13017,"gus":13018,"Ġkolegijos":13019,"ĠrÅ«pi":13020,"Ġfrag":13021,"BC":13022,"Ġkvies":13023,"Ġpakel":13024,"Ġpud":13025,"Ġtrejus":13026,"smas":13027,".âĢĿ":13028,"ĠnusprÄĻsti":13029,"vard":13030,"Ġaf":13031,"ĠAT":13032,"ĠmirtÄ¯":13033,"ĠpaÄįias":13034,"ĠValen":13035,"ainiai":13036,"Ġplov":13037,"ĠÅ¾monijos":13038,"Ġpavadinti":13039,"Ġnumatytas":13040,"ĠsunkumÅ³":13041,"ĠNBA":13042,"inÄįiÅ³jÅ³":13043,"ĠsÄħveik":13044,"83":13045,"Ġvalstybinio":13046,"ĠpavyzdÄ¯":13047,"ĠakimirkÄħ":13048,"ĠpuikÅ«s":13049,"toras":13050,"ilind":13051,"Jung":13052,"ĠkÅ«rybÄħ":13053,"Ġdaktaras":13054,"kuo":13055,"ĠgrÅ«dÅ³":13056,"Ġnebij":13057,"ĠÄ¯Å¾vel":13058,"Ġintensyviai":13059,"ĠÅ¾vÄĹr":13060,"ĠÅ¡unys":13061,"Ġuoste":13062,"Ġnuopeln":13063,"Ġ57":13064,"Ġpilnas":13065,"metyje":13066,"ext":13067,"ĠskrydÅ¾io":13068,"ĠversijÄħ":13069,"amiems":13070,"Ġradik":13071,"edant":13072,"ĠbÅ«Äįiau":13073,"Nauji":13074,"Ġprabangi":13075,"ĠpraneÅ¡imÅ³":13076,"Ġribas":13077,"tavimo":13078,"ĠbuvusiÅ³":13079,"eidimas":13080,"ĠmÄĹsa":13081,"lia":13082,"ĠsÄħnaudos":13083,"Ġnelik":13084,"Nori":13085,"ĠaÅ¡tri":13086,"Ġsusiklos":13087,"Ġligas":13088,"ĠgyvenvietÄĹs":13089,"ĠpripaÅ¾Ä¯sta":13090,"ĠsavanoriÅ³":13091,"ĠIgnalinos":13092,"Å¡yps":13093,"ĠtarptautinÄĹ":13094,"Ġskalbimo":13095,"Ġapsipirk":13096,"Ġatgim":13097,"ĠdydÅ¾iÅ³":13098,"ĠsusipaÅ¾ino":13099,"ĠAntano":13100,"oÅ¾em":13101,"niais":13102,"ybose":13103,"ĠpuikiÄħ":13104,"ĠÄ¯taka":13105,"Ġkaupi":13106,"Ġseptin":13107,"Ġgavau":13108,"ĠStar":13109,"Ġmokymus":13110,"ĠorganizmÄħ":13111,"Ġapdailos":13112,"rantÅ³":13113,"Ġpateikimo":13114,"ĠetapÄħ":13115,"Ġantroji":13116,"Ġpropor":13117,"ement":13118,"ĠtyrinÄĹ":13119,"ĠlaipsnÄ¯":13120,"ĠPaÅ¡":13121,"Ġnemokama":13122,"Ġdebiut":13123,"Ġstovyklos":13124,"ĠKGB":13125,"----------------":13126,"Ġbyla":13127,"ĠratÅ³":13128,"chas":13129,"ymÄħsi":13130,"ĠvieÅ¡butÄ¯":13131,"ĠasmenÄ¯":13132,"Ġreligijos":13133,"tali":13134,"Ġbeje":13135,"Ġmatomas":13136,"ĠEurol":13137,"akÅ³":13138,"amsung":13139,"Ġimti":13140,"ĠÅ¾uvis":13141,"ĠÅ¡aun":13142,"Ġkompiuteris":13143,"eksu":13144,"ĠatrodytÅ³":13145,"ĠpusmetÄ¯":13146,"Ġklubai":13147,"rank":13148,"ĠRag":13149,"ĠuostÄħ":13150,"ĠÄ¯tamp":13151,"ĠnuotykiÅ³":13152,"ytes":13153,"Ġprojektavimo":13154,"91":13155,"ĠÅ¾iÅ«rovai":13156,"Ġpristatys":13157,"Fo":13158,"Å«nienÄĹ":13159,"Ġspalvomis":13160,"ĠligoninÄĻ":13161,"Ġelementus":13162,"niau":13163,"ĠÅ¾enklu":13164,"iose":13165,"ailg":13166,"Ġpavyksta":13167,"ĠNyderland":13168,"ĠsocialinÄĻ":13169,"Ġliudija":13170,"sÅ³":13171,"Ġ01":13172,"ĠkÅ«rinÄ¯":13173,"ĠsostinÄĹ":13174,"Ġnutik":13175,"Ġkilim":13176,"inijos":13177,"sig":13178,"Ġbaigti":13179,"Ġsult":13180,"Sausio":13181,"ĠtapatybÄĹs":13182,"Å¾ad":13183,"ĠpanaÅ¡iÅ³":13184,"ĠkryptÄ¯":13185,"istikos":13186,"ĠreikalingÅ³":13187,"Ġrekomenduojame":13188,"IP":13189,"Ġtamp":13190,"Å¾u":13191,"Ġ1945":13192,"Ġnaudojantis":13193,"Ġpavadino":13194,"ĠpavirÅ¡i":13195,"Ġraudona":13196,"Galv":13197,"ytojÄħ":13198,"ĠmedvilnÄĹ":13199,"Ġprincipu":13200,"ĠnesÄħmon":13201,"olf":13202,"ĠInform":13203,"ĠÅ¡ventÄĹje":13204,"ĠgalÅ³":13205,"Ġetapo":13206,"biliÅ³":13207,"Ġnariu":13208,"ĠKaunÄħ":13209,"Ġplatus":13210,"ĠstengÄĹsi":13211,"ykÄ¯":13212,"Ġevangeli":13213,"2002":13214,"Ġremiasi":13215,"joms":13216,"Paklaus":13217,"Ġnaujag":13218,"Ġtyliai":13219,"GraÅ¾i":13220,"ĠprieÅ¡gais":13221,"ĠjÅ«ra":13222,"ĠteisinÄĹs":13223,"Ġtilto":13224,"Ġbalso":13225,"Ġkalori":13226,"Ġatminimo":13227,"Klas":13228,"ingiau":13229,"Ġpapildyti":13230,"ĠgrÄĻÅ¾":13231,"tuvus":13232,"Ġfas":13233,"Ġpakelti":13234,"Ġlikimas":13235,"Ġnenaudoj":13236,"ĠpastatÄħ":13237,"\"),":13238,"ÄĹtojai":13239,"Ġnaujasis":13240,"ĠDELFI":13241,"azi":13242,"Ġrytas":13243,"Ġdeser":13244,"Ġproduktyv":13245,"Ġvairuoti":13246,"Ġtikiuosi":13247,"Ġrinkimai":13248,"Ġdomisi":13249,"ĠmankÅ¡":13250,"Ġatskiras":13251,"Ġpasiteis":13252,"Ġduben":13253,"oniz":13254,"Ġsubr":13255,"ask":13256,"ĠstatiniÅ³":13257,"Ġangliav":13258,"Ġprotest":13259,"Ġsezonui":13260,"ĠpersikÄĹlÄĹ":13261,"ologai":13262,"Ġprotes":13263,"tingumÄħ":13264,"ĠStal":13265,"Ġidealiai":13266,"Ġbatali":13267,"Å«dijanÄįio":13268,"Ġlaidoje":13269,"gmail":13270,"Ġsuderinti":13271,"ĠKij":13272,"omosios":13273,"ĠÅ«gio":13274,"epti":13275,"ĠÅ¾iniasklaida":13276,"aciniai":13277,"ĠbÅ«dinga":13278,"ĠÅ¾iev":13279,"Ġcentrai":13280,"egistrav":13281,"ĠAntan":13282,"ĠBel":13283,"ĠKaralystÄĹs":13284,"ĠapraÅ¡o":13285,"Ġinven":13286,"Link":13287,"ĠplanÅ¡":13288,"ojimui":13289,"Ġdalimis":13290,"ingam":13291,"raÅ¡Äįio":13292,"yrÅ³":13293,"ĠuÅ¾uol":13294,"ĠIP":13295,"uotÄĹje":13296,"Ġpaskatinti":13297,"ĠmatÄĹ":13298,"Ġnuostabus":13299,"did":13300,"Åłiaip":13301,"ĠÄ¯vertinimÄħ":13302,"tiÅ¡kÅ³":13303,"jeras":13304,"Ġdirbtuv":13305,"ĠmokesÄįiai":13306,"irbti":13307,"La":13308,"NeÄ¯":13309,"ĠLiv":13310,"ĠpastatÄĹ":13311,"ĠpriekaiÅ¡":13312,"ĠDÄĹl":13313,"Ġsujungti":13314,"Ġpereiti":13315,"ĠHen":13316,"))":13317,"ĠprogÄħ":13318,"taisyti":13319,"Ġpinigais":13320,"ĠpasiraÅ¡yti":13321,"Ġbendravimas":13322,"eika":13323,"ĠRank":13324,"ĠAukÅ¡Äįiausi":13325,"ĠnebÅ«na":13326,"Ġpateiktas":13327,"ĠgerovÄĹs":13328,"Ġiliuz":13329,"ovie":13330,"Ġauditori":13331,"ciz":13332,"ĠÅ¾ind":13333,"Ġkiekviename":13334,"Ġmiegoti":13335,"Åłe":13336,"Ġfederacijos":13337,"ĠNacionalinÄĹs":13338,"valst":13339,"Ġils":13340,"ĠrÅ«gÅ¡ÄįiÅ³":13341,"ĠtÄĻsiasi":13342,"DF":13343,"ĠvaldymÄħ":13344,"anc":13345,"Ġvakaras":13346,"Ġpaklausti":13347,"Siek":13348,"ÄĹmus":13349,"ĠprietaisÅ³":13350,"Ġsvarbios":13351,"Ġdatos":13352,"ÄĹtojÅ³":13353,"Ġaplik":13354,"ĠÅ¡iaurÄĻ":13355,"KitÄħ":13356,"ĠvidurinÄĹs":13357,"ĠÅ¡eimoms":13358,"Papil":13359,"Ġbilietai":13360,"tnaudÅ¾i":13361,"Ġpristatyta":13362,"Ġmiestai":13363,"viesti":13364,"uojanÄįius":13365,"Ġsmals":13366,"ĠtradiciÅ¡kai":13367,"Ġatsispind":13368,"ÄĹjaus":13369,"Ġtapybos":13370,"Ġalg":13371,"ĠiÅ¡keli":13372,"Sekm":13373,"Sur":13374,"ĠÄ¯mones":13375,"intu":13376,"ĠDarius":13377,"ĠmiÅ¡kÄħ":13378,"Ġstebi":13379,"ĠUÅ¾s":13380,"ĠsÄħskaitos":13381,"ĠiÅ¡laisv":13382,"Nev":13383,"Ġsudom":13384,"Ġstrategijos":13385,"ĠGabrie":13386,"ĠTaurag":13387,"Ġapyvar":13388,"Ġmityba":13389,"ĠuÅ¾ter":13390,"Ġdraugams":13391,"ĠÅ¡iltn":13392,"ĠpardavimÅ³":13393,"ĠplanÅ³":13394,"bai":13395,"davosi":13396,"Patog":13397,"Ġprel":13398,"ĠdaÅ¾Å³":13399,"ĠnepamirÅ¡ti":13400,"Ġpasitrauk":13401,"Ġdokumento":13402,"Ġzona":13403,"ĠÄ¯statymai":13404,"ining":13405,"ĠpridÄĹti":13406,"Ġnumato":13407,"ĠaÅ¡tun":13408,"ĠgydymÄħ":13409,"ĠuÅ¾kl":13410,"ĠiÅ¡paÅ¾":13411,"ĠpasiÅ«lymas":13412,"iausiÄħ":13413,"ĠasmeninÄĹs":13414,"ĠkandidatÅ³":13415,"ĠBals":13416,"juos":13417,"Ġmetro":13418,"ĠsavaitÄĹ":13419,"Ġfragmen":13420,"Ġvertinimas":13421,"ĠEstijoje":13422,"IE":13423,"sik":13424,"ĠkÅ«dikio":13425,"nors":13426,"Ġrekomenduoja":13427,"eikite":13428,"Ġteorija":13429,"ĠpaÅ¾eidimus":13430,"entuoti":13431,"Ġpaskirtis":13432,"ĠrÅ«gÅ¡tis":13433,"Ġportalas":13434,"Ġsakau":13435,"Ġsind":13436,"ĠÄ¯tari":13437,"xt":13438,"CH":13439,"ĠdiskusijÅ³":13440,"ĠaplinkybiÅ³":13441,"nin":13442,"Ġapdaila":13443,"Aki":13444,"Ġmanote":13445,"ĠMarga":13446,"poli":13447,"Ġpatvirtintas":13448,"akÄħ":13449,"alizmas":13450,"Ġ2020":13451,"Ġdyzel":13452,"Ġneur":13453,"Ġklim":13454,"Lank":13455,"rut":13456,"IUS":13457,"Ð·":13458,"ininke":13459,"orld":13460,"Å«kÅ¡":13461,"Arch":13462,"tinku":13463,"Ġplaukams":13464,"ĠÄ¯teis":13465,"ĠAnglijoje":13466,"Ġneverta":13467,"ĠpamokÅ³":13468,"ĠValstijos":13469,"insi":13470,"inkl":13471,"ĠÄ¯vykis":13472,"Ġatsiskl":13473,"ĠtikÄĹjimÄħ":13474,"ÄĹmimas":13475,"buv":13476,"ĠUSB":13477,"aimon":13478,"ĠpavyzdÅ¾iu":13479,"istinio":13480,"Ġklaida":13481,"ĠtapÄĻs":13482,"tiÅ¡kumo":13483,"Ġdraugija":13484,"ĠkovÅ³":13485,"Ġantrojo":13486,"iafunk":13487,"ĠpaÄįia":13488,"ĠiÅ¡leista":13489,"ĠantrÄħjÄ¯":13490,"Ġvystymosi":13491,"ĠaukÅ³":13492,"********":13493,"icinos":13494,"ĠHer":13495,"Ġsukak":13496,"2001":13497,"ĠKybartÅ³":13498,"ĠIsland":13499,"Ġekrane":13500,"ĠpasitraukÄĹ":13501,"ĠreiÅ¡ki":13502,"Ġvykdant":13503,"Ġlaikin":13504,"ĠbendruomenÄĻ":13505,"onÄĻ":13506,"Ġtinkamos":13507,"ĠiÅ¡vadas":13508,"ĠprisijungÄĹ":13509,"irdo":13510,"Ġprekyb":13511,"liukÄħ":13512,"Ġpasilik":13513,"Ġmitolog":13514,"Ġapyrank":13515,"ĠTavo":13516,"Ġsusitaik":13517,"Ġvaistus":13518,"ĠapaÅ¡":13519,"ĠpuikiÅ³":13520,"ĠLK":13521,"IF":13522,"Ġpavyd":13523,"lot":13524,"ĠdarÅ¾elio":13525,"Ġmain":13526,"ĠinovacijÅ³":13527,"ĠnuostoliÅ³":13528,"ĠkatÄĹs":13529,"ĠnedidelÄĹ":13530,"Ġperskaityti":13531,"ĠtrukmÄĹs":13532,"ĠklaipÄĹd":13533,"oliv":13534,"ĠÅ¡alims":13535,"ĠÅ¡iuolaikinÄĹs":13536,"ÄĹtÄĹ":13537,"Ġstraipsniai":13538,"ĠParyÅ¾iuje":13539,"Ġsapn":13540,"Ġpaskatino":13541,"Ġkalbas":13542,"Ġkrimin":13543,"ĠgatvÄĹse":13544,"ĠsÄĹkmÄĹ":13545,"Ġsiela":13546,"Ġplanuoti":13547,"Ġgaminamas":13548,"ĠsÄħmoningai":13549,"ĠvaikystÄĹje":13550,"olv":13551,"Ġpoetas":13552,"ĠlyderiÅ³":13553,"ĠpranaÅ¡umÄħ":13554,"Pagaliau":13555,"Ġypatinga":13556,"idal":13557,"Naujos":13558,"Ġsmurto":13559,"ĠkyÅ¡":13560,"Ġtikino":13561,"ĠpaÅ¾inimo":13562,"Ġstatusas":13563,"vio":13564,"Ġseka":13565,"ĠvienetÅ³":13566,"ĠRod":13567,"Saul":13568,"Ġatribu":13569,"Latv":13570,"Ġpaleisti":13571,"ĠFacebook":13572,"Nepam":13573,"ĠterminÄħ":13574,"ĠÄ¯sigijo":13575,"Ġmokytojo":13576,"ytojos":13577,"Ġfrakcijos":13578,"Ġparlamentar":13579,"tional":13580,"Ġsilik":13581,"ĠLeon":13582,"ĠBur":13583,"endo":13584,"Ġmedis":13585,"ĠpagrÄ¯st":13586,"Ġatlyginimo":13587,"tuosius":13588,"Ġvalyti":13589,"ĠlaisvÄĹ":13590,"ĠpasiruoÅ¡ÄĻ":13591,"ĠaplankÄĹ":13592,"Ġmez":13593,"Å¡kais":13594,"Ġakmuo":13595,"Ġpunkte":13596,"ampa":13597,"Ġgriov":13598,"sniais":13599,"Ġrodikliai":13600,"ĠÅ«kis":13601,"Skr":13602,"deÅ¡im":13603,"ĠsankryÅ¾":13604,"ĠklubÄħ":13605,"Ġnesutar":13606,"ĠÄĮiurli":13607,"eviÄįiÅ³":13608,"ĠÅ¾ib":13609,"Id":13610,"Ġderinti":13611,"Ġbendruomenei":13612,"ĠÅ¾ymiÅ³":13613,"ĠRasa":13614,"Ġkrau":13615,"ĠÄ¯jung":13616,"Ġgret":13617,"Ġobjektai":13618,"Ob":13619,"erijÄħ":13620,"ĠEuropa":13621,"Ġbuvimo":13622,"ĠpamatÄĹ":13623,"ortÄħ":13624,"ĠtÅ«kstant":13625,"Ġdef":13626,"Ġvartojimas":13627,"Ġatidarymo":13628,"kauskas":13629,"ĠdaugiabuÄįiÅ³":13630,"ĠNem":13631,"Populiar":13632,"esnÄĹmis":13633,"ĠÄ¯teikÄĹ":13634,"ĠÅ½mog":13635,"ĠÅ¡Ä¯kart":13636,"Ġsmagiai":13637,"Ġare":13638,"ĠtakÅ³":13639,"gai":13640,"ĠkokybiÅ¡kÄħ":13641,"Ġpaminklas":13642,"Ġserga":13643,"ĠatmosferÄħ":13644,"Ġtav":13645,"Ġdidina":13646,"Sti":13647,"Ġplastiko":13648,"Ġautor":13649,"antr":13650,"Kv":13651,"Ġkolekcija":13652,"Â³":13653,"Å¡Å³":13654,"Remiantis":13655,"Ġpikt":13656,"tajame":13657,"Ġlaikus":13658,"ĠvÄĹlyv":13659,"ÄĹliu":13660,"esnei":13661,"Koks":13662,"efic":13663,"ĠBro":13664,"ĠtreÄįia":13665,"ĠsugrÄ¯Å¾ti":13666,"Ġkeliones":13667,"Ġilgainiui":13668,"Ġmanipuli":13669,"Ġ1918":13670,"ĠMolÄĹtÅ³":13671,"Nuolat":13672,"ĠsulÄįiÅ³":13673,"Nei":13674,"Ġsiurbl":13675,"ĠnatÅ«ralaus":13676,"uotojams":13677,"ĠvabzdÅ¾i":13678,"rika":13679,"Ġpavar":13680,"ĠmasÄĻ":13681,"nie":13682,"Ġprag":13683,"onams":13684,"raÅ¡yti":13685,"Ġsuvalg":13686,"bri":13687,"Ġnedar":13688,"ykime":13689,"Ġnebeb":13690,"ĠprestiÅ¾":13691,"ingiems":13692,"enko":13693,"Ġstandart":13694,"ĠkaulÅ³":13695,"ĠraÅ¡ytojÅ³":13696,"ĠKri":13697,"Ġjausti":13698,"ĠsÅ«naus":13699,"Ġvyskupas":13700,"................":13701,"ĠpripaÅ¾intas":13702,"bank":13703,"uÄįius":13704,"aliÅ³jÅ³":13705,"Ġmilijard":13706,"Ġukrain":13707,"Ġmarat":13708,"Ġspaudoje":13709,"PanevÄĹÅ¾io":13710,"Ġminima":13711,"Ġmetodai":13712,"MaÅ¾i":13713,"ĠrÅ«Å¡i":13714,"Ġgyva":13715,"ĠiÅ¡tar":13716,"1990":13717,"ĠsocialinÄĹ":13718,"ĠÅ¡altiniai":13719,"ĠmasaÅ¾as":13720,"Ġvardai":13721,"Ġapi":13722,"ĠXVIII":13723,"ĠÅ¡akos":13724,"Ġgailes":13725,"Ġcha":13726,"Kuri":13727,"bro":13728,"Ġpoilsiui":13729,"ĠuniversitetÄħ":13730,"Ġdingo":13731,"Ġsistemai":13732,"Ġlankst":13733,"Ġkvapo":13734,"ĠpraktikÄħ":13735,"ĠuniversitetÅ³":13736,"Ġsklypas":13737,"Visiems":13738,"ĠsÄħlyga":13739,"ĠÅłakiÅ³":13740,"ĠkortelÄĻ":13741,"DidÅ¾ioji":13742,"entarai":13743,"Ġpirmyn":13744,"struoti":13745,"Ġfinale":13746,"Å¾valg":13747,"Ġskonis":13748,"ytumÄĹte":13749,"ĠMegz":13750,"ukl":13751,"Ġdokumentas":13752,"Ġvilties":13753,"ĠrÅ«pesÄįiÅ³":13754,"Ġkonstrukcija":13755,"iklio":13756,"Ġpaciento":13757,"ĠSl":13758,"ĠÅ¡iuolaikinio":13759,"Tra":13760,"Ġskri":13761,"unction":13762,"Th":13763,"inskio":13764,"amumas":13765,"Ġneatsiej":13766,"ĠganÄĹtinai":13767,"Ġakyse":13768,"ĠÅ¡eÅ¡iÅ³":13769,"urgo":13770,"Ġkitai":13771,"Atliek":13772,"Ġchor":13773,"telius":13774,"ÄĹjimais":13775,"ĠnusikaltimÅ³":13776,"Ġpadaug":13777,"ĠdÅ¾iaugiuosi":13778,"Ġpagrei":13779,"ĠVad":13780,"Ġpavaduotoja":13781,"Ġkremas":13782,"vÄĹr":13783,"ĠÅ¡iems":13784,"tiÅ¡ko":13785,"ĠpanaÅ¡ios":13786,"outu":13787,"Ġraus":13788,"ĠesanÄįiame":13789,"teriai":13790,"ĠRumun":13791,"ĠdovanÄħ":13792,"Vel":13793,"Juo":13794,"obil":13795,"Ġtrumpas":13796,"Ġsunaikinti":13797,"Ġpremjeras":13798,"alk":13799,"ĠAps":13800,"Ġautonom":13801,"ĠvaÅ¾iuoja":13802,"ĠrealybÄĹs":13803,"Ġpic":13804,"ĠoperacijÅ³":13805,"ĠsvarbÅ³":13806,"ĠieÅ¡kote":13807,"Jas":13808,"hop":13809,"ĠPi":13810,"ĠgeleÅ¾ies":13811,"Ġmokslus":13812,"Ġinternetas":13813,"Ġstotis":13814,"ĠneÄ¯sivaizd":13815,"ĠkÅ«dikis":13816,"Ġsantuokos":13817,"Ġmedita":13818,"Psich":13819,"Ġatsistat":13820,"Ġstudija":13821,"ĠfiziÅ¡kai":13822,"Ġlaisvalaik":13823,"Ġanglies":13824,"Ti":13825,"apj":13826,"Ä®monÄĹs":13827,"81":13828,"mÄĹlio":13829,"Rusijos":13830,"Ġpalaipsniui":13831,"uokÅ¡":13832,"ĠuÅ¾siima":13833,"Ġmusulmon":13834,"ĠpuslapiÅ³":13835,"ĠiÅ¡naudoti":13836,"Ġapsaugotas":13837,"Ġgalerijoje":13838,"Ġrasta":13839,"Ġnauju":13840,"Ġartimiausiu":13841,"alikÅ³":13842,"ĠatpaÅ¾inti":13843,"ĠpradÄĹjus":13844,"ĠkompanijÅ³":13845,"ĠnuotraukÄħ":13846,"Ġautos":13847,"Ġsusig":13848,"Ġpritraukti":13849,"ĠMeksi":13850,"ĠJuk":13851,"Ġesama":13852,"ĠAc":13853,"ĠtaÅ¡kÄħ":13854,"ĠreiÅ¡kinys":13855,"ĠÅ¡akÅ³":13856,"Ġbendradarbiavimas":13857,"iejus":13858,"Ġsusirasti":13859,"Ġteismui":13860,"ĠÄ¯sipareigojimÅ³":13861,"Ġnorintys":13862,"aliuose":13863,"ĠKad":13864,"Ġ1941":13865,"ĠÄ¯renginys":13866,"Ġ66":13867,"Ġkostium":13868,"Ġmokytojos":13869,"ĠpabaigÄħ":13870,"Ġnuval":13871,"ĠFinans":13872,"Ġkelerius":13873,"CD":13874,"Ġklaidas":13875,"ĠDovyd":13876,"Ġvertas":13877,"Ġaugimas":13878,"Ġsienas":13879,"Ġlygmen":13880,"Ġtaut":13881,"ĠPilka":13882,"Ġatvira":13883,"ĠsÄĹkmÄĻ":13884,"ĠkarÅ¡Äįi":13885,"ĠtaÅ¡kas":13886,"Ġgerinti":13887,"Pasteb":13888,"ĠjÅ«roje":13889,"Nuotrauk":13890,"Ġmokytojams":13891,"Ġpadengti":13892,"ĠSuomijos":13893,"Ġfotoses":13894,"evas":13895,"angus":13896,"Ġpristatytas":13897,"Ġaktyvus":13898,"arÅ¡":13899,"ĠArch":13900,"Ġveiklas":13901,"Ġepoch":13902,"Ġjumis":13903,"Ġ1944":13904,"Ġhipo":13905,"wer":13906,"Visai":13907,"Ġchemijos":13908,"ĠtemperatÅ«rÄħ":13909,"ĠSo":13910,"ĠslaptaÅ¾od":13911,"Ġslidin":13912,"akamp":13913,"ĠPus":13914,"ĠAP":13915,"Ġsodas":13916,"ĠÑģ":13917,"ĠasortimentÄħ":13918,"Ġprig":13919,"ĠkiauÅ¡iniÅ³":13920,"Ġgand":13921,"uotais":13922,"Skamb":13923,"amat":13924,"avime":13925,"uvoje":13926,"ĠsÄĹklÅ³":13927,"ĠatlikÄĹjÅ³":13928,"Ġpopuli":13929,"ĠiÅ¡met":13930,"ĠligoniÅ³":13931,"enh":13932,"ĠiÅ¡spaus":13933,"Ġslypi":13934,"ĠsÄħskaita":13935,"ĠÅ¡ukuos":13936,"ĠbolÅ¡ev":13937,"Ġmokinius":13938,"Ġgausi":13939,"ĠBMW":13940,"Ġkava":13941,"akc":13942,"Pastat":13943,"Ġby":13944,"ĠkÅ«":13945,"forto":13946,"ĠlinijÄħ":13947,"Ġmikroautobus":13948,"Ġdirbant":13949,"Nesvarbu":13950,"Ġkoefic":13951,"Ġatidaryti":13952,"Ġslenk":13953,"Ġapsigyven":13954,"Ġvainik":13955,"Ġpozicijas":13956,"Ġpertek":13957,"Ġimig":13958,"Ġult":13959,"Ġbuve":13960,"ffice":13961,"Ġkorid":13962,"Ġtinklai":13963,"Ġkonven":13964,"Ġsustiprinti":13965,"========":13966,"ĠpabrÄĹÅ¾ti":13967,"ĠÅ¡vÄĻsti":13968,"cis":13969,"ĠnerimÄħ":13970,"Techn":13971,"Ġgamyklos":13972,"ĠiÅ¡sidÄĹs":13973,"Ġtrag":13974,"ĠkraÅ¡tovaizdÅ¾i":13975,"ĠTen":13976,"ĠilgaamÅ¾i":13977,"ĠÄ¯rankis":13978,"Ġpsichiat":13979,"ĠkaimÄħ":13980,"ĠStud":13981,"ĠÅ¡imtai":13982,"Verslo":13983,"Ġburi":13984,"Ġdarosi":13985,"Ġvisapusi":13986,"ĠatsipraÅ¡":13987,"eivis":13988,"Ġokupacijos":13989,"kiasi":13990,"ologÅ³":13991,"Konferen":13992,"Ġpartneriais":13993,"ĠlaikraÅ¡Äįio":13994,"ĠÅ¡imtmeÄįio":13995,"ĠÄ¯eina":13996,"Ġatsiveria":13997,"apus":13998,"Sug":13999,"ĠrÅ«gÅ¡ties":14000,"ĠLen":14001,"Ġsveika":14002,"Ġpasienio":14003,"ĠdÄĹstÄĹ":14004,"YS":14005,"ĠlieÅ¾uv":14006,"ĠvariantÅ³":14007,"ugen":14008,"Ġkelius":14009,"ĠnusikaltÄĹ":14010,"ĠMÄĹn":14011,
[...]
