#version: 0.2 - Trained by `huggingface/tokenizers`
Ġ p
i n
a i
Ä Ĺ
Ġ k
a s
Ġ s
Å ³
Å ¡
t i
a u
o s
Ġ i
Ġ t
i e
a r
a l
Ġ n
Å ¾
Ġ v
i s
a n
Ġ m
Ġ d
u s
Ä ħ
a m
a t
i m
e n
Ġ b
Ä ¯
Ġ g
r i
Ġi r
â Ģ
e i
Ġ j
Ġ l
e r
u o
Å «
Ġ r
k i
e s
t o
Ä į
ÄĹ s
l i
a d
Ġp r
Äį i
a v
o n
Ġ Ä¯
i j
e t
Ġs u
Ġ âĢ
Ġ Å¡
Ġ a
j e
o m
r a
au s
u r
in i
i r
Ġi Å¡
Ġn e
Ġp a
t u
o r
Å¾ i
t e
Ġp as
ai s
ie n
o k
Ġ Å¾
Ġ at
ti k
e l
ÄĹ j
Ä Ļ
e k
t in
a k
al i
Ġa p
t Å³
i l
y b
in k
au g
t a
o d
Ġ u
u m
o je
ai p
t r
i Å³
Å¡ k
t as
i d
ĠâĢ ŀ
im o
Ġk ad
ĠâĢ ĵ
âĢ ľ
ai k
c ij
o g
Ġv is
Ġ 1
y v
ei k
Ġ (
u ri
Ġ ar
o j
Ġ y
e m
an t
i k
y s
Ġ f
y m
o v
Ġ tik
o l
Ġu Å¾
tu v
Ġs av
Ġy ra
u v
u i
a b
ÄĹ l
s i
Ġp at
e d
Ġd ar
ti s
g i
u os
y k
an d
Ġ 2
a Å¾
n i
Å« r
Ġ o
e li
s t
Ġs k
Ġb Å«
Ġn uo
u k
Ġl ie
Ġg al
Ġpr ie
Ġm et
Ġp ar
to j
p r
ĠÅ¡ i
y ti
au d
Ġt ai
Ġ in
au k
in g
Ġp o
aus i
Ġp er
im as
us i
ie k
Â Ń
Ġb uv
a p
en d
Ġlie tuv
t Äħ
Ġk uri
u l
u n
. .
e is
Ġ c
Ġk ar
m en
Ġg r
Ġk i
Ġk ur
am e
ini Å³
ÄĹ m
au j
Ġt o
m on
Ġv ien
Å« s
e g
Äįi Å³
Ġm ok
Ġt r
Ġ ti
uo j
am s
Ġbuv o
Ġv al
Ġs p
Ġk aip
Ġat s
t os
ij os
Ġd aug
Ġp ri
an k
v ar
Ġ -
c i
Ġpa g
in ti
ÄĹj o
Ġp l
t at
Ġ e
am a
t ai
in ÄĹs
e ri
d Å¾i
Ġsav o
Ġk l
Ġn es
a cij
ie s
am as
in ÄĹ
ki a
Äįi au
Ġg yv
Ġg ali
a g
im Äħ
Ġj au
Ġpr o
Ġp ir
Ġt ur
Ġb et
y je
0 0
in is
Ġk om
a Å¡
Ġk ai
en g
ini o
c h
k l
Ġt ar
Ġd al
ÄĻ s
Ġk on
m o
t ar
Ġap ie
Ġdar b
t er
ai d
am i
Ġk r
b i
y g
Ġt aip
Ġp av
y n
Ġl ab
b a
v i
Ġv ie
Ġl aik
in ink
uos e
y r
t ÄĹ
o ri
Ġd id
or m
s l
j Å³
Ġp ad
Ġn et
om is
av o
Ġt a
an g
ki r
Ġgyv en
v ai
in a
y d
Ġr e
t us
i Å¡k
ÄĹ ti
an Äįi
Ġk al
to ri
i z
Ġa k
i au
in o
i o
Ġm an
Ġb ei
Ġv er
Ġgal im
yb ÄĹs
Å«s Å³
Ġne p
ie m
Ġd ÄĹl
Ġv ar
uo ti
Ġn or
ra Å¡
Ġn auj
Ġlietuv os
ĠÅ¡ v
Ġj o
Ġs v
Ġs us
j os
Ġj ei
Ġ or
Ġ 3
Ġpir m
0 1
ini ai
li Å³
Ġpas i
os i
li k
ki te
Å« n
Ġ es
Ġ h
en t
ym o
o p
Ġl i
u p
Ġb e
Ġv aik
Ġt eis
ki Å³
v al
ij a
Ġk eli
Ġlab ai
Ġk as
Ġ as
) .
e p
os e
Ġd r
Ġta Äįiau
s k
ÄĹ d
Ġb end
Ġg er
Ġn aud
in d
Ġ1 9
e Å¡
Ġj is
u t
u b
s p
Ġj Å³
Ġ au
li o
as i
Ġi ki
u d
ĠÅ¾ mon
Ġs Äħ
Ġm ed
Ġr eik
Ġd ien
en k
es n
Ġt uri
i ai
Ġv eik
âĢľ ,
ÄĹ je
ei kia
Ġ an
Äįi a
ti m
uo men
oj o
ai t
Ġb al
Ġn us
Ġpa k
yk l
Ġ al
Ġn ei
v ir
Ġv il
Ġk iek
Ġpr ad
v er
im e
Ġbend r
im Å³
Ġs i
.. .
am os
cij os
o ti
Ġp al
ĠbÅ« ti
Ġmet Å³
Ġ2 01
Ġsu k
iem s
ÄĹ g
un g
ti es
Ġv ad
ei d
Ġpr is
av imo
Ġ auk
ki o
Ġe ur
ĠÅ¡ al
e j
f orm
Ġ el
Ġpag al
Ġar ba
Ġk o
Ġm o
Ġtar p
Ġd ir
a in
te l
Ġm aÅ¾
a j
od ÄĹl
k as
) ,
Äįi o
Ġtik r
Ġ "
Ġne b
Ġpas ir
Ġmet u
Ġsu d
Å« k
Ġprie Å¡
Ġg am
Ġt e
Ġ 4
g an
Ġ ek
y toj
Ġ 5
Ġ ant
Ġs kir
Ġv yk
ei g
yb os
om a
au n
ÄĹ n
Ġau to
u g
Ġs t
uo d
er g
es i
Ġpas k
ol og
au l
j a
Ġn ÄĹ
Ġb us
um o
ai g
Ġti ek
t ais
t yv
Ġdaug iau
Ġm Å«sÅ³
Ġi l
Å«r os
Ġj os
p i
im ai
Äįi us
k o
z d
Ġs var
pr as
ĠÅ¾ em
ini us
ÄĹm is
y l
t ÄĹs
ausi ai
ÄĹ tÅ³
tin g
om s
in Ä¯
ad a
Ġr ink
Ġgalim a
Ġv id
Ġj ie
Ġval st
Ġap s
acij os
Äįi ai
ĠiÅ¡ s
Ġt ink
Ġn am
s ti
Ġp an
l o
Ġne g
Ġs en
Ġm ies
m e
Ġpr og
u li
k a
im us
r o
t Ä¯
Ġpa Å¾
on o
ci al
an tis
Ġv ir
an ti
au ti
Ġm at
p a
te m
Ġkur ie
v ien
a z
uoj a
Ġas men
om e
Ġat v
Ġpro c
Ġauk Å¡
ie j
u z
Ġor gan
m og
ai Å¡k
Ġp am
p l
Ġt uo
ĠÄ¯ r
ei ki
kl aus
m ok
Ġd aÅ¾
Ġkal b
in ÄĻ
Ġt odÄĹl
Ġs ak
Ġs usi
âĢľ .
âĢ ĵ
Ġk ok
e z
Ġr y
Ġin form
ĠuÅ¾ s
Ġv ai
Ġreik al
Ġg ar
il d
Ġin ter
ĠÄ¯ vai
li au
Ġm ar
ĠÅ¾ mog
a Å¾i
Ġdal yv
Ġ 6
i Å¡
Ġsu t
y ri
ĠÄ¯ st
el is
Ġvil ni
ki ai
b u
Ġa Å¡
en tr
m et
Ġil g
oje k
Ġk ol
Ġt am
pr end
ym as
li ai
cij a
Ġap l
in imo
m as
v ie
Ġpag r
Ġpo li
ĠnÄĹ ra
osi os
Ġorgan iz
Ġs m
um s
ĠÄ¯ si
Ġs tr
Ġn er
Ġm in
j Äħ
Ġpa p
Ġj i
Ġk am
ai m
ÄĹ k
Ġn ar
Ġp us
Ġ Äįia
im u
Ġnor s
tr auk
tin ÄĹs
ab ar
Ġpr ojek
Ġn iek
is tem
al v
Ġn u
Ġpas l
i us
ĠbÅ« d
Ġ ad
uo toj
Ġr Å«
Ġi s
Â ł
Å« l
a c
Ġc entr
Å¾i Å«r
. ,
Ġdid Å¾i
te ri
ul t
Ġpar d
Ġs istem
Å³ jÅ³
Ġsp e
to v
Ġpas ak
en s
Ġdarb o
Ġmed Å¾i
Ġj og
an s
ĠbÅ« tÅ³
Ġkiek vien
s ta
Ġto ki
Ġt au
Ġnaud oj
Ġr eikia
Ġr aÅ¡
Ġg eri
Ġt ap
Ġb i
Ġvad ov
Ġat r
p er
Ġj Å«sÅ³
ak ar
Ġeur op
Ġs ti
Ġpa ti
Ġmok sl
Ġd abar
i c
Ġkur is
yb ÄĹ
Ġpr an
Å« d
ausi a
ĠÄ¯ v
Ġv and
Ġk Äħ
ri k
Ġp il
Ġgr ei
i t
Ġval d
Ġprog r
ch n
Ġpagr ind
ÄĹs i
el e
Ġmok ykl
Ġkl aus
Ġ aug
g u
eli o
Ġveik l
Ġk Å«r
b l
am Äħ
um Äħ
Ġa ti
ĠÅ¡ e
Å¾ in
Ġ2 00
uo Å¡
Ġat l
Ġm es
Ġm ÄĹn
g r
Ġ am
Ġg im
te b
an ÄįiÅ³
Ġ ri
Ġr ank
ĠÅ¾ in
acij a
y ta
Ġr eg
Ġsv eik
Ġm uz
Ġ 8
ij oje
ek s
Ġs aug
p o
m an
Ġs o
Ġt ok
e b
ÄĹm s
ĠÄ¯ g
Ġsu n
to r
Ġauto mo
Ġvien as
ĠiÅ¡ l
k ai
ij Äħ
Ġb r
Ġvie Å¡
Ġgr up
Ġs l
Ġsav i
oj i
k r
Ġlietuv oje
Ġv yr
uo l
Å¡k ai
e to
Ġte chn
um as
Ġs tu
od o
var k
iÅ¡k ai
Ġpa b
im ui
ĠÄ¯vai ri
Ġ 7
Ġf orm
Ġapl ink
k ur
Ġpasl aug
yb ÄĻ
ai l
Ġj uos
Ġc h
val d
Ġs prend
e v
Ġdir b
ad ien
Ġjau n
om as
d ar
Ġs tat
ĠÄ¯ mon
es ni
t au
d o
ÄĹ v
at ori
Ġk el
u je
Ġlaik o
ik os
Ġats ak
ei dÅ¾i
Ġg ra
Ġp or
Ġ z
ini u
Ġ w
s n
Ġpr ek
as ar
ÄĹj a
Ġr es
av imas
on as
Ġk aun
li us
Ġt yr
Ġi m
ĠÅ¾ aid
Ġpro f
Ġpas aul
in t
Ġk ult
te k
em s
tin a
ĠiÅ¡ v
Ġman o
i g
Ġnus tat
p aÅ¾
el b
Ġk n
Ġmet ais
Ġj Ä¯
tu m
ij Å³
ÄĹj imo
Ġk et
âĢ Ŀ
Ġat lik
Ġat si
s m
Ġr aj
im a
Ġv akar
Ġpl an
Ġprie mon
ar d
e Å¡k
am Å³
l t
n ai
un k
Ġ1 0
ĠÄ¯ s
Ġd uomen
j ung
is t
Ġd v
Ġf il
ek tr
ei l
ing as
at e
Ġvis i
ing ai
ali Å³
v il
Ġn uos
Ġl yg
Ġsp alv
Ġkuri os
Ġinter n
eis ti
on al
Ġd u
Ġkn yg
Ġs al
ĠÅ¾mon iÅ³
Ġre z
Ġti esi
Ġjei gu
Ġk ov
Ġsavi vald
Ġdr aug
to m
Ġtikr ai
s o
ym Äħ
in es
k Äħ
Ġpr as
Ġpa Å¡
ĠÅ¡ il
Ġr ek
tik r
i li
t ak
am ai
Ġaps aug
Ġb l
Å¾i o
Ġv ÄĹ
u Å¾
i u
Ġtiesi og
ĠmedÅ¾i ag
Ġti es
p as
Ġl eng
inÄĹ je
Ġsu m
ant ys
Ġmo ter
Ġstu d
Ġj ums
Ġk at
v o
tin is
Ġis tori
Ġki tÅ³
Ġsud ar
Ġsk ai
Ġpr od
Ġli g
ie ti
Ġel ektr
Ġpa pras
n o
Ġ 9
Ġeurop os
ausi as
to je
vir tin
Ġkar tÄħ
Ġ en
Ġk aÅ¾
Ġdien Äħ
ir d
Ġs ie
at v
Ġs ek
ing a
al Å³
j oje
aus iÅ³
v a
Ġan tr
om i
tin ÄĹ
ed a
Ġtik sl
ali z
Ġl ais
Ġn a
i a
dÅ¾i o
in e
1 9
in as
Ġpo p
Ġm od
ali ai
s ni
ar t
Ġm en
Ġf in
Ġautomo bi
Ġa b
Ġpad ar
n a
es ti
in imas
or to
Ġr us
at o
Ġver sl
Ġkom and
Ġ ank
Ġvilni aus
Ġp ui
Ġkar tu
Ġr eng
y tas
Ġm inis
ub lik
Ġi d
Ġg yd
Ġk ain
Ġprod uk
Ġk v
ien ÄĹ
ÄĹj as
tik os
Ġne d
Ġ1 5
v eik
Ġsu r
Å¡ i
Ġvien Äħ
Ġt em
Ġne m
Ġn en
t iniÅ³
Ġk il
Ġpasir ink
ĠÅ¡ is
ai Å¡
in ys
Ġ Äį
s tr
Ġpir k
Ġatv ej
âĢ ¦
ÄĹs e
e Äįi
Ġ ,
in gi
Ġin d
z i
Ġmies to
Ġt er
Ġl ik
ÄĹj us
f ek
Ġ x
ĠÄ¯ d
Ġpa Äįi
Ġso cial
Ġmet us
Ġvalst ybÄĹs
toj Å³
Ġkom p
inink as
ĠÅ¾mon ÄĹs
Ġm al
Ġn ur
t yje
t yn
l yg
to g
e vi
Ġvir Å¡
z dÅ¾i
Ġ1 8
Å« ra
Ġn um
Ġvalst yb
Ġm as
ĠÅ¡ Ä¯
sti tu
Ġd ie
oj a
ÄĹj Å³
ov an
at os
Ġs e
Ġl auk
ĠÅ¾ od
um en
Ġt en
Ġ |
bl em
ĠÄ¯st at
Ġk or
ini ais
y p
Ġkuri Å³
Ġd Å¾i
m ÄĹs
b o
Å¾i Å³
Ġt ele
ĠÅ¡e im
Ġpr a
acij Äħ
Ġd i
Ġvien a
cij Äħ
Ġd vi
Ġpris tat
uo k
Ġpro blem
t ra
f ik
Ġt ad
ĠuÅ¾ d
Ġpa j
g al
Ġd ÄĹm
Ġj am
auj a
is k
al o
Ġ od
Ġu ni
Ġpar od
ĠâĢ ľ
Ġp ie
Ġvis uomen
Ġv asar
Ġs ri
Ġne l
iej i
Ġpri klaus
cij Å³
Ġm ais
Ġpas tat
Ġ1 2
Ġm ie
ĠÅ¡i os
inink Å³
Ġk a
Ġn ori
en gi
eli Å³
Ġsk ait
Ġres p
Ġl aim
Ġnuo l
Ġpap ild
Ġpat eik
uv o
Ġsvar bi
y t
Ġt ÄĹv
Ġk uo
yri aus
yb a
ul tat
es Ä¯
Ġki ti
on e
ra f
Ġ2 0
Ġt vark
r ÄĹ
li u
Ġv ok
Ġek sp
Ġ er
ali o
e Å¾
Ġrez ultat
j Ä¯
eÅ¡ im
ki ri
Ġd e
Ġj Å«s
b Å«
Ġgali te
ĠÅ¡i uo
Ġpav y
b ar
Ġr as
ĠÅ¡i au
Ġkl as
Ġne Ä¯
Ġd ok
ini g
Ġj Äħ
at Å«r
Ġtar n
Ġm ÄĹg
an gi
p os
Ġresp ublik
Ġs ant
o t
Ġspe cial
v el
Ġfin ans
et a
as is
m inis
Ġpasi Å«l
Ġgal v
ĠÅ¡i o
Ġpav ad
ĠÅ¡v en
adien Ä¯
Ġv ÄĹl
Ġm aÅ¾i
Ġpar eig
m a
Ġpas au
u Å¡
Ġt ada
Ġen erg
Ġvai zd
Ġlietuv iÅ³
Ġi eÅ¡k
ĠiÅ¡ g
r e
Ġk ri
Ġdarb uotoj
Ġl ank
el ÄĹs
Ġp inig
Ġsav ait
Ġap sk
Ġsu tar
uo tas
Ġuni ver
n y
" ,
ĠÄ¯r eng
Ġvyk d
Ġintern et
inink ai
im i
ĠÅ¾em ÄĹs
Ġnur od
am en
Ġtr um
Ġ /
Ġsu l
Ġko ki
Ġvis Å³
ti jos
av i
ei p
in os
anÄįi os
p at
Ġt aik
Ġatl iek
us iÅ³
Ġdal is
aik Å¡
Ġl en
Ġpat s
Ġger ai
Ġu g
Ā Ā
Äħ jÄħ
tori us
m in
Ġstr aip
uo ta
Ġpran eÅ¡
p ar
Å«k st
at yv
is tr
Ġvis Äħ
ĠdaÅ¾ ni
Ġt ais
Ġm ir
ĠÅ¡ iÅ³
Ġt ri
ĠiÅ¡ k
in tas
pa Äį
ĠsÄħ lyg
je k
Ġc m
al us
Ġt Äħ
Ġr em
i ais
f er
ĠvÄĹ liau
ta b
yv end
Ġ eg
usi os
Ġkon kur
Ġspe ci
Ġo b
Ġb u
Ġb and
Ġr ad
t ys
et as
Ġsuk ur
k u
r as
Ġm erg
yb iÅ³
Ġvaik Å³
t aik
tu i
Ġkult Å«ros
âĢ ŀ
on Å³
Ġgyven imo
Ġats tov
Ġvie tos
y gi
om os
si te
Ġ ang
Ġl ap
Ġf o
Ġad minis
l e
on om
Ġk raÅ¡
y tÅ³
Ġsus id
Ġt Å«kst
esn is
Ġpr aÅ¡
ĠsÄħ jung
el Ä¯
Ġkaun o
Ġsi Å«l
Ġdal yk
j er
and ien
ÄĹj imas
Ġraj ono
ir Å¡
in ta
ÄĹj ai
in s
Ġy paÄį
¿ ½
ï ¿½
Ġpasau lio
Ġl au
Ġd er
b ul
Ġdok umen
Ġpas iek
Ġr ei
ĠdaÅ¾ nai
Ġs teb
i os
Ġats ir
tu ose
Ġv ais
Ġpati r
Ġtok s
Ġd ain
ali a
Ġkeli on
Ġl eid
Ġats is
g o
ki l
Ġprad Å¾i
an o
Ġin stitu
Ġvis us
Ġvand ens
Ġgam in
Ġtechn olog
m Äħ
Ġt ek
at Å³
Ġsud ÄĹ
Ġsu g
uoj u
Ġpr ak
pi u
Ġsavivald ybÄĹs
ik l
Ġr ug
Ġnep ri
t y
el ÄĹ
ra k
eidÅ¾i a
Å¾ as
Ġ1 1
uli ar
Ġr o
aip ÄĹd
Ġry Å¡
Ġkur Ä¯
Ġ 0
Ġ1 6
ym Å³
Ä¯ Å¾
Ġt as
ÄĹj au
Ġproc es
Ġj av
ik a
tin ai
yk o
ur n
Ġlais v
en a
ÄĹm ÄĹ
o f
Ġtarp tau
am b
an as
ĠuÅ¾s ien
Ġap d
Ġpan aÅ¡
p ir
ĠÄ¯st aig
Ġto liau
Ġtr an
n e
Ġl ink
ĠÄ¯si g
ci onal
ĠÅ¡i andien
um i
Ġki t
ie ÄįiÅ³
Ġkon c
r y
Ġpavy zdÅ¾i
Ġk Å«n
Ġb aÅ¾
Ġver tin
ei gi
ki us
u ni
Ġdir ek
ĠiÅ¡ si
id en
Ġ19 9
Ġpri val
ti Å¡k
et Äħ
o li
l ap
Ġ Å«
Ġk ap
Ġak tyv
es io
Ġlab iau
d as
ov ÄĹs
Ġsus ij
Ġpat og
b os
Ġpr ez
at as
av imÄħ
Ġtur ÄĹtÅ³
Ġvand en
Ġteis ÄĹs
ÄĹj usi
Ġg en
er is
toj o
Ġs im
ĠuÅ¾ tikr
Ġpa tik
Ġvad in
Ġ em
Ġneg ali
Ġpri im
Ġam Å¾i
ĠbaÅ¾ ny
Ġ et
ĠÄ¯ k
Ġkom is
toj ai
l ie
Ġm on
Ġmok ytoj
ĠÅ¾mog aus
Äįi u
ĠÅ¾ ini
uoj ama
Ġn usi
anÄįi us
vai zd
Ġvar Å¾
Å¾i ai
Ġmok es
i b
Ġj iems
Ġvis kas
Ġkl aipÄĹd
Ġ1 4
Ġvis ada
ĠbÅ« t
ĠÅ¾mog us
Ġrespublik os
t ÄĻ
Ġt eri
tin ÄĻ
Ġtap o
Ġ aud
in imÄħ
v is
uo tuv
Ġki to
ini ame
eri Å³
b us
Ġkl ien
Ġb ank
Ġsus ir
ĠÄ¯g yvend
.. ..
2 0
Ġpat virtin
c en
Ġ1 7
v id
Ġtran sp
Ġj uod
Ġper s
ant Ä¯
Ġ1 3
Ġsk l
Ġkl ub
Ġm a
y kite
Ġ Å¾i
Ġek onom
Ġg atv
Ġvis iÅ¡kai
Ġkuri o
Ġb ir
Ġdien os
i ausiai
ie ri
Ġ3 0
ie d
al as
Ġsu pr
es t
Ġ aiÅ¡k
Ġsak ÄĹ
cij as
Ġank s
on Äħ
Ġd ÄĹ
Ġl ÄĹ
Ġsp or
Ġ :
Ġs od
Ġsut eik
Ġspecial is
Ġ [
Ġsu b
Ġp ok
Ġbendr uomen
Ġbe veik
Ġneb uvo
Ġskir ting
Ġki tÄħ
Ġp u
Ġniek o
Ġk an
ym us
Ġs to
Ġpard uotuv
n as
Ġk vie
Ġatvej u
Ġm ums
al b
Ġsveik atos
am o
ĠÅ¡i Äħ
k Å³
tin Ä¯
Ġn r
dÅ¾i Å³
Ġtr ad
Ġor o
im ais
Ġin v
ĠiÅ¡ r
Ġvai r
Ġtele f
Ġne k
tim i
enk a
ien os
Ġtink l
ĠÅ¡al ies
d amas
Ġs er
Ġ1 00
Ġs ÄĹk
Ġsusi tik
Ġnuol at
Ġk ep
1 0
Ġn ug
ÄĹ p
im s
Ġvar to
Ġpas id
Ġj uo
Ġveikl os
Ġneg al
Ġr od
Ġm us
Ġkon s
Ġj ud
ver tin
d ami
Ġsi tu
Ġm iÅ¡k
an a
bÅ« t
ra g
to l
Ġd eÅ¡im
Ġper d
Ġt eig
Ġka ina
Ġf ak
en kl
Ġnuo trauk
Ġp os
si ch
Ġlaik Äħ
Ġb ar
Ġn ak
Ġki tos
Ġi tin
Ġt eigi
Ġpirm Äħ
Ġsak o
Ġf unk
Ġnei Å¡
uk as
y tis
ĠÅ¡ eÅ¡
2 01
Ġveik sm
Ġapsaug os
Ġpl o
tin k
Ġpl auk
Ġar ch
Ġne at
Ġnam Å³
ei ti
Ġval and
in tis
ĠiÅ¡ d
auk Å¡
Ġk odÄĹl
ang os
Ġpr am
im is
r ÄĹs
Ġ Å¾iÅ«r
ys tÄĹs
Ġkon tr
Ġteri tori
f i
Ġb aig
w w
i ausia
al ai
Ġt ol
t inio
ĠÅ¡v ies
. )
ĠÄ¯ raÅ¡
Ġna cional
p ri
Ġp ali
d avo
Ġpui kiai
ÄĹm e
b il
tik a
Äħ s
Ġy pat
ĠmaÅ¾i au
ini ams
Ġprof es
Ġpasir od
Ġg i
am p
Ġtai gi
uk ai
ad o
ki u
Å« ri
t n
ĠÅ¡v ent
en tÅ³
Ġdr aud
Ġatr odo
h e
ing os
Ġversl o
Ġpat al
ÄĹj imÄħ
Ġpab aig
Ġkam bar
Ġvis as
ad ar
Ġp sich
Ġpras id
Ġj uk
Ġvis ai
ĠÄ¯ sp
Ġre gi
m Å³
Ġne mok
ing Äħ
Å« z
eng ti
at ai
Ġsti pr
Ġsie ki
in Å³
Ġn uk
Ġpat ar
Å¡ kia
Ġo per
d v
Å« p
Ġe fek
un d
_ _
Ġminis teri
Ġpr al
ĠuÅ¾ si
Ġvis o
on d
Ġ2 5
Ġtuo met
ri g
ausi Äħ
Ġa g
yb es
Ġkar tais
Ġvie tÄħ
r Å³
Ġvis a
Ġvis os
esn ÄĹ
ausi o
Ġpr e
Ġob jek
Ġv os
n auj
ĠÅ¾ enkl
Ġd ur
Ġb er
Ġprie Å¾as
d ien
Ġpasaul yje
ai v
b er
om end
m os
Ġs au
Ġduomen Å³
Ġbl og
Ġsum aÅ¾
Ġkom piu
Ġp el
uos ius
Ġm eil
Ġj aus
Ġpop uliar
v ok
anÄįi o
Ġ â
Ġl ygi
Ġinform acijos
ĠdaÅ¾ni ausiai
t en
Å¡ Äįi
Ġto kiÅ³
Ġ .
ĠÄ¯ vertin
Ġmais to
Ġ Â
ĠpavyzdÅ¾i ui
Ġ eil
Ġt el
Ġd yd
Ġkuri ame
Ġtur ÄĹjo
- -
Ġl t
ei Å¡k
Ġsu Å¾
al is
Ġn atÅ«r
Ġs ez
Ġs kiri
ÄĹ r
Ġs aul
ed i
r os
k ar
em pi
ĠdÅ¾i aug
Ġeg z
Ġf iz
Ġtrum p
Ġj ung
eli ai
ali os
m ÄĹ
Ġt u
c k
r es
acij Å³
uk o
Ġtr eÄįi
ÄĹ te
Ġ av
Ġug d
Ġmokykl os
Ġmal on
at a
il ie
Ġbir Å¾
Ġl ang
ij o
sk ai
Ġm e
Ġminis tr
Ġkal ba
Ġsv eta
Ġk os
Ġadminis tra
aus kas
Ġpal aik
Ġto kia
Ġkuri Äħ
r od
lie tuv
Ġkad angi
ti Å¡kai
Ġkuri uos
ij as
Ġv eid
Ġd ek
in ai
Ġprez iden
ĠbÅ« s
ini uose
m at
Ġ201 8
00 0
yv en
Ġ and
Ġkr ep
or d
ang a
tom is
Ġnaud o
" .
tÄĹ je
Ġnet ur
Ġs ta
Ġer dv
ĠbÅ«t ent
Äįi os
Ġd et
Ġpl a
Ġ ame
Ġgr o
t iniai
ĠÄį empi
Ġpl ÄĹ
Ġki tas
Ġj as
Ġp ov
ov ÄĹ
ki os
Ġat ei
Ġv yriaus
Ġpl at
y tos
Ġvie toje
ĠÅ¡ im
Ġr ud
Ġki ta
Ġr ung
Ġs tov
Å«n as
Ġvaik ams
ÄĻs ti
Ġpask elb
Ġkrep Å¡
Ġpam at
Ġl yd
Ġtr en
Ġb ent
ÄĹ ta
Ġkuri oje
Ġsant y
um a
ti z
p j
Ġrek omend
Ġsistem a
Ġvilni uje
Ġ Ð
ĠÅ¡ ird
1 8
Ġats kir
ĠÅ¾in oma
Ġp i
Ġ aikÅ¡
ym u
Ġd ovan
ĠÅ¾ ym
ĠÄ¯vairi Å³
Ġvis iems
Ġi t
Ġnum at
Å¾ vel
Ġlen ki
Ġd y
g a
Ġm eto
3 0
b ol
1 2
Ġlaiko tar
ing Å³
in kite
Ġm il
l Å³
Ġte at
i i
Ġm l
et ai
Ġr om
Ġp enk
Ġgyd ytoj
ym ai
uos i
Ġk m
Ġgr Ä¯Å¾
Ġbal s
Ġreikal av
Ġsistem os
Ġvid ur
k ri
Ġcentr o
Ġs iek
ĠÅ¾ ino
uoj amas
ĠbÅ«d u
Ġgrei tai
Ġvar d
Ġvaik ai
in ant
ĠÄ¯mon ÄĹs
Ġapsk ri
Ġpas kir
Ġv ys
Ġsvar bu
Ġsuk n
ok Å¡
eri o
Ġkr auj
Ġg auti
Ġd an
ag r
ÄĹ liÅ³
ĠÄ¯d om
Ġp et
k os
ĠÅ¡eim os
Ġgeri au
Ġpri paÅ¾
Ġta Å¡k
l as
ÄĹl ÄĹ
tori aus
Ġval dÅ¾i
Ġdarb Äħ
Ġprad ÄĹjo
at Äħ
Ġpaslaug Å³
Ġpas ik
Ġap raÅ¡
Ġj ÄĹg
ĠÅ¡ ie
Å¾ ym
Ġnet uri
ie Å¡
c Å«z
t Å«r
Ġkalb os
Ġelektr on
Ġmuz ikos
Ġv ed
Ġv aid
Ġautomobi liÅ³
Å«n Å³
Ġpat ys
Ġvis kÄħ
Ġm i
Ġgal ÄĹtÅ³
Ġket vir
Ġv aÅ¾i
Ġreik Å¡
inink o
ut ÄĹs
Ġkom pl
Ġ ...
ĠâĢ Ķ
ĠamÅ¾i aus
e ÄįiÅ³
Ġasmen s
Ġmies te
Ġti e
ing o
a ti
tim as
Ġame rik
Å¡ ki
Ġkeli Å³
ĠsÄħ raÅ¡
Ġgrup ÄĹs
tin ink
oj imo
m uo
Ġd em
Ġr am
in ar
Äįi aus
Ġt al
Ġpas tar
n az
Ġvok ieti
Ġpad id
5 0
Ġj us
c m
Ġnaud oti
au ki
Ġmoksl o
Ġpag am
Ġpar aÅ¡
ĠiÅ¡ mok
Ġnepri klaus
Ġnuo mon
Ġsp orto
Ġv y
ik al
ÄĹj ÄĻs
Ġu n
ausi os
Ġd eg
Å«r ÄĹ
ĠÄ¯v yk
Ġb ri
au p
Ġper k
Ġap tar
Ġprie Å¾i
ĠÅ¾ ais
in tÅ³
aid os
to n
Ġsp aud
Ġsk at
inÄĹ ti
Ġkonc er
Ġtink a
Ġkiekvien as
Ġanks Äįiau
Ġ #
Ġsav e
Ġbi b
Ġn orm
Ġeur Å³
ĠÅ¾ urn
Ġk uni
Ġ19 4
u ÄįiÅ³
Ġbendr adar
Ġpran cÅ«z
Ġatlik ti
ĠsÄħjung os
t ri
Ġnam uose
Ġprojek to
an tas
ĠpaÅ¾ ym
y tÄĹ
Ġse imo
Ġgyven tojÅ³
Ġkad a
Ġd om
er v
ij ai
ĠrÅ« p
sni o
ĠÅ¡ aliÅ³
Ġvien o
Ġkol ek
Ġr im
i te
Ġb yl
ir b
um u
Ġpr im
Ġatv yk
Ġc i
Ġu p
uoj ant
Å¾i us
and a
Ġkas dien
um os
Ġpris im
Ġprogr am
Ġl enk
anÄįi Äħ
Ġat vir
Ġtik s
Ġpas teb
Ġpad ÄĹti
ov as
ĠuÅ¾sien io
ĠbÅ« na
Ġprof esi
Ġt eik
ĠuÅ¾s ak
t uo
tog raf
ĠÅ¾ al
Ġrus ijos
str uk
Ġu k
uk us
si t
d aug
ĠÄ¯ tak
Ġl in
on ai
Ġkok yb
Ġne pr
g n
Ġs and
is i
l ai
evi Äįius
esn ÄĹs
ĠÅ¾ iem
l ÄĹ
. âĢľ
Ġtransp orto
Ġ5 0
Ġu ab
ĠÄ¯ t
Ġap g
Ġ201 7
Ġk ei
l a
k ti
Ġbendradar bi
Ġman e
Äħ Å¾
Ġpr in
as ti
Ġl aip
Ġilg is
Ġd iz
Ġsk yri
ĠsÄĹk m
Ġkr eip
Ġkov o
h o
ĠÅ« kio
Ġspalv os
Ġt var
1 5
Ġlietuv a
Ġto bul
s ÄĹjo
tin ka
Ġ aus
ei v
ĠbÅ« kl
Ġgra Å¾
Ġinform acija
Ġpard uod
Ġgyven imÄħ
Ġt vir
n iÅ³
t adienÄ¯
Ĥ ¬
o b
Ġkr Å«
Ġvisuomen ÄĹs
Ġinform acijÄħ
on iÅ³
an Å³
Ġvil k
yn o
Ġj ai
Ġdar Å¾
Ġr aud
Ġeksp er
d ÄĹ
Ġsen i
om Å³
âĢ Ļ
av os
Ġreg istr
ki Å¡k
Ġpar eiÅ¡k
ÄĹ tis
Ġel g
yb Å³
ĠkÅ«r yb
Ġras ti
Ġk ie
Ġd aik
Ġvie ta
ĀĀ ĀĀ
Ġpadar yti
Ġefek tyv
Ġd el
Å¡ iÅ³
ys e
Ġb es
Ġvyk sta
n os
p us
Ġkomp an
ĠiÅ¡s kir
Ġtar ybos
Ġkok ybÄĹs
Ġmuz iej
vie jÅ³
ol ÄĹs
vai g
ais iais
ÄĹsi te
tu me
Ġm ik
ĠlÄĹ Å¡
ĠÅ¡ ak
Ġnauj Äħ
li z
Ġsk r
ĠÅ¡ iek
Ġg eg
Ġgra Å¾i
Ġki tus
Ġpriklaus o
ĠÅ¾ v
tin ÄĹje
ini am
om ai
Ġlaik as
Ġ ol
toj as
Ġn uv
ĠmÄĹn esÄ¯
Ġaplink os
vi z
uo tÅ³
Ġb at
Ġsi un
Ġmuz ik
Ġdie v
b al
Ġg in
Ġdien Å³
Ġpa aiÅ¡k
Ġv eikia
s e
Ġlab iausiai
ĠÅ¡v ie
d a
Ġpas is
Ġkar o
Ġg av
Ġkuni g
tik o
Ġ2 4
Ġgar s
am us
r aus
Ġsk elb
Ġtais ykl
in amas
Ġnem aÅ¾
Ġv i
in ama
Ġtr is
ĠkaÅ¾ k
Ä¯ st
Ġv yri
Ġne Å¡
Ġpar tn
Ġ201 6
Ġbib lio
og raf
Ġ Å«k
Ġprie k
Ġkult Å«r
Ġk oj
ĠklaipÄĹd os
or o
Ġtoki u
ĠÄįempi on
Ġ ini
Ġdar yti
Ġpask u
Ġnes u
ĠÅ¡ alia
1 1
ov ie
er s
Ġg lo
anti ems
Ġvyk o
ĠuÅ¾ p
t ams
Ġnep as
ĠdÄĹm esÄ¯
Ġd isk
Ġstraip sn
Ġtam pa
i ui
in ÄĹj
en cijos
gi o
Ġpan aud
Ġrei Å¡kia
Ġd viejÅ³
l ÄĹs
Ġautomo bil
Ġd is
in Äħ
esn iÅ³
Ġpad eda
Ġtok ie
Ġgalim ybÄĻ
Ġkai m
dÅ¾i ai
usi us
Ġnet r
Ġuniver sit
Ġatr od
Å«n ai
tori Å³
et Å³
Ġvar toj
l amen
Ġdarb Å³
Ġtr Å«k
p Å³
Ġgeg uÅ¾
ar g
tin as
ĠÅ¾ uv
Ġt os
ti mo
ul k
Ġat k
Ġkit aip
uo tos
Ġpard av
in ÄĹmis
ĠÄ¯ pras
Ġk od
Ġati tink
usi o
Ġs tik
c o
Ġgim naz
Ġt eiki
Ġre Å¾
Ġdalyv avo
Ġlap kri
Ġleng v
Ġd ail
ur g
Ġt v
Ġm ak
Ġsti pri
Ġdirb ti
tel ÄĹ
Ġpak ank
Ġsu p
Ġp en
Ġpinig Å³
Ġp v
ĠkraÅ¡ to
Ġd ra
ĠdeÅ¡im t
Ġdyd is
Ġprek ybos
Ġkeli as
Ġk ab
Ġpu ik
ĠkÅ«n o
ing umo
inÄĹs e
Ġtem per
eg ori
Ġval g
Ġl eidÅ¾ia
Ð °
Ġf esti
Ġind i
Ġrung tyn
tum ÄĹte
Ġsudar o
Ġu os
Ġvair uotoj
ak o
Ġo p
Ġkiekvien Äħ
Ġpask ol
Ġg e
ie Äįiai
Ġg ana
Ġpav oj
Ġveikl Äħ
p al
Ġneb Å«
Ð ¾
Ġjo kiÅ³
Ġfo tograf
Ġtoki os
ĠiÅ¡ b
Ġes u
Ġs r
Ġap ib
Ġkar tus
gi au
and Å¾io
Ġrug sÄĹjo
ieti mo
Ġdal Ä¯
Ġleng vai
Ġt eks
Ġm er
Ġsun ku
m ÄĻ
o ci
Ġk t
Ġapd ovan
Ġpal aid
Ġl aid
Ġnauj as
Ġcentr as
Ġf r
y tÄħ
Ġties a
Ġ2 2
ali u
ĠÅ¡ ok
en os
Ġrek l
on u
ĠÅ¡v ietimo
Ġk op
Ġindi vid
ev ÄĹ
ki au
c e
Ġk rik
Ġmed ic
ĠâĢ ¢
Ġlietuv iÅ¡k
f o
atori us
Ġsur ink
aus k
ni o
Ġsk yriaus
m ai
Ġmeto d
Ġ Äįi
ien o
Ġned id
Ġdien a
in am
Ġpapras tai
ĠÅ¾ yd
tel ÄĹs
Ġd ang
Ġpriemon iÅ³
um Å³
Ġad res
c ien
Ġod os
Ġg ab
Ġgal bÅ«t
ĠÅ¡i oje
ĠÅ¡i ame
Ġnauj Å³
Ġto kio
Ġmen o
Ġm yl
Ġ19 8
Ġsp alio
rÄĹ Å¾
Ġgalim e
esn Ä¯
7 0
Ġkon kr
Ġpre kiÅ³
Ġpoli tik
Ġbal d
ĠaukÅ¡ Äįi
Ġs pr
Ġne Å¾in
r us
s as
Ġm ili
ÄĹd ami
Äįi ais
Ġg au
Ġs ien
ĠÄ¯stat ymo
Ġl em
Ġri b
Ġpo zi
Ġs os
Ġt ÄĹ
val g
Ġkr edi
vaig Å¾
ĠiÅ¡l aik
Å¡ ti
Ġtur ime
si ai
Ġg aus
Ġg aun
Ġl eis
Ġtele viz
im ti
Ġ4 0
d av
ok ai
in us
Ġkok s
ĠiÅ¡ n
p s
uoj ami
Ġg ri
Ġenerg ijos
Ġvald ymo
1 4
Ġket uri
ĠprieÅ¾i Å«ros
m es
Ġlig on
Ġli ter
uk Å³
Ġtur ÄĹti
Ġkat egori
Ġpr em
ĠÅ¡i uol
r u
n ÄĹ
Ġd ep
k v
eli u
st Äħ
Ġf or
ĠÄ¯v y
Ġsavait ÄĻ
ali us
Ġprogr amos
olog ijos
ĠbÅ« tina
ÄĹ tas
Ġpus lap
Ġdra bu
ĠÅ¾mon ÄĹms
Ġm el
Ġel em
Ġab ej
sk ait
Ġat nauj
Ġpri d
. ).
k us
in ami
c om
Ġt Å³
d i
ad os
om Äħ
Ġpaslaug as
Ġs aus
Ġnam o
s u
) ;
Ġmoter is
yl a
Ġr ed
ĠpaÅ¡ al
Ġml n
Ġf ut
aud Å¾i
Å¾iÅ«r ÄĹti
ĠgeguÅ¾ ÄĹs
Ġst and
Ġdarb us
Ġsu pras
ausi us
ÄĹj os
j ai
Ġskai Äįius
Ġniek as
Ġk az
Ġt ak
Ġlapkri Äįio
Ġgr ie
Ġpav eik
Ġprin ci
au Å¡
Ġr uoÅ¡
at Å«ros
Ġ Ċ
Ġdarb as
Å¾ em
ok s
Ġs ÄĹd
Ġp ai
1 6
k s
ĠÅ¡ o
man oma
li aus
li ais
l is
i tek
Ġlietuv Äħ
Ġak men
ov o
Ġver t
Ġm ag
lietuv os
Ġrem on
Ġvien in
eli us
Ġm aÅ¡
ĠpaÅ¾ eid
Ġri z
Ġman au
Ġniek ada
Ġ2 3
Ġkomand os
om o
ci on
Ġsk aus
ĠbirÅ¾ elio
Ġv iz
Ġb en
Ġg l
Ġtr uk
Ġtrad i
Ġskai Äįi
Ġs ausio
Ġkon fer
uo tis
Ġkr yp
Ġnep at
ri o
Ġm or
yn as
cij oje
n Å³
Ġ ur
Ġintern eto
el ti
ĠÅ¡iau rÄĹs
ym ui
ĠÅ¾ini as
b e
Ġsusir ink
Ġk eis
Ġreik ÄĹtÅ³
Ġkar Å¡
Å¾ er
Ġsusi paÅ¾
eri jos
p u
Ġr ie
Ġsukur ti
Ġner eik
Ġs ovie
pr o
ÄĹl ÄĹs
ĠÅ¡i ol
a ch
iÅ¡ kio
Ġpav asar
Ġm ai
site to
Ġs il
d yti
ÄĹl is
Ġmod er
Ġvaik o
ar as
ĠmedÅ¾iag Å³
Ġ *
Ġsut eikia
Ġr ag
Ġtiksl as
Ġvadov as
Ġarch itek
on a
Ġar tim
2 00
Ġsul auk
Ġs cen
Ġati dar
n is
tu mo
Ð µ
v e
Ġpar uoÅ¡
esni o
ĠÅ¾ vaigÅ¾
Ġuniver siteto
Ġsv e
Ġpa cien
Ġ +
Ġistori jos
in tos
Ġveikl a
Ġki tais
Ġg yn
in ei
ai tÄĹ
Ġkomand a
Ġfut bol
Ġ2 1
Ġatsi Å¾vel
en tai
Ġkain os
Ġpat eiki
Äįi Å«
Ġteis ÄĻ
Ġpri taik
Ġteigi a
ĠÄ¯s ik
ĠÅ¡ tai
Ġpaslaug os
Ġv a
Ġdal ies
Ġne ap
Ġreg uli
Ġvien os
Ġgrup ÄĹ
Ġb ÄĹg
ĠmedÅ¾iag os
Ġs em
av ÄĻs
m i
Ġv el
Ġap si
Ġpa tikr
uo dÅ¾io
Ġpai eÅ¡k
Ġk li
anÄįi as
Ġpak ei
Ġkol eg
Ġkai mo
Ġas oci
Ġgen er
ĠdÄĹm esio
Ġsl ap
Ġ201 5
Ġkom un
el ÄĻ
Ġk elis
g im
Ġpam ok
Ġnus ikal
Ġk in
Ġlie pos
ĠsudÄĹ ting
ĠÅ¡ ild
Ġvis uo
ĠÅ¾ ali
Ġpagal bos
ÄĹj ome
Ġskir ti
toj ams
al Äħ
iem et
Ġs eks
uk Å¡
Ġnor int
Ġmet ai
Ġnu tar
el yje
Ġgyven ti
Ġskir tas
Ġpil ie
Ġnuos tat
an ta
Ġindivid u
Ġe Å¾er
Ġproc ed
Ġvy tau
n yr
Ġl e
iÅ¡k as
te is
Ġpateik ti
Ġkeli o
Ġkompiu teri
Ġet ap
Ġkar to
Ġvid aus
Ġistori ja
Ġkaun e
ã Ĥ
Ġne v
Ġpan evÄĹ
ink a
r ai
eri us
Ġkuri as
e ina
s im
Ġne tik
ĠuÅ¾ dar
Ġb az
Ġsi Å«
ĠÂ »
Ġ ed
Ġlaik u
Ġpat r
yb Äħ
Ġid e
Ġnus prend
Ġkel etÄħ
Ġir gi
pj Å«
ar o
m us
Ġp ik
ud Å¾
1 7
ĠÄ¯sp Å«d
Ġl atv
Ġb as
Ġtok Ä¯
art amen
iek a
ĠiÅ¡ or
Ġo f
Ġpram on
s is
v en
Ġm iÅ¡
Ġelektr os
Ġal b
Ġpui ki
Ġtvar ka
et e
ĠpradÅ¾i oje
on is
Ġvilni us
Ġko kia
Ġpasi raÅ¡
Ġâ Ĥ¬
Ġkar i
Ġr eli
Ġl o
Ġp unk
Ġapsk ai
Ġkl aid
Ġ eis
si u
ĠÄ¯r od
o tas
Ġini ci
oj imas
ÄĹj ÄĻ
ĠÄ¯sig yti
ni ai
Ġv eÅ¾
si as
Ġl ÄĹk
ori Å³
Ġt avo
Ġnauj a
u tÄĹ
Ġmili j
Ġg ink
ÄĹ lio
Ġbiblio tek
Ġ201 4
inink ÄĹ
Ġtar si
Ġsieki ant
eid o
Ġgr uodÅ¾io
Ġner eikia
Ġt he
Ġj Å«r
Ġform os
t h
Ġvir tuv
Ġsvar b
s to
Ġdaug uma
Ġl ed
Ġbal andÅ¾io
uoj ame
ai gi
Ġvasar io
b aig
Ġl a
Ġin t
Å ª
ĠÅ¡ iemet
trauk ti
1 3
Ġvien u
Ġdid elis
Ġpag er
k Å¡
2 5
Ġgar b
ad em
Ġdalyv auti
Ġbi udÅ¾
Ġk er
Ġdarbuotoj Å³
eri ai
Ġprek ÄĹs
Ġkon f
Ġh er
Ġteis mo
Ġnar iÅ³
par eig
ĠvieÅ¡ bu
d ama
Ð ¸
ĠmaÅ¾ ai
Ġpriemon ÄĹs
ĠÄ¯si tik
st at
ol is
Äħ jÄ¯
Ġnet gi
Ġuk ra
Ġvilk av
ĠÅ¾mon es
Ġtur nyr
Ġd o
am ojo
Ġpav el
t an
sp ek
Ġi z
Ġilg ai
Ġskir ta
al u
ei vi
ĠÄ¯mon iÅ³
Ġd ÄĹs
Ġv eiki
Ġministeri jos
uo g
ra cijos
Ġpat ek
Äįi ui
âĢ ĺ
Ġ2 6
b r
Ġpoli cijos
ï¿½ ï¿½
Ġr odo
Ġugd ymo
al ÄĹ
Ġem o
t adien
Ġskait yti
Ġdarb ai
Ġgal ÄĹjo
Ġats id
Ġd var
Ġproduk tÅ³
Ġcentr e
Ġdaug elis
d ÄĹl
te liÅ³
ĠÅ¡iuol aik
ĠÄ¯vai r
ij ung
Ġstr uk
ait ÄĹs
Äħ st
ĠÅ¡ un
at eg
Ġj ame
Ġ2 8
Ġan aliz
Ġtek o
Ġd uo
in u
Ġkompl ek
Ġprad ÄĹti
or t
Ġvaizd o
ch an
tin es
ausi u
al og
au kia
r at
Ġpsich olog
Ġpris id
Ġs tab
Ġank st
Å¡k as
b as
Ġsp ar
yr ÄĹ
ĠuÅ¾ k
Ġatl yg
Ġd uk
t es
Ġasmen Å³
Ġduomen is
Ġsu tik
Ġsri tyje
j o
Ġ, ,
Ġap r
ÄĹ kite
Ġk ino
ele Å¾
Ġpr at
Ġlaikotar p
Ġrug pjÅ«
cij ai
Ġmoter Å³
Ġatsak om
oj oje
Ġdie vo
tin e
Ġb el
el bi
Ġstraip snio
Ġis tor
Ġap yl
Ġsu gr
Ġat kr
an ki
n eÅ¡
en o
Ġr engi
ÄĹl yn
ĠdÄĹ Å¾
ar i
Ġp ed
Ġvar i
al e
ar a
us Ä¯
en tas
ab ai
Ġgyven a
t t
Ġl aiÅ¡k
asi te
en Å³
Å¾i a
in ÄįiÅ³
un gi
Ġj on
Ġatsis ak
ĠÅ¡il umos
Ġtrad ic
im ir
Ġs ep
t Å«ros
Ġdir ba
Ġinv esti
Ġrank ov
Ġapl ank
ĠiÅ¡b and
t v
l y
tel is
Ġk ir
Ġak adem
Ġg el
Ġteig ÄĹ
Ġpo il
Ġes ame
n us
Ġjaun imo
Ġek r
l Äħ
ali Äħ
j as
Ġats kl
ie g
Ġap Å¡
tu mas
Å¡k a
Ġvyk s
Ġbal tijos
e o
ien ÄĹs
Ġger a
Ġdr us
r Äħ
Ġpasiek ti
6 0
Äįi ams
Ġv es
Ġstr ateg
Ġkuri uo
Ġtap ti
Ġal ko
Ġnori te
ak al
in aud
k up
2 2
Ġg ÄĹr
g Å¡
gi ai
n es
Ġb ur
t ur
Ġdy dÅ¾io
Ġpor eiki
Ġnar ys
ĠÅ¾ ing
ÄĹn Å³
Ġtr auk
Ġdep artamen
ej a
o te
Ġl r
Ġprogr ama
n et
Ġal iej
Ġknyg os
Ġstat ybos
is tÅ³
Ġtren ir
Ġreli g
tim Äħ
yn ÄĹs
Ġ2 7
. ),
Ġpakank amai
Ġ: )
Ġgam tos
Ġsu aug
Ġdiz ain
Ġo fi
4 0
Ġo rig
k al
Ġpok y
Ġ aiÅ¡
ĠiÅ¡ lik
Ġtik ri
ĠmaÅ¾ daug
yb e
Ġpak eisti
ri b
av au
Ġtur to
ij us
Ġinternet u
Ġp j
Ġ19 7
Ġsv aj
Ġc uk
n ÄĹs
Ġpasi tik
ĠdÄĹl to
Ġv it
Ġsaul ÄĹs
Ġk and
Ġpl as
Ġkal ÄĹd
t am
ĠÅ¡i ais
ĠÅ¡v el
t ame
Ġsk ol
ĠnemaÅ¾ ai
Ġnauj os
z mo
ytoj Å³
Ġdien omis
Ġs Å«n
Ġspalv a
Ġg eleÅ¾
Å«n o
p Äħ
ori us
s ime
Ġd a
Ġr enk
en ti
en tar
Ġpris i
Ġautomobi lio
Ġsusi tar
f or
__ __
ĠmedÅ¾iag a
Å¾ o
Ġim p
Ġprofesi onal
ĠsiÅ« lo
Ġdal yje
ag og
Ġorig in
Ġpaj ÄĹg
Ġties Å³
Ġli ud
Ġnar iai
Ġkomis ijos
ar os
yd amas
ej i
Ġgyven imas
in sk
Ġkar al
Ġne uÅ¾
Ġd ÄĹv
Ġsus is
Ġn up
Ġkari uomen
Ġvie tÅ³
Ġa ki
eli a
men Å³
ie jÅ³
oj au
Ġsus ik
no z
Ġr ak
Ġang li
Ġsp aus
ĠÅ¡al yje
li ui
Ġkv ap
Ġat os
Ġpirm asis
l ar
Ġg ird
Ġgyven ime
Ġl eidÅ¾i
Ġtr ys
Ġ6 0
ri jos
ĠiÅ¡ pl
Ġvyr as
Ġsistem Äħ
Ġpabaig oje
um us
Ġpar ti
at Å«ra
ĠÅ¡iau liÅ³
Ġvadov auj
Ġver s
Ġlenki jos
Ġinici atyv
Ġkiti ems
ĠsÄħ skai
Ġs iau
Ġproblem Å³
Ġnam us
Ġter min
Ġsk amb
n Äħ
ali fik
i ams
Ġneg u
c ep
Ġpagal ba
Ġvyriaus ybÄĹs
p an
d in
Ġk Å«d
Ġkvie Äįi
t inius
n uo
p ag
eg z
Ġb ro
Ġpasak yti
Ġsaug umo
ink Å¡
Ġsl uok
Ġak tu
Ġpr ar
Ġats p
Ġes ant
Ġbendruomen ÄĹs
Ġatos tog
j au
Ġ ai
Ġvakar Å³
um ai
Ġk av
Ġtr up
Ġl aiv
ul is
Ġgal ÄĹs
Ġjau Äįi
Ġkonfer en
ĠmÄĹn esi
Ġl og
Ġduomen ys
ĠpaÄįi u
Ġs n
Ġf on
Ġg ed
Ġgalim ybÄĹ
Ġm m
Ġpl okÅ¡
Ġvaik us
Ġpal yg
ĠÄ¯s ak
Ġpati ek
ĠÅ¡i uos
pr es
Ġde fek
Ġstand ar
Ġvaik as
Ġnep ak
iÅ¡k a
Å¡ al
Ġgam ybos
Ġpirm iausia
Ġprojek tas
Ġt uos
Ġpop ie
sn iÅ³
Ġme chan
Ġdien as
Å¡ kiÅ³
Ġadminis tr
Ġw ww
Ġt rak
Ġkur s
Ġbendr ovÄĹs
im ams
Ġmie g
yd ami
Ġdv as
Ġtyr imÅ³
Ġpasirink ti
Ġr ÄĹm
eg istr
Ġtr e
Ġpas t
Ġkelion ÄĹs
Ġs tog
Ġpa klaus
Ġnustat yta
tin o
ytoj as
ik Äħ
Ġpar lamen
Ġs es
Ġkuri a
Ġpad ÄĹs
Ġper gal
i p
t uoti
Ñ Ĥ
on io
uoj amos
sn is
Ġ >
Ġteis iÅ³
am et
ĠiÅ¡ Å¡
Ġturi te
tuv as
Ġk ul
Ġpr ab
Äįi ausiai
Ġnustat yti
Ġsut rik
ĠrugpjÅ« Äįio
atori Å³
Ġgyven tojai
usi Äħ
po zi
n ek
Ġ2 9
k e
ti on
an to
ĠplÄĹ tr
Ġ ok
to vai
Ġs am
ĠbÅ«d as
ĠmÄĹn es
Ġsupras ti
ĠrÅ« Å¡
Ġtarn ybos
Ġp aukÅ¡
on us
k aip
Ġbi ur
ai ÄįiÅ³
Ġj ap
Ġb ul
Ġnauj o
Ġraj one
tr o
ÄĹj ams
Ġj Å«ros
Ġpasl ap
Ġgrei Äįiau
Ġpak r
Ġch em
Ġkar tÅ³
Ġry tÅ³
Ġklas ÄĹs
Ġstud ijÅ³
Ġneb us
on str
uk Äħ
Ġi i
ĠiÅ¡ p
ÄĹd a
.... ....
e ur
Ġsvarbi ausia
om et
Ġm inÄĹ
e c
uri a
Ġklaus imas
Ġinv est
ĠÅ¡ l
v ad
Ġapyl ink
2 4
Ġk u
Ġti po
Ġbr and
av imui
Ġreikal Å³
Ġaps il
Ġval sti
Ġpar eng
Ġap mok
Ġkar jer
ut Ä¯
Ġ201 3
ĠaiÅ¡k u
Ġkr em
Ġmokykl oje
Ġg ir
Ġmai tin
ÄĹj Äħ
Ġkand id
Ġnepriklaus om
Ġpar tijos
uo tÄħ
Ġ on
ĠuÅ¾tikr inti
Ġsk elbi
Ġs tar
tr uk
Ġprojek tÄħ
Ġtr ans
Ġpri ver
esn ÄĻ
Ġm ÄĹlyn
ĠÅ¾ ai
Ġpasaul Ä¯
Ġats tovai
Ġm aiÅ¡
Ġin f
Ġmies tas
i ki
ĠiÅ¡v yk
Ġpirm a
an i
Ġpv z
Ġkon struk
b Äħ
in yje
/ /
Ġbend ra
Ġauto bus
atori ai
Ġpriim ti
Ġinter es
ĠÄ¯ var
Ġegz ist
Ġkur iems
Ġkr y
ĠbaÅ¾ny Äįios
Ġat g
Ġ19 5
v ies
ĠÅ¾ ied
yr us
Ġpram og
ur s
Ġkur ti
Ġb ilie
im uose
Ġnuo taik
an tÅ³
Ġadministra c
Ġm ÄĹs
Ġkompiu ter
ÄĹ Äįiau
Ġkuri ose
Ġkrik Å¡Äįi
g ti
ĠiÅ¡ m
Ġ19 6
Ġsprend imas
tin os
Ġrem i
Ġsp ek
ĠiÅ¡l aid
Ġsprend imÄħ
ĠiÅ¡ sk
Ġ201 2
Ġspeci ali
Ġd eÅ¡
Ġj ur
ali au
ra z
Ġpas inaud
yk Å¡
am Å³jÅ³
acij as
Ġvasar os
Ġg eb
es ys
Ġvid ut
Ġkam er
Ġpasi Å¾ym
Ġa f
Ġtau tos
Ġmat yti
et en
to ti
Ġat m
Ġi sp
ÄĹd amas
m ar
Ġvokieti jos
Ġsav an
Ġ19 3
Ġprival o
Ġk up
Ġmokes ÄįiÅ³
Ġkv alifik
Ġpaveik sl
Ġpie tÅ³
ang Å³
Ġmo tyv
Ġpar tiz
an e
Ġpra ei
Ġgalv os
yb ai
Ġleng vi
Ġin te
Ġal g
Ġk g
ĠpaÄįi os
Ñ Ģ
Ġnep a
Ð ½
tol og
Ġsukn elÄĹs
Ġvien i
dÅ¾i us
ĠÄ¯ kur
ta cijos
Ġch ar
Ġkon stitu
Ġas muo
Ġtechnolog ijÅ³
Ġkolek tyv
Ġpasi g
Ġnep av
âĢĿ ,
Ġdraud imo
Ġt virtin
Ġne Å¾
Ġtri jÅ³
ĠÄ¯mon ÄĹ
ĠÄ¯ Å¾
inink ams
Ġeurop oje
Ġn agr
im in
Ġklaus imus
ys tÄĹ
Ġlik o
l os
Ġpri v
ĠiÅ¡s aug
b in
kai tÄĹ
Ġdv asi
Ġsp ind
Ġlaisv ÄĹs
2 3
* *
Ġati d
Ġkaim yn
Ġti l
Ġsu vok
li ams
Ġpali k
aj ame
Ġsie kia
Ġprad ed
ol o
Ġr asite
Ġped agog
Ġmokykl a
Ġdaug i
k art
Ġseni Å«n
Ġgrie Å¾
Ġat as
Ġger okai
Ġger as
Ġsveta inÄĹje
au Å¾
Ġtoki Äħ
Ġsun k
Ġd eja
Ġpus ÄĻ
av us
Ġun ik
am ÄĹs
a f
Ġprogr amÄħ
Ġkas met
or is
Ġtem a
uo Å¾
Ġkalb ÄĹjo
Ġknyg a
Ġpatr auk
t vark
Ġatvej ais
Ñ ģ
Ġl ov
Ġpagal v
Ġmok ymo
pr ieÅ¡
ÄĹ z
os of
ĠÄ¯sik Å«r
eik ti
Ġgal ÄĹsite
int ys
Ġan ti
Ġlau kia
Ġsk ry
Ġan ot
Ġsem inar
ikl is
tÅ³ jÅ³
Ġrink tis
-- --
Ġdirek torius
Ġk ak
Ġnet eis
m u
tori ai
Ġa z
ĠkaÅ¾ ko
s ak
Ġpask ut
Ġdar o
Ġl eg
ym osi
ok o
Ġt enka
yk liÅ³
ĠmÄĹg st
tin gi
Ġpopuliar i
Ġfo to
Ġnep am
Ġdisk us
en to
Ġkoki os
Ġves tuv
Ġpagrind inis
Ġsocial inÄĹs
or as
Ġstov ykl
Ġgr ind
Å¾i Å«ri
Ġag ent
l us
ÄĹ liai
Ġaps is
Ġpris ijung
d e
ĠÅ¾ iniÅ³
Ġit al
av e
y tÄĹs
Ġgalim ybes
Ġjuo z
Ġkeli Äħ
Ġmok iniÅ³
Ġpor t
p ti
Ġmok iniai
Ġkr ov
q u
Ġpar amos
z ÄĹs
Ġdr ÄĹg
Ġnauj ien
Ġdvi ra
Ġinform ac
al ÄĹs
in imui
ĠiÅ¡ man
ĠÅ¡e ima
Ġs uo
Ġtur ÄĹs
Ġasmen ys
en iai
Ġm is
Ġspek tak
uod a
el es
Ġp uoÅ¡
ĠiÅ¡s il
ta bi
Ġt h
eÅ¡im t
Ġc o
ies iems
um ui
Ġ %
âĢĿ .
j us
y tus
ĠaukÅ¡ tos
Ġr au
Ġar timi
Å¾ ud
ĠÅ¡al is
Ġti r
Ġlauk o
toj a
Ġpask ui
Ġtar i
: //
e x
ĠÄ¯r anga
Ġproblem a
Ġsug eb
ĠÄ¯ tar
Ġatas kai
Ġpri ÄĹm
anÄįi ais
st yti
Ġprad eda
Ġst engi
Ġak imir
Ġkain Äħ
ĠÅ¾urn alis
in ÄĹms
an ai
Ġmedic inos
Ġlaik ais
Ġteat ro
ie si
anÄįi u
t aip
Ġapsil ank
Ġmar ij
Ġd av
Å¾i u
al aus
Ġ201 1
ĠÅ¡al yse
on os
Ġsut eiki
Ġdem ok
ĠÅ¡v ed
Ġd ÄĹk
Ġrink os
ĠraÅ¡ o
Ġak is
Ġm inkÅ¡
Ġl ai
Ġpasir uoÅ¡
au to
Ġvasar Äħ
Ġdaug iausia
ĠÅ¡ird ies
Ġger os
Ġpri va
ĠreÅ¾ is
uo tÄĹs
Äįi Äħ
ki jos
Ġmik ro
ing us
Ġp ur
Ġb o
n or
t s
eli ui
ĠÄ¯v yko
ar Å³
Ġpa ÄįiÅ³
Ġpus ÄĹs
Ġtarp u
Ġdid elÄĹ
ĠlÄĹÅ¡ Å³
8 0
Ġpir Å¡
Ġpirm ininkas
ĠsÄħlyg as
Ġpa ties
Ġmeil ÄĹs
ens yv
ĠuÅ¾ m
Ġistori jÄħ
Ġpad al
ĠieÅ¡k oti
og r
gi ant
Ġkuri uose
Ġred ak
Ġsil p
ĠvaldÅ¾i os
Ġg avo
Ġteis mas
Ġs tai
ĠÅ¾inias kl
Ġtoki us
Ġkei Äįi
u al
Ġpov eik
Ġtyr imo
Ġn ul
rag ÄĹs
ĀĀĀĀ ĀĀĀĀ
Ġpav irÅ¡
Ġm it
ad as
ytoj ai
ĠbÅ«kl ÄĹs
Ġb aigi
Ġats par
Ġj oje
eiv iÅ³
j ei
Ġ201 0
Ġnaudoj ant
Ġfutbol o
Ġb ak
Ġli tÅ³
am u
Ġj a
Ġstud ij
Ġli aud
Ġprojek tÅ³
av imu
Ġorganiz acijos
ĠsÄħ mon
tim Å³
Ġmin im
Ġpalaid inÄĹs
Ġgalim ybÄĹs
Ġres tor
ki tÄĹs
ãĤ ¢
ÄĹl Ä¯
in ame
ov iÅ³
ĠtÄĹ vai
eis tas
me Äįio
usi as
t yti
Ġver ta
Ġp ol
Ġmin uÄįiÅ³
Ġknyg Å³
en c
Ġinternet e
e jÅ³
Ġfil osof
Ġreikalav imus
Ġdokumen tÅ³
Ġl ak
Ġpasirink imas
ut ÄĻ
Ġ 000
Ġki auÅ¡
Ġpoil si
iÅ¡ ki
ĠsÄĹkm ingai
Ġpra ÄĹjus
ĠÅ¾mog ui
Ġsu mok
Ġlig os
en as
toj us
Ġturi u
Ġvok ieÄįiÅ³
im ok
Ġsvar bus
Ġvilkav iÅ¡kio
ut es
Å¡k os
Ġrie b
Ġnuo Å¡
Ġatkr eip
Ġm eis
Ġg il
Ġmoter ys
Ġap im
Ġv eis
Ġpuik us
ĠrÅ« gÅ¡
Ġlaik raÅ¡
2 6
Ġprasid ÄĹjo
Ġkrauj o
ink ti
Ġpat enk
at u
Å« g
Ġv on
us iems
Ġm Äħst
on s
Ġrud en
n oj
Ġnaudoj amas
Ġat Å¡
Ġs te
ĠÄ¯staig os
Ġdalyv iai
Ġd ev
ti c
Ġnei gi
im osi
ieri us
ik as
Ġkon tak
Ġofi ci
Ġj ÄĹz
Ġpa aug
Ġp ens
ok ur
Ġnep ais
Ġpinig us
Ġkom entar
Ġsek m
Ġplauk Å³
Ġdalyk Å³
Ġprie tais
Ġkiekvien o
yb oje
k ad
Ġst alo
Ġsi gn
gi u
ĠÅ¾iÅ«r ov
ki t
Ġs an
", "
Ġpamat yti
Ġpriemon es
Ġpasirod ÄĹ
Ġpoli tikos
ãĤ¢ ãĤ¢
amas is
in ÄĻs
Ġnegal ima
Ġtarp us
ĠkrepÅ¡ inio
ai tis
Ġgr ÄħÅ¾
ĠsuÅ¾ ino
Ġvalstyb iÅ³
Ġkr is
ĠtÄĹv Å³
Ġnuos av
Ġskirting Å³
tik Äħ
Ġpav ir
ĠÅ¡ var
Ġeis mo
Äįi oje
Ġmon t
in imu
ĠÄ¯si pareig
Ġtur in
Ġduomen imis
ÄĹ kl
Ġtur bÅ«t
Ġlygi o
Ġpasid al
Ġb ud
uo liÅ³
Ġspalv Å³
ĠkaÅ¾ kÄħ
Ġint ensyv
uoj asi
Ġpas ie
Ġs ienos
Ġvyr Å³
Å¡k Äħ
ĠÅ¾vaigÅ¾ d
iÅ¡k Äħ
Ġbr ang
Ġprad Å¾iÅ³
s Äħ
ĠaukÅ¡ t
Ġpr ov
Ġtink amai
Ġvie tas
ĠiÅ¡ tek
tor ÄĹ
Ġvar ik
ĠkaÅ¾ kas
Ġb aud
ĠpanevÄĹ Å¾io
av imai
ini ui
v eÅ¾
Ġ8 0
Ġklas ik
Ġamerik os
2 1
Ġar b
p h
Ġnuk r
Ġd ol
tu kas
Ġpap uoÅ¡
ĠmedÅ¾i o
Ð¾ Ð
Ġdirb o
l and
iÅ³ sti
aid a
yb ÄĹje
Ġsupr ant
Ġv ik
Ġpat Ä¯
Ġkons ul
Ġol im
2 8
Ġnaudo tis
al inis
tom s
ĠnebÅ« tÅ³
eli ais
Ġdek lar
ĠÄ¯gyvend inti
Ġnak tÄ¯
Ġm ad
Ġne to
Ġgali u
ei pi
yp s
oj imÅ³
Ġfil m
Ġpag eid
Ġklub o
Ġb ui
m ed
Ġkok ie
Ġ200 9
Ġform a
Ġvisuo met
Ġmar Å¡
Ġkok Ä¯
Ġnes i
Ġprie d
Ġs eri
Ġkar ali
2 7
Ġmar Å¡k
ed er
pir k
ĠlÄĹk tuv
Ġop tim
p ek
Ġvid uje
Ġprog a
av ÄĻ
Ġre cep
Ġbuv au
Ġpr av
ĠÄ¯k v
ĠiÅ¡g yven
ĠiÅ¡ aug
Ġrus Å³
Ġsu v
Ġnam ai
Ġst ri
Ġmir ties
Ġk yla
d os
Ġber ni
Ġk eisti
Ġsur eng
tys e
Ġnauj i
Ġr eiki
Ġa bi
Ġpasik ei
t ei
Ġver tÄĹ
Ġki Å¡
ys ite
yb ei
Ġdarbuotoj ai
Ġpan aik
âĢ¦ ]
ĠÅ¡vent ÄĹs
avi Äįius
Ġtarpus av
Ġteis ÄĹ
Ġ3 5
Ġnes eniai
Ġs erg
b ur
Ġnuos tabi
Ġe ki
Ġfesti val
Ġatsir anda
an Äħ
Ġ( âĢŀ
Ä¯ s
Ġmoksl Å³
Ġr en
Ġpie Å¡
end r
Ġes ate
en Äħ
Ġpat inka
Ġatsir ado
Ġp ig
Ġmarij amp
ĠiÅ¡ kil
e f
Ġpasak ojo
ĠdaÅ¾ni au
Ġkreip tis
Ġin Å¾in
to k
Ġkl ini
ÄĹj ui
Ġbank o
ol ÄĹ
Ġlietuv ai
Ġjuod a
ĠiÅ¡s ir
2 9
Ġpri tar
Ġkalb ÄĹti
Ġsk ys
Å¡ kio
Ġsub jek
Ġh tt
ab ej
ĠsÄħ n
Ġkomis ija
ĠvarÅ¾ yb
o ta
Ġsutar tÄ¯
el s
Ġregi on
od ami
Ġvid u
Ġpatal p
Ġm ama
ĠÄ¯staig Å³
= =
Ġrank Å³
Ġr a
Ġkunig aikÅ¡
g e
Ġger Äħ
Ġat Å¾
Ġbe je
Ġx x
Ġak c
ul p
Ġrink imÅ³
Ġlig Å³
am osios
Ġfesti v
l am
yn ÄĹ
c ar
ting as
Ġmokykl Å³
Å¾i ais
uo ÄįiÅ³
Ġpam ink
e ti
on ijos
Ġt uÅ¡
Ġter m
aÅ¾ o
Ġaud i
d y
Ġvys kup
ri Å³
Ġte ori
Ġgimnaz ijos
Ġvit am
ik ai
Ġspecialis tai
p il
Ġ eiti
Ġgali ausiai
in imÅ³
Ġnet ek
Ġ200 8
Ġne Å¡i
m iÅ³
tum Äħ
g ar
Ġmoder ni
g yven
Ġb aim
at us
Ġgyd ymo
Ġj ais
anÄįi a
Ġsuteik ti
er Ä¯
Ġmo teri
tin ti
Ġsim bo
Ġdalyv iÅ³
met Ä¯
ĠdÅ¾iaug i
Ġ ÄĹmÄĹ
Ġre al
Ġsav imi
iÅ¡k os
Ġtikr as
Ġtais ykliÅ³
Ġveiksm Å³
ang Äħ
Ġt ra
Ġministr as
Ġsprend imo
ĠÅ¡i a
Ġang lÅ³
Ġlietuv iai
vil g
Ġr ami
ant ai
en tus
j ame
Ġ[ âĢ¦]
Ġger o
Ġsav ÄĻs
Ġm ini
in asi
Ġsk an
at or
Ġpirk ti
ti r
oj imÄħ
Ġkat ali
Ġaptar n
Ġsusis iek
Ġglo b
d u
Ġvis oje
ter n
li uose
Ġap klaus
ĠuÅ¾p ild
Ġinter jer
Ġrei Å¡k
Ġpla Äįiau
Ġleng va
ter is
e in
Ġsk aid
Ġnuos tab
in tÄħ
Ġdalyk as
Ġnetr ukus
Ġap yg
ov a
Ġnaudoj imo
Ġpavy zd
Ġpask ai
em a
Ġapskri tai
Ġveid o
Ġar t
oj u
Ġkuri ais
Ġg o
Ġvand uo
Ġsav ar
z ÄĹ
Ġar m
Ġpav ard
m ui
Ġpavad uotoj
Ġs ank
n t
Ġnel aim
ik Å³
ing u
in imai
9 9
Ġsu Å¾in
Ġapyg ard
ti pr
Ġadministra cijos
Ġau torius
Ġprofesi on
k on
Ġlengvi au
ei kiÅ³
b et
ri us
Ġar g
ĠÅ¡ lap
Ġtikr Å³jÅ³
Ġklien tÅ³
Ġti ems
ĠiÅ¡s is
s r
Ġp om
Ġ avi
Ġsutar ties
eik ÄĹ
uo kite
Ġkiekvien am
Ġs id
yd avo
ys is
Ġnuo rod
Ġneat s
Ġl av
g ali
Ġ3 1
Ġek olog
vil ni
Ġsm ulk
ym e
Ġgalim ybiÅ³
ð Ł
v os
t Å«ra
ĠÅ¡i aip
Ġkontr oli
Ġg an
ĠÄ¯d omi
Ġministeri ja
Ġpas ek
ori o
ĠiÅ¡ ties
Ġgal o
Ġlink sm
Ġpareig as
sni ai
men s
ĠprieÅ¾as ÄįiÅ³
Ġasmen ims
p ai
ki ais
et er
Ġatsir ad
Ġper nai
Ä¯ sta
ĠuÅ¾ raÅ¡
eri u
Ġkons erv
g ub
Ġtechnolog ijos
men ys
Ġgr ÄĹs
ail a
Ġbal tar
Ġsitu acija
g in
Ġasoci acijos
Ġes mÄĹs
ĠÄ¯ manoma
Ġp eri
Ġrink oje
uod amas
ĠÅ¾mog Å³
ĠplÄĹtr os
Ġgar so
Ġger b
ĠiÅ¡v engti
Ġkuri am
Ġp ublik
Ġbuv ÄĻs
Ġsprend imus
Ġteritori joje
Ġpra ÄĹjusi
Ġpirm oji
Ġteig imu
e tikos
ĠtaÅ¡k Å³
Ġpus ÄĹje
Ġnori u
i Äħ
ĠÄ¯g Å«
Ġa bu
ie tis
ĠÄ¯vertin ti
Ġvis ame
l es
Ġx i
ar ba
Ġgr and
ĠieÅ¡k o
Ġb Å«r
Ġgeri ausia
Ġpap as
ĠÄ¯r an
ĠÅ¡i as
Ġne kil
ĠpradÅ¾i os
anÄįi ai
Ġdi pl
m is
Ġpavad inimas
Ġisp an
Ġmak sim
Ġpreziden tas
Ġsm ul
Ġkiek is
Ġsun kiai
Ġ7 0
Ġp ieno
skait ant
Ġ ink
ent ais
inink us
Ġklaus imÄħ
Ġaktyv iai
Ġkons ult
Ġp ÄĹd
Ġsta tis
Ġp ul
gr es
Å¡k o
yb ÄĹmis
Ġpam irÅ¡
ĠÅ¡iau r
ã ģ
4 5
Ġsm eg
atori aus
Ġpar ap
Å¾i aus
Ġvie tov
i as
Ġgatv ÄĹs
ĠuÅ¾s id
pr ÄĻsti
Ġporeiki us
Ġnaudoj ami
Ġtiesiog iai
ĠÄ¯si vaizd
Ġvys t
Ġf l
inti es
Ġilg a
Ġnep asi
Ġmokykl Äħ
Ġproblem as
Ġpaj amÅ³
Ġprem jer
Ġpasaul is
k m
v ys
Ġpad ÄĹ
! !
Ġdan tÅ³
Ġats ilie
ĠuÅ¾s is
Ġautomobil Ä¯
Ġs h
k ÄĹ
Ġok up
Ġfinans Å³
ĠÅ¾ vilg
Ġj u
eri a
Ġgar si
Ġpri z
ĠuÅ¾si ÄĹm
ĠÅ¡ ar
Äħ Å¾in
ĠmÄĹn esio
Ġvyr ai
a ino
Ġgar anti
s a
Ġsugr Ä¯Å¾
Ġegz am
ti l
ĠÅ¾ino ti
esni us
Ġplo tis
Ġj uri
Ġrankov ÄĹmis
Ġkov os
Ġre form
Ġk iem
tos ios
Ġknyg Äħ
jung ti
Ġt es
aun a
Ġrezultat ai
Ġsus il
ĠgeleÅ¾ ink
Ġbendr ovÄĹ
Ġap ar
Å«r imo
Ġsv et
Ġatliek Å³
Ġb esi
Ġlaik Å³
Ġpo Å¾iÅ«r
Ġpar aiÅ¡k
Ġal eks
Ġf ir
ei Å¡kia
Ġdu jÅ³
Ġati tinka
Ġkiekvien a
ĠdidÅ¾i ausias
ĠÄ¯st eig
Ġv l
Ġkomp ens
er c
p or
Ġstruk tÅ«r
Ġpapras ta
Ġekonom ikos
Ġsi ur
acij ai
Ġnes k
ĠiÅ¡g ir
ĠdÄĹ ka
Ġdalyv auja
al aik
w s
v yd
Ġmin tis
ww w
ĠÅ¾ais ti
Ġant ra
Ġdek or
Ġt end
ÄĹl ap
inti ems
eiti mo
in amos
auj ant
Ġl Äħs
av ome
Ġkomun ik
Ġkompl eks
Ġdain Å³
ĠpaÅ¡ to
ei kio
Ġm Å«
ĠÅ¡ven tÄĹ
Ġvis ur
Ġj onas
ĠâĢ ĺ
Ġpaskelb ÄĹ
Ġpasak oja
bi o
Ġsutar tis
Ġreik ÄĹs
ÄĹ tume
t iniu
tas is
yn Å³
et os
Ġsm ag
Ġliter atÅ«ros
Ġsvar st
ik s
Ġj uok
Ġvykd yti
n u
ĠprieÅ¾as tis
Ġpat yr
an is
Ġministr o
Ġvietos e
aus ti
ys ime
Ġpagrind inÄĹ
Ġnemok amai
Ġp uol
to no
Ġt y
sk is
ĠmÄĹnes iÅ³
Ġ( "
Ġs ap
ÄĹj imÅ³
Ġm om
Ġraud on
Ġst al
tr Å«k
Ġsv eÄįi
Ġprasid eda
Ġsuk Å«rÄĹ
Ġvis ais
Ġh i
Ġstat yb
Ġat gal
Ġ3 6
ra cija
Ġpr okur
lik a
Ġsez ono
Ġ200 7
Ġskyri us
Ġn o
Ġneto li
Ġrezultat us
Ġkuo met
Ġd on
Ġl ond
Ġpriemon ÄĹ
Ġs tor
ej us
Ġre ak
Ġvis gi
Ġkonf lik
Ġgeri ausias
Ġproced Å«r
ĠdidÅ¾i ul
Ġt ÄĻs
Ġatliek a
Ġgim ÄĹ
bi li
p el
bi ai
Ġskai ÄįiÅ³
ĠpaieÅ¡k os
Ġm egz
evi Äįiaus
Ġv ag
Ġil giau
to liau
ĠÅ¡vies os
9 0
eb o
3 5
ĠÅ¾em ÄĹlap
Ġbal ta
k et
Ġmie stÄħ
Ġned aug
am iesi
Ġ4 5
Ġgar ant
Ġatei tyje
Ġor ien
v as
yn e
Ġnepam irÅ¡
Ġgyv Å«nÅ³
ĠbaÅ¾ny Äįia
ĠsÄħlyg os
Ġp e
Ġlais val
Ġvalst ybÄĹ
Ġko kiÅ³
v iÅ³
Ġt ams
Ġt eikia
Ġkalb Äħ
ÄĹ tumÄĹte
Ġh ar
ĠpasiÅ«l yti
Ġvard u
Ġbl ok
tel ÄĻ
Ġsk am
n el
Ġl eisti
Ġdi ag
Ġnen ori
m m
Ġgyven o
Ġsu form
Ġdokumen tus
men Ä¯
es u
ĠrÅ«p es
Ġnor ÄĹdami
Ġp uod
y ra
Ġati tik
Ġspor tinink
Ġlie ka
Ġkom pozi
Ġanks to
Å¾ al
Ġnepais ant
Ġnus teb
y tu
oj us
Ġpag aliau
ĠiÅ¡r ink
Ġalko ho
Ġatr ank
Ġb ais
Ġnem at
ĠsÄħraÅ¡ Äħ
ĠÄ¯dom u
uo to
Ġg elb
Ġbal t
Ġpreziden to
d ymo
Ġpareig Å«nai
Ġne abej
Ġgeri ausiai
y ni
uoj antis
ting a
Ġtikr Äħ
Ġklaus imÅ³
or e
Ġpav yko
f in
en ÄĹ
um p
ĠsumaÅ¾ inti
ieri aus
r is
Ġpavir Å¡i
Ġdur Å³
av a
Ġlau ki
Ġ ais
Å¡k Å³
ĠrÅ« Å¡iÅ³
ĠkrikÅ¡Äįi on
Ġkai mas
u liÅ³
Ġs ch
Ġantr Äħ
Ġket ur
Ġf ond
Ġaki vaizd
tr as
Ġsud er
Ġpabaig os
Ġkoki Äħ
Ġbri tan
Ġtik im
ĠsusipaÅ¾ inti
p av
cij omis
Ġvien oje
Ġgal u
Ġdiz aino
Ġsti liaus
Ġklub as
aus kaitÄĹ
Ġro Å¾
Å¡ Ä¯
av usi
Ġg ied
iÅ¡k Å³
vi ai
Ġvyk st
Ġkai me
Ġkontr olÄĹs
ĠpaÅ¡ tu
Ġ os
Ġpab rÄĹÅ¾
ĠÄ¯tak os
Ġparduotuv ÄĹje
ing umÄħ
Ġrezultat Å³
Ġstri uk
tim us
Ġpasir Å«p
sn Ä¯
Ġaug a
Ġmet rÅ³
Ġsen iai
Ġgr yb
Ġd ai
ĠmiÅ¡k o
Ġpas p
Ġnes us
Ġautomobil is
Ġpapas ak
Ġv iÅ¡
Ġp ÄĹs
Ġsocial iniÅ³
Ġkiek Ä¯
Ġd Å¾
Ġprek es
ti fik
Ġtikri ausiai
ĠiÅ¡laik yti
ykl os
tik Å³
al d
li d
ÄĹ t
Ġats arg
v eg
Ġx vi
Ġdepartamen to
ti e
Ġnekil noj
yk sta
Ġreik ÄĹjo
Ġvaik ui
aus ko
Ġd ub
Ġatsi tik
oj ant
Ġsu per
Ġveik ti
Ġtvark os
Å¡ o
uod ami
Ġpran aÅ¡
Ġa c
Ġpri r
pal aid
Ġreg ist
Ġlenk Å³
Ġvien am
g er
Ġin ov
ing umas
Ġdid elÄĹs
Ġjuri d
Ġner etai
Ġd aliÅ³
Ġkonkur so
Ġsveta inÄĹs
Ġk au
Ġnel abai
Ġtrup utÄ¯
c a
Ġ ali
Ġvalstyb inÄĹs
Ġtyr imai
st us
Ġdefek tÅ³
ÄĻ si
Ġnug alÄĹ
yt aus
Ġpo Å¾iÅ«ri
Ġpa kl
Ġsprend imÅ³
0 5
al inÄĹs
Ġnen us
Ġt ep
Ġpatir ties
ĠmarÅ¡ ru
ĠpradÅ¾i a
Ġlaik yti
ĠbÅ«d avo
Äį ienÄĹ
Ġ '
Ġjo kio
ykl a
auk ÄĹ
Ġsus tipr
Ġpar y
ki as
u lio
s v
Ġpasi baig
Ġp ili
ĠuÅ¾tikr ina
Ġmok ytis
Ġm ol
Ġap a
tim is
. :
Ġats ik
Ġdail ÄĹs
Ġtau ragÄĹs
inink u
Ġpirm as
Ġmuz ika
ys tÄĹje
Ġnetik ÄĹ
ÄĹd avo
Ġg ul
Ġauto ma
Ġv o
eri ja
Ġplas tik
Ġchar ak
Ġproces as
ir g
ri ai
ys tÄĻ
Ġs a
Ġnuo ma
in imus
Ġteleviz ijos
Ġdirek toriaus
Ġpral aim
Ġprog noz
Ġt ab
Ġskait men
Ġjo kios
k om
ĠaiÅ¡ kiai
Ġtyr imas
Ġveik s
Ġne dar
0 7
Ġlaikotar piu
Ġug n
ĠÅ¾v ej
Ġkomp eten
b ir
ĠmÄĹnesi us
Ġod a
c ikl
Ġkl im
ĠÄ¯r angos
Ġlenk tyn
yn Äħ
d r
Ġgro Å¾io
Ġsu Å¡
ĠneÅ¡ io
Ġp aim
il g
Ġreng inio
ĠaÅ¡ tuo
t ÄĻs
Ġt ave
ĠiÅ¡ vaizd
Ġspr ÄĻsti
Ġ9 0
Ġsitu acijÄħ
ty ni
Ġvertin imo
Ġatlik o
Ġpab ÄĹg
al ap
Ġapskri ties
acij oje
Ġmies tÅ³
Ġliaud ies
on ÄĹs
Ġkvie Äįia
ytoj o
tr auki
Ġ5 00
l u
ĠkvieÄįi ame
eis ta
jos e
m erg
t he
Ġsus tab
p v
Ġnuo d
aÅ¾ as
Ġpirm osios
Ġst eng
ol as
Ġsteb uk
ar s
v ed
Ġv am
Ġdid elÄ¯
Ġsk yr
Ġbr angi
ĠiÅ¡k art
Ġ us
ĠatsiÅ¾vel giant
Ġvienin telis
vie tÄĹ
Ġgra Å¾iai
b ÄĹ
ting ai
Ġteik ti
Ġkur o
Ġci vil
Ġsukn elÄĹ
tadien io
Ġaug alÅ³
Ġver tÄĹs
Ġti pas
Ġm ind
ĠsÄħlyg omis
Ġh um
Ġmok ÄĹti
ĠiÅ¡ mat
Ġpa pl
Ġn aÅ¡
Ġe p
Ġskl yp
Ġvakar Äħ
ÄĹl ÄĻ
Ġf eder
ĠreikÅ¡ m
Ġsaug os
Ġnuomon e
trauk ÄĹ
Ġvid uri
j or
Ġto li
ÄĹj u
ta cija
Ġskiri asi
Ġpavel do
s tu
oj ama
Ġdid elio
ĠsiÅ«l ome
Ġskl y
Ġgyv Å«n
Ġkat ed
Ġsri ties
ĠsuÅ¾ino ti
Ġdal ys
Ġsk ulp
Ġklaus imais
an tu
t avo
om us
Ġnusprend ÄĹ
ĠiÅ¡ im
uo liai
kiri a
Ġlig a
ĠneÄ¯ manoma
Ġr u
Ġlaim ÄĹjo
Ġkeli a
Ġm ig
Ġtelef onu
v ÄĹs
Ġes Äħ
Ġin tel
Ġn ag
al Å«s
ĠapÅ¡ vie
ĠÅ¡al Ä¯
tiÅ¡k as
Ġk en
Ġparod a
ĠuÅ¾ im
Ġtik ra
ÄĹ tina
ĠpirmÄħ jÄ¯
Ġprek yba
Ġeil ÄĹs
ĠiÅ¡sk yrus
Ġ ðŁ
f as
Ġpaskol os
ĠbiudÅ¾ eto
Ġpastat o
Ġli p
Ġtvark ymo
Ġpagrind inÄĹs
toj i
im os
Ġtr o
Ġ200 0
Ġat mos
spek tyv
Ġbaig ÄĹ
r on
var bu
Ġnauj us
Ġproblem os
Ġb audÅ¾i
Ġv en
Ġeksper im
Ġsk and
h t
ÄĹ gi
Ġpramon ÄĹs
Ġinte gr
Ġpatir tis
Ġb ag
Ġ3 8
Ġbendr as
Ġsk und
Ġdv iem
v ÄĹ
Ġp ien
gan iz
Ġpo bÅ«
ĠÅ¾aid imas
Ġreikal ingas
Ġk ÄĹl
ok as
Ġi v
ĠatÅ¾ vil
ur ti
p e
ĠÅ¾aid imÅ³
Ġprojek t
Ġvarto tojÅ³
usiÅ³ jÅ³
Ġ3 00
in ÄĹjo
Ġak tÅ³
Ġod Äħ
ĠÅ¡ au
Ġbaltar us
ÄĹj imus
Ġnen or
Ġ )
Ġgin Äį
Ġr Å«k
Ġman ÄĻs
Ġdiev as
Ġv eter
Ġnet ink
ĠvaldÅ¾i a
tern atyv
Ġkr uo
t et
Ġvanden Ä¯
Ġap Å¾
Ġsut vark
in ter
Ġpatir tÄ¯
Ġleg end
Ð »
Ġvid eo
Ġpalyg inti
d em
Ġdyd Ä¯
ĠÄ¯kv ÄĹp
ĠÅ¾aid imai
Ġal ytaus
Ġpagrind iniÅ³
Ġdom in
Ġlatv ijos
Ġpirk imo
Ġkaun as
Ġsovie tÅ³
ÄĹj osi
engi a
Ġteis es
Ġs in
Ġmas kv
Ġv ic
Ġdaug elio
Ġnus il
aug os
Ġkompan ijos
t al
Ġko kio
Ġvaland Å³
Ġkitos e
Ġpus ÄĹ
Ġkos ti
yk s
Ġper spektyv
Ġl y
aj ai
ĠÅ¡im t
Ġgal e
Ġkal end
Ġsid ab
Ġsez onÄħ
Ġe v
Ġh id
fik s
Ġkri teri
Ġkil omet
Ġsavait ÄĹs
Ġpadar ÄĹ
ĠÅ¾aid imo
Ġkok ybÄĻ
Ġpad ÄĹjo
Ġsanty kius
Ġlaik rod
ĠsÄħlyg Å³
Ġsistem Å³
ar ch
Ġkil mÄĹs
Ġp usi
ĠÅ¡i am
Ġspecialis tÅ³
tuv ai
auk ti
Ġparod ÄĹ
Ġvytau to
vo liu
Ġvyri ausi
ĠruoÅ¡ i
Ġkap it
7 5
ĠpaÅ¾ Ä¯st
ĠÄ¯ skaitant
Ġgatv ÄĹje
Ġh a
Ġli Å«d
um is
Ġrad ijo
ĠÅ¡ yps
Ġapib Å«d
Ġrank as
Ġtoki as
ĠpraneÅ¡ ÄĹ
ĠuÅ¾sien yje
Ġrink tinÄĹs
Ġpagal bÄħ
Ġkompan ija
Ġnepriklausom ybÄĹs
ã ĥ
Ġsudar yti
Ġli ber
aj am
et ÄĹ
Ġregi ono
Å¾i au
Ġpat ais
ak tyv
Ġpask at
Ġmoksl ininkai
ov ÄĻ
Ġnes ug
Ġpo ten
ie r
Ġsanty kiÅ³
ĠÅ¾yd Å³
19 9
Ġatsilie p
Ġtechn ika
Ġnauj ienos
Ġsudar ÄĹ
vi o
uv os
Ġvien od
Ġe ina
Ġmerg ina
Ġaplink Äħ
ÄĹj imu
Ġre ag
ĠprancÅ«z ijos
Ġtar yba
Ġg ais
Ġup ÄĹs
Ġneb e
Ġek sk
tim ai
Ġinf ras
Ġtechn ikos
Ġbuv usi
lo at
Ġal ternatyv
Ġenerg etikos
Ġp au
in antis
Ġproduk tai
ĠpaÄįi Äħ
Ġform Äħ
Ġvyriaus ybÄĹ
ij au
av osi
ys iu
ie st
Ġtap s
Ġm y
ĠmiÅ¡k Å³
ite to
Ġged im
Ġpasir odo
Ã ©
Ġmod elis
Ġdaug iausiai
Ġvar das
Ġsk u
Ġpap raÅ¡
Ġkredi to
Ġkv ÄĹp
Ġdel fi
g l
eik Å¡
Ġs ÄĹkl
ĠatÅ¾vil giu
Ġas pek
uoj am
Ġsal ÄĹje
Ġgeri ausiÅ³
Ġet n
Ġpos ÄĹd
aik yti
Ġst ad
Ġproduk tus
Ġauk so
in ÄĹja
d eÅ¡imt
Ġtemper atÅ«ra
Ġnor veg
Ġdur is
Ġsuk elia
Ġkariuomen ÄĹs
o u
Ġreikal inga
Ġsukur tas
ĠbÅ« tin
li g
et ÄĹs
Ġko ord
ad Äħ
Ġpasi p
Ġpasi taik
Ġvytau tas
Ġk uk
Ġnauj ai
ĠÅ¾iem os
Ġdaug ybÄĹ
Ġn av
Ġn aik
Ġsk aud
Ġvadov ÄĹ
Ġinfras truk
Ġsm ar
Ġa kiÅ³
Ġatrod ÄĹ
Ġgr yn
sni u
Ġkult Å«ra
Ġ &
Ġprim ena
ĠpasiÅ¾ym i
3 3
Ġrez erv
c es
ĠÅ¾mon ÄĹmis
p Å¡
tr Å³
Ġd es
Ġc om
Ġpali kti
Ġgr Å«d
ap ie
ta Å¾
Ġpasiek ÄĹ
Ġpav er
t iniais
Ġnaudoj ama
l en
Ġkom it
Äįi uose
Ġc ar
Ġr and
Ġtarptau tinÄĹs
Ġnep aÅ¾
Ġdraug e
Ġser tifik
or tas
e ki
iÅ¡k o
vi u
Ġ3 4
ĠdÅ¾i ug
Ġpab and
Ġmoter ims
Ġpatvirtin imo
Ġdid esnis
Ġ om
Å¡k us
Ġpas im
Ġturi zmo
amas i
d id
Ġn ub
Ġr ieÅ¡
Ġdet al
og le
Ġau Å¡
Ġ200 6
Ġmind aug
Ġintel ek
Ġgaun a
ĠtÄĹv as
ĠÅ¾mon a
Ġrezultat as
0 3
Ġsusij ÄĻ
Ġkr ist
Ġlyg os
Ġbendr Äħ
Ġd ed
Ġat min
Ġpirm ojo
Ġu ten
Ġvir us
tik ai
Ġkom iteto
Ġpl y
ar aÅ¡
Ġpristat ÄĹ
Ġ ei
ĠÄ¯tak Äħ
Ġgalv Äħ
Ġn os
ri a
Ġstat us
Ġgro Å¾
ac ebo
Ġla zd
Ġvien ame
ĠdidÅ¾i osios
au tÅ³
Ġsun aik
ĠÄ¯vairi us
au tis
Ġklas iÅ³
ĠuÅ¾d eg
ĠtrÅ«k sta
Ġtap at
g ir
Ġdaug ybÄĻ
Ġdvi gub
m er
Ġplat form
Ġr at
Ġmed vil
ir k
Ġsv eÄįiÅ³
Ġskat ina
b erg
esn es
uk ais
Ġdid eliÅ³
Ġuniver s
Ġinstitu cijÅ³
uo kl
Ġpor Äħ
ĠÅ¾in omas
Ġpr ev
ĠÄ¯ trauk
Ġsti l
ĠiÅ¡si aiÅ¡k
Ġreng iniÅ³
0 9
ĠklaipÄĹd oje
ĠiÅ¡k ov
Ġfon do
Ġes i
Ġmuziej us
Ġkelion ÄĻ
Ġatstov as
ak tar
Ġukra inos
ĠÄ¯stat ymÅ³
Ġdraud Å¾i
Ġremi antis
Ġin spek
Ġfil mas
l og
Ġvaland Äħ
Ġstipri ai
Ġsun ki
te ka
ĠuÅ¾d uotis
Ġnesu pr
Ġkal tin
Ġe x
Ġvis ko
Ġl aÅ¡
Ġbas e
Ġiz oli
u c
Ġreikalav imÅ³
Ġsavait gal
Ġd eb
Ġsm ur
Ġpak ar
man o
Ġp uos
ÄįiÅ« tÄĹ
Ġf iks
Ġnereik al
Ġb eg
Ġr et
Ġstud entÅ³
Ġprogr amÅ³
ver s
y to
Ġtink lo
Ġvanden iu
Ġdid eli
Ġe tik
te chn
k ime
ĠÅ¾em ai
Ġorganiz acijÅ³
ausk ienÄĹ
al iniÅ³
Ġstr es
0 6
Ġmoter s
Ġauto mat
ĠmÄĹlyn a
Ġmet ams
ĠraÅ¡ ÄĹ
en u
ĠiÅ¡d ÄĹs
Ġsteb ÄĹti
Ġstraipsn is
Ġstik l
Ġtr au
Ġsri tis
Ġap at
Ġi gn
Ġc er
Ġmo to
ĠvÄĹ li
Ġolim p
Ġspeci aliai
Ġprak tiÅ¡kai
ĠÅ¾od Å¾iÅ³
Ġpov eikio
Ġypat ingai
Ġsusid ar
Ġkil o
ov imo
Ġnuotrauk os
5 5
Ġsavivald ybiÅ³
Ġankst yv
Ġti ki
ÄĹ tos
Ġn i
ĠÅ¾iem Äħ
Ġtiks liai
ĠÄ¯vairi as
Ġarch yv
h i
Ġfil mo
Ġor k
ĠkiÅ¡ en
to nas
Ġsant yk
Ġatsp ind
Ġbald Å³
Ġver tus
Ġkod eks
Ġan s
Ġtelef ono
p ard
Ġkambar io
sni us
Ġ Ġ
Ġdr Äħ
Ġvar g
Ġk avos
Ġh ig
Ġpo ra
Ġmokytoj Å³
Ġmuziej aus
ĠneÅ¾in au
Ġtemper atÅ«r
Ġpastat Å³
uk u
ĠÅ¾ai dÅ¾i
Ġalkoho lio
Ġpapild omai
in au
st ai
l Ä¯
Ġf ig
ĠuÅ¾ g
4 4
Ġmechan iz
Ġsum a
s tom
f r
on ui
Ġeksp loat
Ġlab or
Ġat ÄĹjo
Ġpad ed
ĠsÅ«n us
Ġmir ÄĹ
tel es
Ġm yg
Ġnaudoj a
Ġpavasar Ä¯
Ġgin tar
ĠâĢ ¦
Ġin fek
Ġperi od
tin ei
yd ama
Ġvaland as
Ġdraug Å³
k aun
Ġuniversit ete
Ġapygard os
uo t
ĠdÅ¾i ov
Ġkoord in
Ġ15 0
Ġmeil ÄĹ
ĠaukÅ¡ tis
Ġtr as
anÄįi am
Ġim a
Ġki tu
Ġ200 4
h al
Ġr aid
ĠbÅ«d Å³
Ġobjek tÅ³
l ys
Ġskir tos
acebo ok
Ġplo tas
ĠnÄĹ Å¡
Ġsavivald ybÄĹ
ĠpanaÅ¡ iai
Ġgrup iÅ³
Ġdid elÄĻ
s en
Ġatei ties
Ġne ati
Ġruden Ä¯
Ġ3 3
Ġgrei Äįiausiai
Ġb aus
" )
adien io
Ġglo bos
Ð º
Ġk aul
Ġnu Å¾ud
Ġav ar
Ġkontr ol
Ġkeli u
Ġki tomis
Ġmarijamp olÄĹs
id as
Ġpriv at
Ġaf rik
o z
or Å³
Ġal yv
yn iÅ³
Ġsveik atai
ĠdidÅ¾i ausia
ĠÅ¾ ar
ÄĹ li
ap l
av imus
Ġkel etas
Ġin st
ĠpasiÅ«l ymus
Ġnep er
Ġed uk
Ġmais tas
Ġlr t
Ġremon tas
ant Äħ
ĠÅ¾ ie
Ġpenk tadienÄ¯
p ad
Ġd ata
Ġmin er
Ġreikal auja
Ġsv orio
ĠmÄĹg sta
is tai
Ġid ÄĹja
Ġeil ÄĹ
Ġg ai
Ġf er
ĠpobÅ« dÅ¾io
Ġkai r
n ep
Ġtau tÅ³
Ġpok alb
Ġgali a
ĠÅ¾ ad
te to
Ġ200 5
Ġsav ai
Ġauk s
0 4
Ġd aktar
ĠtÅ«kst anÄįiÅ³
Ġsiek ti
an os
Ġkoki us
ĠÅ¡i ukÅ¡
Ġlie p
Ġkom erc
ang as
Ġl Å«
ĠÅ¾iÅ«r ÄĹti
Ġv ol
Ġk ÄĹd
Ġpar ko
mok es
Ġsukur ta
Ġlygi ai
Ġnem al
ov e
a y
ov Å³
Ġpoveik Ä¯
Ġti tu
pir kti
Ġkod as
ĠuÅ¾ ÄĹmÄĹ
Ġapskai Äįi
ĠÅ¾ini os
ĠjÄĹg a
Ġrungtyn es
Ġkonkr eÄįi
ĠuÅ¾d av
Ġkain Å³
Ġatmos fer
ĠdÄĹs t
in usi
ĠdidÅ¾i ojo
Ġ3 7
av imÅ³
k op
Ġin str
ĠraÅ¡ yti
Ġvokieti joje
ac k
Ġsk on
ri d
Ġap rib
Ġat neÅ¡
ĠpaÅ¾ ad
cij oms
ang l
en cija
Ġsupr at
ĠbÅ« tinai
ik o
Ġpatal pÅ³
Ġmat yt
Ġlaik ui
Ġvald ybos
Ġkar tos
Ġa ÄįiÅ«
Ġgrup ÄĹje
Ġproces o
uoj anÄįiÅ³
Ġil gio
Ġats in
Ġc on
Ġpad ÄĹk
Ġfestiv alio
Ġpasak ÄĹ
Ġform ul
eivi ai
us is
Å¡ is
Ġt ame
Ġg ud
Ġapylink ÄĹs
ĠÅ¡eÅ¡ tadienÄ¯
6 5
Ġv an
ĠuÅ¾ fiks
h ol
Ġbendradarbi avimo
Ġparod yti
Ġpirm ÄħjÄħ
ĠÅ¾ yg
oj ame
Ġv eng
ĠdidÅ¾i oji
Ġb liz
Ġhtt p
Ġnes varbu
Ġrus ija
Ġbibliotek os
tu kÄħ
Ġdur ys
Ġkos me
v es
ĠÄ¯var d
Ġnak v
Ġnor isi
t var
Ġparduotuv ÄĹs
Ġtau p
Ġes m
Ġaplink a
Ġgam yba
Ġlauk e
Ġmokytoj a
Ġj an
Ġatr ad
l in
Ġreg uliar
Ġpirm ieji
Ġpo Å¾ym
Ġaleks and
Ġdalyk us
Ġspaud os
pv z
Ġkain uoja
ĠpaÅ¡ nek
ĠÅ¾od Å¾io
ÄĹj imai
Ġpatik o
ĠiÅ¡sil av
et u
oj imus
Ġrieb alÅ³
ĠÅ¡v ei
eng v
Ġs ij
ĠÅ¡i ai
ĠÅ¡ aukÅ¡
Ġnar Å¡
dÅ¾i u
Ġrekl amos
Ġilg Äħ
Ġn iu
ĠÄ¯vairi os
Ġper Å¾iÅ«rÄĹti
Ġsu man
Ġt ÄĻsi
Ġbr on
Ġtrum pos
Ġvalg yti
ĠuÅ¾ aug
Ġsm a
Ġvadin asi
Ġtarn yba
ĠÄ¯vair Å«s
Ġatv ejÅ³
Ġpam inÄĹti
ÄĹj ant
j am
Ġnep al
ym ais
Ġsk ub
Ġstik lo
oj imai
ist ams
f a
â Ĥ¬
v Å³
Ġak s
ĠeÅ¾er o
ĠsÄĹk mÄĹs
tem p
ĠmaÅ¾ a
Ġkonkur s
Ġam Å¾in
aik o
teri o
ĠÅ¡ild ymo
Ġprez id
Ġper trauk
____ ____
l an
ĠÄ¯sp Å«
Ġk auk
Ġnepa pras
Äįi as
Ġdol eriÅ³
n s
Ġ uog
Ġlaim ÄĹ
Ġpoilsi o
Ġvie toj
ÄĹs ti
Ġkok ybÄĹ
6 8
ar io
) :
inink ui
ĠÅ¾ av
Ġinstitu cijos
Ġkin ijos
Ġnor ime
ĠÄ¯gyvend inimo
Ġna f
lam ent
Ġkalb Å³
Ġsocial inio
ĠÅ¾od Å¾ius
Ġauk lÄĹ
Ġsekm adienÄ¯
il o
Ġ3 2
Ġb urn
Ġsieki ama
esni u
ausi ais
Ġvien uol
Å¾ ini
p ild
ĠsÄħjung a
Ġpriemon ÄĹmis
Ġpasi tel
Ġam bas
Ġsim p
Ġsim bol
Ġapsaug a
tel ÄĹje
0 8
ys i
Ġkit am
Ġdv id
Ġas tr
Ġv nt
ĠsÄħn aud
Ġvadin amas
Ġpoli tika
ĠÅ¾em iau
Ġstu l
tek s
Ġpri Å¾iÅ«r
au kite
inink ÄĹs
Ġprogr amas
Ġpers onal
Ġlaikotarp Ä¯
sk o
Ġpos ÄĹ
Ġapg yvend
Ġd Å¾in
Ġorganiz acija
Ġgr ÄħÅ¾in
Ġpor eik
Ġab s
Ġsusid om
Ġdal imi
ĠÅ¾od is
Ġats isk
pr ÄĻs
ov i
al inio
Ġat eina
eg a
Ġsuk elti
Ġdaugi ab
Ġval s
Ġtaisykl es
on g
al Ä¯
tiÅ¡k a
Ġpers ik
av er
Ġgr ai
ĠrÅ« mÅ³
Ġkelion ÄĹ
Ġi ii
Ġrekomend uojama
Ġpasir eng
tel Ä¯
Ġpasaul inio
Ġties iai
Ġm ados
z o
ĠiÅ¡Å¡ Å«
Ġbu te
Ġvard Äħ
Ġpapl Å«d
o tÅ³
Ġeksk urs
Ġatr asti
Ġxi x
Ġrekl am
Ġpasinaud oti
p ak
ĠÅ¾em ÄĻ
Ġin struk
3 8
Ġat stat
paÅ¾ ind
Ġkelion iÅ³
anÄįi oms
Ġ ÄĹm
Ġb okÅ¡
Ġveiksm us
et us
Ġapib rÄĹÅ¾
Ġaplink oje
Ġsvet ain
Ġsv eiki
ĠÄ¯reng ti
ĠmaÅ¾ as
Å¡k umo
Ġab iejÅ³
Ġparod os
Ġpri ori
Ġaus tr
ĠvieÅ¡ Å³jÅ³
ok r
tin Äħ
ij omis
0 2
tin ÄĹmis
Ġm az
Ġpal yd
Ġat ak
ĠbÅ«kl ÄĹ
Ġeksp on
l er
Ġbald ai
Ġv ili
ĠiÅ¡band yti
Ġpaskir ties
Ġm u
Ġvaik ais
ĠneÅ¡i oj
Ġn amas
Ġvald yti
Ġval ymo
Ġdarb e
Ġ Åª
Ġtink ami
te p
Ġinvesti cijÅ³
ĠÅ¾od Å¾iai
ieri Å³
Ġspeci aliz
Ġpagrind u
Ġsut aup
Ġ eli
y Äįiau
Ġi sl
Ġpristat ymo
ĠpareiÅ¡k ÄĹ
Ġprojek tus
Ġliter atÅ«r
Ġnacional inÄĹs
Ġpras me
ĠsÄħ vok
Ġvil n
Ġnegal ÄĹjo
Ġadres as
Ġgamin tojÅ³
Ġmat eri
s d
Ġpapild omÅ³
nel yg
Ġmed ienos
Ġim tis
Ġvartoj imo
Ġmerg inos
s tÅ³
ĠiÅ¡ var
l ais
Ġmok ÄĹjimo
ai Äįio
Ġreng inys
Ġleid o
Ġiz ra
h er
Ġsanty kiai
ĠvarÅ¾ ybÅ³
Ġf as
amÄħ jÄ¯
Ġgali os
Ġ ~
Ġatsak yti
Ġ( )
j i
Ġnuos to
Ġsve Äįiai
âĢľ )
Ġpap li
ĠpanevÄĹ Å¾
v yr
uoj anti
Ġl op
ĠÅ¡ven Äįi
Ġnuo mos
Ġtro Å¡k
Ġkuri ai
Ġmag istr
ent ams
em on
aÅ¾ u
Ġkrik Å¡
k el
Ġrod ik
Ġsum aiÅ¡
Ġpa ki
f il
Ġ eig
Ġpasi v
ĠprieÅ¡ tar
ti men
olog ija
Ġpinig ai
Ġh o
Ġnuk ent
Ġb ut
Ġsal d
Ġdaug elÄ¯
Ġp ail
Ġnug al
ĠiÅ¡laid Å³
Ġlaip sniÅ³
Ġter ap
ak yti
Ġl Å«k
Ġnar ko
Ġtikr Å³
Ġriz ikos
ĠnuoÅ¡ ir
Ġmet alo
Ġinstitu to
Ġj uose
anÄįi ame
Ġpagam inti
Ġst eig
y ÄįiÅ³
n er
Ġpir men
Ġn om
ar b
Ġpristat yti
Ġi lius
Ġsu paÅ¾ind
Ġj oms
6 7
Ġk ank
in oje
3 7
st rak
Ġteritori jos
ĠbÅ«d Äħ
Ġj ub
ĠiÅ¡n aud
tu k
Ġh or
Ġtri ukÅ¡
3 1
Ġsak yti
Ġdid esnÄĹ
Ġnukr eip
ĠneÅ¾ ino
Ġtinkl alap
Ġat paÅ¾
Ġlaik omas
Ġfil mÅ³
Ġapskai tos
vi li
k is
Ġatsisak yti
ĠÅ¡eim oje
Ġgydytoj as
Ġgyven tojams
ĠÅ¾enkl as
Ġid ÄĹjos
Ġsos tinÄĹs
Ġnep ag
Ġper nelyg
Ġvadov o
avi Äįiaus
Ġsavaitgal Ä¯
en ta
inink Äħ
Ġnuomon ÄĻ
Ġ200 3
ĠsÄħ j
Ġpar k
Ġkor pus
Ġvirtuv ÄĹs
ra Å¾
au tas
at ÄĹs
ĠvieÅ¡ ojo
r ad
Ġprov in
ti ja
ĠiÅ¡ tik
ÄĹj ais
Ġgam inti
Ġplan Äħ
ÄĹd ama
ĠÅ¾in au
ĠdidÅ¾i ausiÅ³
Ġaplank yti
Ġmokes Äįio
aik ÄĹ
Ġpel nÄĹ
Ġvaik u
Ġk ÄĻs
Ġeur o
Ġnumat yta
in to
Ġdarb dav
ĠÅ¡o kiÅ³
Ġdalyk ai
Ġknyg oje
ĠmarÅ¡k inÄĹ
Ġj ono
ĠÅ¾ ol
i uose
r ie
4 8
Ġvyr o
Ġli cen
Ġnaudoj amos
Ġp h
Ġj ungi
Ġj auk
Ġsup ra
Ġlang ai
Ġor d
Ġad vok
Ġt eÅ¡
Ġsistem oje
ĠvieÅ¡ b
Ġviz i
Ġsur asti
ting Äħ
ĠvarÅ¾yb ose
ac inÄĹs
Ġnor ÄĹtÅ³
am ieji
Ġreg lamen
ov er
ĠÄ¯ pro
ĠryÅ¡ iÅ³
Ġvadov ai
Ġ $
uk ti
ĠryÅ¡ io
ÄĹsi u
Ġd Å«
Ġpalaik yti
Ġmais tÄħ
ĠpaÅ¡al inti
Ġpak ab
Ġpakr ant
Ġvakar e
Ġkit ur
pj aus
Ġlais vai
Ġpatir timi
t enka
Ġsu tr
Ġgrei t
Ġproces Äħ
Ġlaisv ÄĻ
3 6
Ġsk alb
Ġerdv ÄĹje
Ġtaisykl ÄĹs
am oji
ri Å¡
Ġnepak ank
Ġar k
Ġketvir tadienÄ¯
eid imo
Ġtiksl Å³
t virtin
ki ui
Ġa gres
Ġpil nai
Ġg aud
ini Å¡kai
Ġvarto ti
ĠgraÅ¾ us
Ġmokytoj ai
Ġpali ko
Ġsen am
pl an
Ġap ima
Ġsien Å³
ĠÄįempion ato
Ġsimp tom
Ġpa Å¾iÅ«r
Ġlaisval ai
dar b
Ġpapras tas
ĠuÅ¾ baig
Ġf ili
ori ai
Ġrank a
ĠÄ¯d ieg
Ġilg alaik
Ġtrans li
Ġl iz
ti enÄĹ
Ġvaid menÄ¯
ĠdeÅ¡imt me
Ġpuos el
Å¡ l
Ġten is
Ġdvar o
men is
Ġvaik Äħ
tuv o
Ġstog o
Ġsprend imai
iÅ³ jÅ³
Ġbendr auti
ĠlÅ«k es
Ġproc entÅ³
nor s
Å¾i aug
ter ap
Ġk ÄĹda
Ġkr os
Ġpartiz anÅ³
Ġdaik tÅ³
Ġsvarbi ausiÅ³
ĠkÅ«r ybos
Ġatstov Å³
Ġkategori jos
Ġpasid ar
Ġp yk
eri ais
Ġpask yr
en tÄħ
am ais
Ġ ÄħÅ¾
ĠvieÅ¡ ai
Ġgim imo
ĠÅ¡al ys
Ġatv yko
........ ........
Ġkep ur
Ġsu var
Ġfinans avimo
eng ÄĹ
Ġtik ÄĹtis
Ġk un
Ġt eg
f e
as tr
Ġv aliu
Ġpo ez
m aÅ¾
eig u
o tos
Ġv in
li j
Ġatkreip ti
Ġid ÄĹjÅ³
Ġpr os
Ġsri tyse
Ġbendruomen ÄĹ
eid ÄĹ
ĠkÅ«d i
h a
Ġso ci
Ġnacional inio
Ġpre ki
ĠmaÅ¾i ausiai
Ġpriklaus omai
Ġkomand Äħ
Ġpas ien
ĠÅ¡vent ÄĻ
Ġadres u
j eigu
3 9
Ġkoki u
toj ui
Ġspaus d
ind ami
Ġsulauk ÄĹ
t eik
z as
Ġ3 9
b od
Ġsek re
Ġpv m
Ġt oje
Ġnurod yti
Ġnen aud
ĠdidÅ¾i ausiÄħ
Ġstraipsn yje
Ġrungtyn iÅ³
Ġseks ual
Ġspind uli
ĠtreÄįi adienÄ¯
gi rio
Ġma Äį
y Å¾
Ġplan o
usi u
3 70
Ġnuotrauk Å³
Ġstat yti
eik Å¡ti
Ġmerg ait
3 4
Ġnor ÄĹjo
Ġpat eikia
Ġapsaug oti
Ġtyr imÄħ
Ġjap on
Ġk ub
id o
ĠiÅ¡s ami
Ġak cijos
Ġvais tÅ³
anÄįi omis
Ġsveik ata
Ġtvark Äħ
Ġk aup
ĠprancÅ«z Å³
Ġtink amÄħ
Ġgam ta
Ġpasie ki
Ġveter inar
Ġpristat ymas
Ġsug alv
Ġmin utes
Ġvais iÅ³
yb iniÅ³
Ġskl and
Ġdipl om
Å¾ ÄĹ
ĀĀĀĀĀĀĀĀ ĀĀĀĀĀĀĀĀ
Ġar om
t iniame
Ġdr Äħs
Ġde bi
Ġtoki ais
Ġsuo m
Ġgra f
Ġau tori
Ġre fer
ĠpaÄįi am
Ġteis ingai
Ġap k
zdÅ¾i ai
ÄĹl yje
Ġsu vo
Ġjung tinÄĹs
Ġreikalav imai
k eviÄįius
Ġatsakom ybÄĹs
Ġband o
ĠvirÅ¡ Å«n
Ġreg lament
ĠÄ¯stat ymas
ĠaukÅ¡ to
Ġenerg ija
Ġveid rod
Ġlaik ytis
g ÄĹ
Ġkon di
Ġpar amet
ĠÅ¾ym iai
ytoj ams
Ġry to
Ġte b
Ġsilp n
Ġketuri Å³
Ġry tÄħ
" :
ĠÄ¯t am
1 00
Ġkal n
in osi
Ġdain os
Ġcuk raus
Ġtink amas
Ġben e
av ÄĹ
Ġmo bil
Äħ sias
ĠsudÄĹ tyje
in anÄįiÅ³
ĠpaÅ¾ as
Ġ201 9
ri u
Ġuk merg
Ġma ki
Ġ Ã
inink ais
Ġci tr
ori aus
Ġg ÄĹliÅ³
ĠsudÄĹting a
ĠaukÅ¡ Äįio
c as
Ġvadin ama
ĠÅ¡ ir
ĠmedÅ¾i ok
Ġsavai me
d Äħ
Ġpla Äįiai
Ġuten os
ĠiÅ¡ kr
Ġnuo tek
Ġkalb ant
pi a
ĠÄ¯t virtin
Ġ5 5
Å«ri o
ĠprieÅ¾i Å«ra
Ġpriek Ä¯
Ġci vi
Ġpanaud oti
Ġat kur
Ġpar ink
Ġstai ga
Ġre aliz
Ġpal Å«k
al yv
ĠdÄĹm esys
Ġnuotrauk as
ĠÅ¾ ud
ĠpraÅ¡ ymÄħ
Ġbyl oje
ĠiÅ¡l ieka
ep i
Ġt uoj
Ġmil Å¾ini
Ġpatog i
Ġnaud os
ĠÅ¾ uvo
ĠÄ¯ l
Ġmok ymosi
Ġkonkur se
iÅ³ s
s id
Ġpadid inti
Ġr etai
ĠpripaÅ¾ inti
Ġkr et
e u
Ġlyg Ä¯
ĠgrÄ¯Å¾ ti
ÄĹl es
ĠmÄĹs os
insk as
Ġg ausi
Ġsaug o
Ġfunk cijas
Ġr ai
Ġpateiki ami
ĠiÅ¡v ys
201 8
Ġerdv ÄĹs
Ġarchitek tÅ«ros
ie l
Ġpavyzd ys
ij imo
Ġpareig Å«n
Ġremon to
Ġspr og
Ġnaud inga
ĠkÄĻs tu
Ġb raz
8 8
z on
en er
e ba
al s
te bi
gi a
Ġpirm Å³jÅ³
od amas
ind amas
Ġkatali kÅ³
Ġpa kil
Ġabej o
Ġjau ni
ĠpaplÅ«d im
Ġatostog Å³
Ġpar em
ĠÅ¾em ÄĹ
Ġt enk
ĠÅ¡al tinis
g as
Ġl ent
ĠÄ¯s is
Ġmo bili
ti ek
Ġs c
ii i
v y
un ka
ĠÄ¯k Å«r
Ġro bo
ĠiÅ¡ tr
Ġsud ÄĹti
Ġkel yje
Ġsu kil
Ġn ato
ali as
Ġautomobi liai
Ġvisuomen ei
Ġkeli ais
Ġsuk aup
Ġatskir ai
ĠiÅ¡ tir
Ġsm ÄĹlio
Ġprie Å¾iÅ«r
Ġlie t
Ġpral eisti
Ġklien tams
Ġpri gim
Ġl u
Ġdemok ra
Ġdarb ui
Ġmeil ÄĻ
Ġsp us
l ine
Ġsto vi
t yr
Ġistori joje
Ġman oma
ÄįiÅ³ jÅ³
ti ems
ĠÅ¡e imai
Ġteis ingumo
i gr
al l
Ġnes ud
Ġâ Ĩ
Ġpateik ÄĹ
Ġkain as
Ġdraug ai
Ġgr eta
Ġatsi palaid
Ġsuk Å«r
Ġ <
yg os
Ġgeri ausiÄħ
ĠdÅ¾iaug sm
av ie
ĠiÅ¡saug oti
Ġegzist uoja
Ġp oj
is ti
Ġkom bin
6 9
Ġid enti
ki Äħ
Ġpr ag
Ġtam siai
Ġsaul ÄĹ
Ġpal engv
Ġniek ur
en tu
yn ai
Ġnus k
Ġab so
Ġpirm ininko
Ġskir tÄħ
Ġbal k
ĠuÅ¾ mokes
Ġm ug
Ġ4 4
Ġsusij usi
Ġker am
Ġpok al
Ġpar ag
vilni aus
ĠÅ¡ er
ta Äįiau
Ġpatvirtin o
p raÅ¡
ãĤ¢ãĤ¢ ãĤ¢ãĤ¢
Ġbak teri
Ġpro pag
Ġper Å¾iÅ«r
tik as
Ġpasi prieÅ¡
ĠvieÅ¡ osios
ĠÅ¾i d
Ġantr adienÄ¯
Ġpard avimo
ing ais
ĠkaÅ¾ kur
Ġv aÅ¾
Ġelg esio
ĠÄ¯ tik
inink ystÄĹs
ĠjÄĹg os
z mas
Ġp y
Ġl at
Ġviduri o
Ġm ic
Ġprie sk
or timen
Ġbend ri
ÄĹ tinai
Ġital ijos
Ġnug ar
Ġf ail
anÄįi oje
ĠaukÅ¡ Äįiau
Ġdokumen tai
uol is
ĠsudÄĹ tis
Ġlem ia
ĠrÅ« b
Ġkat alog
Ġprof il
Ġne ver
Ġt ank
ĠÅ¡ok ol
te d
Ġdovan Å³
Ġt yl
Ġpak vies
kai Äįi
Ġpili akal
Ġpab rÄĹ
Ġk ÄĹ
il iej
Ġm ui
Ġpil ieÄįiÅ³
Ġpirm adienÄ¯
ĠÄ¯v eikti
Ġnes ÄĹk
ov iz
Ġtinkl Å³
ĠÅ¾ vel
Ġs ir
g us
Ġger Å³
ep ar
Ġkalb ama
il as
z e
Ġbaig ÄĹsi
ind o
Ġpriklaus ÄĹ
Ġarch e
Ġav al
ĠÄ¯s im
Ġpoj Å«
ĠiÅ¡mok ti
Ġdrabu Å¾iÅ³
Ġsmar kiai
Ġlin ijos
Ġsprend Å¾i
te liai
ÄĹ lius
ĠkÅ«n Äħ
ĠraÅ¡ oma
ĠÄįempion ate
l abai
Ġdem onstr
yn ÄĻ
Ġsavivald ybÄĹje
Ġkarjer os
ais v
Ġpak eitimo
Ġr ol
eik al
ĠÄ¯ traukti
um e
Ġobjek tyv
ĠpaÅ¾ inti
ĠÄ¯ mok
ĠbÅ«s to
Ġpi giau
8 5
Ġkruo pÅ¡
Ġur b
Ġgyven vie
ĠpadÄĹ tÄ¯
te in
um uli
uo tus
Ġr uoÅ¾
Ġperd irb
ĠpriÄĹm imo
Ġpl ak
Ġm em
ĠÅ¡ aud
ĠvarÅ¾ ybos
ĠÅ¡al dy
Ġpers on
Ġmet as
Ġrib Å³
Ġnor ÄĹÄįiau
Ġlyg is
Ġ6 5
em p
Ġsv og
Å¡ io
ĠdÅ¾iaug s
Ġbi olog
ien a
Ġplan avimo
Ġemo c
al ais
Ġnetur ÄĹtÅ³
Ġb an
k iek
Ġproduk to
Ġas ortimen
ĠÅ¾od Å¾iu
z dÅ¾io
on uose
Ġvaizd as
Ġform Å³
ies Äįio
Ġvidut inio
ĠvaÅ¾i uoti
u te
Ġaug in
f f
Ġsak oma
Ġb os
Ġpel n
Ġrank os
ĠÄ¯vy kiÅ³
ĠkalÄĹd Å³
o to
ĠÄ¯ m
Ġstengi asi
Ġpar amÄħ
usi am
Ġne tol
Ġatk Å«rimo
s ul
Ġfunk cija
Ġ200 2
Äħ mon
ĠneÄ¯ pras
Å«n a
r en
tÄħ jÄ¯
Ġkab in
ĠÅ¾em ÄĹje
s h
eur op
Ġskelbi a
ĠÅ¾aid imÄħ
Ġstud ijos
Ġantr ojo
Ġ7 5
Ġl ub
Ġatv aÅ¾i
Ġinstr umen
j ungi
Ġkon tra
Ġtari ant
Ġri t
ĠjÄĹg Å³
Ġl Å«p
Ġtarn au
Ġpard uoti
Ġprisi paÅ¾
Ġelg tis
tos e
Ġgrind Å³
ÄĹj imui
Ġant anas
Ġsavait es
Ġskyri uje
Ġvidur yje
Ġsi uv
Ġbu hal
Ġc ikl
ent ÄĹs
Ġdraug ijos
ĠpavirÅ¡i aus
auj ama
Ġtur intis
Ġpad ÄĹtis
Ġnuo m
Ġkol on
Ġklaus imai
Ġkel nÄĹs
ĠpaÅ¾ vel
Ġkeli os
Ġf ar
? âĢľ
Ġbuv ÄĻ
Ġpar kas
Ġpasku tinÄ¯
Ġsep tyn
Ġkompiuteri o
Ġl ag
ĠiÅ¡l eido
uo tÄĹ
e Äįiai
uoj antys
Ġsk ur
iÅ¡ kiÅ³
ĠpaaiÅ¡k ÄĹjo
ep ia
Ġsmag u
ĠeilÄĹ raÅ¡
Ġmat ema
Ġtur tÄħ
Ġvaland os
Ġn at
al ijos
el ÄĹmis
Ġkam p
Ġre voliu
Ġligon inÄĹs
s c
Ġtemper atÅ«ros
Ġnor as
Ġbendr o
ĠiÅ¡tek liÅ³
tin Å³
---- ----
ĠpraneÅ¡ ime
ĠÄ¯v ed
tim u
Ġterm inas
Ġprogram oje
esni am
u to
Ġsv oris
Ġpasi tar
um b
Ġlabor atori
at ÄĹ
ĠÅ¾i au
Ġtur intys
9 5
Ġm amos
Ġpas veik
om u
ie p
Ġregi one
d abar
uod ama
Ġnegali u
Ġiniciatyv a
ĠjauÄįi asi
Ġpus ry
Ġpatek o
Ġsu pjaus
m l
Ġvir tu
Ġkeli au
ykl ÄĹs
Ġautoma tiÅ¡kai
Ġneb eg
Ġki toje
Ġrenk asi
ov os
ĠtÄĹv o
f l
Ġnagr inÄĹj
Ġorganiz uoja
o zi
Ġpagal b
Ġpir mo
. "
Ġparlamen to
Ġsiek ÄĹ
Ġstab il
Ġblog ai
Ġgal va
Ġmer as
pir m
ĠdÅ¾in s
Ġkomp on
ĠsÄħ Å¾in
Ġvon ios
ins ime
Ġpastar uoju
Ġpri ÄĹmÄĹ
Ġtrak Å³
Ġteigi ama
Ġol and
Ġk enk
pas ak
3 2
Ġvadov Å³
Ġry Å¾
Ġsum Äħ
Ġpavasar io
Ġkov oti
Ġties Äħ
Ġpagam intas
Ġpagrind as
Ġtarpusav yje
Ġpartn er
Ġ4 00
Ġstud ijas
Ġnuo ty
Ġversl as
Ġt or
Ġpatog us
Ġrank omis
aikÅ¡ Äįi
v aik
Ġ4 2
Ġbri tÅ³
ie Äįiams
eis tÅ³
ĠneÄ¯ tik
Ġpui kios
Ġstud entai
Ġnepav yko
ĠpoÅ¾iÅ«r is
Ġskelb imai
Ġpad ovan
Ġtarpusav io
Ġtur inÄ¯
Ġs erijos
z a
Ġpil n
Ġap tik
Ġpl ieno
Ġabso liu
Ġorganiz mo
Ġatsin auj
Ġaliej us
ĠkÅ«n as
Ġgink l
Ġkeli auti
Ġpagrind iniai
n Ä¯
Ġsen ov
lik os
Å £
tel e
Ġor as
Ġdir Å¾
Ġs iej
ting Å³
Ñ ĥ
Ġ4 8
Ġvidut iniÅ¡kai
or ganiz
ĠneiÅ¡ v
Ġasmen iui
Ġp ama
li ukas
ĠprieÅ¡ ingai
li c
Ġsk un
Ġgr e
Ġkam pan
anÄįiÅ³ jÅ³
Ġ200 1
ytoj a
Ġmok a
Ġnetur ÄĹjo
Ġvyk do
Ġskiri a
Ġf i
ĠiÅ¡laid as
Ġl az
z ÄĻ
an tr
Ġry te
p ra
Ġpi gi
Ġd uoti
Ġel eg
on ÄĹ
ĠprieÅ¾as ties
v ol
Ġspar Äįiai
6 4
Ġcentr Äħ
an kiÅ¡k
Ġnekilnoj amojo
Ġskat inti
t ver
Ġi k
un o
Ġskir tum
oj ÄĻs
f on
Ġuos to
Ġt omas
am bl
ali ais
Ġsu jung
Ġkilomet rÅ³
ard as
Ġkonc ep
ĠuÅ¾ ima
Ġdaug eliui
Ġpramog Å³
Ġknyg as
Ġsusij usiÅ³
kl as
Ġnaujien Å³
cij ose
ĠiÅ¡kov ojo
Ġdrus k
Ġ100 0
Ġ ;
an u
ai r
ĠbÅ«d ais
ĠiÅ¡l aidos
Ġpas to
Ġrau menÅ³
Ġpast angÅ³
Ġj ose
Ġlaik oma
Ġpro tok
Ġtiksl us
om ÄĹs
Ġvar iklis
ĠÅ¾od Å¾iais
Ġmo tinos
Ġarg umen
en is
mok sl
Ġper skait
Ġakadem ijos
Ġpr epar
Ġm aud
Ġgrup ÄĻ
Ġkal nÅ³
Ġsen ovÄĹs
ĠsiÅ«l oma
Ġk yl
Ġb io
Ġkonc ent
Ġkor up
Ġvald ymas
Ġmok ÄĹ
is tat
v Äħ
Ġrud ens
li p
Ġveik ÄĹ
Ġes anÄįiÅ³
ki uose
u e
ĠsÄħraÅ¡ as
ĠseniÅ«n ijos
evi ÄįienÄĹ
Ġprie ig
Ġsocial dem
Ġproblem Äħ
t uotas
Ġplauk us
Ġparduod u
Ġtur inio
Ġjau tr
ĠapraÅ¡ o
Ġsiur b
tuv Äħ
tuv ÄĹs
Ġst am
Ġversl Äħ
av Å³
pr ez
Ġgali oj
Ġsvarbi ausias
Ġk vai
g b
Ġkoj Å³
Ġgyn ybos
ĠjÅ«r Å³
Ġsav ybÄĹs
Ġmet al
** **
Ġpasteb ÄĹjo
Ġpati ems
ĠiÅ¡g elb
Ġpergal ÄĻ
aj a
esni ais
Ġr ub
Ġvis ose
Ġdien ai
tel ÄĹjo
Ġnu Å¡
7 7
Ġel as
ĠaikÅ¡ tÄĹje
Ġscen ar
ĠÄ¯r angÄħ
ĠÅ¾iniaskl aidos
Ġpris it
Ġband ÄĹ
' ,
ĠmedÅ¾i Å³
Ġlie men
uoj amÅ³
Ġvaik Å¡Äįi
Ġv ÄĹjo
Ġaks esu
Ġkli Å«
an cijos
Ġnug aros
ĠÅ¡e imÅ³
telÄĹ kite
ĠbÅ«d amas
ĠÅ¾em yn
Ġatsisk ait
Ġpuslap yje
Ġmo tina
ĠraÅ¡ tu
Ġproduk tas
Ġvisuomen ÄĹ
Ġpris kir
ĠbaÅ¾ny Äįioje
i aus
Ġsav ybiÅ³
Ġpritaik yti
Ġreng inÄ¯
ĠiÅ¡mat avimai
el l
Ġmalon iai
Ġg ol
Ġf antas
Ġsiun Äįi
um ent
in anti
Ġdv ej
Ġne ri
o c
Ġneb log
r d
Ġp ei
or ai
v akar
Ġjaus mas
Ġteritori jÅ³
m Å«sÅ³
Ġnustat ytas
Ġtyr imus
is tas
Ġmokykl ose
vir tina
Ġbendr ojo
Ġpoli cija
Ġdovan a
Ġtrump ai
Ġsavar anki
Ġf ab
ĠaukÅ¡Äįi ausios
Ġnep il
Ġpatal pos
Ġm eÅ¡k
Ġf rak
Ġreikal ingi
Ġpatog u
Ġbendr ov
] .
Ġz on
Ġsuvok ti
Ġpor os
ĠapÅ¾ valg
ci o
ĠdrÄħ siai
ĠÄ¯tar i
Ġsl ÄĹp
ĠpoÅ¾iÅ«ri u
m ais
Ġpriemon ÄĻ
Ġpirk ÄĹjas
Ġkambar ys
Ġtvir tina
el d
Ġsavar ankiÅ¡k
l ÄĹp
Ġprofes orius
Ġind us
Ġnurod yta
ĠtaÅ¡k us
Ġch ir
Ġkrist aus
Ġmit ybos
Ġmod elio
skai Äįi
Ġdarbuotoj ams
Å¾ d
Ġsk ers
tr aukia
Ġpr et
Ġvi ol
Ġsusitik imo
Ġlauk ti
Ġtarptau tiniÅ³
Å¡ a
Ġb ol
Ġork es
ĠkÅ«r iniÅ³
Ġparti ja
ÄĹs ime
Ġev ang
Ġteat ras
Ġtik ÄĹtina
Ġinterjer o
Ġskyri Å³
ĠdarÅ¾ oviÅ³
Ġpatalp ose
Ġm enk
Ġprar ad
Ġsv ies
Ġenerg ijÄħ
uo tu
Ġd ug
Ġek str
Ġmies tuose
Ġrus ijoje
Ġdaik tus
Ġnustat o
Ġn ut
Ġveikl ai
Ġklien to
Ġtv enk
Ġprak tik
uol Ä¯
ĠiÅ¡s prÄĻsti
ÄĹj usios
Ġasmen iÅ¡kai
ĠvÄĹ Å¾
osi omis
lik o
x t
ĠÅ¡ uo
Ġmat o
Ġki tuose
Ġgra fik
4 9
ta cijÄħ
Ġkam uo
Ġtikr o
am omis
f al
Ġjuoz as
b ÄĹg
ĠÅ¾al os
pl e
yd o
Ġskir tÅ³
Ġgr aik
ĠÅ¾ ygi
Ġdid esnÄ¯
ÄĹm ÄĹs
m uose
and en
Ġnaf tos
Ġvilkav iÅ¡k
g am
Ġver tina
Ġsveik atÄħ
tu kai
Ġfinans iniÅ³
Ġdraug ais
in Äįi
Ġfestival is
ĠmedÅ¾iag as
ĠpraÅ¡ ome
Ġm Å«r
ÄĹ Å¡
Ġmoto cikl
Ġtol im
Ġorganiz uoti
Ġpam ÄĹg
Ġmoksl as
Ġlang Å³
Ġsuprant ama
Ġpriklaus om
ĠÅ¾ an
ĠiÅ¡ min
Å« ti
Ġkuri omis
Ġak umuli
t ini
ĠÅ¾ym i
Ġnuotek Å³
Ġtem os
Ġatrank os
ĠiÅ¡ ei
ĠÄ¯reng iniÅ³
Ġvyk usi
Å¡ kiai
tinink Å³
z el
Ġtarn yb
yb ar
: .
oj amas
Ġtr em
Ġau toriÅ³
Ġneat si
Ġprisim inti
k am
ag ys
Ġmieste lio
ĠÄ¯vairi ais
sr s
6 6
om b
Ġasoci acija
Ġproced Å«ros
Ġkreip ÄĹsi
Ġjau tri
ĠryÅ¡ Ä¯
Ġspecialis tas
Ġe gi
Ġjo h
Ġvienin telÄĹ
Ġgam iniÅ³
Ġpolitik Äħ
Ġapr Å«p
p on
ĠgrÄħÅ¾ inti
ab ili
Ġnes p
Å¡k ÄĹs
Ġniek am
ä ¸
Ġsut uok
Ġgr an
y tais
Ġkr eipi
Ġofici aliai
Ġdet aliÅ³
Ġpy rag
ÄĹ Å¾
amÄħ jÄħ
b ti
Ġbyl os
ali ojo
Ġmok ÄĹsi
ij aus
Ġrami ai
ov ai
ik ei
Ġtel Å¡iÅ³
Ġn ud
Ġgar d
Ġpar ama
Ġal aus
an c
ĠÅ¡ird is
ĠÅ¡ a
ĠÅ¾i Å«ri
Ġk aÅ¡
Ġdrabu Å¾iai
Ġp ild
Ġfunk cijos
im ie
ĠpasiÅ«l ymai
Ġdraud imas
Ġlie k
Ġpar ke
Ġb ed
ĠpabrÄĹÅ¾ ÄĹ
Ġatsak ÄĹ
Ġsk onio
ĠgrÄ¯Å¾ o
u tis
ni us
ut ÄĹmis
ĠreikÅ¡ mÄĹs
Ġdirek torÄĹ
er o
Ġpager inti
Ġpareig Å³
Ġu z
Ġdalyv auj
Ġang l
Ġbr uoÅ¾
Å« dÅ¾io
Ġdiag noz
ĠnetikÄĹ tai
Ġn ik
Ġtrum pas
Ġnepas teb
Ġveikl oje
Ġali um
Ġprojek te
Ġelem entÅ³
Ġvair avimo
Ġpoveik is
Ġri bo
ĠÅ¾ valg
Ġparduotuv ÄĹ
Å¡ t
Ġat ein
Ġnuomon ÄĹs
li os
Ġkov Äħ
Ġg aila
Ġnu trauk
Ġlenki joje
ĠÄ¯sak ymu
ov Äħ
Ġpaslaug omis
ĠparaÅ¡ ÄĹ
Ġspeci f
um ais
Ġin fo
Ġne j
Ġsk al
Ġpas tebi
Ġang el
on i
Ġvisuomen ÄĹje
Ġdisk ut
c entr
Ġper veÅ¾
Ġpag ar
ĠkeiÄįi asi
Ġsmeg enÅ³
Ġvakar o
Ġpaslaug a
Ġdvasi os
Ġvil niÅ³
Ġnar ÄĹ
Ġsuteik s
8 6
Ġd z
ak as
Ġmaitin imo
Ġklim ato
Ġklini k
Ġats tum
Ġvari antas
Ġnusikal st
Ġpaslap tis
Ġklaid Å³
Ġsav aiÄįiÅ³
Ġnuosav ybÄĹs
Ġsav ybes
m ingai
ĠiÅ¡v aÅ¾i
Ġalg ird
ĠmÄĹg autis
ĠiÅ¡s ik
Ð ²
Ġplan uojama
Ġm ain
Ġinvest uotoj
ol e
ĠiÅ¡r ad
Ġal erg
Ġakc ent
ar ai
Ġparod oje
Ġras e
ĠaukÅ¡ tai
ien Å³
Ġk var
Ġregist racijos
Ġsri ÄįiÅ³
ĠpavirÅ¡ iÅ³
Ġge ograf
ĠÄ¯kur ta
Ġrink od
aÅ¾ Äħ
ĠiÅ¡r aiÅ¡k
er ti
Ġgyv ybÄĹs
Ġv yn
ies e
b urg
Ġap Å¾iÅ«r
Ġtau rÄĹs
Ġgeri ausi
Ġdvira ÄįiÅ³
Ġplan as
Ġv Å¡Ä¯
Ġvyr ams
ĠgeleÅ¾ink elio
uo n
ĠpasiÅ«l ÄĹ
Ġmuziej uje
Ġnuotrauk a
Ġgal imas
Ġkomunik acijos
Ġfotograf ijos
Ġsavaranki Å¡kai
4 7
r inÄĹs
Ġskly po
Ġsak ant
ar e
Ġprojek tai
Ġpagrind o
ĠÅ¡vei car
er n
Ġrek ord
ĠmedÅ¾iag Äħ
Ġm yk
ut yje
Ġsupr anta
Ġvakar us
Ġakmen s
ĠvirÅ¡ u
pr et
kir st
ĠÄ¯vairi ausiÅ³
Ġda ina
Ġtal p
Ġ199 0
Ġl and
tÄħ jÄħ
Å¡k is
Ġpatenk inti
Ġoptim iz
Ġgamin tojai
ch o
Ġskiri ama
Ġal k
Ġper sp
tuv Å³
Ġkl eb
Ġtaik yti
Ġnom in
Ġled o
Ġreng iniai
Ġben z
Ġniek uo
Ġv eg
Ġkov a
ĠkÅ«d ik
Ġjud ÄĹjimo
Ġg u
Ġbiur o
Ġtransp or
Ġd ing
Ġdr aus
Ġmuzik Äħ
Ġan alog
Ġb ij
Ġpatikr inti
4 6
Ġpri k
Ġap v
Ġdv y
âĢ Ķ
ĠamÅ¾i us
Ġgamin tojas
oj ÄĻ
Ġnek al
ti eji
ĠkÅ«r imo
Ġsp in
irb ti
Ġ aid
Ġak cijÅ³
Ġgedim ino
Ġmok iniams
Ġdel eg
Ġnurod ÄĹ
Ġsn ie
Ġs tas
Ġprek ÄĻ
Ġd ov
Ġsal os
Ġvar do
ĠnuoÅ¡ir dÅ¾iai
Ġkar iÅ³
Ġmar ijos
ĠiÅ¡v eÅ¾
ÄĹ tum
Ġpi pir
Ġpran ci
Ġpareig Å«nÅ³
tar p
Ġbend rijos
bi a
osi te
Ġniu jor
Ġver tÄĻ
Ġaus tri
Ġ/ /
Ġgyd ymas
u tr
Ġperd avimo
Ġgali oja
Ġgaranti ja
ĠpasirÅ«p inti
Ġen tu
us ti
Ġpat enka
Ġpro to
Ġpalaik o
Ġjub iliej
lo b
ĠÅ¾in omi
Ġadministr avimo
Ġpar Äħ
Ġneabej o
um oje
Ġne aiÅ¡k
Ġg ili
or os
Ġes antis
Ġdr ÄĹk
Ġtend en
yl is
ĠÅ¡e imÄħ
Ġsusij ÄĻs
Ġentu zi
Ġb ab
== ==
in tus
ĠðŁ Ļ
Ġs eg
li uz
oj ome
Ġfil mÄħ
Ġan ykÅ¡
Ġj ok
Ġatei tÄ¯
Ġkondi cion
Ġtechnolog ija
Ġl yti
ĠrÅ«p intis
er a
Ġvestuv iÅ³
ĠÅ¾enkl o
Ġpoten cial
Ġatsak ingas
Ġnaudoj imas
Ġse ime
Ġpop ieriaus
Ġpakei tÄĹ
Ġtiksl Äħ
Ġvadovauj antis
Ġbritan ijos
at s
Ġatv eÅ¾
r egistr
Ġpastat as
Ġnes uk
ans o
Ġrad i
Ġmat ome
ĠapraÅ¡ ymas
Ġini cij
r om
Ġdet alÄĹs
Ñ ı
Ġfil tr
Ġpom id
Ġpas il
ĠaukÅ¡Äįi ausi
Ġnu teis
Ġnuo tr
Ġg um
ĠÅ¾ini a
Ġteik imo
Ġc it
Ġlaik inai
Ġlaim ÄĹti
Ġg ail
Ġse imas
in ÄĹjimo
Ġva ini
Ġv yno
Ġplan us
Ġtiek imo
Ġmokytoj as
c inÄĹs
7 8
Ġak cija
Ġlik us
ap s
Ġsprend imu
Ġinter viu
Ġaplink ai
Ġdizain as
Ġka ti
Ġrink inys
Ġkiekvien os
Ġp li
Ġuniversit etas
Ġa tim
pag al
ĠÄ¯vy kio
Â °
Ġkie kio
Ġar ki
ĠmaÅ¾ y
ĠiÅ¡siaiÅ¡k inti
ĠÄ¯stat ymÄħ
Ġpoli tinÄĹs
Ġter as
Ġnur odo
g ai
val st
ac e
Ġp lius
Ġatitink amai
Ġto p
Ġpen ki
ĠÅ¾ ir
Ġs odo
Ġvalstyb ei
Ġtiksl ais
Ġspor t
uli us
ĠamÅ¾i uje
Ġpasku tinis
ĠâĨ Ĵ
tiÅ¡k Äħ
ĠÅ¾od Ä¯
ki ja
Ġkaral ystÄĹs
ĠrieÅ¡ u
t enk
Ġsitu acijos
Ġatvir kÅ¡
Ġmoksl eiviÅ³
ĠrÅ«Å¡ is
Ġtel k
uli ai
ĠÅ¡al tiniÅ³
Ġpasid Å¾iaug
Ġaug us
Ġkoki as
! âĢľ
Ġaps ir
c l
met ÄĹ
Ġstad i
Ġm ul
Ġdaug elyje
Ġsaug oti
ati on
Ġekr ano
Ġkar Äħ
ĠpaukÅ¡ ÄįiÅ³
Ġsusi form
Ġsusitik imas
ab l
Ġpastat yti
... ]
tori umi
Ġel ek
ties i
Ġpasitaik o
Ġsu mon
k ÄĹs
Ġpoky ÄįiÅ³
Ġtam si
Ġg y
Ġper l
Ġatvyk ti
Ġraud ona
ni os
Å¡ iau
Ġpa Äįius
Ġgaus u
Ġpl ÄĹv
Ġantr asis
Ġsuk uria
li uko
Ġkaz imie
Äħ ja
Ġpavad inimÄħ
Å¡ as
ie tÄĹ
Ġapd or
ail os
ÄĻ Å¾
Ġ =
Ġpasir inkite
r op
al inÄĹ
Ġpal angos
Ġatsir as
Ġatsi g
Ġb a
Ġkonfer encijos
Ġdrus kos
Ġpasibaig us
Ġser v
Ġpel no
ĠbÅ«kl ÄĻ
ĠÄ¯ kr
s veik
ĠpraneÅ¡ imÄħ
Ġkarjer Äħ
Ġakivaizd u
Ñ ĭ
Ġsk ver
Ġpatek ti
Ġvairuotoj as
Ġtren eris
uoj ate
ĠÅ¾ Å«
auj ame
ĠÄ¯pras ta
tin imo
ĠÄ¯vairi ose
Ġparduod amas
Ġpaslaug Äħ
ak ÄĹ
Ġsumok ÄĹti
ĠtÄĹv ams
j aun
Ġtik ÄĹjimo
Ġbank as
ĠiÅ¡ tis
ĠvieÅ¡bu Äįio
p aÅ¡
Ġatnauj inti
Ġsud ed
uk ui
Ġbiblio teka
Ġren ov
t usi
Ġ199 1
Ġmi ch
ĠÅ¾enkl Å³
on tolog
Ġstraipsn iÅ³
Ġdekor atyv
Ġbal tÅ³
Ġpolitik ai
Ġketur is
ĠÄ¯s id
Ġak ys
Ġreik tÅ³
im naz
ĠuÅ¾s ik
Ġkompiuteri Å³
Ġar ab
Ġgi tar
Ġsk ard
Ġri tu
ank s
Ġpri ima
ĠðŁĻ Ĥ
tu ku
ĠmaÅ¾ Å³
Ġsuteik ÄĹ
vyd as
am oje
Ġsr au
201 7
Ġatrod yti
kaun o
Ġlin ija
ĠÄ¯v es
Ġmeis tr
Ġevang eli
ĠatsiÅ¾vel g
te ko
Ġsurink ti
Ġpak eis
t ad
uoj amÄħ
Ġs ter
ien e
Ġro ber
Ġinter pret
Ġpatir ti
Ġry Å¡k
Ġniek aip
Ġk e
Ġpasp aud
Ġdvid eÅ¡imt
6 3
Ġparap ijos
ang o
Ġsavan ori
Ġpasl ÄĹp
Ġambas ad
Ġprisid ÄĹti
Ġd anga
ĠÂ ·
Ġn ov
Ġsuprat au
Ġchir urg
Ġmokes tis
Ġpal ank
Ġbaltarus ijos
Ġper si
Ġprisijung ti
Ġes tijos
Ġautomobi lius
Ġjap onijos
Ġvl ad
Ġsti liÅ³
ĠgraÅ¾ u
Ġper m
Ġmaskv os
Ġat vi
ani tar
Ġkarali aus
Ġnemok amas
Ġdav ÄĹ
Ġak imis
ĠkaÅ¾k aip
Ġe u
ak u
Ġkv ad
Ġnum eris
Ġtrump omis
uo tÄĻ
Ġaptarn avimo
Ġpastar uosius
Ġneb ent
Ġprim en
ĠpajÄĹg Å³
uoj anÄįios
Ġkomis ari
Ġneteis ÄĹ
Ġh e
Ġtur tas
c on
ĠreikÅ¡ mÄĻ
Ġkonkur sas
Ġp uÅ¡
Ġar ti
Ġukmerg ÄĹs
Ġso li
ĠÄ¯dom us
pr ie
Ġspalv Äħ
ĠposÄĹd yje
Å¡ ta
Ġnuos ek
to p
Ġapsaug o
Ġkomand Å³
Ġautomobi liu
k ol
ĠÅ¾aid ÄĹ
ien ei
Ġgarb ÄĹs
Ġpunk te
Ġnusi pirkti
Ġy ou
Ġrim tai
t iniuose
Ġk ybar
k at
Ġrungtyn ÄĹse
Ġpozi tyv
d ie
Ġmedic in
Ġnar io
Ġsu raÅ¡
oj ami
Ġgyven imui
ĠiÅ¡sir inkti
Ġperd uoti
Ġspus telÄĹkite
Ġtau ta
Å¾i Å«ros
Ġkonsul ta
Ġt un
Ġser gan
g is
Ġprog imnaz
ÄĹn as
ĠkÄĹda iniÅ³
ĠiÅ¡ ÄĹjo
lo w
Ġeksp ozi
ties iems
Ġvarik lio
Ġ12 0
Ġprir eik
l ug
ĠbaÅ¾ny ÄįiÄħ
Ġcivi liz
Ġrezultat Äħ
Ġ }
tu os
Ġmar tyn
uod avo
Ġsek tori
ĠÄ¯spÅ«d Ä¯
ind avo
Ġantr as
Ġkated ros
Å«k is
5 2
Ġg aiv
ĠsÄħraÅ¡ e
Ġsu pa
Ġher oj
ĠryÅ¡ ius
Ġkoj os
Ġilg alai
s us
Ġversl ui
Ġlaisvalai kio
Ġvers ija
Ġlank ytojÅ³
Ġs ar
Ġap eli
ĠiÅ¡ val
Ġnauj asis
Ġnereik ÄĹtÅ³
tu n
ĠÅ¡ ach
Ġkon e
uosi uose
Ġpasteb ÄĹti
tu ko
Ġvertin ti
ti joje
vien as
Ġdarbuotoj as
toj ais
Ġrink imuose
Ġg ÄĹl
Ġriz ik
Ġilg omis
Ġpat yrÄĹ
Ġmokes tÄ¯
Ġes antys
acij ose
Ġpret end
ĠÄ¯g alio
Ġvam zd
Ġde pres
Ġvadov avo
ĠuÅ¾ trauk
Ġveterinar ijos
ĠpaÄįi oje
ĠmaÅ¾ eikiÅ³
ĠÄ¯staig a
Ġparduotuv ÄĹse
Ġ uol
ul ys
Ġb aj
ar do
Ġml rd
Å«r is
Ġprak tikos
Ġnam Äħ
tÄĹs i
Ġdid inti
Ġetap as
Ġlau re
Ġv ab
Ġtaik os
ir egistr
Ġpsich o
Ġpriek yje
Ġbel g
Ġpl auki
Ġnusi teik
Ġpavaduotoj as
Ġsek toriaus
Ġs ag
Ġmat osi
Ġdalyv aus
Ġtikr os
s on
Ġkonferen cijoje
k uri
Ġ4 6
ĠpraneÅ¡ a
Ġnuo tol
p k
Ġkvalifik acijos
Ġsudar yta
ĠiÅ¡aug o
s kio
Ġr omos
Ġpraded ant
ĠÅ¾in ome
ĠiÅ¡ sp
Ġb atai
op ed
ĠÅ¾ing snis
Ġatsak ymas
Ġskir tumas
evi ÄįiÅ«tÄĹ
Ġso f
Ġdu j
Ġgalv oti
esn e
Ġan im
Ġp aul
Ġd alia
Ġstraipsn Ä¯
ĠÄ¯vai raus
ÄĹ rÄĹ
ĠÅ¡ ep
ĠÅ¡o u
Ġspor tas
Ġgrei Äįio
ĠiÅ¡gir sti
ĉ Ċ
ĠÅ¡ven ÄįiÅ³
Ġ199 9
Ġm inti
Ġki au
ÄĹjus iÅ³
an te
ĠÄ¯gÅ« dÅ¾iÅ³
Ġskaus mas
Ġinteres Å³
Ġpilie t
Ġdirek tyv
Ġlaim ÄĹs
c inis
Ġlop Å¡
Ġispan ijos
Ġc ol
aliz acijos
Ġprek ÄĹ
ĠuÅ¾s im
Ġkom for
j aus
Ġpaskelb ta
Ġtiki uosi
Ġr um
âĢľ ).
Ġgr uz
ĠpasiraÅ¡ ÄĹ
Ġvykd ymo
eli uose
4 2
Ġku pr
r aud
g ais
Ġdvasi a
ch e
ausias is
ĠryÅ¡ ki
Ñ Į
Ġatsakom ybÄĻ
ĠpoÅ¾iÅ«r Ä¯
l av
ĠÄ¯ pareig
4 1
Ġpas tab
ĠmaÅ¡ inos
Ġkon tein
Ġber l
acij omis
l aik
Ġskr aid
Ġper tvark
ĠÅ¡ uk
Ġbrand uol
ĠÅ¡il tas
te lio
ci Å¡kai
Ġki aul
Ġv eda
Ġd vir
Ġsaug umÄħ
ĠÅ¾al Äħ
Ġmed i
Ġkrov iniÅ³
Ġtol er
Ġidenti fik
en oje
Ġsk yl
Ġreng inyje
7 9
Ġskirting ai
Ġagent Å«ros
ĠÅ¡il utÄĹs
Ġpapras Äįiausiai
n em
ĠÅ¾aid ÄĹjÅ³
Ġt est
ĠneÅ¡io ti
Ġpen kiÅ³
Ġf ol
Ġbibliotek oje
Ġsup il
Ġprie var
Ġpakar to
Ġliud ij
ĠmaÅ¾ os
Ġnes usi
Ġhar mon
Ġlyg inant
ĠpasiÅ«l ymÅ³
Ġteritori ja
ĠsumaÅ¾ ÄĹjo
ytoj us
r ed
Ġs kil
Ġprad ÄĹjau
Ġ( -
Ġti ri
Å¡ v
Ġmod eliÅ³
Ġseks as
Ġvaik inas
Ġpras m
ÄĹm imo
Ġskam ba
ry Å¡k
Ġkrauj agys
ÄĹn ai
Ġtaik oma
ĠnuoÅ¡ ird
Ġauk l
ov es
Ġnemok ama
Ġsm Å«
Ġdarb ams
uo tai
Ġorganiz atoriai
Ġlank s
ĠÄ¯mon ÄĹms
Ġsveta inÄĹ
Ġliet aus
Ġaki vai
ĠmaÅ¾ esnis
Ġatliek amas
o kite
Ġvien tis
Ġdiag nos
Ġsun kiau
Ġtik isi
Ġamerik ieÄįiÅ³
Ġ6 00
Ġsl ÄĹ
taÅ¾ od
g yv
Ġpapild omÄħ
Ġre aliai
ĠdÄĹv ÄĹti
an us
ĠiÅ¡s isk
Ġgamin tojo
Ġfak ult
Ġpasiv aikÅ¡Äįi
Ġkambar yje
Ġpas isk
Ġl ek
Ġeksper tai
Ġsuk ÄĹlÄĹ
Ġd ik
Ġpal ang
Ġtur g
ĠaukÅ¡ tas
Ġpl ung
Ġek strak
ĠvirÅ¡ uje
Ġpreziden tÄĹ
Ġsum os
Ġsam pr
Ġmoksl ininkÅ³
Ġm and
Ġdal ij
Ġsocialdem okr
Ġmuz iejÅ³
Ġk ali
Ġprak tika
ting os
Ġvaizd Äħ
Ġilga am
Å«r Äħ
Ġu l
Ġm am
usi ais
Ġpirk imÅ³
Ġrengi a
Ġatsak o
Ġpor tu
Ġautobus Å³
Ġs ol
Ġkomp ak
Ġsk yrÄĹ
Ġvarto tojams
on ais
ykl oje
Ġrink tinÄĹ
Ġl im
Ġres tau
Ġsti lius
Ġai r
Ġ4 3
ĠÅ¡vel n
Ġtink lap
Ġnuol aidos
Ġtechn inÄĹs
Ġturnyr o
vid eo
ĠÄ¯sikÅ«r ÄĻs
Ġnuol atos
Ġmin ÄįiÅ³
ĠuÅ¾d uo
Ġry tuose
Ġil gi
ori zon
Ġdalyv iams
ĠÅ¡vie si
Ġskai Äįiaus
ĠkultÅ«r Äħ
Ġb or
Ġko Å¡
Ġpat ri
am in
Ġp up
Å¡ to
Ġvir Å¡k
ĠÅ¡vies a
ĠiÅ¡l eis
ta p
Ġpristat o
Ġefektyv iai
ĠdÅ¾iaug tis
Ġnep ad
Ġklaus imu
Ġvis am
Ġsvarb Å«s
Ġvad as
Ġap yk
Ġerdv ÄĻ
Ġgr un
Ġn ame
Ġs li
Ġsav ininkas
Ġasmen ybÄĹs
Ġpar odo
Ġcuk r
Ġvanden yje
bl og
Ġj urg
Ġod ai
Ġst amb
ĠjÄĹg as
Ġpr asi
Ġan tik
ĠÄħÅ¾ uol
Ġvyk ti
ĠuÅ¾ kr
Ġm umis
Ġv enti
Ġand rius
aud ami
Ġmie stus
ĠÄį er
Ġaliej aus
Ġpav arÅ³
Ġtelef onas
Ġpil ka
Ġpro te
Ġmilij onÅ³
Ġsu tiko
on struk
Ġjaus tis
Ġnam ie
Ġpav id
Ġugn ies
Ġprof i
ĠdidÅ¾i ÄħjÄħ
p t
Ġl es
ur e
Ġkonkur enc
Ġtiksl o
Ġtarptau tinÄĹ
Ġid ÄĹjÄħ
Ġpateiki ama
ĠÅ¡ uni
Ġaug imo
Ġpoli tiniÅ³
Ġnepat og
Ġtau r
Ġneb uv
Ġdvir at
8 9
ĠpanaÅ¡ i
Ġpatog iai
Ð ¼
Ġagent Å«ra
a ki
Ġ[ ...]
iÅ¡k umo
ĠpaaiÅ¡k inti
op er
Ġj er
ĠreÅ¾is ierius
ĠÄ¯ man
Ġvel yk
c s
ĠÅ¡iau liuose
Ġj aud
Ġlengv as
Ġpriim tas
tÅ³ si
Ġilius tr
Äįi omis
Ġs ing
Ä ģ
Ġg ies
Ġatsik rat
Ġpr aÅ¾
Ġr usi
Ġpas ist
Ġpastat yta
Ġvai Å¡
Ġsu tel
Ġnar iams
Ġvalstyb inio
ant us
ĠkraÅ¡ tas
Ġketuri as
Ġaps up
ikl aus
Ġfunk cijÅ³
Ġtur inÄįiÅ³
Ġkos m
ie ki
ĠvieÅ¡ pa
Ġkret ingos
Ġpil na
Ġpacien tÅ³
ĠÅ¡ nek
Ġlaikotarp io
Ġkon stat
Ġgyven tojus
Ġstu m
kite is
ĠvieÅ¡ pat
Ġvalstyb inÄĹ
ul Ä¯
Ġkonkur sÄħ
tuv iÅ³
Ġlyd eris
enk ti
Ġkep imo
olog as
Ġner eiÅ¡kia
Ġrink Äħ
Ġsk yd
Ġ4 1
Ġbalt ymÅ³
ĠÅ¾iÅ«rov Å³
Ġ4 7
ykl inio
ting umo
Ġmoksl iniÅ³
ĠiÅ¡ aiÅ¡k
Ġkel eiviÅ³
Ġrink imus
Ġam Å¾iÅ³
ak s
Ġsistem as
Ġegi p
ĠkruopÅ¡ Äįiai
ĠÅ¡i to
Ġbu tÅ³
Ġtruk mÄĹ
Ġveiksm ai
Ġne w
Ġneb er
Ġnepr al
Ġprad ÄĹtas
ĠmarÅ¡kinÄĹ liai
ait ÄĻ
8 7
Ġsun kv
ĠpripaÅ¾ ino
Ġskam bu
Ġsupr ato
pr at
y j
ĠiÅ¡ ryÅ¡k
Ġjung tiniÅ³
Ġkodeks o
Ġtechnolog ijas
d is
Ġgeri ausius
m w
ĠbÅ« tinas
ĠnatÅ«r aliai
uo m
aus d
Ġpris kiri
ĠaiÅ¡k ino
Å¡ il
Ġgyv yb
Ġrekl ama
Ġ q
Ġkeis ta
ĠÅ¾aid ÄĹjai
Ġkar as
Ġkonferen cija
ri to
Ġsant uok
Ġscen os
ap ar
ĠÄ¯reng ta
Ġatliek ant
dÅ¾i ais
ki joje
Ġvad ina
Ġjur bar
ĠsÄħskai tÄħ
Ġd ul
Ġpal anki
Ġkomand ai
Ġais tr
Ġtir p
j is
Ġank sti
Ġre p
Ġ å
ĠÄ¯t eik
ting o
man au
ĠpaÅ¾ eidÅ¾i
Ġp on
Ġpri jung
Ġemo cijÅ³
ie Å¡k
Ã ¡
Ġsos tinÄĹje
Ġb ali
Ġnaud Äħ
Ġvik tor
Ġ25 0
Ġgrup ei
Ġduo nos
ĠvaldÅ¾i Äħ
ĠuÅ¾sak ymÄħ
ink o
Ġpastat ytas
Ġar Äįiau
vir Å¡
ĠÄ¯sikÅ«r usi
k ie
tÅ«r as
uol ÄĹ
Ġrad o
Ġink stÅ³
Ġvai ro
Ġsek und
ĠuÅ¾k and
in ome
Ġv e
toj Äħ
ĠiÅ¡v ad
ĠmaÅ¡ ina
ĠlÄĹÅ¡ omis
Äįi usi
ĠrÅ« mai
Ġvert ybiÅ³
Ġg ur
Ġaudi tori
Ġsunkv eÅ¾
ĠvÄĹ Å¾io
Ġreng ti
Ġri bos
ĠÄį esn
t av
z os
Ġkambar Ä¯
Å¾ eng
ĠrÅ«Å¡ ies
Ġkonstitu cijos
Ġnuv aÅ¾i
Ġscen oje
Ġkunig as
ar Äħ
Ġvai kiÅ¡k
Ġveik imo
p alv
Ġkryp timi
n ame
Ġmin tys
Ġnauj osios
Ġeduk ac
Ġsud eg
Ġgydytoj ai
ĠvieÅ¡bu ÄįiÅ³
Ġod ontolog
Ġpozi cijÄħ
Ġoper acijos
Ġi kiteis
ĠÄ¯vyk d
Ġw il
Ġsn ieg
Ġplauk ai
Ġ uod
Ġes anti
ĠÄ¯staig ose
k im
f ic
Ġpasikei tÄĹ
Ġvis uose
Ġstipr us
Ġnes il
Å¡k u
Ġkom ent
Ġ ÄĹjo
ij oms
Ġak cen
Ġau ten
toj u
Ġnuostat Å³
Ġcharak teris
Ġkategori joje
Ġkli j
ym uose
Å¡ os
anta z
Ġkel ti
Ġtarptau tinio
Ġtiks liau
ĠÅ¡ auk
Ġats ar
Ġg a
Ġd or
Ġapsaug Äħ
in ukai
Å¾ uv
Ġklien tai
Ġskir tingi
Ġprie l
alb ÄĹti
ĠdraudÅ¾i ama
Ġgrei tas
Ġfak tas
ĠryÅ¡ ys
Ġ4 9
Ġsen o
o bul
Ġved ÄĹjas
ĠÄ¯r egistr
Ġber n
Ġtu al
Ġin gr
Ġ199 8
Ġsk er
Ġpaj amas
Ġpav ed
az o
Ġapa Äįioje
Ġfond Å³
ĠÄ¯reng tas
Ġpasig ir
ĠneiÅ¡v engi
Ġj omis
Ġkir p
Ġteri tor
Ġteritori jÄħ
Ġlaik omi
Ġdi alog
Ġapsilank yti
Ġ !
Ġapib endr
or g
Ġkap i
Ġsu kl
al a
Ġatsi v
ĠÅ¾iniaskl aid
oks id
ĠjÄĹz aus
Ġki toms
Ġsaug iai
Ġleid imo
Ġfunk cijÄħ
ĠÅ¾ino te
Ġelektron iniu
Ġpav yks
li ukai
Ġ199 5
Ġpatal pas
ĠkÄĹ bul
tÅ«r Äħ
Ġd uoda
Ġkar alius
ĠklaipÄĹd a
Ġasmen is
ĠkarÅ¡ to
Ġim per
ki Å¡kio
Ġma x
ĠÅ¡ amp
w er
Ġbuv ome
d irb
ĠÅ¡ on
Ġvien uo
Ġgo ogle
ĠpaÄįi ame
ĠiÅ¡l eisti
Ġt om
ed ien
Ġg es
» ¿
Ġbyl Äħ
ti Å¡ki
Ġpadar yta
ĠÅ¡i ose
Ġ- -
Ġsul aik
Ġrod yti
Ġats im
ud o
Ġvien ai
s av
ĠÄ¯g ali
Â ®
Ġ199 7
Ġz onos
Ġalgird as
Å¡k umÄħ
Ġtur ÄĹjau
Ġr ied
Ġdy zel
ĠsÄħraÅ¡ o
ĠÄį ek
Ġspeci fik
ĠÅ¡ird Ä¯
k aus
Ġnar ÄĹs
Ġpal aim
( '
Ġpie tr
Ġ8 5
Ġkan tr
Ġpaskir tas
ĠÄ¯vai zd
Ġamerik oje
Ġtarptau tinis
Ġlaikotarp is
Ġplo to
ï »¿
Ġ eid
4 3
om ojo
Ġprat ÄĻs
ul teto
ro b
Ġjuos ta
in site
w n
Ġt avÄĻs
Ġpaj amos
Ġilg as
ĠpavirÅ¡ ius
Ġh orizon
Ġatskl eisti
Ġ ?
201 6
Ġpl au
ĠÅ¡un Å³
Ġc en
ok a
ikl Ä¯
Ġti p
ĠpanaÅ¡ us
ĠneÄ¯ si
ĠuÅ¾ tenka
Ġhtt ps
Ġdepartamen tas
Ġfak ulteto
Ġelem entai
Ġaud inio
Ġvar Å¡
Ġvis oms
Ġrom anti
Ġpoky Äįiai
Ġsve tim
Ġnes ib
Ġlatv ijoje
ĠÄį e
Å¾al girio
Ġsv yr
ĠkraÅ¡ te
indo ws
ĠpanaÅ¡ aus
Ġh ol
Ġdid eliu
ĠÅ¡lap imo
Ġhor mon
er ÄĹ
Ġnor ÄĹjau
Ġdeb es
ĠatvirkÅ¡ Äįiai
ĠdÅ¾iaugi asi
y te
Ġparduotuv iÅ³
Ġved ÄĹ
Ġnesug eb
Ġgl aud
Ġte or
ĠsveÄįi ams
Ġkoncer tas
Ġpam aÅ¾u
Ġ199 2
Ġne ur
Ġb ra
Ġpask amb
ĠpaÅ¾eid imÅ³
Ġvar tÅ³
b Å«d
Ġvalst ybÄĻ
Ġteks to
Ġes anÄįios
Ġrezultat yv
Ġtikim ybÄĹ
Ġingr edien
l k
Ġap kr
Ġgi liai
ĠprancÅ«z ijoje
Ġkontroli uoti
Ġjaun imas
Ġnes ir
Ġvisuomen ÄĻ
Ġpat virtina
yd is
Ġgam iniai
Ġpav al
d amos
Ġkal no
Ġsusisiek imo
Ġpad eng
ĠmaÅ¾ inti
Ġbu tas
Ġpoky Äįius
Ġpor eikiÅ³
Ġnel eidÅ¾ia
ĠÄ¯vy kius
Ġgrup es
ĠneiÅ¡ s
m ies
of t
zdÅ¾i ui
Ġnup l
Ġg rig
Ġkr imin
Ġbi Äįi
ĠlÄĹÅ¡ as
Ġnem ÄĹg
Ġatliek ami
Äį d
Ġb ÄĹd
ausi omis
Ġpapild omas
Ġger bi
Ġrek onstruk
yb ÄĹms
Ġbal tic
Ġpal iek
Ġpartn eriÅ³
ĠpamirÅ¡ ti
Ġsal a
Ġpasidal inti
Ġprad ÄĹs
Ġskiri amas
em i
n ys
ĠiÅ¡g ird
Ġc ig
ĠparaÅ¡ yti
au ta
Ġk Å«
Å«n Äħ
Ġdraug as
Ġskaus mo
Ġgab en
Ġtr okÅ¡
Ġkri tik
Ġneabejo tinai
Ġmer o
c t
f acebook
tu kÅ³
Ġsuteik tas
ĠÅ¡i omis
Ġm uÅ¡
Ġmal d
Ġe tikos
ĠÅ¾ alia
ĠuÅ¾p il
Ġt rik
ĠiÅ¡ raÅ¡
Ġdid esnÄĹs
Ġpie tus
ĠiÅ¡ ki
ĠÅ¡vies Äħ
Ġlink ÄĻ
id ÄĹs
ĠkunigaikÅ¡ tys
ien ÄĻ
Ġnes ul
Ġeleg anti
ĠÅ¡ved ijos
ĠsÄħj Å«dÅ¾io
Ġdrus ka
ĠkaÅ¾k ada
Ġ9 5
Ġsnie go
Ġaug al
Ġdang aus
Ġk y
Ġlik ti
c inio
auj antis
Ġadministra cija
Ġsusij usius
c el
osi oms
Ġpagrind inio
Ġi g
Ġrank ose
l aiv
tel yje
k eli
Ġtur inti
ĠÄ¯gÅ« dÅ¾ius
bi liz
Ġties os
Ġpasirink imo
Ġmindaug as
Ġveid Äħ
âĢľ :
Ġid ÄĹjas
ki ams
Ġpagam inta
Ġtradi cijas
ĠkÅ«r inys
Ġpateik ta
Ġfr on
ĠÅ¾ irg
me tis
Ġpar engti
Ġug ni
Ġtre Äįd
ĠÅ¾ ada
Ġmod elÄ¯
Ġbendruomen iÅ³
Ġpers eki
an Å¾
Ġnuol aid
Ġatm inties
Ġpaskir st
Ġrefer end
sni ui
Ġem igr
Ġsuv aÅ¾i
Ġtarp e
Ġgim inÄĹs
Ġtvirtin o
Å« Å¾
Ġgatv iÅ³
Ġskon Ä¯
uk a
Ġuos tas
Ġalb umas
Ġpad angos
Ġjaun as
Ġfil me
usi ai
ĠtreÄįi Äħ
Ġb ang
Ġnustat ÄĹ
Ġpatvirtin ti
Ġangli jos
ĠÅ¡Ä¯ kart
ĠiÅ¡sis kiria
ĠlÄħs teliÅ³
Ġinstitu tas
Ġmo tor
vys kup
acij oms
Ġlietuv is
Ġkar ta
ĠÄ¯kur tas
Ä¯ sti
Ġbal ans
Ġry tus
Ġnemal on
d om
er e
Ġpail s
bi liÅ³
Ġpopuliari ausiÅ³
al yje
Ġnuomon ÄĹ
ĠiÅ¡si g
l ÄĻ
Ġvarto tojai
ĠÅ¡i ur
Ġturnyr e
ĠpraÅ¡ o
or k
Ġ194 5
Ġbendr avimo
Ġreguliar iai
Ġprofes inÄĹs
Ġmen Å³
Ġj ak
av ir
Ġpat obul
Ġprad ÄĹta
Ġar eÅ¡
Ġtur istÅ³
Ġtaik omas
en e
Ġklas ÄĹ
Ġv az
ÄĹ ra
Ġtvark yti
Ġaktyv i
m y
im ÄĹs
Ġlank ÄĹsi
Ġprogr es
ar iÅ³
Ġreng imo
ĠÄ¯raÅ¡ Å³
Ġelektron inÄĹs
Ġrinkod aros
Ġel gi
ĠdeÅ¡imt metÄ¯
ĠdrÄĹg mÄĹs
Ġat vaizd
Ġklien tas
Ġin c
Ġsidab ro
Ġatsakom ybÄĹ
Ġafrik os
Ġk ra
ri joje
Ġekstr em
vi zi
Ġventi li
Ġ8 6
Ġpried ai
Ġf antaz
Ġatsisak ÄĹ
Ġs tim
Ġnuo bod
ĠvieÅ¡b utyje
ĠparuoÅ¡ ti
Ġsuaug usiÅ³jÅ³
Ġvarto tojo
Ġofi cial
Ġne va
Ġekonom inÄĹs
Ġmie go
Ġsutaup yti
Ġgrei tis
uk s
tin tas
ak os
d an
Ġantr oji
ĠÅ¾em aiÄįiÅ³
Ġsuk el
Ġvald o
li f
Ġti pÅ³
ĠÄ¯g yti
ĠÄ¯v eik
Ġjaun Å³
Ġsep tyni
od e
Ġarb atos
Ġpil ies
Ġdom ina
Ġgal Å³
ĠkvieÄįi ami
ĠÅ¡ ali
Ġr ytoj
Ġser vis
Ġriz ika
or Ä¯
ĠjÄĹz us
ĠiÅ¡or ÄĹs
to d
Ġpasir enk
7 6
ri ka
Ġbals Å³
Ġkv ies
Ġdemok rat
Ġvairuotoj o
Ġsve Äįius
Ġsavan oriÅ³
d k
al os
Ġger ti
go ogle
Ġrank ovÄĹs
ĠÅ¾vaigÅ¾d ÄĹs
Ġskry dÅ¾iÅ³
yb as
Ġsureng ÄĹ
Ġperk ant
Ġsau lius
Ġrankov iÅ³
Ġgal ÄĹtume
Ġnaudoj asi
Ġes mÄĹ
Ġvairuotoj ai
ĠÅ¾mog umi
osi ose
5 8
Ġvairuotoj Å³
Ġpatik sl
Ġpr esti
9 8
ĠÅ¡vel niai
Ġveik ÄĹjas
Ġorganiz avimo
Ġobjek tas
Ġsusik aup
Ġdiskus ijos
Ġlig omis
Ġfestival yje
l ovas
in dÅ¾i
Ġlyg oje
Ġh d
Ġl aidos
Ġnus prÄĻs
Ġat kar
Ġre abili
Ġnar ius
Ġaug alai
ĠlÅ«p Å³
7 1
et ui
Ġsusij usios
ĠiÅ¡ trauk
Ġak torius
Ġbendr oviÅ³
Ġtur inys
Ġgam toje
Ġart ÄĹj
uog iÅ³
Å« m
t uota
Ġplan uoja
ĠnatÅ«r alios
dav au
Ġnustat ymo
Ġpirm uosius
Ġmed ik
ĠaukÅ¡ tÄħ
Ġatsi praÅ¡
ĠlÄĹÅ¡ os
Ġkriteri jus
Ġspecialis tÄĹ
ĠbÅ«d o
ĠuÅ¾d raus
Ġo pozi
Ġpriver s
Ġoper atyv
ev o
Ġ qu
Ġpapasak ojo
Ġjaus mÄħ
Ġtaik omos
esi u
ĠpraÄĹjus iÅ³
Ġpasirink imÄħ
Ġnetr Å«k
Ġkiem e
Ġ199 6
Ġnel eg
Ġreng inius
Ġtelef onÅ³
Ġsm Å«g
Ġtik tÅ³
ag e
es tin
iÅ¡k us
ĠdÄĹÅ¾ ÄĹ
Â ¬
et inÄĹ
ĠuÅ¾sis akyti
ra cijÄħ
Ġket v
ĠnÄĹÅ¡ tumo
Ġko ali
Ġaug int
Ġstud entams
ĠlietuviÅ¡k os
in antys
Ġap kal
Ġkl asi
: )
inter es
Ġtelef onÄħ
ĠlaikraÅ¡ tis
tyn Å³
Ġg and
ĠpaÅ¾ in
Ġproces us
Ġatvir ai
Ġne form
Ġ5 6
ĠaukÅ¡ ta
Ġkv ep
Ġter eikia
id Å³
Ġvaik ystÄĹs
Ġbendr ai
ĠÅ¾uv Å³
yr o
on es
ek o
Ġmie lai
Ġmen as
": "
ĠuÅ¾sak ymo
ĠpanaÅ¡ u
Ġtransp ort
in Äįius
Ġkuri ant
ĠvertÄĹ tÅ³
Ġinfrastruk tÅ«ros
Ġdovan os
Â ²
Ġgyd yti
o lio
Ġl os
Ġmod eli
ĠpanaÅ¡ iÅ³
ĠpabrÄĹ Å¾ia
anti eji
Ġmat menys
Ġskaus mÄħ
Ġpris ik
ĠraÅ¡ ytojas
Ġtink ama
Ġnuol aida
Ġpasku tinÄĹs
Ġlaik osi
Ġdv ik
Ġerdv ÄĹ
ĠÅ¾in ojo
st er
Ġnor Äħ
Ġnu traukti
l et
po li
Ġarche olog
Ġnaud odami
ĠÄ¯k Å«rÄĹ
Ġt auti
Ġpavard ÄĹ
Ġpas ta
c tion
ingi ausiÅ³
Ġv ÄĹs
Ġdv ejus
Ġmas ÄĹs
Ġrase iniÅ³
dar Å¾
men inÄĹ
ĠkÅ«r imas
Ġeksper tÅ³
Ġrom an
Ġtur int
b ÄĹs
Ġbr olis
Ġdid esnÄĻ
Ġital ijoje
ĠveÅ¾ im
Ġpet ras
Ġpusi au
Ġpan or
Ġfeder acijos
Ġkon teks
ÄĹl imo
ĠÅ¡ m
l s
âĢľ ),
Ġ194 4
Ġgalv oje
Ġanaliz ÄĹ
Ġneb es
Ġaz ijos
Ġprofes inio
Ġmokes Äįius
ĠkÅ«r yba
Å¾ is
Ġproduk cijos
tim ui
Ġpoez ijos
Ġkil ogr
Ġsusid uria
Ġlap Å³
g lob
ais e
Ġskirting as
Ġfir mos
Ġnepapras tai
Ġsub ti
Ġv ÄĹd
ad e
Ġj ank
esn iems
Ġvidur am
Ġmen iu
Ġsusid Å«r
Ġfiz inio
ĠÄ¯sig ali
ĠÅ¾mog iÅ¡k
ÄĹj om
Ġneb ÄĹra
Ġsus p
Ġprisid ÄĹjo
Ġau toriaus
iest yje
Ġgydytoj o
Ġrad vili
us e
Ġatskl eidÄĹ
Ġrek onstr
Ġpriesk on
Ġnak ties
Ġinteres us
vis i
at l
Ġap aÅ¡
Ġcentr Å³
f unk
Ī Ĵ
ĠgrieÅ¾ tai
Ġ \
Ġkambar iÅ³
Ġdr amos
Ġpen kias
Ġm ac
Ġagres yv
Å¡ iai
Ġgamin ami
ĠkÅ«r iniai
vilni us
Ġmin utÄĹs
Ġkuri oms
Ġpirm os
Ġvyr esni
el ektr
Ġnev yk
Ġatlik tas
t ymo
x i
Ġgim tadien
us ieji
Ġvad yb
ĠaukÅ¡ tÅ³
Ġteat re
ĠplÄĹ Å¡
Ġbal tos
Ġskly pas
Ġjuos tos
tu osi
Ġpapras Äįiau
b and
Ġgal eri
ĠiÅ¡rink tas
did Å¾i
Ġd yk
ĠÄ¯mon ÄĹje
Ġpaskelb ti
ÄĹl e
Ġsaus a
Ġlauk ÄĹ
Ġpri lyg
Ġ5 8
t iniams
Ġvien iÅ¡
Ġd angos
Ġor ai
ĠÄ¯pras tai
7 4
Ġteis mÄħ
Ġinstitu cija
Ġ194 0
Ġriz ikÄħ
ti enos
li a
p asi
ĠpasiÅ«l ymÄħ
am inti
Ġdrabu Å¾ius
end a
Ġatg aiv
Ġetap e
5 9
Ġinst ali
Ġser b
Ġrank Äħ
Ġmerg inÅ³
Ġfon das
Ġjuod os
Ġypat ingÄħ
Ġobjek tus
ros oft
Ġvokieti ja
Ġpoli c
Ġsu plan
Ġne var
Ġspaud ai
Ġnes is
Ġsusitik ti
Ġantr oje
Ġsupr antu
men t
Ġf raz
Ġnetek o
k g
Ġa er
Ġkomand oje
Ġmas aÅ¾
ĠÅ¾aid imus
Ġnes un
ĠmÄĹgst ami
ĠnatÅ«r alus
Ġprofil ak
t etas
Ġkar iai
ĠÅ¾aid ÄĹjas
Ġvis omis
Ġdetal es
Ġmas k
Ġpav arg
Ġgel ton
ĠaukÅ¡ te
Ġsum uÅ¡
5 3
tu Å¡
Ġlau r
Ġkr anto
à ¸
d aÅ¾
in kiÅ³
Ġign al
g os
Ġhig ienos
Ġnus is
kl aipÄĹd
201 3
Ġkomplek tas
Ġkryp tis
Ġcig ar
ĠpanaÅ¡ Å«s
Ġpirm ininkÄĹ
i fik
ĠpraneÅ¡ ti
or Äħ
ĠiÅ¡ klaus
Ġli Å«
Ġsak r
ĠnatÅ«r ali
and o
ie t
Ġkop ly
Ġsod ybos
Å¡k ÄĹ
Ġskand in
ĠÄ¯vairi omis
Ġket ina
ĠiÅ¡m aiÅ¡
Ġred ag
Ġpa pro
Ġp Å«s
Ġram ybÄĹs
Ġnumat yti
m od
el si
Ġarki vyskup
ĠÅ¡il ta
Ġj umis
Ġrestau r
Ġstraip sniai
Ġtre Äįia
Ġnurod ytas
Ġpatar imÅ³
ie Äįio
un tÄĹ
m ail
n aud
Ġelg esÄ¯
ĠlaiÅ¡k Äħ
Ġpapild omos
Ġ5 9
Ġner e
Ġlaikotar pi
v an
Ġne utr
ĠaikÅ¡ tÄĹs
Ð ´
Ġpau lius
ĠiÅ¡lik o
auk s
ĠdÅ¾iaugs mo
ĠÅ¡iuol ai
ograf ijos
Ġ5 2
Ġsug ad
Ġpens ijÅ³
Ġs iÅ³sti
i ama
v asar
sp aud
Ġs el
Ġdarb u
Ġkai ri
ĠÄ¯sig ij
ĠÅ¾urn al
es iÅ³
Ġs tori
Ġhid r
Ġnuotaik Äħ
Ġas fal
ĠvirÅ¡ Å³
Ġap yv
Ġpl uoÅ¡
Ġpet r
Ġnus id
Ġat om
tik s
Ġpam inÄĹ
c iniÅ³
Ġpro t
yt ÄĻ
Ġatsir asti
s el
Ġlau Å¾
Ġinformac iniÅ³
st os
st ant
ĠÅ¾i bin
Ġpak raÅ¡
Ġbu to
Ġtinkl as
it h
Ġduk ra
Ġvyk si
Ġpri dÄĹ
Ġnacional inis
at ais
Ġans ambl
tuv u
Ġans amb
Ġved ÄĹja
Ġapim tis
ac iniÅ³
Ġm g
Ġjaus mus
Ġsugeb ÄĹjo
Ġvis u
Ġsie los
7 3
Ġs arg
Ġd ez
uk ams
Ġjud ÄĹti
li jos
ĠtÄĹv ynÄĹs
Ġs ab
Ġkit ame
Ġk w
Ġgimnaz ijoje
Ġrink a
Ġd ulk
Ġnen u
ind ama
Ġturnyr as
ĠkÅ«d iki
Ġ199 3
Ġ ..
Ġinform uoti
Ġet er
Ġproced Å«ra
Ġsen Å³
Ġdokumen tÄħ
Ġ end
Ġvalstyb ÄĹje
Ġlond ono
Ġgam ina
Ġman ymu
Ġsusitik imÄħ
ĠlÄĹk Å¡
c c
ĠprieÅ¾iÅ«r Äħ
Ġplo Äįio
Ġdid ÄĹja
201 5
Ġtrump Äħ
Ġkak lo
n r
ĠdÅ¾iaugi uosi
Ġapgyvend inimo
Ġkontr olÄĹ
Ġsusid aro
ĠiÅ¡ ver
ĠleidÅ¾i ama
Å¾i ui
ĠÅ¡o kio
ĠlÅ«kes Äįius
Ġnuotrauk oje
Äįi ame
ĠÅ¾ enk
ÄĹ tÄħ
Ġ199 4
ie Äįius
Ġmy li
Ġpapras Äįi
Ġstat yba
Ġatsis veik
Ġaval ynÄĹ
Ġr oko
ĠneÄ¯ gali
Ġkonstruk cijos
Å¡ e
yn os
Ġsvetain ÄĻ
Ġpakank a
es ter
Ġpaskol Å³
Ġlik vid
Ġvic em
Ġkor telÄĹs
Ġnauj ojo
7 2
Ġsen as
Ġdul kiÅ³
l d
? ?
Ġp ic
Ġik imok
et iniÅ³
pav y
Ġsug eba
s od
ĠprieÅ¾as tys
Ġ: :
ĠkÅ«r ÄĹjai
Ġimp erijos
Ġvyri ausiasis
Ġt ei
ter s
Ġtur ÄĹsite
Ġbes id
Ġjau Äįia
Ġnegal ime
Ġbliz g
Ġmar ija
ĠÄ¯r ank
tiesi og
ĠvirÅ¡ aus
Ġpak vietÄĹ
Ġtik tai
Ġnep adar
yb inÄĹs
Ġtradi cija
ĠdidÅ¾i ulis
Ġteis me
Ġtaik omi
Ġnepriklaus omai
v yl
am umo
k uo
Ġlietuv iÅ¡kai
Ġpalaik ymo
ĠmiÅ¡k e
Ġolim pi
Ġkalb omis
Ġim pr
ĠdidÅ¾i ausi
Ġsu interes
Ġsurink o
Ġpavoj Å³
ĠiÅ¡v is
Ġam bi
Ġst ak
ĠpÄĹd sak
Ġteis e
ĠnÄĹ r
en ai
Ġkapit alo
g alv
Ġkokyb iÅ¡kas
ĠÄ¯ kai
Ġgyv Å«nai
Ġteis ÄĹjÅ³
Ġpasir eiÅ¡kia
Ġstai g
ĠanykÅ¡ ÄįiÅ³
Ġpasid om
Ġpas tov
ieri ai
tos i
Ġpremjer as
ik liai
y ja
ĠÅ¡vent es
Ġskirting us
Ġsusir g
Ġizra elio
Ġpad ÄĹtÅ³
Ġstat ybÅ³
Ġnaud ingas
Ġpasirod yti
ch as
Ġkon gres
is to
Ġcer emon
Ġpergal ÄĹs
Ġmat au
Ġpriver sti
gyven imas
l ab
ĠÅ¾ar n
Ġalko hol
Ġsu tink
Ġatvej us
ni u
Ġfinans inÄĹs
Ġsmeg en
Ġsvarb Äħ
Ġmod eliai
Ġpardav ÄĹjas
Ġm aj
evi Äį
Ġsu tinka
Ġorganiz mas
Ġatkur ti
Ġnen um
Ġdang Å³
Ġt ÄĻsti
!! !
6 2
Ġkry Å¾iaus
ki Å¡
Ġpr Å«s
Ġgyv as
an ce
Ġekonom ika
d ir
Ġlond one
ĠÅ¾v ak
Ġpri Å¾iÅ«rÄĹti
Ġstruk tÅ«ra
Ġporeik Ä¯
Ġpasip uoÅ¡
Ġnor intiems
Ġgali Äħ
Ġatk ak
Ġlem i
d amiesi
Ġtenis o
Ġligon inÄĹje
ĠvarÅ¾yb as
ĠpraneÅ¡ imas
r ink
ank st
Ġsuteiki ama
d vi
ĠrÅ« muose
h ar
Ġgali ojimo
Ġpak uotÄĹs
Ġburn os
Ġspektak lis
ĠnebÅ« tinai
Ġf acebook
imas i
v ais
uv a
en cijÄħ
Ġmoksl eivi
ĠgrÄ¯Å¾ ta
Ġnuo var
g eri
Ġpraei ties
ĠÅ¾uv ies
m s
Ġpasirink o
Ġc l
Ġnauj oji
Ġlov os
Ä «
toj imo
Ġw eb
ĠdÅ¾iaug ÄĹsi
ĠÄ¯ran kiai
Ġaptar ti
im et
tÄĹ ti
Ġpageid auj
enk ÄĹ
d al
ĠneÄ¯ v
ĠprieÅ¡ gais
Ġpatik im
Ġr aus
Ġstipr inti
Ġteis mui
Ġlyti es
Ġsi bir
n om
ĠÅ¾enkl ai
8 2
ĠiÅ¡si vys
t uoja
Ġadres Äħ
Ġraj onas
ĠÄ¯ am
iek aiÅ¡
Ġbaigi asi
ĠÅ¾v ÄĹr
Ġvidu tinis
aug a
Ġantr ÄħjÄħ
Ġpatar ia
Ġpas a
aliz mo
aliz uoti
Ġorganiz me
Ġlenki ja
Å¡k umas
od avo
Ġb ot
Ġsto ties
Ġobjek to
Ġrung tyni
Ġatk eli
Ġsuk uri
Ġnugal ÄĹjo
Ġvar ÄĹn
Ġpenk is
Ġnepriklausom ybÄĻ
Ġa kl
ym ams
iz mo
Ġatr as
j u
bur go
Ġw h
Ġtrans form
Ġgal ÄĹÄįiau
ĠkrikÅ¡Äįi oniÅ³
Ġl ok
Ġpuslap io
Ġnuostat as
Ġpet ro
Ġleid imÄħ
ĠÅ¾ai zd
Ġkor eg
ri ja
ĠuÅ¾s iregistr
Ġkros n
Ġan ali
Ġatsis p
Ġmoder n
Ġrespublik oje
ĠÄ¯stat ymus
Ġrungtyn ÄĹs
yd er
Ġspeciali Å³jÅ³
Ġlietuv iams
Ã ·
Ġim pl
Ġparlamen tar
Ġkei Äįia
od i
Ġap i
t ant
Ġtikr us
in anÄįios
Ġkurs ai
ĠÅ¾vaigÅ¾ dÅ¾iÅ³
Ġplat us
ro id
Ġsvarb iÅ³
Ġlai ki
Ġgraik Å³
Ġsug ri
Ġ8 00
ĠÅ¡vie Å¾i
Ġpr el
Ġkokyb iÅ¡kai
Å¡i ad
Ġpil ieÄįiai
Ġsutik ti
Ġgyv ai
Ġpusi aus
Ġbaud os
Ġbuv usio
Ġkar b
8 4
Ġprod ius
Ġorganiz avo
ĠlÄĹ tai
Ġpanaik inti
Ġvadin ami
Ġgr as
Ġinov atyv
Ġat ver
Ġpriek ab
pr an
Ġvasar a
Ġsez onas
Ġsusi gr
ĠkvÄĹp avimo
. ;
Ġvyriausi ojo
Ġgatv ÄĹ
Ġlang o
Ġiniciatyv os
ĠmaÅ¾ Äħ
ĠiÅ¡l eistas
Ġportu gal
Ġantr ÄħjÄ¯
Ġauto rÄĹ
Ġpatiek alÅ³
Ġv ib
6 1
Ġfil mai
Ġak to
ri os
Ġ194 1
ĠÄ¯mon ÄĻ
Ġkar p
Ġtikim ÄĹs
Ġpj Å«
ĠpareiÅ¡k ÄĹjo
Ġlauk Äħ
k ap
ĠmaÅ¾ ÄĹja
Ġsk ri
Ġmok osi
aliz acija
b uv
Ġp eÄįiÅ³
Ġj uli
Å¡ ev
Ġkur or
imas is
Ġpolitik Å³
Ġmin utÄĻ
Ġatsp alv
Ġinte g
Ġsustab dyti
zdÅ¾i Å³
Ġporeik is
ĠÄ¯sitik inÄĻs
Ġli u
ĠÄ¯dom iÅ³
m ic
Ġup ÄĹ
u Äįio
Ġh ip
Ġlaik in
Ġdid esnio
Ġreikal ingos
Ġaug ti
tv akar
ĠuÅ¾ registr
um entais
Ġpad angÅ³
Ġap Å¾iÅ«rÄĹti
Ġkur so
Ġpor tr
Ġvanden iui
Ġsveik at
ĠiÅ¡ eiti
Ġkomit etas
ĠÅ¡ aun
Ġkad aise
Ġsi uÅ¾
ĠÄ¯ran kiÅ³
ĠtaÅ¡k o
yg a
Ġsus k
Ġpasis ek
Ġvykd omas
Ġom en
Ġparti jÅ³
Ġprat ur
Ġre Äįiau
Ġvad inti
elsi ant
ov ui
Ġprinci p
b ro
yn us
Ġap yr
ĠÄ¯d ÄĹti
Ġnel eis
Ġprisim ena
Ġnuotaik a
al ans
tinink as
Ġsal ÄĹ
Ġatskir ti
tin ÄĹms
Ġorgan Å³
Ġr aiÅ¡k
Ġalb umÄħ
Ġrink ti
ĠkÄĻstu tis
ĠdidÅ¾i Å³jÅ³
ĠtÅ«kst anÄįius
ykl Å³
ĠpaÅ¾ angi
Ġnedid elis
Ġjaun Å³jÅ³
Ġatskl eidÅ¾ia
Ġinvest uoti
Ġkeli ai
, ...
n iek
Ġteiki ama
Ġgener alinis
i ame
Ġatskir Å³
Ġgalim ai
pr ad
Ġv r
Ġjo kiu
Ġdr ama
j omis
, -
Ġb ns
Ġfunk cion
n aÅ¡
eipi a
Ġbuhal ter
Ġvad ybos
Ġsu val
Ġtek st
ĠuÅ¾ klaus
Ġpasir yÅ¾
ĠkÅ«r ÄĹjÅ³
h u
ĠbÄĹg ant
Ġlaiv Å³
bÅ« tÅ³
g ri
k Ä¯
Ġapskri tyje
Ġnes ut
Ġisl and
ĠeÅ¾er as
Ġz o
ĠmÄĹs a
od ama
ac inis
Ñģ ÑĤ
Ġd ÄĹti
tel s
ĠÄ¯sivaizd uoti
Ġsusir Å«p
us o
ĠneÄ¯ gal
Ġperk elti
Ġpavel d
Ġpareng ÄĹ
Ġlab dar
Ġand ri
ĠplÄĹ tra
Ġat eis
Ġkel eivi
Ġpaskir tis
8 3
Ġdi ab
Ġpal an
Ġtradi ciÅ¡kai
Ġbendr os
Ġvirtuv ÄĹ
Ġspaus din
5 4
ci a
ĠroÅ¾ inÄĹ
Ġdarb ais
Ġint rig
Ġl ÄĹmÄĹ
Ġned elsiant
Ġpagr Ä¯s
Ġ20 20
Ġpateik imo
201 4
ch em
ĠnepamirÅ¡ kite
Ġval en
ĠpradÅ¾i Äħ
Ġmegz tiniai
and Ä¯
Ġpas ij
ing omis
Ġmatema tikos
Ġpalaid inÄĹ
Ġsusirink o
Ġtur ÄĹtumÄĹte
Ġdaik tai
at h
Ġpamok os
Ġdis kr
Ġgink lÅ³
Ġgal ÄĹtumÄĹte
ri kas
Ġprev encijos
ĠpadÄĹti es
Ġnepr iekaiÅ¡
Ġsien Äħ
ĠdÄĹv ÄĹta
Ġkil ÄĻs
ĠkÅ«r ÄĹ
Ġgyven s
og i
Ġatlik ta
Ġnaud ingi
ĠpalÅ«k anÅ³
ĠmaÅ¾ ina
ie Å¾
Ġpie tvakar
Å¾i Å«ra
Ġpet er
Å«d ij
Ġnuostat os
Ġdaug ybÄĹs
ĠbÅ«d us
Ġaug o
Ġkoncer tÅ³
Ġv ali
Ġpagalv oti
Å¡i uo
Ġtek sti
Ġpatar imai
Ġv u
t k
Ġ5 4
ĠparaÅ¡ yta
Ġgau tas
Ġf ini
Ġpat eis
Ġbri us
Ġtap tÅ³
Ġvykd ant
Ġregi onÅ³
in ui
Ġofici ali
ĠÐ ¿
Ġin s
ĠmaÅ¾ esnÄĹ
ĠsÄħjung oje
Ġg ausiai
Ġproces Å³
ĠÅ¡iukÅ¡ liÅ³
Ġpal ap
s aul
Ġvakar uose
n ik
Ġmyg tukÄħ
Ġvai vad
ĠpaÅ¾ym ÄĹjo
Ġsuteik ta
Ġmas yv
Å³ jÄ¯
Ġpavad inimu
ĠÄ¯ temp
Ġkar t
Ġkamer a
Ġal iejÅ³
ĠpraÄĹjus Ä¯
Ġelg esys
Ġv ÄĹjas
ĠprieÅ¡ ais
Ġmok ymai
tai gi
Ġner vÅ³
ĠinÅ¾in er
ĠkÅ«r inius
b ie
Ġstebuk l
av usiÅ³
et inÄĹs
Ġbank ro
Ġrekomend uojame
Ġd antis
Ġmeto das
Ġi ev
ĠaikÅ¡ telÄĹje
Ġa gr
n am
Ġpati ria
Ġniek ad
m uz
Ġpo Å¾em
Ġlaid oje
Ġgyven imu
ar k
Ġreikal as
iÅ¡k umÄħ
ĠrÅ«p inasi
9 2
ĠiÅ¡ tver
Ġeg l
iz mas
ã Ģ
Ġsusitik o
Ġkiekvien ame
ĠbirÅ¾ Å³
Ġvitam inÅ³
u ti
Ġes antÄ¯
od a
Ġparod Äħ
Ġ18 0
j av
Ġpar os
c eli
Ġreiki amÄħ
ĠpraÄĹjusi ais
Ġpaskol Äħ
Ġatsikrat yti
oj asi
Ġsk ais
os o
Ġpagrind Äħ
Ġfr ank
Ġvie tiniÅ³
Ġilga iniui
Ġatsar giai
Ġmar k
Ġpavoj us
Ġbyl a
ĠpraÄĹjusi Äħ
Ġbank Å³
Ġat gim
ĠÄ¯vyk s
Ġgausi te
Ġsimbol is
Ġbald us
Ġatsak ymÄħ
ĠiÅ¡v yko
eri ui
at ui
kir p
Ġgydytoj a
aud amas
ĠmaÅ¡ inÅ³
Ġbilie tus
ĠÄ¯ p
5 6
ĠÄĹm ÄĹsi
Ġvert ybes
Ġmies telyje
Ġt on
ĠiÅ¡gyven ti
f t
Ġatvyk ÄĻ
Ġnepr is
Ġkr o
ĠÄ¯vy kiai
pavy zdÅ¾iui
and as
ik lo
ĠkrÅ« tinÄĹs
Ġhid ro
Ġabej oniÅ³
ter Ä¯
Ġlang us
Ġpil vo
Ġmalon u
tel ÄĹmis
Ġsma gi
ĠlietuviÅ¡k Å³
w e
in siu
Å¡ ven
ĠuÅ¾si im
Ġkonc entr
Ġproces e
Ġro kiÅ¡kio
Ġmar ga
Å¾ mog
Ġtem Äħ
Ġpav ien
vai r
Ġviz u
ta bu
oj aus
ĠmÄĹg ÄĹjÅ³
Ġbraz ili
ĠpaÄįi ais
Ġskelb imÅ³
Ġalium inio
Ġdar oma
Ġprojek tui
ti ki
Ġkosme tikos
ĠÄįempion atas
Ġprem ijos
Ġpat var
ĠÅ¡im tus
tor ÄĹs
ĠÄ¯v eikÄĹ
Ġtvir tai
id e
sk as
ĠdeÅ¡imt meÄįio
Å«r as
Ġinform uoja
Ġs Å«nÅ³
Ġpersonal o
Ġapylink ÄĹse
Ġkil ti
Ġkvap as
Ġunik alus
Ġkoleg ijos
Ġeurop Äħ
Ġmok ymas
ĠplokÅ¡ tÄĹs
Ġsuvo ki
Ġvlad imir
Ġpaskelb tas
ri c
v p
oj usi
ĠpasiÅ«l ymas
Ġtek stÄħ
Ġlap ai
Ġteg ul
Ġnuotaik os
Ġproduk tÄħ
Ġdiev Äħ
Ġcivil inÄĹs
Ġvis ag
Ġnaudoj imÄħ
Ġmod ifik
Ġnusi vyl
Ġmok ymÅ³
Ġstim uli
ĠtÅ«kst anÄįiai
ĠaikÅ¡ telÄĹs
el o
Ġmerg aitÄĹs
Ġmerg aitÄĹ
Ġsri tÄ¯
ni as
Ġsantyk is
Ġg ÄĹlÄĹs
Ġkin ijoje
Ġsutrik imÅ³
Ġsal ÄĹs
kl is
Ġal gim
in Äįios
Ġap Å¾vel
ĠÄ¯stat yme
ĠÄįi ur
Ġlaisval aik
ĠÅ¡i tÄħ
Ġfol kl
Ġnep ali
Ġatliek ama
Ġpl ien
Ġpus iÅ³
Ġklub e
y tum
Å¾ Å³
Ġstam bi
Ġmi gr
un t
ĠÄ¯tam pos
Ġst end
Ġmedvil nÄĹ
pr ojek
ul ÄĹ
Ġli t
Ġim un
Ġne lyg
ĠiÅ¡s in
Ġlik s
Å¡ ius
Ġd Å¾em
Ġfoto apar
Ġpabaig a
Ġvitam ino
Ġkos mos
âĢ ¢
t uoju
Ġtinkl araÅ¡
Ġneturi u
Ġatrod ytÅ³
Å¡ tas
Ġpopie Å¾ius
Ġpasim at
ykl Äħ
p ap
ĠÅ¡imt me
Ġrum un
Ġeur ol
Ġartim Å³jÅ³
Ġklas ÄĹje
ĠiÅ¡vaizd a
Ġdain as
ĠiÅ¡man i
Ġpr ienÅ³
Ġr in
ci z
Ġgrei Äįiu
Ġpal ink
Ġsp a
Ġperm ain
oj amos
Ġukra inoje
Ġpastat ai
om osios
ĠaikÅ¡ telÄĹ
Ġpasitik ÄĹjimÄħ
Ġsand ÄĹli
ĠÄ¯vairi uose
ing oje
Ġdvigub ai
auj anÄįiÅ³
ĠgÄĹr imÅ³
ul s
man tas
Ġsvar sto
Ġtermin Äħ
uotoj Å³
Ġsuk eli
Ġau r
Ġteig ti
Ġugni ag
Ġypat ingas
Ġver tik
ad ic
Ġbat eliai
in imais
Ġpr ap
Ġentuzi as
uo tes
Ġur ÄĹd
Ġpaim ti
rik os
Ġpaver sti
Ġaplink ybiÅ³
lietuv a
Ġver Äįia
Ġnep agr
Ġm eks
d ai
ĠpanevÄĹÅ¾ yje
ĠÅ¡ vark
Ġteat r
Ġm ez
Ġlie muo
s an
tas i
a x
Ġkito kiÅ³
ĠÄ¯k al
Ġnep aj
Ġstat iniÅ³
Ġteiki amos
Ġp ogr
si o
Ġsitu acijoje
ĠpavyzdÅ¾i Å³
ĠÄ¯rod yti
Ġdokumen to
5 7
Ġbendradarbi avimÄħ
in tuvas
Ġb y
Ġvir gin
Ġtal en
Ġb uk
Ġgim inai
Ġkonkr et
akal au
d f
Å«r Å³
Äįi am
Ġind eks
ĠbÅ«d ai
Ø §
vie Å¡
Ġprek yb
Ġpra ÄĹjo
Ã ³
em at
Ġnor imÄħ
ĠÄ¯raÅ¡ as
Ġnetol iese
Ġau toriai
Ġats pal
ĠgraÅ¾i os
Ġpati ri
ĠÄ¯reng iniai
. -
ĠÅ¾urn alo
j uod
in form
Ġpasie kia
ĠkraÅ¡ tÄħ
Ġpak op
Ġstov ÄĹjimo
Ġstandar tus
Ġpe ties
ĠÅ¡ lai
auto bus
Ġpr aras
k ienÄĹ
Ġsav ininkai
Ġtr unka
ĠpareiÅ¡k ÄĹjas
ĠneaiÅ¡k u
Ġsal oje
Ġkategori ja
Ġteis inÄĹs
Ġbilie tÅ³
Ġatspind i
Ġsp ektr
ĠÄ¯raÅ¡ yti
Ġkiekvien ais
Ġdid ysis
s ud
Ġd ist
ĠÅ¾aidÅ¾i a
al ija
Ġgail es
oj antis
ĠÅ¡ iems
Ġpas v
Ġnep an
Ġlank y
Ġb aid
Ġsveik as
Ġlo Å¡
Ġpatog Å«s
el ÄĹje
Ġp elÄĹs
Ġsch em
Ġakivai zdÅ¾iai
Ġak torÄĹ
Ġner v
Ġmoksl eiviai
or ÄĹ
Ġnes ig
Ġpr es
ul ÄĹs
Ġes te
m al
ol a
Ġform as
ag os
Ġgars us
Ġsep tin
Ġgam ybai
Ġkvap Äħ
p in
Ġsteb ÄĹjimo
Ġskirting os
ĠÅ¡il um
ĠbÅ«r ys
ĠÄ¯mon ei
ator ÄĹ
Ġsovie t
Ġb ijo
Ġs at
Ġintelek tu
Ġpa Å¾iÅ«rÄĹti
ĠiÅ¡n agr
Ġb ek
Ġkamer os
Ġgab rie
Ġsusitik ime
Ġdarbuotoj o
ĠiÅ¡k el
Ġk ud
Ġorganiz mui
Ġse o
anÄįi ose
ĠuÅ¾pild yti
Ġdarbuotoj us
Ġtarn ybÄħ
Ġvalstyb iniÅ³
em ti
Ġseks o
Ġneb et
Ġtoki omis
yder land
Å¡i andien
Ġpar eikal
Ġkeli uose
ĠdeÅ¡imtme Äįius
um er
ĠpÄĹs ÄįiÅ³jÅ³
Ġpagr Ä¯st
Ġsap n
Ġskaid r
Ġskai to
Ġtek a
Ġetik et
Ġsus imÄħ
Å¾em io
Ġatlyg inimo
Ġn as
Ġ5 3
yp e
vi Å¡k
m ir
s uk
Ġdalyv is
ĠsunkveÅ¾ im
Ġsutar ÄįiÅ³
Ġdiev ui
ĠsÅ«n aus
Ġk int
raÅ¡ tis
ĠÅ¡ ans
Ġdokumen tas
Ġklub Å³
Ġpasitik ÄĹjimo
eg uli
Ġelek tra
tinÄĹs e
Ġprim inÄĹ
ĠpaÅ¡ tas
Ġpacien tams
Ġnauj am
Ġm ank
Ġdid esniÅ³
yn a
Ġpapras tÄħ
Ġpar ad
Å«s ta
Ġnuorod Äħ
eli ams
ap usi
to na
ĠÅ¡ Å«
Ġveiks mas
Ġreguli avimo
ĠnatÅ«r aliÅ³
Ġpaaug liÅ³
ĠÅ¾ lug
b rÄĹÅ¾
ĠiÅ¡kil m
ok ie
Ġsub alans
Ġnem uno
Ã ¤
Ġsiau r
Ġit alÅ³
Ġlank ytojai
Ġne jau
Ġvyr Äħ
yt ei
Ġt an
ĠÅ¾vaigÅ¾ dÄĹ
Ġsav yje
Ġtri ko
Ġtrenir uotÄĹs
Ġor anÅ¾
Ġdar ÄĹ
Ġpartn eriai
Ġjon avos
Ġprid Å«rÄĹ
gi us
Ġpasau liui
Ġprivat umo
Ġpasi imti
Ġatstov ÄĹ
Ġkai Å¡iad
Ġ5 1
Ġelektron inio
Ġb ad
ni a
ink ime
Ġtie ki
Ġstruk tÅ«ros
Ġsav ijau
Ġdraug us
Ġtr Äħ
Ġeki pa
ĠÅ¡ ul
Ġteori jos
Ġg inti
Ġspind uliÅ³
ĠvalstybÄĹs e
Ġmoderni z
Ġkei timas
Ġaug inti
Ġaug imÄħ
uotoj ai
Ġsvarbi ausi
ĠÄ¯ trauki
Ġnum erÄ¯
Ġnuostab us
Ġreng iniuose
ĠuÅ¾d uoti
tori ui
ĀĀĀĀĀĀĀĀĀĀĀĀĀĀĀĀ ĀĀĀĀĀĀĀĀĀĀĀĀĀĀĀĀ
ini a
Ġes anÄįio
Ġveik sniÅ³
Ġ198 9
Ġkeli auja
ikl os
ra j
Ġlyg a
ĠuÅ¾ tr
Ġbul viÅ³
ĠÅ¡il umÄħ
Ġtr aukia
Ġapsis prend
Ġkompiuter Ä¯
Ġpro tes
Ġad ap
Ġ19 18
tau ragÄĹs
ĠÅ¾ini omis
ÄĹjus Ä¯
Ġveiks mo
Ġch r
Ġkvad rat
Ġmar ket
Ġpo bÅ«d
uoj amo
b eto
Ġtik imasi
Ġreikal us
ac inio
Ġakimir k
Ġs fer
Ġgydytoj Äħ
y a
Ġnor o
Ġpirm oje
ĠpaÅ¾ym ÄĹti
Ġre ali
Ġbro liai
tiÅ¡k os
Ġkandid atÅ³
Ġpavad inimo
' s
Ġdid esni
Ġkair ÄĹje
s ÄĹj
Ġskandin av
Ġnaud a
ĠÄ¯g ijo
g aliÅ³
Ġnustat ytÄħ
kir sti
Ġfo tos
Ġrink imai
Ġsustab d
Ġvaizd ai
ĠiÅ¡l yg
Ġgam tÄħ
Ġvyr auja
in ÄĹjimas
Ġpirk ÄĹjo
Ġd atÄħ
ĠprocedÅ«r Å³
Ġmeil e
skai tÄĹ
d Å³
i am
ĠaiÅ¡k ina
Äįi ant
Ġpil nas
Ġsur engti
Ġpral eid
Ġm os
Ġugd yti
m atÅ³
ri bu
c inÄĹ
Ä¯ Å¡
Ġ6 4
Ġvais tai
Ġzon oje
Ġpatik ÄĹti
ĠÅ¡ir v
oj imu
dÅ¾i ui
ĠgraÅ¾ Å«s
ĠÅ¾i b
Ġkurs us
Ġpik t
Å¡l uos
Ġsek ti
s tis
Ġsocial inÄĹ
Ġkraujagys liÅ³
Ġdi rig
Ġlog oti
Ġapyr ank
ĠrÅ«Å¡ ys
Ġeurop a
ĠvieÅ¡bu tis
Ġtinkl Äħ
Ġch a
tu be
st an
Ġskund Äħ
Ġvais ius
Ġpras mÄĻ
âĢĻ ,
Ġaktu ali
i at
Ġaud iniÅ³
Ġnag Å³
ytoj ui
ĠuÅ¾ l
Ġprezid ent
aus kite
gi ta
Ġoper os
Ġbendradarbi auti
Ġide aliai
Ġgelb ÄĹjimo
Ġvykd oma
and os
Ġdain Äħ
Ġtiksl ai
Ġpatrauk li
ys te
Ġprot est
Ġkunig Å³
b ank
tori ja
Ġpil is
pr is
Ġmais tu
Ġaud inys
ĠÅ¡ ni
Ġ6 2
b el
Ġpast angas
ov us
Ġsudar ytas
Ġalb umo
Ġlang Äħ
Ġne kr
inamas is
Ġindus tri
ĠbÅ« site
Ġkal var
Ġneg r
Ġlaik ÄĹ
le y
Ġbals as
Ġkolektyv as
yk ti
Ġbe ton
Ġkri zÄĹs
Ġen cikl
ur o
Ġpam uÅ¡
uo mo
Ġgaus a
ĠmaÅ¾ eiki
b is
ĠÅ¡v Äį
ĠÅ¾iniaskl aida
Ġtur intiems
ĠdidÅ¾i ojoje
Ġkonkr eÄįiai
r am
Äįi amas
Ġt av
Ġb akalau
Ġparduod ami
ĠÄ¯raÅ¡ Äħ
em onstr
Ġarchitek tÅ«r
Ġs on
Ġgeri ausiu
Ġvel tui
Ġvari antÄħ
Ġplung ÄĹs
Ġpareig os
Ġencikl oped
k n
Ġsusi tvark
Ġon line
Ġpj aus
Ġr atÅ³
er t
tom a
Ġlip d
Ġap val
Ġnorm os
Ġpertrauk os
Ġfilosof ijos
Ġper t
ĠvieÅ¡bu Äįiai
ac inÄĹ
Ġsl op
Ġkur jer
esi a
Ġder a
Ġju tik
ÄĹn o
Ġv engti
Ġats il
eik a
oj Å³
Ġstat inio
ĠaÅ¡ tun
Ġinternet as
c d
Ġrad vil
Ġstriuk ÄĹs
Ġpav ar
Ġmokykl as
Ġpirm iausiai
ed ijos
Ġsm s
Ġjaun imui
ĠtrÅ«k umas
Ġs ind
g en
ÄĹj ime
Ġl as
ĠaukÅ¡ tak
Ġned r
Ġant ano
ori d
Ġsak au
Ġgim d
Ġvien etÅ³
Ġvarto tojas
Ġv ak
ist iniÅ³
Ġpus fin
Ñ ĩ
ĠatsiÅ¾vel gti
ĠdaÅ¾ ai
Ġz aras
Ġati dÅ¾iai
eiÅ¡k ÄĹ
Ġgrei tÄ¯
Ġkomentar ai
r et
lio ti
Ġnorint ys
Ġ( ,
Ġatsak ymo
Ġemo cijas
ĠÅ¡i taip
Ġneg yv
Ġmar c
Ġdalyv ius
ĠapaÅ¡ t
Ġmar g
5 1
Ġland s
ĠaukÅ¡ tyn
Ġsu pirk
ograf ija
Ġpranci Å¡k
Ġstori o
Ġpagrind inÄ¯
Ġmag net
Ġkonkur encijos
ĠÅ¾vilg snio
Ġgalv oja
Ġsuaug usiems
Ġry tas
ind i
Ġn id
Ġprad ÄĹjus
% ,
Ġpasis ak
Ġnauj Å³jÅ³
kl ÄĹs
Ġtik ina
Ġbes ir
ul a
Ġpal ieka
Ġkonteks te
Ġkito ks
ĠpraneÅ¡ imus
Ġvy Å¡
pres s
Ġbaim ÄĹs
l ink
Ġnu tol
Ġprinci pus
Ġmel od
Ġjud ÄĹjimas
Ġc as
Ġind ijos
Ġpriva ÄįiÅ³
Ġh im
Ġlaid Å³
Ġak Ä¯
Ġsl ÄĹn
Ġras a
Ġne xt
fo tograf
Ġstres o
ed ÄĹ
Ġpopuliar us
ĠÅ¡vie siai
Ġbas an
Ġpro tÄĹ
ĠtÄĹ ra
Ġpritar ÄĹ
Ġdebi ut
" ).
Ġsocial inÄĻ
ĠreikÅ¡ mÄĹ
li ukÄħ
Ġperk el
Ġprinci pas
Ġkomp lik
ĠiÅ¡silav inimÄħ
e e
Ġjurbar ko
Ġkreip kitÄĹs
Ġkr au
Ġinov acijÅ³
ad oje
b aigi
ï¿½ï¿½ ï¿½
te liu
Ġpral eis
Ġxvi ii
Ġkur Å¡iÅ³
Ġsveta iniÅ³
te li
Ġlaisv as
Ġv alios
Ġnaudoj antis
Ġmilij ard
ĠÅ¾iÅ«rov ai
ek as
in tÄ¯
Ġb mw
Ġnam ams
Ġ {
Ġ5 7
Å¾ ad
Ġrezultat u
Ġgav ÄĻs
uk e
ry Å¾
Ġdien o
Ġpirm ajame
Ġasmen Ä¯
Ġteks tas
Ġs int
Ġsluok snis
Ġmoter Ä¯
Ġpoten ci
ĠneÅ¡ var
Ġgydytoj Å³
ausk aitÄĹs
Ġnesun kiai
Ġv eli
Ġstovykl os
Ġgau tÅ³
Ġnurod oma
ait ytÄĹ
Ġvertin imas
Ġkonsul tacijos
Ġpadid ÄĹjo
ams ung
Ġmaki aÅ¾o
Ġgar siai
Ġperson aÅ¾
Ġes anÄįius
Ġjuoz ap
Ġatvej is
Ġfil mus
Ġpalang oje
Ġvar gu
Ġapd irb
Ġatsid Å«rÄĹ
Ġdes er
en kite
Ġsulauk ti
Ġte ch
ĠsumaÅ¾ ina
ĠÅ¡iuolaik inÄĹs
ri au
ĠvirÅ¡ ininkas
ai zd
Ġl dk
Ġnepag eid
Ġt onÅ³
ĠuÅ¾si imti
Ġpirm uoju
Ġign or
8 1
Ġgalim Å³
Ġnumat oma
ĠÄ¯Å¾ valg
ĠÅ¾ avi
Ġvyr ui
Ġtr ej
Ġkep tuv
Ġpos t
Ġmindaug o
ĠgrÄħÅ¾ inimo
at er
ĠÅ¾uv is
Ġmergait ei
Ġmas ÄĹ
Ġauto nom
Ġy o
ĠvÄĹl yv
Ġrag ina
Ġnustat ytos
in amÄħ
Ġats tumas
damas is
ĠÅ¡un ys
Ġgav au
Ġstudij uoti
ci u
gir is
uo lio
ĠuÅ¾ rak
r ud
ĠdaÅ¾ nas
Ġbuv usios
Ġes tet
Ġlog is
ĠmedÅ¾iok lÄĹs
Ġsl aug
ĠÅ¡il tn
Ġpatvirtin tas
ĠapÅ¡vie timo
ek sp
9 6
Ġchem ijos
Ġtink le
Ġeksp edi
Ġreg is
Ġfar m
am am
Ġmont avimas
Ġti kiu
Ġelektron iniÅ³
Ġnav ig
ĠbiudÅ¾ etÄħ
Ġnes Äħmon
Ġgal ut
om ais
Ġteis mÅ³
anÄįi osios
yl ÄĹ
ĠpaÅ¾eid imus
Ġpateik tas
ĠÅ¡ven tÄĹje
Ġd au
Ġn ba
Ġmoteri ai
Ġkat ÄĹs
Ġl ÄĻ
Ġkiekvien oje
Ġr os
on omis
Ġpuik Å«s
Ġau tos
Ġl ei
ĠbÅ«d ingas
Ġkoj as
Ġjuod as
Ġpamok as
Ġkry Å¾i
Ġnor ima
Äħs d
Ġkep ti
Ġstov ÄĹjo
Ġprid ed
Ġgimnaz ija
Ġnauj ag
pl auk
Ġtruk mÄĹs
Ġk ij
Ġid ÄĹj
vil k
Ġpatiek alai
ek omend
Ġsitu acijÅ³
ĠnepaÅ¾ Ä¯st
Ġtiksl u
Ġregist racija
Ġstudij avo
Ġlaisv ÄĹ
Ġinv en
ti jÄħ
Ġkoncer tÄħ
ÄĹjusi o
Ġkenk sm
ĠÅ¾aid yn
Ġvirtuv ÄĹje
ä º
Ġsant uo
Ġn yderland
Ġtradi cijos
ĠmarÅ¡k iniai
Ġauk ci
ĠsÄħnaud os
Ġsusisiek ti
Ġpras mÄĹs
Ġartimi ausiu
Ġsun kus
Ġm eg
Ġor e
ĠsÄħ veik
Å«nai tÄĹ
av Äħ
Ġapg alv
ver Å¾
ĠdeÅ¡ ini
Ġsutvark yti
Ġprofesional Å³
Ġvadov auja
tikr inti
dÅ¾i au
aid ÄĹ
Ġnaudo kite
Ġnereik ÄĹs
Ġgird ÄĹti
Ġilg os
Ġrenk antis
Ġtikr u
Ġangl ies
ic ien
Ġvaik ystÄĹje
ĠÅ¡ abl
Ġnuo pel
Ġignal inos
Ġpro por
Ġkito kia
d en
k ult
Ġaplink iniÅ³
Ġvyr u
Ġman yti
ĠaukÅ¡ tu
Ġstrateg ijos
Ġtrump am
Ġklub ai
Ġpozi cijos
Ġplan etos
Ġanaliz ÄĹs
Ġkvar t
Ġgalu tinai
tu l
ĠiÅ¡lik ti
Ġdirb ame
Ġminti mis
Ġimp ort
________ ________
Ġnorveg ijos
Ġplan Å¡
Ġkomisari ato
m il
Ġinternet inÄĹje
Ġnusi pel
b ri
Ġnar iais
Ġde im
Ġ11 0
Ġteori ja
ĠpaieÅ¡k a
Ġt rag
Ġtyr inÄĹj
ĠruoÅ¾ tu
Ġart ÄĹjant
yd as
Ġpagrind inius
Ġnorm a
iÅ¡k umas
Ġskry dÅ¾iai
Ġk eitimo
Ġnutar ÄĹ
ĠÅ¡iuolaik inio
Ġstatis tika
Ġses er
r ganiz
ĠÄ¯stat ymai
Ġikiteis m
Ġmokytoj o
Ġpaskol a
Ġsveik Äħ
Ġs ei
d er
al umo
Ġrelig ijos
Ġklien tui
ĠÅ¾mon ijos
Ġdaugiab uÄįiÅ³
Ġindividu aliai
ĠÅ¾in omÅ³
Ġor Äħ
Ġkosti um
Ġskry dÅ¾io
ãĤ¢ãĤ¢ãĤ¢ãĤ¢ ãĤ¢ãĤ¢ãĤ¢ãĤ¢
tim ais
Ġfunk cional
daug iau
u tÄĹje
Ġst anis
Ġparduotuv ÄĻ
Ġatvyk sta
Ġneb ep
Ġnu tiko
o tÄħ
Ġvil ties
Ġd eng
ĠÅ¡ k
Ġakmen Å³
Ġvie tomis
Ġsek asi
ĠiÅ¡v eng
Ġskalb imo
ĠsudÄĹting as
m ÄĹn
Ġ7 00
Ġpri gl
ĠdeÅ¡im ties
Ġkambar iai
x x
li umi
Ġgalim ybe
Ġsupr ojek
ĠiÅ¡v adÄħ
Ġaplink ybes
unk u
Ġch or
Ġparod Å³
Ġstand art
Ġsav ininkÅ³
r ug
g Å³
dÅ¾i a
ait yti
Ġtrenir uoÄįiÅ³
Ġbuv e
Ġar e
Ġbendr avimas
Ġval ymas
Ġkompiuter is
ĠiÅ¡k ep
ĠiÅ¡v ados
Ġasmen iniÅ³
tr e
ĠpripaÅ¾ Ä¯sta
Ġmalon us
p end
Ġh en
Ġi p
Å¡ tai
Ġmed is
ĠÅ¡il uma
Ġdub en
Ġpad emonstr
Å¾i uje
Ġtechn ikÄħ
Ġatostog as
Ġsusi b
Ġtau t
Ġj Å«ra
Ġdar ius
Ġprasid ÄĹs
Ġgro up
ĠÅª kio
Ġbl ak
Ġhi po
Ġk um
Ġsu im
Ġkod Äħ
Ġunik ali
= "
b y
m ag
Ġjaun a
Ġnes ik
ĠÅ¾i l
Ð ¹
Ġgim dymo
Ġsvaj oniÅ³
Ġr el
ĠÄ¯v esti
Ġsen osios
ĠuÅ¾m irÅ¡
Ġprotok ol
Ġnusi pirk
ĠmaÅ¾ osios
Ġsektori uje
Ġb irÅ¡
ing umu
av iÅ¡
Ġmetod us
Ġap eig
Ġbat ali
Ġdid elius
Ġt atu
Ġbilie tai
ĠieÅ¡k ote
Ġnauj ais
Ġkain omis
g ro
Ġmen ininkÅ³
Ġdy dÅ¾iÅ³
Ġpad ÄĹj
Ġprab angi
Ġrib as
Ġapklaus os
Ġapdovan ojimÅ³
Ġner Å«dij
Ġsuo rganiz
ÄĹg iÅ³
Ġpasien io
Ġrad ik
ÄĹk ime
Ġats k
Ġl or
oj imui
ĠÄ¯g al
Ġvartoj imas
\ /
Ġsu lt
Ġati teko
ul niai
Ġus b
Ġpoli tinis
p agr
Ġtyr inÄĹ
ĠbÅ«t ini
Ġrud a
Ġpak el
% .
Ġinst ancijos
Ġdal imis
Ġx iii
uoj antÄ¯
Ġpral eido
ĠÅ¾urnalis tÅ³
Ġdaug ia
to ne
Ġle on
n ink
Ġapdovan oti
Ġc r
ĠuÅ¾ ter
Ġketvir tÄ¯
vi us
Ġraj onÅ³
ĠbÅ« Äįiau
es iai
Ġ9 9
Ġpas od
Ġprofesional us
Ġpapasak oti
ĠpraneÅ¡ imÅ³
i ausias
Ġplo tÄħ
Ġatstov auj
Ġnuoty kiÅ³
li ukÅ³
Ġkalend or
t etÄħ
n eg
ĠuÅ¾d uoÄįiÅ³
ver sl
Ġpakvies ti
Ġprietais Å³
Ġmyl ÄĹti
mon ÄĹs
b uli
ĠiÅ¡ eina
Ġpasi trauk
Ġsri ub
Ġbu tÄħ
ĠsuÅ¾ av
Ġnurod ytÄħ
en ki
ant ÄĹ
Ġskai tÄĹ
Ġnetr uk
ĠmedÅ¾iag omis
Ġapd ailos
Ġdr eb
ĠÅ¾enkl us
Ġjuoz o
Ġ194 6
Ġpasirod ys
Ġf en
Ġatskir as
Ġkau pi
tim s
Ġsos tinÄĹ
ĠÅ¾mon os
ĠÄ¯gyvend inant
ĠposÄĹ dÅ¾io
Ġmie stai
Ġtatu ir
Ġjung tis
Ġstatus Äħ
Ġeg lÄĹ
Ġar enoje
ĠgrÅ«d Å³
Ġtoki am
Ġnaudoj imui
atori umi
ĠpaaiÅ¡k ino
Ġes anÄįiÄħ
Ġtur kijos
Ġinc iden
Ġpop uli
ĠiÅ¡v adas
Ġsun aud
Ġdaktar as
s ant
Ġsus iklos
Ġp ud
Ġatsak ingai
ĠmÄĹnesi ais
Ġnesk ub
Ġe in
Ġmokes Äįiai
w o
Ġnumat ytas
Ġres urs
Ġtobul inti
Ġpal aip
Ġprab ang
ĠÄ¯s il
Ġreikal o
Ġko ef
Ġsveik a
Ġpapild oma
ĠuÅ¾ imti
Ġmui tinÄĹs
, "
ul mon
Ġgyv ybÄĻ
Ġtil to
Ġtr ejus
ĠÅ¾ied ai
ur k
Ġgr ÄĻÅ¾
ek a
Ġabej onÄĹs
ĠuÅ¾im tumo
Ġpar kÄħ
ĠÄ¯reng inys
Äį k
am iems
Ġsiek dami
ar is
Ġmas tu
r ut
Ġnemok ami
anÄįi uose
Ġapyk ai
ĠsudÄĹ tÄ¯
Ġm ÄĹ
Ġkrauj yje
Ġkg b
Ġplan Å³
Ġnustat ytÅ³
Ġtur ÄĹjome
Ġ14 0
Ġprie das
Ġgam inius
ĠiÅ¡skir tinis
tak os
Ġgryb auskaitÄĹ
Ġmont avimo
ĠÅ¡al ims
Ġtarp uk
s ie
Ġes ama
Ġep iz
b c
Ġbuv usiÅ³
ĠvirÅ¡ ut
Ġvair uoti
Ġnever ta
ĠÄ¯s ir
Ġgam ybÄħ
Ġintensyv iai
Ġz ara
Ġlik imas
uos ime
ĠpasiraÅ¡ yti
ĠuÅ¾tikr in
ĠÅ¡iuolai kiÅ¡k
Å¡ tÅ³
Ġbe bÅ«tÅ³
ĠaÅ¡ tri
Ġsand ar
ĠiÅ¡vaizd Äħ
Ġprog os
Ġangli joje
engi ant
ing r
Ġsl enk
os kop
Ġvyr esn
Ġdemok r
ĠÄ¯sis av
uo lius
Ġvienod ai
usi a
Ġd atos
am at
Ġradvili Å¡kio
ĠstruktÅ«r Äħ
Ġauk Å³
Ġukra in
Ġvalsti eÄįiÅ³
Ġne veik
à ¤
ĠuÅ¾ kar
Ġs ed
Ġsimbo liz
Ġbat eri
ĠsÄħskai tos
Ġoper acijÅ³
al k
Ġdr o
Ġport alas
ĠÅ¾ ind
Ġasmen inÄĹs
Ġfin ale
Ġvar tus
Ġap y
Ġnev yriaus
Ġmit yba
Ã ¶
pr od
Ġprie s
Ġre prez
p iÅ³
Ġpus e
Ġ ov
Ġmano te
Ġredak cija
Ġveis lÄĹs
Ġfiz inis
Ġkin ija
Ġbol Å¡ev
Ġlin ijÅ³
Ġnusikal timÅ³
Ġsud om
v t
Ġpa Äįiai
man as
Ġnepil name
Ġmet ro
met yje
Ġkolek cijos
Ġsocialdemokr atÅ³
Ġpardav imÅ³
Ġk inÅ³
Ġsantuok os
ĠÅ¡al tiniai
Ġatsipalaid uoti
Ġkoef icien
Ġcentr u
7 00
Ġvid Å³
Ġkil im
. [
ĠÄ¯ skai
s mas
ho tels
astr of
ybÄĹs e
Ġtaik ymo
Ġs ki
Ġste bi
Ġver d
Ġâ ĪĴ
Ġtiks li
adien is
Ġnu tik
Ġne lik
Ġklaid a
Ġm akar
Ġprisid eda
Ġnaud od
Å¾ r
Ġatstov ais
Ġgyven ame
Ġpl ov
Ġsveik os
Ġger ovÄĹs
v ej
Ġsr aig
j oms
Ġf re
ausi te
r ank
Ġkarali Å¡k
n av
o liu
ĠiÅ¡v ada
ok Å³
ĠÄ¯ jung
Ġnep akar
Ġreikal ingÅ³
Ġspalv as
Ġstatis tikos
ÄħÅ¾ inti
w a
t Å«s
Ġf rag
Ġnesu tar
ĠrÅ« Å¡i
es as
Ġsand ÄĹlyje
Ġvaid muo
Ġvidur inÄĹs
s ek
ĠuÅ¾ uol
Ġkalb oje
ak a
iÅ¡ sk
Ġrespublik a
p et
Ġkat astrof
ĠkraÅ¡to vai
Ġbal tas
ci pl
ĠiÅ¡s am
Ġrug sÄĹj
Ġansambl is
Ġsi lik
Ġtink amos
Ġelgi asi
Ġsav aitÄĹ
Ġdal intis
ĠpanaÅ¡ ios
men a
ĠsÄĹk mÄĹ
ĠÄ¯tam pa
ĠÅ¡im tai
Ġprid ÄĹti
Ġtr auki
9 4
Ġmir tÄ¯
vies ti
Ġprojekt avimo
ĠÄ¯rod ymÅ³
s Å³
Ġpov eiki
ĠneÄ¯si vaizd
Ġpilie tis
uotoj as
ĠÄ¯vyk is
Ġsk onis
Ġgra Å¾iÅ³
ĠÄ¯ Å¾vel
er as
Ġskun dÅ¾i
il l
Ð¾Ð ²
Ġty liai
y pi
Ġdirb ant
Ġvard ai
Ġkariuomen ÄĹ
20 20
uoj anÄįius
Ġapd aila
Å¾ u
ag o
Ġarb ata
Ġtar ybÅ³
Ġpad aug
e y
var io
ĠÅ¡eÅ¡ i
v esti
Ġmok ymus
Ġhum anitar
Ġbal so
Å¡ yps
ĠÄ¯tak a
Ġkeis tis
ĠtriukÅ¡ mo
Ġl inas
ĠÅ¡imt meÄįio
Ġkal in
Ġsusi Å¾
Ġpadar o
j uos
Ġem ig
ymÄħ si
Ġpasku tinÄĻ
Å¡ Äħ
Ġnuosto liÅ³
uoj i
Ġsu vien
Ġes tijoje
Ġaktyv us
Ġtri ta
Ġma Äįiau
ĠgroÅ¾ Ä¯
Ġsaug umas
9 3
Ġblog o
Ġtobul ÄĹti
Ġkor ek
ĠiÅ¡l aisv
9 7
Ġtra gi
Ġuos te
Ġsm als
li ja
Ġman imi
Ġpuslap Ä¯
Ġek s
Ġmeis tri
Ġlem p
ĠÅ¾enkl Äħ
Ġpapild yti
ygi ai
Ġviso kiÅ³
Ġd en
ĠÅ¡i aud
ĠÄ¯raÅ¡ ai
Ġ6 8
Ġapyv ar
Ġdir vo
Ġnedid elÄĹ
ip uli
Ġakimir kÄħ
Ġdet ek
Ġsmur to
Ġangli av
ĠpaÅ¾vel gti
Ġmir tis
Ġtapat ybÄĹs
ul os
Ġnacional inÄĹ
Ġtau rag
Ġpo etas
Ġi liuz
Ġkap inÄĹse
Ġsod yba
ij ungi
Ġnaudo ta
Ġpuik Å³
Ã ¼
eng va
ĠÄ¯ darb
eidÅ¾i ama
ÑĢ Ð°
ed o
Ġklasi fik
Ġsteng ÄĹsi
v Ä¯
Ġetap o
Ġdiskus ijÅ³
Å« tÄĹ
Ġilg amet
Ġger us
ĠmÄħst ymo
ĠÅ¡ird yje
Ġpavyzd Ä¯
Ġd aliai
Ġper eiti
Ġvyskup as
Ġskelbi ama
Ġsunk umÅ³
Ġvais iai
Ġbaig ti
Ġatm inimo
Ġtransp ortas
Ġnuod ÄĹm
ĠiÅ¡ met
Ġlig as
ĠtÄĻsi asi
Ġgatv ÄĹse
eri ams
Ġliber alÅ³
Ġpusiaus vyr
Ġligon inÄĻ
Ġsv orÄ¯
Ġpails ÄĹti
Ġvakar as
ĠraÅ¡ ytojÅ³
Ġsub r
Ġfrak cijos
ag a
ĠbÅ«d inga
Ġsvarbi os
Ġpopie r
Ġ198 8
Ġarg en
Ġ 01
Ġpaj usti
Ġetap Äħ
uol ab
ta jame
ĠdÅ¾i azo
Ġmon i
au lio
ĠÄ¯staig oje
Ġmar at
eis kite
Ġpav aizd
ĠÄ¯ dar
Ġpasi teis
r eg
Ġtam p
Ġmas aÅ¾as
Ġim ti
Ġprinci pu
Ġgyven amosios
Ġatrod ys
Ġparduod a
Ġnarko tikÅ³
ĠÅ¡ ed
Ġpirm inink
Ġgeri ausios
Ġnum ato
Ġapr anga
Ġxvi i
Ġand r
Ġpatvirtin ta
yk Ä¯
Ġpinig ais
Ġtik ino
Ġnaujien a
ĠÄ¯reng imas
Ġr aukÅ¡
Ġmo tin
Ġatvir as
Ġs srs
Ġne men
ĠÄ¯t amp
Ġe c
Ġvald ymÄħ
in tu
Ġmikro autobus
Ġsiur bl
un ik
ĠuÅ¾ kl
Ġbendr osios
Ġpsich iat
Ġh el
Ġsuder inti
yg oje
Ġz ona
Ġmas ÄĻ
Ġv ingi
Ġap lik
ĠÅ¡eim oms
Ġgyvenvie tÄĹs
Ġprad inÄĹ
Ġkar iniÅ³
Ġpastat Äħ
Ġk im
Ġsavivald os
av ime
ĠÄ¯ teis
Ġnusi Å¾eng
ĠkÅ«di kio
Ġnepakar toj
Ġobjek tai
Ġv aÅ¡
Ġm au
Ġvers ijÄħ
Ġner im
ĠiÅ¡r eikÅ¡ti
Ġpried Å³
c kas
Ġl ev
Ġlyd eriÅ³
ĠdÅ¾iaugi amÄĹs
Ġlig oniÅ³
ĠsÄħmon ingai
ĠkiauÅ¡ iniÅ³
Ġspecialis tus
Ġsu ki
Ġfiz iniÅ³
Ġd us
Ġtap ÄĻs
Ġord ino
ĠjÅ«r oje
Ġsusid eda
ĠkÅ«r ÄĹjas
Ġpresti Å¾
Ġbendradarbi avimas
j ud
Ġpopie Å¾iaus
tau tas
Ġo Å¾
Ġinternet inÄĹs
Ġner imÄħ
Ġpavad ino
Ġypat inga
Ġdaug umos
il ÄĹ
Ġgr indÅ¾i
Ġc or
Ġnes im
Ġmarijamp ol
ÄĹ tojÅ³
Ġprasid ÄĹjus
h am
tn audÅ¾i
ĠðŁ ĺ
or ge
Ġliter atÅ«ra
Ġpagr ei
u x
Ġbul gar
Ġnus prÄĻsti
Ġmus ulmon
k eviÄįiaus
Ġc e
Ġremi asi
om Å³jÅ³
ĠÄ¯sipareig ojimÅ³
ĠÅ¾in ai
Ġpaklaus ti
Ġe voliu
Ġprofesion ali
Ġsusi taik
Ġatidar ymo
Ġkal ori
Ġkybar tÅ³
Ġmat ÄĹ
Ġdraug ija
iÅ¡sk yrus
Ġdvasi Äħ
ĠÄįiur li
Ġpary Å¾iuje
Ġj e
Ġdirb tuv
d eÅ¡im
Ġorganiz mÄħ
ĠtreÄįi as
Ġpl atÅ³
Ġplastik iniai
Ġkas os
ĠmiÅ¡k Äħ
i um
Ġekr ane
Ġsav ybÄĹmis
tais yti
omis i
Ġmat omas
ĠpaÄįi as
Ġgr et
Ġproduk tyv
Ġsm il
ĠsÄħlyg a
ĠÅ¾enkl u
in ukas
Ġki tai
Ġpalaip sniui
k y
Ġpal eisti
Ġauto r
Ġsku biai
ĠnemaÅ¾ a
ĠraÅ¡ to
Ġbaim ÄĹ
ĠreikÅ¡ ti
auto mo
Ġlenktyn iÅ³
ang omis
Ġ6 6
Ġpavad inti
Ġpastar aisiais
Ġpamok Å³
Ġpus metÄ¯
b es
Ġsudar ymo
Ġl ob
Ġteleviz ija
ĠneÄ¯gali Å³jÅ³
ĠrÅ« pi
ĠÅ¡ven tosios
ĠÅ¡a kiÅ³
Ġlik ÄĻ
a e
Ġsidab r
Ġprie kai
Ġmig racijos
ĠpraÅ¡ ymo
ĠÅ¾ym os
th u
Ġsupjaus ty
Ġmat avimo
Ġkrem as
Ġadministrac inis
Ġplas tiko
Ġstud ija
ĠtÅ«kst ant
Ġd omisi
ĠÄ¯vaizd Ä¯
Ġbuv imo
Ġpaskat inti
al inÄ¯
qu e
Ġpav yksta
Ã Ń
d el
Ġap ip
Ġras ta
ĠpasidÅ¾iaug ti
Ġkiekvien ai
Ġbel ieka
Ġtvir tas
Ġkor ÄĹjos
Ġmi tolog
Ġnuolat inis
Ġkon v
ĠlÄĹktuv o
ĠÅ¡eÅ¡ iÅ³
ĠpripaÅ¾ intas
Ġkaun Äħ
Ġkalb ame
Ġliep sn
Ġkontrol ÄĻ
Ġnup ir
Ġatsis tat
ĠkÅ«r inÄ¯
ykl ÄĹ
Ġpak elti
ĠbÅ«s im
Ġb uri
Ġalko h
Ġkov Å³
ĠiÅ¡ paÅ¾
Ġneb Å«na
Ġmol ÄĹtÅ³
al ui
Ġgalim i
ĠÅ«k ininkÅ³
Ġpacien to
Ġneg ail
Ġan ta
Ġcentr ai
ĠsprendÅ¾i ant
Ġs eb
Ġmed ikai
Ġe po
Ġj uolab
Ġpasik ar
Ġpagam inimo
Ġli tu
Ġst alas
ma x
ĠsÄħ s
Ġsod as
Ġgedim inas
Ġsu vir
ĠnatÅ«r alaus
Ġvid inÄĹs
Ġdid ina
ĠÅ¡eim ininkai
Ġbaig ÄĻs
ĠÅ¾ais lai
Ġak muo
s il
ĠiÅ¡ tar
Ġfrag men
Ġpuiki Äħ
Ġdaug eliu
ĠrÅ« ta
Ġkeli auj
Ġpamink las
Ġrekomend uoja
ik liÅ³
Ġkav a
n eb
Ġmieg oti
Ġnor ÄĹdamas
Ġsuom ijos
eikÅ¡ m
Ġbot an
Ġsto tis
ĠminkÅ¡ tas
Ġvyst ymosi
ĠsudÄĹ kite
Ġnar iu
Ġsez onui
k w
Ġpas mer
Ġpriori tet
Ġtoki oje
Ġd ingo
ĠiÅ¡k eli
Ġelem entus
tiÅ¡k Å³
Ġkul inar
Ġatvi ra
ĠpripaÅ¾ inimo
ing am
Ġpatais os
ĠiÅ¡var d
ĠvaÅ¾i uoja
ed ija
Ġpirm yn
ingi au
Ġserg a
Ġsta Å¾
Ġgrei tÄħ
Ġlaip snÄ¯
Ġkar din
Ġkel mÄĹs
Ġprak tikÄħ
Ġneg er
Ġuniversit etÅ³
tin imas
ik oje
Ġvais tus
es ta
Ġk orid
ing s
Ġman ipuli
ĠvarÄĹn os
u Äįiai
Ġkel erius
Ġsistem ai
ĠsusipaÅ¾ ino
Ġkurjer is
Ġnusikal tÄĹ
Ġgim tadienio
Ġb angos
Ġtok iems
iÅ¡k u
in tais
Ġkl aidos
Ġuniversit et
Ġvie tiniai
pagr ind
Ġavi acijos
teri jos
pr of
Ġreal ybÄĹs
ĠteÅ¡ lÄħ
tuosi us
dav osi
ĠuÅ¾d irb
Ġper ka
ÄĹl ÄĹmis
op uliar
ties a
tuv us
me Äįiu
Ġgyven amÅ³jÅ³
Ġch ol
ĠpavyzdÅ¾i u
Ġst ali
Ġpasku tinÄĹ
201 2
tyn iÅ³
Ġlo tynÅ³
201 1
Ġil s
Ġprogram inÄĹs
Ġgarant uoja
f u
Ġgyv a
Ġsu jungti
Ġrodik liai
Ġliud ija
Ġkaul Å³
in si
Ġstul p
Ġsod Å³
Ġfiz iÅ¡kai
en tÄĹ
bi us
Ġklaid as
ĠÄ¯mon es
Ġpriv aÅ¾i
Ġpristat ys
Ġmis ija
Ġt ÄĹtis
ÄĹ tojai
i ta
Ġpa auk
Ġaug imas
Ġpasi lik
ĠnepamirÅ¡ ti
ĠpaÅ¾eid imo
Ġb atÅ³
ĠsÄħskai ta
Ġs irg
Ġsank ryÅ¾
Ġslap taÅ¾od
ĠkÄĹbul o
Ġneb eb
Ġn ac
Ġnuotrauk ose
tinink ai
a a
uo tÄĹje
Ġsportinink ai
Ġtar kim
Ġsu valg
an auskas
Ġkorup cijos
Ġar tÅ«ras
Ġspaud oje
Ġpaskat ino
ĠmaÅ¡ in
Ġsunaik inti
Ġpamat ÄĹ
en ÄĹs
Ġg ÄĹ
Ġned alyv
Ġapg ail
Ġkryp tÄ¯
or ld
ĠiÅ¡l eista
Ġdeg alÅ³
Ġuos tÄħ
p n
ĠdarÅ¾ elio
a Å¡k
Ġtak Å³
ĠgeleÅ¾ ies
vyd o
Ġpsich ikos
t ymas
b ai
Ġkry Å¾
Ġstriuk ÄĹ
ĠÄ¯vertin imÄħ
Ġarm ijos
ĠÄ¯sig ijo
ad i
aliz mas
Ġpastat ÄĹ
Ġtur is
Ġaleksand ras
Ġgan ÄĹtinai
od as
am pa
sni ais
on ez
Ġprog Äħ
Ġdo c
Ġtap ybos
Ġefektyv umo
Ġp ut
ĠÅ« gio
an ui
aud ÄĹ
Ġk emp
Ġpristat yta
a h
Ġsek a
ĠdaÅ¾ Å³
Ġru tu
Ġder inti
ĠpranaÅ¡ umÄħ
ĠatpaÅ¾ inti
id ai
Ġnuv al
n k
Ġinform avo
n ak
Ġgyd ymÄħ
ĠiÅ¡Å¡ Å«kis
ĠkÅ«dik is
Ġbe pr
Ġsus kaiÄįi
Ġpa Äįia
l aus
ĠÄ¯l ank
9 1
Ġpanaud ojimo
ĠiÅ¡sir ink
Ġ6 3
Ġatmosfer Äħ
Ġtinkl uose
ien Äħ
Ġmetod ai
Ġlai vo
Ġpirk ÄĹjÅ³
Ġsod yboje
Å¡ vie
Ġspalv omis
ĠpasiprieÅ¡ inimo
inÄįiÅ³ jÅ³
Ġelektr omo
Ġnauj u
ro Å¾
oli v
: '
Ġpavard ÄĻ
Ġkomis ijai
ĠreiÅ¡k inys
up er
s al
Ġs w
ĠkÅ«ryb Äħ
p ÄĹ
Ġsl ov
Ġtvirtin imo
b en
eli ko
t iniam
æ ľ
Ġkolek cija
ĠvieÅ¡b utÄ¯
s aug
Ġval yti
Ġnetr adic
Ġfer men
Ġri ba
Ġveg et
am uosius
ĠuÅ¾mokes Äįio
m ÄĹms
Ġpasi traukÄĹ
Ġelektr inÄĹs
am umas
Ġsvarb Å³
Ġkor on
Ġfiz ikos
Ġtinkl ai
yt es
Ġsen a
Ġc an
Ġekr anas
ĠapÅ¡ il
b uvo
Ġp ub
fic e
Ġgri ov
ĠÅ¡vel ni
ĠmaÅ¾ o
Ġsie la
Ġm ink
Ġprie inam
y tumÄĹte
v aÅ¾i
Ġsma giai
Ġger inti
Ġek onomis
Ġnepat enk
Ġcentr inÄĹs
Ġkl aviÅ¡
Å¡i ais
eid imas
Ġnak tis
ĠÅ¡ak Å³
Ġsur as
Ġdie g
Ġbendruomen ei
Ġbendruomen ÄĻ
Ġpastar asis
Ġmaskv oje
Ġmo z
Ġkuk ur
Ġgamin amas
Ġpoli tinÄĹ
Ġklasik inÄĹs
Ġsaug us
ausk is
b Å³
Ġvis apusi
Ġpozi cija
Ġvicem inis
ĠpaÅ¾ inimo
Ġr Å«s
Ġlaik antis
ĠpraneÅ¡ imo
Ġvak c
Ġs Å«ri
Ġdraug ams
Ġpristat ytas
ĠaÅ¡ tr
ĠiÅ¡s idÄĹs
Ġnetur ime
Ġnepas id
ĠtaÅ¡k as
Ġb ai
Ġaplink ui
klaipÄĹd os
k ÄĻ
ÄĹj aus
Ġtar kime
Ġinstitu te
il ind
Ġplan uoti
Ġtaik ant
ir ba
Å«n ienÄĹ
ĠplÄĹ toti
Ġokup acijos
Ġreak cija
Ġg aid
Ġl k
. âĢĿ
b endr
ĠnusprÄĻs ta
, âĢľ
Ġkelion es
Ġvalsti jos
Ġuniversit etÄħ
Ġveikl as
ĠÅ¡i tas
Ġver tas
ĠÅ¡ak os
Ġpersik ÄĹlÄĹ
b aid
s er
Ġs lid
Ġorganiz atorius
Ġka Äįi
oj os
Ġatsis kl
Ġvok ieÄįiai
Ġnek alb
vien a
Ð ¿
Ġdar osi
g mail
ist inio
Ġneg alv
t avimo
Ġrink ÄĹjÅ³
on ams
Ġspeci alios
Ġlie Å¾uv
Ġkor telÄĻ
Ġrei Å¡ki
ĠdÄĹ li
Ġrom anas
v yri
pras m
Ġnepas ir
at si
Ġinvesti cijos
Ġgam yklos
Ġdirb anÄįiÅ³
Ġtal k
ur m
Ġklub Äħ
Ġporeiki ams
Ġmin ima
Ġatostog os
ĠrÅ«gÅ¡ ÄįiÅ³
Ġrank Å¡luos
ĠÅ¡iaur ÄĻ
Ġse x
Ġn au
Ġsuk ak
Ġsutar tyje
ĠtaÅ¡k Äħ
Ð½ Ð¸
Ġskait ykite
ting umÄħ
tin ku
Ġstatus as
ĠsugrÄ¯Å¾ ti
v aj
c er
Ġkalb as
Ġlaikotarpi ui
ÄĹ liu
Ġn un
Ġnurod ytÅ³
b re
Ġkiekvien u
Ġstu bur
ĠÂ «
Ġlen telÄĹs
Ġvadov aud
Ġleis tÅ³
Ġpramog os
Ġleid imas
ĠpasiruoÅ¡ ÄĻ
ĠbÅ« kite
Ġprofes iniÅ³
Ġmo li
Ġmokytoj os
lietuv iÅ³
Ġarb at
ĠÅ¡ or
Ġob uoliÅ³
Ġatidar yti
Ġvidu tinÄĹs
Ġneb r
Ġim uni
Ġprisijung ÄĹ
Ġgr uod
Ġhorizon t
n in
ol Ä¯
ĠtemperatÅ«r Äħ
Ġskaus m
Ġgaleri joje
tiÅ¡k o
ĠÅ¾ais m
Ġpen kio
Ġatvej ai
ĠdidÅ¾iul Ä¯
Ġnuotrauk Äħ
Ġteigi amai
Ġneg ird
ĠÅ¾urnalis tas
oj ate
Ġaug alas
Ġ7 2
Ġnusteb ino
Ġkonstruk cija
th is
Ġmagistr o
Ġsmul ki
Ġ193 9
Ġper kr
Ġp Å«k
Ġkoleg os
k or
Ġregistr o
Ġbag aÅ¾
Ġpirm ame
ch i
ĠryÅ¡ kiai
Ġpabaig Äħ
te lius
m it
Ġvie tinÄĹs
ĠÅ«k is
ĠpapraÅ¡ ÄĹ
Ġtik ÄĹjimÄħ
Ġtur ÄĹtume
Ġhi per
ĠÅ¡un s
ĠiÅ¡si un
esn ÄĹmis
ĠsÄĹkm ÄĻ
Ġsvar styti
Ġplan ai
Ġnes id
Ġaudi to
Ġneblog ai
j ie
ĠpareigÅ«n ams
ĠÅ¡im tÅ³
sm uo
Ġgal erija
Ġperskait yti
ĠlÄĹktuv Å³
Ġkoleg ija
ĠbÅ«d ama
ĠÄ¯rank is
ĠÄįempi onÅ³
Ġpus an
ĠsiÅ«l ÄĹ
ĠparaiÅ¡k os
Ġak tus
Ġlyg iÅ³
Ġdan ijos
Ġpad engti
Ġfotos es
Ġreform os
Ġsuk r
Ġak yse
eten z
Ġtend encijos
ĠiÅ¡ pr
Ġrink inÄ¯
ĠÅ¾ r
y paÄį
Ġtar ÄĹ
Ġjaus ti
ĠiÅ¡naud oti
ÄĹm us
Ġes anÄįiame
ei Å¡ki
Ġpasi Å«
ĠuÅ¾si ima
ĠsÄĹd i
Ġkeli us
Ġskver n
ytoj Äħ
Ġlik imo
Ġrez oliu
Ġat o
atv ÄĹs
yk ime
Ġskir st
ĠsÄħjung Äħ
Ġpavard ÄĹs
Ġpartiz an
Ġ Î
Ġmok inius
Ġsien as
Ġapsi gyven
Ġblak sti
ori u
Ġsusij usias
Ġpaj ud
Ġl v
Ġvar tai
Ġreikal ingÄħ
ur od
Ġat ribu
Ġaplink ybÄĹs
Ġlyg men
Ġkar Å¡Äįi
m aiÅ¡
Ġkov oje
Ġblog as
ĠruoÅ¡i asi
) )
Ġr aiÅ¡
ĠÄ¯sak ymas
ĠlaikraÅ¡ Äįio
Ġsto k
uo tais
Ġper tvar
Å¡ Å³
Ġkar inÄĹs
Ġmokytoj ams
Ġre pu
Ġgyven anÄįiÅ³
Ġtik ÄĹti
un ction
Ġabsoliu Äįiai
Ð ±
Ġtau tiniÅ³
Ġnauj ausias
Ġneats iej
Ġpolitik as
Ġdvar as
enk o
Ġtab ako
Ġpri traukti
Ġaplank ÄĹ
ki asi
Ġsustipr inti
Ġpui kiÅ³
ĠprocedÅ«r as
Ġlaik us
Ġapsaug otas
ĠlietuviÅ¡k as
ĠnatÅ«r alu
ĠpajÄĹg os
Ġf e
Ġdirb antys
Ġvic e
olog ai
Ġkomp et
Ġg avimo
pl ÄĹÅ¡
Ġpatal ynÄĹs
Ġbrand os
Ġ7 4
Å«d is
Ġdebi u
Ġpozi cijas
ar us
ĠÄ¯vyk dyti
ĠÄįi k
b s
Ġdeg uon
Ġrus ijÄħ
Ġlin ijÄħ
Ġlaikrod is
Ġsul ÄįiÅ³
Ġberni ukui
ÄĹj imais
Ġneb ij
ĠvaÅ¾i uojant
ĠrÅ«gÅ¡ tis
Ġgyven tojas
Ġsusitar imÄħ
201 0
Ġefektyv umÄħ
Ġpas yv
Ġkompan ijÅ³
ĠplÄĹtr Äħ
Ġtiek ÄĹjÅ³
Ġsl ypi
Ġpary Å¾iaus
Ġdiplom at
ub l
al inÄĻ
Ġlov a
Ġdis ko
ie kite
Ġpoilsi ui
ĠÅ¾al a
Ġprezid entÄĹs
Ġskir stom
Ġsaug aus
Ġrod iklis
ck is
audÅ¾i a
ĠdidÅ¾i ausios
Ġpartiz anai
Ġskelb ti
ĠgroÅ¾ is
ĠÅ¾ym iÅ³
ĠÅ¾enk liai
ÄĹ to
ĠmÄĹg stu
Ġgrind ys
Ġmaksim aliai
ĠryÅ¡ iai
ag en
Ġkokyb iÅ¡kÄħ
Ġsimptom ai
Å¾ a
ĠsÄĹkl Å³
Ġorganiz atoriÅ³
ĠpaÅ¡nek ovas
Ġbals avimo
ĠdidÅ¾iul ÄĹ
ĠÅ¡ep et
Ġpers var
Ġsupa pras
Ġpak eliui
Ġc ir
Ġmoksl us
avi ÄįienÄĹ
t uok
Ġper tek
Ġrod os
' '
Ġgeb ÄĹjimus
Ġpri tvirtin
Ġpan eig
s kir
Ġj ach
Ġ19 50
ing iems
Ġtr ink
Ġprogimnaz ijos
Ġduo na
Ġrus ai
Ġomen yje
Ġan on
Ġpuslap iÅ³
Ġdemokra tijos
z mÄħ
ĠsuÅ¾ ad
Ġbaz i
Ġstipr ina
ĠÅ¡yps ena
ĠÅ¡ild ymas
Ġnesud ÄĹ
Ġvid pad
Ġr atas
ĠraÅ¡ tas
r eng
Ġbaz ÄĹs
og en
Ġpro tas
ĠdÄĹs tÄĹ
l au
uoj anÄįio
Ġsavait gali
ĠapÅ¡vie timas
Ġprovin cijos
h op
Ġkr on
ĠÅ¡al d
Ġsukur tos
Ġpenk erius
Ġgyven antys
ĠÅ¾vej ybos
ĠÄ¯ eina
Ġeksp ort
Ġsta cion
Ġd os
Ġneap si
or u
Ġpokalb iÅ³
Ġbankro to
Ġf az
ĠpraÅ¡ ymu
ĠpaÅ¾ym i
Ġv alia
m ei
ĠbÅ« stÄħ
Ġpacien tai
Ġkvap o
Ġatv ÄĹs
ĠÄ¯vertin o
Ġpak li
Ġpramon ÄĹ
Ġatr ink
bl e
Ġdek o
Ġal l
Ġprem ija
ÄĹm imas
ĠÅ¡i uose
y tume
Ġsien a
i ose
yr as
Ġtechn iniÅ³
ĠpabrÄĹÅ¾ ti
Ġnuos prend
ĠplÄĹ toj
Ġprie glob
ĠtÄĹv us
Ġstik las
Ġaustr alijos
Ġvertin amas
Ġsim pa
ĠsumaÅ¾ ÄĹja
Ġrad io
Ġsusir asti
ĠvaikÅ¡Äįi oti
Ġgam tiniÅ³
Ġnauj ausiÄħ
ĠsuÅ¾ al
Ġep id
ad Å³
ĠbÅ« ta
Ġplauk ams
Ġnepat inka
ĠrÅ«pes ÄįiÅ³
Ġseks u
Ġkaral ystÄĹje
Ġveid as
sk a
Ġ194 9
ĠsÄħskai tas
ĠÄ¯ Å¾ym
Ġneat sak
ĠpripaÅ¾ Ä¯st
Ġpastat e
Ġmed aus
Ġtradic iniÅ³
Ġsteng tis
Ġrad au
Ġun ikal
Ġtaisykl ÄĹmis
Ġilg us
d d
Ġu lt
Ġkl ausia
evi ÄįiÅ³
Ġprisim inÄĹ
im inar
Ġdrusk ininkÅ³
Ġefek tÄħ
Ġkam uolÄ¯
Ġmin us
Ġsod e
Ġ edi
Ġilgaam Å¾i
Ġgrai kijos
Ġvari antÅ³
Ġkomentar Å³
Ġgintar as
Ġ16 0
v u
ĠmedÅ¾i ai
Ġvaini k
Ġl ukÅ¡
Ġatid uoti
Ġmok yti
yv ena
Ġjon iÅ¡kio
Ġmed iena
gan a
ĠmiÅ¡k uose
Ġl ind
Ġl uk
esn ei
Ġvadov u
ĠiÅ¡vys ti
Ġv ait
n ag
ĠÄ¯t eikÄĹ
Ġpaki lo
Ġnusprend Å¾iau
Ġ19 20
ot h
ĠÄįi uÅ¾
ĠprancÅ«z ija
vil eg
Ġdovan Äħ
ĠmiÅ¡k as
Ġproduk cija
Ġb ÄĹda
Ġgintar o
Ġc d
Ġreikal auti
Ġantr osios
ÄĹ liais
Ġv m
tu kus
Ġats kai
Ġsteb ÄĹs
h an
teri Å³
Ġ Ñģ
Ġpavaduotoj a
Ġter mo
Ġne virÅ¡
Ġsusi vien
Ġvalsti jÅ³
Ġfinans uoti
Ġpraei tÄ¯
Ġsl ÄĹg
var d
Ġ9 8
Ġpadid ina
Ġpartn eriais
Ġkai mÄħ
uli u
ĠvieÅ¡pa ties
Ġepo ch
Ġm inties
ĠÅ¡al tinio
Ġeksperim ent
Ġdom ÄĹtis
Ġnes in
Ġproces ai
ĠÅ¡ach matÅ³
ĠÅ¡ ta
ĠÄ¯reng inius
pr og
Ġlaim ingas
ĠsuÅ¾in ojo
" ),
ĠiÅ¡ kas
Ġkoki ais
Ġreabili tacijos
s ch
Ġc ilind
Ġkup iÅ¡kio
Ġatlik ÄĹjÅ³
Ġatsak ymus
Ġat palaid
auÅ¾ ÄĹ
Ġskir tus
Ġeg o
Å¡ ok
ĠkÅ«r inio
ĠÅ¡ aliai
Ġpasi tenk
Ġsenam iesÄįio
ĠdÄĹk ojame
in imosi
Ġprar ado
Ġam or
Ġ13 0
Ġap mÄħ
ĠvieÅ¡ oji
Ġat rak
il ÄĹs
ĠÄ¯v aÅ¾i
Ġatsiv eria
ĠÅ¡au liÅ³
Ġpasigir ti
Ġpil nÄħ
Äįi ama
Ġch ris
Ġtenden cijas
ĠkaÅ¾k oks
Ġpriver tÄĹ
ĠgrÄĹs mÄĻ
Ġdaik tas
anÄįi oji
Ġkas kart
Ġg as
ÄĹ tus
Ġh it
Ġnei l
ĠÅ¾ olÄĹs
ĠprieÅ¡ mok
omas is
Ġnepageid auj
Ġm ikal
Ġikimok yklinio
Ġvo kiÅ¡k
Ġpasak o
trauk a
Ġoper acija
ĠvaÅ¡ ing
ĠiÅ¡k yla
Ġkris tina
Ġats kiri
ĠraÅ¡ ytojo
ĠÅ¡uk uos
Ġpenk tadienio
Ġkar toj
Ġnedid eli
Ġdai li
ĠÅ¡v ÄĻsti
Ġband ymÅ³
Ġkompleks as
f orto
ĠpraÅ¡ ymas
Ġsen Å³jÅ³
-------- --------
Ġband yti
Ġsurink imo
so cial
Ġmes ti
dÅ¾i ug
ĠsÄħvok a
ĠuÅ¾s eg
Ġp is
ĠuÅ¾ st
Ġjud a
dr aug
Ġdabar tinÄĹs
s y
Ġjaun ieji
Ġster e
Ġat eiti
Ġs toj
er yje
az i
Ġvakar ais
ak Äħ
Ġan tis
Ġkop ij
Ġseg men
tum u
Ġneati tinka
Ġsv ie
Ġide olog
Ġj ac
Ġtau rÄĹ
ug en
Ġveikl Å³
Å«k Ä¯
Ġpus es
Ġka ÄįiÅ³
Ġatsirad imo
................ ................
Ġpr etenz
Ġvadov ams
ĠkaiÅ¡iad oriÅ³
Ġataskai tos
Ġsekre torius
Ġnet y
Ġh ib
Ġvykusi ame
Ġsen jor
ĠiÅ¡im tis
Ð ·
Ġinstitu cijoms
Ġapdovan otas
Ġterap ijos
k an
Ġkombin ez
Ġnaud ingos
Ġorigin ali
ys t
Ġtik ÄĹjimas
Ġprival umai
i ausiÅ³
ĠÄ¯sitik inti
Ġnustat ytus
Ġspektak lio
raÅ¡ Äįio
Ġatsak ymÅ³
ĠÅ¡ ri
em ent
ĠtreÄįi ojo
Ġpamat ysite
europ os
Ġjap onÅ³
Ġbes is
ĠrÅ«gÅ¡ ties
uos iu
et ÄĻ
ĠkaÅ¾k odÄĹl
ĠinÅ¾in erijos
ĠsudÄĹti es
c ol
Ġdokumen tuose
Ġskulp tÅ«r
Ġspor tinÄĹ
toj os
Ġtari f
v inas
Ġkr ante
Ġin sul
ĠbÄĹg imo
Ġilius tra
**** ****
g aud
Ġeksp orto
ĠpasiruoÅ¡ ti
eks u
k in
Ġv esti
ĠÄ¯si tvirtin
Ġcentr uose
Ġv du
ins kio
Ġaliej umi
Ġpik tnaudÅ¾i
Ġekskurs ijos
ĠnerÅ«dij anÄįio
Ġreglamen to
Ġf os
Ġprov ok
ĠÄ¯vertin imas
Ġpard avimas
ĠÅ¡al Äį
Ġpatrauk l
Ġklaus imo
Ġgim ÄĻs
Ġadministrac inio
om oji
Ġatl eisti
j onas
Ġpak eli
Ġsal da
el a
pr ek
Ġtitu lÄħ
Ġsus ie
Ġatlik imo
Ġtr y
Ġpriel aid
k alb
uok Å¡
Ġspaud a
ta g
Ġtal pa
ĠprisipaÅ¾ ino
j uo
Ġgr esia
ĠÅ¾emai tijos
Ġteis inga
Ġinter aktyv
r ov
ĠiÅ¡ dÅ¾i
Ġsker smuo
Ġlaip snio
ĠprocedÅ«r Äħ
s w
Ġper ÄĹmÄĹ
el and
ak amp
k odÄĹl
Ġautomobi liams
uod u
Ġreikal auj
ri ko
Ġpokal bio
aud os
adien iais
Ġmok o
Ġskers mens
Ġasortimen tÄħ
Ġapmok ÄĹjimo
ĠÄ¯ tais
Ġvir sta
Ġpagrind ines
fin ans
Ġver Å¾
ans as
Ġw e
Ġw indows
Ġbakalau ro
Ġku bi
insk o
ak Å³
Ġlank yti
Ġpri vileg
a w
Ġnet inka
tr u
ĠpoÅ¾iÅ«ri o
ĠdÅ¾iaugsm Äħ
Ġ198 0
Ġt srs
Ġskelb imas
Ġmal dos
s avo
atori ams
Ġnurod ytu
Ġmar ius
Ġsk ie
Ġsusi tel
ĠpadÄĹk os
Ġv yd
om asi
Ġskai Äįiai
Ġpareig a
ĠmaÅ¾ men
t esnis
Ġprar asti
Ġkonkr eÄįiÅ³
Ġgrup e
ĠpaÅ¾ eis
Ġn t
Ġtem omis
Ġpirk ÄĹjui
Ġkontr as
Ġenerg et
Ġpuslap is
Ġeki pos
Ġst ank
uv oje
Ġkoron avir
Ġform uoti
of i
Ġsaug umui
ĠpaÅ¡ auk
Ġpasak os
ĠlietuviÅ¡k Äħ
Ġv asi
Ġpama Äįiau
Ġk ed
Ġl ina
Ġm ur
Ġmerg elÄĹs
Ġmerg aiÄįiÅ³
Ġapim ties
Ġdu Å¡o
Ġit ali
Ġseri ja
Ġtar ybai
Ġsudar ytos
Ġtrum po
Ġ19 19
end o
Ġsi gi
h z
av usios
ĠjÅ«r Äħ
Å¡ im
fil m
Â ³
Ġpasek mes
Ġpapild omo
Ġpast angos
d s
ĠmÄĹn ulio
c al
Ġatlik ÄĹjas
tei r
ĠnebÅ« tina
Ġak var
Ġbiur as
ĠtÄĹv ais
aÅ¾ od
Ġadministrac iniÅ³
Ġmilij onus
Ġsavi Å¾ud
Ġsubjek tÅ³
Ġpasv alio
Ġkoj omis
ĠkiauÅ¡ inius
Ġreak cijos
g ra
ele to
ĠkrepÅ¡ ininkai
Ġam atÅ³
Ġparduod ama
Ġmies telis
Ġlig Äħ
Ġsub til
Ġnugar oje
Å Ĥ
Ġsez one
Ġri ki
ant os
Ġta Å¡kai
ĠiÅ¡vaizd os
Ġpartn eris
Ġv mi
Ġimp eri
ri ui
Ġpastar Å³jÅ³
Ġnet aik
Ġtaisykl ÄĹ
Ġdev yni
Ġkreipi asi
Ġgyven vietÄĹ
pr ogr
Ġor kai
Ġg ub
ĠÄ¯mon ÄĹse
Ġnaudo tas
ĠÄ¯sim yl
Ġbat erijos
Ġter Å¡
Ġn ij
g az
Ġprel iminar
Ġpl on
Ġkan ados
Ġtil tas
ki Å¡kiÅ³
Ġsusij ung
er vis
Ġv as
Ġlaim ingi
ĠseniÅ«n ijoje
ap j
Ġjaus mÅ³
Ġvanden yno
st ÄĹ
Ġnenori u
en umer
Ġl oj
Ġvo Å¾
Ġstud ijoje
Ġr ang
Ġstab d
Ġmem ori
Ġtvir tov
Ġs iÅ³s
ĠvieÅ¡pat s
Ġma gi
Ġpokalb is
ĠÅ¡ta bo
Ġger ina
Ġre c
ĠaukÅ¡ tÅ³jÅ³
Ġatlik us
Ġsli din
Ġgal imÄħ
j on
Ġrez iden
âĢľ ;
Ġnes um
Ġabs ol
ak e
Ġkri zÄĹ
Ġg us
Ġilg am
ĠpraÅ¡ ÄĹ
Ġistor iniÅ³
ĠiÅ¡d uoti
d ol
Ġasmen ybÄĹ
ĠÅ«k yje
ĠreÅ¾is ieriaus
Ġprival oma
ac inÄ¯
ĠÐ ²
Ġkokyb e
ĠÄ¯vyk Ä¯
Ġrie bal
ĠdÄĹv ÄĹtas
Ġfr an
Ġagent Å«r
Ġchem iniÅ³
Ġro tuÅ¡
Ġiev a
Ġkal tÄĹs
es o
Ġsign at
Ġproduk cijÄħ
Ġnos ies
Ġtiksl ams
Ġsur enk
Ġpralaim ÄĹjo
Ġs Å«d
Ġak tai
Ġpav og
Ġsti pend
unk sn
ĠÂ °
Ġl yt
Ġnep ar
Ġrem ig
Ġ6 1
Ġmok inys
Ġvert ybÄĹs
Ġste p
Ġpab endr
Ġpadid ÄĹja
Ġor u
ĠÄ¯reng tos
Ġtem as
Ġjurid iniÅ³
ki Å¡kai
Ġneturi te
Ġjau Äįiu
Ġministr Å³
Ġdro Å¾
Ġsantyk Ä¯
ik lio
Ġ ÄĹ
Ġki ber
Ġvyriausi oji
Ġkurs Å³
tin ta
Ġelem entas
Ġsavait g
Ġpalyg inus
Ġbaud a
Ġdiskr imin
Ġpriim ami
Ġrin kitÄĹs
ĠÄ¯raÅ¡ us
ol ei
Ġtikr ais
Ġg ÄĹd
Ġinspek cijos
ies ti
ĠÄ¯ ter
ĠreÅ¾ imo
Ġvidu tinÄĹ
i oje
ĠÄ¯reng inio
in fek
Ġkoncer to
Ġlygi u
Ġsaug omi
Å«r o
Ġatstov us
Ġugd ymas
r odo
Ġnurod ytos
Ġder inys
Ġsen s
ĠpaukÅ¡ Äįiai
ys ta
Ġgatv ÄĻ
Ġnelaim ÄĹs
Ġmat ote
Ġrink ai
ĠjÄĹg Äħ
Ġraud onos
ĠdarÅ¾ ovÄĹs
tuv e
Ġpareig Å«nas
Ġtri um
Ġup iÅ³
s s
Ġtruk do
Ġsusid uri
Ġmol ek
Ġr af
Ġnes aug
Ġkaral ystÄĹ
Ġ6 7
Ġdain ininkÄĹ
Ġdid ele
Ġkvalifik acijÄħ
Ġeksper tas
Ġispan ijoje
Ġtarptau tinÄĹje
Ġnorm Å³
Ġkar tas
im p
t ÄĹja
Ġredak torius
Ġketuri os
Ġne tiesiog
aul t
Ġkri z
ĠÄ¯stat ymu
ĠiÅ¡tir p
ĠiÅ¡ anks
ut au
ĠiÅ¡l eid
p lo
Ġaps var
ov u
Ġtr eÄįiÅ³
Ġpavasar is
in amÅ³
Ġkon ven
ĠuÅ¾sien Ä¯
Ġtranspor tu
ĠÅ¡ved ijoje
f ord
iÅ¡k is
Ġatsak ingi
u ik
ĠdaÅ¾ n
ĠÅ¡iau liai
Ġkazimie ro
Ġkonferen cijÅ³
Ġat ÄĹjus
Ġs Å«r
olog Å³
ĠlaiÅ¡k us
Ġsind r
Ġbritan ijoje
Ġgalim ybÄĹmis
Ġr ygos
ytoj os
Ġer z
Ġteks tÅ³
g Å¾d
Ġtradi cijÅ³
Ġport ale
Ġsutr ump
ĠÅ¾em dirb
Ġg uma
eÅ¡ io
Ġvadov auti
ĠkultÅ«r Å³
ok rat
Ġr aidos
Ġvald ÄĹ
ei Å¡
Ġseni Å«nas
Ġveis liÅ³
an aliz
Ġlank o
Ġi f
Ġbyl Å³
Ġval go
ĠÅ¾ali Å³jÅ³
dÅ¾i os
Ġger esnis
kl ini
Ġj uv
Ġnaud ojo
Ġlaiv as
Ġpraktik oje
c ri
Ġabi tur
Ġr uo
Ġskaitmen inÄĹs
Ġskland Å¾iai
ĠÅ¡ak nÅ³
Ġlatv iÅ³
on ÄĻ
Ġnu tinka
Ġkredi tai
Ġapmok estin
Ġc iklo
Ġstrateg ija
Ġsuk asi
Ġrau menis
Ġabitur ien
Ñ ħ
ĠiÅ¡ gr
ĠmaÅ¡ inÄħ
Ġpus val
ĠÅ¡eim ininkas
Ġapr angos
ĠmaÅ¾ esnÄĹs
Ġ194 7
Ġatliek as
si au
ĠmiÅ¡ inys
Ġtal pos
Ġb ob
Ġr atÄħ
Ġrink osi
Ġsal ÄĻ
ĠÄ¯vair ovÄĹ
Ġtiksl ui
Ġro z
Ġsmul kiÅ³
Ġsportinink Å³
ĠiÅ¡sisk yr
ti ve
Ġir ena
tel ÄĹse
Ġatlyg inimas
Ġm ono
Å¡k ais
Ġpilie Äįiams
Ġantra jame
Ġversl ininkai
Ġd aig
Ġsek ÄĹsi
Ġge orge
Ġvykd omi
Ġbe tono
Ġvil tis
Ġorigin alus
Ġtak si
Ġp ulk
Ġkie mo
ĠÄ¯kai tin
osi u
Ġatstov auja
ĠdeÅ¡imt metyje
ĠpraÅ¡ yti
Ġprofesion aliai
insk ienÄĹ
Ġkonferen cijÄħ
Ġpalaik ÄĹ
i osios
ĠsiÅ«l omas
Ġpavoj aus
ci us
ais ti
Ġap m
tr au
Ġsuk ÄĹl
Ġatei tis
Ġsen Äħ
Ġsku bi
au Å¾i
Ġr etas
Ġm asi
Ġpakrant ÄĹje
Ġjau ki
al iniai
Ġatidar yta
Ì ¨
Ġmil tÅ³
Ġsp ÄĹjo
Ġjapon ijoje
Ġkeram ikos
ĠÅ¾ and
Ġkonstruk cijÅ³
==== ====
Ġistori jÅ³
Ġman tas
ĠÅ¾ym ÄĹs
ĠÅ¾iÅ«r int
Ġkokyb iÅ¡ki
Ġteiki amas
in ate
in eÅ¡
Ġpagam intos
Ġatskir Äħ
Ġsta biliz
ĠbÅ«d ami
Ġpunk tas
und a
Ġproblem omis
ti tu
ĠÄ¯steig ta
Ġag ur
ĠÄ¯ pil
Ġskait ymo
aus iems
ĠÅ¡ak n
Ġprim inti
Ġl ot
sp e
Ġlaid o
Ġaf gan
Ġatsi tiko
Ġpoli tinio
prod uk
ĠiÅ¡r inkti
Ġprinci po
uo tame
Ġprival umas
Ġenerg e
en erg
Ġvyr esnio
Ġpor n
ei vis
atÅ«r Äħ
ok Ä¯
er kite
Ġsam d
Ġnus p
Ġapdovan ojimÄħ
Ġaustr al
Ġnu im
Ġd inas
sk e
ĠÅ¡vent ei
Ġd inam
ĠbÅ« rio
Ġnagr inÄĹti
ĠrugsÄĹj Ä¯
en h
Ġpal tai
un dÅ¾iÅ³
ÄĹjusi us
ĠkunigaikÅ¡ Äįio
es s
Ġpasta ba
Ġangliav anden
Ġtarptau tinÄĻ
ĠÄ¯spÅ«d is
Ġkokyb iÅ¡kos
Ġpl eÄįi
Ġsp rag
Ġfolkl oro
Ġpris istat
Ġmom entu
Ġklaus ytis
Ġviduram Å¾iÅ³
Ġaug alus
te x
Ġneap yk
li ukus
Ġnesi tik
Ġmyk olo
Ġpaskir tÄ¯
' ).
Ġnepri tar
d eg
Ġm iÅ¡kai
Ġsu ver
Ġtar yb
ej o
ĠiÅ¡ kl
aud avo
ĠslÄĹ gio
Ġir kl
Ġsekm adienio
Ġregistr uotis
Ġpop ieriÅ³
ant ais
Ġsk ep
Ġgim sta
Ġdi vizi
Ġbaz ÄĹje
Ġ6 9
Ġgrie tin
Ġtinklalap yje
Ġpacien tas
Ġpag ard
Ġnes uv
Ġgab ali
ed es
e Äįius
Ġpav yd
teri ai
Ġsti lis
Ġpj ovimo
Ġstere oti
v in
Ġbals uoti
Ġatk Å«r
ĠÅ¾ing snÄ¯
Ġser ver
ĠneiÅ¡ si
Å¾ ÄĹs
val ga
Ġs olis
Ġrekomend uoju
Ġgerb ÄĹjÅ³
Ġelektron ikos
Ġstengi amÄĹs
Ġkl ausi
Ġvald yba
j an
Ġkon d
p m
Ġzaras Å³
Ġprireik us
Ġlaik ai
Ġjaun uoliai
Ġc irk
ama jame
Ġaustri jos
Ġank Å¡
ĠkaÅ¾k iek
Ġberni ukas
Ġar Å«nas
Ġvokieti jÄħ
200 8
ta Å¾o
Ġnepr ar
b or
lietuv oje
Ġb ÄĹgi
Ġpar al
Å¡ eÅ¡
Ġind Å³
Ġvers ijos
si on
Ġkri tikos
Ġkan ap
Ġas o
Ġgen e
Ġreag uoja
Ġbasan aviÄįiaus
Ġpaklaus ÄĹ
Ġpur kÅ¡
ovi Äįius
ĠÄ¯reng imo
raÅ¡ yti
ĠpaieÅ¡k Äħ
Ġband ymas
Ġduo b
Ġrestor anÅ³
Ġpri trÅ«k
Ġrezultat o
bal tic
ĠsÄĹd ynÄĹs
Ġkryp ties
Ġkompet encijos
i usi
ac iniai
Ġatstov ams
Å¡ ys
Ġmin imas
Ġfak tÅ³
Ġatkreip ÄĹ
Ġsusid or
200 9
Ġap els
y kit
Å¡ ÄĹ
Ġapib rÄĹ
Ġprote z
Ġsusirink imo
Ġpasirod ymÄħ
Ġpasek miÅ³
ĠÄ¯vyk sta
Ġ194 8
ĠdarÅ¾ oves
ĠtemperatÅ«r oje
Ġnes unku
ĠÅ¾ied Å³
ok os
Ġlietuv ius
Å«k Å¡
Ġsklyp Å³
er os
Ġneb laiv
Ġd at
ĠiÅ¡p ard
Ġak cijas
Ġreik mÄĹms
Ġn ic
ei t
to mas
ĠuÅ¾duo tÄ¯
Ġne tikr
Ġnuosek liai
aus tas
Ġdail ininkas
Ġanti bio
Ġt ose
Ġsin te
Ġ erg
yl e
pas ir
Ġ9 2
Ġvil ki
Ġprar anda
Ġblog a
ĠsÄħmon ÄĹs
Ġpirk imas
Ġkompiuteri ai
Ġatlyg inimÄħ
ĠvieÅ¡ ojoje
inti eji
Ġvid inis
Ġra cion
Ġpunk to
ĠÄ¯s isk
Ġnuorod a
ki Å¡ki
Ġatvyk st
tin u
Ġder ÄĹtÅ³
Ġgrup ÄĹse
ĠÅ«k ininkai
ĠkÄĹd ÄĹs
Ġprinci pÅ³
Ġon k
er k
tak as
ev as
Ġilg Å³
ĠÄ¯staig Äħ
ĠÅ¡iaur ÄĹje
Ġmedvil n
s at
Ġlazd ijÅ³
Ġatitik ti
Ġ9 00
Ġko oper
ĠpirÅ¡ tÅ³
Ġatliek ame
Ġstraip snius
ĠpirmÄħ sias
vald yti
Ġpakr uoj
Ġsen iau
h id
Ġmedvil nÄĹs
Ġder ybÅ³
Ġperspektyv os
Ġsan techn
s var
ĠuÅ¾ truk
Ġai rijos
avi ÄįiÅ«tÄĹ
Ġfak tÄħ
Ġrekomend acijas
es co
Ġs Å«rio
Ġpriklaus ys
Å¾al giris
Ġsvarbi us
Ġgalv oju
Ġpagrind Å³
ĠiÅ¡pl at
Ġvadin amos
Ġpiliet ybÄĹs
Ġpasidar ÄĹ
å ¤
Ġcitr inos
Ġlie tus
Ġtr imis
h l
ĠÅ¡ yp
Ġrestor ane
Ġatsak inga
p ÄĹs
ĠprieÅ¾iÅ«r ai
Å« v
Ġvarto tojui
Ġpavoj inga
ingr ado
Ġsusirink imas
Ġkorpus as
Ġg ylis
Ġdalyk Äħ
olog iniÅ³
Ġdev yn
ĠiÅ¡ ankst
Ġmartyn as
Ġpasi teir
pl a
Ġneb ijo
Ġs ykÄ¯
Ġatsid Å«r
Ġpietr y
Ġsiek s
Ġdai va
Ġgeri ausio
Ġdu jos
ed ik
el ei
Ġsie l
Ġkukur Å«z
Ġmaksim alus
Äįi uje
ĠÅ¾urn alas
ieri umi
Ġskl eidÅ¾i
Ġtem p
Ġmie l
Ġspecial istams
Ġstog as
Ġsen ojo
ĠÅ¡vel nus
âĢľ ?
Ġnorm aliai
Ġgal ingas
Ġskyr imo
l yje
v ÄĹp
Ġr ato
Ġkaimyn ai
ces s
ting us
Ġantr ame
Ġpsicho terap
ĠvirÅ¡ ija
ĠÅ¾vaigÅ¾d utÄĹmis
Ġcentr aliz
ap ple
Ġrelig ija
Ġkov ojo
Ġsusid urti
ĠtreÄįi asis
Ġport alo
Ġm oti
Ġsutik imÄħ
Ġken Äįia
ne y
ati onal
ĠiÅ¡skir tin
ĠiÅ¡v akar
Ġautoma tiz
Ġvestuv es
Ġarchitek tÅ«ra
Ġkur sas
Ġkai mÅ³
ait ei
Ġfak tiÅ¡kai
ĠkraÅ¡ tu
ci au
Ġkom pr
ni ais
ĠiÅ¡mok Å³
Ġr anda
Ġpateiki amas
r ol
Ġdaug umÄħ
Ġatlik s
Ð ³
Ġj oks
Ġsusitik imai
Ġversl ininkas
Ġlabdar os
Ġkar ol
Ġgam yboje
aud i
Ġver Äįi
ĠÅ¡al Äįio
Ġfiz i
Ġgalim os
os p
ĠlietuviÅ¡k a
Ġelem entar
Ġakadem ija
Ġasmen inio
Ä ĵ
Ġdalyv avimas
Ġtrump alaik
Ġmod elius
Ġpasi un
Ġpapras ti
in anÄįius
Ġteis ÄĹjas
Ġpag arba
Ġnepasi tik
... >
Ġpsich ologijos
Ġgav ÄĻ
Ġab strak
Ġak cijÄħ
æ Ĺ
Ġats tumÄħ
Ġz ig
an ia
Ġdid ÄĹj
Ġno tar
Ġarab Å³
tr an
Ġcuk rÅ³
Ġnustat oma
Ġlais va
Ñģ Ðº
Ġgim tadienÄ¯
ĠlÄħs telÄĹs
ĠminÄĹ ta
Ġnes t
Ġj ol
ĠÅ¡okol ado
Ġr az
Ġimpr oviz
ty tis
Ġsul aukia
Ġsoli dar
Ġpa blog
uotoj o
Ġkredi tas
Ġavar ijos
s usi
Ġr atai
Ġpl unksn
Ġpal ei
ĠsÄĹkl os
Ġvyriaus ybei
, .
Ġsek undÅ¾iÅ³
Ġpaband yti
ĠpraneÅ¡ imai
ĠbÄĹg ti
med Å¾io
Ġsiun timas
Ġnetink amai
Ġvykd ÄĹ
Ġpag elb
Ġx s
Ġpatikr inimo
y tomis
Ġeur us
Ġsieki ame
Ġsitu acijose
Ġpardav ÄĹjo
Ġstengi uosi
Ġab iem
Ġsprend Å¾ia
Ġprab ÄĹg
Ġspektak lÄ¯
z g
Ġak toriÅ³
Ġrim tÅ³
p ie
ok us
Ġbendr am
Ġpatalp oje
Ġnenor ÄĹjo
Ġfab rik
ag as
ĠÅ¾aid ime
Ġnuosto lius
Ġnen uos
Ġ0 9
ÄĹjusi Äħ
ĠneÅ¾ inia
Ġvanden tie
Ġper skai
Ġpag ÄĹgiÅ³
Ġner eg
Ġbaz ÄĻ
Ġisp anÅ³
m p
Ġapsis prÄĻsti
Ġraj onuose
Ġses uo
Ġd inami
ĠÅ¡il tos
Ġnutar imu
Ġprag yven
Ġd ÄĹd
Ġsut virtin
Ġprinci pai
Ġsl epi
Ġdo z
Ġmilij ono
Ġnepasi tenk
l ing
Ġproduk tais
Ġlauki ame
Ġaps id
Ġjer uz
Ġtobul inimo
Ġant spaud
m ulk
Ġplatform a
Ġnes ur
Ġkris ti
Ġsakr amen
Ġataskai tÅ³
am oms
Ġobjek tÄħ
ĠÄ¯sig ijimo
Ġ8 8
Ġinformac inÄĹs
Ġkep enÅ³
ĠÅ¡im tÄħ
ĠÅ¾aid yniÅ³
Ġpie tuose
Ġgais ro
Ġ0 8
Ġveik sniai
Ġdizain Äħ
or b
ku tÄĹ
Å¾ od
Ġvaid ina
Â »
Ġmed ikÅ³
Ġgav us
Ġse imÄħ
o ut
ĠpaÅ¾as tÅ³
ĠrieÅ¡u tÅ³
Ġnaudoj ame
ĠmÄĹs Äħ
Ġvairuotoj ams
Ġop on
Ġpergal ÄĹ
Ġpaskut inio
Ġkur je
Ġsvog Å«n
Ġbron zos
ĠsupaÅ¾ind inti
Ġdabar tinis
ĠparaiÅ¡k as
Ġpros pek
Ġp olis
gal ima
Ġnepri im
Ġvald as
l ok
Ġdaug ÄĹja
Ġsluok snÄ¯
Ġsocial iniuose
Ġneat sis
u ba
ĠÄ¯s ijung
Ġmetod Å³
os t
Ġpatog iau
ĠseniÅ«n ija
Ġspor tuoti
red it
ĠiÅ¡sami ai
ĠuÅ¾ uot
ĠÅ¾yd ai
Ġorganiz avimas
Ġkompeten cijÄħ
Ġr ap
Ġaktu al
Ġskr andÅ¾io
Ġk ant
Ġjav as
Ġpaskut ini
ĠmÄĹlyn os
Ġveik ÄĹjÅ³
av om
Ġtar Å¡os
Ġklien tus
ĠdÅ¾ins ai
Ġs me
Ġk ÄĹlÄĹ
Ġmalon i
Ġlaisv os
Ġdok ument
Ġfinans inÄĻ
Ġsusil aukÄĹ
ĠÅ¡al ta
ï ¼
Ġjo kia
Ġprasid ed
Ġskait ytojÅ³
ut ei
Ġpaskut inius
ĠtreÄįiÅ³ jÅ³
ĠÅ¾ini Äħ
Ġprietais as
Ġpasisk ol
Ġdaug umai
Ġkon stan
Ġvid inÄĹ
Ġsk uod
Ġm ÄĹl
ĠvirÅ¡ ininko
lo t
Ġkoncent racija
ap us
Ġgatv e
Ġbr ok
Ġw ith
ĠÄ¯gyvend inimÄħ
Ġmin tÄ¯
ĠÄ¯staig oms
Ġkr ent
Ġbeg al
Ġ198 7
Ġkatalog as
Ġbl ack
Ġb iz
Ġkris tus
Ġautobus as
Ġv aliÄħ
Ġnor us
Ġseni ausiÅ³
Ġ197 5
g s
Ġregion uose
Ġbaz ÄĹ
Ġkom pres
Ġpien Äħ
Ġp sl
ĠdÅ¾iug ina
Ġl is
av ai
Ġataskai ta
kad angi
Ġkiber net
Ġsk ar
ĠiÅ¡s kl
Ġaptarn avimas
Ġmas aÅ¾o
Ġakimir kos
Ġatsi ver
ĠrÅ« mus
ykl ÄĻ
Ġdabar tinÄĹ
p am
Ġpav yk
Ġdiev u
ĠlaiÅ¡k Å³
j ÄĹ
ÄĹjo te
Ġstres Äħ
ĠuÅ¾ kirsti
Ġsubjek to
Ġdie tos
auj u
ĠÅ¾iem a
ali am
Ġpirm ininku
Ġvaik inai
] ,
Ġgau ta
for n
Ġre organiz
kaun as
Ġbes il
Ġorkai tÄĹje
Ġkito kios
Ġsusis iekite
Ġp usias
Ġst eigi
Ġnaujien as
Ġpaskai Äįi
ov ei
Ġform avimo
ci ai
al uose
Ġpr om
ĠiÅ¡mok os
kir ti
Ġuog Å³
Ġpavad intas
aik os
Ġka til
Ġsav ir
Ġterm ino
ĠÄ¯tamp Äħ
Ġastr onom
Ġl l
toj oje
Ġvald ovÅ³
Ġp uokÅ¡
Ġlenk ai
Ġtau tai
Ġpatyr ÄĻ
ĠjauÄįi uosi
Ġch oras
ed Å¾i
Ġpasak ojama
tr op
ur b
Ġbal Å³
gr ei
ĠÅ¾valg ybos
Ġt s
Ġmas to
Ġkomun istÅ³
ĠminÄĹ tÅ³
Ġmoksl ininkas
Ġsri tys
Ġtermin Å³
Ġmie las
Ġ| |
Ġplau ÄįiÅ³
Ġeg id
ĠaukÅ¡Äįi ausio
on ija
r Å«
Ġreguli uoti
Ġvil nos
Ġpasirod ymas
avie tÄĹs
ĠgrÄĹs mÄĹ
Ġatmosfer a
Ġpr aus
Ġp od
or us
Ġc ap
Ġbes imok
prez iden
Ġkrauj Äħ
Ġnepa tik
Ġper Å¾
ĠiÅ¡m ÄĹg
ar to
ĠuÅ¾s uk
Ġatnauj inimo
Ġkud ir
Ġteritori jose
Ġtechnolog ijÄħ
Ġvar p
Ġspeci aliÅ³
Ġmeis tras
ĠpraÅ¡ au
ĠaiÅ¡ ki
Ġsij onas
uo lo
Ġlogis tikos
Ġpunk tÄħ
Ġh omos
Ġregistr uoti
gi ui
Ġ19 70
Ġvien us
ait Ä¯
ĠprieÅ¡gais rinÄĹs
Ġvaliu tos
p d
si Å¡kai
Ġatlik tÅ³
Ġatk ov
Ġvien erius
Ġauk os
Ġdalyv avimÄħ
inink e
per k
Ġantr os
Ġs ara
Ġd onal
Ġkap sul
ĠÄ¯ jungti
Ġlank ytojams
Ġatr ado
Ġpagrind inÄĻ
ij imas
Ġsusitar ti
Ġskol os
y ota
Ġteis ingas
Ġlav inimo
s Äįio
ys tei
Ġe ugen
Ġand Å¾
n ÄĻ
Ġfinans avimÄħ
Ġypat ingi
mic rosoft
Ġlyd eriai
ĠiÅ¡ vir
Ġatvyk us
uoj anÄįiÄħ
Ġmok ama
h el
Ġpristat ome
tuk ais
ĠkraÅ¡tovai zdÅ¾io
yb ose
Ġpir am
Ġkoki omis
Ġart ÄĹja
ĠsÄħ Å¾
es tas
Ġpaskol as
Ġsusik urti
egz ti
Ġpav ieÅ¡
s ki
Ġdok umentais
as k
Ġmechaniz mas
Ġan Å«k
Ġne eil
Ġgel tona
Ġparamet rai
ĠÅ¡ lif
Ġvad o
Ġati dav
ĠÅ¡ar v
Ġmarc ink
Ġh ek
ĠmaÅ¾ esni
Ġras tas
Ġrod omas
v and
Ġatsi imti
Ġge ba
Ġbesid om
Ġh ard
Ġaplinkos aug
Ġf u
Ġ ï»¿
Ġfilosof ija
Ġpasak ojimas
Ġm amai
k ep
ĠÅ¾emÄĹlap yje
Ġd ei
Ġal ber
5 00
ĠaukÅ¡Äįi ausiÄħ
Ġistori jas
Ġk ek
Ġpasirink tas
Ġbaigi ant
Ġam Å¾
Ġmedic ina
Ġnenus tat
Ġsuvar toj
ali uose
Ġatstat yti
li avos
Ġjurid inio
l eris
Ġsud r
Ġnauj ausi
Ġpreziden tu
ĠÄ¯spÅ« dÅ¾iÅ³
Ġsteb ÄĹjo
Ġki bir
Ġbakteri jÅ³
Ġli b
Ġmokykl ai
Ġuni form
Ġd il
Ġats imin
Ġnaud ai
Ġpritaik ytas
Ġstrateg ijÄħ
Ġcentr inÄĹje
te liais
Ġpaskut iniÅ³
Ġegip to
ĠÅ¾ibin tai
Ġpasaul inÄĹs
Ġblog iau
Ġsusitar imo
Ġtapat ybÄĻ
Ġreikal ingus
Ġistor inÄĹs
Ġre por
er ÄĹs
is o
ÄĹj oje
Ġatsis ako
ĠÄ¯staig as
un das
Ġrober tas
Ġin tui
Ġapg aul
ĠaikÅ¡ tÄĹ
Ġskir tis
Ġdalij asi
Ġvietov ÄĹse
g yd
Ġakadem ijoje
Ġklini kos
Ġkleb onas
w it
ri z
Ġatspar us
Ġpatik imas
Ġtvark ymas
Ġaktyv umo
Ġsos tinÄĻ
ting umas
Ġlais vo
Ġregistr e
Ġtoki ose
Ġkampan ijos
Ġegzam ino
is e
Ġteksti lÄĹs
Ġunivers alus
Ġpag yven
Ġsutik imo
ĠuÅ¾siÄĹm imai
h tt
Ġm c
ĠgeleÅ¾ink eliÅ³
ĠÄ¯sipareig oja
Ġmed inÄĹs
Ġneb en
Ġniekuo met
Ġsud alyv
Ġide ali
ĠieÅ¡k ojo
Ġgeb ÄĹjimas
Ġnu trÅ«k
Ġafgan ist
Ġ198 5
Ġrecep tai
s ub
Ġk eleto
Ġr eis
Ġsak yÄįiau
Ġrezultat ais
Ġpj es
Ġtikr asis
ĠÄ¯ran kius
y ou
Ġpar si
Ġskamb ÄĹjo
Ġs vaig
r oje
Ġtris deÅ¡imt
ĠdeÅ¡ inÄĹje
ĠgyvÅ«n us
Å¡ ak
Ġtur o
men as
Ġgars ÄĹja
Ġpav ÄĹs
Ġprisit aikyti
l ei
ĠÅ¡iuolaik iniÅ³
Ġsav ininko
ĠÅ¡ak nis
Ġinfek cijos
Ġdir bu
Ġatstov avo
Ġanaliz uoti
ĠÄ¯trauk tas
Äįi uo
Ġsun kiÅ³
aud o
Ġ8 2
Ġkalend oriÅ³
ĠiÅ¡gelb ÄĹti
g Äħ
s Ä¯
Ġmet a
Ġpo z
ĠÅ¾ alios
ĠnorÄĹtÅ³ si
av as
Ġvyr us
pas k
ĠgrÄ¯Å¾ ÄĻs
Ġtradic inÄĹs
Ġgl eiv
Ġpak vie
eik is
Ġbaud Äħ
Ġprojek tams
Ġpamok sl
Ġb anga
Ġdalyk o
Ġgener alinio
Ġprad ÄĹjome
ĠgraÅ¾i Äħ
Ġkoncent racijos
Ġtvark araÅ¡
Ġmilij onai
Ġsmul kiai
Ġtend encija
Ġpab Å«ti
Ġsocial iniai
h r
Ġapsis aug
ingi ausias
Ġmies tui
Ġpaveiksl as
Ġseni Å«nai
Ġgalv ojau
Ġnaud ingÅ³
Ġlap us
Ġpateik tÄħ
tadien is
Ġspecialis to
ĠpaÅ¾eid imas
to dÄĹl
ĠpraÅ¡ ymus
Ġniujor ko
Ġp and
Ġne manau
ijos i
ons ult
ĠiÅ¡ jungti
ar n
ĠÅ¡ Å«d
Ġpasiek s
Ġakivaizd oje
Ġatm inti
egz ist
Ġdid meninÄĹ
ar ÄĹ
ti eÄįiÅ³
Ġteiki amÅ³
ĠtÄĻsi a
ĠbÅ« gn
vis kas
ĠiÅ¡si pl
Ġb ok
Ġjud esi
Ġskelb imo
Ġpatar tina
Ġtitu l
ĠÄį ep
Ġnukreip ti
Ġnepriklaus omos
Ġd yg
d ain
vi ais
Ġvar gÅ¡
ĠÄ¯ ver
ĠreÅ¾ imas
Ġr enka
Ġvandentie kio
Ġsal Äħ
ĠvÄĹli ava
ĠuÅ¾baig ti
Ġb au
Ġsus toj
iÅ¡k ais
Ġlik usi
s Å«d
Äįi ausias
Ġ3 000
Ġresp ond
li Å¡kai
Ġkepur ÄĹs
200 7
ĠpaÅ¾ym ÄĹjimÄħ
ĠpoÅ¾ym iÅ³
Ġkai rÄĹs
Ġtarptau tiniame
ĠiÅ¡d av
ht ml
Ġnaud ingumo
r ok
Ġpasim ÄĹg
Ġkain uos
ĠiÅ¡ki lo
Ġdem on
Ġt Å¡k
Ġvaizd us
Ġkomis ijÄħ
Ġgen oc
Ġpasp auskite
Ġpaj Å«rio
Ġrekomend acijos
ĠiÅ¡ kirp
Ġband oma
Ġstor is
esniÅ³ jÅ³
ĠiÅ¡dÄĹs tyti
Ġmil tus
Ġkiau liÅ³
ĠteisÄĹs augos
Ġsk iep
ĠiÅ¡r eikÅ¡
Ġe pi
ĠÅ¾urnal istams
am ame
aj us
fi ci
Ġsaug ojimo
ĠpabÄĹg ÄĹliÅ³
Ġpateik tÅ³
Ġalyv uogiÅ³
Ġ198 6
Ġlen tos
Ġnor u
Ġgub ern
Ġnorveg ijoje
Ġg ni
ĠiÅ¡s ak
Ġnesib aigi
ov skis
Ġpri pild
n en
Ġpareng tas
Ġpadovan ojo
ni Å¡kai
ĠiÅ¡laik o
Ġegz oti
Ġemo cijos
Ġiniciatyv Äħ
Ġviktor as
Ġkam pu
Ġtrum pa
Ġnegali te
ĠaÅ¡tuo n
Ġpasidom ÄĹti
g ol
eidÅ¾i ami
Ġdis cipl
Ġ7 7
Ġkrauj as
ĠÄįempion atÄħ
ĠieÅ¡k ant
z u
ĠÄ¯sipareig ojimus
Ġkri to
Å¾in oma
Ġpasig aminti
Ġdaugia funk
Ġsutrik imai
l ovo
Ġaksesu arai
ar m
Ġvis atos
ank a
3 00
Ġdemokr atÅ³
ĠmÄĹn uo
Ġsiau b
Ġapsi g
olog ÄĹ
Ġkov as
Ġpad irb
Ġli trÅ³
Ġregion inio
atori ui
Ġper ved
Ġprival umÅ³
ĠiÅ¡vakar ÄĹse
Ġpokalb Ä¯
Ġpedagog Å³
Ġdid eles
ĠnaujÄħ jÄ¯
Ġnety Äįia
Ġseminar as
ÄĹm ÄĻs
Ġplauk imo
Ġpasidar yti
l op
ĠÅ¡il alÄĹs
in in
id Å¾i
ub er
Ġneigi amai
Ġnedid elÄ¯
Ġprev enc
ĠiÅ¡d avimo
et ais
Ġap artamen
ĠiÅ¡n yk
met Å³
Ġnuostab Å³
ĠdÅ¾iaugs mas
Ġr alio
Ġaus kar
Ġpo eto
Ġbaus mÄĹs
ĠÄ¯si bÄĹg
Ġap aug
ĠÄ¯sak ymo
Ġ7 6
Ġtelef onai
val sti
Ġn yk
ĠÄ¯ sk
Ġpar inkti
amÄħ sias
ord s
Ġr aug
Ġpateik tos
Ġpaveik ti
ĠÅ¾iÅ«rov ams
Ġbendrov ei
Ġnuostat a
Ġvien iems
Ġgamin amos
Å¾ ai
in Äįio
Ġbar zd
Ġatstum u
ĠraÅ¡ ymo
Ġkri tu
Ġistori kas
Ġkvie tÄĹ
ĠaukÅ¡tak ulniai
Ġpos Å«
Ġteleviz oriÅ³
Ġnori ai
Ġpirm adienio
Ġkal cio
ĠÅ¡eÅ¡ is
Ġreag uoti
Ġvadovauj ama
Ġjok Å«
Ġgr u
Ġlyg us
Ġkil s
Ġsanty kiuose
Ġstr eik
Ġkr ok
Ġ7 8
Ġkolek cijÄħ
sp alv
ĠaikÅ¡ telÄĻ
Ġk tu
Ġb rig
2 000
Ġsuvo kia
jungi a
Ġpapild o
Ġatitink amÄħ
Ġpartner ystÄĹs
Ġt Å«ris
u ab
Ġd antys
Ġnusprend Å¾ia
Äįi umi
ra c
Ġkriteri jÅ³
Ġterap ija
Ġsocial inis
Ġautomobil yje
Å¾i ama
Ġpig Å«s
yn uose
Ġak tas
ĠlietuviÅ¡k o
Ġsank t
Ġpov ilas
Ġartim ieji
Ġr ok
Ġas ist
ki ant
Ġb od
ĠÄ¯ skaiÄįi
Ġpamink lo
ĠÄ¯sig yj
Ġatnauj intas
Ġtv oros
Ġnep ab
ĠÅ¾em iÅ³
ĠkraÅ¡ tÅ³
uo toje
Ġn ap
p op
Ġsti eb
Ġkar Å«n
Ġfiz inÄ¯
Ġdeguon ies
Ġli v
Ġkain avo
Ġgri po
Ġak toriai
oj anÄįiÅ³
Ġegzam inÄħ
Ġpomid orÅ³
Ġvietov ÄĹs
Ġatitik tÅ³
Ġl amin
Ġlenki jÄħ
Ġmoli Å«g
Ġnuk eli
ĠjÄĹz ui
li auskas
Ġe inant
tori jos
ĠkaÅ¾k am
Ġspr ÄĻs
Ġun esco
Ġpolitik oje
Ġva tik
Ġnen usi
Ġkantr ybÄĹs
Ġvietov iÅ³
Ġb art
Ġtei r
Ġpamink lÅ³
ĠpoÅ¾ym iai
Ġekstrak tas
Ġasmen inÄ¯
ĠpÄĹs Äįiomis
d es
Ġmat om
tod ail
f os
Ġsiun Äįia
ĠiÅ¡lik s
Ġdz Å«
Ġveiki anÄįiÅ³
Ġpens ijos
Ġrim tas
uoj amus
l ak
ĠuÅ¾m ig
b ud
ĠiÅ¡skir ti
ĠtrÅ«k o
is h
Ġmich a
Ġprigim ties
Ġes Äħs
Ġkaimyn Å³
Ġkosmos o
Ġsavivald ybei
ai tienÄĹ
Ġbal ti
o tai
Ġd eiv
Ġrealiz uoti
w agen
al ams
Ġh em
Ġfor umo
Ġnum eriu
Ġlands berg
is tinÄĹs
ĠÅ¾em e
Ġkor teliÅ³
Ġabs ur
Ġ< ...>
Ġind ik
Ġgrei ta
Ġlauk s
Ġnes ant
Ġakmen ÄĹs
Ġmai r
Ġkap iniÅ³
as o
Ġkl avi
tr Äħ
Ġkoj Äħ
ĠÅ¡okol ad
ali oje
) {
Ġpas kl
Ġpir ties
am ino
ĠÄ¯am Å¾
men os
Ġprav aÅ¾i
Ġpaskelb imo
pras ti
ild yti
Ġs ad
Ġneg atyv
ĠÅ¡veicar ijos
Ġpil ieti
Ġlyd erio
Ġprofes ijos
Ġrom ano
Ġpiliakal nis
ĠuÅ¾ tv
ĠÅ¡k oti
p ol
Ġp in
Ġs uol
Ġpat rio
c ode
Ġmar in
Ġprokur atÅ«ros
Ġvizi to
201 9
Ġinform avimo
Ġch ore
ri l
Ġgr oti
Ġautomobi liui
Ġim asi
li t
ĠÄ¯raÅ¡ o
Ġne aiÅ¡
Ġprojek tu
Ġypat ingo
Ġsluok sniÅ³
Ġbendr Å³
Ġaptar i
Ġpristat ymÄħ
Ġpastat us
Ġnusil eido
Ġpig men
ĠkÅ«diki ams
Ġch oro
Ġj k
r in
Ġj az
Ġpoil sis
Ġsav as
Ġri Äį
Ġuos tam
ĠmÄħst yti
ic kas
Ġtr im
Ġr og
Ġk ate
ĠparaiÅ¡k Äħ
Ġkor po
Ġ19 60
yr Å³
Ġnuv er
Ġegzam inÅ³
Ġsti liumi
Ġmen ininkas
ĠeÅ¾er Å³
Ġ Å
Ġpasis av
Ġg v
on ienÄĹ
Ġvien Å³
Ġkov oja
Ġeki paÅ¾
uoj antiems
Ġsvarst ÄĹ
Ġmar i
Ġkor telÄĹ
i ausi
Ġar tis
Ġgyv ul
Ġnest and
Ġstab dÅ¾iÅ³
Ġadministr atorius
Ġjoh n
Ġjaus mai
ĠskaiÄįi uoti
Ġorganiz uojamas
Ġnacional iniÅ³
ĠÄ¯ ka
Ġnegal ÄĹs
Ġlaik ys
ymas is
Ġvertin ant
Ġpatenk intas
Ġeksper tiz
Ġvalsti jose
Ġkel n
ĠviÅ¡ tienos
Ġ8 4
ĠbÅ«s enÄħ
Ġnor ÄĹs
Ġbat us
yb inÄĹ
Ġefektyv iau
Ġparti jÄħ
Ġepiz od
ar p
Ġg od
Ġnauj iems
Ġauk a
Ġspaud imÄħ
Ġbals Äħ
Ġkoleg Å³
ĠÅ¡irv intÅ³
Ġpasveik ino
Ġdaktar o
ĠÅ¡ild y
Ġxi v
ĠÄįiurli onio
ĠprÅ«s ijos
Ġklas ÄĻ
Ġrekonstruk cijos
Ġchol ester
ĠÅ¡ tab
ĠgalÄĹs ime
Ġstas ys
Ġer t
Ġl m
Ġasmen inÄĻ
Ġatvyk ÄĻs
Ġprisim en
Ġjuv el
Ġilg ame
Ġkated ra
uomo ti
i ti
ys ti
Ġrestor anas
Ġlaisv Äħ
Ġkali forn
Ġb vp
Ġsp yg
ĠiÅ¡skir tinÄĹ
im antas
Ġpapild omi
Ġpasitik ÄĹti
ĠpaÅ¡ il
Ġsal Å³
ĠiÅ¡tek lius
ĠĠ ĠĠ
Ġpav ald
Ġsluok snio
ĠiÅ¡sp ausd
Ġprisit aik
Ġvir to
Ġgi liau
ĠauÅ¡ ra
Ġ; )
Ġministeri jai
Ġpaveik s
Ġniujor ke
Ġjud ÄĹjimÄħ
Ġmeistr ai
Ġakimirk sniu
Ġkar aliÅ³
Ġpad aÅ¾
ĠpavyzdÅ¾i ai
ÄĹjus iems
ĠÅ¾od ynas
tin us
Ġpoli tinÄĻ
Ġklaid Äħ
Ġaps unk
Ġtechnolog ijomis
ĠkÅ«ryb inÄĹs
Ġpie v
Ġnen uk
Ġatlik ÄĹjai
ĠvaldÅ¾i ai
ĠÅ¡vie timas
Å«s ti
Ġsr auto
Ġg ent
n ie
Ġfotograf ijÅ³
Ġkan alÅ³
ĠvirÅ¡k inimo
Ġun ijos
t yta
eidÅ¾i ant
w ay
Ġpoli klini
ĠÅ¡eÅ¡ tadienio
ĠiÅ¡tir ti
ph one
c ko
Ġd umb
esn ÄĹje
Ġcuk rus
m el
Ġscen Äħ
Ġalgim antas
ĠuÅ¾ tat
yt ame
Ġneri bo
ĠÄ¯sid arb
uk ÄĹs
Ġtarptau tinÄ¯
ĠaikÅ¡ tÄĻ
Ġsiun Äįiu
ĠdÄĹm es
uk ÄĹ
Å¡ te
ok yb
Ġ7 3
Ġpatiek alus
ĠdÄĹ kl
an ori
Ġnauj ov
ĠkÅ«di kiÅ³
n aus
c us
on ytÄĹ
Ġtai land
Ġdvar e
Ġkonkret aus
Ġinternet inÄĹ
ĠginÄį Å³
at ink
Ġx v
Ġide alus
Ġdvy lik
Ġpasi tikrinti
Ġreal ybÄĹ
Ġpopie tÄĻ
tuo tos
Ġli thu
Ġleid inys
Ġraud onas
tyn ÄĹs
Ġpor no
Ġsvar stom
Å¾ valg
ĠsiÅ«l au
Ġturin Äįios
Ġmo biliÅ³
Ġcentr inis
Ġfak tai
Ġkiem Äħ
Ġreikal avimas
Ġsuform uoti
g ul
Ġsvarbi au
Ġrengi ant
Ġpor Å³
Ġtarn auti
ĠdÅ¾iug u
oj anti
Ġgener al
Ġkri p
au t
Ġman ev
Ġne Å¾ym
Ġsr ovÄĹs
ĠneÅ¾in ojo
ĠuÅ¾sis ak
Ġpatog ios
Ġkambar ius
ĠapÅ¾valg os
olei bus
Ġbals u
Ġgal ÄĹtum
ĠÅ¾urn ale
ti ena
Ġmegz tukas
Ġmul ti
l r
Ġgr ybÅ³
ĠtrÅ«k umÅ³
Ġsusitik imus
Ġskys ÄįiÅ³
Ġtau todail
å ½
Ġser vi
Ġefek tas
Ġministr ÄĹ
ĠsiÅ«l omi
Ġprireik s
Ġ 00
Ġbakteri jos
aug i
Ġtam pri
Ġaso cij
ĠiÅ¡g ar
Ġprin ces
Ġrat lan
Ġp onas
Ġo li
Ġnakv ynÄĻ
k er
p ed
Ġataskai tÄħ
Ġtvark omi
Ġpatik s
Ġfestival Ä¯
ks wagen
Ġveng rijos
akal nio
Ġprofesional ai
Ġatmin tis
Ġne gana
Ġpak alb
Ġvari antai
Ġf one
Ġdiskus ija
ÄĹn uose
Ġsu ven
Ġreikal ai
ali Å¡kai
Ġprisim enu
ĠÄ¯ neÅ¡
ra p
Ġsup ak
ĠvarÅ¾ ovÅ³
Ġsta Äįi
Ġsvaj onÄĹ
ĠpraÅ¡ oma
Ġkalori jÅ³
Ġplatform os
Ġskat inimo
Ġpasau liu
Ġkalb ÄĹtis
Ġsocial ines
ĠsudÄĹ tingi
Ġkurs Äħ
uv ienÄĹ
tep ij
Ġnu ties
ÑĢ Ðµ
ĠpaÅ¾ eisti
ĠdidÅ¾iul ÄĻ
yn ei
Ġlaim i
ĠÅ¾ie das
ĠkunigaikÅ¡tys tÄĹs
Ġu v
Ġgars as
Ġatkr eipia
Ġd ant
at om
es p
Ġal p
bo x
Ġkat ÄĹ
Ġbendradarbi auja
Ġglaud Å¾iai
Ġsald um
Ġpasie l
Ġteg u
et inis
Ġkompiuter yje
Ġsvie stÄħ
Ġsen os
Ġkito kio
ĠiÅ¡skir tinai
Ġmo Äįi
ĠÄ¯g ij
Ġpasto viai
st ykite
ĠneÄ¯tik ÄĹ
b lo
v ÄĻ
ĠpasiÅ¾ym ÄĹjo
Ġb om
Ġnek et
Ġreikal ui
Ġnepav yksta
Ġdok tor
Ġtak as
Ġkaz ino
Ġnek om
Ġnemok amÄħ
Ġnup irk
ĠsugrÄ¯Å¾ o
Ġvm vt
Ġg ad
ĠÐ ¸
Ġant sto
Ġpasek mÄĹs
ĠkÄĻstu Äįio
Ġnes lÄĹp
en cijai
Ġkonv encijos
tiÅ¡k umo
Ġskirting ose
Ġprietais ai
Ġsr autas
Ġre ad
Ġtiek ÄĹjai
Ġstud entas
ĠsumaiÅ¡ ykite
Ġbendra am
Ġm ada
Ġgar gÅ¾d
ĠÅ¾in om
Ġspecial us
Ġatl anto
ĠnetrÅ«k sta
Ġapklaus a
f ak
Ġp eÄįi
Ġhib rid
Ġpasaul ÄĹ
Ġpasi Å¾iÅ«rÄĹti
Ġpam al
ami o
Ġsal onas
Ġpapras tÅ³
Ġalternatyv a
Ġpr ail
Ġag nÄĹ
Ġtren erio
Ġleis kite
ĠuÅ¾dar yti
Ġlaid a
Ġregi onas
ing esnis
Ġbotan ikos
Ġsusitik imÅ³
Ġgyven am
ĠÅ¡vent ÄĹms
ytu je
Ġdez infek
Ġdarb inis
ĠkliÅ« tis
ĠuÅ¾d irbti
Ġbur ok
ĠÄ¯reng inÄ¯
Ġvidpad is
yd Ä¯
ĠkÅ«n ui
nio lik
Ġpakrant ÄĹs
Ġnu eiti
Ġsuvok imas
Ġnuorod os
tr eÄįi
Ġnesupr ant
Ġslidin ÄĹjimo
Ġstovykl oje
Ġne liko
Ġmet e
ang ai
Ġch l
Ġdraug ÄĹ
Ġapylink es
Ġparduotuv es
Ġdrabu Å¾
Ġkoleg omis
le x
Å¡ tin
em ia
Ġvertin ama
Ġgatv ÄĹmis
Ġsta bili
ĠÅ¾emÄĹlap Ä¯
Ġap tink
Ġpirk ÄĹjai
sp orto
Ġpasak Å³
Ġp ek
ĠpabÄĹg ti
gi ama
ie tÄĹs
ĠpasiÅ«l ymo
Ġtek stai
Ġtinkl us
c r
Ġmalon umÄħ
ĠmaÅ¾ Å³jÅ³
Ġpir tis
Ġw o
Ġapk ep
Ġkeli oms
tvark os
Ġsav Å³
ĠÅ¾ eld
Ġdalyv avimo
Ġeurol ygos
iz oli
ĠbirÅ¾ elÄ¯
Ġsupra timÄħ
Ġd ab
uosi te
Ġsant ar
Ġprad iniÅ³
Ġtam pr
Ġpateik tus
ĠÄ¯spÅ«d ingas
Ġneigi amÄħ
Ġv or
Ġkryp ÄįiÅ³
Ġbro liÅ³
Ġpavoj ingas
ĠÄ¯rod ÄĹ
ĠneteisÄĹ tai
Ġmen Äħ
Ġnenum at
Ġtri b
ĠÅ¡eim yn
Ġtiesiog inÄĹs
Ġjung tinÄĹje
Å« st
ĠjÄĹg omis
ĠuÅ¾ tek
Ġsvies to
Ġsu pl
Ġper galiÅ³
ĠÅ¡ali g
ingi ausia
Ġsteb ina
Ġnumat ytos
Ġl ing
Ġsaug omÅ³
ĠpraÄĹjusi o
Ġparem ti
ĠteÅ¡ los
tar n
... âĢľ
Ġgeb ÄĹjimÅ³
k ain
at uose
vok ieti
Ġnesil aik
Ġm p
ĠÅ¾in omos
Ġmyl im
ĠkarÅ¡ tÄħ
Ġnorm as
Ġpritaik yta
Ġprie inama
Ġgal erijos
Ġkonflik to
Ġlaim ÄĻ
Å¡k eviÄįius
ĠpasivaikÅ¡Äįi oti
Ġmok inio
n ed
Ġpop ierius
Ġsupra timo
Ġman ÄĹ
Ġlaim inga
Ġpl us
Ġpali kite
Ġetn ograf
ĠpaplÅ«dim io
Ġkomand as
ĠkalÄĹd as
Ġjaun uoliÅ³
Ġnusteb inti
Ġaleksand ro
Äįi ausi
Ġb jau
iej o
Ġbank ai
Ġsiun tos
Ġekr anÄħ
Ġnegal ÄĹtÅ³
ĠtÄĹv eliai
Ġpasiek imus
Ġlaik omos
Ġtur ting
Ġkar kas
tus iÅ³
Ġmor e
Ġkredi tÅ³
ĠkarÅ¡ ta
Ġaptik ti
ir do
Ġn ykÅ¡
Ġnek on
d z
ĠÅ¾in utÄĻ
ĠvaÅ¾i uokl
Ġkaz lÅ³
Ġgau b
Ġnutar imo
Ġnesupr anta
ĠneiÅ¡vengi amai
Ġnaudoj amÅ³
Ġbi ÄįiÅ³
Ġkosme tika
pas ku
Ġ197 9
i v
Ġsi rijos
ĠdaÅ¾ ais
Ġpagar bos
Ġsus toti
ĠlaÅ¡ iÅ¡
Ġtek ti
Ġvien kar
ul o
an uose
Ġleid ykla
ĠgraÅ¾i ausiÅ³
ĠapibÅ«d inti
j ob
Ġfiz inÄĹs
Ġpub lic
Ġr up
Ġnu ÄĹjo
Ġpastar ieji
ir o
Ġtem Å³
Ġinfrastruk tÅ«ra
Ġfen om
ĠapraÅ¡ as
Ġkandid atas
Ġalg os
Ġpaval g
Ġvien ij
ĠraÅ¡ yt
Ġw i
aud ama
Ġpriemon e
Ġintern ational
Ġdraug o
Ġbur bul
ar u
ĠÄ¯s tojo
ĠÅ¡ved Å³
uol ys
Ġsez on
Ġvelyk Å³
Ġpagar bÄħ
Ġanti oksid
il ti
Ġh om
un as
eidÅ¾i amas
Ġkry Å¾iÅ³
Ġnenuos tabu
Ġseptyn iÅ³
ÄĹj ausi
Ġkal nas
Ġpos k
Ġtar ybÄħ
Ġpili gr
s os
Ġpo el
ĠdÅ¾em p
Ġtr am
Ġneb aig
Ġsun kios
Ġats ki
s tas
Ġtrum pi
Ġrez ist
f unction
ĠvarÅ¡ uvos
Ġnustat ymas
Ġkokyb iÅ¡ka
Ġkariuomen ÄĻ
ta Äįius
Ġkai tos
ĠsÄħnaud Å³
Ġk oja
Ġal d
p en
Ġlen telÄĹje
Ġaud r
tr um
Ġkonserv atoriÅ³
Å¾ e
Ġpadar ytas
Ġpaskir ti
ĠÅ¡alÄį ininkÅ³
Ġ Ø
Ġ og
Ġnauj omis
Ġmag n
Ġtr oleibus
ĠpadÄĹk oti
Ġes anÄįioje
Ġv ynas
Ġs ai
Ġli f
Ġsus imok
Å¡ vies
Ġteis iniÅ³
Ġpaj Å«r
p enk
Ġpavad inta
Ġ195 4
an tiesiems
Ġpopuliari ausi
Ġarchitek tas
ta Å¾as
Ġtau tÄħ
Ġor Å³
ĠmÅ« Å¡io
t l
bl ok
Ġbar jer
m irÅ¡
Ġgalu tinis
Ġpral eidÅ¾ia
me Äįiui
Ġvalstyb es
Ġsmegen ys
Ġnaujag im
Ġad am
Ġmetod Äħ
Ġeurop e
ĠÅ¡venÄįi oniÅ³
c is
Ġdv ejÅ³
Ġtarn yboje
Ġsukur tÄħ
r ais
el as
uod amos
Ġdarbo tvark
ĠkÅ«ryb iniÅ³
Ġm b
ind a
ĠmaÅ¾ inimo
Ġpien as
Ġgri uv
Ġnen urod
ÄĻ st
Ġprat ÄĻsti
ĠparaiÅ¡k Å³
Ġcikl as
ĠiÅ¡pl ÄĹs
Ì ĥ
Ġmed iniÅ³
Ġf an
imÄħ si
ĠparuoÅ¡ tas
Ġruden iui
ĠÅ¾iniasklaid oje
Ġim i
Ġtvark ingas
ĠÅ¾iem ai
Ġatsitik tinai
Ġm ma
Ġnes uvo
ĠÄ¯dieg ti
Ġgrei to
Ġprisijung imo
Ġven e
Ġindividu aliÅ³
erv atyv
as men
sn ys
r Å«s
Ġtur im
i f
u Äįius
Ġatsiliep imus
Ġbi okur
Ġapsaug ai
ĠliÅ«d na
ĠjungtinÄĹs e
Ġkazimie ras
Äį as
Ġspeci aliÄħ
Ġopozi cijos
j ono
auki tÄĹs
ĠÄ¯m uÅ¡
Ġkri zÄĻ
Ġak tuose
ĠmaÅ¾ ame
ĠÄ¯r engi
Ġ193 8
ĠÅ¡e imas
Ġpri aug
Ġdaik tÄħ
ĠÅ¾uv ys
Ġb erg
tyv iai
to ni
Ġatlik ÄĹja
Ġb unk
Ġvertin ami
Ġregistr Å³
Ġb omb
Ġgrup ÄĹms
ĠgrÄ¯Å¾ t
ĠdÄĹÅ¾ ÄĹs
ĠÄ¯kur ti
Ġvadov ybÄĹ
Ä¯ sl
Ġmobili ojo
Ġatsistat yd
tori ais
sm u
Ġtrau mÅ³
Ġp c
Ġsl ova
Ġpristat omos
v nt
Ġnepr ad
ch ron
ausk ui
Ġdvira Äįiu
ĠÄ¯vairi oms
t fin
ag oje
Ġ198 4
Ä¯ vair
oj antys
Ġleid iniÅ³
ĠÅ¾aidyn ÄĹse
ĠuÅ¾sak ymus
ĠuÅ¾fiks uoti
Ġaptar nauj
Ġpov anden
aus to
tr os
Ġtinkami ausiÄħ
Ġma Äįi
Ġprie p
Âł Âł
paÅ¡ to
Ġlatv ija
ĠiÅ¡vyk ti
Ġoper acijÄħ
Ġben edik
ĠÄ¯sik Å«rÄĹ
ĠvÄĹl gi
ĠÅ¡im to
t anas
Ġpraei tyje
Ġge omet
Ġpatar imas
ĠÄ¯pras tas
Ġband ymai
Ġperdirb imo
ri bo
Ġkuni go
ĠsÄĹd ÄĹti
ĠiÅ¡Å¡Å« kius
b end
ĠiÅ¡skir tinio
Ġpirmen ybÄĹse
Ġtr uko
ĠÅ¾urnalis tai
Ġsklyp Äħ
ÄĹj ama
Ġnacional inÄĹje
Ġgal Å«n
Ġf und
Ġmais tui
Ġvartoj amas
Ġparamet rus
ĠtÄĹv Äħ
Ġeig Äħ
Ġvertin imÄħ
tuv ÄĹ
Ġkatali kiÅ¡k
Ġtest amen
ijungi a
Ġner ekomend
Ġaud io
oj imais
Å¡iau liÅ³
Ġnem ato
Ġle gi
Ġspaud imo
tat os
Ġgyv uliÅ³
Ġnus im
Ġuod eg
em ijos
ĠkrÅ« tinÄĻ
Ġply telÄĹs
Ġpa ÄĹmÄĹ
Ġbuv imas
i omis
an cija
Ġklien tais
Ġbui ties
Ġpasteb ÄĹjau
or eg
ĠatÅ¡ aukti
Ġnusikal timus
Ġlaip snis
j ur
Ġb il
Ġb amb
Ġartim iesiems
Ġkonf eder
Å«n u
Ġal ytuje
Ġperd avÄĹ
in antÄ¯
Ġn ig
Ġgyven u
ĠpaÅ¾ em
Ġ eng
Ġveik ÄĹjai
Ġsl augos
Ġmy liu
iej us
Ġvalstyb inis
Ġint ym
Ġvarik liÅ³
Ġnustat omas
Ġnel ie
200 6
ĠplÄĹtr ai
Ġ15 00
moksl as
Ġfir m
ĠÅ¾arn yno
ĠaukÅ¡ tojo
Ġanon im
Ġarchitek tÅ³
ĠiÅ¡ gan
Ġsusitar imas
Ġbase inas
Ġmer k
Ġlaiki k
Ġkito kÄ¯
en kia
Ġper e
Ġg ps
Ġskulp tÅ«ros
sk ienÄĹ
Ġatstov o
Ġlent yn
ĠbaÅ¾ny ÄįiÅ³
Ġreguli uojamas
ĠÄįe kijos
Ġrod ÄĹ
Ġpamok a
Ġab on
Ġre per
c ore
Ġvidur Å¾emio
Ġsocial inius
Ġfor umas
Ġpateiki amos
ĠÐ ½
Ġpr enumer
ĠpaÅ¾eid imÄħ
Ġ Å¾io
ĠplokÅ¡ ÄįiÅ³
Ġprofesion aliÅ³
ĠkiÅ¡en ÄĹs
Ġx ii
Ġt ing
Ġrank ovÄĹ
Ġg b
Ġlub Å³
Ġsv ir
tim et
ĠkrÅ« tinÄĹ
Ħ ¢
Ġkontra k
Ġsm al
Ġtau tinÄĹs
ĠkraÅ¡to tyr
Ġatliek amos
Ġrekl amÄħ
Ġar vydas
Ġmin tyse
Ġi x
Ġplat in
Ġsavaitg alio
av oje
Ġteigi amÄħ
Ġm aik
Ġsvarbi Äħ
Ġinstrumen tÅ³
Ġpro tÄħ
ĠÅ¡iandien os
st ar
ĠraÅ¡ y
ĠatÅ¡ auk
in ais
Ġnepak ei
Ä¯ skaitant
ĠiÅ¡g yvena
Ġrau men
Ġnukent ÄĹjo
Ġsvarbi ausius
ĠsiÅ«l yti
Ġaktu alu
Ġlaisvalaik Ä¯
p ur
Ġsluok sniu
Ġstandar tÅ³
l eg
Ġp Å«
et es
e gi
Äįi ose
Ġner ies
tadien iais
Ġlaik ymo
ĠsveÄįi as
Ġto kiai
ĠtrÅ«k umus
Ġc re
Ä¯s tu
Ġ7 1
Ġstovykl Äħ
Ġaps in
Ġdien oms
ĠÄ¯sitik inÄĻ
Ġ9 6
k ino
Ġparag auti
Ġdar au
w h
Ġekonom iniÅ³
Ġnepas iek
Ġpar eikÅ¡ti
Ġkr enta
Ġvartoj imÄħ
Ġrank en
Ġvi ki
Ġapar atas
uokl is
ĠuÅ¾s kl
Ù Ħ
Ġg az
Ġpak enkti
Ġvid us
Ġaplinkos augos
Ġbal eto
r eikia
Ġkap o
Ġvaliu ta
k iem
Ġmis ijÄħ
Ġdarb uose
n ar
od r
Ġbibliotek Å³
Ġrib Äħ
Ġm inÄĹti
Ġbaim ÄĻ
Ġtarn ybÅ³
Ġrestor ano
Ġapgail est
Ġsoviet meÄįiu
ĠÅ¾emÄĹlap is
am umÄħ
pa pras
ĠÅ¾v ejÅ³
Ġypat umai
Ġsupjausty kite
Ġant raÅ¡
Ġtechn inÄĹ
Ġdovan as
Ġram ybÄĻ
ak alb
in ukÅ³
Ġkal ÄĹjimo
Ġbat erija
inink uose
ĠposÄĹd is
Ġpasik eisti
Ġtyr imais
Ġsukn elÄĻ
ĠgeguÅ¾ ÄĻ
ĠpripaÅ¾ inta
Ġ3 50
Ġvadov ui
Ġp Å«l
pan evÄĹ
Ġcigar eÄįiÅ³
Ġpl ovimo
Ġplat aus
Ġbelg ijos
Ġne vien
Ġlaisv Å³
Ġnebeg ali
Ġ197 6
Ġeil ÄĻ
Ġpaklaus tas
Ġkorpus o
Ġg imus
Ġnep lan
Ġw orld
Ġlit urg
ĠÄ¯pro Äįius
Ġmis ijos
Ġp un
Ġmal da
m eil
Ġmoksleivi ams
Ġar gi
Ġcikl Äħ
Ġkas p
Ġatspalv iÅ³
a kius
Ġsie lÄħ
Ġgars Å³
ĠmÄĹg ÄĹjai
Ġketv erius
Ġatsiliep imai
Ġpagrind iniu
Ġn ob
ov id
Ġal s
Ġprofesional Å«s
Ġaps ik
ĠÄ¯dom Å«s
Ġkon tek
oj ai
Ġ8 7
ĠsÄħlyg oms
ĠskaiÄįi avimo
Ġne Å¾iÅ«r
Ġf av
Ġti pÄħ
c inÄ¯
Ġvil tÄ¯
ĠuÅ¾ vir
ĠiÅ¡val yti
Ġatsis iÅ³sti
Ġvad ino
Ġnuv eÅ¾
ĠiÅ¡raiÅ¡k a
Ġal us
Ġklasik inis
Ġjurg is
k ul
Ġtikr oji
Ġdar ome
Ġkom forto
y li
ĠuÅ¾m egzti
l at
Ġnel engva
ĠÐ ¾
Ġdepres ija
Ġt aus
Ġm Äħs
Ġdar iaus
Ġkar olis
Ġvien etas
ori t
ĠtreÄįi oji
ĠnemaÅ¾ Äħ
Ġsav ininkams
ĠÄ¯gyvend inimas
Ġnetik sl
Ġpasisek ÄĹ
, {
ĠÅ« kiÅ³
g ed
Ġiv an
Ġmoksl Äħ
yb inis
Ġkel niÅ³
Ġstipr Å«s
Ġmed iniai
Ġnum erio
ytoj ais
Ġsus kirst
ĠkrikÅ¡Äįion iÅ¡k
Ġdal ijosi
Ġatl aid
g Ä¯
ĠdrÄĹg n
ei kite
Ġeksperim en
Ġprie Å¡k
s yk
Ġnedid elÄĹs
Ġh ome
dar bo
Ġnepakank amai
Ġtiesiog iniÅ³
ĠÅ¡ok ti
Ġgruod Ä¯
Ġt ag
1 50
Ġeig a
Ġkeis tas
Ġprival umus
Ġmar iÅ³
p c
Ġpei z
Ġasmen inius
Ġpakarto tinai
Ġefektyv us
Ġdieno raÅ¡
ĠsiÅ«l omos
ĠiÅ¡sisk yrÄĹ
Ä¯ si
Ġdarb ininkÅ³
Ġvaik inÅ³
Ġnepakank a
Ġm id
en Äįia
ĠaukÅ¡ tum
Ġ oks
Ġpriim ta
Ġgret ose
Ġm Ä¯sl
Ġlak Å¡
Ġspecial Å³
Ġkolektyv o
Ġbilie tÄħ
Ġspeciali osios
Ġaktyv umas
Ġpasirink ta
Ġsaus Ä¯
ĠreÅ¾ imÄħ
Ġgyv ybei
Ġpasitik ÄĹjimas
Ġbase ino
ĠkonkreÄįi os
sk r
ĠuÅ¾tikr ins
j uk
ul l
Ġbi g
Ġvaland a
d ys
h as
Ġkaz ach
Ġtink amo
Ġgaus us
ytoj u
Ġatsiskait yti
Ġsavaitgali ais
p ui
Ġtechn iniai
Ġco liÅ³
Ġsult ys
Ġfinans avimas
Ġautobus ai
Ġsen elis
Ġtink amÅ³
Ġrim antas
Ġslap ukus
Ġnesus ij
tim e
ĠinÅ¾in ierius
Ġmez g
Ġsiurbl ys
Ġlank st
Ġnakv ynÄĹs
Ġi phone
ĠÅ¾ engti
Ġkar oli
Ġnev eikia
ikei Äįi
Ġsu aktyv
si a
Ġsus mulk
Ġgatv es
Ġapskri tis
ĠiÅ¡s kiri
Ġsul auki
Ġantr o
Ġh oliv
eÅ¡ ti
Ġskamb inti
ĠaiÅ¡k us
Ġly ÄįiÅ³
ĠkaÅ¾ in
Ġgau tÄħ
ĠstruktÅ«r iniÅ³
b iÅ³
am ose
Ġp yl
ĠraÅ¡ tÄħ
Ġintelek to
Ġs Å«ris
tr ol
Ġvis tiek
Ġgi ri
Ġes anÄįias
Ġmon ika
Ġstovykl a
Ġvaizd Å³
Ġdvid eÅ¡im
Ġspaus kite
Ð° Ð»
Ġukra ina
Ġ one
Ġatski ra
av imais
Ġtol ygiai
Ġkam Å¡
Ġgar aÅ¾
Ġinternet inÄĻ
Ġpau liaus
yn ais
ĠbÅ«s ena
Ġpavid alu
ĠÄ¯spÅ« dÅ¾iais
Ġkal nus
Ġberni ukÅ³
Ġnus istat
burg e
ĠÄ¯vair iems
Ġrecep tÄħ
Ġtre jÅ³
Ġtab let
Ã ł
ĠÅ¾ e
iklaus yti
ĠpaÅ¾as ties
Ġde fici
tom i
ÄĹ tojas
ĠvÄĹli avos
Ġrieb alai
ÄįiÅ« tÄĹs
Ã Ĺ
in amai
Ġak tÄħ
Ġak ies
Ġpoli tolog
ĠlaiÅ¡k e
ĠvaÅ¾i avimo
Ġveiki anti
ek onom
auj anti
Ġtrau mos
Ġgyven antis
Ġpaskai tos
Ġski lt
Ġpatar imus
Ġpla ti
Ð½ Ñĭ
ĠÅ¾iÅ«r ÄĹjo
Ġand roid
Ġcirk uli
an ijos
ĠÅ¡un Ä¯
ĠÄ¯domi os
Ġg or
Ġteis ingÄħ
Ġpri trauk
Ġver timo
Ġdr ob
kv d
Ġaur eli
Ġhek tar
ĠÅ¡al to
Ġkompr omis
er ta
ed as
Ġbir utÄĹ
Ġefektyv i
insk is
Ġvik torija
Ġpusry Äįiai
Ġl ep
Ġsiek dama
Ġtik ÄĹjosi
Ġmik ros
ali aus
Ġkr am
Ġsaug oma
d on
Ġsusitvark yti
Ġpasi tiko
Ġ0 5
Ġfotograf as
ĠiÅ¡si pild
Ġversl ininkÅ³
Ġprofi lio
Ġskirting ais
Ġgerb ÄĹjai
Ġram Å«nas
os ime
ĠreÅ¾is ie
j un
Ġdug no
Ġtrauk os
Ġpalaik ymas
Ġvienuol yno
Ġh on
ĠpuoÅ¡ ia
ĠkaÅ¾k uo
Ġjur gio
man Å³
Ġkompozi torius
Ġtaip ogi
Ġper Å¡al
Ġpapild omus
ĠruoÅ¡ ti
Ġat met
Ġry t
ori umi
Ġnug ri
Ġpakei timai
Ġpri ar
Ġpask yrÄĹ
Ġfeder acija
Ġsta Äįia
ĠapÅ¾ valga
Ġpuik u
Ġrai mon
Ġda inius
ĠpanevÄĹÅ¾ ys
Ġbib li
Ġskiri amos
Ġkontroli uoja
Ġdirektyv os
ĠpagrÄ¯s tas
Ġb on
v yk
ĠÅ¡ar Å«nas
ĠÄ¯steig ÄĹ
Ġklaus ÄĹ
Ġl kl
Ġsusid Å«rÄĹ
Ġskol Å³
od ÄĹ
up io
ĠraiÅ¡k os
ĠposÄĹd Ä¯
Ġv Ä¯
Ġpag im
fer en
Ġtarpuk ario
Ġtur ÄĹdami
Å¾ vaigÅ¾
tak Äħ
Ġcukr umi
Ġpatiksl inti
Ġtau tinio
ĠaukÅ¡Äįi ausia
Ġpasireng ÄĻ
Ġse imui
Ġrei ting
Ġrel je
Ġtradic inis
Ġprojekt avimas
Ġh ier
ĠÅ¡eÅ¡ ias
Ġsusid ari
Ġsod ybÄħ
ĠdarÅ¾ ov
Ġgink lus
l auk
p ab
Ġnuo mo
Ġaplink ybÄĹmis
ki jÄħ
Ġdon el
Ġo ut
ĠdeÅ¡ inÄĻ
m g
Ġnurod ytus
Ġst en
Ġbas utÄĹs
Ġturin Äįius
Ġlin kiu
Ġ197 2
Ġdiagnos tikos
Ġ0 3
bi u
Ġrem ia
cen z
ĠÄ¯st ri
ĠturÄĹs ime
Ġnug ara
Ġsek toriÅ³
Å¾ os
Ġh an
Ġh am
Ġskl eisti
u Äį
Ġsuteik imo
Ġ198 3
ĠsÄħn ariÅ³
Ġnacional iniame
Ġskr ydis
Ġpat ink
Ġner aÅ¡
ĠÅ¡v yt
Ġz onÄħ
Ġmerg in
Ġ197 8
ĠneÄ¯tik ÄĹtinai
Ġnegal ÄĹjau
Ġparlamen tas
Ġbals avo
ĠatneÅ¡ ÄĹ
Ġmat oma
Ġlyd i
Ġpaveiksl Å³
ĠÅ¾ uk
Ġvals Äįiaus
Ġlag am
Ġsitu acijas
st ra
Ġpal enk
Ġpasis lÄĹp
ĠuÅ¾duo tys
Ġduk art
Ġmarket ingo
au tos
Ġtek stus
Ġbais u
ni ausiai
Ġsim fon
Ġinte lig
oj osi
on ic
Ġpager ina
Ġpasto vi
Ġmom ento
Ġup ÄĻ
Ġpik tin
Ġnusk amb
Ġparduod amÅ³
u eto
ĠiÅ¡k elti
ĠparuoÅ¡ i
Ġtaisykl ÄĹse
Ġpatar ÄĹjas
ĠpraneÅ¡ ta
Ġinternet Äħ
Ġrecep tas
Ġteritori jas
ĠÅ¾ing snius
ĠuÅ¾dav inys
Ġfin alo
damas i
Ġkompiuteri u
Ġlie j
Ġautobus u
Ġaspek tus
Ġvard Å³
r inÄĹ
Ġpak ai
Ġt omis
Ġpirk au
Ġrengi amas
op oli
Ġn iÅ¡
Ġc v
ne ws
ĠÄįempi onas
Ġmat ai
Ġmoksl inÄĹs
ĠkÅ«r imÄħ
Ġpasirod ymo
Ġsiun timo
Ġsuv es
ĠÅ¡i oms
Ġpos tÄħ
v or
... )
ĠiÅ¡g erti
Ġpietr yÄįiÅ³
Ġpri jungti
Ġstar to
er gi
Ġmies telÄ¯
Ġbes ik
ĠminkÅ¡ ta
ĠÅ«k Ä¯
Ġsm ÄĹl
Ġlen telÄĹ
ĠÅ¾vilg snis
ĠÅ¾ygi o
ĠÄ¯kÅ«r ÄĹjas
Ġaug ina
ak ai
Ġprincip ais
Ġdir g
Ġtradi cijÄħ
ins is
Ġturnyr Äħ
Ġdrabu Å¾iais
Ġsergan tiems
Ġpas Äħmon
and Å³
Ġpotencial Äħ
Ġmain Å³
Ġanaliz ÄĻ
stu d
Ġdaug ybe
Ġkonkur encija
Ġdraud imÄħ
Ġpad angas
al ti
Ġes mÄĻ
Ġgimnaz ijÄħ
Ġ æ
âĢ ¯
Ġ196 8
Ġn aus
Ġdy dÅ¾iai
Ġkelio lika
Ġst alÄħ
Ġdraug ystÄĹs
Ġsubjek tas
tu ri
Ġpras tai
Ġsukur tÅ³
Ġsod Äħ
Ġnor inÄįiÅ³
Ġvald omas
Ġsupil kite
Ġrink o
ĠÅ¡iur kÅ¡
Ġketvir tÄħ
Ġafrik oje
Ġdalyv io
ĠpaÅ¾ad ÄĹjo
Ġor lai
Ġsutar tys
t esnÄĹ
usi ame
Ġgener olas
Ġg liuko
Ġfinans inÄĹ
ĠÅ¾ali uz
tor e
Ġnes l
tik us
ĠÅ¡il tÄħ
Ġteis m
evi Äįiui
Ġger u
Ġprez ervatyv
. ]
Ġpaskirst ymo
ĠmaÅ¾ umÅ³
Ġpasaul inÄ¯
ok Å¡Äįi
Ġ198 2
ĠlÄĹktuv u
Ġtikr ovÄĹs
Å¡i os
Ġjaun esni
ĠÅ¡imt metÄ¯
ĠprieÅ¡tar auja
em as
07 700
Ġtur tingi
Ġry Å¡kus
ĠÅ¡eÅ¡ io
Ġinspek cija
Ġpakruoj o
d us
Ġpremjer o
Ġpast angomis
Ġpuosel ÄĹti
Ġpirm aisiais
Ġangli Å¡kai
Ġs amsung
eid us
Ġe ti
ĠÄį eki
Ġdarbdav ys
Ġm um
Ġbuv usÄ¯
Ġsie ja
ĠuÅ¾trauk tuku
Ġdal inasi
Ġpropor c
w indows
ie kia
to ks
Ġmat omi
Ġkry Å¾ius
Ġvidur kis
Ġmo Äįiu
Ġpopuliar umo
ĠkrepÅ¡ ininkas
Ġdirb antis
Ġdain avo
Ġindividu alius
ĠveÅ¾ ti
Ġsvaj onÄĹs
ĠiÅ¡ jung
Ġslap ta
Ġnel aik
Ġpu tinas
Ġant ai
Ġnuv yk
tuv es
Ġvertin o
Ġkaln uose
Ġberl yno
d uo
Ġh os
ĠbiudÅ¾ etas
ĠÄ¯gyvend ina
Ġkompon entÅ³
av imosi
sÄħ jung
Ġsveikat ingumo
ĠÅ¾mon Äħ
Ġbaltarus ijoje
Ġfig Å«r
ĠpaÅ¡nek ovÄĹ
Ġvon ia
ĠamÅ¾in ai
Ġdr amat
Ġilg o
Ġkonstitu cija
ĠiÅ¡ei tis
Ġrus ijai
Ġdet alÄĹ
ĠlÄĹk tuvas
ÄĹ liams
Ġk ieno
ĠÐ º
Ġram un
k ovo
Ġdomin uoja
Ġvykd ymÄħ
ĠgrÄĹs mÄĹs
Ġpasieki amas
Ġsiek is
Ġgaranti jos
Ġkonf iden
ĠÄ¯g auna
Ġerdv es
il e
pir ko
Ġrib ojasi
st ame
Ġpl ÄĹsti
at ams
ĠaukÅ¡ tyje
Ġkon ver
Ġkrauj osp
Ġvykd omos
Ġinstitu cijas
Ġpatri oti
Ġ2 20
Ġsaus as
Ġmit ybÄħ
Ġprie gl
Ġpriim ant
Ġnuo b
ĠÄ¯vertin imo
ĠÄ¯ prat
ĠÅ¡eim ininkÅ³
ĠÅ¾iau riai
ĠvÄĹÅ¾ ys
Ġplan e
Ġatlyg inimÅ³
Ġpab ar
Ġ0 6
Ġelg s
Ġpateiki ame
Ġgud r
as t
Å¾i ams
200 4
Ġkap inÄĹs
Ġgr ub
Ð¾ ÑĢ
Äįi ami
ac inÄĻ
Ġvyriaus ybÄĻ
Ġslap ukai
Ġap eti
d ata
Ġteat rÄħ
Ġk ild
ĠuÅ¾ter Å¡
Ġfin alÄħ
Ġkaz l
Ġkomplek tÄħ
Ġsp ir
up o
Ġdi ap
Ġmir Å¡ta
Ġher ojus
Ġgyd ymui
ĠgraÅ¾ Å³
av ar
Ġvyskup o
Ġvasar ai
Ġpok erio
Ġaktyv Å«s
Ġtr ims
Ġvirus as
Ġn kvd
Ġlank ytis
Ġf ur
Ġpriskir ti
Ġalk Å«n
ang e
Ġ17 0
Ġpadar ys
ĠaukÅ¡ tÄ¯
to me
Ġ7 9
ij ui
Å«n ui
Ġpaslaug oms
Ġt oji
u ch
Ġvien ar
Ġken kia
Ġkrov in
ĠsuÅ¾ aidÄĹ
ĠrÅ«b Å³
Ġpri teis
Ġprir eikÄĹ
gr am
Ġveis l
Ġak tais
Ġrud uo
Ġamerik ieti
Ġnet enk
Ġgars Äħ
Ġpacien tui
Ġskys Äįio
Ġnel eido
Ġdan ie
Ġnac iÅ³
Ġbendr auja
Ġdon atas
ĠkrikÅ¡ to
Ġsocial iniame
ĠiÅ¡d al
Ġnuopel nus
Ġkl os
Ġligon inÄĹ
Ġprak ai
ĠÅ«k inink
Ġsutel k
ri do
Ġsp alÄ¯
ĠÅ¡ven tov
b ak
Ġre fl
Ġprad ÄĹjÄĻs
Ġteigi amÅ³
Ġkontak tai
Ġlauk Å³
Ġfos f
Ġindividu alios
Ġpuol ÄĹjas
Ġpozi cijoje
Ġpasirink us
ĠiÅ¡k ÄĹlÄĹ
Ġapdovan ojimai
Ġ0 7
Ġpakei timus
ĠparaÅ¡ ytas
Ġapskai tÄħ
a kiau
Ġfor tepij
ĠbÅ« si
ĠbirÅ¾ os
Ġnepav yks
Ġnak timis
Ġre pres
d ik
ar y
Ġjog ur
ĠtÄĻs ÄĹ
ĠeÅ¾er Äħ
Ġkoali cijos
Ġe inam
p ort
Ġital ija
ĠiÅ¡Å¡Å« kiÅ³
Ġbar sel
celi ar
ĠÄ¯sitik inusi
ir bo
ĠÅ¾ ag
Ġdetal ÄĹmis
Ġpak eistas
Ġmerg inÄħ
Ġmen ki
Ġnepri paÅ¾
Ġsusigr ÄħÅ¾inti
Ġgeb ÄĹjimÄħ
ĠÄ¯kvÄĹp imo
em un
Ġmuzik antai
Ġgal ak
Ġketvir tfin
Ġdr e
Ġalg irdo
Ġlapkri tÄ¯
Ġpareig Äħ
Ġprek ybÄħ
Ġypat ingos
ord e
Ġpirm us
ys ÄįiÅ³
Ġprogram inÄĹ
ĠsÄĹkm ingas
Ġs as
Ġis o
Ġleis ta
Ġkal tas
Ġpl e
200 3
Ġscenar ijus
h one
å ħ
Ġspecial ybÄĻ
ck ienÄĹ
tik oje
eri uose
Ġtir ti
Ġr okas
Ġatvir os
Ġneform aliojo
Ġi b
c iniai
Ġkan celiar
ĠdeÅ¡im tys
Ġpak ep
ĠpaÅ¡ ven
Ġblog i
ĠsÄħvok os
o Å¡
Ġpasir enka
ĠiÅ¡s prend
ĠuÅ¾siÄĹm imÅ³
am uoju
Ġveiksm Äħ
un a
ĠÄ¯vai zdÅ¾io
atori ais
ĠmÄĹnes iai
Ġpadal inio
Ġgyv end
Ġrau menys
Ġk is
Ġrom ual
ĠÅ¾ el
Ġ0 4
Ġnepr ieÅ¡
Ġap ple
Ġakimir kÅ³
Äįi Å«nas
Ġpaaug l
Ġprad inio
Ġperk ÄĹl
Ġorien t
Ġnaudod amiesi
Ġpager bti
Ġkomand ir
Ġapsir eng
ĠkraÅ¡ tus
Ġkal ad
Ġambi c
d uomen
Ġbag aÅ¾o
Ġfak tus
Ġbrang us
Ġmen ininkai
Ġpaveiksl Äħ
Ġli auk
Ġjud esiÅ³
l l
al umÄħ
Ġrom oje
Ġpavad inimai
Ġprofes oriaus
Ġjaus mo
Ġnebuv au
Ġatsisp indi
Ġkunig ai
Ġdid eliais
Ġg li
Ġpo tv
u ra
Ġ19 30
Ġentuzi az
Ġ197 4
ai Å¾
in or
Ġpageid avimus
ymu isi
Ġ197 7
. /
Ġsti ch
Ġatv eria
Ġekonom inÄĹ
ek om
ket vir
ĠuÅ¾ teks
Ġst an
Ġvok alis
en i
Ġpalaid otas
ur as
kar tais
ĠkliÅ« ÄįiÅ³
Ġsaug i
Ġakmen ys
Ġren es
Ġpriesk oniÅ³
Ġskait ytojai
Ġvar go
Ġtarnau tojÅ³
Ġlie pÄħ
Ġpie tÅ«s
Ġdraug u
anki ais
Ġmet ines
Ġkok tei
Ġcen timet
u tat
Ġprivat aus
Ġmartyn o
ki ta
Ġtvir ta
ĠÄįi uoÅ¾
Ġsveik ai
ĠuÅ¾tr unka
Ġpager b
Ġlinksm ai
ie b
ink l
Ġpl ytÅ³
Ġdain ininkas
Ġpavoj ingÅ³
Ġpasip ik
ĠnÄĹ Å¡Äįi
Ġvis kuo
Ġpagr Ä¯sti
Ġsavan oriai
Ġscenar ijÅ³
ĠÄ¯ naÅ¡
w ard
an iz
Ġsimbo liÅ³
t ali
ĠÅ¾em es
iÅ¡ kiai
Ġxx i
Ġder liaus
Ġdo cen
lk d
ĠÅ¡ak nys
Ġspe c
Ġmarijampol ÄĹje
200 5
Ġs ho
Ġdail ininkÅ³
i tÅ³
ĠreiÅ¡k ÄĹ
Ġra cional
ter o
Ġpasiek imÅ³
Ġbepr oti
dÅ¾i ams
Ġatliek os
Ġpasis kirst
Ġapyl inkiÅ³
Ġhum oro
ĠtÄĹv ynÄĻ
Ġsoci aliai
ĠpobÅ«d Ä¯
Ġg ÄĹda
ilie jÅ³
Ġciviliz acijos
Ġsp i
Ġrevoliu cijos
Ġg uli
Ġdov yd
ĠiÅ¡tis us
Ġpas uk
Ġim s
ĠÄħÅ¾ uolo
ĠnuÅ¾ud yti
ĠsusiÅ¾ av
Ġjuos tÄħ
Ġal ex
Ġgaun amas
Ġatnauj inta
ĠkaÅ¾ko kiÅ³
Ġnes ak
Ġk rak
Ġl ukas
Ġpareng ta
ĠÄ¯k Å«n
Ġrod omi
Ġlabor ator
x vi
Ġstipr Å³
Ġatmosfer os
ĠpapuoÅ¡ ti
Ġamor tiz
ĠmiÅ¡ iÅ³
Ġpranci Å¡kus
Ġmig dol
Ġnauj ieji
Ġoper acijas
c ap
Ġne kl
Ġbl aiv
Ġstatus o
in ime
Ġdie viÅ¡k
ĠdÄĹÅ¾ utÄĹs
ĠsuÅ¾in osite
Ġkr eiv
Ġapsi pirk
ĠdÄĹk oju
Ġkeli aujant
Ġliu ter
bi t
Ġautomobi liais
ĠrÅ«p inosi
Ġatk uri
tin tÅ³
Ġstam bul
Ġekonom inio
av al
Ġdang uje
Ġgamin ame
Ġv sd
Ġatstov auti
Ġinternet iniÅ³
Ġnemok a
Ġso lid
Ġbat ukai
Ġnuolat inÄĹs
Ġmalon umas
Ġgin Äįi
uok liÅ³
Ġpat ep
Ġpenk eriÅ³
Ġjub iliejÅ³
ĠuÅ¾uol aid
Ġbes ikeiÄįi
Ġsu tinku
Ġod iniai
Ġpopuliar Å«s
Ġprojek tuose
yd avau
ĠtreÄįi ÄħjÄħ
Ġsureng ta
Ġbi t
Ġrom anÄħ
Ġpirm inÄĹs
olog ijÄħ
os as
Ġl imi
ĠÄ¯r odo
Ġmic rosoft
Ġgars iÅ³
Ġatm esti
Ġskvern elis
g raf
Ġl uko
Ġpatyr ÄĻs
Ġtrump iau
ĠkaÅ¾ko kia
Ġasmen inis
Ġvestuv ÄĹs
Ġsocial inÄ¯
Ġug nis
Ġvykst ant
Ġkilogr amÅ³
sl ap
ti onal
Ġsp intos
at vi
Ġsut ampa
ov skio
Ġskry dÅ¾ius
Ì Ħ
Ġv p
Ġgav usi
Ġpal anga
Ġgraf ikos
ĠidÄĹj omis
Ġjaun iÅ³
Ġdarb ovie
ĠiÅ¡mok o
Ġtobul ai
Ġatidar ymas
pl ek
Ġlaid as
ĠuÅ¾sid irbti
Ġprieig os
Ġbaid ar
uo tomis
Ġgruz ijos
Ġseri jÄħ
Ġsal otos
Ġpaj ÄĹgi
Ġtvark ymÄħ
ĠdeÅ¡im tis
cri pt
k auskas
Ġdain uoti
Ġrol andas
ĠmedÅ¾i us
ĠvÄĹ Å¾iu
ÄĹn ijos
aukÅ¡ tis
Ġcharak terio
Ġjau tÄĹsi
be je
ĠdÅ« mÅ³
è ¯
ĠiÅ¡ ieÅ¡k
Ġmies tu
ĠpriÄĹm imas
Ġnakv ynÄĹ
Ġelektr ÄĹnÅ³
ax y
ĠÄ¯tik inti
å ı
Ġkal nÄħ
Ġsul aikyti
Ġspecialis tais
Ġjaun uolis
et iniai
sn yje
Ġspeci alius
Ġpagal vo
Ġsiek damas
Ġkoncer tai
Ġ19 23
Ġvyst ymo
ĠÄ¯g yja
Ġsukil imo
Ġkr an
Ġdid vyri
Ġnu tek
Ġnuosav ybÄĹ
Ġtras os
Ġdik tat
d p
Ġpabendr auti
Ġv ej
Ġkar ui
Ġsal one
ĠbaÅ¾ny Äįiai
Ġsulauk ÄĻs
ĠvilkaviÅ¡k yje
ĠlaiÅ¡k as
ĠmÅ« si
Ġkl aj
eur oviz
tinink o
ĠneprieÅ¡ tar
Ġc inam
Ġtaup yti
Ġinteg racijos
Ġv iii
Ġpasirink tÄħ
Ġmat ul
Ġgam inimo
ov ok
Ġgam inio
Ġmil teliai
Ġsp uog
â Ħ¢
Ġver Äįiau
Ġvitam inas
z Äħ
Ġsveik o
Ġnuomon iÅ³
ĠvarÅ¾ ÄĹsi
Ġrank ena
Ġmergait ÄĹms
Ġpar enk
Ġbal and
esi gn
Ġsp yr
Ġes amÄħ
Ġsen us
Ġpatar iama
Ġpaskyr oje
Ġnepagr Ä¯st
Ġpav il
Ġtap etai
Ġstadi one
Ġansamb lio
Ġd engi
Ġpirk tas
Ġin ga
Ġsav a
ykl ose
Ġgrand inÄĹs
n ug
ĠiÅ¡g yd
Ġkon tÅ«r
Ġbro lio
Ġper ÄĹjo
ĠÅ¡i ta
ĠsiÅ«l omÅ³
av id
ĠÄ¯s imin
Ġpasid aro
Ġgalim us
Ġform ato
Ġsavait ei
Ġangliavanden iÅ³
Ġdid el
Ġbe vil
Ġsvar Å³
Ġkontak tÅ³
ĠsÄħraÅ¡ us
Ġdiap az
er m
ĠuÅ¾mokes tis
Ġfav ori
Ġt at
ka z
re al
Ġnuostab aus
Ġkair ÄĻ
ul Å³
Ġnep ra
Ġmar m
Ġlau Å¾o
ĠsÄħnaud as
ant ams
Ġins tink
Ġmom entas
ĠliteratÅ«r Äħ
Ġkar d
Ġkeli avo
Ġpam enu
ĠiÅ¡g auti
ĠÅ¾in ant
Ġvals Äįiuje
Ġprogram avimo
emp li
Ġveik imÄħ
Ġne gi
tori ams
Ġpas in
Ġsuform ul
Ġugn Ä¯
Ġ197 3
ĠiÅ¡tik im
Ġnep asis
in ÄįiÄħ
ok ra
Ġvien ybÄĹs
rai Å¾
Ġpalengv inti
ĠjÅ«r atÄĹ
Ġb em
Ġlyd er
ĠvÄĹd inimo
Ġd im
Ġd rak
si uv
Ġim igr
k aÅ¾
Ġskamb inkite
Ġnedar bo
uo met
! )
Ġleid ybos
Ġrink ose
re gi
ĠpaÅ¡al ina
c inÄĻ
Ġapa Äįios
r ek
Ġs y
Ġatkreip kite
Ġm isi
t auti
Ġpag ul
Ġned els
Ġatmin tÄ¯
Ġir on
Ġsek torius
Ġrelig iniÅ³
ÄĹ kit
Ġteis ingumas
Ġger anori
Ġtyr ÄĹjai
Ġbu tai
ĠaukÅ¡tos ios
Ġskirting o
Ġstar t
Ġkil us
Ġal j
Ġvald ytojas
Ġdal eliÅ³
Ġskirtum ai
Ġpar sis
ĠÄ¯t eikti
Ġdaugiab uÄįio
Ġpak yl
Ġmie li
Ġesm iniÅ³
na cional
Ġtur b
Ġnuotrauk omis
Ġtel pa
Ġpasidal ino
ĠlopÅ¡ elio
Ġt ul
ĠrÅ« dos
Ġkav Äħ
ĠkitÄħ met
Ġteleviz ijÄħ
ĠiÅ¡laik ÄĹ
Ġvyskup ijos
is tor
omÄħ jÄ¯
ÄĹ tu
Ġapskai ta
ĠiÅ¡r eiÅ¡kÄĹ
Ġnesug eba
ĠÅª k
Ġp es
ĠsÄħÅ¾in ingai
Ġpal aukti
Ġkito kie
Ġskaud a
Ġprieig Äħ
Ġatv ÄĹrÄĹ
ĠiÅ¡s iÅ³sti
Ġremig ijus
Ġteigi amas
Ġpalaik ymÄħ
ĠkalÄĹd os
Ġsa kiau
Ġversl e
Ġ195 6
Ġner imo
p yr
Ġegz empli
ĠÅ¾al girio
kiek vien
Ġpaslap ÄįiÅ³
Ġind ai
Ġsuv aid
Ġgamin ama
ot yr
Ġvalstyb inÄĻ
Ġand re
Ġaptar ÄĹ
ĠnarÅ¡ yklÄĹs
Ġtvark ingai
Ġ193 3
Ġbu Äį
Ġpartn erio
ĠÅ¡ok o
Ġautos ervis
Ġind ijoje
Ġaz er
Ġkar an
Ġyou tube
au r
Äįi ausia
Ġkie kiu
ie Äįiais
Ġapd raus
Ġelektron inÄĹ
ĠÄ¯ ÄĹjimo
Ġpas imok
yn es
Ġim it
Ġpardav imai
Ġadvok atas
Ġberl yne
Ġmin int
Ġkai ta
ĠaukÅ¡Äįi ausias
Ġpak uoÄįiÅ³
dav ome
h au
Ġdvira Äįio
ĠruoÅ¡ tis
ĠÄ¯mok Å³
Ġr ate
Ġatsi lik
Ġpriemon ÄĹms
Ġparod ose
Ġkond ens
pir mas
Ġpastar ÄħjÄ¯
ĠkÄĹl inio
em ija
Ġskelb imÄħ
tin ys
ĠÅ¾ mo
Ġkonflik tas
ĠbÄĹg a
ÄĹ tÄĹ
ÄĻs ta
anÄįi ojo
men imis
Ġmel ag
Ġskun do
Ġkalin ingrado
Ġpo wer
Ġilgalai kio
Ġspecial Å«s
Ġlink me
esp ond
Ġrem ti
auÅ¡ ros
Ġkalb ÄĹdamas
Ġtikr inti
Ġefektyv umas
Ġgitar a
k ab
Ġes tr
Ġpatiek alas
Ġpasak yta
Ġr ÄĹ
Ġkoncer te
Ġdom ÄĹjosi
.. ...
Ġgaun asi
ĠiÅ¡p opuliar
in tuvai
Ġveiki ausiai
Ġfotograf ija
m b
Ġad ol
Ġkel eiv
Ġstipri os
Ġtvirtin ti
y toje
Ġs mog
Ġasmen ybÄĻ
ĠkÅ«r ÄĹjo
Ġstat ybai
ĠuÅ¾ ÄĹm
Ġas ta
Ġdr ug
Ġind Äħ
ĠapraÅ¡ yti
Ġviz ija
Ġ12 5
Ġr op
Ġval o
Ġlauk as
Ġstatyb iniÅ³
f ur
Ġpakei Äįia
Ġ196 3
ĠuÅ¾kr eÄįi
Ġgam ykla
Ġbr ÄĹÅ¾
Ġekonom ikÄħ
Ġgim dos
Ġdraug Äħ
ĠaukÅ¡t esni
Ġpa Äįio
Ġnul up
Ġkapi tonas
l Å«s
ai dÅ¾i
Ġv at
Ġner imas
Ġv amp
Ġ198 1
ĠmaÅ¾ ieji
Ġperk eli
Ġpat aik
ĠraÅ¡ ytoja
Ġsur emon
Ġkep kite
Ġprivers tas
Ġer dvi
Ġd og
sni uose
ing esni
ĠbruoÅ¾ Å³
Ġtarp inink
ĠrÅ«b ai
ĠpaÅ¾ intis
ĠiÅ¡s kiria
Ġvanden ys
Ġbal tr
Ġpasirod Å¾i
ĠplokÅ¡ tÄĹ
Ġket ver
Å¡i uose
ĠkunigaikÅ¡ tis
Ġpasitel k
Ġs om
ĠpaÅ¾ ang
ÑĤ Ðµ
æĹ ¶
Ġasortimen tas
Ġmaud ymosi
Ġl sd
Ġdirvo Å¾em
å °
ĠiÅ¡ eiv
Ġgeri amojo
Ġkritu liÅ³
Ġrengi ami
Ġvil na
ĠkÄĹl inyje
ĠmaÅ¾ ylis
Ġsusidar yti
Ġaprib oti
Ġk alio
Ġmieste liÅ³
Ġpavasar iui
pr iek
ilg is
Ġtarn auja
Ġbaig sis
p sich
pr e
Ġlau ra
Ġ196 2
Ġap Å¾iÅ«ros
ni Äħ
li pti
Ġes minis
Ġro kiÅ¡k
Ġ197 1
Ġtel es
eÅ¡ i
Ġmoder nus
Ġgyv avimo
Ġfor ume
auÅ¾ ti
bÄĹ ra
tion s
ik us
ĠuÅ¾sid eg
Ġviol etinÄĹ
Ġc k
Ġpar s
Ġsal ono
Ġkalvar ijos
ĠauklÄĹ tiniai
Ġeur ai
Ġsupra timas
Ġsudar ys
n b
ĠiÅ¡s prÄĻs
Ġz eland
Ġlaid Äħ
Ġnagr inÄĹjimo
Ġpap unk
iÅ³s tas
Ġpam Äħst
Ġpusiausvyr Äħ
baid Å¾
am ent
Ġpl okÅ¡Äįi
Ġver g
Ġ8 1
Ġkeis tai
Ġdvar Äħ
ĠÄ¯sikÅ«r ÄĻ
m ol
Ġt et
Ġram us
ĠsÄħ var
Ġsk audÅ¾i
Ġburn Äħ
Ġneteis ingai
Ġgyv os
Ġ0 2
Ġtras a
å½ ©
olog inÄĹs
uÅ¾ ÄĹs
Ġjuod i
ĠdrÄħs os
Ġpaskir ta
Ġnorm alu
Ġtik inÄįiÅ³jÅ³
Ġas s
Ġpagrind inÄĹje
Ġply teliÅ³
ĠskundÅ¾i asi
Ġvid inÄ¯
Ġpadal iniÅ³
Ġpriklausom ybÄĹs
Ġvie tn
ĠpluoÅ¡ to
r im
Ġ ait
Ġor bi
Ġbyl oja
n ei
Ġpv c
Ġb angÅ³
Å¡k Ä¯
Ġinterjer Äħ
l aim
Ġpr imi
Ġte bÄĹra
Ġproc ento
Ġinf li
ĠÅ¾iniasklaid ai
as e
Ġpam atai
g d
Ġjaun imÄħ
p y
uri o
ĠlÄħs teles
Ġbal to
Ġw as
Ġskiri ami
Ġpasiek tas
iau ti
ĠraÅ¡ tÅ³
anai r
Ġvadov Äħ
Ġoper atorius
ak is
Ġnesu tik
Ġformul ÄĹ
Ġtr unk
Ġt omo
ĠiÅ¡silav inimo
Ġmeis trÅ³
Ġpor eikio
Ġaz ijoje
sv eiki
ĠÅ¡o kir
Ġdialog o
ĠkÅ«n u
Ġkon so
Ġpak oreg
Ġreguli avimas
ĠpasiruoÅ¡ ÄĻs
Ġglo bal
Ġnukent ÄĹjusi
Ñ Ĩ
ak ti
ov ais
ĠprieÅ¡mok yklinio
Ġrink tinÄĻ
Ġpla Äįios
Ġtrik amp
or ÄĹs
Ġprav ers
ak t
Ġpatvirtin tÄħ
Ġsmur tÄħ
Ġp ump
Ġs anitar
Ġbal andÄ¯
ak men
Ġvl s
Ġgali Å³
Ġrodik liÅ³
Ġremon tÄħ
Ġnuostabi ai
Ġ196 9
Ġreform a
Ġmerg inai
ai z
Ġkondicion ierius
Å¾ ali
aun amas
Ġnukr yp
Ġaustral ijoje
ĠÅ¾ais lÅ³
ï¿½ï¿½ ï¿½ï¿½
Ġstil ingas
vil ÄĹ
ĠmaÅ¾i ausias
Ì ģ
Ġnebeg al
ÄĹj antis
Ġpras mÄĹ
Ġskelb ÄĹ
ch a
Ġhormon Å³
Ġorganiz acijoms
Ġekskurs ija
Ġfin an
Ġ8 3
ĠuÅ¾p akal
Ġzo ologijos
y tina
Ġmok ymÄħ
Ġpalengv ina
Ġgalv as
Ġats iÅ³
Ġsugalv ojo
Ġapdirb imo
Ġl an
pas aul
ĠiÅ¡ ilg
Ġpok ario
n uos
Ġjog os
Ġneigi amÅ³
d avi
Ġkoki am
Ġmed alius
Ġpirk ta
ĠveÅ¾ imo
Ġsusiform avo
Ġo z
Ġ19 22
Ġkandid atai
Ġlauk us
ĠskaiÄįi uoja
Ġ195 1
Ġkel ny
Ġsimptom us
Ġpagalv ojau
eis k
Ġdid men
Ġth is
ĠÅ¾ ymus
Ġnugal ÄĹti
Ġapsilank ÄĹ
Ġpuod Äħ
Ġbritan ija
Ġteis ÄĹmis
Ġkei tÄĹsi
Ġneigi amas
Ġsav im
Ġ9 7
Ġelektron inÄĹje
Ġ196 7
Ġfas ad
deÅ¡im ties
uol ÄĹs
Ġtvar ko
Ġl s
Ġtiek ÄĹjas
Ġsusi g
Ġcit y
Ġv ac
Ġpak uotÄĹje
bi ams
ili ja
Ġliek n
Ġsimboliz uoja
Ġinstitu cijomis
ĠbÅ«d ingi
Ġm ild
bi liai
Ġpasik albÄĹti
ĠrugpjÅ« tÄ¯
Å¾ iem
ĠstaÄįi akamp
Ġelem entais
Ġpriver Äįia
Ġinfek cija
ĠÅ¾ymi ausiÅ³
Ġtarn ybai
Ġrud os
ĠneÄ¯ g
Ġdetek tyv
Ġ3 60
Ġklasik inio
Ġgr Ä¯Å¡
Ġnuv eikti
eto je
ĠiÅ¡d r
Ġprimen ame
Ġaug alo
Ġnereik ÄĹjo
ĠÅ¾yg Ä¯
Ġlaz er
o terap
Ġf it
ĠauÅ¡ ros
ĀĀĀĀĀĀĀĀĀĀĀĀĀĀĀĀĀĀĀĀĀĀĀĀĀĀĀĀĀĀĀĀ ĀĀĀĀĀĀĀĀĀĀĀĀĀĀĀĀĀĀĀĀĀĀĀĀĀĀĀĀĀĀĀĀ
Ġter ori
å ®
Ġneat l
on centr
Ġsur eguli
Ġlink smas
vis Å³
ĠmedÅ¾io tojÅ³
Ġpil Ä¯
k ais
ĠminÄĹ tas
Ġvadov ÄĹs
Ġprokur oras
Ġneatsi Å¾vel
ĠÅ¾in ojau
Ġg yl
int ame
Ġkoki oje
in te
Ġetik etÄĹs
Ġgyven amÄħjÄħ
Ġkom er
Ġsuaug usieji
ĠÅ¡il ti
Ġkar aliau
Ġpilie Äįio
Ġkonflik tÅ³
or s
Ġfakult ete
Ġataskai tas
Ġprie v
ĠÅ¾ad ÄĹjo
ĠraÅ¡ ykite
Ġkomerc inÄĹs
av ed
Å«ri au
Ġrim t
Ġatg auti
ĠuÅ¾sak yti
Ġnepas ak
Ġ196 5
s che
Ġk em
Ġkamer Å³
Ġneg yven
Ġvalstyb e
Ġpet neÅ¡
Ġr asi
Ġfak torius
Ġabsol v
Ġf a
ĠiÅ¡skir tinÄ¯
ĠÅ¾ali avÅ³
Ġcer kv
Ġeil ÄĹje
Ġtik o
ĠgÄĹr imai
Ġnes ÄħÅ¾in
Ġver timas
Ġh ab
Ġapd ail
Ġjur gita
m ac
ĠmobiliÅ³ jÅ³
Ġnob elio
ĠbÅ«s imo
Ġskr end
Ġpreki auti
ĠbÅ« siu
usi c
Ġplauk ti
Ġr ent
Ġi e
Ġkr istÅ³
kar Äįiais
Ġduk r
ĠdÄĹst ytojas
moksl o
Ġatskir os
ĠrÄĹm ÄĹjÅ³
ĠlaiÅ¡k ai
Ġ9 4
Ġ ).
Ġmask va
tel ÄĹti
Ġmyk olas
plo tis
l uok
Ġlegend a
Ġpasteb ÄĹta
ph p
Ġlietuv io
Ġor ui
Ġlaikrod Å¾io
Ġapk ab
k es
Ġnauj oviÅ³
Ġs Å«k
Ġgyven anti
ĠÄ¯si trauk
Ġpirmen ybiÅ³
Ġgaun ame
ĠnugalÄĹ tojai
ĠdÅ« m
Ġnij olÄĹ
Ġpopuliari ausias
ĠatneÅ¡ a
Ġatom inÄĹs
k au
str aip
Ġlov oje
Ġmie la
Ġ195 3
Ġkov ai
k Å«r
Ġkomplek tai
ĠmarÅ¡ru tÄħ
Ġvys tosi
Ġlandsberg is
in inkiÅ³
Ġpatrauk ÄĹ
Ġminim alus
Ġkudir kos
Ġdirb tuvÄĹs
Ġketuri o
ĠÄ¯kv epi
Ġprie do
j Å«s
Ġrecep tÅ³
Ġat metÄĹ
Ġ5 000
ĠÅ¡ urm
Ġatsid ar
Ġapsin uod
g ab
ĠÄ¯vertin tas
Ġ ÄĹd
Ġb low
g eg
Ġner am
Ġat ÄĹmimo
Ġner a
Ġistor inis
Ġerdv iÅ³
Ġli uks
ĠmÄĹg ÄĹjams
Ġma y
Ġatsak ymai
Ġk aukÄĹ
ĠuÅ¾sak ymÅ³
ĠpapraÅ¡ yti
f Äħ
yb iniai
Ġdan ties
Ġautomat inÄĹ
ĠkultÅ«r ai
Ġjauk us
s ur
Ġned er
at sak
ĠÄ¯vard ij
ĠginÄį o
ĠmÄħst ymas
Ġkr as
ĠuÅ¾tikr inimo
Ġmokytoj us
Ġpu tino
Ġnusprend ÄĹme
ĠrÅ«p in
Ġliud v
Ġvartoj ant
Ġadministrac inÄĹs
Ġvid inÄĻ
ĠÅ¾ar nos
Ġsusib Å«r
k omis
Ġnyderland Å³
in v
Ġkeptuv ÄĹje
Ġpaskai tas
Ġprail g
Ġjaun os
Ġaps im
Ġsen eliÅ³
ĠÄ¯vertin us
Ġpra eina
Ġpuiki ausiai
Ġpam atÅ³
Ġky Å¡
Ġs ÄĹ
Ġkor espond
ĠdarÅ¾ elÄ¯
Ġalyv os
Ġb aug
Ġri ta
Ġkal nai
Ġgyvens enos
ĠtreÄįi osios
ĠuÅ¾skl anda
Ġnaik inti
Ġbaus mÄĻ
pr op
Äį o
Ġher c
ĠieÅ¡k ome
ĠÅ¡ ik
Ġprinci pÄħ
Ġtyr ime
Ġde form
Ġtermin ai
Ġpagalv ÄĹs
ĠkÅ«diki ui
Ġkomentar us
Ġpasa kiau
vaik Å³
Ġnen uv
Ġvard an
Ġsimptom Å³
l ygi
Ġlab ui
darÅ¾ elio
Ġdeg imo
Ġd auk
Ġvadov autis
tiÅ¡k u
ĠÅ¾uv Ä¯
ĠuÅ¾ uom
ing Å³jÅ³
Ð¾Ð »
t ano
n auja
ĠpradÅ¾i ug
ĠpasiraÅ¡ yta
ĠbÅ«r Ä¯
i umo
Ġmet inÄĹs
Ġnov atori
Ġgal imo
Ġpunk tu
? !
ĠiÅ¡or iniÅ³
Ġbiur e
Ġprav er
Ġseminar o
versl o
gi ais
ĠdidÅ¾i ausio
ÄĹl ÄĻs
ĠÅ¡al tiniuose
Ġger esniÅ³
Ġnesupr antu
Ġleid imÅ³
Ġkompan ijÄħ
Ġprival u
ÄĹ liuose
ĠÅ¡al tinÄ¯
Ġreikal ais
ĠiÅ¡gir do
Ġ1 01
ys tem
Ġpak ait
Ġner ingos
Ġaktyv umÄħ
Ġrag ino
au tÄħ
Ġsti r
Ġsusidar ÄĹ
Ġambasad orius
Ġstr e
Ġgrind is
olog o
Ġkel eiviai
Ġviz ijÄħ
Ġvien ija
Ġnor ÄĹjosi
Ġkryp tys
Ġvir ti
ĠÅ¡un ims
ch en
Ġmin ÄĹjau
Ġvl adas
Ġjavas cript
Ġsp on
ykl as
Ġbal z
Ġtap usi
Ġperd uoda
Ġpanaud otas
ĠÄ¯pras tÄħ
Ġn uli
Ġklub ui
Ġ195 8
Ġlai vai
Ġgydytoj u
ant Å«ros
ĠÅ¡ li
Ġnus ir
Ġsmeg enis
f iz
Ġli gi
ĠpaaiÅ¡k ina
ĠeilÄĹraÅ¡ ÄįiÅ³
ul as
? )
Ġjungi a
ĠÄ¯am Å¾in
Ġak us
Ġsusi raÅ¡
ĠÅ¡ven tÅ³jÅ³
Ġteis inio
Ġnum ir
Ġsklyp e
ÄĹl ÄĹje
at ch
Ġr ÄĹk
Å« gÅ¡
Ġst ra
ĠÐ ´
Ġalg orit
Ġgais r
Ġpasir eikÅ¡ti
ĠieÅ¡k oma
ĠbruoÅ¾ ai
Ġb eri
Ġgr oja
ĠlÅ« pas
Ġjok ie
y e
Ġal fon
ver Å¾ÄĹ
Ġevangeli kÅ³
ĠneÄ¯v yk
m ÄĹje
Ġsenam iestyje
Ġvadin amÄħ
Ġatlyg inimai
Ġinfrastruk tÅ«rÄħ
ĠÅ¡ri f
Ġs teri
Ġnel auk
Ġkelion ei
Ġgarb ei
Ð¾Ð ´
Ġpiliakal nio
ĠÄ¯g im
Ġ11 2
Ġse c
Ġteiki ame
Ġap tiko
Ġpasis tat
ĠÅ¡v ais
Ġkompeten cijÅ³
Ġfond Äħ
Ġmok ÄĹjo
m ie
ĠmaÅ¾ ais
Ġsusi p
Ġbendradarbi aujant
Ġnu tuk
Ġlaim ei
Ġpert eikti
al umas
Ġd ri
Ġnacional inÄĻ
ä ¹
Ġdirb au
Ġsek ÄĹ
Ġ195 2
Ġnesin ori
Ġneb el
Ġorganiz acijas
Ġorien tuo
Ġserv et
op o
Ġ8 9
Ġskilt yje
Ġnet vark
Ġvais tas
Ġman ome
ĠpÄĹd Å³
ink sm
Ġnauj oje
ĠÅ¡ven tojo
Ġt oms
Ġpoli cijai
Ġpu tÅ³
po z
ĠbokÅ¡ tas
Å¾i ant
mar k
Ġpasig roÅ¾
Ġstubur o
ĠpraÅ¡ ymÅ³
Ġpri Å¾iÅ«ri
Ġpel nÄħ
ĠdrÄĹg mÄĻ
ed Å¾io
veÅ¾ ti
Ġatsirad us
Ġdie vi
Ġsul tis
ĠÄ¯rod yta
ĠbokÅ¡ to
Ġkito kiÄħ
Ġpatik imi
ĠmiÅ¡k us
Ġnesugeb ÄĹjo
Ġsub erkite
Ġnos Ä¯
Ġprisi imti
ck s
ĠpirmÄħ kart
Ġatitink amÅ³
Ġbendruomen ÄĹje
Ġkvie timÄħ
Ġtr op
Ġpakil ti
Ġstog Å³
Ġkeliau tojÅ³
Ġg umos
t ytas
ĠÄ¯steig tas
Ġsto telÄĹs
u a
ĠpjÅ« kl
ĠbÅ« n
Ġneats ir
Ġbrangi ai
Ġkonsulta cijas
Ġt t
Ġsk ani
tau to
Ġpiliet ybÄĻ
Ġtaur ÄĻ
Ġver ti
Ġbenz inas
Ġnuolaid Å³
Ġsusi tuok
Ġgin ek
Ġkonserv atori
Ġdid ieji
ĠÄįi ul
Ġform uoja
ĠuÅ¾siÄĹm imus
Ġpastab as
Ġsampr ata
Ġapdovan ojimus
ĠiÅ¡m inties
Ġerg onom
en tat
Ġe ri
Ġrank inio
Ġatidar ytas
Ġati dÄĹ
âĢĻ .
Ġskan us
ĠÅ¡i aul
Ġteis ÄĹjai
sp ar
Ġbendri ja
las h
Ġr ygoje
ĠiÅ¡g ars
Ġpary Å¡k
r an
eil is
ia omi
Ġatlyg inti
Ġtur imÄħ
Ġprival omas
Ġsuvok imo
Ġteis mai
Ġpon ia
Ġvald omi
Ġvadov ybÄĹs
ĠÅ¾ing sniÅ³
Ġgr ani
Ġsuk Äįi
Ġvertin gi
om ÄħjÄħ
ĠkarÅ¡ tas
in anÄįiÄħ
ti kiÅ³
au tai
Å¾in au
Ġvakar ai
ĠtrokÅ¡ ta
uoj anÄįias
Ġvartoj a
ĠkÄĹl imo
Ġpag yv
Ġsu j
ĠiÅ¡lik ÄĻ
ĠpasimÄĹg auti
Ġnumat ytÄħ
Ġsovie tinÄĹs
Ġtiks liÅ³
Ġakimir kas
ĠpaÅ¾ eidÅ¾ia
Ġlais vi
Ġveis lÄĹ
Ġry Å¾iÅ³
Ġmen ininko
Ġsuk ti
Ġdalyv aujant
Ġdarbuotoj a
Ġapr aiÅ¡k
Ġinterjer as
Ġdarbuotoj ais
Ġtras oje
Ġsu mas
r auk
Ġsaug omas
Ġ196 1
Ġpol iest
Ġsureng tas
od ai
si os
Ġtem pi
Ġbald ais
Ġatnauj inimas
od s
Ġgarant uoti
vid as
ĠiÅ¡skir tinÄĹs
Ġ eik
Ġsveik inimai
Ġdarb davi
Ġgab alÄĹ
Ġartimi ausias
Ġdis pon
Ġpasi Å¾iÅ«r
Ġpasaul inÄĹ
Ġin gri
Ġhidr aul
ĠneiÅ¡ d
Ġnegr Ä¯Å¾
Ġazer baidÅ¾
Ġret karÄįiais
Ġkomfor tÄħ
Ġb is
ĠtÅ«kst anÄįio
Ġpers ir
ĠiÅ¡or inis
Ġket inama
ĠÅ¡il tai
Ġskl eidÅ¾ia
ĠÅ¡ak a
Ġc ia
ĠuÅ¾ ver
Ġreikal avo
ic a
Ġlink ÄĻs
an ch
ĠrÄĹm imo
Ġatspar i
Ġne egzist
Ġbaus mÄĹ
Ġlie mens
Ġistor inÄĹ
Ġtinklap yje
Ġsuim tas
s es
Ġdi f
ty Äįio
Ġarom atas
Ġminer alÅ³
t Å«
Ġpramon ÄĹje
Ġnesusi pra
Ġst yg
Ġult rag
Ġreikal aujama
Ġdraug ÄĹs
ĠbirÅ¡ tono
em e
ĠnatÅ«r alÅ«s
Ġalkoh olis
m ik
ĠÅ¡ ov
ĠtarptautinÄĹs e
Ġakcent avo
Ġcentr inÄĹ
Ġveiksm ais
Ġkokyb ei
au b
Ġpl Å«d
Ġneg alia
vo ra
Ġbank e
ĠÅ¾and ik
Ġin do
wit ter
Ġpapild ÄĹ
Ġpinig inÄĹs
Ġkr uv
Ġsusirink ÄĻ
Ġgied rius
Ġteles kop
Ġkr at
Ġger esnÄĹs
Ġarchyv o
Ġlenktyn ÄĹse
Ġtradic inÄĹ
Ġklini kÅ³
Ġministeri joje
Ġskuod o
Ġdv el
Ġraid ÄĹs
Ġdang us
Ġmed Ä¯
Ġsaug Å³
Ġdefek tas
Ġnupir kti
âĢ¦ âĢľ
ĠÄ¯trauk ta
g et
Ġpens ijÄħ
Ġ195 7
Ġs af
Ġbul v
Ġypat umus
ĠÄ¯spÅ«d inga
Ġpl onas
Ġpapras tos
esi ui
Ġkonf isk
Ġabi pus
ig n
Ġeg lÄĹs
Ġper form
ĠbÅ« tume
Ġfl or
Ġri ch
ĠkultÅ«r inio
ĠvÄĹl ai
Ġ195 9
Ġlaboratori jos
em os
Ġveiki antis
Ġded ame
Ġnes kl
Ġkarjer a
ov ams
Ġatsi gr
Ġdvy lika
l erio
ĠuÅ¾si brÄĹÅ¾
ton Äħ
Ġmor al
Ġpui kiu
Ġc ovid
Ġbe at
Ðµ Ð½
Ġvietov ÄĹje
Ġleid inio
g ird
Ġlik imÄħ
Ġgal ÄĹjau
n ing
Ġpil kos
ĠpareiÅ¡k imÄħ
Ġsunk umus
ir e
Ġdirb antiems
> >
Ġvyri Å¡kis
ĠneÅ¡io ta
ta f
Ġbendr ovÄĻ
Ġcentr inio
ed it
sp alio
Ġgyn ÄĹjas
z en
Ġ$ ('
Å«r oje
Ġvasar Ä¯
Ġdaik to
p g
Ġstov ÄĹti
Ġmug ÄĹje
and roid
Ġdid inimo
ĠuÅ¾kar i
s ÄĹ
Ġpui kia
Ġrekomend uojamas
Ġvar iklÄ¯
Ġpamok Äħ
Ġpyrag as
Ġapsisaug oti
l aid
at Ä¯
uo Äįiau
Ġministr u
Ġl up
Ġpaklaus a
Ġorkes tras
ĠÅ¾ en
ĠÄ¯p ÄĹd
s un
yd amos
Ġnuotol iniu
Ġpakei timas
Ġbut keviÄįius
Ġpusan tro
Ġp se
om omis
z Å³
Ġkrem liaus
Ġnor ÄĹtumÄĹte
Ġkep en
Ġk odo
Ġs ink
ĠmÄħst ymÄħ
ĠgÄĹ rio
ed bank
ĠtemperatÅ«r ai
at es
Ġmet iniÅ³
Ġlauk uose
ĠsÄħjung ai
Ġsug ed
ĠÅ¡iaur inÄĹje
Ġpel nas
Ġrak taÅ¾od
Ġam at
Ġlen ta
âĢ ĭ
ĠiÅ¡or inÄĹs
Ġtoki ame
Ġaktyv aus
Ġcentr ui
pran cÅ«z
Ġmo lio
Ġkovo tojÅ³
ĠpavirÅ¡i uje
saul ÄĹs
ÄĹj anti
Ġapg inti
lik as
Ġ9 3
Ġprem ijÄħ
Ġkamer Äħ
Ġsveta inÄĹse
Ġsuom ijoje
ĠuÅ¾draus ti
Ġnesim ato
man n
Ġugd ymui
Ġpil v
ĠneuÅ¾ mirÅ¡
Ġinteres ams
Ġtuoj au
i lio
Ġsk y
Ġpis tol
ĠkiauÅ¡ iniai
Ġlaip tÅ³
Ġy ork
Ġlau kiu
Ġsin chron
1 20
Ġelektr inis
Ġkonkurs Å³
c os
ĠÅ¡al inimo
Ġner ad
Ġdarbuotoj ui
Ġkok os
ĠtrÅ«k umo
Ġpriori t
am uose
Ġapdovan ojimas
il is
Ġpas ijus
ĠpaÅ¾Ä¯st amas
Ġnud aÅ¾
Ġvienuo lik
Ġpie tinÄĹje
Ġb lo
Ġlank ytojus
ĠpakraÅ¡ tyje
Ġar timas
ep s
Ġger esnÄĹ
Ġapmok ÄĹti
Ġatm int
veÅ¾ ÄĹ
ĠkrÅ« ties
Ġspausd inti
Ġpokal biai
Ġsaul ÄĹg
Ġunik alÅ³
v aid
ĠÅ¡ aÅ¡
ĠÅ¾em dir
Ġrom ÄĹnÅ³
Ġsusidom ÄĹjimo
ĠpaÅ¾ inÄįiÅ³
Ġketvir tadienio
nep t
ul ti
Ġliep ÄĹ
Ġlot yni
yn u
Ġdirb s
Ġuog os
Ġbul ves
Ġekonom inÄĻ
sid ab
Ġsu ta
ĠÄ¯mok os
ĠmaÅ¾ us
ĠÅ« g
Ġparduod amos
Ġk inta
eik s
Ġneber eikia
ir m
Ġskir snis
Ġteori jÄħ
ri jÄħ
Ġper imti
Ġnet ap
eid imÄħ
Ġdi amet
Ġses ijos
Ġkor tele
Ġkar e
Ġarm ija
Ġding sta
Ġrim ta
ĠsuÅ¾in ojau
Ġkal iniÅ³
ĠpaÅ¾eid imai
Ġtinkl inio
ĠÅ¡ird imi
eid avo
w i
Ġnedar o
Ġkaup ti
Ġnauj ausiÅ³
Ġaud rius
b at
Ġar d
Ġin jek
Ġpropag and
Ġspaud imas
Ġmair onio
Ġpro tu
Ġpad av
Ġvald oma
Ġpirk ÄĹjams
Ġvard us
Ġpar as
ausk ienÄĹs
un ta
Ġkalb u
ĠuÅ¾sak ymas
Ġlin ijas
Ġg Äħsd
li uku
ĠsÅ«n ui
Ġinform uojame
ĠÄ¯gÅ« dÅ¾iai
Ġrodik lius
Ġsand oriÅ³
Ġgars ai
ĠdÄĹÅ¾ utÄĹ
Ġdid esniu
Ġpatik ino
ĠÄ¯dom iai
Ġtad as
Ġinstitu cijose
Ġturg aus
Ġkar di
ang r
Ġneatsiej ama
Ġveik snys
Ġmel s
Ġsij onai
Ġpasikar toj
Ġskir tumo
Ġd j
e fek
Ġkam pas
Ġsaug omos
Ġdvi ta
Ġtruk mÄĻ
ĠbÅ« k
Ġpak al
Ġjaun ystÄĹs
ĠÅ¾ie do
Ġnaudo tÅ³
Ġh il
Ġapdor ojimo
ĠiÅ¡sin uomoti
Ġnu traukÄĹ
Ġporeiki ai
Ġorganiz acijÄħ
s ai
th er
s uv
mod er
s um
Ġc ink
Ġprad ÄĹjusi
tur b
ĠkÅ«ryb oje
Ġmed alÄ¯
Ġataskai toje
Ġpavad inimÅ³
Ġtris palv
Ġduk ter
Ġpail g
Ġnap ole
Ġoficial us
ĠbaudÅ¾i amojo
kiek vienas
Ġcholester olio
Ġkuri ama
Ġvien aip
Ġsumon tuoti
Ġk ni
Ġekonom iÅ¡kai
Ġmetod ais
Ġats iÅ³sti
a kiÅ³
Ġmikro b
Ġmug ÄĹ
Ġder ybos
Ġpakei timÅ³
r em
Ġso c
Ġpi giai
ĠpobÅ«d is
Ġpasid idÅ¾i
Å¡ yje
ĠprieÅ¡ Å³
Ġprof sÄħjung
Ġpakop os
esn ÄĹse
Ġro Å¾iÅ³
Ġbibliotek Äħ
Ġner inga
Ġfig Å«ros
ĠÄ¯m aiÅ¡
Ġsign alas
n ais
an ot
Ġdu etas
Ġkambar iuose
Ġgarsi ausiÅ³
Ġkontra band
Ġc am
Ġbal tÄħ
, ,
Ġpask aityti
Ġdalyk ais
Ġapyk ak
Ġnepri val
ĠdeÅ¡ inÄĹs
Ġetn inÄĹs
Ġasmen inÄĹ
Ġner as
Ġnepriklaus oma
Ġatitink amos
al p
Ġats tumo
ant ÄĹs
ep o
Ġtelef one
Ġkak l
? "
ĠbÅ«s enos
c z
Ġpoilsi au
daÅ¾ niausiai
Ġneb and
Ġmikro f
Ġpig us
r ei
ĠliteratÅ«r oje
Ġ19 26
Ġskulp tÅ«ra
inÄĹj ant
Ġsusirink ime
pav asar
Ġlaim a
ĠnepamirÅ¡ t
Ġaprib ojimÅ³
Ġskirtum us
Ġkan alo
Ġvys tyti
ĠÅ¡Å«d as
ĠÄ¯ n
Ġu t
Ġgrei tosios
ĠÄ¯sp ÄĹja
Ġbendri jÅ³
ov imas
sp ortas
ĠmÄĹnesi ams
ĠgyvÅ«n ams
Ġkal v
Ġkri ok
Ġlt d
ĠbÅ«s imÄħ
x it
ra cijÅ³
Ġkai lio
ĠmiÅ¡ ias
Ġstipr inimo
ĠÄ¯pro ÄįiÅ³
Ġgr ojo
Ġman iki
tak a
yb ÄĹn
Ġpi anis
ĠapskaiÄįi uoti
pr om
Ġgyv Å«nas
Ġinv az
Ġbrangi au
Ġvisuomen e
Ġlen telÄĻ
Ġfilm avimo
ĠnemÄĹg sta
teri ja
Ġkategori jÅ³
ĠkrikÅ¡Äįion ys
Ġlaik omasi
Ã ¨
Ġt ako
Ġkal ÄĹjime
Ġma h
Ġg ÄĹles
Ġnurod ymus
Ġartimi ausi
Ġkompens uoti
Ġger esnÄ¯
ĠÅ¡vie Å¾iÅ³
ĠÅ¾an ro
Ġjol anta
Ð¾Ð ¼
ĠiÅ¡Å¡ Å«kÄ¯
Ġantr op
ĠmarÅ¡ru tas
Ġl aÅ¾
Ġan al
Ġfinans inius
g el
ĠÄ¯k Å«rimo
Ġkoncer tus
Ġkr ymo
Ġskyri ai
Ġsurink ta
Ġsuk Å«rimo
Ġz odi
Ġaktyv iÅ³
Ġpa jung
Ġvidur Ä¯
Ġpaskai tÅ³
Ġkuri amas
Ġtar yboje
Ġfutbol ininkas
Å¡ kius
Ġpedagog ai
uk l
Ġspausd inimo
ä »
Ġkil usi
Ġmieg Äħ
Ġkai tin
Ġtvir tÄħ
m c
iej uose
Ġmar tin
Ġduo nÄħ
ĠpaslÄĹp ti
t Å«ri
el em
Ġpar azi
Ġti m
Ġvid inio
Ġnu fotograf
ĠprieÅ¾as tÄ¯
Ġsiun tÅ³
Ġsiej amas
Ġm ent
Ġg uo
ĠiÅ¡d uoda
Ġsaul ÄĻ
Ġdail ininko
Ġgamin ant
ĠÅ¡ n
Ġdr amb
Ġtvark inga
Ġtrenir uotes
Ġgrand in
Ġreferend umo
ĠvaÅ¾i avo
Ġautomat inis
Ġlik tÅ³
Ġdis er
Ġband Å¾iau
Ġpagrind us
Ġpanaud ojimas
Ġdid esnius
Ġklas ika
Ġkomplek te
Ġprav ar
ĠÅ¾ va
Ġrank inÄĹs
Ġdav id
Ġry tinÄĹje
lap kri
Ġbern ard
Ġvirus o
l im
ĠÅ¡al tinius
ĠÄ¯kvÄĹp ti
Ġfiz iniai
ĠÄ¯ves kite
var das
Ġvladimir as
Ġlinksm a
k ui
Ġs olo
tat e
s in
ĠkarÅ¡ Äįio
ĠperveÅ¾ imas
Ġnup ieÅ¡
Ġlaisvalaik is
Ġpl auti
Ġf al
Ġasmen imis
ĠkaÅ¾k okÄ¯
pard uotuv
Ġm amÄħ
Ġpal ie
Ġdi viz
Ġtek tÅ³
Ġkonstitu cijÄħ
Ġtav imi
ĠÅ¡al ut
e ag
Ġbr uo
Ġelektr iniÅ³
Ġvizu aliai
Ġnes up
Ġsusil pn
Ġkuo pos
Ġ196 4
Ġho tel
ĠâĢ Ŀ
Ġmed inÄĹ
Ġnuos tol
ĠneuÅ¾ tenka
ĠiÅ¡maiÅ¡ ykite
Ġpat aikÄĹ
p p
ik lius
Ġpag on
Ġpra timai
Ġlengv os
gi Å¡kai
Ġel ec
tuv ais
ĠapmÄħ st
Ġdarbdav iÅ³
ĠneÄ¯ man
Ġwh ite
Ġreg ener
Ġpas pir
Ġdraud imu
Ġteis inÄĻ
sm Äħ
Ġkoleg a
Ġad ven
Ġri Å¡
Ġbed ar
Ġartim a
Ġdal yse
ĠkÅ«n e
Ġfr om
t usios
Å¡k osios
Ġpadar ytÄħ
ĠaiÅ¡k inti
b ut
ĠiÅ¡ taisyti
Ġpopuliar ios
Ġbi ograf
Ġjuos tÅ³
ĠmaÄį o
in ÄĹjimÄħ
ur et
ĠraÅ¡ au
m ingas
ĠiÅ¡ t
Ġk og
Ġkon str
Ġskait ytojams
ĠreikÅ¡m ingas
Ġsteig imo
al ÄĹje
ĠdarÅ¾ elyje
Ġkav inÄĹs
ĠuÅ¾ b
Ġe ch
Ġjud esio
Ġmag nio
Ġlik usÄ¯
sod ros
ĠiÅ¡or ÄĹje
Ġfilosof as
Ġlu kiÅ¡kiÅ³
angi ai
ĠuÅ¾deg imas
Ġsav aip
tr oli
Ġvari antus
Ġvisag ino
Ġaktyv Å³
c an
Ġvis iÅ¡kas
Ġturi zmas
Ġnek ei
Ġsuteiki ame
Ġorganiz uojami
Ġme Äį
raÅ¡ ÄĹ
Ġproduk tams
Ġmink Å¡ti
ĠkultÅ«r iniÅ³
Ã ¸
ĠÄ¯gal inti
Ġpris ij
ĠneÄ¯ d
pos t
ĠsupaÅ¾ind ino
Ġvadov us
Ġsto ti
Ġsu valdyti
ĠaÅ¡tuo ni
Ġresurs Å³
aud yti
Ġvals Äįius
ĠpaÅ¾ angos
Ġpam ato
Ġsal dÅ¾i
Ġteiki ant
Ġstres as
Ġdist an
ekom unik
of fice
Ġpatar imais
Ġ196 6
Ġpalenk ÄĹs
Ġparod ys
Ġak iniai
inam ÄĹs
Ġpak uotÄĹ
you tube
Ñ Ī
in tojas
Ġvir p
ĠÄ¯sitik inkite
ĠsÄħ sa
Ġf onas
Ġlitu anis
Ġreik menys
r aug
s avi
Ġty Äįia
eÄįi ams
Ġadvok atÅ³
Ġb og
Ġant kl
Ġgav ome
Ġpipir ais
Ġskir to
Ġnuk rito
ĠpanaÅ¡ ius
ki am
lie t
auj antys
ĠapibÅ«d ina
ĠlaiÅ¡k o
ef a
inimas is
Ġfotograf uoti
Ġdarbdav io
Ġnaudoj ate
Ġ10 4
ĠuÅ¾sis pyr
Ġsuprant ame
nauj ienos
Ġdiev e
Ġpriva tiz
ĠdrÄĹk ina
ĠsÄħskai tÅ³
bir Å¾
Ġinteres ai
Ġkol ed
yd amiesi
Ġsri uba
Ġne man
ĠÄį es
Ġcitr inÅ³
Ġpasak oti
yb inio
Ġmetod ika
ip hone
Ġtur istai
per s
Ġw ar
Ġpaspaud ÄĻ
v g
ch ar
ĠaÅ¡tuo niÅ³
sk y
Ġsu riÅ¡
Ġdan ijoje
ĠÅ¡var us
Ġapa Äįia
ĠÅ¡ed ev
Ġv ii
ĠsavivaldybÄĹs e
Ġz en
Ġd um
eis b
Ġpritar ia
Ġatsiliep imÅ³
Ġinform a
is as
Ġkamuo lio
Ġvar io
Ġaud iniai
Ġna cion
tog ÄĹs
Ġ193 7
k vie
Ġ oksid
Ġg astr
ĠÅ¡l aun
s au
ĠieÅ¡ko kite
Ġg ob
Ġsiau bo
Ġkam ien
Ġpakl us
ĠuÅ¾ uo
Ġvakar ienÄĹ
Ġkris tu
ĠiÅ¡kil mingai
Ġneil gai
Ġrank raÅ¡
ĠaukÅ¡Äįiausi ojo
Ġdebiut avo
Ġat mes
Ġsuk om
Ġlyd ÄĹjo
kal n
ĠÅ«k ininkas
Ġai rijoje
Ġap rÄĹ
Ġsm uik
ĠvieÅ¡ nag
ĠpranciÅ¡k aus
Ġvanden Å³
ĠÅ¡l ov
Ġkoncep cija
Ġper skaiÄįi
Ġprisim inimai
Ġnusiteik ÄĻ
Ġlengv Å³jÅ³
ĠpuoÅ¡ ni
Ġpuol ÄĹ
Ġn aiv
Ġkriteri jai
Ġ193 6
Ġne val
Ġparti jai
ri Å¡ti
Ġpunk tuose
Ġmir ti
ĠaukÅ¡t esnÄĹs
t ÄĹjo
Ġkonsulta cijÅ³
Ġbrazili jos
Ġgam tai
Ġsprend imais
Ġ% ,
Ġmug ÄĹs
ingi ausi
bil is
Ġmer c
Ġfail Å³
skait yti
ĠÅ¡ ono
ĠsÄħjung Å³
Ġaktu alijos
ĠiÅ¡m esti
Ġnei Å¡k
Ġk ent
Ġais tra
Ġpakl ausi
Ġlicen cijos
Ġdiskut uoti
uomen ÄĹs
Ġspon tan
Ġr ÄĹÅ¾
ĠÄ¯vair ovÄĻ
Ġpozi cijÅ³
Ġsiurb liai
Ġnet enka
ĠuÅ¾siÄĹm imas
Ġpipir Å³
aud Å³
Ġkap Å³
Ġnauj ÄħjÄħ
Ġnem un
l v
ali omis
Ġnauj ausios
Ġtvenk inys
Ġprap lÄĹs
ĠÅ¾iÅ«rov us
Ġspecifik acijos
ãĤ¢ãĤ¢ãĤ¢ãĤ¢ãĤ¢ãĤ¢ãĤ¢ãĤ¢ ãĤ¢ãĤ¢ãĤ¢ãĤ¢ãĤ¢ãĤ¢ãĤ¢ãĤ¢
t ÄĹmis
Ġviz ual
Ġpapli tusi
ĠpojÅ« tÄ¯
ĠuÅ¾tikrin tai
Ġbar o
Ġform atu
Ġsutrik imas
Ġypat ingÅ³
å Ľ
Ġl ad
Ġh u
Ġvyn uog
Ġkarb auskis
Ġgyv i
Ġpasteb ima
uli ais
Ġlap o
Ġreiki amus
Ġkonserv atyv
Å¾em ÄĹs
Ġtvir tos
Ġregistr avimo
ĠnatÅ«r alÅ³
Ġkorup cija
Ġsantuo ka
Ġrad ijas
Ġmed inis
ĠbÅ«s imÅ³
Ġniu ans
Ġkonkurs uose
f ai
Ġskir tumÄħ
Ġarchyv as
Ġbul vÄĹs
Ġklini ka
Ġsutrik imus
Ġreper tu
et inio
Ġc em
Ġstebuk las
ĠiÅ¡man iÅ³jÅ³
Ġlanky tinÅ³
ĠuÅ¾d eng
Ġob lig
Ġneats kl
ĠiÅ¡rink ta
Ġsl avÅ³
Å¡k umu
Ġpam ald
Ġkomplek tacija
Ġgerb ti
Ġpapli tÄĻs
Ġtobul as
Ġhier arch
Ġkam po
Ġsimbo liu
Ġpasieki ama
Ġdv d
Ġatskir us
Ġgl Å«d
ĠÅ¾ eng
Ġklim atas
ĠÅ¡vie Äįi
Å¡ nos
Ġprad inÄĹs
Ġkokyb iÅ¡k
ĠpasidÅ¾iaug ÄĹ
aus kÄħ
d Å¾
Ġar i
kir styti
Ġnurod ytais
Ġdu jas
Ġmai tina
ĠmÅ« Å¡is
ĠpaÅ¾iÅ«r Å³
an ija
Ġilg esnÄ¯
Ġlygi aver
Ġkaz ys
ĠÄ¯vair ovÄĹs
Ġlyg inti
Ġpral aid
ĠÅ¡yps osi
Ġjas ik
ÄĹj omÄĹs
Ġkl est
Ġvid iniÅ³
Ġkoronavir uso
fo to
Ġkonkurs ui
Ġbenz in
Ġauto rÄĹs
Ġfin al
ĠiÅ¡pr ovok
h os
ĠryÅ¡ kios
Ġtams oje
Ġd nr
Ġpri g
Ġinter val
Ġkur Å¡
ĠmaÅ¾ esnÄ¯
Ġraf in
ĠgyvÅ«n ais
Ġegid ijus
m t
Ġpris p
Ġtarn avo
ĠÄ¯vyk ti
Ġper mat
Ġgen tis
Ġsrau tÄħ
Ġb oris
Ġpav ÄĹl
Ġeil es
Ġrep eti
Ġbi ologijos
ĠuÅ¾d raud
t esni
es tro
Ġdisk om
Ġb ik
Ġpris ilie
Ġk uz
ĠmÄĹnesi ui
o w
Ġnuolat inio
g ht
Ġekspozi cija
Ġger esnio
Ġjuod osios
Ġstai giai
Ġskirtum Å³
Ġkomplek t
Ġtechn inio
Ġsusij usiÄħ
olog inis
Ġkop ijÄħ
ing ame
Ġvaliu tÅ³
Ġprokur atÅ«ra
to kai
ĠneiÅ¡ l
ĠÄ¯sak ymÄħ
Ġ ona
un ch
Ġbuhalter inÄĹs
Ġt vora
Ġneb Å«d
ĠÅ¾vel giant
om ag
Ġtechn inÄĻ
Ġkokyb iÅ¡kÅ³
Ġgalu tinÄ¯
Ġizoli acija
ĠÅ¾id inio
Ġlenktyn ÄĹs
Ġlaip tais
Ġvis ad
Ġpap ai
Ġpastar ojo
ĠtrÄħ Å¡Å³
Ġteras a
Ġskandinav ijos
ĠpajÄĹg as
Ġinvestuotoj Å³
Ġsvyr uoja
Ġlaik ÄĹsi
Ġkelion ÄĹje
Ġbrius elyje
Ġkop Å«s
Ġankst esniÅ³
ug e
Ġv yt
ĠraÅ¡ tai
ĠmiÅ¡ inÄ¯
ĠminÄĹ tÄħ
vilk av
Ġ ç
ĠskaiÄįi uojama
en tui
vil as
Ġpadovan oti
) -
Ġnacional inÄ¯
Ġnumat ytÅ³
Ġlaiv Äħ
ĠpirÅ¡ tinÄĹs
Ġtur as
uri Å³
Ġad idas
Ġnem ir
? ..
Ġkubi lius
Ġpaj uto
ĠÅ¾yd i
Ġbaud Å³
Ġman iau
Ġveik li
Ġskr uos
ĠmaÅ¾ esnÄĻ
Ġpastar oji
Ġnauj ausius
Ġtarptau tinius
Ġrespond entÅ³
Ġgav osi
Ġinvesti cijas
Ġmok s
Ġgl ais
ĠpaÅ¾ym ÄĹta
l atv
Ġnes ate
ĠiÅ¡k yl
Ġteori Å¡kai
Ġnetol er
vald as
" ;
Ġbendr avimÄħ
ĠÄ¯kvÄĹp ÄĹ
ĠgÄĹr imas
Ġ Ù
Ġpuslap ius
ĠpraneÅ¡ ama
Ġpra timus
Ġskan ÄĹs
Ġribo tas
Ġpav ers
ĠuÅ¾sien ieÄįiÅ³
z is
ĠbÅ«ti es
Ġpri art
Ġblog io
v ent
yk as
Ġkompleks o
Ġskyri ui
ĠÅ¾yd ra
Ġpunk tÅ³
Ġpraei tÄħ
ol u
Ġgyd o
Ġnepa tiko
Å¾ monÄĹs
ĠÄ¯stat ymais
ĠuÅ¾sik rÄĹ
Ġspor tui
Ġgy lio
Ġpremjer a
Ġvisuomen inÄĹs
Ġf em
ĠpriÄĹm imÄħ
Ġnaudoj u
Ġlank ÄĹ
Ġfas ado
Ġakcen tas
bal tijos
Ġunik aliÄħ
ĠÅ¡al imis
aud a
ĠiÅ¡ bl
Ġdabar tinÄĻ
Ġistor inio
kar tu
Ġvis uma
vel n
ĠposÄĹ dÅ¾iÅ³
Ġatsid uria
ĠsmÅ« gio
Ġhomos eksu
Ġdis lok
Ġcharak terÄ¯
ĠsÄħskai toje
Ġyo ur
Ġl eli
ek ÄĹ
Ġprir eikia
Ġsigi tas
Ġnustat ymus
Ġrekomend acijÅ³
Ġaspek tas
Ġak ciz
Ġplauk o
Ġblog Äħ
Ġgr etas
Ġkri auk
Ġsn ap
Ġstum d
l enk
b ÄĻ
tai tÄĹ
kon kur
Ġnuorod Å³
Ġerdv ÄĹse
Ġkontra cep
ĠÅ¡veicar ijoje
ki tas
ac inius
Ġsir up
Ġjus tinas
Ġdeklar acijos
w ar
Ġnat rio
Ġpat y
Ġinvesti cija
Ġsubjek tyv
Ġm t
Ġdid inimas
Ġdir v
Ġatsis kai
Ġkonkr etÅ³
Ġpav akar
Ġbaig tas
Ġnas a
Ġsavir aiÅ¡k
Ġes tija
ÄĹd avau
ĠbirÅ¾ oje
Ġkauk ÄĹs
Ġkoply Äįia
ueto oth
pl as
07700 70
Ġel ena
Ġpatais as
Ġskur do
Ġilgalaik is
ir Å¡k
Ġkan adoje
Ġklinik oje
ĠrÄĹm as
o o
Ġgr ynas
Ġ193 5
ĠÅ¾ali as
Ġsveik iname
Ġvi tr
Ġartim uosius
Ġviln ieÄįiai
Ġsaug Å«s
ĠdÅ¾i u
per is
Ġnusis tov
Ġv aku
Ġne vil
Ġam bul
Ġinvest avimo
Ġun d
ĠsugrÄ¯Å¾ ta
Ġdizain eriÅ³
ĠpÄĹs tininkÅ³
ĠbÅ« tinos
ĠÅ¡aldy tuve
m ak
Ġmuzik ai
Ġvarik liai
Ġam b
ĠiÅ¡d id
Ġautobus o
ai lo
Ġir ano
ĠgraÅ¾ aus
pro c
Ġdirek toriui
Ġsistem ose
ĠdÄĹ kite
um at
Ġsmag us
et h
ĠiÅ¡s imok
Ġgink lo
Ġder l
bre xit
ies tis
ĠklaipÄĹd Äħ
Ġatvir Äħ
Ġkr u
ĠaukÅ¡ ti
ĠtÄĹv u
ĠkÅ«dik Ä¯
Ġgyven antiems
ĠjauÄįi amas
Ġsij on
l ed
Ġsav ybÄĹ
Ġnek okyb
Ġmil tai
Ä¯ jÄ¯
Ġkamuo lius
Ġkonf ig
Ġnetur ÄĹjau
w in
Ġvalstyb ÄĹms
ud u
ĠuÅ¾tikr inant
Ġapsis toti
ĠmaÅ¾ meninÄĹ
Ġdirek cijos
Ġmok amas
Ġnes var
Ġs aik
Ġtr ob
Ġpadar ytos
car on
z mu
Ġdokumen te
d ÄĹs
Ġsus ieti
ĠÄ¯v eÅ¾
Ġsan trauka
Ġpanaud ojant
Ġprovin cijoje
htt p
Ġserg ant
Ġkvie ÄįiÅ³
Ġsutel kti
om ieji
Ġamerik Äħ
je v
ri ki
Ġpasi Å¡
Ġskai Äįiau
Ġp s
Ġbaigi a
ĠpapuoÅ¡ alÅ³
Ġneati tik
Ġvidur inÄĻ
ĠkultÅ«r inÄĹs
ĠsÄħn ar
Ġp ami
Ġsuteik tÅ³
Ġnuk ri
c in
Ġkap iÅ¡
Ġatidar ÄĹ
Ġnusikal timo
Ġatgim imo
am aisiais
Ġmen inÄĹs
Ġkri tikÅ³
uotÅ³ jÅ³
Ġgyv ybÄĹ
Ġorganiz acijai
Ġkaral ystÄĻ
od os
Ġdovan oti
t le
zdÅ¾i us
Ġkonkr eÄįius
Ġpaskut iniu
Ġpreziden tui
Ðµ ÑĤ
pl ay
ĠuÅ¾s ukti
Ġbendra Å¾
ĠprotÄĹ viÅ³
Ġl iau
Ġaus Å³
ÄĹlio ti
ĠoranÅ¾ inÄĹ
s iÅ³
Ġsos tine
rug sÄĹjo
ĠgÄĹr ybiÅ³
Ġpris il
Ġgai rÄĹs
Ġkvap Å³
Ġeksploat avimo
Ġpet raus
valst ybÄĹs
Ġatsi tinka
Ġmotocikl Å³
Ġhipo te
n an
Ġgrie b
Ġeurop ieti
Ġr aida
Ġan a
Ġstud entus
Ġsusik Å«r
nÄĹ ra
Ġt auk
Ġreguli uoja
Ġtur ÄĹdamas
ĠdÄĹm iÅ³
Ġaug inimo
Ġgyn imo
Ġingredien tÅ³
Ġsusidor oti
je vas
Ġf m
Ġmo ki
ĠÄ¯spÅ«d ingÄħ
ĠuÅ¾ me
Ġpasi traukti
Ġfil tras
Ġaktyv ios
Ġmini os
ÄĹd amos
ĠkraÅ¡ tuose
Ġtel ekomunik
Ġnegail es
ki lo
Ġ10 5
Ġmok iniais
l ank
Ġk eb
Ġsl yv
Ġreglamen tas
Ġd uos
Ġprid ÄĹjo
Ġatvir u
ĠpasiÅ«l yta
Ġprofes ijÄħ
Ġraud onÄħ
Ġdyzel inas
ĠneÄ¯gal iesiems
ĠneslÄĹp ÄĹ
4 00
Ġpasik eis
Ġpen kios
Ġmikro organiz
vys t
tr ans
Ġatsir and
eis tos
Ġdid esnes
ĠpasiÅ«l a
s ug
ĠdidÅ¾i uotis
in tojo
Ġgi p
Ġan ek
Ġilg esnis
ed u
aun ama
Ġatl eidimo
ne w
Ġneatsi tik
Ġpr apl
è µ
ĠÄ¯dieg ta
Ġtaik o
Ġrod oma
Ġjapon ija
Ġmir us
Ġkeli amus
ĠteÅ¡ la
Ġv ÄĹj
Ġfail us
Ġpasmer k
Ġpatar ti
l ova
Ġvar Å¡kÄĹs
Ġpel k
Ġimp erija
' )
ĠiÅ¡gyven o
Ġjautri ai
Ġl g
vÄĹ rÄĹ
y Å¡
Ġrink tinÄĹje
tum i
Äįi ausiÅ³
Ġpla Äįia
Ġx l
Ġprofes ija
Ġkasdien ybÄĹs
Ġb liuz
ĠnaÅ¡ ta
ĠgÄĹr imo
Ġegzam inus
Ġkazach st
Ġval anÄįi
Ġnesul auk
Ġpadar iau
Ġom ega
200 2
Ġrenk ami
Ġdirb anti
uoj amÄĹs
aj aus
Ġkonso lid
ĠprieÅ¾as timi
Ġk vo
Ġtaurag ÄĹje
Ġslap ukÅ³
Ġpaaug liai
Ġmet alÅ³
Ġnagr inÄĹja
Ġpaband ykite
Å¡ tÄħ
Ġketur k
Ġduk ros
ĠtaÅ¡k ais
ĠÅ¾v yr
Ġbase ine
Ġsanty kiams
n g
Ġgam ykloje
an ausko
ĠminÄĹ tos
ĠleidÅ¾i antis
Ġpi an
Ġvidur inÄĹje
Ġpoliest eris
Ġ4 50
Ġsuaug ÄĻ
ĠÄ¯pras tÅ³
Ġsr ovÄĹ
Ġpran as
ĠrÅ«k yti
Ġfinans ines
Ġprar and
ĠsumaiÅ¡ yti
l yd
Ġr al
ÑĢ Ð¸
Ġpl az
Ġnauj ausia
men o
Ġm ei
pl g
Ġl b
Ġst Å«k
Ġrink inio
ĠÅ¡il k
ĠÅ¡eim ininkÄĹ
Ġnuolat inÄĹ
Ġj ar
te ch
Ġlab ir
Ġpoez ija
Ġlang as
Ġgin tautas
Ġmotyv acijos
Ġp yra
Ġform oje
ĠiÅ¡ mes
Ġpasak a
Ġapsk r
Ġmetod ikos
sto mas
Ġgr avi
Ġgyv Å«no
Ġgaranti jÄħ
Ġnesk elb
av el
Ġkrov inius
up ÄĹs
Ġasmen iu
ez i
Ġap ver
Ġoland ijos
on inÄĹs
Ġnes ijau
âĢ¦ .
Ġdefek tu
Ġf eisb
Ġnuo g
Ġfilm uose
Ġnutrauk imo
Ġkonstat avo
as as
Å¡ u
il s
eli k
Ġpapras to
ĠapibrÄĹÅ¾ ti
Ġk eik
Ġarg ument
Ġvil ÄįiÅ³
Ġseptyni as
.) ;
ĠiÅ¡band ÄĹ
ĠÅ¡ onuose
Ġder ybas
ĠpieÅ¡ iniÅ³
Ġbr Å«kÅ¡
Ġ9 1
Ġvaizd ais
Ġvalsti joje
ĠpabÄĹg o
Ġsl av
ĠÅ¾iÅ«r ÄĹkite
Ġvyn uogiÅ³
ĠprieÅ¡ o
Ġgam inys
ĠdidÅ¾iul ÄĹs
Ġnesud er
Ġgau tos
Ġtransport avimo
Ġdvas inÄĹs
Ġ2 30
ijos e
Ġkos met
Ġgarb ÄĹ
ĠvirÅ¡ yti
] :
Ġlik usius
Ġamerik ieÄįiai
Ġsen ÄĹjimo
Ġkvie Äįiu
Ġnesu pras
Ġgab al
Ġsuvok imÄħ
Ġpried us
Ġgyven amojo
Ġgel Å¾
Ġjurid inis
Ġnes isk
m eis
Ġkom uni
si us
Ġduk tÄĹ
Ġmem br
Ġbaj orÅ³
Ġd akar
ri aus
Ġfinan siÅ¡kai
ph ere
l ÄĹmis
ali osios
Ġj ulius
Ġstal ino
ĠdÅ¾iaugsm u
ĠpÅ«l ingas
Ġne pras
Ġtrauk ÄĹ
Ġbalt ymai
ic e
Ġkan cl
Ġparlamen te
Ġpriz Äħ
Ġkij evo
Ġgink lÄħ
Ġnuosto liai
Ġatsiskait ymo
Ġd un
Ġved ÄĹjo
Ġimp uls
Ġhumanitar iniÅ³
Ġvienin telÄ¯
Ġtur e
Ġ19 28
Ġnu film
techn ologijos
Ġpad ÄĹkl
Ġvab zdÅ¾iÅ³
Ġtarptau tiniu
Ġpadal inys
Ġprisik ÄĹlimo
Ġnuovar gis
ĠdÄĹÅ¾ utÄĻ
Ġelektr inÄĹ
Ġnuostab iÅ³
Ġprimi tyv
ĠtÄĻs ÄĹsi
Ġtur kijoje
Ġdraug ui
Ġpig iÅ³
Ġliuter onÅ³
lapkri Äįio
Ġstat u
ĠiÅ¡tr inti
Ġsk Å³
Ġkoj inÄĹs
ĠreÅ¾ imu
Ġner and
Ġem is
ĠuÅ¾trauk tukas
mo ter
ĠuÅ¾ val
Ġpard uota
Ġgird i
Ġnek antr
Ġpersonal as
Ġkad encijos
Ġh els
iest Ä¯
Ġproc entai
Ġband ymus
Ġvalen tino
Ġatim ti
Ġbr end
Ġlauki ami
progr am
Ġbendr Å³jÅ³
ĠÅ¾al gir
Ġaliej ai
Ġspeci aliu
Ĺ ı
Ġlengv osios
Ġatsirad imÄħ
Ġkodeks as
Ġ11 5
Ġorigin alios
Ġkul kos
Ġnud eg
Ġpad aÅ¾u
Ġvar n
Ġprak tiniÅ³
z ai
Ġsal om
Ġsvies tu
Ġpritaik ytos
Ġlik ÄĻs
Ġtik ime
ut ais
Ġsaus umos
ĠdidÅ¾i ajai
Ġsub sid
Ġbe vie
Ġslap yv
Ġankst esni
Ì ĩ
Ġsen oji
ĠÅ¾v ÄĹ
p ok
Ġteat rÅ³
Ġstul bin
ĠÅ«k inÄĹs
ĠÅ¡m aikÅ¡
Ġrank inÄĹ
Ġnereikal auja
a tijos
Ġnenori te
Å«d Ä¯
Ġsul aikÄĹ
Ġap n
Ġe inu
Ġnes veik
zd a
Ġsvarbi ausios
Ġnaudo tos
Ġpergal es
ĠsusimÄħ styti
Ġdvas inio
Ġam ster
el os
ĠÄ¯vairi ai
har mon
ĠÅ¾aid ÄĹjams
Ġleis tis
Ġskelbi ami
Ġrevoliu cija
Ġvis iÅ¡kÄħ
Ġindividu alus
Ġtrauk iniÅ³
Ġnik e
l umas
rib oti
Ġrengi amos
Ġpedagog as
op en
Ġdr as
Ġindividu alÅ³
Ġtrem tiniÅ³
Ġprival ome
Ġpatog umui
Ġdep utat
Ġklaus os
Ġskr ydÄ¯
Ġm ÄĹgi
Ġpavad inimus
ĠreiÅ¡k iniÅ³
in ams
Ġnar iui
Ġnu Å¡al
antys is
Ġnes ikei
Ġsusitik s
Ġbal tu
li Äħ
ur ys
Ġnauj ame
Ġdv iems
Ġlog ika
Ġpe Äįiai
Ġrobo tas
Ġtiek imas
Ġsch ema
s uper
Ġpasilik ti
Ġnusi Å¡yps
ĠneÅ¡io tas
ĠpoÅ¾ym ius
Ġnesl epia
Ġt yla
ÄĹm iau
Ġpirmen ybÄĻ
Ġbazi lik
ĠÄ¯g ulos
Ġskat inimas
Ġmal Å¡
Ġrem damasis
Ġsusir gti
Ġbruo Å¾as
Ġd esign
tiz mo
Ġtrium f
Ġram ina
Ġdirek toriumi
Ġram ybÄĹ
ĠÅ¾iÅ«ri u
Ġremon t
Ġpenkias deÅ¡imt
iÅ¡k ÄĹs
Ġak uÅ¡
Ġsus ting
Ġgel s
Ġpro tingas
Ġpristat oma
engi ama
Ġdy dÅ¾iu
Ġtyr imams
Ġg at
Ġgal Äħ
Ġpav erg
Ġsus tojo
ĠpaÅ¾ ymÄħ
at ur
Ġkam pÄħ
b ab
Ġatei Äįiai
ul e
jer as
Ġb est
Ġti pai
Ġpan emun
Ġnegali Äħ
Ġne atv
ti kiu
pas tar
Ġsin agog
eik os
Ġcentr us
Ġvairuotoj ui
Ġcivil inio
Ġgol fo
ch er
ĠÄ¯raÅ¡ ytas
Ġpatar ÄĹ
Ġsnieg as
vir us
ĠlÄĹ liÅ³
ĠieÅ¡k inÄ¯
ĠsaulÄĹg r
Ġatspar umas
Ġpaver Äįia
Ġtik ÄĹjo
Ġz onÅ³
Ġpristat omi
Ġfak toriÅ³
Ġparduod ame
Ġstikl inÄĹs
pas aulio
Ġmuzik antÅ³
Ġgenoc ido
ĠÅ¡al tas
Ġpsicholog ija
Ġnelaim ÄĹ
Ġkat al
et uose
Ġtur ÄĹÄįiau
ĠslÄĹn yje
in anÄįio
ĠuÅ¾ Å¡al
Ġredak cijos
s te
Ġtar ytum
Ġvakar ienÄĹs
Ġplan uojate
Ġkar inio
Ġkil mÄĻ
Ġmak ed
Ġatsin eÅ¡
Ġtiek ÄĹjo
Ġtrump alai
Ġpusry ÄįiÅ³
Ġpaveiksl ai
Ġvir b
Ġvald os
Ġpatog iu
Ġjuos toje
Ġtelef onus
Ġnestand art
Ġatsiras tÅ³
ar iu
om ent
ĠÅ¡ven Äįia
Ġprepar atÅ³
ĠjÄĹz Å³
auj asi
Ġpak etÄħ
Ġvadov ais
Ġatspar umÄħ
k k
Å¾ dÅ¾i
to bul
Ġpasi tinka
Ġneb eliko
ines s
Ġpasi auk
Ġpul s
ĠâĤ¬ .
Ġnam ais
ĠplÄĹ to
uotos e
Ġnutar imas
Ġmechan inÄĹ
Ġv g
Ġistor inÄĻ
Ġnes ame
ĠuÅ¾tikr intas
sk ri
Ġjuos mens
ĠieÅ¡k odami
ĠÅ¡vies tuvai
Ġmyl imi
med Å¾iÅ³
sp ort
l ov
tik sl
Ġvien kart
Ġurb anis
Ġvarik liu
Ġrank oje
Ġstud ijÄħ
ĠbÅ«s tas
Ġodontolog ijos
in tai
s teb
Ġbendr avo
kar o
Ġrelig inÄĹs
Ġreal ybÄĹje
eis i
Ġgaun ama
Ġorganiz uojam
Ġed m
Ġanek do
ĠÅ¡al dymo
Ġprogram inÄĻ
Ġdipl oma
ãĥ ¼
Ġfili alo
en te
ĠskaiÄįi umi
ĠatÅ¡ vai
v ÄĹl
Ġbank Äħ
Ð° ÑĤ
Ġnepav yk
Ġsusisiek imas
Ġpil vi
ĠpapuoÅ¡ alai
Ġhol ok
k ov
Ġri o
ĠtreÄįi adienio
Ġrib ose
Ġchar iz
Ġork aitÄĻ
Ġl Å¾
Ġveiki anÄįios
ist iniai
Ġprival omojo
Ġger kl
ĠÄ¯steig ti
ni au
ĠuÅ¾deg imo
Ġg auj
Ġsk ied
Ġteis inÄĹ
Ġpoli tinÄ¯
urn ak
Ġkaral ienÄĹ
Ġprietais o
Ġj un
Ġbi li
Ġraj onÄħ
Ġj ord
Ġtur imas
Ġnu dÅ¾iug
dÅ¾i uose
ĠpagrÄ¯st ai
v alifik
ĠgÄĹl ÄĹmis
ki ame
ĠprieÅ¡ ingu
Ġsur ad
tarp tau
Ġnen ug
Ġskys tis
Ġvakar inÄĹje
Ġkon tor
Ġlaik inas
Ġsulaik ytas
Ġliuks em
uo te
ĠÅ¡ auki
ar lamen
Ġmergin oms
f ig
Ġkol umb
ĠraÅ¡ tais
Ġapar ato
t ÄĹme
ÄĹ tojo
Ġw c
Ġd uod
Ġvirgin ija
ĠÅ¾ali osios
Ġpa eÅ¾
Ġlank osi
Ġplas t
nink Å³
Ġneger ai
p inig
Ġv og
ĠÄħÅ¾uol as
ĠmoÄįiu tÄĹ
d ytas
Ġmon str
Ġprid er
Ġugn ikal
Ġkoeficien tas
Ġsraig tas
Ġind ÄĹlÄ¯
ĠÅ¡vark elis
ĠaukÅ¡ tus
vÄĹ liau
k ams
Ġpasi im
Ġgar st
Ġmo biliz
teri u
Ġbud r
ult Å«r
Ġsupr anti
ĠÄ¯rod ymas
Ġpramog a
Ġprogram ose
Ġvice preziden
ĠÄ¯skai toje
ori ais
Ġvis aver
Ġkok t
Ġgird ÄĹjau
Ġlim f
ĠraÅ¡ iau
Ġnutar ta
Ġkar ininkÅ³
tum ti
Ġtikr ov
Ġsal o
Ġspor tÄħ
Ġfail Äħ
aud as
Ġprad ÄĹtos
Ġpla Äįi
Ġnedid elÄĻ
Ġteb uvo
r ez
Ġ19 21
Ġnaudoj imosi
raÅ¡ o
Ġdvi vie
Ġatitink amas
Ġdiskus ijÄħ
Ġsto ka
( );
å ¹
ori ui
Ġstatis tikÄħ
Ġnor ÄĹtume
ub o
ĠmiÅ¡ ios
Ġskyr ybÅ³
ti v
ĠÅ¡ tur
vis a
Ġbir utÄĹs
Ġpad ang
Ġfini Å¡
Ġzodi ako
Ġpirk imÄħ
Ġan uomet
Ġvil kas
Ġidentifik uoti
Ġmak Å¡
Ġrink Å³
Ġbed arb
ĠÅ¾enkl ais
Ġatver ti
Ġ Äħ
Ġvadovauj asi
riu Å¡k
Ġk inas
Ġmor alÄĹs
ĠmarÅ¡ru to
Ġpagr Ä¯sta
ĠtreÄįd alis
Ġatr inkti
Ġreik s
s amsung
Ġri da
Ġaptarn avimÄħ
Ġvienar eikÅ¡m
Å¾ aid
Ġtaik ymas
os istem
Ġsto tyje
Ġaus is
Ġnugar Äħ
ol es
Ġpreziden tÄħ
Ġnepriklaus o
Ġnuv eik
Ġtes tas
tie Äįiai
ĠaukÅ¡tai tijos
ĠmaÅ¾ oji
Ġnat ur
Ġj unt
tin giau
ĠpadÄĹ tyje
Ġstok hol
Ġdepres ijos
te kl
ĠiÅ¡si vad
Ġbar as
ĠÅ¡i tos
Ġspecial aus
ĠÅ¡m ei
Ġkeleivi us
ut h
olog iniai
Ġsuver en
Ġdramat urg
Ġdraug ystÄĹ
tom os
Ġmyl imÄħ
Ġpsicholog ÄĹ
Ġsugalv oti
i oji
Ġvyri Å¡kos
r Å«k
Ġcom ment
Ġpl inta
ĠneÅ¾in oma
Ġnuostat omis
Ġpavel dÄħ
Ġpasik onsult
Ġatid ÄĹti
vi to
Ġplo tÅ³
pap ild
Ġjaun iems
Ġkar inis
Ġsuteiki amas
ĠbÄĹd Å³
usi omis
Ġpros titu
Ġstabil umÄħ
Ġa kir
Ġpanaud ota
Ġne valg
auk ÄĹs
19 40
Ġned irb
Ġskaus mai
Ġper im
Ġnor ÄĹsite
ĠÄ¯vaizd is
Ġnorm alus
Ġdraug iÅ¡kas
Ġdie ta
tem pti
kir s
uok liai
Ġolimp iniÅ³
ĠkukurÅ«z Å³
Ġrek or
ku lio
Å¡k ojo
Ġnauj uosius
Ġpoli cijÄħ
Ġtri uÅ¡
Ġkaral ienÄĹs
Ġatl etikos
Ġlauk ai
Ġpo t
ç ļ
Ġstab dyti
Ġtikr ÄħjÄħ
Ġnut yl
Ġrekord Äħ
Ġgyven im
Ġmir k
ĠuÅ¾dar ymo
Ġvirtuv ÄĻ
Ġpaslap tÄ¯
Ġprotok olas
Ġatkov ojo
Ġviceminis tras
ĠÄ¯tvirtin ti
Ġportugal ijos
Ġkonkur uoti
Ġorkes tro
Ġk anÄįios
Ġlov Äħ
Ġseminar Äħ
Ġas ambl
ĠsÄĹd ÄĹjo
Ġpyk Äįio
Ä¯ d
Ġkur orto
Ġkav inÄĹje
ĠsmÅ«g is
Ġkor teles
Ġtvenk inio
Ġmon etÅ³
Ġdok tr
nauj as
ÄĹ c
Ġstar tavo
Ġv s
o tus
á »
Ġter es
ĠuÅ¾dav inius
ini au
Ġsudar ant
Ġ195 5
Ġvyresn ysis
Ġpab r
Ġteis ingumÄħ
Ġpasis akÄĹ
Ġaud inius
Ġplo tus
Ġdalyvauj anÄįiÅ³
ie Äįiui
Ġpas en
Ġstabil umo
b Ä¯
ĠuÅ¾ stat
ĠkrÅ« m
Ġsuprant amas
Ġ19 29
Ġargumen tÅ³
av ÄĹn
Ġsudalyv auti
x l
Ġpagrind ais
Ġpatik ima
Ġgarb ÄĻ
Ġpos to
Ġarb atÄħ
Ġeki pÄħ
ĠatpaÅ¾ Ä¯st
tr en
Ġb bc
ĠneÅ¾ino te
Ġsen atvÄĹs
ĠparuoÅ¡ ÄĹ
Ġsusitaik yti
Ġpuslap iuose
Ġ Å£
an ÄĹ
ĠpadÄĹs ime
ok sl
Ġ194 3
Ġmel as
Ġkvad r
Ġbatali ono
Ġper eina
ĠlÅ« Å¾
li do
Ġsl og
Ġtri j
Ġprogram omis
ĠpanaÅ¡ Å³
Ġspektak lyje
Ġminim aliai
es to
Ġdefek tai
Ġpartn eriu
ĠÄ¯spÅ« dÅ¾ius
ĠbÅ«n ant
Ġpirm Å³
ĠÅ¡il ko
pat s
Ġfiz inÄĻ
tin tos
vi Å¡
Ġmin ÄĹjo
Ġport f
Ġtech niÅ¡kai
Ġprie vol
Ġpati eki
vad ov
Ð ¶
lo ok
Ġleid inyje
Ġgav ÄĹjo
at oje
Ġkeli ose
ĠdarÅ¾ elis
ĠparuoÅ¡ ta
Ġartimi ausiÄħ
Ġl nk
Ġprie inamas
Ġth at
ĠÅ¡v ÄĻs
ĠiÅ¡v yd
Ġmie ga
ĠpaaiÅ¡k ÄĹja
oj om
Ġugd ymÄħ
Ġdiev Å³
Ġmat emat
ĠdÄĹk ingi
Ġdie vai
Ġskat ino
ab i
r Äħs
u kite
Ġinstitu tÄħ
Ġduk rÄħ
Ġdonel aiÄįio
Ġan atom
Ġpasak ys
iz z
Ġpie Å¡ti
yn c
Ġkil ÄĻ
Ġoland Å³
Ġp eti
Ġpriklaus anÄįiÅ³
Ġpiln aver
inink ystÄĹ
Ġrung tyje
ĠgÄĹr imus
Ġpaved imu
Ġkan alizacijos
Ġdabar tinio
ĠiÅ¡skir tiniÅ³
200 1
Ġkaul o
Ġlie Äįia
ej er
Ġtenk inti
ĠiÅ¡sig elb
Ġned ÄĹv
ĠpaÅ¾ Ä¯sta
it al
Ġkup inas
ĠdeÅ¡imtme ÄįiÅ³
t avimas
Ġap ribo
pard avimo
Ġ19 24
Ġdirek torÄĹs
Ġpavel das
ĠÄ¯man omas
? âĢľ,
Ġveiksm ingai
Ġpaaug liams
berg o
Ġsm er
Ġch ron
Ġer o
Ġmon etos
Ġtais yti
Ġatgaiv inti
Ġkil mÄĹ
Ġlegend os
ĠiÅ¡mok as
ĠmarÅ¡ru tu
Ġsteig ti
p oje
usi oje
sim ÄĹs
Ġskund Å³
Ġr atus
Ġak redit
Ġberni ukai
ĠÅ¾yg is
d ail
ĠbaÅ¾ n
Ġ193 4
Ġnusid ÄĹv
Ġbaig tis
Ġporeiki ui
ĠÅ«k ininkams
Ġformul ÄĹs
Ġ ï¿½
eik ÄĹs
Ġkoncer tavo
Ġkonstitu cinio
Ġbaltarus ija
Ġberni ukams
Ġkam pe
ĠÄ¯staig ai
Ġsim on
Ġtiesiog inio
Ġdi ana
Ġdi agr
Ġfr ez
Ġkoreg uoti
ben z
ĠpajÅ«r yje
Ġvaik Å¡to
Ġpeter burgo
li jus
ĠiÅ¡or inio
ĠginÄįi j
Ġisl amo
Ġnej ud
Ġteik imas
Ġrib oti
Ġh as
Ġvid e
Ġkaim ai
Ġpasinaud ojo
Ġper Å¡
ĠtreÄįi ÄħjÄ¯
Ġlyg mens
Ġpaneig ti
Ġd rag
ĠpaÅ¾Ä¯st amÅ³
Ġgal as
Ġlig oms
inam ojo
Ġispan ija
Ġsv eria
Ġpaj us
Ġsk ÄĹ
ĠpareigÅ«n us
ĠvaÅ¾ inÄĹti
d ytÅ³
uoj amosios
Ġles b
ĠagentÅ«r ai
Ġprak ait
Ġvaivad ijoje
Ġklaus ti
Ġteleviz oriaus
ĠbÄĹd os
ĠkeiÄįi ant
Ġpareig Å«no
Ġatidav ÄĹ
Ġpamink lai
Ġtaup ymo
Ġleng vo
ĠsÄĹkm ingÄħ
Ġsara f
Ġpasak ojimo
ĠsumaÅ¾ ino
Ġpavalg yti
Ġplan avimas
ĠminÄĹ to
k rik
Ġr omas
ĠpÄĹd os
yr imo
Ġkel iems
Ġpa ini
tr aip
Ġkompozi cijos
ĠminkÅ¡ tos
ĠmaÅ¾men inÄĹs
ĠryÅ¡ kiÅ³
Ġpaskut iniai
Ġukrain ieÄįiÅ³
u zd
Ġteis i
Ġskelb imus
Ġrink iniai
Ġgro tuvas
trÅ«k ti
Ġr oma
Ġsk or
Ġgar Å³
vol kswagen
Ġpam inÄĹjo
Ġpatvirtin tÅ³
ĠnugalÄĹ tojÅ³
Ġho use
Ġatmint yje
Ġmaitin imas
ĠsuÅ¾ino kite
Ġal Å³
Ġbaig ÄĻ
Ġre cenz
Ġpamat ÄĻs
Ġatak os
Ġtoki oms
Ġgink las
ĠsuÅ¾ad ÄĹ
Ġaz oto
Ġveget ar
Ġtur ÄĹjÄĻs
tiÅ¡k us
Ġgink lai
Ġvis umÄħ
Ġform omis
ĠÅ¡ved ija
Å« b
Ġveid ai
Ġkomentar Äħ
Ġkar Å³
Ġbe prasm
poz ic
Ġseri alo
h n
. (
Ġes amÅ³
ĠÄ¯v aik
Ġkrem o
Ġdirb ÄĻs
Ġteleviz orius
Ġpriva Äįios
Ġpanaik inimo
Î ±
Ġlaip tai
Ġrek re
Ġsur eag
yk Å¡Äįi
Ġvaik ino
Ġal ytus
Ġkrauj u
Ġe b
ĠmÅ« Å¡yje
Ġpardav ÄĹ
Ġdeg us
ĠuÅ¾p uol
ĠleidÅ¾i asi
Ġakimir ka
Ġnus isk
ĠnemaÅ¾ as
Ġn ot
Ġko kiai
Ġlaure atas
Ġ Äįiu
man to
ĠvirÅ¡ ij
Ġregion inÄĹs
Ġfig Å«ra
Ġan aip
Ġjaun atvi
Ġsvaj oja
Ġfantaz ijos
me ÄįiÅ³
ĠÅ¡o kiai
ĠÅ¡ onÄħ
Ġdirb iniÅ³
Ġprab angos
Ġsportinink as
ĠsmÅ« gi
Ġas t
Ġaspek tÅ³
lav as
Ġnus kri
Ġpak eista
Ġatvi ri
Ġpor ai
ĠÄ¯kv epia
Ġt uose
Ġkelion ÄĹms
Ġlei ten
ĠmarÅ¡ rut
Ġd am
ĠÅ¡eim ose
Ġatrad imas
Ġvisapusi Å¡kai
Ġapsigyven o
ÄĹd os
Ġimp ul
ĠÄ¯vard inti
ĠiÅ¡ pj
li ukais
Ġkil imo
Ġatmos phere
Ġikiteis minis
Ġketvir tad
Ġkaun ieÄįiai
Ġpadar ytÅ³
Ġreguli uojasi
Ġparad oks
g y
ĠiÅ¡ me
il a
Ġsi rijoje
Ġsto telÄĹ
Ġvil ko
Ġnub ÄĹg
Ġsvies tas
Ñ İ
Ġs s
Ġpatik imÄħ
eg n
ien ai
ev eik
ĠiÅ¡Å¡Å« kiai
in tume
Ġj el
m ÄĹmis
Ġk oje
Ġvid urnak
ur go
Ġf ac
Ġkel nes
Ġmir usi
Ġaktyv iau
Ġgyn ÄĹjÅ³
d ing
ĠuÅ¾ pl
Ġc os
Ġsto tÄ¯
Ġskelbi amas
Ġkar eivi
Ġvarg on
Ġkrem Äħ
ĠÄ¯Å¾vel gti
Ġ24 0
Ġpa Å¾iÅ«ros
ĠÅ¾em i
ĠplÄĹv elÄĹs
ĠiÅ¡s im
Ġbes Äħ
Ġdr es
Ġrank iniu
Ġskl aid
Ġnuostat ai
Ġprofes ijÅ³
il Å³
ĠsiÅ«l ymus
Ġpriim s
ĠvirÅ¡u tinÄĹ
var g
n Å«s
ĠkvÄĹp uoti
ĠÄ¯pro Äįiai
Ġras ime
pat ar
Ġmetod u
c at
Ġar til
Ġbe j
Ġatspar Å«s
Ġgrafik Äħ
Ġpasa kius
Ġnet ais
Ġkabin ete
an tui
Ġvertin imu
Ġalternatyv Å³
Ġig nas
Ġt od
ej aus
ĠpasiÅ«l ys
ond a
ĠiÅ¡pl ÄĹsti
ĠkiauÅ¡ inio
Ġp ais
Ġgal inÄįiÅ³
sto me
Ġapylink ÄĹ
d ok
Ġantr adienio
Ġkomp os
Ġpatik imai
inamas i
Ġargumen tus
Ġgir ÄĹno
Ġsu tap
Ġkar m
ĠÅ¡al tÄħ
Ġedi ta
Ġr ati
ĠpareiÅ¡k ÄĹjui
Ġkie tas
Ġtransp l
ĠskulptÅ«r Å³
aik a
ĠkrikÅ¡ tyn
ofi ci
ĠdrÄĹg mÄĹ
m or
Ġnel eisti
Ġkontak to
Ġsklyp ai
Ġdaug umoje
Ġsusir enka
ĠmaÅ¾ esniÅ³
Ġreng ÄĹ
ĠsÄħj Å«dis
Ġdarbdav iai
Ġugniag esiai
ĠÅ¾aid ÄĹjus
Ġkelny tÄĹs
Ġatsak ovas
Ġmi tas
Ġpadid ino
Ġ ama
et s
Ġkor oz
Ġmalon umo
Ġpoil sÄ¯
Ġvestuv ÄĹms
ĠpavyzdÅ¾i us
h y
Ġc is
Ġtink amus
ĠÄįempion u
Ġstal inas
ĠtÄĻs tin
es te
Ġpagrind ai
ÄħÅ¾ Å³
en ce
Ġkar eiviÅ³
Ġgener olo
Ġatlyg inimus
ĠiÅ¡klaus yti
st Ä¯
ĠmiÅ¡ inio
ĠmilÅ¾ini Å¡kas
! "
Ġteis ÄĹjo
Ġpasirink imu
ĠpaÅ¾eid ÄĹ
Ġprietais us
Ġsusidom ÄĹjimÄħ
geg uÅ¾ÄĹs
Ġsuki b
Ġ19 17
ÄĹr imo
j Å«sÅ³
Ġsudar ytÅ³
un do
Ġe f
ç Ķ
Ġkredi tÄħ
Ġup elio
Ø ±
Ġdirek cija
ĠuÅ¾fiks uotas
Ġprieglob sÄįio
ĠsÄĹkm ingi
Ġg ina
Ġnustat ant
u tienÄĹ
ĠdaÅ¾ yti
Ġekonom ikai
ele vi
Ġpasek mÄĹ
Ġandri aus
Ġuniversitet uose
Ġpat ent
ild o
Ġkompozi toriÅ³
Ġpasik li
Ġparag ino
ac ines
ĠÅ¡iuolaik inis
up i
Ġ19 27
Ġkv epi
Ġpu Äįi
aud Äħ
Ġsal otÅ³
il us
ĠdÄĹst ytojai
Ġm usic
Ġpras isk
Ġkan alas
Ġvaid mens
ĠÄ¯amÅ¾ inti
Ġaplank o
Ġsur ado
Ġatvir Å³
Ġgal axy
Ġpraded ame
ĠÄ¯mok as
Ġbiokur o
Ġteik ÄĹ
Ġap Äįiuo
ĠmÄĹg o
Ġkal vos
è ½
Å¾ v
ĠÅ¡al u
Ġjuod Å³jÅ³
ĠstebÄĹs enos
Ġpietry Äįius
Ġdom ini
Ġci tat
at ei
Ġskr isti
Ġpl ÄĹs
Ġmieg amojo
Ġkek si
Ġmokykl oms
Ġdon or
Ġbank rut
Ġdo zÄĹs
Ġsvet ur
Ġsuvar Å¾
Ġpiram id
Ġdvi Å¡
Ġbaig us
Ġdang umi
Ġtermin alo
Ġmedik amen
Ġmet rop
Ġpasibaig ÄĻs
Ġchirurg ijos
Ġame rika
Ġpris ig
Ġorganiz uojama
Ġmet ab
Ġkonsult avimo
Ġaid as
Ġnum eriai
Ġskamb ÄĹs
Ġceremon ija
Ġveik imas
Ġneat rodo
Ġpol ink
Ġro ck
ter m
Ġsveik ino
Ġblow job
Ġtar k
Ġgyven imus
Ġpasveik inti
Ġmok ÄĹjimas
ĠuÅ¾m uÅ¡
Ġlaboratori joje
v ik
Ġblaksti enÅ³
Ġ( +
Ġdal inosi
Ġklaus yti
Ġplo te
Ġnedid elio
l em
us as
Ġeurop arlamen
Ġaukl ÄĹjimo
Ġbui tinÄĹs
ĠÄ¯sisk ol
da y
Ġpersvar Äħ
Ġtink antis
Ġkariuomen ÄĹje
ĠkrikÅ¡Äįion ybÄĹs
ĠÅ¡ ap
ĠtÄĹv ui
ĠpasipuoÅ¡ ti
çļ Ħ
eks ual
Ġjaun o
Ġparem tas
Ġaspek tai
Ġop en
ec t
Ġreal ybe
Ġsvetain es
ĠiÅ¡p li
v eid
Ġpla y
Ġpakar toti
ĠmilÅ¾ini Å¡kÄħ
Ġbu Äįi
ĠÅ¡aud ymo
Ġk ump
Ġklas es
ĠiÅ¡aug a
Ġad om
ĠiÅ¡mok a
Å« kio
Ġstengi amasi
Ġus d
Ġkalendor iniÅ³
j uv
Ġtr of
ej au
Ġnustat ytais
Ġvie tinio
Ġteis inis
Ġak toriaus
Ġz aid
Ġim bie
19 90
Ġmor kÅ³
Ġpasien yje
ai ki
ĠÅ¡ ien
var as
Ġro b
Ġdis kas
tik lis
ie tÄ¯
Ġor tod
Ġpl ona
Ġmed aliÅ³
ĠprieÅ¡ ak
Ġmok ymuose
ĠÄ¯vard ijo
Ġbaig usi
Ġarkivyskup as
Ġseser ys
Ġpagrind ine
ĠuÅ¾dav iniai
Ġ194 2
Ġvald ovas
Ġkonserv atoriai
Ġaksesu arÅ³
Ġbl ond
Ġpasik alb
ĠuÅ¾draus ta
i ojo
Ġt ÄĹk
Ġvidur y
Ġpalik uo
Ġlicen cij
panevÄĹ Å¾io
Ġind onez
Ġprog ai
Ġbuv imÄħ
Ġsusi tinka
Ġmoksl ai
ij oj
Ġpasiek tÅ³
Ġparsis iÅ³sti
Ġgied rÄĹ
Ġprognoz ÄĹ
Ġl ui
Ġvil kÅ³
Ġpasirink tos
Ġp ne
Ġmaksim alÅ³
l aiÅ¡k
ĠaprÅ«p inti
ĠsandÄĹli avimo
Ġsudar oma
Ġpien u
Ġhor oskop
Ġpogr ind
omag net
Ġal fa
ĠapraÅ¡ ymÄħ
iej aus
Ġorganiz acijomis
Ġb k
Ġpardav ÄĹjai
ĠbruoÅ¾ us
Ġfarm acijos
Ġsusimok ÄĹti
Ġm ÄĹÅ¡
Ġtar d
Ġelektron inis
ĠeÅ¾er e
yt ÄĹmis
Ġketurias deÅ¡imt
uoj anÄįiais
Ġjau tÄĹ
ĠpavirÅ¡i umi
Ġminer aliniÅ³
Ġger ovÄĻ
Ġbi Äįiu
Ġplast mas
Ġl ino
ĠÅ¡iltn am
Ġpsicholog inÄĹs
Ġolimp inÄĹse
ĠuÅ¾ tais
ĠpaÅ¾ eng
Ġdeg a
c inius
Ġpoli uret
Ġstil inga
p rak
Ġreak cijÄħ
Ġvin cen
Ġsistem omis
Ġkri tiÅ¡kai
ĠpaÅ¾ym ÄĹjimas
Ġsustipr ina
Ġkie kiais
Ġpasi Å¡al
Ġpas ikl
Ġsv eri
Ġpirm iau
Ġreikalav imams
Ġ" .
Ġpadid ÄĹjÄĻs
Ġkop Å«
Ġs is
ti enÄĹs
Ġar isto
Ġpasitel kti
m ad
Ġpaskai ta
ĠnetrÅ«k o
Ġnor ÄĹdama
Ġseptyn is
Ġn ieÅ¾
Ġpad aÅ¾as
Ġkap in
Å¾mog us
Ġnevyriaus ybiniÅ³
ĠÅ¡un is
ĠiÅ¡dÄĹs ty
Ġmuzik inio
tÄħ ja
Ġpov il
Ġvili oja
Ġtobul a
a pr
Ġsvaj ones
Ġpro toti
Ġkeli ami
Ġapmok es
ĠÅ¡or tai
Ġap tver
Å¾in ys
vasar io
ĠÄ¯ form
Ġprisim inimÅ³
Ġsvaj oti
ori uje
Ġbilie to
Ġsul auÅ¾
Ġgr amÅ³
kir to
uo liams
ĠÄ¯raÅ¡ yta
Ġsc ena
Ġgyvyb iÅ¡kai
Ġservis o
ĠÅ¾ini atink
Ġkalend orius
ĠÄ¯sik Å«n
Ġsibir o
Ġgyven tojais
Ġrak tas
Ġkonflik tÄħ
ĠsmÅ«g Ä¯
Ġu efa
Ġper v
Ġfre e
ed ic
tar ÄĹ
Ġreprez ent
Ġ19 25
Ġsupjaus tyti
Ġstat ybÄħ
ĠiÅ¡sis kiri
Ġbu tu
Ġjaus m
Ġh al
yk is
Ġtrup uti
ĠviÅ¡ tyÄįio
Ġpaskyr os
Ġsku ba
Ġunivers ali
v at
Ġ12 00
Ġperspektyv as
Ġtelk iniÅ³
ĠrotuÅ¡ ÄĹs
Ġmolek ul
Ġsen umo
ĠpasiruoÅ¡ imo
m and
kult Å«ros
Ġkam uolys
Ġband au
Ġnuv ykti
Ġnuostab Å«s
k ait
ĠÄ¯vairi ausi
Ġdet ali
ĠdÅ¾emp eriai
Ġgen ties
Ġmed ienÄħ
Ġplastik iniÅ³
Ġpal eido
Ġdan utÄĹ
Ġex press
ag u
Ġnetink amas
ĠsÄħvar tyn
ĠnugalÄĹ tojas
Ġt uber
Ġkuri ami
Ġstipri au
ĠneÅ¾in ome
Ġbesi vyst
Ġprofi liÅ³
eg ti
Ġw al
ĠmÅ«r o
Ġter oris
Ġjuod Äħ
ys im
Ġtoki uose
Ġvis iÅ¡ka
Ġra ci
ĠÅ¾ol eliÅ³
ĠÄ¯ brÄĹÅ¾
Ġp ho
Ġbrang Å«s
Ġr ul
Ġlind ex
Ġgal ÄĹsi
ton Å³
Ġtikr osios
ka ina
Ġpapild as
ĠdÄĹ klas
Ġvaid ino
Ġvyst ymÄħsi
Ġvykusi oje
Ġst t
Ġdvira Äįiai
Ġg aiÅ¡
ĠsÄħ m
Ġdarb ininkai
Ġkomun aliniÅ³
ek va
Ġdiskus ijas
Ġsergan ÄįiÅ³
aun ami
Ġstriuk ytÄĹs
Å¡ n
Ġmodern aus
og o
Ġnen eÅ¡io
Ġnel ieka
Ġled Å³
Ġkatalog e
Ġgimtadien is
Ġpoveiki u
ĠatneÅ¡ ti
ĠieÅ¡k au
Ġgied rai
ĠsuÅ¡ veln
Ġam ino
ĠneÅ¡ a
Ġrieb alus
Ġbank ininkystÄĹs
Ġtiesiog inis
Ġpasirink ÄĻ
ĠvieÅ¡bu Äįius
uv Äħ
Ġpasil ieka
Ġbals ai
ĠpridÄĹ tinÄĹs
oj anÄįios
pas l
Ġvert ybiniÅ³
Ġnuostabi Äħ
Ġ Å³
Ġdiagnos tika
Ġg id
Ġstab do
ote chn
ĠrieÅ¡u tai
1 000
si c
ĠiÅ¡l yd
Ġa ch
Ġnustat yto
Ġtab l
Ġdvej etÅ³
Ġdirek toriÅ³
Ġeis mas
ĠÅ¾mog Å¾ud
Ġjuk n
Ġh ot
Ġpask elbi
ĠdidÅ¾i ulio
ĠÅ¡vies Å³
Ġkeli omis
Ġsen atv
Ġlauk iniÅ³
Ġpasidal ijo
Ġlub os
Ġpriklausom ybÄĻ
Ġar kl
Ġtr ÄĻ
ug h
Ġmor k
Ġgeograf ijos
Ġfakult etas
Ġsk autÅ³
Ġobjek tu
Ġlyg yje
Ġskan u
aus ta
Ġmotyv ai
Ġ' '
Ġly tiniÅ³
ĠuÅ¾siregistr uoti
p x
Ġprie de
p f
Ġjuos telÄĹs
Ġplan eta
Ġvisuomen iniÅ³
Ġder mat
Ġdemonstr uoja
ĠÅ¡alig at
1 10
aliz uoja
Ġskait ytojas
Ġvi lius
Ġneskl and
Ðº Ð°
Ġgrai kijoje
Ġgailes tingumo
Ġtik ÄĹ
Ġgal intis
Ġpasak ojimÄħ
Ġbiur Å³
Ġgaid ys
t ÄĹj
Ġd alios
pr ot
Ġry tais
Ġreikal avimo
yt am
ytÅ³ si
Ġpatvirtin tos
Ġprid uria
ĠÅ¡al inti
Ġpermain Å³
Ġr aps
Ġseminar us
eli ks
tar as
Ġindividu ali
Ġvien etai
Ġmas turb
Å¾ mon
Ġnek elia
Ġv ul
per ka
ĠiÅ¡sis kirti
Ġtal entÅ³
a ÄįiÅ«
ĠiÅ¡s ek
ĠiÅ¡k vie
Ġpasirod ymus
ting u
Ġavi Å¾
Ġvatik ano
in tuvo
li Å«
ĠdaÅ¾ niÅ³
uotoj ams
Ġnesus id
Ġkoment avo
Ã «
ab inti
auj anÄįios
Ġpapild ai
Ġoperatyv iai
Ġdid mies
Ġnusikal timÄħ
Ġbij oti
Ġpareikal avo
Ġar n
Ġilg Ä¯
Ġorganiz uojamos
ĠtÄĹv eliams
is kai
Ġh av
Ġnetur ÄĹs
Ġatkeli avo
po wer
n amen
ĠbÅ«tin Å³
en io
Ġpasir eiÅ¡k
Ġorganiz uojant
Ġvalstyb inÄĹje
ĠÅ¡ one
Ġpad ÄĹsi
af e
Ġkompon entai
Ġpapild Å³
Ġaud ron
Ġmil teliÅ³
ĠÅ¾ vir
Ġkar inÄĻ
Ġvartoj ami
Ġchem inÄĹs
Ġnuteis tas
Ġsel ek
Ġkuri amos
k ak
Ġapdovan ota
Ġr atu
Ġpas ukti
Ġc las
Ġpasi tiki
Ġdirb tinio
Ġstil ingi
Ġpak yla
Ġteks te
ĠnÄĹr ies
Ġpagalvo kite
Ġor gaz
Ġtes tÄħ
z avimo
Ġreform Å³
men iu
Ġveiksm aÅ¾od
Ġkooper atyv
Ġsukaup ta
li po
ĠpaÅ¾ angÄħ
ac ine
yb inius
ĠsÄħmon ÄĻ
ĠvÄĹli avÄħ
ĠtrokÅ¡ t
ĠpamuÅ¡ alu
Ġkombinez onas
Ġlsd p
Ġd amb
Ġvir s
ĠÄ¯si gal
Ġkandid at
ĠtuÅ¡ Äįias
Ġfron to
Ġv engia
Ġspor tinÄĹs
Ġgaranti jÅ³
Ġperd uota
Ġmotyv acija
Ġsistem oms
ĠsudÄĹting Å³
ing umui
Å¾ gan
om pan
ĠdaÅ¾ ymo
Ġgar an
Ġkons ist
Ġav ÄĹti
Ġpublik a
apl ink
lais vÄĹs
b ek
Ġlik usios
Ġindus tr
f re
Ġvien eriÅ³
Ġform aliai
Ġdrusk ininkuose
ï¼ Į
ĠmaÅ¾ vydo
Ġaplink iniai
Ġblog Å³
Ġpak etas
Ġgais ras
Ġsvog Å«nÅ³
14 0
Ġak tor
ot vark
s ien
ĠriÄį ardas
Ġklas ÄĹse
Ġdemokra tija
usi oms
Ġbal tÅ³jÅ³
Ġstat iniai
Ġa e
Ġsutar timi
ĠÄ¯vertin ta
b n
ĠmaÄį e
ĠvarÅ¾ ovus
ĠÄ¯vair ove
Ġnereikal ingas
Ġskard os
ki omis
Ġgryn ai
t ada
Ġsanty kio
Ġkie kius
Ġasfal to
Ġsten kitÄĹs
Ġdabar ties
Ġprofes inÄĻ
Ġsraigtas par
or f
Ġor top
ĠÄ¯dom aus
ĠpripaÅ¾ inimÄħ
Ġchore ograf
Ġnepri lyg
Ġpasikei Äįia
Ġg ÄĹjÅ³
ĠÅ¾ engÄĹ
ĠtreÄįi os
Ġperiod iÅ¡kai
Ġner Å«p
Ġreg ina
Ġpavar dÅ¾iÅ³
Ġmanev r
an kiÅ³
Ġli ub
aun ant
Ġrim tÄħ
Ġdizain eriai
Ġnek ain
f c
Å¾ yd
st antis
uoj anÄįiu
Ġsum inkÅ¡
Ġkop ija
Ġgal ÄĹjome
Ġlang e
ĠuÅ¾raÅ¡ u
Ġbais iai
Ġnepas ieki
Ġkij ev
Ġkategori jÄħ
ĠdÅ¾i ung
Ġmeks ikos
Ġorganiz acijoje
Ġkelias deÅ¡imt
Ġaktu alus
Ġgriuv ÄĹs
Ġpriv atus
Ġprad ÄĹkite
Ġpasiek imai
Ġbyl as
ach ar
ĠneuÅ¾ si
d ovan
ÄĹ giai
Äį inskas
Ġdvi gu
ĠaiÅ¡k inamasis
Ġlt sr
Ġur l
yn ÄĹje
in ijos
Ġkil noj
Ġdizain eris
Ġaleksand r
Ġstak lÄĹs
ĠbaÅ¾n yt
ĠsÄĹkl as
in ÄĹjau
Ġmoksl inius
Ġkryp timis
Ġsvetain e
s am
ĠvirÅ¡ us
ĠlÅ«kes Äįiai
Ġvais to
Ġpaskai tÄħ
Ġul tr
l umo
aj Äħ
Ġtr Å«kst
Ġspor tiniÅ³
[...]
