{"<s>":0,"<pad>":1,"</s>":2,"<unk>":3,"<mask>":4,"!":5,"\"":6,"#":7,"$":8,"%":9,"&":10,"'":11,"(":12,")":13,"*":14,"+":15,",":16,"-":17,".":18,"/":19,"0":20,"1":21,"2":22,"3":23,"4":24,"5":25,"6":26,"7":27,"8":28,"9":29,":":30,";":31,"<":32,"=":33,">":34,"?":35,"@":36,"A":37,"B":38,"C":39,"D":40,"E":41,"F":42,"G":43,"H":44,"I":45,"J":46,"K":47,"L":48,"M":49,"N":50,"O":51,"P":52,"Q":53,"R":54,"S":55,"T":56,"U":57,"V":58,"W":59,"X":60,"Y":61,"Z":62,"[":63,"\\":64,"]":65,"^":66,"_":67,"`":68,"a":69,"b":70,"c":71,"d":72,"e":73,"f":74,"g":75,"h":76,"i":77,"j":78,"k":79,"l":80,"m":81,"n":82,"o":83,"p":84,"q":85,"r":86,"s":87,"t":88,"u":89,"v":90,"w":91,"x":92,"y":93,"z":94,"{":95,"|":96,"}":97,"~":98,"¡":99,"¢":100,"£":101,"¤":102,"¥":103,"¦":104,"§":105,"¨":106,"©":107,"ª":108,"«":109,"¬":110,"®":111,"¯":112,"°":113,"±":114,"²":115,"³":116,"´":117,"µ":118,"¶":119,"·":120,"¸":121,"¹":122,"º":123,"»":124,"¼":125,"½":126,"¾":127,"¿":128,"À":129,"Á":130,"Â":131,"Ã":132,"Ä":133,"Å":134,"Æ":135,"Ç":136,"È":137,"É":138,"Ê":139,"Ë":140,"Ì":141,"Í":142,"Î":143,"Ï":144,"Ð":145,"Ñ":146,"Ò":147,"Ó":148,"Ô":149,"Õ":150,"Ö":151,"×":152,"Ø":153,"Ù":154,"Ú":155,"Û":156,"Ü":157,"Ý":158,"Þ":159,"ß":160,"à":161,"á":162,"â":163,"ã":164,"ä":165,"å":166,"æ":167,"ç":168,"è":169,"é":170,"ê":171,"ë":172,"ì":173,"í":174,"î":175,"ï":176,"ð":177,"ñ":178,"ò":179,"ó":180,"ô":181,"õ":182,"ö":183,"÷":184,"ø":185,"ù":186,"ú":187,"û":188,"ü":189,"ý":190,"þ":191,"ÿ":192,"Ā":193,"ā":194,"Ă":195,"ă":196,"Ą":197,"ą":198,"Ć":199,"ć":200,"Ĉ":201,"ĉ":202,"Ċ":203,"ċ":204,"Č":205,"č":206,"Ď":207,"ď":208,"Đ":209,"đ":210,"Ē":211,"ē":212,"Ĕ":213,"ĕ":214,"Ė":215,"ė":216,"Ę":217,"ę":218,"Ě":219,"ě":220,"Ĝ":221,"ĝ":222,"Ğ":223,"ğ":224,"Ġ":225,"ġ":226,"Ģ":227,"ģ":228,"Ĥ":229,"ĥ":230,"Ħ":231,"ħ":232,"Ĩ":233,"ĩ":234,"Ī":235,"ī":236,"Ĭ":237,"ĭ":238,"Į":239,"į":240,"İ":241,"ı":242,"Ĳ":243,"ĳ":244,"Ĵ":245,"ĵ":246,"Ķ":247,"ķ":248,"ĸ":249,"Ĺ":250,"ĺ":251,"Ļ":252,"ļ":253,"Ľ":254,"ľ":255,"Ŀ":256,"ŀ":257,"Ł":258,"ł":259,"Ń":260,"Ġp":261,"in":262,"ai":263,"ÄĹ":264,"Ġk":265,"as":266,"Ġs":267,"Å³":268,"Å¡":269,"ti":270,"au":271,"os":272,"Ġi":273,"Ġt":274,"ie":275,"ar":276,"al":277,"Ġn":278,"Å¾":279,"Ġv":280,"is":281,"an":282,"Ġm":283,"Ġd":284,"us":285,"Äħ":286,"am":287,"at":288,"im":289,"en":290,"Ġb":291,"Ä¯":292,"Ġg":293,"ri":294,"Ġir":295,"âĢ":296,"ei":297,"Ġj":298,"Ġl":299,"er":300,"uo":301,"Å«":302,"Ġr":303,"ki":304,"es":305,"to":306,"Äį":307,"ÄĹs":308,"li":309,"ad":310,"Ġpr":311,"Äįi":312,"av":313,"on":314,"ĠÄ¯":315,"ij":316,"et":317,"Ġsu":318,"ĠâĢ":319,"ĠÅ¡":320,"Ġa":321,"je":322,"om":323,"ra":324,"aus":325,"ur":326,"ini":327,"ir":328,"ĠiÅ¡":329,"Ġne":330,"Ġpa":331,"tu":332,"or":333,"Å¾i":334,"te":335,"Ġpas":336,"ais":337,"ien":338,"ok":339,"ĠÅ¾":340,"Ġat":341,"tik":342,"el":343,"ÄĹj":344,"ÄĻ":345,"ek":346,"tin":347,"ak":348,"ali":349,"Ġap":350,"tÅ³":351,"il":352,"yb":353,"ink":354,"aug":355,"ta":356,"od":357,"Ġu":358,"um":359,"oje":360,"aip":361,"tr":362,"iÅ³":363,"Å¡k":364,"tas":365,"id":366,"ĠâĢŀ":367,"imo":368,"Ġkad":369,"ĠâĢĵ":370,"âĢľ":371,"aik":372,"cij":373,"og":374,"Ġvis":375,"Ġ1":376,"yv":377,"eik":378,"Ġ(":379,"uri":380,"Ġar":381,"oj":382,"Ġy":383,"em":384,"ant":385,"ik":386,"ys":387,"Ġf":388,"ym":389,"ov":390,"Ġtik":391,"ol":392,"ĠuÅ¾":393,"tuv":394,"Ġsav":395,"Ġyra":396,"uv":397,"ui":398,"ab":399,"ÄĹl":400,"si":401,"Ġpat":402,"ed":403,"Ġdar":404,"tis":405,"gi":406,"uos":407,"yk":408,"and":409,"Ġ2":410,"aÅ¾":411,"ni":412,"Å«r":413,"Ġo":414,"eli":415,"st":416,"Ġsk":417,"ĠbÅ«":418,"Ġnuo":419,"uk":420,"Ġlie":421,"Ġgal":422,"Ġprie":423,"Ġmet":424,"Ġpar":425,"toj":426,"pr":427,"ĠÅ¡i":428,"yti":429,"aud":430,"Ġtai":431,"Ġin":432,"auk":433,"ing":434,"Ġpo":435,"ausi":436,"Ġper":437,"imas":438,"usi":439,"iek":440,"ÂŃ":441,"Ġbuv":442,"ap":443,"end":444,"Ġlietuv":445,"tÄħ":446,"Ġkuri":447,"ul":448,"un":449,"..":450,"eis":451,"Ġc":452,"Ġkar":453,"men":454,"Ġgr":455,"Ġki":456,"Ġkur":457,"ame":458,"iniÅ³":459,"ÄĹm":460,"auj":461,"Ġto":462,"mon":463,"Ġvien":464,"Å«s":465,"eg":466,"ÄįiÅ³":467,"Ġmok":468,"Ġtr":469,"Ġti":470,"uoj":471,"ams":472,"Ġbuvo":473,"Ġval":474,"Ġsp":475,"Ġkaip":476,"Ġats":477,"tos":478,"ijos":479,"Ġdaug":480,"Ġpri":481,"ank":482,"var":483,"Ġ-":484,"ci":485,"Ġpag":486,"inti":487,"ÄĹjo":488,"Ġpl":489,"tat":490,"Ġe":491,"ama":492,"tai":493,"inÄĹs":494,"eri":495,"dÅ¾i":496,"Ġsavo":497,"Ġkl":498,"Ġnes":499,"acij":500,"ies":501,"amas":502,"inÄĹ":503,"kia":504,"Äįiau":505,"Ġgyv":506,"Ġgali":507,"ag":508,"imÄħ":509,"Ġjau":510,"Ġpro":511,"Ġpir":512,"Ġtur":513,"Ġbet":514,"yje":515,"00":516,"inis":517,"Ġkom":518,"aÅ¡":519,"Ġkai":520,"eng":521,"inio":522,"ch":523,"kl":524,"Ġtar":525,"Ġdal":526,"ÄĻs":527,"Ġkon":528,"mo":529,"tar":530,"Ġapie":531,"Ġdarb":532,"ter":533,"aid":534,"ami":535,"Ġkr":536,"bi":537,"yg":538,"Ġtaip":539,"Ġpav":540,"yn":541,"Ġlab":542,"ba":543,"vi":544,"Ġvie":545,"Ġlaik":546,"inink":547,"uose":548,"yr":549,"tÄĹ":550,"ori":551,"Ġdid":552,"orm":553,"sl":554,"jÅ³":555,"Ġpad":556,"Ġnet":557,"omis":558,"avo":559,"Ġta":560,"ang":561,"kir":562,"Ġgyven":563,"vai":564,"ina":565,"yd":566,"Ġre":567,"tus":568,"iÅ¡k":569,"ÄĹti":570,"anÄįi":571,"Ġkal":572,"tori":573,"iz":574,"Ġak":575,"iau":576,"ino":577,"io":578,"Ġman":579,"Ġbei":580,"Ġver":581,"Ġgalim":582,"ybÄĹs":583,"Å«sÅ³":584,"Ġnep":585,"iem":586,"ĠdÄĹl":587,"Ġvar":588,"uoti":589,"Ġnor":590,"raÅ¡":591,"Ġnauj":592,"Ġlietuvos":593,"ĠÅ¡v":594,"Ġjo":595,"Ġsv":596,"Ġsus":597,"jos":598,"Ġjei":599,"Ġor":600,"Ġ3":601,"Ġpirm":602,"01":603,"iniai":604,"liÅ³":605,"Ġpasi":606,"osi":607,"lik":608,"kite":609,"Å«n":610,"Ġes":611,"Ġh":612,"ent":613,"ymo":614,"op":615,"Ġli":616,"up":617,"Ġbe":618,"Ġvaik":619,"Ġteis":620,"kiÅ³":621,"val":622,"ija":623,"Ġkeli":624,"Ġlabai":625,"Ġkas":626,"Ġas":627,").":628,"ep":629,"ose":630,"Ġdr":631,"ĠtaÄįiau":632,"sk":633,"ÄĹd":634,"Ġbend":635,"Ġger":636,"Ġnaud":637,"ind":638,"Ġ19":639,"eÅ¡":640,"Ġjis":641,"ut":642,"ub":643,"sp":644,"ĠjÅ³":645,"Ġau":646,"lio":647,"asi":648,"Ġiki":649,"ud":650,"ĠÅ¾mon":651,"ĠsÄħ":652,"Ġmed":653,"Ġreik":654,"Ġdien":655,"enk":656,"esn":657,"Ġturi":658,"iai":659,"Ġveik":660,"âĢľ,":661,"ÄĹje":662,"eikia":663,"Ġan":664,"Äįia":665,"tim":666,"uomen":667,"ojo":668,"ait":669,"Ġbal":670,"Ġnus":671,"Ġpak":672,"ykl":673,"Ġal":674,"Ġnei":675,"vir":676,"Ġvil":677,"Ġkiek":678,"Ġprad":679,"ver":680,"ime":681,"Ġbendr":682,"imÅ³":683,"Ġsi":684,"...":685,"amos":686,"cijos":687,"oti":688,"Ġpal":689,"ĠbÅ«ti":690,"ĠmetÅ³":691,"Ġ201":692,"Ġsuk":693,"iems":694,"ÄĹg":695,"ung":696,"ties":697,"Ġvad":698,"eid":699,"Ġpris":700,"avimo":701,"Ġauk":702,"kio":703,"Ġeur":704,"ĠÅ¡al":705,"ej":706,"form":707,"Ġel":708,"Ġpagal":709,"Ġarba":710,"Ġko":711,"Ġmo":712,"Ġtarp":713,"Ġdir":714,"ain":715,"tel":716,"ĠmaÅ¾":717,"aj":718,"odÄĹl":719,"kas":720,"),":721,"Äįio":722,"Ġtikr":723,"Ġ\"":724,"Ġneb":725,"Ġpasir":726,"Ġmetu":727,"Ġsud":728,"Å«k":729,"ĠprieÅ¡":730,"Ġgam":731,"Ġte":732,"Ġ4":733,"gan":734,"Ġek":735,"ytoj":736,"Ġ5":737,"Ġant":738,"Ġskir":739,"Ġvyk":740,"eig":741,"ybos":742,"oma":743,"aun":744,"ÄĹn":745,"Ġauto":746,"ug":747,"Ġst":748,"uod":749,"erg":750,"esi":751,"Ġpask":752,"olog":753,"aul":754,"ja":755,"ĠnÄĹ":756,"Ġbus":757,"umo":758,"aig":759,"Ġtiek":760,"tais":761,"tyv":762,"Ġdaugiau":763,"ĠmÅ«sÅ³":764,"Ġil":765,"Å«ros":766,"Ġjos":767,"pi":768,"imai":769,"Äįius":770,"ko":771,"zd":772,"Ġsvar":773,"pras":774,"ĠÅ¾em":775,"inius":776,"ÄĹmis":777,"yl":778,"tÄĹs":779,"ausiai":780,"ÄĹtÅ³":781,"ting":782,"oms":783,"inÄ¯":784,"ada":785,"Ġrink":786,"Ġgalima":787,"Ġvid":788,"Ġjie":789,"Ġvalst":790,"Ġaps":791,"acijos":792,"Äįiai":793,"ĠiÅ¡s":794,"Ġtink":795,"Ġnam":796,"sti":797,"Ġpan":798,"lo":799,"Ġneg":800,"Ġsen":801,"Ġmies":802,"me":803,"Ġprog":804,"uli":805,"ka":806,"imus":807,"ro":808,"tÄ¯":809,"ĠpaÅ¾":810,"ono":811,"cial":812,"antis":813,"Ġvir":814,"anti":815,"auti":816,"Ġmat":817,"pa":818,"tem":819,"Ġkurie":820,"vien":821,"az":822,"uoja":823,"Ġasmen":824,"ome":825,"Ġatv":826,"Ġproc":827,"ĠaukÅ¡":828,"iej":829,"uz":830,"Ġorgan":831,"mog":832,"aiÅ¡k":833,"Ġpam":834,"pl":835,"Ġtuo":836,"ĠÄ¯r":837,"eiki":838,"klaus":839,"mok":840,"ĠdaÅ¾":841,"Ġkalb":842,"inÄĻ":843,"ĠtodÄĹl":844,"Ġsak":845,"Ġsusi":846,"âĢľ.":847,"âĢĵ":848,"Ġkok":849,"ez":850,"Ġry":851,"Ġinform":852,"ĠuÅ¾s":853,"Ġvai":854,"Ġreikal":855,"Ġgar":856,"ild":857,"Ġinter":858,"ĠÄ¯vai":859,"liau":860,"Ġmar":861,"ĠÅ¾mog":862,"aÅ¾i":863,"Ġdalyv":864,"Ġ6":865,"iÅ¡":866,"Ġsut":867,"yri":868,"ĠÄ¯st":869,"elis":870,"Ġvilni":871,"kiai":872,"bu":873,"ĠaÅ¡":874,"entr":875,"met":876,"Ġilg":877,"ojek":878,"Ġkol":879,"Ġtam":880,"prend":881,"ymas":882,"liai":883,"cija":884,"Ġapl":885,"inimo":886,"mas":887,"vie":888,"Ġpagr":889,"Ġpoli":890,"ĠnÄĹra":891,"osios":892,"Ġorganiz":893,"Ġsm":894,"ums":895,"ĠÄ¯si":896,"Ġstr":897,"Ġner":898,"Ġmin":899,"jÄħ":900,"Ġpap":901,"Ġji":902,"Ġkam":903,"aim":904,"ÄĹk":905,"Ġnar":906,"Ġpus":907,"ĠÄįia":908,"imu":909,"Ġnors":910,"trauk":911,"tinÄĹs":912,"abar":913,"Ġprojek":914,"Ġniek":915,"istem":916,"alv":917,"Ġnu":918,"Ġpasl":919,"ius":920,"ĠbÅ«d":921,"Ġad":922,"uotoj":923,"ĠrÅ«":924,"Ġis":925,"Âł":926,"Å«l":927,"ac":928,"Ġcentr":929,"Å¾iÅ«r":930,".,":931,"ĠdidÅ¾i":932,"teri":933,"ult":934,"Ġpard":935,"Ġsistem":936,"Å³jÅ³":937,"Ġspe":938,"tov":939,"Ġpasak":940,"ens":941,"Ġdarbo":942,"ĠmedÅ¾i":943,"Ġjog":944,"ans":945,"ĠbÅ«tÅ³":946,"Ġkiekvien":947,"sta":948,"Ġtoki":949,"Ġtau":950,"Ġnaudoj":951,"Ġreikia":952,"ĠraÅ¡":953,"Ġgeri":954,"Ġtap":955,"Ġbi":956,"Ġvadov":957,"Ġatr":958,"per":959,"ĠjÅ«sÅ³":960,"akar":961,"Ġeurop":962,"Ġsti":963,"Ġpati":964,"Ġmoksl":965,"Ġdabar":966,"ic":967,"Ġkuris":968,"ybÄĹ":969,"Ġpran":970,"Å«d":971,"ausia":972,"ĠÄ¯v":973,"Ġvand":974,"ĠkÄħ":975,"rik":976,"Ġpil":977,"Ġgrei":978,"it":979,"Ġvald":980,"Ġprogr":981,"chn":982,"Ġpagrind":983,"ÄĹsi":984,"ele":985,"Ġmokykl":986,"Ġklaus":987,"Ġaug":988,"gu":989,"elio":990,"Ġveikl":991,"ĠkÅ«r":992,"bl":993,"amÄħ":994,"umÄħ":995,"Ġati":996,"ĠÅ¡e":997,"Å¾in":998,"Ġ200":999,"uoÅ¡":1000,"Ġatl":1001,"Ġmes":1002,"ĠmÄĹn":1003,"gr":1004,"Ġam":1005,"Ġgim":1006,"teb":1007,"anÄįiÅ³":1008,"Ġri":1009,"Ġrank":1010,"ĠÅ¾in":1011,"acija":1012,"yta":1013,"Ġreg":1014,"Ġsveik":1015,"Ġmuz":1016,"Ġ8":1017,"ijoje":1018,"eks":1019,"Ġsaug":1020,"po":1021,"man":1022,"Ġso":1023,"Ġtok":1024,"eb":1025,"ÄĹms":1026,"ĠÄ¯g":1027,"Ġsun":1028,"tor":1029,"Ġautomo":1030,"Ġvienas":1031,"ĠiÅ¡l":1032,"kai":1033,"ijÄħ":1034,"Ġbr":1035,"ĠvieÅ¡":1036,"Ġgrup":1037,"Ġsl":1038,"Ġsavi":1039,"oji":1040,"kr":1041,"Ġlietuvoje":1042,"Ġvyr":1043,"uol":1044,"Å¡kai":1045,"eto":1046,"Ġtechn":1047,"umas":1048,"Ġstu":1049,"odo":1050,"vark":1051,"iÅ¡kai":1052,"Ġpab":1053,"imui":1054,"ĠÄ¯vairi":1055,"Ġ7":1056,"Ġform":1057,"Ġaplink":1058,"kur":1059,"Ġpaslaug":1060,"ybÄĻ":1061,"ail":1062,"Ġjuos":1063,"Ġch":1064,"vald":1065,"Ġsprend":1066,"ev":1067,"Ġdirb":1068,"adien":1069,"Ġjaun":1070,"omas":1071,"dar":1072,"Ġstat":1073,"ĠÄ¯mon":1074,"esni":1075,"tau":1076,"do":1077,"ÄĹv":1078,"atori":1079,"Ġkel":1080,"uje":1081,"Ġlaiko":1082,"ikos":1083,"Ġatsak":1084,"eidÅ¾i":1085,"Ġgra":1086,"Ġpor":1087,"Ġz":1088,"iniu":1089,"Ġw":1090,"sn":1091,"Ġprek":1092,"asar":1093,"ÄĹja":1094,"Ġres":1095,"avimas":1096,"onas":1097,"Ġkaun":1098,"lius":1099,"Ġtyr":1100,"Ġim":1101,"ĠÅ¾aid":1102,"Ġprof":1103,"Ġpasaul":1104,"int":1105,"Ġkult":1106,"tek":1107,"ems":1108,"tina":1109,"ĠiÅ¡v":1110,"Ġmano":1111,"ig":1112,"Ġnustat":1113,"paÅ¾":1114,"elb":1115,"Ġkn":1116,"Ġmetais":1117,"ĠjÄ¯":1118,"tum":1119,"ijÅ³":1120,"ÄĹjimo":1121,"Ġket":1122,"âĢĿ":1123,"Ġatlik":1124,"Ġatsi":1125,"sm":1126,"Ġraj":1127,"ima":1128,"Ġvakar":1129,"Ġplan":1130,"Ġpriemon":1131,"ard":1132,"eÅ¡k":1133,"amÅ³":1134,"lt":1135,"nai":1136,"unk":1137,"Ġ10":1138,"ĠÄ¯s":1139,"Ġduomen":1140,"jung":1141,"ist":1142,"Ġdv":1143,"Ġfil":1144,"ektr":1145,"eil":1146,"ingas":1147,"ate":1148,"Ġvisi":1149,"ingai":1150,"aliÅ³":1151,"vil":1152,"Ġnuos":1153,"Ġlyg":1154,"Ġspalv":1155,"Ġkurios":1156,"Ġintern":1157,"eisti":1158,"onal":1159,"Ġdu":1160,"Ġknyg":1161,"Ġsal":1162,"ĠÅ¾moniÅ³":1163,"Ġrez":1164,"Ġtiesi":1165,"Ġjeigu":1166,"Ġkov":1167,"Ġsavivald":1168,"Ġdraug":1169,"tom":1170,"Ġtikrai":1171,"so":1172,"ymÄħ":1173,"ines":1174,"kÄħ":1175,"Ġpras":1176,"ĠpaÅ¡":1177,"ĠÅ¡il":1178,"Ġrek":1179,"tikr":1180,"ili":1181,"tak":1182,"amai":1183,"Ġapsaug":1184,"Ġbl":1185,"Å¾io":1186,"ĠvÄĹ":1187,"uÅ¾":1188,"iu":1189,"Ġtiesiog":1190,"ĠmedÅ¾iag":1191,"Ġties":1192,"pas":1193,"Ġleng":1194,"inÄĹje":1195,"Ġsum":1196,"antys":1197,"Ġmoter":1198,"Ġstud":1199,"Ġjums":1200,"Ġkat":1201,"vo":1202,"tinis":1203,"Ġistori":1204,"ĠkitÅ³":1205,"Ġsudar":1206,"Ġskai":1207,"Ġprod":1208,"Ġlig":1209,"ieti":1210,"Ġelektr":1211,"Ġpapras":1212,"no":1213,"Ġ9":1214,"Ġeuropos":1215,"ausias":1216,"toje":1217,"virtin":1218,"ĠkartÄħ":1219,"Ġen":1220,"ĠkaÅ¾":1221,"ĠdienÄħ":1222,"ird":1223,"Ġsie":1224,"atv":1225,"Ġsek":1226,"inga":1227,"alÅ³":1228,"joje":1229,"ausiÅ³":1230,"va":1231,"Ġantr":1232,"omi":1233,"tinÄĹ":1234,"eda":1235,"Ġtiksl":1236,"aliz":1237,"Ġlais":1238,"Ġna":1239,"ia":1240,"dÅ¾io":1241,"ine":1242,"19":1243,"inas":1244,"Ġpop":1245,"Ġmod":1246,"aliai":1247,"sni":1248,"art":1249,"Ġmen":1250,"Ġfin":1251,"Ġautomobi":1252,"Ġab":1253,"Ġpadar":1254,"na":1255,"esti":1256,"inimas":1257,"orto":1258,"Ġrus":1259,"ato":1260,"Ġversl":1261,"Ġkomand":1262,"Ġank":1263,"Ġvilniaus":1264,"Ġpui":1265,"Ġkartu":1266,"Ġreng":1267,"ytas":1268,"Ġminis":1269,"ublik":1270,"Ġid":1271,"Ġgyd":1272,"Ġkain":1273,"Ġproduk":1274,"Ġkv":1275,"ienÄĹ":1276,"ÄĹjas":1277,"tikos":1278,"Ġned":1279,"Ġ15":1280,"veik":1281,"Ġsur":1282,"Å¡i":1283,"ĠvienÄħ":1284,"Ġtem":1285,"Ġnem":1286,"Ġnen":1287,"tiniÅ³":1288,"Ġkil":1289,"Ġpasirink":1290,"ĠÅ¡is":1291,"aiÅ¡":1292,"inys":1293,"ĠÄį":1294,"str":1295,"Ġpirk":1296,"Ġatvej":1297,"âĢ¦":1298,"ÄĹse":1299,"eÄįi":1300,"Ġ,":1301,"ingi":1302,"Ġind":1303,"zi":1304,"Ġmiesto":1305,"Ġter":1306,"Ġlik":1307,"ÄĹjus":1308,"fek":1309,"Ġx":1310,"ĠÄ¯d":1311,"ĠpaÄįi":1312,"Ġsocial":1313,"Ġmetus":1314,"ĠvalstybÄĹs":1315,"tojÅ³":1316,"Ġkomp":1317,"ininkas":1318,"ĠÅ¾monÄĹs":1319,"Ġmal":1320,"Ġnur":1321,"tyje":1322,"tyn":1323,"lyg":1324,"tog":1325,"evi":1326,"ĠvirÅ¡":1327,"zdÅ¾i":1328,"Ġ18":1329,"Å«ra":1330,"Ġnum":1331,"Ġvalstyb":1332,"Ġmas":1333,"ĠÅ¡Ä¯":1334,"stitu":1335,"Ġdie":1336,"oja":1337,"ÄĹjÅ³":1338,"ovan":1339,"atos":1340,"Ġse":1341,"Ġlauk":1342,"ĠÅ¾od":1343,"umen":1344,"Ġten":1345,"Ġ|":1346,"blem":1347,"ĠÄ¯stat":1348,"Ġkor":1349,"iniais":1350,"yp":1351,"ĠkuriÅ³":1352,"ĠdÅ¾i":1353,"mÄĹs":1354,"bo":1355,"Å¾iÅ³":1356,"Ġtele":1357,"ĠÅ¡eim":1358,"Ġpra":1359,"acijÄħ":1360,"Ġdi":1361,"Ġviena":1362,"cijÄħ":1363,"Ġdvi":1364,"Ġpristat":1365,"uok":1366,"Ġproblem":1367,"tra":1368,"fik":1369,"Ġtad":1370,"ĠuÅ¾d":1371,"Ġpaj":1372,"gal":1373,"ĠdÄĹm":1374,"Ġjam":1375,"auja":1376,"isk":1377,"alo":1378,"Ġod":1379,"Ġuni":1380,"Ġparod":1381,"ĠâĢľ":1382,"Ġpie":1383,"Ġvisuomen":1384,"Ġvasar":1385,"Ġsri":1386,"Ġnel":1387,"ieji":1388,"Ġpriklaus":1389,"cijÅ³":1390,"Ġmais":1391,"Ġpastat":1392,"Ġ12":1393,"Ġmie":1394,"ĠÅ¡ios":1395,"ininkÅ³":1396,"Ġka":1397,"Ġnori":1398,"engi":1399,"eliÅ³":1400,"Ġskait":1401,"Ġresp":1402,"Ġlaim":1403,"Ġnuol":1404,"Ġpapild":1405,"Ġpateik":1406,"uvo":1407,"Ġsvarbi":1408,"yt":1409,"ĠtÄĹv":1410,"Ġkuo":1411,"yriaus":1412,"yba":1413,"ultat":1414,"esÄ¯":1415,"Ġkiti":1416,"one":1417,"raf":1418,"Ġ20":1419,"Ġtvark":1420,"rÄĹ":1421,"liu":1422,"Ġvok":1423,"Ġeksp":1424,"Ġer":1425,"alio":1426,"eÅ¾":1427,"Ġrezultat":1428,"jÄ¯":1429,"eÅ¡im":1430,"kiri":1431,"Ġde":1432,"ĠjÅ«s":1433,"bÅ«":1434,"Ġgalite":1435,"ĠÅ¡iuo":1436,"Ġpavy":1437,"bar":1438,"Ġras":1439,"ĠÅ¡iau":1440,"Ġklas":1441,"ĠneÄ¯":1442,"Ġdok":1443,"inig":1444,"ĠjÄħ":1445,"atÅ«r":1446,"Ġtarn":1447,"ĠmÄĹg":1448,"angi":1449,"pos":1450,"Ġrespublik":1451,"Ġsant":1452,"ot":1453,"Ġspecial":1454,"vel":1455,"Ġfinans":1456,"eta":1457,"asis":1458,"minis":1459,"ĠpasiÅ«l":1460,"Ġgalv":1461,"ĠÅ¡io":1462,"Ġpavad":1463,"ĠÅ¡ven":1464,"adienÄ¯":1465,"ĠvÄĹl":1466,"ĠmaÅ¾i":1467,"Ġpareig":1468,"ma":1469,"Ġpasau":1470,"uÅ¡":1471,"Ġtada":1472,"Ġenerg":1473,"Ġvaizd":1474,"ĠlietuviÅ³":1475,"ĠieÅ¡k":1476,"ĠiÅ¡g":1477,"re":1478,"Ġkri":1479,"Ġdarbuotoj":1480,"Ġlank":1481,"elÄĹs":1482,"Ġpinig":1483,"Ġsavait":1484,"Ġapsk":1485,"Ġsutar":1486,"uotas":1487,"Ġuniver":1488,"ny":1489,"\",":1490,"ĠÄ¯reng":1491,"Ġvykd":1492,"Ġinternet":1493,"ininkai":1494,"imi":1495,"ĠÅ¾emÄĹs":1496,"Ġnurod":1497,"amen":1498,"Ġtrum":1499,"Ġ/":1500,"Ġsul":1501,"Ġkoki":1502,"ĠvisÅ³":1503,"tijos":1504,"avi":1505,"eip":1506,"inos":1507,"anÄįios":1508,"pat":1509,"Ġtaik":1510,"Ġatliek":1511,"usiÅ³":1512,"Ġdalis":1513,"aikÅ¡":1514,"Ġlen":1515,"Ġpats":1516,"Ġgerai":1517,"Ġug":1518,"ĀĀ":1519,"ÄħjÄħ":1520,"torius":1521,"min":1522,"Ġstraip":1523,"uota":1524,"ĠpraneÅ¡":1525,"par":1526,"Å«kst":1527,"atyv":1528,"istr":1529,"ĠvisÄħ":1530,"ĠdaÅ¾ni":1531,"Ġtais":1532,"Ġmir":1533,"ĠÅ¡iÅ³":1534,"Ġtri":1535,"ĠiÅ¡k":1536,"intas":1537,"paÄį":1538,"ĠsÄħlyg":1539,"jek":1540,"Ġcm":1541,"alus":1542,"ĠtÄħ":1543,"Ġrem":1544,"iais":1545,"fer":1546,"ĠvÄĹliau":1547,"tab":1548,"yvend":1549,"Ġeg":1550,"usios":1551,"Ġkonkur":1552,"Ġspeci":1553,"Ġob":1554,"Ġbu":1555,"Ġband":1556,"Ġrad":1557,"tys":1558,"etas":1559,"Ġsukur":1560,"ku":1561,"ras":1562,"Ġmerg":1563,"ybiÅ³":1564,"ĠvaikÅ³":1565,"taik":1566,"tui":1567,"ĠkultÅ«ros":1568,"âĢŀ":1569,"onÅ³":1570,"Ġgyvenimo":1571,"Ġatstov":1572,"Ġvietos":1573,"ygi":1574,"omos":1575,"site":1576,"Ġang":1577,"Ġlap":1578,"Ġfo":1579,"Ġadminis":1580,"le":1581,"onom":1582,"ĠkraÅ¡":1583,"ytÅ³":1584,"Ġsusid":1585,"ĠtÅ«kst":1586,"esnis":1587,"ĠpraÅ¡":1588,"ĠsÄħjung":1589,"elÄ¯":1590,"Ġkauno":1591,"ĠsiÅ«l":1592,"Ġdalyk":1593,"jer":1594,"andien":1595,"ÄĹjimas":1596,"Ġrajono":1597,"irÅ¡":1598,"inta":1599,"ÄĹjai":1600,"ins":1601,"ĠypaÄį":1602,"¿½":1603,"ï¿½":1604,"Ġpasaulio":1605,"Ġlau":1606,"Ġder":1607,"bul":1608,"Ġdokumen":1609,"Ġpasiek":1610,"Ġrei":1611,"ĠdaÅ¾nai":1612,"Ġsteb":1613,"ios":1614,"Ġatsir":1615,"tuose":1616,"Ġvais":1617,"Ġpatir":1618,"Ġtoks":1619,"Ġdain":1620,"alia":1621,"Ġkelion":1622,"Ġleid":1623,"Ġatsis":1624,"go":1625,"kil":1626,"ĠpradÅ¾i":1627,"ano":1628,"Ġinstitu":1629,"Ġvisus":1630,"Ġvandens":1631,"Ġgamin":1632,"Ġtechnolog":1633,"mÄħ":1634,"Ġtek":1635,"atÅ³":1636,"ĠsudÄĹ":1637,"Ġsug":1638,"uoju":1639,"Ġprak":1640,"piu":1641,"ĠsavivaldybÄĹs":1642,"ikl":1643,"Ġrug":1644,"Ġnepri":1645,"ty":1646,"elÄĹ":1647,"rak":1648,"eidÅ¾ia":1649,"Å¾as":1650,"Ġ11":1651,"uliar":1652,"Ġro":1653,"aipÄĹd":1654,"ĠryÅ¡":1655,"ĠkurÄ¯":1656,"Ġ0":1657,"Ġ16":1658,"ymÅ³":1659,"Ä¯Å¾":1660,"Ġtas":1661,"ÄĹjau":1662,"Ġproces":1663,"Ġjav":1664,"ika":1665,"tinai":1666,"yko":1667,"urn":1668,"Ġlaisv":1669,"ena":1670,"ÄĹmÄĹ":1671,"of":1672,"Ġtarptau":1673,"amb":1674,"anas":1675,"ĠuÅ¾sien":1676,"Ġapd":1677,"ĠpanaÅ¡":1678,"pir":1679,"ĠÄ¯staig":1680,"Ġtoliau":1681,"Ġtran":1682,"ne":1683,"Ġlink":1684,"ĠÄ¯sig":1685,"cional":1686,"ĠÅ¡iandien":1687,"umi":1688,"Ġkit":1689,"ieÄįiÅ³":1690,"Ġkonc":1691,"ry":1692,"ĠpavyzdÅ¾i":1693,"ĠkÅ«n":1694,"ĠbaÅ¾":1695,"Ġvertin":1696,"eigi":1697,"kius":1698,"uni":1699,"Ġdirek":1700,"ĠiÅ¡si":1701,"iden":1702,"Ġ199":1703,"Ġprival":1704,"tiÅ¡k":1705,"etÄħ":1706,"oli":1707,"lap":1708,"ĠÅ«":1709,"Ġkap":1710,"Ġaktyv":1711,"esio":1712,"Ġlabiau":1713,"das":1714,"ovÄĹs":1715,"Ġsusij":1716,"Ġpatog":1717,"bos":1718,"Ġprez":1719,"atas":1720,"avimÄħ":1721,"ĠturÄĹtÅ³":1722,"Ġvanden":1723,"ĠteisÄĹs":1724,"ÄĹjusi":1725,"Ġgen":1726,"eris":1727,"tojo":1728,"Ġsim":1729,"ĠuÅ¾tikr":1730,"Ġpatik":1731,"Ġvadin":1732,"Ġem":1733,"Ġnegali":1734,"Ġpriim":1735,"ĠamÅ¾i":1736,"ĠbaÅ¾ny":1737,"Ġet":1738,"ĠÄ¯k":1739,"Ġkomis":1740,"tojai":1741,"lie":1742,"Ġmon":1743,"Ġmokytoj":1744,"ĠÅ¾mogaus":1745,"Äįiu":1746,"ĠÅ¾ini":1747,"uojama":1748,"Ġnusi":1749,"anÄįius":1750,"vaizd":1751,"ĠvarÅ¾":1752,"Å¾iai":1753,"Ġmokes":1754,"ib":1755,"Ġjiems":1756,"Ġviskas":1757,"ĠklaipÄĹd":1758,"Ġ14":1759,"Ġvisada":1760,"ĠbÅ«t":1761,"ĠÅ¾mogus":1762,"Ġrespublikos":1763,"tÄĻ":1764,"Ġteri":1765,"tinÄĻ":1766,"Ġtapo":1767,"Ġaud":1768,"inimÄħ":1769,"vis":1770,"uotuv":1771,"Ġkito":1772,"iniame":1773,"eriÅ³":1774,"bus":1775,"Ġklien":1776,"Ġbank":1777,"Ġsusir":1778,"ĠÄ¯gyvend":1779,"....":1780,"20":1781,"Ġpatvirtin":1782,"cen":1783,"Ġ17":1784,"vid":1785,"Ġtransp":1786,"Ġjuod":1787,"Ġpers":1788,"antÄ¯":1789,"Ġ13":1790,"Ġskl":1791,"Ġklub":1792,"Ġma":1793,"ykite":1794,"ĠÅ¾i":1795,"Ġekonom":1796,"Ġgatv":1797,"ĠvisiÅ¡kai":1798,"Ġkurio":1799,"Ġbir":1800,"Ġdienos":1801,"iausiai":1802,"ieri":1803,"Ġ30":1804,"ied":1805,"alas":1806,"Ġsupr":1807,"est":1808,"ĠaiÅ¡k":1809,"ĠsakÄĹ":1810,"cijas":1811,"Ġanks":1812,"onÄħ":1813,"ĠdÄĹ":1814,"ĠlÄĹ":1815,"Ġspor":1816,"Ġ:":1817,"Ġsod":1818,"Ġsuteik":1819,"Ġspecialis":1820,"Ġ[":1821,"Ġsub":1822,"Ġpok":1823,"Ġbendruomen":1824,"Ġbeveik":1825,"Ġnebuvo":1826,"Ġskirting":1827,"ĠkitÄħ":1828,"Ġpu":1829,"Ġnieko":1830,"Ġkan":1831,"ymus":1832,"Ġsto":1833,"Ġparduotuv":1834,"nas":1835,"Ġkvie":1836,"Ġatveju":1837,"Ġmums":1838,"alb":1839,"Ġsveikatos":1840,"amo":1841,"ĠÅ¡iÄħ":1842,"kÅ³":1843,"tinÄ¯":1844,"Ġnr":1845,"dÅ¾iÅ³":1846,"Ġtrad":1847,"Ġoro":1848,"imais":1849,"Ġinv":1850,"ĠiÅ¡r":1851,"Ġvair":1852,"Ġtelef":1853,"Ġnek":1854,"timi":1855,"enka":1856,"ienos":1857,"Ġtinkl":1858,"ĠÅ¡alies":1859,"damas":1860,"Ġser":1861,"Ġ100":1862,"ĠsÄĹk":1863,"Ġsusitik":1864,"Ġnuolat":1865,"Ġkep":1866,"10":1867,"Ġnug":1868,"ÄĹp":1869,"ims":1870,"Ġvarto":1871,"Ġpasid":1872,"Ġjuo":1873,"Ġveiklos":1874,"Ġnegal":1875,"Ġrod":1876,"Ġmus":1877,"Ġkons":1878,"Ġjud":1879,"vertin":1880,"dami":1881,"Ġsitu":1882,"ĠmiÅ¡k":1883,"ana":1884,"bÅ«t":1885,"rag":1886,"tol":1887,"ĠdeÅ¡im":1888,"Ġperd":1889,"Ġteig":1890,"Ġkaina":1891,"Ġfak":1892,"enkl":1893,"Ġnuotrauk":1894,"Ġpos":1895,"sich":1896,"ĠlaikÄħ":1897,"Ġbar":1898,"Ġnak":1899,"Ġkitos":1900,"Ġitin":1901,"Ġteigi":1902,"ĠpirmÄħ":1903,"Ġsako":1904,"Ġfunk":1905,"ĠneiÅ¡":1906,"ukas":1907,"ytis":1908,"ĠÅ¡eÅ¡":1909,"201":1910,"Ġveiksm":1911,"Ġapsaugos":1912,"Ġplo":1913,"tink":1914,"Ġplauk":1915,"Ġarch":1916,"Ġneat":1917,"ĠnamÅ³":1918,"eiti":1919,"Ġvaland":1920,"intis":1921,"ĠiÅ¡d":1922,"aukÅ¡":1923,"ĠkodÄĹl":1924,"angos":1925,"Ġpram":1926,"imis":1927,"rÄĹs":1928,"ĠÅ¾iÅ«r":1929,"ystÄĹs":1930,"Ġkontr":1931,"Ġteritori":1932,"fi":1933,"Ġbaig":1934,"ww":1935,"iausia":1936,"alai":1937,"Ġtol":1938,"tinio":1939,"ĠÅ¡vies":1940,".)":1941,"ĠÄ¯raÅ¡":1942,"Ġnacional":1943,"pri":1944,"Ġpali":1945,"davo":1946,"Ġpuikiai":1947,"ÄĹme":1948,"bil":1949,"tika":1950,"Äħs":1951,"Ġypat":1952,"ĠmaÅ¾iau":1953,"iniams":1954,"Ġprofes":1955,"Ġpasirod":1956,"Ġgi":1957,"amp":1958,"Ġtaigi":1959,"ukai":1960,"ado":1961,"kiu":1962,"Å«ri":1963,"tn":1964,"ĠÅ¡vent":1965,"entÅ³":1966,"Ġdraud":1967,"Ġatrodo":1968,"he":1969,"ingos":1970,"Ġverslo":1971,"Ġpatal":1972,"ÄĹjimÄħ":1973,"Ġpabaig":1974,"Ġkambar":1975,"Ġvisas":1976,"adar":1977,"Ġpsich":1978,"Ġprasid":1979,"Ġjuk":1980,"Ġvisai":1981,"ĠÄ¯sp":1982,"Ġregi":1983,"mÅ³":1984,"Ġnemok":1985,"ingÄħ":1986,"Å«z":1987,"engti":1988,"atai":1989,"Ġstipr":1990,"Ġsieki":1991,"inÅ³":1992,"Ġnuk":1993,"Ġpatar":1994,"Å¡kia":1995,"Ġoper":1996,"dv":1997,"Å«p":1998,"Ġefek":1999,"und":2000,"__":2001,"Ġministeri":2002,"Ġpral":2003,"ĠuÅ¾si":2004,"Ġviso":2005,"ond":2006,"Ġ25":2007,"Ġtuomet":2008,"rig":2009,"ausiÄħ":2010,"Ġag":2011,"ybes":2012,"Ġkartais":2013,"ĠvietÄħ":2014,"rÅ³":2015,"Ġvisa":2016,"Ġvisos":2017,"esnÄĹ":2018,"ausio":2019,"Ġpre":2020,"Ġobjek":2021,"Ġvos":2022,"nauj":2023,"ĠÅ¾enkl":2024,"Ġdur":2025,"Ġber":2026,"ĠprieÅ¾as":2027,"dien":2028,"Ġpasaulyje":2029,"aiv":2030,"ber":2031,"omend":2032,"mos":2033,"Ġsau":2034,"ĠduomenÅ³":2035,"Ġblog":2036,"ĠsumaÅ¾":2037,"Ġkompiu":2038,"Ġpel":2039,"uosius":2040,"Ġmeil":2041,"Ġjaus":2042,"Ġpopuliar":2043,"vok":2044,"anÄįio":2045,"Ġâ":2046,"Ġlygi":2047,"Ġinformacijos":2048,"ĠdaÅ¾niausiai":2049,"ten":2050,"Å¡Äįi":2051,"ĠtokiÅ³":2052,"Ġ.":2053,"ĠÄ¯vertin":2054,"Ġmaisto":2055,"ĠÂ":2056,"ĠpavyzdÅ¾iui":2057,"Ġeil":2058,"Ġtel":2059,"Ġdyd":2060,"Ġkuriame":2061,"ĠturÄĹjo":2062,"--":2063,"Ġlt":2064,"eiÅ¡k":2065,"ĠsuÅ¾":2066,"alis":2067,"ĠnatÅ«r":2068,"Ġsez":2069,"Ġskiri":2070,"ÄĹr":2071,"Ġsaul":2072,"edi":2073,"ros":2074,"kar":2075,"empi":2076,"ĠdÅ¾iaug":2077,"Ġegz":2078,"Ġfiz":2079,"Ġtrump":2080,"Ġjung":2081,"eliai":2082,"alios":2083,"mÄĹ":2084,"Ġtu":2085,"ck":2086,"res":2087,"acijÅ³":2088,"uko":2089,"ĠtreÄįi":2090,"ÄĹte":2091,"Ġav":2092,"Ġugd":2093,"Ġmokyklos":2094,"Ġmalon":2095,"ata":2096,"ilie":2097,"ĠbirÅ¾":2098,"Ġlang":2099,"ijo":2100,"skai":2101,"Ġme":2102,"Ġministr":2103,"Ġkalba":2104,"Ġsveta":2105,"Ġkos":2106,"Ġadministra":2107,"auskas":2108,"Ġpalaik":2109,"Ġtokia":2110,"ĠkuriÄħ":2111,"rod":2112,"lietuv":2113,"Ġkadangi":2114,"tiÅ¡kai":2115,"Ġkuriuos":2116,"ijas":2117,"Ġveid":2118,"Ġdek":2119,"inai":2120,"Ġpreziden":2121,"ĠbÅ«s":2122,"iniuose":2123,"mat":2124,"Ġ2018":2125,"000":2126,"yven":2127,"Ġand":2128,"Ġkrep":2129,"ord":2130,"anga":2131,"tomis":2132,"Ġnaudo":2133,"\".":2134,"tÄĹje":2135,"Ġnetur":2136,"Ġsta":2137,"Ġerdv":2138,"ĠbÅ«tent":2139,"Äįios":2140,"Ġdet":2141,"Ġpla":2142,"Ġame":2143,"Ġgro":2144,"tiniai":2145,"ĠÄįempi":2146,"ĠplÄĹ":2147,"Ġkitas":2148,"Ġjas":2149,"Ġpov":2150,"ovÄĹ":2151,"kios":2152,"Ġatei":2153,"Ġvyriaus":2154,"Ġplat":2155,"ytos":2156,"Ġvietoje":2157,"ĠÅ¡im":2158,"Ġrud":2159,"Ġkita":2160,"Ġrung":2161,"Ġstov":2162,"Å«nas":2163,"Ġvaikams":2164,"ÄĻsti":2165,"Ġpaskelb":2166,"ĠkrepÅ¡":2167,"Ġpamat":2168,"Ġlyd":2169,"Ġtren":2170,"Ġbent":2171,"ÄĹta":2172,"Ġkurioje":2173,"Ġsanty":2174,"uma":2175,"tiz":2176,"pj":2177,"Ġrekomend":2178,"Ġsistema":2179,"Ġvilniuje":2180,"ĠÐ":2181,"ĠÅ¡ird":2182,"18":2183,"Ġatskir":2184,"ĠÅ¾inoma":2185,"Ġpi":2186,"ĠaikÅ¡":2187,"ymu":2188,"Ġdovan":2189,"ĠÅ¾ym":2190,"ĠÄ¯vairiÅ³":2191,"Ġvisiems":2192,"Ġit":2193,"Ġnumat":2194,"Å¾vel":2195,"Ġlenki":2196,"Ġdy":2197,"ga":2198,"Ġmeto":2199,"30":2200,"bol":2201,"12":2202,"Ġlaikotar":2203,"ingÅ³":2204,"inkite":2205,"Ġmil":2206,"lÅ³":2207,"Ġteat":2208,"ii":2209,"Ġml":2210,"etai":2211,"Ġrom":2212,"Ġpenk":2213,"Ġgydytoj":2214,"ymai":2215,"uosi":2216,"Ġkm":2217,"ĠgrÄ¯Å¾":2218,"Ġbals":2219,"Ġreikalav":2220,"Ġsistemos":2221,"Ġvidur":2222,"kri":2223,"Ġcentro":2224,"Ġsiek":2225,"ĠÅ¾ino":2226,"uojamas":2227,"ĠbÅ«du":2228,"Ġgreitai":2229,"Ġvard":2230,"Ġvaikai":2231,"inant":2232,"ĠÄ¯monÄĹs":2233,"Ġapskri":2234,"Ġpaskir":2235,"Ġvys":2236,"Ġsvarbu":2237,"Ġsukn":2238,"okÅ¡":2239,"erio":2240,"Ġkrauj":2241,"Ġgauti":2242,"Ġdan":2243,"agr":2244,"ÄĹliÅ³":2245,"ĠÄ¯dom":2246,"Ġpet":2247,"kos":2248,"ĠÅ¡eimos":2249,"Ġgeriau":2250,"ĠpripaÅ¾":2251,"ĠtaÅ¡k":2252,"las":2253,"ÄĹlÄĹ":2254,"toriaus":2255,"ĠvaldÅ¾i":2256,"ĠdarbÄħ":2257,"ĠpradÄĹjo":2258,"atÄħ":2259,"ĠpaslaugÅ³":2260,"Ġpasik":2261,"ĠapraÅ¡":2262,"ĠjÄĹg":2263,"ĠÅ¡ie":2264,"Å¾ym":2265,"Ġneturi":2266,"ieÅ¡":2267,"cÅ«z":2268,"tÅ«r":2269,"Ġkalbos":2270,"Ġelektron":2271,"Ġmuzikos":2272,"Ġved":2273,"Ġvaid":2274,"ĠautomobiliÅ³":2275,"Å«nÅ³":2276,"Ġpatys":2277,"ĠviskÄħ":2278,"Ġmi":2279,"ĠgalÄĹtÅ³":2280,"Ġketvir":2281,"ĠvaÅ¾i":2282,"ĠreikÅ¡":2283,"ininko":2284,"utÄĹs":2285,"Ġkompl":2286,"Ġ...":2287,"ĠâĢĶ":2288,"ĠamÅ¾iaus":2289,"eÄįiÅ³":2290,"Ġasmens":2291,"Ġmieste":2292,"Ġtie":2293,"ingo":2294,"ati":2295,"timas":2296,"Ġamerik":2297,"Å¡ki":2298,"ĠkeliÅ³":2299,"ĠsÄħraÅ¡":2300,"ĠgrupÄĹs":2301,"tinink":2302,"ojimo":2303,"muo":2304,"Ġdem":2305,"Ġram":2306,"inar":2307,"Äįiaus":2308,"Ġtal":2309,"Ġpastar":2310,"naz":2311,"Ġvokieti":2312,"Ġpadid":2313,"50":2314,"Ġjus":2315,"cm":2316,"Ġnaudoti":2317,"auki":2318,"Ġmokslo":2319,"Ġpagam":2320,"ĠparaÅ¡":2321,"ĠiÅ¡mok":2322,"Ġnepriklaus":2323,"Ġnuomon":2324,"Ġsporto":2325,"Ġvy":2326,"ikal":2327,"ÄĹjÄĻs":2328,"Ġun":2329,"ausios":2330,"Ġdeg":2331,"Å«rÄĹ":2332,"ĠÄ¯vyk":2333,"Ġbri":2334,"aup":2335,"Ġperk":2336,"Ġaptar":2337,"ĠprieÅ¾i":2338,"ĠÅ¾ais":2339,"intÅ³":2340,"aidos":2341,"ton":2342,"Ġspaud":2343,"Ġskat":2344,"inÄĹti":2345,"Ġkoncer":2346,"Ġtinka":2347,"Ġkiekvienas":2348,"ĠanksÄįiau":2349,"Ġ#":2350,"Ġsave":2351,"Ġbib":2352,"Ġnorm":2353,"ĠeurÅ³":2354,"ĠÅ¾urn":2355,"Ġkuni":2356,"Ġ194":2357,"uÄįiÅ³":2358,"Ġbendradar":2359,"ĠprancÅ«z":2360,"Ġatlikti":2361,"ĠsÄħjungos":2362,"tri":2363,"Ġnamuose":2364,"Ġprojekto":2365,"antas":2366,"ĠpaÅ¾ym":2367,"ytÄĹ":2368,"Ġseimo":2369,"ĠgyventojÅ³":2370,"Ġkada":2371,"Ġdom":2372,"erv":2373,"ijai":2374,"ĠrÅ«p":2375,"snio":2376,"ĠÅ¡aliÅ³":2377,"Ġvieno":2378,"Ġkolek":2379,"Ġrim":2380,"ite":2381,"Ġbyl":2382,"irb":2383,"umu":2384,"Ġprim":2385,"Ġatvyk":2386,"Ġci":2387,"Ġup":2388,"uojant":2389,"Å¾ius":2390,"anda":2391,"Ġkasdien":2392,"umos":2393,"Ġprisim":2394,"Ġprogram":2395,"Ġlenk":2396,"anÄįiÄħ":2397,"Ġatvir":2398,"Ġtiks":2399,"Ġpasteb":2400,"ĠpadÄĹti":2401,"ovas":2402,"ĠuÅ¾sienio":2403,"ĠbÅ«na":2404,"Ġprofesi":2405,"Ġteik":2406,"ĠuÅ¾sak":2407,"tuo":2408,"tograf":2409,"ĠÅ¾al":2410,"Ġrusijos":2411,"struk":2412,"Ġuk":2413,"ukus":2414,"sit":2415,"daug":2416,"ĠÄ¯tak":2417,"Ġlin":2418,"onai":2419,"Ġkokyb":2420,"Ġnepr":2421,"gn":2422,"Ġsand":2423,"isi":2424,"lai":2425,"eviÄįius":2426,"esnÄĹs":2427,"ĠÅ¾iem":2428,"lÄĹ":2429,".âĢľ":2430,"Ġtransporto":2431,"Ġ50":2432,"Ġuab":2433,"ĠÄ¯t":2434,"Ġapg":2435,"Ġ2017":2436,"Ġkei":2437,"la":2438,"kti":2439,"Ġbendradarbi":2440,"Ġmane":2441,"ÄħÅ¾":2442,"Ġprin":2443,"asti":2444,"Ġlaip":2445,"Ġilgis":2446,"Ġdiz":2447,"Ġskyri":2448,"ĠsÄĹkm":2449,"Ġkreip":2450,"Ġkovo":2451,"ho":2452,"ĠÅ«kio":2453,"Ġspalvos":2454,"Ġtvar":2455,"15":2456,"Ġlietuva":2457,"Ġtobul":2458,"sÄĹjo":2459,"tinka":2460,"Ġaus":2461,"eiv":2462,"ĠbÅ«kl":2463,"ĠgraÅ¾":2464,"Ġinformacija":2465,"Ġparduod":2466,"ĠgyvenimÄħ":2467,"Ġtvir":2468,"niÅ³":2469,"tadienÄ¯":2470,"Ĥ¬":2471,"ob":2472,"ĠkrÅ«":2473,"ĠvisuomenÄĹs":2474,"ĠinformacijÄħ":2475,"oniÅ³":2476,"anÅ³":2477,"Ġvilk":2478,"yno":2479,"Ġjai":2480,"ĠdarÅ¾":2481,"Ġraud":2482,"Ġeksper":2483,"dÄĹ":2484,"Ġseni":2485,"omÅ³":2486,"âĢĻ":2487,"avos":2488,"Ġregistr":2489,"kiÅ¡k":2490,"ĠpareiÅ¡k":2491,"ÄĹtis":2492,"Ġelg":2493,"ybÅ³":2494,"ĠkÅ«ryb":2495,"Ġrasti":2496,"Ġkie":2497,"Ġdaik":2498,"Ġvieta":2499,"ĀĀĀĀ":2500,"Ġpadaryti":2501,"Ġefektyv":2502,"Ġdel":2503,"Å¡iÅ³":2504,"yse":2505,"Ġbes":2506,"Ġvyksta":2507,"nos":2508,"pus":2509,"Ġkompan":2510,"ĠiÅ¡skir":2511,"Ġtarybos":2512,"ĠkokybÄĹs":2513,"Ġmuziej":2514,"viejÅ³":2515,"olÄĹs":2516,"vaig":2517,"aisiais":2518,"ÄĹsite":2519,"tume":2520,"Ġmik":2521,"ĠlÄĹÅ¡":2522,"ĠÅ¡ak":2523,"ĠnaujÄħ":2524,"liz":2525,"Ġskr":2526,"ĠÅ¡iek":2527,"Ġgeg":2528,"ĠgraÅ¾i":2529,"Ġkitus":2530,"Ġpriklauso":2531,"ĠÅ¾v":2532,"tinÄĹje":2533,"iniam":2534,"omai":2535,"Ġlaikas":2536,"Ġol":2537,"tojas":2538,"Ġnuv":2539,"ĠmÄĹnesÄ¯":2540,"Ġaplinkos":2541,"viz":2542,"uotÅ³":2543,"Ġbat":2544,"Ġsiun":2545,"Ġmuzik":2546,"Ġdiev":2547,"bal":2548,"Ġgin":2549,"ĠdienÅ³":2550,"ĠpaaiÅ¡k":2551,"Ġveikia":2552,"se":2553,"Ġlabiausiai":2554,"ĠÅ¡vie":2555,"da":2556,"Ġpasis":2557,"Ġkaro":2558,"Ġgav":2559,"Ġkunig":2560,"tiko":2561,"Ġ24":2562,"Ġgars":2563,"amus":2564,"raus":2565,"Ġskelb":2566,"Ġtaisykl":2567,"inamas":2568,"ĠnemaÅ¾":2569,"Ġvi":2570,"inama":2571,"Ġtris":2572,"ĠkaÅ¾k":2573,"Ä¯st":2574,"Ġvyri":2575,"ĠneÅ¡":2576,"Ġpartn":2577,"Ġ2016":2578,"Ġbiblio":2579,"ograf":2580,"ĠÅ«k":2581,"Ġpriek":2582,"ĠkultÅ«r":2583,"Ġkoj":2584,"ĠklaipÄĹdos":2585,"oro":2586,"Ġtokiu":2587,"ĠÄįempion":2588,"Ġini":2589,"Ġdaryti":2590,"Ġpasku":2591,"Ġnesu":2592,"ĠÅ¡alia":2593,"11":2594,"ovie":2595,"ers":2596,"Ġglo":2597,"antiems":2598,"Ġvyko":2599,"ĠuÅ¾p":2600,"tams":2601,"Ġnepas":2602,"ĠdÄĹmesÄ¯":2603,"Ġdisk":2604,"Ġstraipsn":2605,"Ġtampa":2606,"iui":2607,"inÄĹj":2608,"encijos":2609,"gio":2610,"Ġpanaud":2611,"ĠreiÅ¡kia":2612,"ĠdviejÅ³":2613,"lÄĹs":2614,"Ġautomobil":2615,"Ġdis":2616,"inÄħ":2617,"esniÅ³":2618,"Ġpadeda":2619,"Ġtokie":2620,"ĠgalimybÄĻ":2621,"Ġkaim":2622,"dÅ¾iai":2623,"usius":2624,"Ġnetr":2625,"Ġuniversit":2626,"Ġatrod":2627,"Å«nai":2628,"toriÅ³":2629,"etÅ³":2630,"Ġvartoj":2631,"lamen":2632,"ĠdarbÅ³":2633,"ĠtrÅ«k":2634,"pÅ³":2635,"ĠgeguÅ¾":2636,"arg":2637,"tinas":2638,"ĠÅ¾uv":2639,"Ġtos":2640,"timo":2641,"ulk":2642,"Ġatk":2643,"Ġkitaip":2644,"uotos":2645,"Ġpardav":2646,"inÄĹmis":2647,"ĠÄ¯pras":2648,"Ġkod":2649,"Ġatitink":2650,"usio":2651,"Ġstik":2652,"co":2653,"Ġgimnaz":2654,"Ġteiki":2655,"ĠreÅ¾":2656,"Ġdalyvavo":2657,"Ġlapkri":2658,"Ġlengv":2659,"Ġdail":2660,"urg":2661,"Ġtv":2662,"Ġmak":2663,"Ġstipri":2664,"Ġdirbti":2665,"telÄĹ":2666,"Ġpakank":2667,"Ġsup":2668,"Ġpen":2669,"ĠpinigÅ³":2670,"Ġpv":2671,"ĠkraÅ¡to":2672,"Ġdra":2673,"ĠdeÅ¡imt":2674,"Ġdydis":2675,"Ġprekybos":2676,"Ġkelias":2677,"Ġkab":2678,"Ġpuik":2679,"ĠkÅ«no":2680,"ingumo":2681,"inÄĹse":2682,"Ġtemper":2683,"egori":2684,"Ġvalg":2685,"ĠleidÅ¾ia":2686,"Ð°":2687,"Ġfesti":2688,"Ġindi":2689,"Ġrungtyn":2690,"tumÄĹte":2691,"Ġsudaro":2692,"Ġuos":2693,"Ġvairuotoj":2694,"ako":2695,"Ġop":2696,"ĠkiekvienÄħ":2697,"Ġpaskol":2698,"Ġge":2699,"ieÄįiai":2700,"Ġgana":2701,"Ġpavoj":2702,"ĠveiklÄħ":2703,"pal":2704,"ĠnebÅ«":2705,"Ð¾":2706,"ĠjokiÅ³":2707,"Ġfotograf":2708,"Ġtokios":2709,"ĠiÅ¡b":2710,"Ġesu":2711,"Ġsr":2712,"Ġapib":2713,"Ġkartus":2714,"giau":2715,"andÅ¾io":2716,"ĠrugsÄĹjo":2717,"ietimo":2718,"ĠdalÄ¯":2719,"Ġlengvai":2720,"Ġteks":2721,"Ġmer":2722,"Ġsunku":2723,"mÄĻ":2724,"oci":2725,"Ġkt":2726,"Ġapdovan":2727,"Ġpalaid":2728,"Ġlaid":2729,"Ġnaujas":2730,"Ġcentras":2731,"Ġfr":2732,"ytÄħ":2733,"Ġtiesa":2734,"Ġ22":2735,"aliu":2736,"ĠÅ¡ok":2737,"enos":2738,"Ġrekl":2739,"onu":2740,"ĠÅ¡vietimo":2741,"Ġkop":2742,"Ġindivid":2743,"evÄĹ":2744,"kiau":2745,"ce":2746,"Ġkrik":2747,"Ġmedic":2748,"ĠâĢ¢":2749,"ĠlietuviÅ¡k":2750,"fo":2751,"atorius":2752,"Ġsurink":2753,"ausk":2754,"nio":2755,"Ġskyriaus":2756,"mai":2757,"Ġmetod":2758,"ĠÄįi":2759,"ieno":2760,"Ġnedid":2761,"Ġdiena":2762,"inam":2763,"Ġpaprastai":2764,"ĠÅ¾yd":2765,"telÄĹs":2766,"Ġdang":2767,"ĠpriemoniÅ³":2768,"umÅ³":2769,"Ġadres":2770,"cien":2771,"Ġodos":2772,"Ġgab":2773,"ĠgalbÅ«t":2774,"ĠÅ¡ioje":2775,"ĠÅ¡iame":2776,"ĠnaujÅ³":2777,"Ġtokio":2778,"Ġmeno":2779,"Ġmyl":2780,"Ġ198":2781,"Ġspalio":2782,"rÄĹÅ¾":2783,"Ġgalime":2784,"esnÄ¯":2785,"70":2786,"Ġkonkr":2787,"ĠprekiÅ³":2788,"Ġpolitik":2789,"Ġbald":2790,"ĠaukÅ¡Äįi":2791,"Ġspr":2792,"ĠneÅ¾in":2793,"rus":2794,"sas":2795,"Ġmili":2796,"ÄĹdami":2797,"Äįiais":2798,"Ġgau":2799,"Ġsien":2800,"ĠÄ¯statymo":2801,"Ġlem":2802,"Ġrib":2803,"Ġpozi":2804,"Ġsos":2805,"ĠtÄĹ":2806,"valg":2807,"Ġkredi":2808,"vaigÅ¾":2809,"ĠiÅ¡laik":2810,"Å¡ti":2811,"Ġturime":2812,"siai":2813,"Ġgaus":2814,"Ġgaun":2815,"Ġleis":2816,"Ġteleviz":2817,"imti":2818,"Ġ40":2819,"dav":2820,"okai":2821,"inus":2822,"Ġkoks":2823,"ĠiÅ¡n":2824,"ps":2825,"uojami":2826,"Ġgri":2827,"Ġenergijos":2828,"Ġvaldymo":2829,"14":2830,"Ġketuri":2831,"ĠprieÅ¾iÅ«ros":2832,"mes":2833,"Ġligon":2834,"Ġliter":2835,"ukÅ³":2836,"ĠturÄĹti":2837,"Ġkategori":2838,"Ġprem":2839,"ĠÅ¡iuol":2840,"ru":2841,"nÄĹ":2842,"Ġdep":2843,"kv":2844,"eliu":2845,"stÄħ":2846,"Ġfor":2847,"ĠÄ¯vy":2848,"ĠsavaitÄĻ":2849,"alius":2850,"Ġprogramos":2851,"ologijos":2852,"ĠbÅ«tina":2853,"ÄĹtas":2854,"Ġpuslap":2855,"Ġdrabu":2856,"ĠÅ¾monÄĹms":2857,"Ġmel":2858,"Ġelem":2859,"Ġabej":2860,"skait":2861,"Ġatnauj":2862,"Ġprid":2863,".).":2864,"kus":2865,"inami":2866,"com":2867,"ĠtÅ³":2868,"di":2869,"ados":2870,"omÄħ":2871,"Ġpaslaugas":2872,"Ġsaus":2873,"Ġnamo":2874,"su":2875,");":2876,"Ġmoteris":2877,"yla":2878,"Ġred":2879,"ĠpaÅ¡al":2880,"Ġmln":2881,"Ġfut":2882,"audÅ¾i":2883,"Å¾iÅ«rÄĹti":2884,"ĠgeguÅ¾ÄĹs":2885,"Ġstand":2886,"Ġdarbus":2887,"Ġsupras":2888,"ausius":2889,"ÄĹjos":2890,"jai":2891,"ĠskaiÄįius":2892,"Ġniekas":2893,"Ġkaz":2894,"Ġtak":2895,"ĠlapkriÄįio":2896,"Ġgrie":2897,"Ġpaveik":2898,"Ġprinci":2899,"auÅ¡":2900,"ĠruoÅ¡":2901,"atÅ«ros":2902,"ĠĊ":2903,"Ġdarbas":2904,"Å¾em":2905,"oks":2906,"ĠsÄĹd":2907,"Ġpai":2908,"16":2909,"ks":2910,"ĠÅ¡o":2911,"manoma":2912,"liaus":2913,"liais":2914,"lis":2915,"itek":2916,"ĠlietuvÄħ":2917,"Ġakmen":2918,"ovo":2919,"Ġvert":2920,"Ġmag":2921,"lietuvos":2922,"Ġremon":2923,"Ġvienin":2924,"elius":2925,"ĠmaÅ¡":2926,"ĠpaÅ¾eid":2927,"Ġriz":2928,"Ġmanau":2929,"Ġniekada":2930,"Ġ23":2931,"Ġkomandos":2932,"omo":2933,"cion":2934,"Ġskaus":2935,"ĠbirÅ¾elio":2936,"Ġviz":2937,"Ġben":2938,"Ġgl":2939,"Ġtruk":2940,"Ġtradi":2941,"ĠskaiÄįi":2942,"Ġsausio":2943,"Ġkonfer":2944,"uotis":2945,"Ġkryp":2946,"Ġnepat":2947,"rio":2948,"Ġmor":2949,"ynas":2950,"cijoje":2951,"nÅ³":2952,"Ġur":2953,"Ġinterneto":2954,"elti":2955,"ĠÅ¡iaurÄĹs":2956,"ymui":2957,"ĠÅ¾inias":2958,"be":2959,"Ġsusirink":2960,"Ġkeis":2961,"ĠreikÄĹtÅ³":2962,"ĠkarÅ¡":2963,"Å¾er":2964,"ĠsusipaÅ¾":2965,"erijos":2966,"pu":2967,"Ġrie":2968,"Ġsukurti":2969,"Ġnereik":2970,"Ġsovie":2971,"pro":2972,"ÄĹlÄĹs":2973,"ĠÅ¡iol":2974,"ach":2975,"iÅ¡kio":2976,"Ġpavasar":2977,"Ġmai":2978,"siteto":2979,"Ġsil":2980,"dyti":2981,"ÄĹlis":2982,"Ġmoder":2983,"Ġvaiko":2984,"aras":2985,"ĠmedÅ¾iagÅ³":2986,"Ġ*":2987,"Ġsuteikia":2988,"Ġrag":2989,"Ġtikslas":2990,"Ġvadovas":2991,"Ġarchitek":2992,"ona":2993,"Ġartim":2994,"200":2995,"Ġsulauk":2996,"Ġscen":2997,"Ġatidar":2998,"nis":2999,"tumo":3000,"Ðµ":3001,"ve":3002,"ĠparuoÅ¡":3003,"esnio":3004,"ĠÅ¾vaigÅ¾":3005,"Ġuniversiteto":3006,"Ġsve":3007,"Ġpacien":3008,"Ġ+":3009,"Ġistorijos":3010,"intos":3011,"Ġveikla":3012,"Ġkitais":3013,"Ġgyn":3014,"inei":3015,"aitÄĹ":3016,"Ġkomanda":3017,"Ġfutbol":3018,"Ġ21":3019,"ĠatsiÅ¾vel":3020,"entai":3021,"Ġkainos":3022,"Ġpateiki":3023,"ÄįiÅ«":3024,"ĠteisÄĻ":3025,"Ġpritaik":3026,"Ġteigia":3027,"ĠÄ¯sik":3028,"ĠÅ¡tai":3029,"Ġpaslaugos":3030,"Ġva":3031,"Ġdalies":3032,"Ġneap":3033,"Ġreguli":3034,"Ġvienos":3035,"ĠgrupÄĹ":3036,"ĠbÄĹg":3037,"ĠmedÅ¾iagos":3038,"Ġsem":3039,"avÄĻs":3040,"mi":3041,"Ġvel":3042,"Ġapsi":3043,"Ġpatikr":3044,"uodÅ¾io":3045,"ĠpaieÅ¡k":3046,"Ġkli":3047,"anÄįias":3048,"Ġpakei":3049,"Ġkoleg":3050,"Ġkaimo":3051,"Ġasoci":3052,"Ġgener":3053,"ĠdÄĹmesio":3054,"Ġslap":3055,"Ġ2015":3056,"Ġkomun":3057,"elÄĻ":3058,"Ġkelis":3059,"gim":3060,"Ġpamok":3061,"Ġnusikal":3062,"Ġkin":3063,"Ġliepos":3064,"ĠsudÄĹting":3065,"ĠÅ¡ild":3066,"Ġvisuo":3067,"ĠÅ¾ali":3068,"Ġpagalbos":3069,"ÄĹjome":3070,"Ġskirti":3071,"tojams":3072,"alÄħ":3073,"iemet":3074,"Ġseks":3075,"ukÅ¡":3076,"Ġnorint":3077,"Ġmetai":3078,"Ġnutar":3079,"elyje":3080,"Ġgyventi":3081,"Ġskirtas":3082,"Ġpilie":3083,"Ġnuostat":3084,"anta":3085,"Ġindividu":3086,"ĠeÅ¾er":3087,"Ġproced":3088,"Ġvytau":3089,"nyr":3090,"Ġle":3091,"iÅ¡kas":3092,"teis":3093,"Ġpateikti":3094,"Ġkelio":3095,"Ġkompiuteri":3096,"Ġetap":3097,"Ġkarto":3098,"Ġvidaus":3099,"Ġistorija":3100,"Ġkaune":3101,"ãĤ":3102,"Ġnev":3103,"ĠpanevÄĹ":3104,"inka":3105,"rai":3106,"erius":3107,"Ġkurias":3108,"eina":3109,"sim":3110,"Ġnetik":3111,"ĠuÅ¾dar":3112,"Ġbaz":3113,"ĠsiÅ«":3114,"ĠÂ»":3115,"Ġed":3116,"Ġlaiku":3117,"Ġpatr":3118,"ybÄħ":3119,"Ġide":3120,"Ġnusprend":3121,"ĠkeletÄħ":3122,"Ġirgi":3123,"pjÅ«":3124,"aro":3125,"mus":3126,"Ġpik":3127,"udÅ¾":3128,"17":3129,"ĠÄ¯spÅ«d":3130,"Ġlatv":3131,"Ġbas":3132,"ĠtokÄ¯":3133,"artamen":3134,"ieka":3135,"ĠiÅ¡or":3136,"Ġof":3137,"Ġpramon":3138,"sis":3139,"ven":3140,"ĠmiÅ¡":3141,"Ġelektros":3142,"Ġalb":3143,"Ġpuiki":3144,"Ġtvarka":3145,"ete":3146,"ĠpradÅ¾ioje":3147,"onis":3148,"Ġvilnius":3149,"Ġkokia":3150,"ĠpasiraÅ¡":3151,"ĠâĤ¬":3152,"Ġkari":3153,"Ġreli":3154,"Ġlo":3155,"Ġpunk":3156,"Ġapskai":3157,"Ġklaid":3158,"Ġeis":3159,"siu":3160,"ĠÄ¯rod":3161,"otas":3162,"Ġinici":3163,"ojimas":3164,"ÄĹjÄĻ":3165,"ĠÄ¯sigyti":3166,"niai":3167,"ĠveÅ¾":3168,"sias":3169,"ĠlÄĹk":3170,"oriÅ³":3171,"Ġtavo":3172,"Ġnauja":3173,"utÄĹ":3174,"Ġmilij":3175,"Ġgink":3176,"ÄĹlio":3177,"Ġbibliotek":3178,"Ġ2014":3179,"ininkÄĹ":3180,"Ġtarsi":3181,"Ġsiekiant":3182,"eido":3183,"ĠgruodÅ¾io":3184,"Ġnereikia":3185,"Ġthe":3186,"ĠjÅ«r":3187,"Ġformos":3188,"th":3189,"Ġvirtuv":3190,"Ġsvarb":3191,"sto":3192,"Ġdauguma":3193,"Ġled":3194,"ĠbalandÅ¾io":3195,"uojame":3196,"aigi":3197,"Ġvasario":3198,"baig":3199,"Ġla":3200,"Ġint":3201,"Åª":3202,"ĠÅ¡iemet":3203,"traukti":3204,"13":3205,"Ġvienu":3206,"Ġdidelis":3207,"Ġpager":3208,"kÅ¡":3209,"25":3210,"Ġgarb":3211,"adem":3212,"Ġdalyvauti":3213,"ĠbiudÅ¾":3214,"Ġker":3215,"ĠdarbuotojÅ³":3216,"eriai":3217,"ĠprekÄĹs":3218,"Ġkonf":3219,"Ġher":3220,"Ġteismo":3221,"ĠnariÅ³":3222,"pareig":3223,"ĠvieÅ¡bu":3224,"dama":3225,"Ð¸":3226,"ĠmaÅ¾ai":3227,"ĠpriemonÄĹs":3228,"ĠÄ¯sitik":3229,"stat":3230,"olis":3231,"ÄħjÄ¯":3232,"Ġnetgi":3233,"Ġukra":3234,"Ġvilkav":3235,"ĠÅ¾mones":3236,"Ġturnyr":3237,"Ġdo":3238,"amojo":3239,"Ġpavel":3240,"tan":3241,"spek":3242,"Ġiz":3243,"Ġilgai":3244,"Ġskirta":3245,"alu":3246,"eivi":3247,"ĠÄ¯moniÅ³":3248,"ĠdÄĹs":3249,"Ġveiki":3250,"Ġministerijos":3251,"uog":3252,"racijos":3253,"Ġpatek":3254,"Äįiui":3255,"âĢĺ":3256,"Ġ26":3257,"br":3258,"Ġpolicijos":3259,"ï¿½ï¿½":3260,"Ġrodo":3261,"Ġugdymo":3262,"alÄĹ":3263,"Ġemo":3264,"tadien":3265,"Ġskaityti":3266,"Ġdarbai":3267,"ĠgalÄĹjo":3268,"Ġatsid":3269,"Ġdvar":3270,"ĠproduktÅ³":3271,"Ġcentre":3272,"Ġdaugelis":3273,"dÄĹl":3274,"teliÅ³":3275,"ĠÅ¡iuolaik":3276,"ĠÄ¯vair":3277,"ijung":3278,"Ġstruk":3279,"aitÄĹs":3280,"Äħst":3281,"ĠÅ¡un":3282,"ateg":3283,"Ġjame":3284,"Ġ28":3285,"Ġanaliz":3286,"Ġteko":3287,"Ġduo":3288,"inu":3289,"Ġkomplek":3290,"ĠpradÄĹti":3291,"ort":3292,"Ġvaizdo":3293,"chan":3294,"tines":3295,"ausiu":3296,"alog":3297,"aukia":3298,"rat":3299,"Ġpsicholog":3300,"Ġprisid":3301,"Ġstab":3302,"Ġankst":3303,"Å¡kas":3304,"bas":3305,"Ġspar":3306,"yrÄĹ":3307,"ĠuÅ¾k":3308,"Ġatlyg":3309,"Ġduk":3310,"tes":3311,"ĠasmenÅ³":3312,"Ġduomenis":3313,"Ġsutik":3314,"Ġsrityje":3315,"jo":3316,"Ġ,,":3317,"Ġapr":3318,"ÄĹkite":3319,"Ġkino":3320,"eleÅ¾":3321,"Ġprat":3322,"Ġlaikotarp":3323,"ĠrugpjÅ«":3324,"cijai":3325,"ĠmoterÅ³":3326,"Ġatsakom":3327,"ojoje":3328,"Ġdievo":3329,"tine":3330,"Ġbel":3331,"elbi":3332,"Ġstraipsnio":3333,"Ġistor":3334,"Ġapyl":3335,"Ġsugr":3336,"Ġatkr":3337,"anki":3338,"neÅ¡":3339,"eno":3340,"Ġrengi":3341,"ÄĹlyn":3342,"ĠdÄĹÅ¾":3343,"ari":3344,"Ġped":3345,"Ġvari":3346,"ale":3347,"ara":3348,"usÄ¯":3349,"entas":3350,"abai":3351,"Ġgyvena":3352,"tt":3353,"ĠlaiÅ¡k":3354,"asite":3355,"enÅ³":3356,"Å¾ia":3357,"inÄįiÅ³":3358,"ungi":3359,"Ġjon":3360,"Ġatsisak":3361,"ĠÅ¡ilumos":3362,"Ġtradic":3363,"imir":3364,"Ġsep":3365,"tÅ«ros":3366,"Ġdirba":3367,"Ġinvesti":3368,"Ġrankov":3369,"Ġaplank":3370,"ĠiÅ¡band":3371,"tv":3372,"ly":3373,"telis":3374,"Ġkir":3375,"Ġakadem":3376,"Ġgel":3377,"ĠteigÄĹ":3378,"Ġpoil":3379,"Ġesame":3380,"nus":3381,"Ġjaunimo":3382,"Ġekr":3383,"lÄħ":3384,"aliÄħ":3385,"jas":3386,"Ġatskl":3387,"ieg":3388,"ĠapÅ¡":3389,"tumas":3390,"Å¡ka":3391,"Ġvyks":3392,"Ġbaltijos":3393,"eo":3394,"ienÄĹs":3395,"Ġgera":3396,"Ġdrus":3397,"rÄħ":3398,"Ġpasiekti":3399,"60":3400,"Äįiams":3401,"Ġves":3402,"Ġstrateg":3403,"Ġkuriuo":3404,"Ġtapti":3405,"Ġalko":3406,"Ġnorite":3407,"akal":3408,"inaud":3409,"kup":3410,"22":3411,"ĠgÄĹr":3412,"gÅ¡":3413,"giai":3414,"nes":3415,"Ġbur":3416,"tur":3417,"ĠdydÅ¾io":3418,"Ġporeiki":3419,"Ġnarys":3420,"ĠÅ¾ing":3421,"ÄĹnÅ³":3422,"Ġtrauk":3423,"Ġdepartamen":3424,"eja":3425,"ote":3426,"Ġlr":3427,"Ġprograma":3428,"net":3429,"Ġaliej":3430,"Ġknygos":3431,"Ġstatybos":3432,"istÅ³":3433,"Ġtrenir":3434,"Ġrelig":3435,"timÄħ":3436,"ynÄĹs":3437,"Ġ27":3438,".),":3439,"Ġpakankamai":3440,"Ġ:)":3441,"Ġgamtos":3442,"Ġsuaug":3443,"Ġdizain":3444,"Ġofi":3445,"40":3446,"Ġorig":3447,"kal":3448,"Ġpoky":3449,"ĠaiÅ¡":3450,"ĠiÅ¡lik":3451,"Ġtikri":3452,"ĠmaÅ¾daug":3453,"ybe":3454,"Ġpakeisti":3455,"rib":3456,"avau":3457,"Ġturto":3458,"ijus":3459,"Ġinternetu":3460,"Ġpj":3461,"Ġ197":3462,"Ġsvaj":3463,"Ġcuk":3464,"nÄĹs":3465,"Ġpasitik":3466,"ĠdÄĹlto":3467,"Ġvit":3468,"ĠsaulÄĹs":3469,"Ġkand":3470,"Ġplas":3471,"ĠkalÄĹd":3472,"tam":3473,"ĠÅ¡iais":3474,"ĠÅ¡vel":3475,"tame":3476,"Ġskol":3477,"ĠnemaÅ¾ai":3478,"Ġnaujos":3479,"zmo":3480,"ytojÅ³":3481,"Ġdienomis":3482,"ĠsÅ«n":3483,"Ġspalva":3484,"ĠgeleÅ¾":3485,"Å«no":3486,"pÄħ":3487,"orius":3488,"sime":3489,"Ġda":3490,"Ġrenk":3491,"enti":3492,"entar":3493,"Ġprisi":3494,"Ġautomobilio":3495,"Ġsusitar":3496,"for":3497,"____":3498,"ĠmedÅ¾iaga":3499,"Å¾o":3500,"Ġimp":3501,"Ġprofesional":3502,"ĠsiÅ«lo":3503,"Ġdalyje":3504,"agog":3505,"Ġorigin":3506,"ĠpajÄĹg":3507,"ĠtiesÅ³":3508,"Ġliud":3509,"Ġnariai":3510,"Ġkomisijos":3511,"aros":3512,"ydamas":3513,"eji":3514,"Ġgyvenimas":3515,"insk":3516,"Ġkaral":3517,"ĠneuÅ¾":3518,"ĠdÄĹv":3519,"Ġsusis":3520,"Ġnup":3521,"Ġkariuomen":3522,"ĠvietÅ³":3523,"Ġaki":3524,"elia":3525,"menÅ³":3526,"iejÅ³":3527,"ojau":3528,"Ġsusik":3529,"noz":3530,"Ġrak":3531,"Ġangli":3532,"Ġspaus":3533,"ĠÅ¡alyje":3534,"liui":3535,"Ġkvap":3536,"Ġatos":3537,"Ġpirmasis":3538,"lar":3539,"Ġgird":3540,"Ġgyvenime":3541,"ĠleidÅ¾i":3542,"Ġtrys":3543,"Ġ60":3544,"rijos":3545,"ĠiÅ¡pl":3546,"Ġvyras":3547,"ĠsistemÄħ":3548,"Ġpabaigoje":3549,"umus":3550,"Ġparti":3551,"atÅ«ra":3552,"ĠÅ¡iauliÅ³":3553,"Ġvadovauj":3554,"Ġvers":3555,"Ġlenkijos":3556,"Ġiniciatyv":3557,"Ġkitiems":3558,"ĠsÄħskai":3559,"Ġsiau":3560,"ĠproblemÅ³":3561,"Ġnamus":3562,"Ġtermin":3563,"Ġskamb":3564,"nÄħ":3565,"alifik":3566,"iams":3567,"Ġnegu":3568,"cep":3569,"Ġpagalba":3570,"ĠvyriausybÄĹs":3571,"pan":3572,"din":3573,"ĠkÅ«d":3574,"ĠkvieÄįi":3575,"tinius":3576,"nuo":3577,"pag":3578,"egz":3579,"Ġbro":3580,"Ġpasakyti":3581,"Ġsaugumo":3582,"inkÅ¡":3583,"Ġsluok":3584,"Ġaktu":3585,"Ġprar":3586,"Ġatsp":3587,"Ġesant":3588,"ĠbendruomenÄĹs":3589,"Ġatostog":3590,"jau":3591,"Ġai":3592,"ĠvakarÅ³":3593,"umai":3594,"Ġkav":3595,"Ġtrup":3596,"Ġlaiv":3597,"ulis":3598,"ĠgalÄĹs":3599,"ĠjauÄįi":3600,"Ġkonferen":3601,"ĠmÄĹnesi":3602,"Ġlog":3603,"Ġduomenys":3604,"ĠpaÄįiu":3605,"Ġsn":3606,"Ġfon":3607,"Ġged":3608,"ĠgalimybÄĹ":3609,"Ġmm":3610,"ĠplokÅ¡":3611,"Ġvaikus":3612,"Ġpalyg":3613,"ĠÄ¯sak":3614,"Ġpatiek":3615,"ĠÅ¡iuos":3616,"pres":3617,"Ġdefek":3618,"Ġstandar":3619,"Ġvaikas":3620,"Ġnepak":3621,"iÅ¡ka":3622,"Å¡al":3623,"Ġgamybos":3624,"Ġpirmiausia":3625,"Ġprojektas":3626,"Ġtuos":3627,"Ġpopie":3628,"sniÅ³":3629,"Ġmechan":3630,"Ġdienas":3631,"Å¡kiÅ³":3632,"Ġadministr":3633,"Ġwww":3634,"Ġtrak":3635,"Ġkurs":3636,"ĠbendrovÄĹs":3637,"imams":3638,"Ġmieg":3639,"ydami":3640,"Ġdvas":3641,"ĠtyrimÅ³":3642,"Ġpasirinkti":3643,"ĠrÄĹm":3644,"egistr":3645,"Ġtre":3646,"Ġpast":3647,"ĠkelionÄĹs":3648,"Ġstog":3649,"Ġpaklaus":3650,"Ġnustatyta":3651,"tino":3652,"ytojas":3653,"ikÄħ":3654,"Ġparlamen":3655,"Ġses":3656,"Ġkuria":3657,"ĠpadÄĹs":3658,"Ġpergal":3659,"ip":3660,"tuoti":3661,"ÑĤ":3662,"onio":3663,"uojamos":3664,"snis":3665,"Ġ>":3666,"ĠteisiÅ³":3667,"amet":3668,"ĠiÅ¡Å¡":3669,"Ġturite":3670,"tuvas":3671,"Ġkul":3672,"Ġprab":3673,"Äįiausiai":3674,"Ġnustatyti":3675,"Ġsutrik":3676,"ĠrugpjÅ«Äįio":3677,"atoriÅ³":3678,"Ġgyventojai":3679,"usiÄħ":3680,"pozi":3681,"nek":3682,"Ġ29":3683,"ke":3684,"tion":3685,"anto":3686,"ĠplÄĹtr":3687,"Ġok":3688,"tovai":3689,"Ġsam":3690,"ĠbÅ«das":3691,"ĠmÄĹnes":3692,"Ġsuprasti":3693,"ĠrÅ«Å¡":3694,"Ġtarnybos":3695,"ĠpaukÅ¡":3696,"onus":3697,"kaip":3698,"Ġbiur":3699,"aiÄįiÅ³":3700,"Ġjap":3701,"Ġbul":3702,"Ġnaujo":3703,"Ġrajone":3704,"tro":3705,"ÄĹjams":3706,"ĠjÅ«ros":3707,"Ġpaslap":3708,"ĠgreiÄįiau":3709,"Ġpakr":3710,"Ġchem":3711,"ĠkartÅ³":3712,"ĠrytÅ³":3713,"ĠklasÄĹs":3714,"ĠstudijÅ³":3715,"Ġnebus":3716,"onstr":3717,"ukÄħ":3718,"Ġii":3719,"ĠiÅ¡p":3720,"ÄĹda":3721,"........":3722,"eur":3723,"Ġsvarbiausia":3724,"omet":3725,"ĠminÄĹ":3726,"ec":3727,"uria":3728,"Ġklausimas":3729,"Ġinvest":3730,"ĠÅ¡l":3731,"vad":3732,"Ġapylink":3733,"24":3734,"Ġku":3735,"Ġtipo":3736,"Ġbrand":3737,"avimui":3738,"ĠreikalÅ³":3739,"Ġapsil":3740,"Ġvalsti":3741,"Ġpareng":3742,"Ġapmok":3743,"Ġkarjer":3744,"utÄ¯":3745,"Ġ2013":3746,"ĠaiÅ¡ku":3747,"Ġkrem":3748,"Ġmokykloje":3749,"Ġgir":3750,"Ġmaitin":3751,"ÄĹjÄħ":3752,"Ġkandid":3753,"Ġnepriklausom":3754,"Ġpartijos":3755,"uotÄħ":3756,"Ġon":3757,"ĠuÅ¾tikrinti":3758,"Ġskelbi":3759,"Ġstar":3760,"truk":3761,"ĠprojektÄħ":3762,"Ġtrans":3763,"Ġpriver":3764,"esnÄĻ":3765,"ĠmÄĹlyn":3766,"ĠÅ¾ai":3767,"ĠpasaulÄ¯":3768,"Ġatstovai":3769,"ĠmaiÅ¡":3770,"Ġinf":3771,"Ġmiestas":3772,"iki":3773,"ĠiÅ¡vyk":3774,"Ġpirma":3775,"ani":3776,"Ġpvz":3777,"Ġkonstruk":3778,"bÄħ":3779,"inyje":3780,"//":3781,"Ġbendra":3782,"Ġautobus":3783,"atoriai":3784,"Ġpriimti":3785,"Ġinteres":3786,"ĠÄ¯var":3787,"Ġegzist":3788,"Ġkuriems":3789,"Ġkry":3790,"ĠbaÅ¾nyÄįios":3791,"Ġatg":3792,"Ġ195":3793,"vies":3794,"ĠÅ¾ied":3795,"yrus":3796,"Ġpramog":3797,"urs":3798,"Ġkurti":3799,"Ġbilie":3800,"imuose":3801,"Ġnuotaik":3802,"antÅ³":3803,"Ġadministrac":3804,"ĠmÄĹs":3805,"Ġkompiuter":3806,"ÄĹÄįiau":3807,"Ġkuriose":3808,"ĠkrikÅ¡Äįi":3809,"gti":3810,"ĠiÅ¡m":3811,"Ġ196":3812,"Ġsprendimas":3813,"tinos":3814,"Ġremi":3815,"Ġspek":3816,"ĠiÅ¡laid":3817,"ĠsprendimÄħ":3818,"ĠiÅ¡sk":3819,"Ġ2012":3820,"Ġspeciali":3821,"ĠdeÅ¡":3822,"Ġjur":3823,"aliau":3824,"raz":3825,"Ġpasinaud":3826,"ykÅ¡":3827,"amÅ³jÅ³":3828,"acijas":3829,"Ġvasaros":3830,"Ġgeb":3831,"esys":3832,"Ġvidut":3833,"Ġkamer":3834,"ĠpasiÅ¾ym":3835,"Ġaf":3836,"Ġtautos":3837,"Ġmatyti":3838,"eten":3839,"toti":3840,"Ġatm":3841,"Ġisp":3842,"ÄĹdamas":3843,"mar":3844,"Ġvokietijos":3845,"Ġsavan":3846,"Ġ193":3847,"Ġprivalo":3848,"Ġkup":3849,"ĠmokesÄįiÅ³":3850,"Ġkvalifik":3851,"Ġpaveiksl":3852,"ĠpietÅ³":3853,"angÅ³":3854,"Ġmotyv":3855,"Ġpartiz":3856,"ane":3857,"Ġpraei":3858,"Ġgalvos":3859,"ybai":3860,"Ġlengvi":3861,"Ġinte":3862,"Ġalg":3863,"Ġkg":3864,"ĠpaÄįios":3865,"ÑĢ":3866,"Ġnepa":3867,"Ð½":3868,"tolog":3869,"ĠsuknelÄĹs":3870,"Ġvieni":3871,"dÅ¾ius":3872,"ĠÄ¯kur":3873,"tacijos":3874,"Ġchar":3875,"Ġkonstitu":3876,"Ġasmuo":3877,"ĠtechnologijÅ³":3878,"Ġkolektyv":3879,"Ġpasig":3880,"Ġnepav":3881,"âĢĿ,":3882,"Ġdraudimo":3883,"Ġtvirtin":3884,"ĠneÅ¾":3885,"ĠtrijÅ³":3886,"ĠÄ¯monÄĹ":3887,"ĠÄ¯Å¾":3888,"ininkams":3889,"Ġeuropoje":3890,"Ġnagr":3891,"imin":3892,"Ġklausimus":3893,"ystÄĹ":3894,"Ġliko":3895,"los":3896,"Ġpriv":3897,"ĠiÅ¡saug":3898,"bin":3899,"kaitÄĹ":3900,"Ġdvasi":3901,"Ġspind":3902,"ĠlaisvÄĹs":3903,"23":3904,"**":3905,"Ġatid":3906,"Ġkaimyn":3907,"Ġtil":3908,"Ġsuvok":3909,"liams":3910,"Ġpalik":3911,"ajame":3912,"Ġsiekia":3913,"Ġpraded":3914,"olo":3915,"Ġrasite":3916,"Ġpedagog":3917,"Ġmokykla":3918,"Ġdaugi":3919,"kart":3920,"ĠseniÅ«n":3921,"ĠgrieÅ¾":3922,"Ġatas":3923,"Ġgerokai":3924,"Ġgeras":3925,"ĠsvetainÄĹje":3926,"auÅ¾":3927,"ĠtokiÄħ":3928,"Ġsunk":3929,"Ġdeja":3930,"ĠpusÄĻ":3931,"avus":3932,"Ġunik":3933,"amÄĹs":3934,"af":3935,"ĠprogramÄħ":3936,"Ġkasmet":3937,"oris":3938,"Ġtema":3939,"uoÅ¾":3940,"ĠkalbÄĹjo":3941,"Ġknyga":3942,"Ġpatrauk":3943,"tvark":3944,"Ġatvejais":3945,"Ñģ":3946,"Ġlov":3947,"Ġpagalv":3948,"Ġmokymo":3949,"prieÅ¡":3950,"ÄĹz":3951,"osof":3952,"ĠÄ¯sikÅ«r":3953,"eikti":3954,"ĠgalÄĹsite":3955,"intys":3956,"Ġanti":3957,"Ġlaukia":3958,"Ġskry":3959,"Ġanot":3960,"Ġseminar":3961,"iklis":3962,"tÅ³jÅ³":3963,"Ġrinktis":3964,"----":3965,"Ġdirektorius":3966,"Ġkak":3967,"Ġneteis":3968,"mu":3969,"toriai":3970,"Ġaz":3971,"ĠkaÅ¾ko":3972,"sak":3973,"Ġpaskut":3974,"Ġdaro":3975,"Ġleg":3976,"ymosi":3977,"oko":3978,"Ġtenka":3979,"ykliÅ³":3980,"ĠmÄĹgst":3981,"tingi":3982,"Ġpopuliari":3983,"Ġfoto":3984,"Ġnepam":3985,"Ġdiskus":3986,"ento":3987,"Ġkokios":3988,"Ġvestuv":3989,"Ġpagrindinis":3990,"ĠsocialinÄĹs":3991,"oras":3992,"Ġstovykl":3993,"Ġgrind":3994,"Å¾iÅ«ri":3995,"Ġagent":3996,"lus":3997,"ÄĹliai":3998,"Ġapsis":3999,"Ġprisijung":4000,"de":4001,"ĠÅ¾iniÅ³":4002,"Ġital":4003,"ave":4004,"ytÄĹs":4005,"Ġgalimybes":4006,"Ġjuoz":4007,"ĠkeliÄħ":4008,"ĠmokiniÅ³":4009,"Ġport":4010,"pti":4011,"Ġmokiniai":4012,"Ġkrov":4013,"qu":4014,"Ġparamos":4015,"zÄĹs":4016,"ĠdrÄĹg":4017,"Ġnaujien":4018,"Ġdvira":4019,"Ġinformac":4020,"alÄĹs":4021,"inimui":4022,"ĠiÅ¡man":4023,"ĠÅ¡eima":4024,"Ġsuo":4025,"ĠturÄĹs":4026,"Ġasmenys":4027,"eniai":4028,"Ġmis":4029,"Ġspektak":4030,"uoda":4031,"eles":4032,"ĠpuoÅ¡":4033,"ĠiÅ¡sil":4034,"tabi":4035,"Ġth":4036,"eÅ¡imt":4037,"Ġco":4038,"iesiems":4039,"umui":4040,"Ġ%":4041,"âĢĿ.":4042,"jus":4043,"ytus":4044,"ĠaukÅ¡tos":4045,"Ġrau":4046,"Ġartimi":4047,"Å¾ud":4048,"ĠÅ¡alis":4049,"Ġtir":4050,"Ġlauko":4051,"toja":4052,"Ġpaskui":4053,"Ġtari":4054,"://":4055,"ex":4056,"ĠÄ¯ranga":4057,"Ġproblema":4058,"Ġsugeb":4059,"ĠÄ¯tar":4060,"Ġataskai":4061,"ĠpriÄĹm":4062,"anÄįiais":4063,"styti":4064,"Ġpradeda":4065,"Ġstengi":4066,"Ġakimir":4067,"ĠkainÄħ":4068,"ĠÅ¾urnalis":4069,"inÄĹms":4070,"anai":4071,"Ġmedicinos":4072,"Ġlaikais":4073,"Ġteatro":4074,"iesi":4075,"anÄįiu":4076,"taip":4077,"Ġapsilank":4078,"Ġmarij":4079,"Ġdav":4080,"Å¾iu":4081,"alaus":4082,"Ġ2011":4083,"ĠÅ¡alyse":4084,"onos":4085,"Ġsuteiki":4086,"Ġdemok":4087,"ĠÅ¡ved":4088,"ĠdÄĹk":4089,"Ġrinkos":4090,"ĠraÅ¡o":4091,"Ġakis":4092,"ĠminkÅ¡":4093,"Ġlai":4094,"ĠpasiruoÅ¡":4095,"auto":4096,"ĠvasarÄħ":4097,"Ġdaugiausia":4098,"ĠÅ¡irdies":4099,"Ġgeros":4100,"Ġpriva":4101,"ĠreÅ¾is":4102,"uotÄĹs":4103,"ÄįiÄħ":4104,"kijos":4105,"Ġmikro":4106,"ingus":4107,"Ġpur":4108,"Ġbo":4109,"nor":4110,"ts":4111,"eliui":4112,"ĠÄ¯vyko":4113,"arÅ³":4114,"ĠpaÄįiÅ³":4115,"ĠpusÄĹs":4116,"Ġtarpu":4117,"ĠdidelÄĹ":4118,"ĠlÄĹÅ¡Å³":4119,"80":4120,"ĠpirÅ¡":4121,"Ġpirmininkas":4122,"ĠsÄħlygas":4123,"Ġpaties":4124,"ĠmeilÄĹs":4125,"ensyv":4126,"ĠuÅ¾m":4127,"ĠistorijÄħ":4128,"Ġpadal":4129,"ĠieÅ¡koti":4130,"ogr":4131,"giant":4132,"Ġkuriuose":4133,"Ġredak":4134,"Ġsilp":4135,"ĠvaldÅ¾ios":4136,"Ġgavo":4137,"Ġteismas":4138,"Ġstai":4139,"ĠÅ¾iniaskl":4140,"Ġtokius":4141,"ĠkeiÄįi":4142,"ual":4143,"Ġpoveik":4144,"Ġtyrimo":4145,"Ġnul":4146,"ragÄĹs":4147,"ĀĀĀĀĀĀĀĀ":4148,"ĠpavirÅ¡":4149,"Ġmit":4150,"adas":4151,"ytojai":4152,"ĠbÅ«klÄĹs":4153,"Ġbaigi":4154,"Ġatspar":4155,"Ġjoje":4156,"eiviÅ³":4157,"jei":4158,"Ġ2010":4159,"Ġnaudojant":4160,"Ġfutbolo":4161,"Ġbak":4162,"ĠlitÅ³":4163,"amu":4164,"Ġja":4165,"Ġstudij":4166,"Ġliaud":4167,"ĠprojektÅ³":4168,"avimu":4169,"Ġorganizacijos":4170,"ĠsÄħmon":4171,"timÅ³":4172,"Ġminim":4173,"ĠpalaidinÄĹs":4174,"ĠgalimybÄĹs":4175,"Ġrestor":4176,"kitÄĹs":4177,"ãĤ¢":4178,"ÄĹlÄ¯":4179,"iname":4180,"oviÅ³":4181,"ĠtÄĹvai":4182,"eistas":4183,"meÄįio":4184,"usias":4185,"tyti":4186,"Ġverta":4187,"Ġpol":4188,"ĠminuÄįiÅ³":4189,"ĠknygÅ³":4190,"enc":4191,"Ġinternete":4192,"ejÅ³":4193,"Ġfilosof":4194,"Ġreikalavimus":4195,"ĠdokumentÅ³":4196,"Ġlak":4197,"Ġpasirinkimas":4198,"utÄĻ":4199,"Ġ000":4200,"ĠkiauÅ¡":4201,"Ġpoilsi":4202,"iÅ¡ki":4203,"ĠsÄĹkmingai":4204,"ĠpraÄĹjus":4205,"ĠÅ¾mogui":4206,"Ġsumok":4207,"Ġligos":4208,"enas":4209,"tojus":4210,"Ġturiu":4211,"ĠvokieÄįiÅ³":4212,"imok":4213,"Ġsvarbus":4214,"ĠvilkaviÅ¡kio":4215,"utes":4216,"Å¡kos":4217,"Ġrieb":4218,"ĠnuoÅ¡":4219,"Ġatkreip":4220,"Ġmeis":4221,"Ġgil":4222,"Ġmoterys":4223,"Ġapim":4224,"Ġveis":4225,"Ġpuikus":4226,"ĠrÅ«gÅ¡":4227,"ĠlaikraÅ¡":4228,"26":4229,"ĠprasidÄĹjo":4230,"Ġkraujo":4231,"inkti":4232,"Ġpatenk":4233,"atu":4234,"Å«g":4235,"Ġvon":4236,"usiems":4237,"ĠmÄħst":4238,"ons":4239,"Ġruden":4240,"noj":4241,"Ġnaudojamas":4242,"ĠatÅ¡":4243,"Ġste":4244,"ĠÄ¯staigos":4245,"Ġdalyviai":4246,"Ġdev":4247,"tic":4248,"Ġneigi":4249,"imosi":4250,"ierius":4251,"ikas":4252,"Ġkontak":4253,"Ġofici":4254,"ĠjÄĹz":4255,"Ġpaaug":4256,"Ġpens":4257,"okur":4258,"Ġnepais":4259,"Ġpinigus":4260,"Ġkomentar":4261,"Ġsekm":4262,"ĠplaukÅ³":4263,"ĠdalykÅ³":4264,"Ġprietais":4265,"Ġkiekvieno":4266,"yboje":4267,"kad":4268,"Ġstalo":4269,"Ġsign":4270,"giu":4271,"ĠÅ¾iÅ«rov":4272,"kit":4273,"Ġsan":4274,"\",\"":4275,"Ġpamatyti":4276,"Ġpriemones":4277,"ĠpasirodÄĹ":4278,"Ġpolitikos":4279,"ãĤ¢ãĤ¢":4280,"amasis":4281,"inÄĻs":4282,"Ġnegalima":4283,"Ġtarpus":4284,"ĠkrepÅ¡inio":4285,"aitis":4286,"ĠgrÄħÅ¾":4287,"ĠsuÅ¾ino":4288,"ĠvalstybiÅ³":4289,"Ġkris":4290,"ĠtÄĹvÅ³":4291,"Ġnuosav":4292,"ĠskirtingÅ³":4293,"tikÄħ":4294,"Ġpavir":4295,"ĠÅ¡var":4296,"Ġeismo":4297,"Äįioje":4298,"Ġmont":4299,"inimu":4300,"ĠÄ¯sipareig":4301,"Ġturin":4302,"Ġduomenimis":4303,"ÄĹkl":4304,"ĠturbÅ«t":4305,"Ġlygio":4306,"Ġpasidal":4307,"Ġbud":4308,"uoliÅ³":4309,"ĠspalvÅ³":4310,"ĠkaÅ¾kÄħ":4311,"Ġintensyv":4312,"uojasi":4313,"Ġpasie":4314,"Ġsienos":4315,"ĠvyrÅ³":4316,"Å¡kÄħ":4317,"ĠÅ¾vaigÅ¾d":4318,"iÅ¡kÄħ":4319,"Ġbrang":4320,"ĠpradÅ¾iÅ³":4321,"sÄħ":4322,"ĠaukÅ¡t":4323,"Ġprov":4324,"Ġtinkamai":4325,"Ġvietas":4326,"ĠiÅ¡tek":4327,"torÄĹ":4328,"Ġvarik":4329,"ĠkaÅ¾kas":4330,"Ġbaud":4331,"ĠpanevÄĹÅ¾io":4332,"avimai":4333,"iniui":4334,"veÅ¾":4335,"Ġ80":4336,"Ġklasik":4337,"Ġamerikos":4338,"21":4339,"Ġarb":4340,"ph":4341,"Ġnukr":4342,"Ġdol":4343,"tukas":4344,"ĠpapuoÅ¡":4345,"ĠmedÅ¾io":4346,"Ð¾Ð":4347,"Ġdirbo":4348,"land":4349,"iÅ³sti":4350,"aida":4351,"ybÄĹje":4352,"Ġsuprant":4353,"Ġvik":4354,"ĠpatÄ¯":4355,"Ġkonsul":4356,"Ġolim":4357,"28":4358,"Ġnaudotis":4359,"alinis":4360,"toms":4361,"ĠnebÅ«tÅ³":4362,"eliais":4363,"Ġdeklar":4364,"ĠÄ¯gyvendinti":4365,"ĠnaktÄ¯":4366,"Ġmad":4367,"Ġneto":4368,"Ġgaliu":4369,"eipi":4370,"yps":4371,"ojimÅ³":4372,"Ġfilm":4373,"Ġpageid":4374,"Ġklubo":4375,"Ġbui":4376,"med":4377,"Ġkokie":4378,"Ġ2009":4379,"Ġforma":4380,"Ġvisuomet":4381,"ĠmarÅ¡":4382,"ĠkokÄ¯":4383,"Ġnesi":4384,"Ġpried":4385,"Ġseri":4386,"Ġkarali":4387,"27":4388,"ĠmarÅ¡k":4389,"eder":4390,"pirk":4391,"ĠlÄĹktuv":4392,"Ġoptim":4393,"pek":4394,"Ġviduje":4395,"Ġproga":4396,"avÄĻ":4397,"Ġrecep":4398,"Ġbuvau":4399,"Ġprav":4400,"ĠÄ¯kv":4401,"ĠiÅ¡gyven":4402,"ĠiÅ¡aug":4403,"ĠrusÅ³":4404,"Ġsuv":4405,"Ġnamai":4406,"Ġstri":4407,"Ġmirties":4408,"Ġkyla":4409,"dos":4410,"Ġberni":4411,"Ġkeisti":4412,"Ġsureng":4413,"tyse":4414,"Ġnauji":4415,"Ġreiki":4416,"Ġabi":4417,"Ġpasikei":4418,"tei":4419,"ĠvertÄĹ":4420,"ĠkiÅ¡":4421,"ysite":4422,"ybei":4423,"Ġdarbuotojai":4424,"Ġpanaik":4425,"âĢ¦]":4426,"ĠÅ¡ventÄĹs":4427,"aviÄįius":4428,"Ġtarpusav":4429,"ĠteisÄĹ":4430,"Ġ35":4431,"Ġneseniai":4432,"Ġserg":4433,"bur":4434,"Ġnuostabi":4435,"Ġeki":4436,"Ġfestival":4437,"Ġatsiranda":4438,"anÄħ":4439,"Ġ(âĢŀ":4440,"Ä¯s":4441,"ĠmokslÅ³":4442,"Ġren":4443,"ĠpieÅ¡":4444,"endr":4445,"Ġesate":4446,"enÄħ":4447,"Ġpatinka":4448,"Ġatsirado":4449,"Ġpig":4450,"Ġmarijamp":4451,"ĠiÅ¡kil":4452,"ef":4453,"Ġpasakojo":4454,"ĠdaÅ¾niau":4455,"Ġkreiptis":4456,"ĠinÅ¾in":4457,"tok":4458,"Ġklini":4459,"ÄĹjui":4460,"Ġbanko":4461,"olÄĹ":4462,"Ġlietuvai":4463,"Ġjuoda":4464,"ĠiÅ¡sir":4465,"29":4466,"Ġpritar":4467,"ĠkalbÄĹti":4468,"Ġskys":4469,"Å¡kio":4470,"Ġsubjek":4471,"Ġhtt":4472,"abej":4473,"ĠsÄħn":4474,"Ġkomisija":4475,"ĠvarÅ¾yb":4476,"ota":4477,"ĠsutartÄ¯":4478,"els":4479,"Ġregion":4480,"odami":4481,"Ġvidu":4482,"Ġpatalp":4483,"Ġmama":4484,"ĠÄ¯staigÅ³":4485,"==":4486,"ĠrankÅ³":4487,"Ġra":4488,"ĠkunigaikÅ¡":4489,"ge":4490,"ĠgerÄħ":4491,"ĠatÅ¾":4492,"Ġbeje":4493,"Ġxx":4494,"Ġakc":4495,"ulp":4496,"ĠrinkimÅ³":4497,"ĠligÅ³":4498,"amosios":4499,"Ġfestiv":4500,"lam":4501,"ynÄĹ":4502,"car":4503,"tingas":4504,"ĠmokyklÅ³":4505,"Å¾iais":4506,"uoÄįiÅ³":4507,"Ġpamink":4508,"eti":4509,"onijos":4510,"ĠtuÅ¡":4511,"Ġterm":4512,"aÅ¾o":4513,"Ġaudi":4514,"dy":4515,"Ġvyskup":4516,"riÅ³":4517,"Ġteori":4518,"Ġgimnazijos":4519,"Ġvitam":4520,"ikai":4521,"Ġspecialistai":4522,"pil":4523,"Ġeiti":4524,"Ġgaliausiai":4525,"inimÅ³":4526,"Ġnetek":4527,"Ġ2008":4528,"ĠneÅ¡i":4529,"miÅ³":4530,"tumÄħ":4531,"gar":4532,"Ġmoderni":4533,"gyven":4534,"Ġbaim":4535,"atus":4536,"Ġgydymo":4537,"Ġjais":4538,"anÄįia":4539,"Ġsuteikti":4540,"erÄ¯":4541,"Ġmoteri":4542,"tinti":4543,"Ġsimbo":4544,"ĠdalyviÅ³":4545,"metÄ¯":4546,"ĠdÅ¾iaugi":4547,"ĠÄĹmÄĹ":4548,"Ġreal":4549,"Ġsavimi":4550,"iÅ¡kos":4551,"Ġtikras":4552,"ĠtaisykliÅ³":4553,"ĠveiksmÅ³":4554,"angÄħ":4555,"Ġtra":4556,"Ġministras":4557,"Ġsprendimo":4558,"ĠÅ¡ia":4559,"ĠanglÅ³":4560,"Ġlietuviai":4561,"vilg":4562,"Ġrami":4563,"antai":4564,"entus":4565,"jame":4566,"Ġ[âĢ¦]":4567,"Ġgero":4568,"ĠsavÄĻs":4569,"Ġmini":4570,"inasi":4571,"Ġskan":4572,"ator":4573,"Ġpirkti":4574,"tir":4575,"ojimÄħ":4576,"Ġkatali":4577,"Ġaptarn":4578,"Ġsusisiek":4579,"Ġglob":4580,"du":4581,"Ġvisoje":4582,"tern":4583,"liuose":4584,"Ġapklaus":4585,"ĠuÅ¾pild":4586,"Ġinterjer":4587,"ĠreiÅ¡k":4588,"ĠplaÄįiau":4589,"Ġlengva":4590,"teris":4591,"ein":4592,"Ġskaid":4593,"Ġnuostab":4594,"intÄħ":4595,"Ġdalykas":4596,"Ġnetrukus":4597,"Ġapyg":4598,"ova":4599,"Ġnaudojimo":4600,"Ġpavyzd":4601,"Ġpaskai":4602,"ema":4603,"Ġapskritai":4604,"Ġveido":4605,"Ġart":4606,"oju":4607,"Ġkuriais":4608,"Ġgo":4609,"Ġvanduo":4610,"Ġsavar":4611,"zÄĹ":4612,"Ġarm":4613,"Ġpavard":4614,"mui":4615,"Ġpavaduotoj":4616,"Ġsank":4617,"nt":4618,"Ġnelaim":4619,"ikÅ³":4620,"ingu":4621,"inimai":4622,"99":4623,"ĠsuÅ¾in":4624,"Ġapygard":4625,"tipr":4626,"Ġadministracijos":4627,"Ġautorius":4628,"Ġprofesion":4629,"kon":4630,"Ġlengviau":4631,"eikiÅ³":4632,"bet":4633,"rius":4634,"Ġarg":4635,"ĠÅ¡lap":4636,"ĠtikrÅ³jÅ³":4637,"ĠklientÅ³":4638,"Ġtiems":4639,"ĠiÅ¡sis":4640,"sr":4641,"Ġpom":4642,"Ġavi":4643,"Ġsutarties":4644,"eikÄĹ":4645,"uokite":4646,"Ġkiekvienam":4647,"Ġsid":4648,"ydavo":4649,"ysis":4650,"Ġnuorod":4651,"Ġneats":4652,"Ġlav":4653,"gali":4654,"Ġ31":4655,"Ġekolog":4656,"vilni":4657,"Ġsmulk":4658,"yme":4659,"ĠgalimybiÅ³":4660,"ðŁ":4661,"vos":4662,"tÅ«ra":4663,"ĠÅ¡iaip":4664,"Ġkontroli":4665,"Ġgan":4666,"ĠÄ¯domi":4667,"Ġministerija":4668,"Ġpasek":4669,"orio":4670,"ĠiÅ¡ties":4671,"Ġgalo":4672,"Ġlinksm":4673,"Ġpareigas":4674,"sniai":4675,"mens":4676,"ĠprieÅ¾asÄįiÅ³":4677,"Ġasmenims":4678,"pai":4679,"kiais":4680,"eter":4681,"Ġatsirad":4682,"Ġpernai":4683,"Ä¯sta":4684,"ĠuÅ¾raÅ¡":4685,"eriu":4686,"Ġkonserv":4687,"gub":4688,"Ġtechnologijos":4689,"menys":4690,"ĠgrÄĹs":4691,"aila":4692,"Ġbaltar":4693,"Ġsituacija":4694,"gin":4695,"Ġasociacijos":4696,"ĠesmÄĹs":4697,"ĠÄ¯manoma":4698,"Ġperi":4699,"Ġrinkoje":4700,"uodamas":4701,"ĠÅ¾mogÅ³":4702,"ĠplÄĹtros":4703,"Ġgarso":4704,"Ġgerb":4705,"ĠiÅ¡vengti":4706,"Ġkuriam":4707,"Ġpublik":4708,"ĠbuvÄĻs":4709,"Ġsprendimus":4710,"Ġteritorijoje":4711,"ĠpraÄĹjusi":4712,"Ġpirmoji":4713,"Ġteigimu":4714,"etikos":4715,"ĠtaÅ¡kÅ³":4716,"ĠpusÄĹje":4717,"Ġnoriu":4718,"iÄħ":4719,"ĠÄ¯gÅ«":4720,"Ġabu":4721,"ietis":4722,"ĠÄ¯vertinti":4723,"Ġvisame":4724,"les":4725,"Ġxi":4726,"arba":4727,"Ġgrand":4728,"ĠieÅ¡ko":4729,"ĠbÅ«r":4730,"Ġgeriausia":4731,"Ġpapas":4732,"ĠÄ¯ran":4733,"ĠÅ¡ias":4734,"Ġnekil":4735,"ĠpradÅ¾ios":4736,"anÄįiai":4737,"Ġdipl":4738,"mis":4739,"Ġpavadinimas":4740,"Ġispan":4741,"Ġmaksim":4742,"Ġprezidentas":4743,"Ġsmul":4744,"Ġkiekis":4745,"Ġsunkiai":4746,"Ġ70":4747,"Ġpieno":4748,"skaitant":4749,"Ġink":4750,"entais":4751,"ininkus":4752,"ĠklausimÄħ":4753,"Ġaktyviai":4754,"Ġkonsult":4755,"ĠpÄĹd":4756,"Ġstatis":4757,"Ġpul":4758,"gres":4759,"Å¡ko":4760,"ybÄĹmis":4761,"ĠpamirÅ¡":4762,"ĠÅ¡iaur":4763,"ãģ":4764,"45":4765,"Ġsmeg":4766,"atoriaus":4767,"Ġparap":4768,"Å¾iaus":4769,"Ġvietov":4770,"ias":4771,"ĠgatvÄĹs":4772,"ĠuÅ¾sid":4773,"prÄĻsti":4774,"Ġporeikius":4775,"Ġnaudojami":4776,"Ġtiesiogiai":4777,"ĠÄ¯sivaizd":4778,"Ġvyst":4779,"Ġfl":4780,"inties":4781,"Ġilga":4782,"Ġnepasi":4783,"ĠmokyklÄħ":4784,"Ġproblemas":4785,"ĠpajamÅ³":4786,"Ġpremjer":4787,"Ġpasaulis":4788,"km":4789,"vys":4790,"ĠpadÄĹ":4791,"!!":4792,"ĠdantÅ³":4793,"Ġatsilie":4794,"ĠuÅ¾sis":4795,"ĠautomobilÄ¯":4796,"Ġsh":4797,"kÄĹ":4798,"Ġokup":4799,"ĠfinansÅ³":4800,"ĠÅ¾vilg":4801,"Ġju":4802,"eria":4803,"Ġgarsi":4804,"Ġpriz":4805,"ĠuÅ¾siÄĹm":4806,"ĠÅ¡ar":4807,"ÄħÅ¾in":4808,"ĠmÄĹnesio":4809,"Ġvyrai":4810,"aino":4811,"Ġgaranti":4812,"sa":4813,"ĠsugrÄ¯Å¾":4814,"Ġegzam":4815,"til":4816,"ĠÅ¾inoti":4817,"esnius":4818,"Ġplotis":4819,"Ġjuri":4820,"ĠrankovÄĹmis":4821,"Ġkovos":4822,"Ġreform":4823,"Ġkiem":4824,"tosios":4825,"ĠknygÄħ":4826,"jungti":4827,"Ġtes":4828,"auna":4829,"Ġrezultatai":4830,"Ġsusil":4831,"ĠgeleÅ¾ink":4832,"ĠbendrovÄĹ":4833,"Ġapar":4834,"Å«rimo":4835,"Ġsvet":4836,"ĠatliekÅ³":4837,"Ġbesi":4838,"ĠlaikÅ³":4839,"ĠpoÅ¾iÅ«r":4840,"ĠparaiÅ¡k":4841,"Ġaleks":4842,"Ġfir":4843,"eiÅ¡kia":4844,"ĠdujÅ³":4845,"Ġatitinka":4846,"Ġkiekviena":4847,"ĠdidÅ¾iausias":4848,"ĠÄ¯steig":4849,"Ġvl":4850,"Ġkompens":4851,"erc":4852,"por":4853,"ĠstruktÅ«r":4854,"Ġpaprasta":4855,"Ġekonomikos":4856,"Ġsiur":4857,"acijai":4858,"Ġnesk":4859,"ĠiÅ¡gir":4860,"ĠdÄĹka":4861,"Ġdalyvauja":4862,"alaik":4863,"ws":4864,"vyd":4865,"Ġmintis":4866,"www":4867,"ĠÅ¾aisti":4868,"Ġantra":4869,"Ġdekor":4870,"Ġtend":4871,"ÄĹlap":4872,"intiems":4873,"eitimo":4874,"inamos":4875,"aujant":4876,"ĠlÄħs":4877,"avome":4878,"Ġkomunik":4879,"Ġkompleks":4880,"ĠdainÅ³":4881,"ĠpaÅ¡to":4882,"eikio":4883,"ĠmÅ«":4884,"ĠÅ¡ventÄĹ":4885,"Ġvisur":4886,"Ġjonas":4887,"ĠâĢĺ":4888,"ĠpaskelbÄĹ":4889,"Ġpasakoja":4890,"bio":4891,"Ġsutartis":4892,"ĠreikÄĹs":4893,"ÄĹtume":4894,"tiniu":4895,"tasis":4896,"ynÅ³":4897,"etos":4898,"Ġsmag":4899,"ĠliteratÅ«ros":4900,"Ġsvarst":4901,"iks":4902,"Ġjuok":4903,"Ġvykdyti":4904,"nu":4905,"ĠprieÅ¾astis":4906,"Ġpatyr":4907,"anis":4908,"Ġministro":4909,"Ġvietose":4910,"austi":4911,"ysime":4912,"ĠpagrindinÄĹ":4913,"Ġnemokamai":4914,"Ġpuol":4915,"tono":4916,"Ġty":4917,"skis":4918,"ĠmÄĹnesiÅ³":4919,"Ġ(\"":4920,"Ġsap":4921,"ÄĹjimÅ³":4922,"Ġmom":4923,"Ġraudon":4924,"Ġstal":4925,"trÅ«k":4926,"ĠsveÄįi":4927,"Ġprasideda":4928,"ĠsukÅ«rÄĹ":4929,"Ġvisais":4930,"Ġhi":4931,"Ġstatyb":4932,"Ġatgal":4933,"Ġ36":4934,"racija":4935,"Ġprokur":4936,"lika":4937,"Ġsezono":4938,"Ġ2007":4939,"Ġskyrius":4940,"Ġno":4941,"Ġnetoli":4942,"Ġrezultatus":4943,"Ġkuomet":4944,"Ġdon":4945,"Ġlond":4946,"ĠpriemonÄĹ":4947,"Ġstor":4948,"ejus":4949,"Ġreak":4950,"Ġvisgi":4951,"Ġkonflik":4952,"Ġgeriausias":4953,"ĠprocedÅ«r":4954,"ĠdidÅ¾iul":4955,"ĠtÄĻs":4956,"Ġatlieka":4957,"ĠgimÄĹ":4958,"bili":4959,"pel":4960,"biai":4961,"ĠskaiÄįiÅ³":4962,"ĠpaieÅ¡kos":4963,"Ġmegz":4964,"eviÄįiaus":4965,"Ġvag":4966,"Ġilgiau":4967,"toliau":4968,"ĠÅ¡viesos":4969,"90":4970,"ebo":4971,"35":4972,"ĠÅ¾emÄĹlap":4973,"Ġbalta":4974,"ket":4975,"ĠmiestÄħ":4976,"Ġnedaug":4977,"amiesi":4978,"Ġ45":4979,"Ġgarant":4980,"Ġateityje":4981,"Ġorien":4982,"vas":4983,"yne":4984,"ĠnepamirÅ¡":4985,"ĠgyvÅ«nÅ³":4986,"ĠbaÅ¾nyÄįia":4987,"ĠsÄħlygos":4988,"Ġpe":4989,"Ġlaisval":4990,"ĠvalstybÄĹ":4991,"ĠkokiÅ³":4992,"viÅ³":4993,"Ġtams":4994,"Ġteikia":4995,"ĠkalbÄħ":4996,"ÄĹtumÄĹte":4997,"Ġhar":4998,"ĠpasiÅ«lyti":4999,"Ġvardu":5000,"Ġblok":5001,"telÄĻ":5002,"Ġskam":5003,"nel":5004,"Ġleisti":5005,"Ġdiag":5006,"Ġnenori":5007,"mm":5008,"Ġgyveno":5009,"Ġsuform":5010,"Ġdokumentus":5011,"menÄ¯":5012,"esu":5013,"ĠrÅ«pes":5014,"ĠnorÄĹdami":5015,"Ġpuod":5016,"yra":5017,"Ġatitik":5018,"Ġsportinink":5019,"Ġlieka":5020,"Ġkompozi":5021,"Ġanksto":5022,"Å¾al":5023,"Ġnepaisant":5024,"Ġnusteb":5025,"ytu":5026,"ojus":5027,"Ġpagaliau":5028,"ĠiÅ¡rink":5029,"Ġalkoho":5030,"Ġatrank":5031,"Ġbais":5032,"Ġnemat":5033,"ĠsÄħraÅ¡Äħ":5034,"ĠÄ¯domu":5035,"uoto":5036,"Ġgelb":5037,"Ġbalt":5038,"Ġprezidento":5039,"dymo":5040,"ĠpareigÅ«nai":5041,"Ġneabej":5042,"Ġgeriausiai":5043,"yni":5044,"uojantis":5045,"tinga":5046,"ĠtikrÄħ":5047,"ĠklausimÅ³":5048,"ore":5049,"Ġpavyko":5050,"fin":5051,"enÄĹ":5052,"ump":5053,"ĠsumaÅ¾inti":5054,"ieriaus":5055,"ris":5056,"ĠpavirÅ¡i":5057,"ĠdurÅ³":5058,"ava":5059,"Ġlauki":5060,"Ġais":5061,"Å¡kÅ³":5062,"ĠrÅ«Å¡iÅ³":5063,"ĠkrikÅ¡Äįion":5064,"Ġkaimas":5065,"uliÅ³":5066,"Ġsch":5067,"ĠantrÄħ":5068,"Ġketur":5069,"Ġfond":5070,"Ġakivaizd":5071,"tras":5072,"Ġsuder":5073,"Ġpabaigos":5074,"ĠkokiÄħ":5075,"Ġbritan":5076,"Ġtikim":5077,"ĠsusipaÅ¾inti":5078,"pav":5079,"cijomis":5080,"Ġvienoje":5081,"Ġgalu":5082,"Ġdizaino":5083,"Ġstiliaus":5084,"Ġklubas":5085,"auskaitÄĹ":5086,"ĠroÅ¾":5087,"Å¡Ä¯":5088,"avusi":5089,"Ġgied":5090,"iÅ¡kÅ³":5091,"viai":5092,"Ġvykst":5093,"Ġkaime":5094,"ĠkontrolÄĹs":5095,"ĠpaÅ¡tu":5096,"Ġos":5097,"ĠpabrÄĹÅ¾":5098,"ĠÄ¯takos":5099,"ĠparduotuvÄĹje":5100,"ingumÄħ":5101,"ĠrezultatÅ³":5102,"Ġstriuk":5103,"timus":5104,"ĠpasirÅ«p":5105,"snÄ¯":5106,"Ġauga":5107,"ĠmetrÅ³":5108,"Ġseniai":5109,"Ġgryb":5110,"Ġdai":5111,"ĠmiÅ¡ko":5112,"Ġpasp":5113,"Ġnesus":5114,"Ġautomobilis":5115,"Ġpapasak":5116,"ĠviÅ¡":5117,"ĠpÄĹs":5118,"ĠsocialiniÅ³":5119,"ĠkiekÄ¯":5120,"ĠdÅ¾":5121,"Ġprekes":5122,"tifik":5123,"Ġtikriausiai":5124,"ĠiÅ¡laikyti":5125,"yklos":5126,"tikÅ³":5127,"ald":5128,"lid":5129,"ÄĹt":5130,"Ġatsarg":5131,"veg":5132,"Ġxvi":5133,"Ġdepartamento":5134,"tie":5135,"Ġnekilnoj":5136,"yksta":5137,"ĠreikÄĹjo":5138,"Ġvaikui":5139,"ausko":5140,"Ġdub":5141,"Ġatsitik":5142,"ojant":5143,"Ġsuper":5144,"Ġveikti":5145,"Ġtvarkos":5146,"Å¡o":5147,"uodami":5148,"ĠpranaÅ¡":5149,"Ġac":5150,"Ġprir":5151,"palaid":5152,"Ġregist":5153,"ĠlenkÅ³":5154,"Ġvienam":5155,"ger":5156,"Ġinov":5157,"ingumas":5158,"ĠdidelÄĹs":5159,"Ġjurid":5160,"Ġneretai":5161,"ĠdaliÅ³":5162,"Ġkonkurso":5163,"ĠsvetainÄĹs":5164,"Ġkau":5165,"Ġnelabai":5166,"ĠtruputÄ¯":5167,"ca":5168,"Ġali":5169,"ĠvalstybinÄĹs":5170,"Ġtyrimai":5171,"stus":5172,"ĠdefektÅ³":5173,"ÄĻsi":5174,"ĠnugalÄĹ":5175,"ytaus":5176,"ĠpoÅ¾iÅ«ri":5177,"Ġpakl":5178,"ĠsprendimÅ³":5179,"05":5180,"alinÄĹs":5181,"Ġnenus":5182,"Ġtep":5183,"Ġpatirties":5184,"ĠmarÅ¡ru":5185,"ĠpradÅ¾ia":5186,"Ġlaikyti":5187,"ĠbÅ«davo":5188,"ÄįienÄĹ":5189,"Ġ'":5190,"Ġjokio":5191,"ykla":5192,"aukÄĹ":5193,"Ġsustipr":5194,"Ġpary":5195,"kias":5196,"ulio":5197,"sv":5198,"Ġpasibaig":5199,"Ġpili":5200,"ĠuÅ¾tikrina":5201,"Ġmokytis":5202,"Ġmol":5203,"Ġapa":5204,"timis":5205,".:":5206,"Ġatsik":5207,"ĠdailÄĹs":5208,"ĠtauragÄĹs":5209,"ininku":5210,"Ġpirmas":5211,"Ġmuzika":5212,"ystÄĹje":5213,"ĠnetikÄĹ":5214,"ÄĹdavo":5215,"Ġgul":5216,"Ġautoma":5217,"Ġvo":5218,"erija":5219,"Ġplastik":5220,"Ġcharak":5221,"Ġprocesas":5222,"irg":5223,"riai":5224,"ystÄĻ":5225,"Ġsa":5226,"Ġnuoma":5227,"inimus":5228,"Ġtelevizijos":5229,"Ġdirektoriaus":5230,"Ġpralaim":5231,"Ġprognoz":5232,"Ġtab":5233,"Ġskaitmen":5234,"Ġjokios":5235,"kom":5236,"ĠaiÅ¡kiai":5237,"Ġtyrimas":5238,"Ġveiks":5239,"Ġnedar":5240,"07":5241,"Ġlaikotarpiu":5242,"Ġugn":5243,"ĠÅ¾vej":5244,"Ġkompeten":5245,"bir":5246,"ĠmÄĹnesius":5247,"Ġoda":5248,"cikl":5249,"Ġklim":5250,"ĠÄ¯rangos":5251,"Ġlenktyn":5252,"ynÄħ":5253,"dr":5254,"ĠgroÅ¾io":5255,"ĠsuÅ¡":5256,"ĠneÅ¡io":5257,"Ġpaim":5258,"ilg":5259,"Ġrenginio":5260,"ĠaÅ¡tuo":5261,"tÄĻs":5262,"Ġtave":5263,"ĠiÅ¡vaizd":5264,"ĠsprÄĻsti":5265,"Ġ90":5266,"ĠsituacijÄħ":5267,"tyni":5268,"Ġvertinimo":5269,"Ġatliko":5270,"ĠpabÄĹg":5271,"alap":5272,"Ġapskrities":5273,"acijoje":5274,"ĠmiestÅ³":5275,"Ġliaudies":5276,"onÄĹs":5277,"ĠkvieÄįia":5278,"ytojo":5279,"trauki":5280,"Ġ500":5281,"lu":5282,"ĠkvieÄįiame":5283,"eista":5284,"jose":5285,"merg":5286,"the":5287,"Ġsustab":5288,"pv":5289,"Ġnuod":5290,"aÅ¾as":5291,"Ġpirmosios":5292,"Ġsteng":5293,"olas":5294,"Ġstebuk":5295,"ars":5296,"ved":5297,"Ġvam":5298,"ĠdidelÄ¯":5299,"Ġskyr":5300,"Ġbrangi":5301,"ĠiÅ¡kart":5302,"Ġus":5303,"ĠatsiÅ¾velgiant":5304,"Ġvienintelis":5305,"vietÄĹ":5306,"ĠgraÅ¾iai":5307,"bÄĹ":5308,"tingai":5309,"Ġteikti":5310,"Ġkuro":5311,"Ġcivil":5312,"ĠsuknelÄĹ":5313,"tadienio":5314,"ĠaugalÅ³":5315,"ĠvertÄĹs":5316,"Ġtipas":5317,"Ġmind":5318,"ĠsÄħlygomis":5319,"Ġhum":5320,"ĠmokÄĹti":5321,"ĠiÅ¡mat":5322,"Ġpapl":5323,"ĠnaÅ¡":5324,"Ġep":5325,"Ġsklyp":5326,"ĠvakarÄħ":5327,"ÄĹlÄĻ":5328,"Ġfeder":5329,"ĠreikÅ¡m":5330,"Ġsaugos":5331,"Ġnuomone":5332,"traukÄĹ":5333,"Ġviduri":5334,"jor":5335,"Ġtoli":5336,"ÄĹju":5337,"tacija":5338,"Ġskiriasi":5339,"Ġpaveldo":5340,"stu":5341,"ojama":5342,"Ġdidelio":5343,"ĠsiÅ«lome":5344,"Ġskly":5345,"ĠgyvÅ«n":5346,"Ġkated":5347,"Ġsrities":5348,"ĠsuÅ¾inoti":5349,"Ġdalys":5350,"Ġskulp":5351,"Ġklausimais":5352,"antu":5353,"tavo":5354,"omus":5355,"ĠnusprendÄĹ":5356,"ĠiÅ¡im":5357,"uoliai":5358,"kiria":5359,"Ġliga":5360,"ĠneÄ¯manoma":5361,"Ġru":5362,"ĠlaimÄĹjo":5363,"Ġkelia":5364,"Ġmig":5365,"Ġtelefonu":5366,"vÄĹs":5367,"ĠesÄħ":5368,"Ġintel":5369,"Ġnag":5370,"alÅ«s":5371,"ĠapÅ¡vie":5372,"ĠÅ¡alÄ¯":5373,"tiÅ¡kas":5374,"Ġken":5375,"Ġparoda":5376,"ĠuÅ¾im":5377,"Ġtikra":5378,"ÄĹtina":5379,"ĠpirmÄħjÄ¯":5380,"Ġprekyba":5381,"ĠeilÄĹs":5382,"ĠiÅ¡skyrus":5383,"ĠðŁ":5384,"fas":5385,"Ġpaskolos":5386,"ĠbiudÅ¾eto":5387,"Ġpastato":5388,"Ġlip":5389,"Ġtvarkymo":5390,"ĠpagrindinÄĹs":5391,"toji":5392,"imos":5393,"Ġtro":5394,"Ġ2000":5395,"Ġatmos":5396,"spektyv":5397,"ĠbaigÄĹ":5398,"ron":5399,"varbu":5400,"Ġnaujus":5401,"Ġproblemos":5402,"ĠbaudÅ¾i":5403,"Ġven":5404,"Ġeksperim":5405,"Ġskand":5406,"ht":5407,"ÄĹgi":5408,"ĠpramonÄĹs":5409,"Ġintegr":5410,"Ġpatirtis":5411,"Ġbag":5412,"Ġ38":5413,"Ġbendras":5414,"Ġskund":5415,"Ġdviem":5416,"vÄĹ":5417,"Ġpien":5418,"ganiz":5419,"ĠpobÅ«":5420,"ĠÅ¾aidimas":5421,"Ġreikalingas":5422,"ĠkÄĹl":5423,"okas":5424,"Ġiv":5425,"ĠatÅ¾vil":5426,"urti":5427,"pe":5428,"ĠÅ¾aidimÅ³":5429,"Ġprojekt":5430,"ĠvartotojÅ³":5431,"usiÅ³jÅ³":5432,"Ġ300":5433,"inÄĹjo":5434,"ĠaktÅ³":5435,"ĠodÄħ":5436,"ĠÅ¡au":5437,"Ġbaltarus":5438,"ÄĹjimus":5439,"Ġnenor":5440,"Ġ)":5441,"ĠginÄį":5442,"ĠrÅ«k":5443,"ĠmanÄĻs":5444,"Ġdievas":5445,"Ġveter":5446,"Ġnetink":5447,"ĠvaldÅ¾ia":5448,"ternatyv":5449,"Ġkruo":5450,"tet":5451,"ĠvandenÄ¯":5452,"ĠapÅ¾":5453,"Ġsutvark":5454,"inter":5455,"ĠpatirtÄ¯":5456,"Ġlegend":5457,"Ð»":5458,"Ġvideo":5459,"Ġpalyginti":5460,"dem":5461,"ĠdydÄ¯":5462,"ĠÄ¯kvÄĹp":5463,"ĠÅ¾aidimai":5464,"Ġalytaus":5465,"ĠpagrindiniÅ³":5466,"Ġdomin":5467,"Ġlatvijos":5468,"Ġpirkimo":5469,"Ġkaunas":5470,"ĠsovietÅ³":5471,"ÄĹjosi":5472,"engia":5473,"Ġteises":5474,"Ġsin":5475,"Ġmaskv":5476,"Ġvic":5477,"Ġdaugelio":5478,"Ġnusil":5479,"augos":5480,"Ġkompanijos":5481,"tal":5482,"Ġkokio":5483,"ĠvalandÅ³":5484,"Ġkitose":5485,"ĠpusÄĹ":5486,"Ġkosti":5487,"yks":5488,"Ġperspektyv":5489,"Ġly":5490,"ajai":5491,"ĠÅ¡imt":5492,"Ġgale":5493,"Ġkalend":5494,"Ġsidab":5495,"ĠsezonÄħ":5496,"Ġev":5497,"Ġhid":5498,"fiks":5499,"Ġkriteri":5500,"Ġkilomet":5501,"ĠsavaitÄĹs":5502,"ĠpadarÄĹ":5503,"ĠÅ¾aidimo":5504,"ĠkokybÄĻ":5505,"ĠpadÄĹjo":5506,"Ġsantykius":5507,"Ġlaikrod":5508,"ĠsÄħlygÅ³":5509,"ĠsistemÅ³":5510,"arch":5511,"ĠkilmÄĹs":5512,"Ġpusi":5513,"ĠÅ¡iam":5514,"ĠspecialistÅ³":5515,"tuvai":5516,"aukti":5517,"ĠparodÄĹ":5518,"Ġvytauto":5519,"voliu":5520,"Ġvyriausi":5521,"ĠruoÅ¡i":5522,"Ġkapit":5523,"75":5524,"ĠpaÅ¾Ä¯st":5525,"ĠÄ¯skaitant":5526,"ĠgatvÄĹje":5527,"Ġha":5528,"ĠliÅ«d":5529,"umis":5530,"Ġradijo":5531,"ĠÅ¡yps":5532,"ĠapibÅ«d":5533,"Ġrankas":5534,"Ġtokias":5535,"ĠpraneÅ¡ÄĹ":5536,"ĠuÅ¾sienyje":5537,"ĠrinktinÄĹs":5538,"ĠpagalbÄħ":5539,"Ġkompanija":5540,"ĠnepriklausomybÄĹs":5541,"ãĥ":5542,"Ġsudaryti":5543,"Ġliber":5544,"ajam":5545,"etÄĹ":5546,"Ġregiono":5547,"Å¾iau":5548,"Ġpatais":5549,"aktyv":5550,"Ġpaskat":5551,"Ġmokslininkai":5552,"ovÄĻ":5553,"Ġnesug":5554,"Ġpoten":5555,"ier":5556,"ĠsantykiÅ³":5557,"ĠÅ¾ydÅ³":5558,"199":5559,"Ġatsiliep":5560,"Ġtechnika":5561,"Ġnaujienos":5562,"ĠsudarÄĹ":5563,"vio":5564,"uvos":5565,"Ġvienod":5566,"Ġeina":5567,"Ġmergina":5568,"ĠaplinkÄħ":5569,"ÄĹjimu":5570,"Ġreag":5571,"ĠprancÅ«zijos":5572,"Ġtaryba":5573,"Ġgais":5574,"ĠupÄĹs":5575,"Ġnebe":5576,"Ġeksk":5577,"timai":5578,"Ġinfras":5579,"Ġtechnikos":5580,"Ġbuvusi":5581,"loat":5582,"Ġalternatyv":5583,"Ġenergetikos":5584,"Ġpau":5585,"inantis":5586,"Ġproduktai":5587,"ĠpaÄįiÄħ":5588,"ĠformÄħ":5589,"ĠvyriausybÄĹ":5590,"ijau":5591,"avosi":5592,"ysiu":5593,"iest":5594,"Ġtaps":5595,"Ġmy":5596,"ĠmiÅ¡kÅ³":5597,"iteto":5598,"Ġgedim":5599,"Ġpasirodo":5600,"Ã©":5601,"Ġmodelis":5602,"Ġdaugiausiai":5603,"Ġvardas":5604,"Ġsku":5605,"ĠpapraÅ¡":5606,"Ġkredito":5607,"ĠkvÄĹp":5608,"Ġdelfi":5609,"gl":5610,"eikÅ¡":5611,"ĠsÄĹkl":5612,"ĠatÅ¾vilgiu":5613,"Ġaspek":5614,"uojam":5615,"ĠsalÄĹje":5616,"ĠgeriausiÅ³":5617,"Ġetn":5618,"ĠposÄĹd":5619,"aikyti":5620,"Ġstad":5621,"Ġproduktus":5622,"Ġaukso":5623,"inÄĹja":5624,"deÅ¡imt":5625,"ĠtemperatÅ«ra":5626,"Ġnorveg":5627,"Ġduris":5628,"Ġsukelia":5629,"ĠkariuomenÄĹs":5630,"ou":5631,"Ġreikalinga":5632,"Ġsukurtas":5633,"ĠbÅ«tin":5634,"lig":5635,"etÄĹs":5636,"Ġkoord":5637,"adÄħ":5638,"Ġpasip":5639,"Ġpasitaik":5640,"Ġvytautas":5641,"Ġkuk":5642,"Ġnaujai":5643,"ĠÅ¾iemos":5644,"ĠdaugybÄĹ":5645,"Ġnav":5646,"Ġnaik":5647,"Ġskaud":5648,"ĠvadovÄĹ":5649,"Ġinfrastruk":5650,"Ġsmar":5651,"ĠakiÅ³":5652,"ĠatrodÄĹ":5653,"Ġgryn":5654,"sniu":5655,"ĠkultÅ«ra":5656,"Ġ&":5657,"Ġprimena":5658,"ĠpasiÅ¾ymi":5659,"33":5660,"Ġrezerv":5661,"ces":5662,"ĠÅ¾monÄĹmis":5663,"pÅ¡":5664,"trÅ³":5665,"Ġdes":5666,"Ġcom":5667,"Ġpalikti":5668,"ĠgrÅ«d":5669,"apie":5670,"taÅ¾":5671,"ĠpasiekÄĹ":5672,"Ġpaver":5673,"tiniais":5674,"Ġnaudojama":5675,"len":5676,"Ġkomit":5677,"Äįiuose":5678,"Ġcar":5679,"Ġrand":5680,"ĠtarptautinÄĹs":5681,"ĠnepaÅ¾":5682,"Ġdrauge":5683,"Ġsertifik":5684,"ortas":5685,"eki":5686,"iÅ¡ko":5687,"viu":5688,"Ġ34":5689,"ĠdÅ¾iug":5690,"Ġpaband":5691,"Ġmoterims":5692,"Ġpatvirtinimo":5693,"Ġdidesnis":5694,"Ġom":5695,"Å¡kus":5696,"Ġpasim":5697,"Ġturizmo":5698,"amasi":5699,"did":5700,"Ġnub":5701,"ĠrieÅ¡":5702,"Ġdetal":5703,"ogle":5704,"ĠauÅ¡":5705,"Ġ2006":5706,"Ġmindaug":5707,"Ġintelek":5708,"Ġgauna":5709,"ĠtÄĹvas":5710,"ĠÅ¾mona":5711,"Ġrezultatas":5712,"03":5713,"ĠsusijÄĻ":5714,"Ġkrist":5715,"Ġlygos":5716,"ĠbendrÄħ":5717,"Ġded":5718,"Ġatmin":5719,"Ġpirmojo":5720,"Ġuten":5721,"Ġvirus":5722,"tikai":5723,"Ġkomiteto":5724,"Ġply":5725,"araÅ¡":5726,"ĠpristatÄĹ":5727,"Ġei":5728,"ĠÄ¯takÄħ":5729,"ĠgalvÄħ":5730,"Ġnos":5731,"ria":5732,"Ġstatus":5733,"ĠgroÅ¾":5734,"acebo":5735,"Ġlazd":5736,"Ġviename":5737,"ĠdidÅ¾iosios":5738,"autÅ³":5739,"Ġsunaik":5740,"ĠÄ¯vairius":5741,"autis":5742,"ĠklasiÅ³":5743,"ĠuÅ¾deg":5744,"ĠtrÅ«ksta":5745,"Ġtapat":5746,"gir":5747,"ĠdaugybÄĻ":5748,"Ġdvigub":5749,"mer":5750,"Ġplatform":5751,"Ġrat":5752,"Ġmedvil":5753,"irk":5754,"ĠsveÄįiÅ³":5755,"Ġskatina":5756,"berg":5757,"esnes":5758,"ukais":5759,"ĠdideliÅ³":5760,"Ġunivers":5761,"ĠinstitucijÅ³":5762,"uokl":5763,"ĠporÄħ":5764,"ĠÅ¾inomas":5765,"Ġprev":5766,"ĠÄ¯trauk":5767,"Ġstil":5768,"ĠiÅ¡siaiÅ¡k":5769,"ĠrenginiÅ³":5770,"09":5771,"ĠklaipÄĹdoje":5772,"ĠiÅ¡kov":5773,"Ġfondo":5774,"Ġesi":5775,"Ġmuziejus":5776,"ĠkelionÄĻ":5777,"Ġatstovas":5778,"aktar":5779,"Ġukrainos":5780,"ĠÄ¯statymÅ³":5781,"ĠdraudÅ¾i":5782,"Ġremiantis":5783,"Ġinspek":5784,"Ġfilmas":5785,"log":5786,"ĠvalandÄħ":5787,"Ġstipriai":5788,"Ġsunki":5789,"teka":5790,"ĠuÅ¾duotis":5791,"Ġnesupr":5792,"Ġkaltin":5793,"Ġex":5794,"Ġvisko":5795,"ĠlaÅ¡":5796,"Ġbase":5797,"Ġizoli":5798,"uc":5799,"ĠreikalavimÅ³":5800,"Ġsavaitgal":5801,"Ġdeb":5802,"Ġsmur":5803,"Ġpakar":5804,"mano":5805,"Ġpuos":5806,"ÄįiÅ«tÄĹ":5807,"Ġfiks":5808,"Ġnereikal":5809,"Ġbeg":5810,"Ġret":5811,"ĠstudentÅ³":5812,"ĠprogramÅ³":5813,"vers":5814,"yto":5815,"Ġtinklo":5816,"Ġvandeniu":5817,"Ġdideli":5818,"Ġetik":5819,"techn":5820,"kime":5821,"ĠÅ¾emai":5822,"ĠorganizacijÅ³":5823,"auskienÄĹ":5824,"aliniÅ³":5825,"Ġstres":5826,"06":5827,"Ġmoters":5828,"Ġautomat":5829,"ĠmÄĹlyna":5830,"Ġmetams":5831,"ĠraÅ¡ÄĹ":5832,"enu":5833,"ĠiÅ¡dÄĹs":5834,"ĠstebÄĹti":5835,"Ġstraipsnis":5836,"Ġstikl":5837,"Ġtrau":5838,"Ġsritis":5839,"Ġapat":5840,"Ġign":5841,"Ġcer":5842,"Ġmoto":5843,"ĠvÄĹli":5844,"Ġolimp":5845,"Ġspecialiai":5846,"ĠpraktiÅ¡kai":5847,"ĠÅ¾odÅ¾iÅ³":5848,"Ġpoveikio":5849,"Ġypatingai":5850,"Ġsusidar":5851,"Ġkilo":5852,"ovimo":5853,"Ġnuotraukos":5854,"55":5855,"ĠsavivaldybiÅ³":5856,"Ġankstyv":5857,"Ġtiki":5858,"ÄĹtos":5859,"Ġni":5860,"ĠÅ¾iemÄħ":5861,"Ġtiksliai":5862,"ĠÄ¯vairias":5863,"Ġarchyv":5864,"hi":5865,"Ġfilmo":5866,"Ġork":5867,"ĠkiÅ¡en":5868,"tonas":5869,"Ġsantyk":5870,"Ġatspind":5871,"ĠbaldÅ³":5872,"Ġvertus":5873,"Ġkodeks":5874,"Ġans":5875,"Ġtelefono":5876,"pard":5877,"Ġkambario":5878,"snius":5879,"ĠĠ":5880,"ĠdrÄħ":5881,"Ġvarg":5882,"Ġkavos":5883,"Ġhig":5884,"Ġpora":5885,"ĠmokytojÅ³":5886,"Ġmuziejaus":5887,"ĠneÅ¾inau":5888,"ĠtemperatÅ«r":5889,"ĠpastatÅ³":5890,"uku":5891,"ĠÅ¾aidÅ¾i":5892,"Ġalkoholio":5893,"Ġpapildomai":5894,"inau":5895,"stai":5896,"lÄ¯":5897,"Ġfig":5898,"ĠuÅ¾g":5899,"44":5900,"Ġmechaniz":5901,"Ġsuma":5902,"stom":5903,"fr":5904,"onui":5905,"Ġeksploat":5906,"Ġlabor":5907,"ĠatÄĹjo":5908,"Ġpaded":5909,"ĠsÅ«nus":5910,"ĠmirÄĹ":5911,"teles":5912,"Ġmyg":5913,"Ġnaudoja":5914,"ĠpavasarÄ¯":5915,"Ġgintar":5916,"ĠâĢ¦":5917,"Ġinfek":5918,"Ġperiod":5919,"tinei":5920,"ydama":5921,"Ġvalandas":5922,"ĠdraugÅ³":5923,"kaun":5924,"Ġuniversitete":5925,"Ġapygardos":5926,"uot":5927,"ĠdÅ¾iov":5928,"Ġkoordin":5929,"Ġ150":5930,"ĠmeilÄĹ":5931,"ĠaukÅ¡tis":5932,"Ġtras":5933,"anÄįiam":5934,"Ġima":5935,"Ġkitu":5936,"Ġ2004":5937,"hal":5938,"Ġraid":5939,"ĠbÅ«dÅ³":5940,"ĠobjektÅ³":5941,"lys":5942,"Ġskirtos":5943,"acebook":5944,"Ġplotas":5945,"ĠnÄĹÅ¡":5946,"ĠsavivaldybÄĹ":5947,"ĠpanaÅ¡iai":5948,"ĠgrupiÅ³":5949,"ĠdidelÄĻ":5950,"sen":5951,"Ġateities":5952,"Ġneati":5953,"ĠrudenÄ¯":5954,"Ġ33":5955,"ĠgreiÄįiausiai":5956,"Ġbaus":5957,"\")":5958,"adienio":5959,"Ġglobos":5960,"Ðº":5961,"Ġkaul":5962,"ĠnuÅ¾ud":5963,"Ġavar":5964,"Ġkontrol":5965,"Ġkeliu":5966,"Ġkitomis":5967,"ĠmarijampolÄĹs":5968,"idas":5969,"Ġprivat":5970,"Ġafrik":5971,"oz":5972,"orÅ³":5973,"Ġalyv":5974,"yniÅ³":5975,"Ġsveikatai":5976,"ĠdidÅ¾iausia":5977,"ĠÅ¾ar":5978,"ÄĹli":5979,"apl":5980,"avimus":5981,"Ġkeletas":5982,"Ġinst":5983,"ĠpasiÅ«lymus":5984,"Ġneper":5985,"Ġeduk":5986,"Ġmaistas":5987,"Ġlrt":5988,"Ġremontas":5989,"antÄħ":5990,"ĠÅ¾ie":5991,"ĠpenktadienÄ¯":5992,"pad":5993,"Ġdata":5994,"Ġminer":5995,"Ġreikalauja":5996,"Ġsvorio":5997,"ĠmÄĹgsta":5998,"istai":5999,"ĠidÄĹja":6000,"ĠeilÄĹ":6001,"Ġgai":6002,"Ġfer":6003,"ĠpobÅ«dÅ¾io":6004,"Ġkair":6005,"nep":6006,"ĠtautÅ³":6007,"Ġpokalb":6008,"Ġgalia":6009,"ĠÅ¾ad":6010,"teto":6011,"Ġ2005":6012,"Ġsavai":6013,"Ġauks":6014,"04":6015,"Ġdaktar":6016,"ĠtÅ«kstanÄįiÅ³":6017,"Ġsiekti":6018,"anos":6019,"Ġkokius":6020,"ĠÅ¡iukÅ¡":6021,"Ġliep":6022,"Ġkomerc":6023,"angas":6024,"ĠlÅ«":6025,"ĠÅ¾iÅ«rÄĹti":6026,"Ġvol":6027,"ĠkÄĹd":6028,"Ġparko":6029,"mokes":6030,"Ġsukurta":6031,"Ġlygiai":6032,"Ġnemal":6033,"ove":6034,"ay":6035,"ovÅ³":6036,"ĠpoveikÄ¯":6037,"Ġtitu":6038,"pirkti":6039,"Ġkodas":6040,"ĠuÅ¾ÄĹmÄĹ":6041,"ĠapskaiÄįi":6042,"ĠÅ¾inios":6043,"ĠjÄĹga":6044,"Ġrungtynes":6045,"ĠkonkreÄįi":6046,"ĠuÅ¾dav":6047,"ĠkainÅ³":6048,"Ġatmosfer":6049,"ĠdÄĹst":6050,"inusi":6051,"ĠdidÅ¾iojo":6052,"Ġ37":6053,"avimÅ³":6054,"kop":6055,"Ġinstr":6056,"ĠraÅ¡yti":6057,"Ġvokietijoje":6058,"ack":6059,"Ġskon":6060,"rid":6061,"Ġaprib":6062,"ĠatneÅ¡":6063,"ĠpaÅ¾ad":6064,"cijoms":6065,"angl":6066,"encija":6067,"Ġsuprat":6068,"ĠbÅ«tinai":6069,"iko":6070,"ĠpatalpÅ³":6071,"Ġmatyt":6072,"Ġlaikui":6073,"Ġvaldybos":6074,"Ġkartos":6075,"ĠaÄįiÅ«":6076,"ĠgrupÄĹje":6077,"Ġproceso":6078,"uojanÄįiÅ³":6079,"Ġilgio":6080,"Ġatsin":6081,"Ġcon":6082,"ĠpadÄĹk":6083,"Ġfestivalio":6084,"ĠpasakÄĹ":6085,"Ġformul":6086,"eiviai":6087,"usis":6088,"Å¡is":6089,"Ġtame":6090,"Ġgud":6091,"ĠapylinkÄĹs":6092,"ĠÅ¡eÅ¡tadienÄ¯":6093,"65":6094,"Ġvan":6095,"ĠuÅ¾fiks":6096,"hol":6097,"Ġbendradarbiavimo":6098,"Ġparodyti":6099,"ĠpirmÄħjÄħ":6100,"ĠÅ¾yg":6101,"ojame":6102,"Ġveng":6103,"ĠdidÅ¾ioji":6104,"Ġbliz":6105,"Ġhttp":6106,"Ġnesvarbu":6107,"Ġrusija":6108,"Ġbibliotekos":6109,"tukÄħ":6110,"Ġdurys":6111,"Ġkosme":6112,"ves":6113,"ĠÄ¯vard":6114,"Ġnakv":6115,"Ġnorisi":6116,"tvar":6117,"ĠparduotuvÄĹs":6118,"Ġtaup":6119,"Ġesm":6120,"Ġaplinka":6121,"Ġgamyba":6122,"Ġlauke":6123,"Ġmokytoja":6124,"Ġjan":6125,"Ġatrad":6126,"lin":6127,"Ġreguliar":6128,"Ġpirmieji":6129,"ĠpoÅ¾ym":6130,"Ġaleksand":6131,"Ġdalykus":6132,"Ġspaudos":6133,"pvz":6134,"Ġkainuoja":6135,"ĠpaÅ¡nek":6136,"ĠÅ¾odÅ¾io":6137,"ÄĹjimai":6138,"Ġpatiko":6139,"ĠiÅ¡silav":6140,"etu":6141,"ojimus":6142,"ĠriebalÅ³":6143,"ĠÅ¡vei":6144,"engv":6145,"Ġsij":6146,"ĠÅ¡iai":6147,"ĠÅ¡aukÅ¡":6148,"ĠnarÅ¡":6149,"dÅ¾iu":6150,"Ġreklamos":6151,"ĠilgÄħ":6152,"Ġniu":6153,"ĠÄ¯vairios":6154,"ĠperÅ¾iÅ«rÄĹti":6155,"Ġsuman":6156,"ĠtÄĻsi":6157,"Ġbron":6158,"Ġtrumpos":6159,"Ġvalgyti":6160,"ĠuÅ¾aug":6161,"Ġsma":6162,"Ġvadinasi":6163,"Ġtarnyba":6164,"ĠÄ¯vairÅ«s":6165,"ĠatvejÅ³":6166,"ĠpaminÄĹti":6167,"ÄĹjant":6168,"jam":6169,"Ġnepal":6170,"ymais":6171,"Ġskub":6172,"Ġstiklo":6173,"ojimai":6174,"istams":6175,"fa":6176,"âĤ¬":6177,"vÅ³":6178,"Ġaks":6179,"ĠeÅ¾ero":6180,"ĠsÄĹkmÄĹs":6181,"temp":6182,"ĠmaÅ¾a":6183,"Ġkonkurs":6184,"ĠamÅ¾in":6185,"aiko":6186,"terio":6187,"ĠÅ¡ildymo":6188,"Ġprezid":6189,"Ġpertrauk":6190,"________":6191,"lan":6192,"ĠÄ¯spÅ«":6193,"Ġkauk":6194,"Ġnepapras":6195,"Äįias":6196,"ĠdoleriÅ³":6197,"ns":6198,"Ġuog":6199,"ĠlaimÄĹ":6200,"Ġpoilsio":6201,"Ġvietoj":6202,"ÄĹsti":6203,"ĠkokybÄĹ":6204,"68":6205,"ario":6206,"):":6207,"ininkui":6208,"ĠÅ¾av":6209,"Ġinstitucijos":6210,"Ġkinijos":6211,"Ġnorime":6212,"ĠÄ¯gyvendinimo":6213,"Ġnaf":6214,"lament":6215,"ĠkalbÅ³":6216,"Ġsocialinio":6217,"ĠÅ¾odÅ¾ius":6218,"ĠauklÄĹ":6219,"ĠsekmadienÄ¯":6220,"ilo":6221,"Ġ32":6222,"Ġburn":6223,"Ġsiekiama":6224,"esniu":6225,"ausiais":6226,"Ġvienuol":6227,"Å¾ini":6228,"pild":6229,"ĠsÄħjunga":6230,"ĠpriemonÄĹmis":6231,"Ġpasitel":6232,"Ġambas":6233,"Ġsimp":6234,"Ġsimbol":6235,"Ġapsauga":6236,"telÄĹje":6237,"08":6238,"ysi":6239,"Ġkitam":6240,"Ġdvid":6241,"Ġastr":6242,"Ġvnt":6243,"ĠsÄħnaud":6244,"Ġvadinamas":6245,"Ġpolitika":6246,"ĠÅ¾emiau":6247,"Ġstul":6248,"teks":6249,"ĠpriÅ¾iÅ«r":6250,"aukite":6251,"ininkÄĹs":6252,"Ġprogramas":6253,"Ġpersonal":6254,"ĠlaikotarpÄ¯":6255,"sko":6256,"ĠposÄĹ":6257,"Ġapgyvend":6258,"ĠdÅ¾in":6259,"Ġorganizacija":6260,"ĠgrÄħÅ¾in":6261,"Ġporeik":6262,"Ġabs":6263,"Ġsusidom":6264,"Ġdalimi":6265,"ĠÅ¾odis":6266,"Ġatsisk":6267,"prÄĻs":6268,"ovi":6269,"alinio":6270,"Ġateina":6271,"ega":6272,"Ġsukelti":6273,"Ġdaugiab":6274,"Ġvals":6275,"Ġtaisykles":6276,"ong":6277,"alÄ¯":6278,"tiÅ¡ka":6279,"Ġpersik":6280,"aver":6281,"Ġgrai":6282,"ĠrÅ«mÅ³":6283,"ĠkelionÄĹ":6284,"Ġiii":6285,"Ġrekomenduojama":6286,"Ġpasireng":6287,"telÄ¯":6288,"Ġpasaulinio":6289,"Ġtiesiai":6290,"Ġmados":6291,"zo":6292,"ĠiÅ¡Å¡Å«":6293,"Ġbute":6294,"ĠvardÄħ":6295,"ĠpaplÅ«d":6296,"otÅ³":6297,"Ġekskurs":6298,"Ġatrasti":6299,"Ġxix":6300,"Ġreklam":6301,"Ġpasinaudoti":6302,"pak":6303,"ĠÅ¾emÄĻ":6304,"Ġinstruk":6305,"38":6306,"Ġatstat":6307,"paÅ¾ind":6308,"ĠkelioniÅ³":6309,"anÄįioms":6310,"ĠÄĹm":6311,"ĠbokÅ¡":6312,"Ġveiksmus":6313,"etus":6314,"ĠapibrÄĹÅ¾":6315,"Ġaplinkoje":6316,"Ġsvetain":6317,"Ġsveiki":6318,"ĠÄ¯rengti":6319,"ĠmaÅ¾as":6320,"Å¡kumo":6321,"ĠabiejÅ³":6322,"Ġparodos":6323,"Ġpriori":6324,"Ġaustr":6325,"ĠvieÅ¡Å³jÅ³":6326,"okr":6327,"tinÄħ":6328,"ijomis":6329,"02":6330,"tinÄĹmis":6331,"Ġmaz":6332,"Ġpalyd":6333,"Ġatak":6334,"ĠbÅ«klÄĹ":6335,"Ġekspon":6336,"ler":6337,"Ġbaldai":6338,"Ġvili":6339,"ĠiÅ¡bandyti":6340,"Ġpaskirties":6341,"Ġmu":6342,"Ġvaikais":6343,"ĠneÅ¡ioj":6344,"Ġnamas":6345,"Ġvaldyti":6346,"Ġvalymo":6347,"Ġdarbe":6348,"ĠÅª":6349,"Ġtinkami":6350,"tep":6351,"ĠinvesticijÅ³":6352,"ĠÅ¾odÅ¾iai":6353,"ieriÅ³":6354,"Ġspecializ":6355,"Ġpagrindu":6356,"Ġsutaup":6357,"Ġeli":6358,"yÄįiau":6359,"Ġisl":6360,"Ġpristatymo":6361,"ĠpareiÅ¡kÄĹ":6362,"Ġprojektus":6363,"ĠliteratÅ«r":6364,"ĠnacionalinÄĹs":6365,"Ġprasme":6366,"ĠsÄħvok":6367,"Ġviln":6368,"ĠnegalÄĹjo":6369,"Ġadresas":6370,"ĠgamintojÅ³":6371,"Ġmateri":6372,"sd":6373,"ĠpapildomÅ³":6374,"nelyg":6375,"Ġmedienos":6376,"Ġimtis":6377,"Ġvartojimo":6378,"Ġmerginos":6379,"stÅ³":6380,"ĠiÅ¡var":6381,"lais":6382,"ĠmokÄĹjimo":6383,"aiÄįio":6384,"Ġrenginys":6385,"Ġleido":6386,"Ġizra":6387,"her":6388,"Ġsantykiai":6389,"ĠvarÅ¾ybÅ³":6390,"Ġfas":6391,"amÄħjÄ¯":6392,"Ġgalios":6393,"Ġ~":6394,"Ġatsakyti":6395,"Ġ()":6396,"ji":6397,"Ġnuosto":6398,"ĠsveÄįiai":6399,"âĢľ)":6400,"Ġpapli":6401,"ĠpanevÄĹÅ¾":6402,"vyr":6403,"uojanti":6404,"Ġlop":6405,"ĠÅ¡venÄįi":6406,"Ġnuomos":6407,"ĠtroÅ¡k":6408,"Ġkuriai":6409,"Ġmagistr":6410,"entams":6411,"emon":6412,"aÅ¾u":6413,"ĠkrikÅ¡":6414,"kel":6415,"Ġrodik":6416,"ĠsumaiÅ¡":6417,"Ġpaki":6418,"fil":6419,"Ġeig":6420,"Ġpasiv":6421,"ĠprieÅ¡tar":6422,"timen":6423,"ologija":6424,"Ġpinigai":6425,"Ġho":6426,"Ġnukent":6427,"Ġbut":6428,"Ġsald":6429,"ĠdaugelÄ¯":6430,"Ġpail":6431,"Ġnugal":6432,"ĠiÅ¡laidÅ³":6433,"ĠlaipsniÅ³":6434,"Ġterap":6435,"akyti":6436,"ĠlÅ«k":6437,"Ġnarko":6438,"ĠtikrÅ³":6439,"Ġrizikos":6440,"ĠnuoÅ¡ir":6441,"Ġmetalo":6442,"Ġinstituto":6443,"Ġjuose":6444,"anÄįiame":6445,"Ġpagaminti":6446,"Ġsteig":6447,"yÄįiÅ³":6448,"ner":6449,"Ġpirmen":6450,"Ġnom":6451,"arb":6452,"Ġpristatyti":6453,"Ġilius":6454,"ĠsupaÅ¾ind":6455,"Ġjoms":6456,"67":6457,"Ġkank":6458,"inoje":6459,"37":6460,"strak":6461,"Ġteritorijos":6462,"ĠbÅ«dÄħ":6463,"Ġjub":6464,"ĠiÅ¡naud":6465,"tuk":6466,"Ġhor":6467,"ĠtriukÅ¡":6468,"31":6469,"Ġsakyti":6470,"ĠdidesnÄĹ":6471,"Ġnukreip":6472,"ĠneÅ¾ino":6473,"Ġtinklalap":6474,"ĠatpaÅ¾":6475,"Ġlaikomas":6476,"ĠfilmÅ³":6477,"Ġapskaitos":6478,"vili":6479,"kis":6480,"Ġatsisakyti":6481,"ĠÅ¡eimoje":6482,"Ġgydytojas":6483,"Ġgyventojams":6484,"ĠÅ¾enklas":6485,"ĠidÄĹjos":6486,"ĠsostinÄĹs":6487,"Ġnepag":6488,"Ġpernelyg":6489,"Ġvadovo":6490,"aviÄįiaus":6491,"ĠsavaitgalÄ¯":6492,"enta":6493,"ininkÄħ":6494,"ĠnuomonÄĻ":6495,"Ġ2003":6496,"ĠsÄħj":6497,"Ġpark":6498,"Ġkorpus":6499,"ĠvirtuvÄĹs":6500,"raÅ¾":6501,"autas":6502,"atÄĹs":6503,"ĠvieÅ¡ojo":6504,"rad":6505,"Ġprovin":6506,"tija":6507,"ĠiÅ¡tik":6508,"ÄĹjais":6509,"Ġgaminti":6510,"ĠplanÄħ":6511,"ÄĹdama":6512,"ĠÅ¾inau":6513,"ĠdidÅ¾iausiÅ³":6514,"Ġaplankyti":6515,"ĠmokesÄįio":6516,"aikÄĹ":6517,"ĠpelnÄĹ":6518,"Ġvaiku":6519,"ĠkÄĻs":6520,"Ġeuro":6521,"Ġnumatyta":6522,"into":6523,"Ġdarbdav":6524,"ĠÅ¡okiÅ³":6525,"Ġdalykai":6526,"Ġknygoje":6527,"ĠmarÅ¡kinÄĹ":6528,"Ġjono":6529,"ĠÅ¾ol":6530,"iuose":6531,"rie":6532,"48":6533,"Ġvyro":6534,"Ġlicen":6535,"Ġnaudojamos":6536,"Ġph":6537,"Ġjungi":6538,"Ġjauk":6539,"Ġsupra":6540,"Ġlangai":6541,"Ġord":6542,"Ġadvok":6543,"ĠteÅ¡":6544,"Ġsistemoje":6545,"ĠvieÅ¡b":6546,"Ġvizi":6547,"Ġsurasti":6548,"tingÄħ":6549,"ĠvarÅ¾ybose":6550,"acinÄĹs":6551,"ĠnorÄĹtÅ³":6552,"amieji":6553,"Ġreglamen":6554,"over":6555,"ĠÄ¯pro":6556,"ĠryÅ¡iÅ³":6557,"Ġvadovai":6558,"Ġ$":6559,"ukti":6560,"ĠryÅ¡io":6561,"ÄĹsiu":6562,"ĠdÅ«":6563,"Ġpalaikyti":6564,"ĠmaistÄħ":6565,"ĠpaÅ¡alinti":6566,"Ġpakab":6567,"Ġpakrant":6568,"Ġvakare":6569,"Ġkitur":6570,"pjaus":6571,"Ġlaisvai":6572,"Ġpatirtimi":6573,"tenka":6574,"Ġsutr":6575,"Ġgreit":6576,"ĠprocesÄħ":6577,"ĠlaisvÄĻ":6578,"36":6579,"Ġskalb":6580,"ĠerdvÄĹje":6581,"ĠtaisyklÄĹs":6582,"amoji":6583,"riÅ¡":6584,"Ġnepakank":6585,"Ġark":6586,"ĠketvirtadienÄ¯":6587,"eidimo":6588,"ĠtikslÅ³":6589,"tvirtin":6590,"kiui":6591,"Ġagres":6592,"Ġpilnai":6593,"Ġgaud":6594,"iniÅ¡kai":6595,"Ġvartoti":6596,"ĠgraÅ¾us":6597,"Ġmokytojai":6598,"Ġpaliko":6599,"Ġsenam":6600,"plan":6601,"Ġapima":6602,"ĠsienÅ³":6603,"ĠÄįempionato":6604,"Ġsimptom":6605,"ĠpaÅ¾iÅ«r":6606,"Ġlaisvalai":6607,"darb":6608,"Ġpaprastas":6609,"ĠuÅ¾baig":6610,"Ġfili":6611,"oriai":6612,"Ġranka":6613,"ĠÄ¯dieg":6614,"Ġilgalaik":6615,"Ġtransli":6616,"Ġliz":6617,"tienÄĹ":6618,"ĠvaidmenÄ¯":6619,"ĠdeÅ¡imtme":6620,"Ġpuosel":6621,"Å¡l":6622,"Ġtenis":6623,"Ġdvaro":6624,"menis":6625,"ĠvaikÄħ":6626,"tuvo":6627,"Ġstogo":6628,"Ġsprendimai":6629,"iÅ³jÅ³":6630,"Ġbendrauti":6631,"ĠlÅ«kes":6632,"ĠprocentÅ³":6633,"nors":6634,"Å¾iaug":6635,"terap":6636,"ĠkÄĹda":6637,"Ġkros":6638,"ĠpartizanÅ³":6639,"ĠdaiktÅ³":6640,"ĠsvarbiausiÅ³":6641,"ĠkÅ«rybos":6642,"ĠatstovÅ³":6643,"Ġkategorijos":6644,"Ġpasidar":6645,"Ġpyk":6646,"eriais":6647,"Ġpaskyr":6648,"entÄħ":6649,"amais":6650,"ĠÄħÅ¾":6651,"ĠvieÅ¡ai":6652,"Ġgimimo":6653,"ĠÅ¡alys":6654,"Ġatvyko":6655,"................":6656,"Ġkepur":6657,"Ġsuvar":6658,"Ġfinansavimo":6659,"engÄĹ":6660,"ĠtikÄĹtis":6661,"Ġkun":6662,"Ġteg":6663,"fe":6664,"astr":6665,"Ġvaliu":6666,"Ġpoez":6667,"maÅ¾":6668,"eigu":6669,"otos":6670,"Ġvin":6671,"lij":6672,"Ġatkreipti":6673,"ĠidÄĹjÅ³":6674,"Ġpros":6675,"Ġsrityse":6676,"ĠbendruomenÄĹ":6677,"eidÄĹ":6678,"ĠkÅ«di":6679,"ha":6680,"Ġsoci":6681,"Ġnacionalinio":6682,"Ġpreki":6683,"ĠmaÅ¾iausiai":6684,"Ġpriklausomai":6685,"ĠkomandÄħ":6686,"Ġpasien":6687,"ĠÅ¡ventÄĻ":6688,"Ġadresu":6689,"jeigu":6690,"39":6691,"Ġkokiu":6692,"tojui":6693,"Ġspausd":6694,"indami":6695,"ĠsulaukÄĹ":6696,"teik":6697,"zas":6698,"Ġ39":6699,"bod":6700,"Ġsekre":6701,"Ġpvm":6702,"Ġtoje":6703,"Ġnurodyti":6704,"Ġnenaud":6705,"ĠdidÅ¾iausiÄħ":6706,"Ġstraipsnyje":6707,"ĠrungtyniÅ³":6708,"Ġseksual":6709,"Ġspinduli":6710,"ĠtreÄįiadienÄ¯":6711,"girio":6712,"ĠmaÄį":6713,"yÅ¾":6714,"Ġplano":6715,"usiu":6716,"370":6717,"ĠnuotraukÅ³":6718,"Ġstatyti":6719,"eikÅ¡ti":6720,"Ġmergait":6721,"34":6722,"ĠnorÄĹjo":6723,"Ġpateikia":6724,"Ġapsaugoti":6725,"ĠtyrimÄħ":6726,"Ġjapon":6727,"Ġkub":6728,"ido":6729,"ĠiÅ¡sami":6730,"Ġakcijos":6731,"ĠvaistÅ³":6732,"anÄįiomis":6733,"Ġsveikata":6734,"ĠtvarkÄħ":6735,"Ġkaup":6736,"ĠprancÅ«zÅ³":6737,"ĠtinkamÄħ":6738,"Ġgamta":6739,"Ġpasieki":6740,"Ġveterinar":6741,"Ġpristatymas":6742,"Ġsugalv":6743,"Ġminutes":6744,"ĠvaisiÅ³":6745,"ybiniÅ³":6746,"Ġskland":6747,"Ġdiplom":6748,"Å¾ÄĹ":6749,"ĀĀĀĀĀĀĀĀĀĀĀĀĀĀĀĀ":6750,"Ġarom":6751,"tiniame":6752,"ĠdrÄħs":6753,"Ġdebi":6754,"Ġtokiais":6755,"Ġsuom":6756,"Ġgraf":6757,"Ġautori":6758,"Ġrefer":6759,"ĠpaÄįiam":6760,"Ġteisingai":6761,"Ġapk":6762,"zdÅ¾iai":6763,"ÄĹlyje":6764,"Ġsuvo":6765,"ĠjungtinÄĹs":6766,"Ġreikalavimai":6767,"keviÄįius":6768,"ĠatsakomybÄĹs":6769,"Ġbando":6770,"ĠvirÅ¡Å«n":6771,"Ġreglament":6772,"ĠÄ¯statymas":6773,"ĠaukÅ¡to":6774,"Ġenergija":6775,"Ġveidrod":6776,"Ġlaikytis":6777,"gÄĹ":6778,"Ġkondi":6779,"Ġparamet":6780,"ĠÅ¾ymiai":6781,"ytojams":6782,"Ġryto":6783,"Ġteb":6784,"Ġsilpn":6785,"ĠketuriÅ³":6786,"ĠrytÄħ":6787,"\":":6788,"ĠÄ¯tam":6789,"100":6790,"Ġkaln":6791,"inosi":6792,"Ġdainos":6793,"Ġcukraus":6794,"Ġtinkamas":6795,"Ġbene":6796,"avÄĹ":6797,"Ġmobil":6798,"Äħsias":6799,"ĠsudÄĹtyje":6800,"inanÄįiÅ³":6801,"ĠpaÅ¾as":6802,"Ġ2019":6803,"riu":6804,"Ġukmerg":6805,"Ġmaki":6806,"ĠÃ":6807,"ininkais":6808,"Ġcitr":6809,"oriaus":6810,"ĠgÄĹliÅ³":6811,"ĠsudÄĹtinga":6812,"ĠaukÅ¡Äįio":6813,"cas":6814,"Ġvadinama":6815,"ĠÅ¡ir":6816,"ĠmedÅ¾iok":6817,"Ġsavaime":6818,"dÄħ":6819,"ĠplaÄįiai":6820,"Ġutenos":6821,"ĠiÅ¡kr":6822,"Ġnuotek":6823,"Ġkalbant":6824,"pia":6825,"ĠÄ¯tvirtin":6826,"Ġ55":6827,"Å«rio":6828,"ĠprieÅ¾iÅ«ra":6829,"ĠpriekÄ¯":6830,"Ġcivi":6831,"Ġpanaudoti":6832,"Ġatkur":6833,"Ġparink":6834,"Ġstaiga":6835,"Ġrealiz":6836,"ĠpalÅ«k":6837,"alyv":6838,"ĠdÄĹmesys":6839,"Ġnuotraukas":6840,"ĠÅ¾ud":6841,"ĠpraÅ¡ymÄħ":6842,"Ġbyloje":6843,"ĠiÅ¡lieka":6844,"epi":6845,"Ġtuoj":6846,"ĠmilÅ¾ini":6847,"Ġpatogi":6848,"Ġnaudos":6849,"ĠÅ¾uvo":6850,"ĠÄ¯l":6851,"Ġmokymosi":6852,"Ġkonkurse":6853,"iÅ³s":6854,"sid":6855,"Ġpadidinti":6856,"Ġretai":6857,"ĠpripaÅ¾inti":6858,"Ġkret":6859,"eu":6860,"ĠlygÄ¯":6861,"ĠgrÄ¯Å¾ti":6862,"ÄĹles":6863,"ĠmÄĹsos":6864,"inskas":6865,"Ġgausi":6866,"Ġsaugo":6867,"Ġfunkcijas":6868,"Ġrai":6869,"Ġpateikiami":6870,"ĠiÅ¡vys":6871,"2018":6872,"ĠerdvÄĹs":6873,"ĠarchitektÅ«ros":6874,"iel":6875,"Ġpavyzdys":6876,"ijimo":6877,"ĠpareigÅ«n":6878,"Ġremonto":6879,"Ġsprog":6880,"Ġnaudinga":6881,"ĠkÄĻstu":6882,"Ġbraz":6883,"88":6884,"zon":6885,"ener":6886,"eba":6887,"als":6888,"tebi":6889,"gia":6890,"ĠpirmÅ³jÅ³":6891,"odamas":6892,"indamas":6893,"ĠkatalikÅ³":6894,"Ġpakil":6895,"Ġabejo":6896,"Ġjauni":6897,"ĠpaplÅ«dim":6898,"ĠatostogÅ³":6899,"Ġparem":6900,"ĠÅ¾emÄĹ":6901,"Ġtenk":6902,"ĠÅ¡altinis":6903,"gas":6904,"Ġlent":6905,"ĠÄ¯sis":6906,"Ġmobili":6907,"tiek":6908,"Ġsc":6909,"iii":6910,"vy":6911,"unka":6912,"ĠÄ¯kÅ«r":6913,"Ġrobo":6914,"ĠiÅ¡tr":6915,"ĠsudÄĹti":6916,"Ġkelyje":6917,"Ġsukil":6918,"Ġnato":6919,"alias":6920,"Ġautomobiliai":6921,"Ġvisuomenei":6922,"Ġkeliais":6923,"Ġsukaup":6924,"Ġatskirai":6925,"ĠiÅ¡tir":6926,"ĠsmÄĹlio":6927,"ĠprieÅ¾iÅ«r":6928,"Ġliet":6929,"Ġpraleisti":6930,"Ġklientams":6931,"Ġprigim":6932,"Ġlu":6933,"Ġdemokra":6934,"Ġdarbui":6935,"ĠmeilÄĻ":6936,"Ġspus":6937,"line":6938,"Ġstovi":6939,"tyr":6940,"Ġistorijoje":6941,"Ġmanoma":6942,"ÄįiÅ³jÅ³":6943,"tiems":6944,"ĠÅ¡eimai":6945,"Ġteisingumo":6946,"igr":6947,"all":6948,"Ġnesud":6949,"ĠâĨ":6950,"ĠpateikÄĹ":6951,"Ġkainas":6952,"Ġdraugai":6953,"Ġgreta":6954,"Ġatsipalaid":6955,"ĠsukÅ«r":6956,"Ġ<":6957,"ygos":6958,"ĠgeriausiÄħ":6959,"ĠdÅ¾iaugsm":6960,"avie":6961,"ĠiÅ¡saugoti":6962,"Ġegzistuoja":6963,"Ġpoj":6964,"isti":6965,"Ġkombin":6966,"69":6967,"Ġidenti":6968,"kiÄħ":6969,"Ġprag":6970,"Ġtamsiai":6971,"ĠsaulÄĹ":6972,"Ġpalengv":6973,"Ġniekur":6974,"entu":6975,"ynai":6976,"Ġnusk":6977,"Ġabso":6978,"Ġpirmininko":6979,"ĠskirtÄħ":6980,"Ġbalk":6981,"ĠuÅ¾mokes":6982,"Ġmug":6983,"Ġ44":6984,"Ġsusijusi":6985,"Ġkeram":6986,"Ġpokal":6987,"Ġparag":6988,"vilniaus":6989,"ĠÅ¡er":6990,"taÄįiau":6991,"Ġpatvirtino":6992,"praÅ¡":6993,"ãĤ¢ãĤ¢ãĤ¢ãĤ¢":6994,"Ġbakteri":6995,"Ġpropag":6996,"ĠperÅ¾iÅ«r":6997,"tikas":6998,"ĠpasiprieÅ¡":6999,"ĠvieÅ¡osios":7000,"ĠÅ¾id":7001,"ĠantradienÄ¯":7002,"Ġpardavimo":7003,"ingais":7004,"ĠkaÅ¾kur":7005,"ĠvaÅ¾":7006,"Ġelgesio":7007,"ĠÄ¯tik":7008,"ininkystÄĹs":7009,"ĠjÄĹgos":7010,"zmas":7011,"Ġpy":7012,"Ġlat":7013,"Ġvidurio":7014,"Ġmic":7015,"Ġpriesk":7016,"ortimen":7017,"Ġbendri":7018,"ÄĹtinai":7019,"Ġitalijos":7020,"Ġnugar":7021,"Ġfail":7022,"anÄįioje":7023,"ĠaukÅ¡Äįiau":7024,"Ġdokumentai":7025,"uolis":7026,"ĠsudÄĹtis":7027,"Ġlemia":7028,"ĠrÅ«b":7029,"Ġkatalog":7030,"Ġprofil":7031,"Ġnever":7032,"Ġtank":7033,"ĠÅ¡okol":7034,"ted":7035,"ĠdovanÅ³":7036,"Ġtyl":7037,"Ġpakvies":7038,"kaiÄįi":7039,"Ġpiliakal":7040,"ĠpabrÄĹ":7041,"ĠkÄĹ":7042,"iliej":7043,"Ġmui":7044,"ĠpilieÄįiÅ³":7045,"ĠpirmadienÄ¯":7046,"ĠÄ¯veikti":7047,"ĠnesÄĹk":7048,"oviz":7049,"ĠtinklÅ³":7050,"ĠÅ¾vel":7051,"Ġsir":7052,"gus":7053,"ĠgerÅ³":7054,"epar":7055,"Ġkalbama":7056,"ilas":7057,"ze":7058,"ĠbaigÄĹsi":7059,"indo":7060,"ĠpriklausÄĹ":7061,"Ġarche":7062,"Ġaval":7063,"ĠÄ¯sim":7064,"ĠpojÅ«":7065,"ĠiÅ¡mokti":7066,"ĠdrabuÅ¾iÅ³":7067,"Ġsmarkiai":7068,"Ġlinijos":7069,"ĠsprendÅ¾i":7070,"teliai":7071,"ÄĹlius":7072,"ĠkÅ«nÄħ":7073,"ĠraÅ¡oma":7074,"ĠÄįempionate":7075,"labai":7076,"Ġdemonstr":7077,"ynÄĻ":7078,"ĠsavivaldybÄĹje":7079,"Ġkarjeros":7080,"aisv":7081,"Ġpakeitimo":7082,"Ġrol":7083,"eikal":7084,"ĠÄ¯traukti":7085,"ume":7086,"Ġobjektyv":7087,"ĠpaÅ¾inti":7088,"ĠÄ¯mok":7089,"ĠbÅ«sto":7090,"Ġpigiau":7091,"85":7092,"ĠkruopÅ¡":7093,"Ġurb":7094,"Ġgyvenvie":7095,"ĠpadÄĹtÄ¯":7096,"tein":7097,"umuli":7098,"uotus":7099,"ĠruoÅ¾":7100,"Ġperdirb":7101,"ĠpriÄĹmimo":7102,"Ġplak":7103,"Ġmem":7104,"ĠÅ¡aud":7105,"ĠvarÅ¾ybos":7106,"ĠÅ¡aldy":7107,"Ġperson":7108,"Ġmetas":7109,"ĠribÅ³":7110,"ĠnorÄĹÄįiau":7111,"Ġlygis":7112,"Ġ65":7113,"emp":7114,"Ġsvog":7115,"Å¡io":7116,"ĠdÅ¾iaugs":7117,"Ġbiolog":7118,"iena":7119,"Ġplanavimo":7120,"Ġemoc":7121,"alais":7122,"ĠneturÄĹtÅ³":7123,"Ġban":7124,"kiek":7125,"Ġprodukto":7126,"Ġasortimen":7127,"ĠÅ¾odÅ¾iu":7128,"zdÅ¾io":7129,"onuose":7130,"Ġvaizdas":7131,"ĠformÅ³":7132,"iesÄįio":7133,"Ġvidutinio":7134,"ĠvaÅ¾iuoti":7135,"ute":7136,"Ġaugin":7137,"ff":7138,"Ġsakoma":7139,"Ġbos":7140,"Ġpeln":7141,"Ġrankos":7142,"ĠÄ¯vykiÅ³":7143,"ĠkalÄĹdÅ³":7144,"oto":7145,"ĠÄ¯m":7146,"Ġstengiasi":7147,"ĠparamÄħ":7148,"usiam":7149,"Ġnetol":7150,"ĠatkÅ«rimo":7151,"sul":7152,"Ġfunkcija":7153,"Ġ2002":7154,"Äħmon":7155,"ĠneÄ¯pras":7156,"Å«na":7157,"ren":7158,"tÄħjÄ¯":7159,"Ġkabin":7160,"ĠÅ¾emÄĹje":7161,"sh":7162,"europ":7163,"Ġskelbia":7164,"ĠÅ¾aidimÄħ":7165,"Ġstudijos":7166,"Ġantrojo":7167,"Ġ75":7168,"Ġlub":7169,"ĠatvaÅ¾i":7170,"Ġinstrumen":7171,"jungi":7172,"Ġkontra":7173,"Ġtariant":7174,"Ġrit":7175,"ĠjÄĹgÅ³":7176,"ĠlÅ«p":7177,"Ġtarnau":7178,"Ġparduoti":7179,"ĠprisipaÅ¾":7180,"Ġelgtis":7181,"tose":7182,"ĠgrindÅ³":7183,"ÄĹjimui":7184,"Ġantanas":7185,"Ġsavaites":7186,"Ġskyriuje":7187,"Ġviduryje":7188,"Ġsiuv":7189,"Ġbuhal":7190,"Ġcikl":7191,"entÄĹs":7192,"Ġdraugijos":7193,"ĠpavirÅ¡iaus":7194,"aujama":7195,"Ġturintis":7196,"ĠpadÄĹtis":7197,"Ġnuom":7198,"Ġkolon":7199,"Ġklausimai":7200,"ĠkelnÄĹs":7201,"ĠpaÅ¾vel":7202,"Ġkelios":7203,"Ġfar":7204,"?âĢľ":7205,"ĠbuvÄĻ":7206,"Ġparkas":7207,"ĠpaskutinÄ¯":7208,"Ġseptyn":7209,"Ġkompiuterio":7210,"Ġlag":7211,"ĠiÅ¡leido":7212,"uotÄĹ":7213,"eÄįiai":7214,"uojantys":7215,"Ġskur":7216,"iÅ¡kiÅ³":7217,"ĠpaaiÅ¡kÄĹjo":7218,"epia":7219,"Ġsmagu":7220,"ĠeilÄĹraÅ¡":7221,"Ġmatema":7222,"ĠturtÄħ":7223,"Ġvalandos":7224,"Ġnat":7225,"alijos":7226,"elÄĹmis":7227,"Ġkamp":7228,"Ġrevoliu":7229,"ĠligoninÄĹs":7230,"sc":7231,"ĠtemperatÅ«ros":7232,"Ġnoras":7233,"Ġbendro":7234,"ĠiÅ¡tekliÅ³":7235,"tinÅ³":7236,"--------":7237,"ĠpraneÅ¡ime":7238,"ĠÄ¯ved":7239,"timu":7240,"Ġterminas":7241,"Ġprogramoje":7242,"esniam":7243,"uto":7244,"Ġsvoris":7245,"Ġpasitar":7246,"umb":7247,"Ġlaboratori":7248,"atÄĹ":7249,"ĠÅ¾iau":7250,"Ġturintys":7251,"95":7252,"Ġmamos":7253,"Ġpasveik":7254,"omu":7255,"iep":7256,"Ġregione":7257,"dabar":7258,"uodama":7259,"Ġnegaliu":7260,"Ġiniciatyva":7261,"ĠjauÄįiasi":7262,"Ġpusry":7263,"Ġpateko":7264,"Ġsupjaus":7265,"ml":7266,"Ġvirtu":7267,"Ġkeliau":7268,"yklÄĹs":7269,"ĠautomatiÅ¡kai":7270,"Ġnebeg":7271,"Ġkitoje":7272,"Ġrenkasi":7273,"ovos":7274,"ĠtÄĹvo":7275,"fl":7276,"ĠnagrinÄĹj":7277,"Ġorganizuoja":7278,"ozi":7279,"Ġpagalb":7280,"Ġpirmo":7281,".\"":7282,"Ġparlamento":7283,"ĠsiekÄĹ":7284,"Ġstabil":7285,"Ġblogai":7286,"Ġgalva":7287,"Ġmeras":7288,"pirm":7289,"ĠdÅ¾ins":7290,"Ġkompon":7291,"ĠsÄħÅ¾in":7292,"Ġvonios":7293,"insime":7294,"Ġpastaruoju":7295,"ĠpriÄĹmÄĹ":7296,"ĠtrakÅ³":7297,"Ġteigiama":7298,"Ġoland":7299,"Ġkenk":7300,"pasak":7301,"32":7302,"ĠvadovÅ³":7303,"ĠryÅ¾":7304,"ĠsumÄħ":7305,"Ġpavasario":7306,"Ġkovoti":7307,"ĠtiesÄħ":7308,"Ġpagamintas":7309,"Ġpagrindas":7310,"Ġtarpusavyje":7311,"Ġpartner":7312,"Ġ400":7313,"Ġstudijas":7314,"Ġnuoty":7315,"Ġverslas":7316,"Ġtor":7317,"Ġpatogus":7318,"Ġrankomis":7319,"aikÅ¡Äįi":7320,"vaik":7321,"Ġ42":7322,"ĠbritÅ³":7323,"ieÄįiams":7324,"eistÅ³":7325,"ĠneÄ¯tik":7326,"Ġpuikios":7327,"Ġstudentai":7328,"Ġnepavyko":7329,"ĠpoÅ¾iÅ«ris":7330,"Ġskelbimai":7331,"Ġpadovan":7332,"Ġtarpusavio":7333,"ĠturinÄ¯":7334,"Ġserijos":7335,"za":7336,"Ġpiln":7337,"Ġaptik":7338,"Ġplieno":7339,"Ġabsoliu":7340,"Ġorganizmo":7341,"Ġatsinauj":7342,"Ġaliejus":7343,"ĠkÅ«nas":7344,"Ġginkl":7345,"Ġkeliauti":7346,"Ġpagrindiniai":7347,"nÄ¯":7348,"Ġsenov":7349,"likos":7350,"Å£":7351,"tele":7352,"Ġoras":7353,"ĠdirÅ¾":7354,"Ġsiej":7355,"tingÅ³":7356,"Ñĥ":7357,"Ġ48":7358,"ĠvidutiniÅ¡kai":7359,"organiz":7360,"ĠneiÅ¡v":7361,"Ġasmeniui":7362,"Ġpama":7363,"liukas":7364,"ĠprieÅ¡ingai":7365,"lic":7366,"Ġskun":7367,"Ġgre":7368,"Ġkampan":7369,"anÄįiÅ³jÅ³":7370,"Ġ2001":7371,"ytoja":7372,"Ġmoka":7373,"ĠneturÄĹjo":7374,"Ġvykdo":7375,"Ġskiria":7376,"Ġfi":7377,"ĠiÅ¡laidas":7378,"Ġlaz":7379,"zÄĻ":7380,"antr":7381,"Ġryte":7382,"pra":7383,"Ġpigi":7384,"Ġduoti":7385,"Ġeleg":7386,"onÄĹ":7387,"ĠprieÅ¾asties":7388,"vol":7389,"ĠsparÄįiai":7390,"64":7391,"ĠcentrÄħ":7392,"ankiÅ¡k":7393,"Ġnekilnojamojo":7394,"Ġskatinti":7395,"tver":7396,"Ġik":7397,"uno":7398,"Ġskirtum":7399,"ojÄĻs":7400,"fon":7401,"Ġuosto":7402,"Ġtomas":7403,"ambl":7404,"aliais":7405,"Ġsujung":7406,"ĠkilometrÅ³":7407,"ardas":7408,"Ġkoncep":7409,"ĠuÅ¾ima":7410,"Ġdaugeliui":7411,"ĠpramogÅ³":7412,"Ġknygas":7413,"ĠsusijusiÅ³":7414,"klas":7415,"ĠnaujienÅ³":7416,"cijose":7417,"ĠiÅ¡kovojo":7418,"Ġdrusk":7419,"Ġ1000":7420,"Ġ;":7421,"anu":7422,"air":7423,"ĠbÅ«dais":7424,"ĠiÅ¡laidos":7425,"Ġpasto":7426,"ĠraumenÅ³":7427,"ĠpastangÅ³":7428,"Ġjose":7429,"Ġlaikoma":7430,"Ġprotok":7431,"Ġtikslus":7432,"omÄĹs":7433,"Ġvariklis":7434,"ĠÅ¾odÅ¾iais":7435,"Ġmotinos":7436,"Ġargumen":7437,"enis":7438,"moksl":7439,"Ġperskait":7440,"Ġakademijos":7441,"Ġprepar":7442,"Ġmaud":7443,"ĠgrupÄĻ":7444,"ĠkalnÅ³":7445,"ĠsenovÄĹs":7446,"ĠsiÅ«loma":7447,"Ġkyl":7448,"Ġbio":7449,"Ġkoncent":7450,"Ġkorup":7451,"Ġvaldymas":7452,"ĠmokÄĹ":7453,"istat":7454,"vÄħ":7455,"Ġrudens":7456,"lip":7457,"ĠveikÄĹ":7458,"ĠesanÄįiÅ³":7459,"kiuose":7460,"ue":7461,"ĠsÄħraÅ¡as":7462,"ĠseniÅ«nijos":7463,"eviÄįienÄĹ":7464,"Ġprieig":7465,"Ġsocialdem":7466,"ĠproblemÄħ":7467,"tuotas":7468,"Ġplaukus":7469,"Ġparduodu":7470,"Ġturinio":7471,"Ġjautr":7472,"ĠapraÅ¡o":7473,"Ġsiurb":7474,"tuvÄħ":7475,"tuvÄĹs":7476,"Ġstam":7477,"ĠverslÄħ":7478,"avÅ³":7479,"prez":7480,"Ġgalioj":7481,"Ġsvarbiausias":7482,"Ġkvai":7483,"gb":7484,"ĠkojÅ³":7485,"Ġgynybos":7486,"ĠjÅ«rÅ³":7487,"ĠsavybÄĹs":7488,"Ġmetal":7489,"****":7490,"ĠpastebÄĹjo":7491,"Ġpatiems":7492,"ĠiÅ¡gelb":7493,"ĠpergalÄĻ":7494,"aja":7495,"esniais":7496,"Ġrub":7497,"Ġvisose":7498,"Ġdienai":7499,"telÄĹjo":7500,"ĠnuÅ¡":7501,"77":7502,"Ġelas":7503,"ĠaikÅ¡tÄĹje":7504,"Ġscenar":7505,"ĠÄ¯rangÄħ":7506,"ĠÅ¾iniasklaidos":7507,"Ġprisit":7508,"ĠbandÄĹ":7509,"',":7510,"ĠmedÅ¾iÅ³":7511,"Ġliemen":7512,"uojamÅ³":7513,"ĠvaikÅ¡Äįi":7514,"ĠvÄĹjo":7515,"Ġaksesu":7516,"ĠkliÅ«":7517,"ancijos":7518,"Ġnugaros":7519,"ĠÅ¡eimÅ³":7520,"telÄĹkite":7521,"ĠbÅ«damas":7522,"ĠÅ¾emyn":7523,"Ġatsiskait":7524,"Ġpuslapyje":7525,"Ġmotina":7526,"ĠraÅ¡tu":7527,"Ġproduktas":7528,"ĠvisuomenÄĹ":7529,"Ġpriskir":7530,"ĠbaÅ¾nyÄįioje":7531,"iaus":7532,"ĠsavybiÅ³":7533,"Ġpritaikyti":7534,"ĠrenginÄ¯":7535,"ĠiÅ¡matavimai":7536,"ell":7537,"Ġmaloniai":7538,"Ġgol":7539,"Ġfantas":7540,"ĠsiunÄįi":7541,"ument":7542,"inanti":7543,"Ġdvej":7544,"Ġneri":7545,"oc":7546,"Ġneblog":7547,"rd":7548,"Ġpei":7549,"orai":7550,"vakar":7551,"Ġjausmas":7552,"ĠteritorijÅ³":7553,"mÅ«sÅ³":7554,"Ġnustatytas":7555,"Ġtyrimus":7556,"istas":7557,"Ġmokyklose":7558,"virtina":7559,"Ġbendrojo":7560,"Ġpolicija":7561,"Ġdovana":7562,"Ġtrumpai":7563,"Ġsavaranki":7564,"Ġfab":7565,"ĠaukÅ¡Äįiausios":7566,"Ġnepil":7567,"Ġpatalpos":7568,"ĠmeÅ¡k":7569,"Ġfrak":7570,"Ġreikalingi":7571,"Ġpatogu":7572,"Ġbendrov":7573,"].":7574,"Ġzon":7575,"Ġsuvokti":7576,"Ġporos":7577,"ĠapÅ¾valg":7578,"cio":7579,"ĠdrÄħsiai":7580,"ĠÄ¯tari":7581,"ĠslÄĹp":7582,"ĠpoÅ¾iÅ«riu":7583,"mais":7584,"ĠpriemonÄĻ":7585,"ĠpirkÄĹjas":7586,"Ġkambarys":7587,"Ġtvirtina":7588,"eld":7589,"ĠsavarankiÅ¡k":7590,"lÄĹp":7591,"Ġprofesorius":7592,"Ġindus":7593,"Ġnurodyta":7594,"ĠtaÅ¡kus":7595,"Ġchir":7596,"Ġkristaus":7597,"Ġmitybos":7598,"Ġmodelio":7599,"skaiÄįi":7600,"Ġdarbuotojams":7601,"Å¾d":7602,"Ġskers":7603,"traukia":7604,"Ġpret":7605,"Ġviol":7606,"Ġsusitikimo":7607,"Ġlaukti":7608,"ĠtarptautiniÅ³":7609,"Å¡a":7610,"Ġbol":7611,"Ġorkes":7612,"ĠkÅ«riniÅ³":7613,"Ġpartija":7614,"ÄĹsime":7615,"Ġevang":7616,"Ġteatras":7617,"ĠtikÄĹtina":7618,"Ġinterjero":7619,"ĠskyriÅ³":7620,"ĠdarÅ¾oviÅ³":7621,"Ġpatalpose":7622,"Ġmenk":7623,"Ġprarad":7624,"Ġsvies":7625,"ĠenergijÄħ":7626,"uotu":7627,"Ġdug":7628,"Ġekstr":7629,"Ġmiestuose":7630,"Ġrusijoje":7631,"Ġdaiktus":7632,"Ġnustato":7633,"Ġnut":7634,"Ġveiklai":7635,"Ġkliento":7636,"Ġtvenk":7637,"Ġpraktik":7638,"uolÄ¯":7639,"ĠiÅ¡sprÄĻsti":7640,"ÄĹjusios":7641,"ĠasmeniÅ¡kai":7642,"ĠvÄĹÅ¾":7643,"osiomis":7644,"liko":7645,"xt":7646,"ĠÅ¡uo":7647,"Ġmato":7648,"Ġkituose":7649,"Ġgrafik":7650,"49":7651,"tacijÄħ":7652,"Ġkamuo":7653,"Ġtikro":7654,"amomis":7655,"fal":7656,"Ġjuozas":7657,"bÄĹg":7658,"ĠÅ¾alos":7659,"ple":7660,"ydo":7661,"ĠskirtÅ³":7662,"Ġgraik":7663,"ĠÅ¾ygi":7664,"ĠdidesnÄ¯":7665,"ÄĹmÄĹs":7666,"muose":7667,"anden":7668,"Ġnaftos":7669,"ĠvilkaviÅ¡k":7670,"gam":7671,"Ġvertina":7672,"ĠsveikatÄħ":7673,"tukai":7674,"ĠfinansiniÅ³":7675,"Ġdraugais":7676,"inÄįi":7677,"Ġfestivalis":7678,"ĠmedÅ¾iagas":7679,"ĠpraÅ¡ome":7680,"ĠmÅ«r":7681,"ÄĹÅ¡":7682,"Ġmotocikl":7683,"Ġtolim":7684,"Ġorganizuoti":7685,"ĠpamÄĹg":7686,"Ġmokslas":7687,"ĠlangÅ³":7688,"Ġsuprantama":7689,"Ġpriklausom":7690,"ĠÅ¾an":7691,"ĠiÅ¡min":7692,"Å«ti":7693,"Ġkuriomis":7694,"Ġakumuli":7695,"tini":7696,"ĠÅ¾ymi":7697,"ĠnuotekÅ³":7698,"Ġtemos":7699,"Ġatrankos":7700,"ĠiÅ¡ei":7701,"ĠÄ¯renginiÅ³":7702,"Ġvykusi":7703,"Å¡kiai":7704,"tininkÅ³":7705,"zel":7706,"Ġtarnyb":7707,"ybar":7708,":.":7709,"ojamas":7710,"Ġtrem":7711,"ĠautoriÅ³":7712,"Ġneatsi":7713,"Ġprisiminti":7714,"kam":7715,"agys":7716,"Ġmiestelio":7717,"ĠÄ¯vairiais":7718,"srs":7719,"66":7720,"omb":7721,"Ġasociacija":7722,"ĠprocedÅ«ros":7723,"ĠkreipÄĹsi":7724,"Ġjautri":7725,"ĠryÅ¡Ä¯":7726,"Ġspecialistas":7727,"Ġegi":7728,"Ġjoh":7729,"ĠvienintelÄĹ":7730,"ĠgaminiÅ³":7731,"ĠpolitikÄħ":7732,"ĠaprÅ«p":7733,"pon":7734,"ĠgrÄħÅ¾inti":7735,"abili":7736,"Ġnesp":7737,"Å¡kÄĹs":7738,"Ġniekam":7739,"ä¸":7740,"Ġsutuok":7741,"Ġgran":7742,"ytais":7743,"Ġkreipi":7744,"Ġoficialiai":7745,"ĠdetaliÅ³":7746,"Ġpyrag":7747,"ÄĹÅ¾":7748,"amÄħjÄħ":7749,"bti":7750,"Ġbylos":7751,"aliojo":7752,"ĠmokÄĹsi":7753,"ijaus":7754,"Ġramiai":7755,"ovai":7756,"ikei":7757,"ĠtelÅ¡iÅ³":7758,"Ġnud":7759,"Ġgard":7760,"Ġparama":7761,"Ġalaus":7762,"anc":7763,"ĠÅ¡irdis":7764,"ĠÅ¡a":7765,"ĠÅ¾iÅ«ri":7766,"ĠkaÅ¡":7767,"ĠdrabuÅ¾iai":7768,"Ġpild":7769,"Ġfunkcijos":7770,"imie":7771,"ĠpasiÅ«lymai":7772,"Ġdraudimas":7773,"Ġliek":7774,"Ġparke":7775,"Ġbed":7776,"ĠpabrÄĹÅ¾ÄĹ":7777,"ĠatsakÄĹ":7778,"Ġskonio":7779,"ĠgrÄ¯Å¾o":7780,"utis":7781,"nius":7782,"utÄĹmis":7783,"ĠreikÅ¡mÄĹs":7784,"ĠdirektorÄĹ":7785,"ero":7786,"Ġpagerinti":7787,"ĠpareigÅ³":7788,"Ġuz":7789,"Ġdalyvauj":7790,"Ġangl":7791,"ĠbruoÅ¾":7792,"Å«dÅ¾io":7793,"Ġdiagnoz":7794,"ĠnetikÄĹtai":7795,"Ġnik":7796,"Ġtrumpas":7797,"Ġnepasteb":7798,"Ġveikloje":7799,"Ġalium":7800,"Ġprojekte":7801,"ĠelementÅ³":7802,"Ġvairavimo":7803,"Ġpoveikis":7804,"Ġribo":7805,"ĠÅ¾valg":7806,"ĠparduotuvÄĹ":7807,"Å¡t":7808,"Ġatein":7809,"ĠnuomonÄĹs":7810,"lios":7811,"ĠkovÄħ":7812,"Ġgaila":7813,"Ġnutrauk":7814,"Ġlenkijoje":7815,"ĠÄ¯sakymu":7816,"ovÄħ":7817,"Ġpaslaugomis":7818,"ĠparaÅ¡ÄĹ":7819,"Ġspecif":7820,"umais":7821,"Ġinfo":7822,"Ġnej":7823,"Ġskal":7824,"Ġpastebi":7825,"Ġangel":7826,"oni":7827,"ĠvisuomenÄĹje":7828,"Ġdiskut":7829,"centr":7830,"ĠperveÅ¾":7831,"Ġpagar":7832,"ĠkeiÄįiasi":7833,"ĠsmegenÅ³":7834,"Ġvakaro":7835,"Ġpaslauga":7836,"Ġdvasios":7837,"ĠvilniÅ³":7838,"ĠnarÄĹ":7839,"Ġsuteiks":7840,"86":7841,"Ġdz":7842,"akas":7843,"Ġmaitinimo":7844,"Ġklimato":7845,"Ġklinik":7846,"Ġatstum":7847,"Ġvariantas":7848,"Ġnusikalst":7849,"Ġpaslaptis":7850,"ĠklaidÅ³":7851,"ĠsavaiÄįiÅ³":7852,"ĠnuosavybÄĹs":7853,"Ġsavybes":7854,"mingai":7855,"ĠiÅ¡vaÅ¾i":7856,"Ġalgird":7857,"ĠmÄĹgautis":7858,"ĠiÅ¡sik":7859,"Ð²":7860,"Ġplanuojama":7861,"Ġmain":7862,"Ġinvestuotoj":7863,"ole":7864,"ĠiÅ¡rad":7865,"Ġalerg":7866,"Ġakcent":7867,"arai":7868,"Ġparodoje":7869,"Ġrase":7870,"ĠaukÅ¡tai":7871,"ienÅ³":7872,"Ġkvar":7873,"Ġregistracijos":7874,"ĠsriÄįiÅ³":7875,"ĠpavirÅ¡iÅ³":7876,"Ġgeograf":7877,"ĠÄ¯kurta":7878,"Ġrinkod":7879,"aÅ¾Äħ":7880,"ĠiÅ¡raiÅ¡k":7881,"erti":7882,"ĠgyvybÄĹs":7883,"Ġvyn":7884,"iese":7885,"burg":7886,"ĠapÅ¾iÅ«r":7887,"ĠtaurÄĹs":7888,"Ġgeriausi":7889,"ĠdviraÄįiÅ³":7890,"Ġplanas":7891,"ĠvÅ¡Ä¯":7892,"Ġvyrams":7893,"ĠgeleÅ¾inkelio":7894,"uon":7895,"ĠpasiÅ«lÄĹ":7896,"Ġmuziejuje":7897,"Ġnuotrauka":7898,"Ġgalimas":7899,"Ġkomunikacijos":7900,"Ġfotografijos":7901,"ĠsavarankiÅ¡kai":7902,"47":7903,"rinÄĹs":7904,"Ġsklypo":7905,"Ġsakant":7906,"are":7907,"Ġprojektai":7908,"Ġpagrindo":7909,"ĠÅ¡veicar":7910,"ern":7911,"Ġrekord":7912,"ĠmedÅ¾iagÄħ":7913,"Ġmyk":7914,"utyje":7915,"Ġsupranta":7916,"Ġvakarus":7917,"Ġakmens":7918,"ĠvirÅ¡u":7919,"pret":7920,"kirst":7921,"ĠÄ¯vairiausiÅ³":7922,"Ġdaina":7923,"Ġtalp":7924,"Ġ1990":7925,"Ġland":7926,"tÄħjÄħ":7927,"Å¡kis":7928,"Ġpatenkinti":7929,"Ġoptimiz":7930,"Ġgamintojai":7931,"cho":7932,"Ġskiriama":7933,"Ġalk":7934,"Ġpersp":7935,"tuvÅ³":7936,"Ġkleb":7937,"Ġtaikyti":7938,"Ġnomin":7939,"Ġledo":7940,"Ġrenginiai":7941,"Ġbenz":7942,"Ġniekuo":7943,"Ġveg":7944,"Ġkova":7945,"ĠkÅ«dik":7946,"ĠjudÄĹjimo":7947,"Ġgu":7948,"Ġbiuro":7949,"Ġtranspor":7950,"Ġding":7951,"Ġdraus":7952,"ĠmuzikÄħ":7953,"Ġanalog":7954,"Ġbij":7955,"Ġpatikrinti":7956,"46":7957,"Ġprik":7958,"Ġapv":7959,"Ġdvy":7960,"âĢĶ":7961,"ĠamÅ¾ius":7962,"Ġgamintojas":7963,"ojÄĻ":7964,"Ġnekal":7965,"tieji":7966,"ĠkÅ«rimo":7967,"Ġspin":7968,"irbti":7969,"Ġaid":7970,"ĠakcijÅ³":7971,"Ġgedimino":7972,"Ġmokiniams":7973,"Ġdeleg":7974,"ĠnurodÄĹ":7975,"Ġsnie":7976,"Ġstas":7977,"ĠprekÄĻ":7978,"Ġdov":7979,"Ġsalos":7980,"Ġvardo":7981,"ĠnuoÅ¡irdÅ¾iai":7982,"ĠkariÅ³":7983,"Ġmarijos":7984,"ĠiÅ¡veÅ¾":7985,"ÄĹtum":7986,"Ġpipir":7987,"Ġpranci":7988,"ĠpareigÅ«nÅ³":7989,"tarp":7990,"Ġbendrijos":7991,"bia":7992,"osite":7993,"Ġniujor":7994,"ĠvertÄĻ":7995,"Ġaustri":7996,"Ġ//":7997,"Ġgydymas":7998,"utr":7999,"Ġperdavimo":8000,"Ġgalioja":8001,"Ġgarantija":8002,"ĠpasirÅ«pinti":8003,"Ġentu":8004,"usti":8005,"Ġpatenka":8006,"Ġproto":8007,"Ġpalaiko":8008,"Ġjubiliej":8009,"lob":8010,"ĠÅ¾inomi":8011,"Ġadministravimo":8012,"ĠparÄħ":8013,"Ġneabejo":8014,"umoje":8015,"ĠneaiÅ¡k":8016,"Ġgili":8017,"oros":8018,"Ġesantis":8019,"ĠdrÄĹk":8020,"Ġtenden":8021,"ylis":8022,"ĠÅ¡eimÄħ":8023,"ĠsusijÄĻs":8024,"Ġentuzi":8025,"Ġbab":8026,"====":8027,"intus":8028,"ĠðŁĻ":8029,"Ġseg":8030,"liuz":8031,"ojome":8032,"ĠfilmÄħ":8033,"ĠanykÅ¡":8034,"Ġjok":8035,"ĠateitÄ¯":8036,"Ġkondicion":8037,"Ġtechnologija":8038,"Ġlyti":8039,"ĠrÅ«pintis":8040,"era":8041,"ĠvestuviÅ³":8042,"ĠÅ¾enklo":8043,"Ġpotencial":8044,"Ġatsakingas":8045,"Ġnaudojimas":8046,"Ġseime":8047,"Ġpopieriaus":8048,"ĠpakeitÄĹ":8049,"ĠtikslÄħ":8050,"Ġvadovaujantis":8051,"Ġbritanijos":8052,"ats":8053,"ĠatveÅ¾":8054,"registr":8055,"Ġpastatas":8056,"Ġnesuk":8057,"anso":8058,"Ġradi":8059,"Ġmatome":8060,"ĠapraÅ¡ymas":8061,"Ġinicij":8062,"rom":8063,"ĠdetalÄĹs":8064,"Ñı":8065,"Ġfiltr":8066,"Ġpomid":8067,"Ġpasil":8068,"ĠaukÅ¡Äįiausi":8069,"Ġnuteis":8070,"Ġnuotr":8071,"Ġgum":8072,"ĠÅ¾inia":8073,"Ġteikimo":8074,"Ġcit":8075,"Ġlaikinai":8076,"ĠlaimÄĹti":8077,"Ġgail":8078,"Ġseimas":8079,"inÄĹjimo":8080,"Ġvaini":8081,"Ġvyno":8082,"Ġplanus":8083,"Ġtiekimo":8084,"Ġmokytojas":8085,"cinÄĹs":8086,"78":8087,"Ġakcija":8088,"Ġlikus":8089,"aps":8090,"Ġsprendimu":8091,"Ġinterviu":8092,"Ġaplinkai":8093,"Ġdizainas":8094,"Ġkati":8095,"Ġrinkinys":8096,"Ġkiekvienos":8097,"Ġpli":8098,"Ġuniversitetas":8099,"Ġatim":8100,"pagal":8101,"ĠÄ¯vykio":8102,"Â°":8103,"Ġkiekio":8104,"Ġarki":8105,"ĠmaÅ¾y":8106,"ĠiÅ¡siaiÅ¡kinti":8107,"ĠÄ¯statymÄħ":8108,"ĠpolitinÄĹs":8109,"Ġteras":8110,"Ġnurodo":8111,"gai":8112,"valst":8113,"ace":8114,"Ġplius":8115,"Ġatitinkamai":8116,"Ġtop":8117,"Ġpenki":8118,"ĠÅ¾ir":8119,"Ġsodo":8120,"Ġvalstybei":8121,"Ġtikslais":8122,"Ġsport":8123,"ulius":8124,"ĠamÅ¾iuje":8125,"Ġpaskutinis":8126,"ĠâĨĴ":8127,"tiÅ¡kÄħ":8128,"ĠÅ¾odÄ¯":8129,"kija":8130,"ĠkaralystÄĹs":8131,"ĠrieÅ¡u":8132,"tenk":8133,"Ġsituacijos":8134,"ĠatvirkÅ¡":8135,"ĠmoksleiviÅ³":8136,"ĠrÅ«Å¡is":8137,"Ġtelk":8138,"uliai":8139,"ĠÅ¡altiniÅ³":8140,"ĠpasidÅ¾iaug":8141,"Ġaugus":8142,"Ġkokias":8143,"!âĢľ":8144,"Ġapsir":8145,"cl":8146,"metÄĹ":8147,"Ġstadi":8148,"Ġmul":8149,"Ġdaugelyje":8150,"Ġsaugoti":8151,"ation":8152,"Ġekrano":8153,"ĠkarÄħ":8154,"ĠpaukÅ¡ÄįiÅ³":8155,"Ġsusiform":8156,"Ġsusitikimas":8157,"abl":8158,"Ġpastatyti":8159,"...]":8160,"toriumi":8161,"Ġelek":8162,"tiesi":8163,"Ġpasitaiko":8164,"Ġsumon":8165,"kÄĹs":8166,"ĠpokyÄįiÅ³":8167,"Ġtamsi":8168,"Ġgy":8169,"Ġperl":8170,"Ġatvykti":8171,"Ġraudona":8172,"nios":8173,"Å¡iau":8174,"ĠpaÄįius":8175,"Ġgausu":8176,"ĠplÄĹv":8177,"Ġantrasis":8178,"Ġsukuria":8179,"liuko":8180,"Ġkazimie":8181,"Äħja":8182,"ĠpavadinimÄħ":8183,"Å¡as":8184,"ietÄĹ":8185,"Ġapdor":8186,"ailos":8187,"ÄĻÅ¾":8188,"Ġ=":8189,"Ġpasirinkite":8190,"rop":8191,"alinÄĹ":8192,"Ġpalangos":8193,"Ġatsiras":8194,"Ġatsig":8195,"Ġba":8196,"Ġkonferencijos":8197,"Ġdruskos":8198,"Ġpasibaigus":8199,"Ġserv":8200,"Ġpelno":8201,"ĠbÅ«klÄĻ":8202,"ĠÄ¯kr":8203,"sveik":8204,"ĠpraneÅ¡imÄħ":8205,"ĠkarjerÄħ":8206,"Ġakivaizdu":8207,"Ñĭ":8208,"Ġskver":8209,"Ġpatekti":8210,"Ġvairuotojas":8211,"Ġtreneris":8212,"uojate":8213,"ĠÅ¾Å«":8214,"aujame":8215,"ĠÄ¯prasta":8216,"tinimo":8217,"ĠÄ¯vairiose":8218,"Ġparduodamas":8219,"ĠpaslaugÄħ":8220,"akÄĹ":8221,"ĠsumokÄĹti":8222,"ĠtÄĹvams":8223,"jaun":8224,"ĠtikÄĹjimo":8225,"Ġbankas":8226,"ĠiÅ¡tis":8227,"ĠvieÅ¡buÄįio":8228,"paÅ¡":8229,"Ġatnaujinti":8230,"Ġsuded":8231,"ukui":8232,"Ġbiblioteka":8233,"Ġrenov":8234,"tusi":8235,"Ġ1991":8236,"Ġmich":8237,"ĠÅ¾enklÅ³":8238,"ontolog":8239,"ĠstraipsniÅ³":8240,"Ġdekoratyv":8241,"ĠbaltÅ³":8242,"Ġpolitikai":8243,"Ġketuris":8244,"ĠÄ¯sid":8245,"Ġakys":8246,"ĠreiktÅ³":8247,"imnaz":8248,"ĠuÅ¾sik":8249,"ĠkompiuteriÅ³":8250,"Ġarab":8251,"Ġgitar":8252,"Ġskard":8253,"Ġritu":8254,"anks":8255,"Ġpriima":8256,"ĠðŁĻĤ":8257,"tuku":8258,"ĠmaÅ¾Å³":8259,"ĠsuteikÄĹ":8260,"vydas":8261,"amoje":8262,"Ġsrau":8263,"2017":8264,"Ġatrodyti":8265,"kauno":8266,"Ġlinija":8267,"ĠÄ¯ves":8268,"Ġmeistr":8269,"Ġevangeli":8270,"ĠatsiÅ¾velg":8271,"teko":8272,"Ġsurinkti":8273,"Ġpakeis":8274,"tad":8275,"uojamÄħ":8276,"Ġster":8277,"iene":8278,"Ġrober":8279,"Ġinterpret":8280,"Ġpatirti":8281,"ĠryÅ¡k":8282,"Ġniekaip":8283,"Ġke":8284,"Ġpaspaud":8285,"ĠdvideÅ¡imt":8286,"63":8287,"Ġparapijos":8288,"ango":8289,"Ġsavanori":8290,"ĠpaslÄĹp":8291,"Ġambasad":8292,"ĠprisidÄĹti":8293,"Ġdanga":8294,"ĠÂ·":8295,"Ġnov":8296,"Ġsupratau":8297,"Ġchirurg":8298,"Ġmokestis":8299,"Ġpalank":8300,"Ġbaltarusijos":8301,"Ġpersi":8302,"Ġprisijungti":8303,"Ġestijos":8304,"Ġautomobilius":8305,"Ġjaponijos":8306,"Ġvlad":8307,"ĠstiliÅ³":8308,"ĠgraÅ¾u":8309,"Ġperm":8310,"Ġmaskvos":8311,"Ġatvi":8312,"anitar":8313,"Ġkaraliaus":8314,"Ġnemokamas":8315,"ĠdavÄĹ":8316,"Ġakimis":8317,"ĠkaÅ¾kaip":8318,"Ġeu":8319,"aku":8320,"Ġkvad":8321,"Ġnumeris":8322,"Ġtrumpomis":8323,"uotÄĻ":8324,"Ġaptarnavimo":8325,"Ġpastaruosius":8326,"Ġnebent":8327,"Ġprimen":8328,"ĠpajÄĹgÅ³":8329,"uojanÄįios":8330,"Ġkomisari":8331,"ĠneteisÄĹ":8332,"Ġhe":8333,"Ġturtas":8334,"con":8335,"ĠreikÅ¡mÄĻ":8336,"Ġkonkursas":8337,"ĠpuÅ¡":8338,"Ġarti":8339,"ĠukmergÄĹs":8340,"Ġsoli":8341,"ĠÄ¯domus":8342,"prie":8343,"ĠspalvÄħ":8344,"ĠposÄĹdyje":8345,"Å¡ta":8346,"Ġnuosek":8347,"top":8348,"Ġapsaugo":8349,"ĠkomandÅ³":8350,"Ġautomobiliu":8351,"kol":8352,"ĠÅ¾aidÄĹ":8353,"ienei":8354,"ĠgarbÄĹs":8355,"Ġpunkte":8356,"Ġnusipirkti":8357,"Ġyou":8358,"Ġrimtai":8359,"tiniuose":8360,"Ġkybar":8361,"kat":8362,"ĠrungtynÄĹse":8363,"Ġpozityv":8364,"die":8365,"Ġmedicin":8366,"Ġnario":8367,"ĠsuraÅ¡":8368,"ojami":8369,"Ġgyvenimui":8370,"ĠiÅ¡sirinkti":8371,"Ġperduoti":8372,"ĠspustelÄĹkite":8373,"Ġtauta":8374,"Å¾iÅ«ros":8375,"Ġkonsulta":8376,"Ġtun":8377,"Ġsergan":8378,"gis":8379,"Ġprogimnaz":8380,"ÄĹnas":8381,"ĠkÄĹdainiÅ³":8382,"ĠiÅ¡ÄĹjo":8383,"low":8384,"Ġekspozi":8385,"tiesiems":8386,"Ġvariklio":8387,"Ġ120":8388,"Ġprireik":8389,"lug":8390,"ĠbaÅ¾nyÄįiÄħ":8391,"Ġciviliz":8392,"ĠrezultatÄħ":8393,"Ġ}":8394,"tuos":8395,"Ġmartyn":8396,"uodavo":8397,"Ġsektori":8398,"ĠÄ¯spÅ«dÄ¯":8399,"indavo":8400,"Ġantras":8401,"Ġkatedros":8402,"Å«kis":8403,"52":8404,"Ġgaiv":8405,"ĠsÄħraÅ¡e":8406,"Ġsupa":8407,"Ġheroj":8408,"ĠryÅ¡ius":8409,"Ġkojos":8410,"Ġilgalai":8411,"sus":8412,"Ġverslui":8413,"Ġlaisvalaikio":8414,"Ġversija":8415,"ĠlankytojÅ³":8416,"Ġsar":8417,"Ġapeli":8418,"ĠiÅ¡val":8419,"Ġnaujasis":8420,"ĠnereikÄĹtÅ³":8421,"tun":8422,"ĠÅ¡ach":8423,"Ġkone":8424,"uosiuose":8425,"ĠpastebÄĹti":8426,"tuko":8427,"Ġvertinti":8428,"tijoje":8429,"vienas":8430,"Ġdarbuotojas":8431,"tojais":8432,"Ġrinkimuose":8433,"ĠgÄĹl":8434,"Ġrizik":8435,"Ġilgomis":8436,"ĠpatyrÄĹ":8437,"ĠmokestÄ¯":8438,"Ġesantys":8439,"acijose":8440,"Ġpretend":8441,"ĠÄ¯galio":8442,"Ġvamzd":8443,"Ġdepres":8444,"Ġvadovavo":8445,"ĠuÅ¾trauk":8446,"Ġveterinarijos":8447,"ĠpaÄįioje":8448,"ĠmaÅ¾eikiÅ³":8449,"ĠÄ¯staiga":8450,"ĠparduotuvÄĹse":8451,"Ġuol":8452,"ulys":8453,"Ġbaj":8454,"ardo":8455,"Ġmlrd":8456,"Å«ris":8457,"Ġpraktikos":8458,"ĠnamÄħ":8459,"tÄĹsi":8460,"Ġdidinti":8461,"Ġetapas":8462,"Ġlaure":8463,"Ġvab":8464,"Ġtaikos":8465,"iregistr":8466,"Ġpsicho":8467,"Ġpriekyje":8468,"Ġbelg":8469,"Ġplauki":8470,"Ġnusiteik":8471,"Ġpavaduotojas":8472,"Ġsektoriaus":8473,"Ġsag":8474,"Ġmatosi":8475,"Ġdalyvaus":8476,"Ġtikros":8477,"son":8478,"Ġkonferencijoje":8479,"kuri":8480,"Ġ46":8481,"ĠpraneÅ¡a":8482,"Ġnuotol":8483,"pk":8484,"Ġkvalifikacijos":8485,"Ġsudaryta":8486,"ĠiÅ¡augo":8487,"skio":8488,"Ġromos":8489,"Ġpradedant":8490,"ĠÅ¾inome":8491,"ĠiÅ¡sp":8492,"Ġbatai":8493,"oped":8494,"ĠÅ¾ingsnis":8495,"Ġatsakymas":8496,"Ġskirtumas":8497,"eviÄįiÅ«tÄĹ":8498,"Ġsof":8499,"Ġduj":8500,"Ġgalvoti":8501,"esne":8502,"Ġanim":8503,"Ġpaul":8504,"Ġdalia":8505,"ĠstraipsnÄ¯":8506,"ĠÄ¯vairaus":8507,"ÄĹrÄĹ":8508,"ĠÅ¡ep":8509,"ĠÅ¡ou":8510,"Ġsportas":8511,"ĠgreiÄįio":8512,"ĠiÅ¡girsti":8513,"ĉĊ":8514,"ĠÅ¡venÄįiÅ³":8515,"Ġ1999":8516,"Ġminti":8517,"Ġkiau":8518,"ÄĹjusiÅ³":8519,"ante":8520,"ĠÄ¯gÅ«dÅ¾iÅ³":8521,"Ġskausmas":8522,"ĠinteresÅ³":8523,"Ġpiliet":8524,"Ġdirektyv":8525,"ĠlaimÄĹs":8526,"cinis":8527,"ĠlopÅ¡":8528,"Ġispanijos":8529,"Ġcol":8530,"alizacijos":8531,"ĠprekÄĹ":8532,"ĠuÅ¾sim":8533,"Ġkomfor":8534,"jaus":8535,"Ġpaskelbta":8536,"Ġtikiuosi":8537,"Ġrum":8538,"âĢľ).":8539,"Ġgruz":8540,"ĠpasiraÅ¡ÄĹ":8541,"Ġvykdymo":8542,"eliuose":8543,"42":8544,"Ġkupr":8545,"raud":8546,"gais":8547,"Ġdvasia":8548,"che":8549,"ausiasis":8550,"ĠryÅ¡ki":8551,"ÑĮ":8552,"ĠatsakomybÄĻ":8553,"ĠpoÅ¾iÅ«rÄ¯":8554,"lav":8555,"ĠÄ¯pareig":8556,"41":8557,"Ġpastab":8558,"ĠmaÅ¡inos":8559,"Ġkontein":8560,"Ġberl":8561,"acijomis":8562,"laik":8563,"Ġskraid":8564,"Ġpertvark":8565,"ĠÅ¡uk":8566,"Ġbranduol":8567,"ĠÅ¡iltas":8568,"telio":8569,"ciÅ¡kai":8570,"Ġkiaul":8571,"Ġveda":8572,"Ġdvir":8573,"ĠsaugumÄħ":8574,"ĠÅ¾alÄħ":8575,"Ġmedi":8576,"ĠkroviniÅ³":8577,"Ġtoler":8578,"Ġidentifik":8579,"enoje":8580,"Ġskyl":8581,"Ġrenginyje":8582,"79":8583,"Ġskirtingai":8584,"ĠagentÅ«ros":8585,"ĠÅ¡ilutÄĹs":8586,"ĠpaprasÄįiausiai":8587,"nem":8588,"ĠÅ¾aidÄĹjÅ³":8589,"Ġtest":8590,"ĠneÅ¡ioti":8591,"ĠpenkiÅ³":8592,"Ġfol":8593,"Ġbibliotekoje":8594,"Ġsupil":8595,"Ġprievar":8596,"Ġpakarto":8597,"Ġliudij":8598,"ĠmaÅ¾os":8599,"Ġnesusi":8600,"Ġharmon":8601,"Ġlyginant":8602,"ĠpasiÅ«lymÅ³":8603,"Ġteritorija":8604,"ĠsumaÅ¾ÄĹjo":8605,"ytojus":8606,"red":8607,"Ġskil":8608,"ĠpradÄĹjau":8609,"Ġ(-":8610,"Ġtiri":8611,"Å¡v":8612,"ĠmodeliÅ³":8613,"Ġseksas":8614,"Ġvaikinas":8615,"Ġprasm":8616,"ÄĹmimo":8617,"Ġskamba":8618,"ryÅ¡k":8619,"Ġkraujagys":8620,"ÄĹnai":8621,"Ġtaikoma":8622,"ĠnuoÅ¡ird":8623,"Ġaukl":8624,"oves":8625,"Ġnemokama":8626,"ĠsmÅ«":8627,"Ġdarbams":8628,"uotai":8629,"Ġorganizatoriai":8630,"Ġlanks":8631,"ĠÄ¯monÄĹms":8632,"ĠsvetainÄĹ":8633,"Ġlietaus":8634,"Ġakivai":8635,"ĠmaÅ¾esnis":8636,"Ġatliekamas":8637,"okite":8638,"Ġvientis":8639,"Ġdiagnos":8640,"Ġsunkiau":8641,"Ġtikisi":8642,"ĠamerikieÄįiÅ³":8643,"Ġ600":8644,"ĠslÄĹ":8645,"taÅ¾od":8646,"gyv":8647,"ĠpapildomÄħ":8648,"Ġrealiai":8649,"ĠdÄĹvÄĹti":8650,"anus":8651,"ĠiÅ¡sisk":8652,"Ġgamintojo":8653,"Ġfakult":8654,"ĠpasivaikÅ¡Äįi":8655,"Ġkambaryje":8656,"Ġpasisk":8657,"Ġlek":8658,"Ġekspertai":8659,"ĠsukÄĹlÄĹ":8660,"Ġdik":8661,"Ġpalang":8662,"Ġturg":8663,"ĠaukÅ¡tas":8664,"Ġplung":8665,"Ġekstrak":8666,"ĠvirÅ¡uje":8667,"ĠprezidentÄĹ":8668,"Ġsumos":8669,"Ġsampr":8670,"ĠmokslininkÅ³":8671,"Ġmand":8672,"Ġdalij":8673,"Ġsocialdemokr":8674,"ĠmuziejÅ³":8675,"Ġkali":8676,"Ġpraktika":8677,"tingos":8678,"ĠvaizdÄħ":8679,"Ġilgaam":8680,"Å«rÄħ":8681,"Ġul":8682,"Ġmam":8683,"usiais":8684,"ĠpirkimÅ³":8685,"Ġrengia":8686,"Ġatsako":8687,"Ġportu":8688,"ĠautobusÅ³":8689,"Ġsol":8690,"Ġkompak":8691,"ĠskyrÄĹ":8692,"Ġvartotojams":8693,"onais":8694,"ykloje":8695,"ĠrinktinÄĹ":8696,"Ġlim":8697,"Ġrestau":8698,"Ġstilius":8699,"Ġair":8700,"Ġ43":8701,"ĠÅ¡veln":8702,"Ġtinklap":8703,"Ġnuolaidos":8704,"ĠtechninÄĹs":8705,"Ġturnyro":8706,"video":8707,"ĠÄ¯sikÅ«rÄĻs":8708,"Ġnuolatos":8709,"ĠminÄįiÅ³":8710,"ĠuÅ¾duo":8711,"Ġrytuose":8712,"Ġilgi":8713,"orizon":8714,"Ġdalyviams":8715,"ĠÅ¡viesi":8716,"ĠskaiÄįiaus":8717,"ĠkultÅ«rÄħ":8718,"Ġbor":8719,"ĠkoÅ¡":8720,"Ġpatri":8721,"amin":8722,"Ġpup":8723,"Å¡to":8724,"ĠvirÅ¡k":8725,"ĠÅ¡viesa":8726,"ĠiÅ¡leis":8727,"tap":8728,"Ġpristato":8729,"Ġefektyviai":8730,"ĠdÅ¾iaugtis":8731,"Ġnepad":8732,"Ġklausimu":8733,"Ġvisam":8734,"ĠsvarbÅ«s":8735,"Ġvadas":8736,"Ġapyk":8737,"ĠerdvÄĻ":8738,"Ġgrun":8739,"Ġname":8740,"Ġsli":8741,"Ġsavininkas":8742,"ĠasmenybÄĹs":8743,"Ġparodo":8744,"Ġcukr":8745,"Ġvandenyje":8746,"blog":8747,"Ġjurg":8748,"Ġodai":8749,"Ġstamb":8750,"ĠjÄĹgas":8751,"Ġprasi":8752,"Ġantik":8753,"ĠÄħÅ¾uol":8754,"Ġvykti":8755,"ĠuÅ¾kr":8756,"Ġmumis":8757,"Ġventi":8758,"Ġandrius":8759,"audami":8760,"Ġmiestus":8761,"ĠÄįer":8762,"Ġaliejaus":8763,"ĠpavarÅ³":8764,"Ġtelefonas":8765,"Ġpilka":8766,"Ġprote":8767,"ĠmilijonÅ³":8768,"Ġsutiko":8769,"onstruk":8770,"Ġjaustis":8771,"Ġnamie":8772,"Ġpavid":8773,"Ġugnies":8774,"Ġprofi":8775,"ĠdidÅ¾iÄħjÄħ":8776,"pt":8777,"Ġles":8778,"ure":8779,"Ġkonkurenc":8780,"Ġtikslo":8781,"ĠtarptautinÄĹ":8782,"ĠidÄĹjÄħ":8783,"Ġpateikiama":8784,"ĠÅ¡uni":8785,"Ġaugimo":8786,"ĠpolitiniÅ³":8787,"Ġnepatog":8788,"Ġtaur":8789,"Ġnebuv":8790,"Ġdvirat":8791,"89":8792,"ĠpanaÅ¡i":8793,"Ġpatogiai":8794,"Ð¼":8795,"ĠagentÅ«ra":8796,"aki":8797,"Ġ[...]":8798,"iÅ¡kumo":8799,"ĠpaaiÅ¡kinti":8800,"oper":8801,"Ġjer":8802,"ĠreÅ¾isierius":8803,"ĠÄ¯man":8804,"Ġvelyk":8805,"cs":8806,"ĠÅ¡iauliuose":8807,"Ġjaud":8808,"Ġlengvas":8809,"Ġpriimtas":8810,"tÅ³si":8811,"Ġiliustr":8812,"Äįiomis":8813,"Ġsing":8814,"Äģ":8815,"Ġgies":8816,"Ġatsikrat":8817,"ĠpraÅ¾":8818,"Ġrusi":8819,"Ġpasist":8820,"Ġpastatyta":8821,"ĠvaiÅ¡":8822,"Ġsutel":8823,"Ġnariams":8824,"Ġvalstybinio":8825,"antus":8826,"ĠkraÅ¡tas":8827,"Ġketurias":8828,"Ġapsup":8829,"iklaus":8830,"ĠfunkcijÅ³":8831,"ĠturinÄįiÅ³":8832,"Ġkosm":8833,"ieki":8834,"ĠvieÅ¡pa":8835,"Ġkretingos":8836,"Ġpilna":8837,"ĠpacientÅ³":8838,"ĠÅ¡nek":8839,"Ġlaikotarpio":8840,"Ġkonstat":8841,"Ġgyventojus":8842,"Ġstum":8843,"kiteis":8844,"ĠvieÅ¡pat":8845,"ĠvalstybinÄĹ":8846,"ulÄ¯":8847,"ĠkonkursÄħ":8848,"tuviÅ³":8849,"Ġlyderis":8850,"enkti":8851,"Ġkepimo":8852,"ologas":8853,"ĠnereiÅ¡kia":8854,"ĠrinkÄħ":8855,"Ġskyd":8856,"Ġ41":8857,"ĠbaltymÅ³":8858,"ĠÅ¾iÅ«rovÅ³":8859,"Ġ47":8860,"yklinio":8861,"tingumo":8862,"ĠmoksliniÅ³":8863,"ĠiÅ¡aiÅ¡k":8864,"ĠkeleiviÅ³":8865,"Ġrinkimus":8866,"ĠamÅ¾iÅ³":8867,"aks":8868,"Ġsistemas":8869,"Ġegip":8870,"ĠkruopÅ¡Äįiai":8871,"ĠÅ¡ito":8872,"ĠbutÅ³":8873,"ĠtrukmÄĹ":8874,"Ġveiksmai":8875,"Ġnew":8876,"Ġneber":8877,"Ġnepral":8878,"ĠpradÄĹtas":8879,"ĠmarÅ¡kinÄĹliai":8880,"aitÄĻ":8881,"87":8882,"Ġsunkv":8883,"ĠpripaÅ¾ino":8884,"Ġskambu":8885,"Ġsuprato":8886,"prat":8887,"yj":8888,"ĠiÅ¡ryÅ¡k":8889,"ĠjungtiniÅ³":8890,"Ġkodekso":8891,"Ġtechnologijas":8892,"dis":8893,"Ġgeriausius":8894,"mw":8895,"ĠbÅ«tinas":8896,"ĠnatÅ«raliai":8897,"uom":8898,"ausd":8899,"Ġpriskiri":8900,"ĠaiÅ¡kino":8901,"Å¡il":8902,"Ġgyvyb":8903,"Ġreklama":8904,"Ġq":8905,"Ġkeista":8906,"ĠÅ¾aidÄĹjai":8907,"Ġkaras":8908,"Ġkonferencija":8909,"rito":8910,"Ġsantuok":8911,"Ġscenos":8912,"apar":8913,"ĠÄ¯rengta":8914,"Ġatliekant":8915,"dÅ¾iais":8916,"kijoje":8917,"Ġvadina":8918,"Ġjurbar":8919,"ĠsÄħskaitÄħ":8920,"Ġdul":8921,"Ġpalanki":8922,"Ġkomandai":8923,"Ġaistr":8924,"Ġtirp":8925,"jis":8926,"Ġanksti":8927,"Ġrep":8928,"Ġå":8929,"ĠÄ¯teik":8930,"tingo":8931,"manau":8932,"ĠpaÅ¾eidÅ¾i":8933,"Ġpon":8934,"Ġprijung":8935,"ĠemocijÅ³":8936,"ieÅ¡k":8937,"Ã¡":8938,"ĠsostinÄĹje":8939,"Ġbali":8940,"ĠnaudÄħ":8941,"Ġviktor":8942,"Ġ250":8943,"Ġgrupei":8944,"Ġduonos":8945,"ĠvaldÅ¾iÄħ":8946,"ĠuÅ¾sakymÄħ":8947,"inko":8948,"Ġpastatytas":8949,"ĠarÄįiau":8950,"virÅ¡":8951,"ĠÄ¯sikÅ«rusi":8952,"kie":8953,"tÅ«ras":8954,"uolÄĹ":8955,"Ġrado":8956,"ĠinkstÅ³":8957,"Ġvairo":8958,"Ġsekund":8959,"ĠuÅ¾kand":8960,"inome":8961,"Ġve":8962,"tojÄħ":8963,"ĠiÅ¡vad":8964,"ĠmaÅ¡ina":8965,"ĠlÄĹÅ¡omis":8966,"Äįiusi":8967,"ĠrÅ«mai":8968,"ĠvertybiÅ³":8969,"Ġgur":8970,"Ġauditori":8971,"ĠsunkveÅ¾":8972,"ĠvÄĹÅ¾io":8973,"Ġrengti":8974,"Ġribos":8975,"ĠÄįesn":8976,"tav":8977,"zos":8978,"ĠkambarÄ¯":8979,"Å¾eng":8980,"ĠrÅ«Å¡ies":8981,"Ġkonstitucijos":8982,"ĠnuvaÅ¾i":8983,"Ġscenoje":8984,"Ġkunigas":8985,"arÄħ":8986,"ĠvaikiÅ¡k":8987,"Ġveikimo":8988,"palv":8989,"Ġkryptimi":8990,"name":8991,"Ġmintys":8992,"Ġnaujosios":8993,"Ġedukac":8994,"Ġsudeg":8995,"Ġgydytojai":8996,"ĠvieÅ¡buÄįiÅ³":8997,"Ġodontolog":8998,"ĠpozicijÄħ":8999,"Ġoperacijos":9000,"Ġikiteis":9001,"ĠÄ¯vykd":9002,"Ġwil":9003,"Ġsnieg":9004,"Ġplaukai":9005,"Ġuod":9006,"Ġesanti":9007,"ĠÄ¯staigose":9008,"kim":9009,"fic":9010,"ĠpasikeitÄĹ":9011,"Ġvisuose":9012,"Ġstiprus":9013,"Ġnesil":9014,"Å¡ku":9015,"Ġkoment":9016,"ĠÄĹjo":9017,"ijoms":9018,"Ġakcen":9019,"Ġauten":9020,"toju":9021,"ĠnuostatÅ³":9022,"Ġcharakteris":9023,"Ġkategorijoje":9024,"Ġklij":9025,"ymuose":9026,"Å¡os":9027,"antaz":9028,"Ġkelti":9029,"Ġtarptautinio":9030,"Ġtiksliau":9031,"ĠÅ¡auk":9032,"Ġatsar":9033,"Ġga":9034,"Ġdor":9035,"ĠapsaugÄħ":9036,"inukai":9037,"Å¾uv":9038,"Ġklientai":9039,"Ġskirtingi":9040,"Ġpriel":9041,"albÄĹti":9042,"ĠdraudÅ¾iama":9043,"Ġgreitas":9044,"Ġfaktas":9045,"ĠryÅ¡ys":9046,"Ġ49":9047,"Ġseno":9048,"obul":9049,"ĠvedÄĹjas":9050,"ĠÄ¯registr":9051,"Ġbern":9052,"Ġtual":9053,"Ġingr":9054,"Ġ1998":9055,"Ġsker":9056,"Ġpajamas":9057,"Ġpaved":9058,"azo":9059,"ĠapaÄįioje":9060,"ĠfondÅ³":9061,"ĠÄ¯rengtas":9062,"Ġpasigir":9063,"ĠneiÅ¡vengi":9064,"Ġjomis":9065,"Ġkirp":9066,"Ġteritor":9067,"ĠteritorijÄħ":9068,"Ġlaikomi":9069,"Ġdialog":9070,"Ġapsilankyti":9071,"Ġ!":9072,"Ġapibendr":9073,"org":9074,"Ġkapi":9075,"Ġsukl":9076,"ala":9077,"Ġatsiv":9078,"ĠÅ¾iniasklaid":9079,"oksid":9080,"ĠjÄĹzaus":9081,"Ġkitoms":9082,"Ġsaugiai":9083,"Ġleidimo":9084,"ĠfunkcijÄħ":9085,"ĠÅ¾inote":9086,"Ġelektroniniu":9087,"Ġpavyks":9088,"liukai":9089,"Ġ1995":9090,"Ġpatalpas":9091,"ĠkÄĹbul":9092,"tÅ«rÄħ":9093,"Ġduoda":9094,"Ġkaralius":9095,"ĠklaipÄĹda":9096,"Ġasmenis":9097,"ĠkarÅ¡to":9098,"Ġimper":9099,"kiÅ¡kio":9100,"Ġmax":9101,"ĠÅ¡amp":9102,"wer":9103,"Ġbuvome":9104,"dirb":9105,"ĠÅ¡on":9106,"Ġvienuo":9107,"Ġgoogle":9108,"ĠpaÄįiame":9109,"ĠiÅ¡leisti":9110,"Ġtom":9111,"edien":9112,"Ġges":9113,"»¿":9114,"ĠbylÄħ":9115,"tiÅ¡ki":9116,"Ġpadaryta":9117,"ĠÅ¡iose":9118,"Ġ--":9119,"Ġsulaik":9120,"Ġrodyti":9121,"Ġatsim":9122,"udo":9123,"Ġvienai":9124,"sav":9125,"ĠÄ¯gali":9126,"Â®":9127,"Ġ1997":9128,"Ġzonos":9129,"Ġalgirdas":9130,"Å¡kumÄħ":9131,"ĠturÄĹjau":9132,"Ġried":9133,"Ġdyzel":9134,"ĠsÄħraÅ¡o":9135,"ĠÄįek":9136,"Ġspecifik":9137,"ĠÅ¡irdÄ¯":9138,"kaus":9139,"ĠnarÄĹs":9140,"Ġpalaim":9141,"('":9142,"Ġpietr":9143,"Ġ85":9144,"Ġkantr":9145,"Ġpaskirtas":9146,"ĠÄ¯vaizd":9147,"Ġamerikoje":9148,"Ġtarptautinis":9149,"Ġlaikotarpis":9150,"Ġploto":9151,"ï»¿":9152,"Ġeid":9153,"43":9154,"omojo":9155,"ĠpratÄĻs":9156,"ulteto":9157,"rob":9158,"Ġjuosta":9159,"insite":9160,"wn":9161,"ĠtavÄĻs":9162,"Ġpajamos":9163,"Ġilgas":9164,"ĠpavirÅ¡ius":9165,"Ġhorizon":9166,"Ġatskleisti":9167,"Ġ?":9168,"2016":9169,"Ġplau":9170,"ĠÅ¡unÅ³":9171,"Ġcen":9172,"oka":9173,"iklÄ¯":9174,"Ġtip":9175,"ĠpanaÅ¡us":9176,"ĠneÄ¯si":9177,"ĠuÅ¾tenka":9178,"Ġhttps":9179,"Ġdepartamentas":9180,"Ġfakulteto":9181,"Ġelementai":9182,"Ġaudinio":9183,"ĠvarÅ¡":9184,"Ġvisoms":9185,"Ġromanti":9186,"ĠpokyÄįiai":9187,"Ġsvetim":9188,"Ġnesib":9189,"Ġlatvijoje":9190,"ĠÄįe":9191,"Å¾algirio":9192,"Ġsvyr":9193,"ĠkraÅ¡te":9194,"indows":9195,"ĠpanaÅ¡aus":9196,"Ġhol":9197,"Ġdideliu":9198,"ĠÅ¡lapimo":9199,"Ġhormon":9200,"erÄĹ":9201,"ĠnorÄĹjau":9202,"Ġdebes":9203,"ĠatvirkÅ¡Äįiai":9204,"ĠdÅ¾iaugiasi":9205,"yte":9206,"ĠparduotuviÅ³":9207,"ĠvedÄĹ":9208,"Ġnesugeb":9209,"Ġglaud":9210,"Ġteor":9211,"ĠsveÄįiams":9212,"Ġkoncertas":9213,"ĠpamaÅ¾u":9214,"Ġ1992":9215,"Ġneur":9216,"Ġbra":9217,"Ġpaskamb":9218,"ĠpaÅ¾eidimÅ³":9219,"ĠvartÅ³":9220,"bÅ«d":9221,"ĠvalstybÄĻ":9222,"Ġteksto":9223,"ĠesanÄįios":9224,"Ġrezultatyv":9225,"ĠtikimybÄĹ":9226,"Ġingredien":9227,"lk":9228,"Ġapkr":9229,"Ġgiliai":9230,"ĠprancÅ«zijoje":9231,"Ġkontroliuoti":9232,"Ġjaunimas":9233,"Ġnesir":9234,"ĠvisuomenÄĻ":9235,"Ġpatvirtina":9236,"ydis":9237,"Ġgaminiai":9238,"Ġpaval":9239,"damos":9240,"Ġkalno":9241,"Ġsusisiekimo":9242,"Ġpadeng":9243,"ĠmaÅ¾inti":9244,"Ġbutas":9245,"ĠpokyÄįius":9246,"ĠporeikiÅ³":9247,"ĠneleidÅ¾ia":9248,"ĠÄ¯vykius":9249,"Ġgrupes":9250,"ĠneiÅ¡s":9251,"mies":9252,"oft":9253,"zdÅ¾iui":9254,"Ġnupl":9255,"Ġgrig":9256,"Ġkrimin":9257,"ĠbiÄįi":9258,"ĠlÄĹÅ¡as":9259,"ĠnemÄĹg":9260,"Ġatliekami":9261,"Äįd":9262,"ĠbÄĹd":9263,"ausiomis":9264,"Ġpapildomas":9265,"Ġgerbi":9266,"Ġrekonstruk":9267,"ybÄĹms":9268,"Ġbaltic":9269,"Ġpaliek":9270,"ĠpartneriÅ³":9271,"ĠpamirÅ¡ti":9272,"Ġsala":9273,"Ġpasidalinti":9274,"ĠpradÄĹs":9275,"Ġskiriamas":9276,"emi":9277,"nys":9278,"ĠiÅ¡gird":9279,"Ġcig":9280,"ĠparaÅ¡yti":9281,"auta":9282,"ĠkÅ«":9283,"Å«nÄħ":9284,"Ġdraugas":9285,"Ġskausmo":9286,"Ġgaben":9287,"ĠtrokÅ¡":9288,"Ġkritik":9289,"Ġneabejotinai":9290,"Ġmero":9291,"ct":9292,"facebook":9293,"tukÅ³":9294,"Ġsuteiktas":9295,"ĠÅ¡iomis":9296,"ĠmuÅ¡":9297,"Ġmald":9298,"Ġetikos":9299,"ĠÅ¾alia":9300,"ĠuÅ¾pil":9301,"Ġtrik":9302,"ĠiÅ¡raÅ¡":9303,"ĠdidesnÄĹs":9304,"Ġpietus":9305,"ĠiÅ¡ki":9306,"ĠÅ¡viesÄħ":9307,"ĠlinkÄĻ":9308,"idÄĹs":9309,"ĠkunigaikÅ¡tys":9310,"ienÄĻ":9311,"Ġnesul":9312,"Ġeleganti":9313,"ĠÅ¡vedijos":9314,"ĠsÄħjÅ«dÅ¾io":9315,"Ġdruska":9316,"ĠkaÅ¾kada":9317,"Ġ95":9318,"Ġsniego":9319,"Ġaugal":9320,"Ġdangaus":9321,"Ġky":9322,"Ġlikti":9323,"cinio":9324,"aujantis":9325,"Ġadministracija":9326,"Ġsusijusius":9327,"cel":9328,"osioms":9329,"Ġpagrindinio":9330,"Ġig":9331,"Ġrankose":9332,"laiv":9333,"telyje":9334,"keli":9335,"Ġturinti":9336,"ĠÄ¯gÅ«dÅ¾ius":9337,"biliz":9338,"Ġtiesos":9339,"Ġpasirinkimo":9340,"Ġmindaugas":9341,"ĠveidÄħ":9342,"âĢľ:":9343,"ĠidÄĹjas":9344,"kiams":9345,"Ġpagaminta":9346,"Ġtradicijas":9347,"ĠkÅ«rinys":9348,"Ġpateikta":9349,"Ġfron":9350,"ĠÅ¾irg":9351,"metis":9352,"Ġparengti":9353,"Ġugni":9354,"ĠtreÄįd":9355,"ĠÅ¾ada":9356,"ĠmodelÄ¯":9357,"ĠbendruomeniÅ³":9358,"Ġperseki":9359,"anÅ¾":9360,"Ġnuolaid":9361,"Ġatminties":9362,"Ġpaskirst":9363,"Ġreferend":9364,"sniui":9365,"Ġemigr":9366,"ĠsuvaÅ¾i":9367,"Ġtarpe":9368,"ĠgiminÄĹs":9369,"Ġtvirtino":9370,"Å«Å¾":9371,"ĠgatviÅ³":9372,"ĠskonÄ¯":9373,"uka":9374,"Ġuostas":9375,"Ġalbumas":9376,"Ġpadangos":9377,"Ġjaunas":9378,"Ġfilme":9379,"usiai":9380,"ĠtreÄįiÄħ":9381,"Ġbang":9382,"ĠnustatÄĹ":9383,"Ġpatvirtinti":9384,"Ġanglijos":9385,"ĠÅ¡Ä¯kart":9386,"ĠiÅ¡siskiria":9387,"ĠlÄħsteliÅ³":9388,"Ġinstitutas":9389,"Ġmotor":9390,"vyskup":9391,"acijoms":9392,"Ġlietuvis":9393,"Ġkarta":9394,"ĠÄ¯kurtas":9395,"Ä¯sti":9396,"Ġbalans":9397,"Ġrytus":9398,"Ġnemalon":9399,"dom":9400,"ere":9401,"Ġpails":9402,"biliÅ³":9403,"ĠpopuliariausiÅ³":9404,"alyje":9405,"ĠnuomonÄĹ":9406,"ĠiÅ¡sig":9407,"lÄĻ":9408,"Ġvartotojai":9409,"ĠÅ¡iur":9410,"Ġturnyre":9411,"ĠpraÅ¡o":9412,"ork":9413,"Ġ1945":9414,"Ġbendravimo":9415,"Ġreguliariai":9416,"ĠprofesinÄĹs":9417,"ĠmenÅ³":9418,"Ġjak":9419,"avir":9420,"Ġpatobul":9421,"ĠpradÄĹta":9422,"ĠareÅ¡":9423,"ĠturistÅ³":9424,"Ġtaikomas":9425,"ene":9426,"ĠklasÄĹ":9427,"Ġvaz":9428,"ÄĹra":9429,"Ġtvarkyti":9430,"Ġaktyvi":9431,"my":9432,"imÄĹs":9433,"ĠlankÄĹsi":9434,"Ġprogres":9435,"ariÅ³":9436,"Ġrengimo":9437,"ĠÄ¯raÅ¡Å³":9438,"ĠelektroninÄĹs":9439,"Ġrinkodaros":9440,"Ġelgi":9441,"ĠdeÅ¡imtmetÄ¯":9442,"ĠdrÄĹgmÄĹs":9443,"Ġatvaizd":9444,"Ġklientas":9445,"Ġinc":9446,"Ġsidabro":9447,"ĠatsakomybÄĹ":9448,"Ġafrikos":9449,"Ġkra":9450,"rijoje":9451,"Ġekstrem":9452,"vizi":9453,"Ġventili":9454,"Ġ86":9455,"Ġpriedai":9456,"Ġfantaz":9457,"ĠatsisakÄĹ":9458,"Ġstim":9459,"Ġnuobod":9460,"ĠvieÅ¡butyje":9461,"ĠparuoÅ¡ti":9462,"ĠsuaugusiÅ³jÅ³":9463,"Ġvartotojo":9464,"Ġoficial":9465,"Ġneva":9466,"ĠekonominÄĹs":9467,"Ġmiego":9468,"Ġsutaupyti":9469,"Ġgreitis":9470,"uks":9471,"tintas":9472,"akos":9473,"dan":9474,"Ġantroji":9475,"ĠÅ¾emaiÄįiÅ³":9476,"Ġsukel":9477,"Ġvaldo":9478,"lif":9479,"ĠtipÅ³":9480,"ĠÄ¯gyti":9481,"ĠÄ¯veik":9482,"ĠjaunÅ³":9483,"Ġseptyni":9484,"ode":9485,"Ġarbatos":9486,"Ġpilies":9487,"Ġdomina":9488,"ĠgalÅ³":9489,"ĠkvieÄįiami":9490,"ĠÅ¡ali":9491,"Ġrytoj":9492,"Ġservis":9493,"Ġrizika":9494,"orÄ¯":9495,"ĠjÄĹzus":9496,"ĠiÅ¡orÄĹs":9497,"tod":9498,"Ġpasirenk":9499,"76":9500,"rika":9501,"ĠbalsÅ³":9502,"Ġkvies":9503,"Ġdemokrat":9504,"Ġvairuotojo":9505,"ĠsveÄįius":9506,"ĠsavanoriÅ³":9507,"dk":9508,"alos":9509,"Ġgerti":9510,"google":9511,"ĠrankovÄĹs":9512,"ĠÅ¾vaigÅ¾dÄĹs":9513,"ĠskrydÅ¾iÅ³":9514,"ybas":9515,"ĠsurengÄĹ":9516,"Ġperkant":9517,"Ġsaulius":9518,"ĠrankoviÅ³":9519,"ĠgalÄĹtume":9520,"Ġnaudojasi":9521,"ĠesmÄĹ":9522,"Ġvairuotojai":9523,"ĠÅ¾mogumi":9524,"osiose":9525,"58":9526,"ĠvairuotojÅ³":9527,"Ġpatiksl":9528,"Ġpresti":9529,"98":9530,"ĠÅ¡velniai":9531,"ĠveikÄĹjas":9532,"Ġorganizavimo":9533,"Ġobjektas":9534,"Ġsusikaup":9535,"Ġdiskusijos":9536,"Ġligomis":9537,"Ġfestivalyje":9538,"lovas":9539,"indÅ¾i":9540,"Ġlygoje":9541,"Ġhd":9542,"Ġlaidos":9543,"ĠnusprÄĻs":9544,"Ġatkar":9545,"Ġreabili":9546,"Ġnarius":9547,"Ġaugalai":9548,"ĠlÅ«pÅ³":9549,"71":9550,"etui":9551,"Ġsusijusios":9552,"ĠiÅ¡trauk":9553,"Ġaktorius":9554,"ĠbendroviÅ³":9555,"Ġturinys":9556,"Ġgamtoje":9557,"ĠartÄĹj":9558,"uogiÅ³":9559,"Å«m":9560,"tuota":9561,"Ġplanuoja":9562,"ĠnatÅ«ralios":9563,"davau":9564,"Ġnustatymo":9565,"Ġpirmuosius":9566,"Ġmedik":9567,"ĠaukÅ¡tÄħ":9568,"ĠatsipraÅ¡":9569,"ĠlÄĹÅ¡os":9570,"Ġkriterijus":9571,"ĠspecialistÄĹ":9572,"ĠbÅ«do":9573,"ĠuÅ¾draus":9574,"Ġopozi":9575,"Ġprivers":9576,"Ġoperatyv":9577,"evo":9578,"Ġqu":9579,"Ġpapasakojo":9580,"ĠjausmÄħ":9581,"Ġtaikomos":9582,"esiu":9583,"ĠpraÄĹjusiÅ³":9584,"ĠpasirinkimÄħ":9585,"ĠnetrÅ«k":9586,"Ġkieme":9587,"Ġ1996":9588,"Ġneleg":9589,"Ġrenginius":9590,"ĠtelefonÅ³":9591,"ĠsmÅ«g":9592,"ĠtiktÅ³":9593,"age":9594,"estin":9595,"iÅ¡kus":9596,"ĠdÄĹÅ¾ÄĹ":9597,"Â¬":9598,"etinÄĹ":9599,"ĠuÅ¾sisakyti":9600,"racijÄħ":9601,"Ġketv":9602,"ĠnÄĹÅ¡tumo":9603,"Ġkoali":9604,"Ġaugint":9605,"Ġstudentams":9606,"ĠlietuviÅ¡kos":9607,"inantys":9608,"Ġapkal":9609,"Ġklasi":9610,":)":9611,"interes":9612,"ĠtelefonÄħ":9613,"ĠlaikraÅ¡tis":9614,"tynÅ³":9615,"Ġgand":9616,"ĠpaÅ¾in":9617,"Ġprocesus":9618,"Ġatvirai":9619,"Ġneform":9620,"Ġ56":9621,"ĠaukÅ¡ta":9622,"Ġkvep":9623,"Ġtereikia":9624,"idÅ³":9625,"ĠvaikystÄĹs":9626,"Ġbendrai":9627,"ĠÅ¾uvÅ³":9628,"yro":9629,"ones":9630,"eko":9631,"Ġmielai":9632,"Ġmenas":9633,"\":\"":9634,"ĠuÅ¾sakymo":9635,"ĠpanaÅ¡u":9636,"Ġtransport":9637,"inÄįius":9638,"Ġkuriant":9639,"ĠvertÄĹtÅ³":9640,"ĠinfrastruktÅ«ros":9641,"Ġdovanos":9642,"Â²":9643,"Ġgydyti":9644,"olio":9645,"Ġlos":9646,"Ġmodeli":9647,"ĠpanaÅ¡iÅ³":9648,"ĠpabrÄĹÅ¾ia":9649,"antieji":9650,"Ġmatmenys":9651,"ĠskausmÄħ":9652,"Ġprisik":9653,"ĠraÅ¡ytojas":9654,"Ġtinkama":9655,"Ġnuolaida":9656,"ĠpaskutinÄĹs":9657,"Ġlaikosi":9658,"Ġdvik":9659,"ĠerdvÄĹ":9660,"ĠÅ¾inojo":9661,"ster":9662,"ĠnorÄħ":9663,"Ġnutraukti":9664,"let":9665,"poli":9666,"Ġarcheolog":9667,"Ġnaudodami":9668,"ĠÄ¯kÅ«rÄĹ":9669,"Ġtauti":9670,"ĠpavardÄĹ":9671,"Ġpasta":9672,"ction":9673,"ingiausiÅ³":9674,"ĠvÄĹs":9675,"Ġdvejus":9676,"ĠmasÄĹs":9677,"ĠraseiniÅ³":9678,"darÅ¾":9679,"meninÄĹ":9680,"ĠkÅ«rimas":9681,"ĠekspertÅ³":9682,"Ġroman":9683,"Ġturint":9684,"bÄĹs":9685,"Ġbrolis":9686,"ĠdidesnÄĻ":9687,"Ġitalijoje":9688,"ĠveÅ¾im":9689,"Ġpetras":9690,"Ġpusiau":9691,"Ġpanor":9692,"Ġfederacijos":9693,"Ġkonteks":9694,"ÄĹlimo":9695,"ĠÅ¡m":9696,"ls":9697,"âĢľ),":9698,"Ġ1944":9699,"Ġgalvoje":9700,"ĠanalizÄĹ":9701,"Ġnebes":9702,"Ġazijos":9703,"Ġprofesinio":9704,"ĠmokesÄįius":9705,"ĠkÅ«ryba":9706,"Å¾is":9707,"Ġprodukcijos":9708,"timui":9709,"Ġpoezijos":9710,"Ġkilogr":9711,"Ġsusiduria":9712,"ĠlapÅ³":9713,"glob":9714,"aise":9715,"Ġskirtingas":9716,"Ġfirmos":9717,"Ġnepaprastai":9718,"Ġsubti":9719,"ĠvÄĹd":9720,"ade":9721,"Ġjank":9722,"esniems":9723,"Ġviduram":9724,"Ġmeniu":9725,"ĠsusidÅ«r":9726,"Ġfizinio":9727,"ĠÄ¯sigali":9728,"ĠÅ¾mogiÅ¡k":9729,"ÄĹjom":9730,"ĠnebÄĹra":9731,"Ġsusp":9732,"ĠprisidÄĹjo":9733,"Ġautoriaus":9734,"iestyje":9735,"Ġgydytojo":9736,"Ġradvili":9737,"use":9738,"ĠatskleidÄĹ":9739,"Ġrekonstr":9740,"Ġprieskon":9741,"Ġnakties":9742,"Ġinteresus":9743,"visi":9744,"atl":9745,"ĠapaÅ¡":9746,"ĠcentrÅ³":9747,"funk":9748,"ĪĴ":9749,"ĠgrieÅ¾tai":9750,"Ġ\\":9751,"ĠkambariÅ³":9752,"Ġdramos":9753,"Ġpenkias":9754,"Ġmac":9755,"Ġagresyv":9756,"Å¡iai":9757,"Ġgaminami":9758,"ĠkÅ«riniai":9759,"vilnius":9760,"ĠminutÄĹs":9761,"Ġkurioms":9762,"Ġpirmos":9763,"Ġvyresni":9764,"elektr":9765,"Ġnevyk":9766,"Ġatliktas":9767,"tymo":9768,"xi":9769,"Ġgimtadien":9770,"usieji":9771,"Ġvadyb":9772,"ĠaukÅ¡tÅ³":9773,"Ġteatre":9774,"ĠplÄĹÅ¡":9775,"Ġbaltos":9776,"Ġsklypas":9777,"Ġjuostos":9778,"tuosi":9779,"ĠpaprasÄįiau":9780,"band":9781,"Ġgaleri":9782,"ĠiÅ¡rinktas":9783,"didÅ¾i":9784,"Ġdyk":9785,"ĠÄ¯monÄĹje":9786,"Ġpaskelbti":9787,"ÄĹle":9788,"Ġsausa":9789,"ĠlaukÄĹ":9790,"Ġprilyg":9791,"Ġ58":9792,"tiniams":9793,"ĠvieniÅ¡":9794,"Ġdangos":9795,"Ġorai":9796,"ĠÄ¯prastai":9797,"74":9798,"ĠteismÄħ":9799,"Ġinstitucija":9800,"Ġ1940":9801,"ĠrizikÄħ":9802,"tienos":9803,"lia":9804,"pasi":9805,"ĠpasiÅ«lymÄħ":9806,"aminti":9807,"ĠdrabuÅ¾ius":9808,"enda":9809,"Ġatgaiv":9810,"Ġetape":9811,"59":9812,"Ġinstali":9813,"Ġserb":9814,"ĠrankÄħ":9815,"ĠmerginÅ³":9816,"Ġfondas":9817,"Ġjuodos":9818,"ĠypatingÄħ":9819,"Ġobjektus":9820,"rosoft":9821,"Ġvokietija":9822,"Ġpolic":9823,"Ġsuplan":9824,"Ġnevar":9825,"Ġspaudai":9826,"Ġnesis":9827,"Ġsusitikti":9828,"Ġantroje":9829,"Ġsuprantu":9830,"ment":9831,"Ġfraz":9832,"Ġneteko":9833,"kg":9834,"Ġaer":9835,"Ġkomandoje":9836,"ĠmasaÅ¾":9837,"ĠÅ¾aidimus":9838,"Ġnesun":9839,"ĠmÄĹgstami":9840,"ĠnatÅ«ralus":9841,"Ġprofilak":9842,"tetas":9843,"Ġkariai":9844,"ĠÅ¾aidÄĹjas":9845,"Ġvisomis":9846,"Ġdetales":9847,"Ġmask":9848,"Ġpavarg":9849,"Ġgelton":9850,"ĠaukÅ¡te":9851,"ĠsumuÅ¡":9852,"53":9853,"tuÅ¡":9854,"Ġlaur":9855,"Ġkranto":9856,"à¸":9857,"daÅ¾":9858,"inkiÅ³":9859,"Ġignal":9860,"gos":9861,"Ġhigienos":9862,"Ġnusis":9863,"klaipÄĹd":9864,"2013":9865,"Ġkomplektas":9866,"Ġkryptis":9867,"Ġcigar":9868,"ĠpanaÅ¡Å«s":9869,"ĠpirmininkÄĹ":9870,"ifik":9871,"ĠpraneÅ¡ti":9872,"orÄħ":9873,"ĠiÅ¡klaus":9874,"ĠliÅ«":9875,"Ġsakr":9876,"ĠnatÅ«rali":9877,"ando":9878,"iet":9879,"Ġkoply":9880,"Ġsodybos":9881,"Å¡kÄĹ":9882,"Ġskandin":9883,"ĠÄ¯vairiomis":9884,"Ġketina":9885,"ĠiÅ¡maiÅ¡":9886,"Ġredag":9887,"Ġpapro":9888,"ĠpÅ«s":9889,"ĠramybÄĹs":9890,"Ġnumatyti":9891,"mod":9892,"elsi":9893,"Ġarkivyskup":9894,"ĠÅ¡ilta":9895,"Ġjumis":9896,"Ġrestaur":9897,"Ġstraipsniai":9898,"ĠtreÄįia":9899,"Ġnurodytas":9900,"ĠpatarimÅ³":9901,"ieÄįio":9902,"untÄĹ":9903,"mail":9904,"naud":9905,"ĠelgesÄ¯":9906,"ĠlaiÅ¡kÄħ":9907,"Ġpapildomos":9908,"Ġ59":9909,"Ġnere":9910,"Ġlaikotarpi":9911,"van":9912,"Ġneutr":9913,"ĠaikÅ¡tÄĹs":9914,"Ð´":9915,"Ġpaulius":9916,"ĠiÅ¡liko":9917,"auks":9918,"ĠdÅ¾iaugsmo":9919,"ĠÅ¡iuolai":9920,"ografijos":9921,"Ġ52":9922,"Ġsugad":9923,"ĠpensijÅ³":9924,"ĠsiÅ³sti":9925,"iama":9926,"vasar":9927,"spaud":9928,"Ġsel":9929,"Ġdarbu":9930,"Ġkairi":9931,"ĠÄ¯sigij":9932,"ĠÅ¾urnal":9933,"esiÅ³":9934,"Ġstori":9935,"Ġhidr":9936,"ĠnuotaikÄħ":9937,"Ġasfal":9938,"ĠvirÅ¡Å³":9939,"Ġapyv":9940,"ĠpluoÅ¡":9941,"Ġpetr":9942,"Ġnusid":9943,"Ġatom":9944,"tiks":9945,"ĠpaminÄĹ":9946,"ciniÅ³":9947,"Ġprot":9948,"ytÄĻ":9949,"Ġatsirasti":9950,"sel":9951,"ĠlauÅ¾":9952,"ĠinformaciniÅ³":9953,"stos":9954,"stant":9955,"ĠÅ¾ibin":9956,"ĠpakraÅ¡":9957,"Ġbuto":9958,"Ġtinklas":9959,"ith":9960,"Ġdukra":9961,"Ġvyksi":9962,"ĠpridÄĹ":9963,"Ġnacionalinis":9964,"atais":9965,"Ġansambl":9966,"tuvu":9967,"Ġansamb":9968,"ĠvedÄĹja":9969,"Ġapimtis":9970,"aciniÅ³":9971,"Ġmg":9972,"Ġjausmus":9973,"ĠsugebÄĹjo":9974,"Ġvisu":9975,"Ġsielos":9976,"73":9977,"Ġsarg":9978,"Ġdez":9979,"ukams":9980,"ĠjudÄĹti":9981,"lijos":9982,"ĠtÄĹvynÄĹs":9983,"Ġsab":9984,"Ġkitame":9985,"Ġkw":9986,"Ġgimnazijoje":9987,"Ġrinka":9988,"Ġdulk":9989,"Ġnenu":9990,"indama":9991,"Ġturnyras":9992,"ĠkÅ«diki":9993,"Ġ1993":9994,"Ġ..":9995,"Ġinformuoti":9996,"Ġeter":9997,"ĠprocedÅ«ra":9998,"ĠsenÅ³":9999,"ĠdokumentÄħ":10000,"Ġend":10001,"ĠvalstybÄĹje":10002,"Ġlondono":10003,"Ġgamina":10004,"Ġmanymu":10005,"ĠsusitikimÄħ":10006,"ĠlÄĹkÅ¡":10007,"cc":10008,"ĠprieÅ¾iÅ«rÄħ":10009,"ĠploÄįio":10010,"ĠdidÄĹja":10011,"2015":10012,"ĠtrumpÄħ":10013,"Ġkaklo":10014,"nr":10015,"ĠdÅ¾iaugiuosi":10016,"Ġapgyvendinimo":10017,"ĠkontrolÄĹ":10018,"Ġsusidaro":10019,"ĠiÅ¡ver":10020,"ĠleidÅ¾iama":10021,"Å¾iui":10022,"ĠÅ¡okio":10023,"ĠlÅ«kesÄįius":10024,"Ġnuotraukoje":10025,"Äįiame":10026,"ĠÅ¾enk":10027,"ÄĹtÄħ":10028,"Ġ1994":10029,"ieÄįius":10030,"Ġmyli":10031,"ĠpaprasÄįi":10032,"Ġstatyba":10033,"Ġatsisveik":10034,"ĠavalynÄĹ":10035,"Ġroko":10036,"ĠneÄ¯gali":10037,"Ġkonstrukcijos":10038,"Å¡e":10039,"ynos":10040,"ĠsvetainÄĻ":10041,"Ġpakanka":10042,"ester":10043,"ĠpaskolÅ³":10044,"Ġlikvid":10045,"Ġvicem":10046,"ĠkortelÄĹs":10047,"Ġnaujojo":10048,"72":10049,"Ġsenas":10050,"ĠdulkiÅ³":10051,"ld":10052,"??":10053,"Ġpic":10054,"Ġikimok":10055,"etiniÅ³":10056,"pavy":10057,"Ġsugeba":10058,"sod":10059,"ĠprieÅ¾astys":10060,"Ġ::":10061,"ĠkÅ«rÄĹjai":10062,"Ġimperijos":10063,"Ġvyriausiasis":10064,"Ġtei":10065,"ters":10066,"ĠturÄĹsite":10067,"Ġbesid":10068,"ĠjauÄįia":10069,"Ġnegalime":10070,"Ġblizg":10071,"Ġmarija":10072,"ĠÄ¯rank":10073,"tiesiog":10074,"ĠvirÅ¡aus":10075,"ĠpakvietÄĹ":10076,"Ġtiktai":10077,"Ġnepadar":10078,"ybinÄĹs":10079,"Ġtradicija":10080,"ĠdidÅ¾iulis":10081,"Ġteisme":10082,"Ġtaikomi":10083,"Ġnepriklausomai":10084,"vyl":10085,"amumo":10086,"kuo":10087,"ĠlietuviÅ¡kai":10088,"Ġpalaikymo":10089,"ĠmiÅ¡ke":10090,"Ġolimpi":10091,"Ġkalbomis":10092,"Ġimpr":10093,"ĠdidÅ¾iausi":10094,"Ġsuinteres":10095,"Ġsurinko":10096,"ĠpavojÅ³":10097,"ĠiÅ¡vis":10098,"Ġambi":10099,"Ġstak":10100,"ĠpÄĹdsak":10101,"Ġteise":10102,"ĠnÄĹr":10103,"enai":10104,"Ġkapitalo":10105,"galv":10106,"ĠkokybiÅ¡kas":10107,"ĠÄ¯kai":10108,"ĠgyvÅ«nai":10109,"ĠteisÄĹjÅ³":10110,"ĠpasireiÅ¡kia":10111,"Ġstaig":10112,"ĠanykÅ¡ÄįiÅ³":10113,"Ġpasidom":10114,"Ġpastov":10115,"ieriai":10116,"tosi":10117,"Ġpremjeras":10118,"ikliai":10119,"yja":10120,"ĠÅ¡ventes":10121,"Ġskirtingus":10122,"Ġsusirg":10123,"Ġizraelio":10124,"ĠpadÄĹtÅ³":10125,"ĠstatybÅ³":10126,"Ġnaudingas":10127,"Ġpasirodyti":10128,"chas":10129,"Ġkongres":10130,"isto":10131,"Ġceremon":10132,"ĠpergalÄĹs":10133,"Ġmatau":10134,"Ġpriversti":10135,"gyvenimas":10136,"lab":10137,"ĠÅ¾arn":10138,"Ġalkohol":10139,"Ġsutink":10140,"Ġatvejus":10141,"niu":10142,"ĠfinansinÄĹs":10143,"Ġsmegen":10144,"ĠsvarbÄħ":10145,"Ġmodeliai":10146,"ĠpardavÄĹjas":10147,"Ġmaj":10148,"eviÄį":10149,"Ġsutinka":10150,"Ġorganizmas":10151,"Ġatkurti":10152,"Ġnenum":10153,"ĠdangÅ³":10154,"ĠtÄĻsti":10155,"!!!":10156,"62":10157,"ĠkryÅ¾iaus":10158,"kiÅ¡":10159,"ĠprÅ«s":10160,"Ġgyvas":10161,"ance":10162,"Ġekonomika":10163,"dir":10164,"Ġlondone":10165,"ĠÅ¾vak":10166,"ĠpriÅ¾iÅ«rÄĹti":10167,"ĠstruktÅ«ra":10168,"ĠporeikÄ¯":10169,"ĠpasipuoÅ¡":10170,"Ġnorintiems":10171,"ĠgaliÄħ":10172,"Ġatkak":10173,"Ġlemi":10174,"damiesi":10175,"Ġteniso":10176,"ĠligoninÄĹje":10177,"ĠvarÅ¾ybas":10178,"ĠpraneÅ¡imas":10179,"rink":10180,"ankst":10181,"Ġsuteikiama":10182,"dvi":10183,"ĠrÅ«muose":10184,"har":10185,"Ġgaliojimo":10186,"ĠpakuotÄĹs":10187,"Ġburnos":10188,"Ġspektaklis":10189,"ĠnebÅ«tinai":10190,"Ġfacebook":10191,"imasi":10192,"vais":10193,"uva":10194,"encijÄħ":10195,"Ġmoksleivi":10196,"ĠgrÄ¯Å¾ta":10197,"Ġnuovar":10198,"geri":10199,"Ġpraeities":10200,"ĠÅ¾uvies":10201,"ms":10202,"Ġpasirinko":10203,"Ġcl":10204,"Ġnaujoji":10205,"Ġlovos":10206,"Ä«":10207,"tojimo":10208,"Ġweb":10209,"ĠdÅ¾iaugÄĹsi":10210,"ĠÄ¯rankiai":10211,"Ġaptarti":10212,"imet":10213,"tÄĹti":10214,"Ġpageidauj":10215,"enkÄĹ":10216,"dal":10217,"ĠneÄ¯v":10218,"ĠprieÅ¡gais":10219,"Ġpatikim":10220,"Ġraus":10221,"Ġstiprinti":10222,"Ġteismui":10223,"Ġlyties":10224,"Ġsibir":10225,"nom":10226,"ĠÅ¾enklai":10227,"82":10228,"ĠiÅ¡sivys":10229,"tuoja":10230,"ĠadresÄħ":10231,"Ġrajonas":10232,"ĠÄ¯am":10233,"iekaiÅ¡":10234,"Ġbaigiasi":10235,"ĠÅ¾vÄĹr":10236,"Ġvidutinis":10237,"auga":10238,"ĠantrÄħjÄħ":10239,"Ġpataria":10240,"Ġpasa":10241,"alizmo":10242,"alizuoti":10243,"Ġorganizme":10244,"Ġlenkija":10245,"Å¡kumas":10246,"odavo":10247,"Ġbot":10248,"Ġstoties":10249,"Ġobjekto":10250,"Ġrungtyni":10251,"Ġatkeli":10252,"Ġsukuri":10253,"ĠnugalÄĹjo":10254,"ĠvarÄĹn":10255,"Ġpenkis":10256,"ĠnepriklausomybÄĻ":10257,"Ġakl":10258,"ymams":10259,"izmo":10260,"Ġatras":10261,"ju":10262,"burgo":10263,"Ġwh":10264,"Ġtransform":10265,"ĠgalÄĹÄįiau":10266,"ĠkrikÅ¡ÄįioniÅ³":10267,"Ġlok":10268,"Ġpuslapio":10269,"Ġnuostatas":10270,"Ġpetro":10271,"ĠleidimÄħ":10272,"ĠÅ¾aizd":10273,"Ġkoreg":10274,"rija":10275,"ĠuÅ¾siregistr":10276,"Ġkrosn":10277,"Ġanali":10278,"Ġatsisp":10279,"Ġmodern":10280,"Ġrespublikoje":10281,"ĠÄ¯statymus":10282,"ĠrungtynÄĹs":10283,"yder":10284,"ĠspecialiÅ³jÅ³":10285,"Ġlietuviams":10286,"Ã·":10287,"Ġimpl":10288,"Ġparlamentar":10289,"ĠkeiÄįia":10290,"odi":10291,"Ġapi":10292,"tant":10293,"Ġtikrus":10294,"inanÄįios":10295,"Ġkursai":10296,"ĠÅ¾vaigÅ¾dÅ¾iÅ³":10297,"Ġplatus":10298,"roid":10299,"ĠsvarbiÅ³":10300,"Ġlaiki":10301,"ĠgraikÅ³":10302,"Ġsugri":10303,"Ġ800":10304,"ĠÅ¡vieÅ¾i":10305,"Ġprel":10306,"ĠkokybiÅ¡kai":10307,"Å¡iad":10308,"ĠpilieÄįiai":10309,"Ġsutikti":10310,"Ġgyvai":10311,"Ġpusiaus":10312,"Ġbaudos":10313,"Ġbuvusio":10314,"Ġkarb":10315,"84":10316,"Ġprodius":10317,"Ġorganizavo":10318,"ĠlÄĹtai":10319,"Ġpanaikinti":10320,"Ġvadinami":10321,"Ġgras":10322,"Ġinovatyv":10323,"Ġatver":10324,"Ġpriekab":10325,"pran":10326,"Ġvasara":10327,"Ġsezonas":10328,"Ġsusigr":10329,"ĠkvÄĹpavimo":10330,".;":10331,"Ġvyriausiojo":10332,"ĠgatvÄĹ":10333,"Ġlango":10334,"Ġiniciatyvos":10335,"ĠmaÅ¾Äħ":10336,"ĠiÅ¡leistas":10337,"Ġportugal":10338,"ĠantrÄħjÄ¯":10339,"ĠautorÄĹ":10340,"ĠpatiekalÅ³":10341,"Ġvib":10342,"61":10343,"Ġfilmai":10344,"Ġakto":10345,"rios":10346,"Ġ1941":10347,"ĠÄ¯monÄĻ":10348,"Ġkarp":10349,"ĠtikimÄĹs":10350,"ĠpjÅ«":10351,"ĠpareiÅ¡kÄĹjo":10352,"ĠlaukÄħ":10353,"kap":10354,"ĠmaÅ¾ÄĹja":10355,"Ġskri":10356,"Ġmokosi":10357,"alizacija":10358,"buv":10359,"ĠpeÄįiÅ³":10360,"Ġjuli":10361,"Å¡ev":10362,"Ġkuror":10363,"imasis":10364,"ĠpolitikÅ³":10365,"ĠminutÄĻ":10366,"Ġatspalv":10367,"Ġinteg":10368,"Ġsustabdyti":10369,"zdÅ¾iÅ³":10370,"Ġporeikis":10371,"ĠÄ¯sitikinÄĻs":10372,"Ġliu":10373,"ĠÄ¯domiÅ³":10374,"mic":10375,"ĠupÄĹ":10376,"uÄįio":10377,"Ġhip":10378,"Ġlaikin":10379,"Ġdidesnio":10380,"Ġreikalingos":10381,"Ġaugti":10382,"tvakar":10383,"ĠuÅ¾registr":10384,"umentais":10385,"ĠpadangÅ³":10386,"ĠapÅ¾iÅ«rÄĹti":10387,"Ġkurso":10388,"Ġportr":10389,"Ġvandeniui":10390,"Ġsveikat":10391,"ĠiÅ¡eiti":10392,"Ġkomitetas":10393,"ĠÅ¡aun":10394,"Ġkadaise":10395,"ĠsiuÅ¾":10396,"ĠÄ¯rankiÅ³":10397,"ĠtaÅ¡ko":10398,"yga":10399,"Ġsusk":10400,"Ġpasisek":10401,"Ġvykdomas":10402,"Ġomen":10403,"ĠpartijÅ³":10404,"Ġpratur":10405,"ĠreÄįiau":10406,"Ġvadinti":10407,"elsiant":10408,"ovui":10409,"Ġprincip":10410,"bro":10411,"ynus":10412,"Ġapyr":10413,"ĠÄ¯dÄĹti":10414,"Ġneleis":10415,"Ġprisimena":10416,"Ġnuotaika":10417,"alans":10418,"tininkas":10419,"ĠsalÄĹ":10420,"Ġatskirti":10421,"tinÄĹms":10422,"ĠorganÅ³":10423,"ĠraiÅ¡k":10424,"ĠalbumÄħ":10425,"Ġrinkti":10426,"ĠkÄĻstutis":10427,"ĠdidÅ¾iÅ³jÅ³":10428,"ĠtÅ«kstanÄįius":10429,"yklÅ³":10430,"ĠpaÅ¾angi":10431,"Ġnedidelis":10432,"ĠjaunÅ³jÅ³":10433,"ĠatskleidÅ¾ia":10434,"Ġinvestuoti":10435,"Ġkeliai":10436,",...":10437,"niek":10438,"Ġteikiama":10439,"Ġgeneralinis":10440,"iame":10441,"ĠatskirÅ³":10442,"Ġgalimai":10443,"prad":10444,"Ġvr":10445,"Ġjokiu":10446,"Ġdrama":10447,"jomis":10448,",-":10449,"Ġbns":10450,"Ġfunkcion":10451,"naÅ¡":10452,"eipia":10453,"Ġbuhalter":10454,"Ġvadybos":10455,"Ġsuval":10456,"Ġtekst":10457,"ĠuÅ¾klaus":10458,"ĠpasiryÅ¾":10459,"ĠkÅ«rÄĹjÅ³":10460,"hu":10461,"ĠbÄĹgant":10462,"ĠlaivÅ³":10463,"bÅ«tÅ³":10464,"gri":10465,"kÄ¯":10466,"Ġapskrityje":10467,"Ġnesut":10468,"Ġisland":10469,"ĠeÅ¾eras":10470,"Ġzo":10471,"ĠmÄĹsa":10472,"odama":10473,"acinis":10474,"ÑģÑĤ":10475,"ĠdÄĹti":10476,"tels":10477,"ĠÄ¯sivaizduoti":10478,"ĠsusirÅ«p":10479,"uso":10480,"ĠneÄ¯gal":10481,"Ġperkelti":10482,"Ġpaveld":10483,"ĠparengÄĹ":10484,"Ġlabdar":10485,"Ġandri":10486,"ĠplÄĹtra":10487,"Ġateis":10488,"Ġkeleivi":10489,"Ġpaskirtis":10490,"83":10491,"Ġdiab":10492,"Ġpalan":10493,"ĠtradiciÅ¡kai":10494,"Ġbendros":10495,"ĠvirtuvÄĹ":10496,"Ġspausdin":10497,"54":10498,"cia":10499,"ĠroÅ¾inÄĹ":10500,"Ġdarbais":10501,"Ġintrig":10502,"ĠlÄĹmÄĹ":10503,"Ġnedelsiant":10504,"ĠpagrÄ¯s":10505,"Ġ2020":10506,"Ġpateikimo":10507,"2014":10508,"chem":10509,"ĠnepamirÅ¡kite":10510,"Ġvalen":10511,"ĠpradÅ¾iÄħ":10512,"Ġmegztiniai":10513,"andÄ¯":10514,"Ġpasij":10515,"ingomis":10516,"Ġmatematikos":10517,"ĠpalaidinÄĹ":10518,"Ġsusirinko":10519,"ĠturÄĹtumÄĹte":10520,"Ġdaiktai":10521,"ath":10522,"Ġpamokos":10523,"Ġdiskr":10524,"ĠginklÅ³":10525,"ĠgalÄĹtumÄĹte":10526,"rikas":10527,"Ġprevencijos":10528,"ĠpadÄĹties":10529,"ĠnepriekaiÅ¡":10530,"ĠsienÄħ":10531,"ĠdÄĹvÄĹta":10532,"ĠkilÄĻs":10533,"ĠkÅ«rÄĹ":10534,"Ġgyvens":10535,"ogi":10536,"Ġatlikta":10537,"Ġnaudingi":10538,"ĠpalÅ«kanÅ³":10539,"ĠmaÅ¾ina":10540,"ieÅ¾":10541,"Ġpietvakar":10542,"Å¾iÅ«ra":10543,"Ġpeter":10544,"Å«dij":10545,"Ġnuostatos":10546,"ĠdaugybÄĹs":10547,"ĠbÅ«dus":10548,"Ġaugo":10549,"ĠkoncertÅ³":10550,"Ġvali":10551,"Ġpagalvoti":10552,"Å¡iuo":10553,"Ġteksti":10554,"Ġpatarimai":10555,"Ġvu":10556,"tk":10557,"Ġ54":10558,"ĠparaÅ¡yta":10559,"Ġgautas":10560,"Ġfini":10561,"Ġpateis":10562,"Ġbrius":10563,"ĠtaptÅ³":10564,"Ġvykdant":10565,"ĠregionÅ³":10566,"inui":10567,"Ġoficiali":10568,"ĠÐ¿":10569,"Ġins":10570,"ĠmaÅ¾esnÄĹ":10571,"ĠsÄħjungoje":10572,"Ġgausiai":10573,"ĠprocesÅ³":10574,"ĠÅ¡iukÅ¡liÅ³":10575,"Ġpalap":10576,"saul":10577,"Ġvakaruose":10578,"nik":10579,"ĠmygtukÄħ":10580,"Ġvaivad":10581,"ĠpaÅ¾ymÄĹjo":10582,"Ġsuteikta":10583,"Ġmasyv":10584,"Å³jÄ¯":10585,"Ġpavadinimu":10586,"ĠÄ¯temp":10587,"Ġkart":10588,"Ġkamera":10589,"ĠaliejÅ³":10590,"ĠpraÄĹjusÄ¯":10591,"Ġelgesys":10592,"ĠvÄĹjas":10593,"ĠprieÅ¡ais":10594,"Ġmokymai":10595,"taigi":10596,"ĠnervÅ³":10597,"ĠinÅ¾iner":10598,"ĠkÅ«rinius":10599,"bie":10600,"Ġstebukl":10601,"avusiÅ³":10602,"etinÄĹs":10603,"Ġbankro":10604,"Ġrekomenduojame":10605,"Ġdantis":10606,"Ġmetodas":10607,"Ġiev":10608,"ĠaikÅ¡telÄĹje":10609,"Ġagr":10610,"nam":10611,"Ġpatiria":10612,"Ġniekad":10613,"muz":10614,"ĠpoÅ¾em":10615,"Ġlaidoje":10616,"Ġgyvenimu":10617,"ark":10618,"Ġreikalas":10619,"iÅ¡kumÄħ":10620,"ĠrÅ«pinasi":10621,"92":10622,"ĠiÅ¡tver":10623,"Ġegl":10624,"izmas":10625,"ãĢ":10626,"Ġsusitiko":10627,"Ġkiekviename":10628,"ĠbirÅ¾Å³":10629,"ĠvitaminÅ³":10630,"uti":10631,"ĠesantÄ¯":10632,"oda":10633,"ĠparodÄħ":10634,"Ġ180":10635,"jav":10636,"Ġparos":10637,"celi":10638,"ĠreikiamÄħ":10639,"ĠpraÄĹjusiais":10640,"ĠpaskolÄħ":10641,"Ġatsikratyti":10642,"ojasi":10643,"Ġskais":10644,"oso":10645,"ĠpagrindÄħ":10646,"Ġfrank":10647,"ĠvietiniÅ³":10648,"Ġilgainiui":10649,"Ġatsargiai":10650,"Ġmark":10651,"Ġpavojus":10652,"Ġbyla":10653,"ĠpraÄĹjusiÄħ":10654,"ĠbankÅ³":10655,"Ġatgim":10656,"ĠÄ¯vyks":10657,"Ġgausite":10658,"Ġsimbolis":10659,"Ġbaldus":10660,"ĠatsakymÄħ":10661,"ĠiÅ¡vyko":10662,"eriui":10663,"atui":10664,"kirp":10665,"Ġgydytoja":10666,"audamas":10667,"ĠmaÅ¡inÅ³":10668,"Ġbilietus":10669,"ĠÄ¯p":10670,"56":10671,"ĠÄĹmÄĹsi":10672,"Ġvertybes":10673,"Ġmiestelyje":10674,"Ġton":10675,"ĠiÅ¡gyventi":10676,"ft":10677,"ĠatvykÄĻ":10678,"Ġnepris":10679,"Ġkro":10680,"ĠÄ¯vykiai":10681,"pavyzdÅ¾iui":10682,"andas":10683,"iklo":10684,"ĠkrÅ«tinÄĹs":10685,"Ġhidro":10686,"ĠabejoniÅ³":10687,"terÄ¯":10688,"Ġlangus":10689,"Ġpilvo":10690,"Ġmalonu":10691,"telÄĹmis":10692,"Ġsmagi":10693,"ĠlietuviÅ¡kÅ³":10694,"we":10695,"insiu":10696,"Å¡ven":10697,"ĠuÅ¾siim":10698,"Ġkoncentr":10699,"Ġprocese":10700,"ĠrokiÅ¡kio":10701,"Ġmarga":10702,"Å¾mog":10703,"ĠtemÄħ":10704,"Ġpavien":10705,"vair":10706,"Ġvizu":10707,"tabu":10708,"ojaus":10709,"ĠmÄĹgÄĹjÅ³":10710,"Ġbrazili":10711,"ĠpaÄįiais":10712,"ĠskelbimÅ³":10713,"Ġaliuminio":10714,"Ġdaroma":10715,"Ġprojektui":10716,"tiki":10717,"Ġkosmetikos":10718,"ĠÄįempionatas":10719,"Ġpremijos":10720,"Ġpatvar":10721,"ĠÅ¡imtus":10722,"torÄĹs":10723,"ĠÄ¯veikÄĹ":10724,"Ġtvirtai":10725,"ide":10726,"skas":10727,"ĠdeÅ¡imtmeÄįio":10728,"Å«ras":10729,"Ġinformuoja":10730,"ĠsÅ«nÅ³":10731,"Ġpersonalo":10732,"ĠapylinkÄĹse":10733,"Ġkilti":10734,"Ġkvapas":10735,"Ġunikalus":10736,"Ġkolegijos":10737,"ĠeuropÄħ":10738,"Ġmokymas":10739,"ĠplokÅ¡tÄĹs":10740,"Ġsuvoki":10741,"Ġvladimir":10742,"Ġpaskelbtas":10743,"ric":10744,"vp":10745,"ojusi":10746,"ĠpasiÅ«lymas":10747,"ĠtekstÄħ":10748,"Ġlapai":10749,"Ġtegul":10750,"Ġnuotaikos":10751,"ĠproduktÄħ":10752,"ĠdievÄħ":10753,"ĠcivilinÄĹs":10754,"Ġvisag":10755,"ĠnaudojimÄħ":10756,"Ġmodifik":10757,"Ġnusivyl":10758,"ĠmokymÅ³":10759,"Ġstimuli":10760,"ĠtÅ«kstanÄįiai":10761,"ĠaikÅ¡telÄĹs":10762,"elo":10763,"ĠmergaitÄĹs":10764,"ĠmergaitÄĹ":10765,"ĠsritÄ¯":10766,"nias":10767,"Ġsantykis":10768,"ĠgÄĹlÄĹs":10769,"Ġkinijoje":10770,"ĠsutrikimÅ³":10771,"ĠsalÄĹs":10772,"klis":10773,"Ġalgim":10774,"inÄįios":10775,"ĠapÅ¾vel":10776,"ĠÄ¯statyme":10777,"ĠÄįiur":10778,"Ġlaisvalaik":10779,"ĠÅ¡itÄħ":10780,"Ġfolkl":10781,"Ġnepali":10782,"Ġatliekama":10783,"Ġplien":10784,"ĠpusiÅ³":10785,"Ġklube":10786,"ytum":10787,"Å¾Å³":10788,"Ġstambi":10789,"Ġmigr":10790,"unt":10791,"ĠÄ¯tampos":10792,"Ġstend":10793,"ĠmedvilnÄĹ":10794,"projek":10795,"ulÄĹ":10796,"Ġlit":10797,"Ġimun":10798,"Ġnelyg":10799,"ĠiÅ¡sin":10800,"Ġliks":10801,"Å¡ius":10802,"ĠdÅ¾em":10803,"Ġfotoapar":10804,"Ġpabaiga":10805,"Ġvitamino":10806,"Ġkosmos":10807,"âĢ¢":10808,"tuoju":10809,"ĠtinklaraÅ¡":10810,"Ġneturiu":10811,"ĠatrodytÅ³":10812,"Å¡tas":10813,"ĠpopieÅ¾ius":10814,"Ġpasimat":10815,"yklÄħ":10816,"pap":10817,"ĠÅ¡imtme":10818,"Ġrumun":10819,"Ġeurol":10820,"ĠartimÅ³jÅ³":10821,"ĠklasÄĹje":10822,"ĠiÅ¡vaizda":10823,"Ġdainas":10824,"ĠiÅ¡mani":10825,"ĠprienÅ³":10826,"Ġrin":10827,"ciz":10828,"ĠgreiÄįiu":10829,"Ġpalink":10830,"Ġspa":10831,"Ġpermain":10832,"ojamos":10833,"Ġukrainoje":10834,"Ġpastatai":10835,"omosios":10836,"ĠaikÅ¡telÄĹ":10837,"ĠpasitikÄĹjimÄħ":10838,"ĠsandÄĹli":10839,"ĠÄ¯vairiuose":10840,"ingoje":10841,"Ġdvigubai":10842,"aujanÄįiÅ³":10843,"ĠgÄĹrimÅ³":10844,"uls":10845,"mantas":10846,"Ġsvarsto":10847,"ĠterminÄħ":10848,"uotojÅ³":10849,"Ġsukeli":10850,"Ġaur":10851,"Ġteigti":10852,"Ġugniag":10853,"Ġypatingas":10854,"Ġvertik":10855,"adic":10856,"Ġbateliai":10857,"inimais":10858,"Ġprap":10859,"Ġentuzias":10860,"uotes":10861,"ĠurÄĹd":10862,"Ġpaimti":10863,"rikos":10864,"Ġpaversti":10865,"ĠaplinkybiÅ³":10866,"lietuva":10867,"ĠverÄįia":10868,"Ġnepagr":10869,"Ġmeks":10870,"dai":10871,"ĠpanevÄĹÅ¾yje":10872,"ĠÅ¡vark":10873,"Ġteatr":10874,"Ġmez":10875,"Ġliemuo":10876,"san":10877,"tasi":10878,"ax":10879,"ĠkitokiÅ³":10880,"ĠÄ¯kal":10881,"Ġnepaj":10882,"ĠstatiniÅ³":10883,"Ġteikiamos":10884,"Ġpogr":10885,"sio":10886,"Ġsituacijoje":10887,"ĠpavyzdÅ¾iÅ³":10888,"ĠÄ¯rodyti":10889,"Ġdokumento":10890,"57":10891,"ĠbendradarbiavimÄħ":10892,"intuvas":10893,"Ġby":10894,"Ġvirgin":10895,"Ġtalen":10896,"Ġbuk":10897,"Ġgiminai":10898,"Ġkonkret":10899,"akalau":10900,"df":10901,"Å«rÅ³":10902,"Äįiam":10903,"Ġindeks":10904,"ĠbÅ«dai":10905,"Ø§":10906,"vieÅ¡":10907,"Ġprekyb":10908,"ĠpraÄĹjo":10909,"Ã³":10910,"emat":10911,"ĠnorimÄħ":10912,"ĠÄ¯raÅ¡as":10913,"Ġnetoliese":10914,"Ġautoriai":10915,"Ġatspal":10916,"ĠgraÅ¾ios":10917,"Ġpatiri":10918,"ĠÄ¯renginiai":10919,".-":10920,"ĠÅ¾urnalo":10921,"juod":10922,"inform":10923,"Ġpasiekia":10924,"ĠkraÅ¡tÄħ":10925,"Ġpakop":10926,"ĠstovÄĹjimo":10927,"Ġstandartus":10928,"Ġpeties":10929,"ĠÅ¡lai":10930,"autobus":10931,"Ġpraras":10932,"kienÄĹ":10933,"Ġsavininkai":10934,"Ġtrunka":10935,"ĠpareiÅ¡kÄĹjas":10936,"ĠneaiÅ¡ku":10937,"Ġsaloje":10938,"Ġkategorija":10939,"ĠteisinÄĹs":10940,"ĠbilietÅ³":10941,"Ġatspindi":10942,"Ġspektr":10943,"ĠÄ¯raÅ¡yti":10944,"Ġkiekvienais":10945,"Ġdidysis":10946,"sud":10947,"Ġdist":10948,"ĠÅ¾aidÅ¾ia":10949,"alija":10950,"Ġgailes":10951,"ojantis":10952,"ĠÅ¡iems":10953,"Ġpasv":10954,"Ġnepan":10955,"Ġlanky":10956,"Ġbaid":10957,"Ġsveikas":10958,"ĠloÅ¡":10959,"ĠpatogÅ«s":10960,"elÄĹje":10961,"ĠpelÄĹs":10962,"Ġschem":10963,"ĠakivaizdÅ¾iai":10964,"ĠaktorÄĹ":10965,"Ġnerv":10966,"Ġmoksleiviai":10967,"orÄĹ":10968,"Ġnesig":10969,"Ġpres":10970,"ulÄĹs":10971,"Ġeste":10972,"mal":10973,"ola":10974,"Ġformas":10975,"agos":10976,"Ġgarsus":10977,"Ġseptin":10978,"Ġgamybai":10979,"ĠkvapÄħ":10980,"pin":10981,"ĠstebÄĹjimo":10982,"Ġskirtingos":10983,"ĠÅ¡ilum":10984,"ĠbÅ«rys":10985,"ĠÄ¯monei":10986,"atorÄĹ":10987,"Ġsoviet":10988,"Ġbijo":10989,"Ġsat":10990,"Ġintelektu":10991,"ĠpaÅ¾iÅ«rÄĹti":10992,"ĠiÅ¡nagr":10993,"Ġbek":10994,"Ġkameros":10995,"Ġgabrie":10996,"Ġsusitikime":10997,"Ġdarbuotojo":10998,"ĠiÅ¡kel":10999,"Ġkud":11000,"Ġorganizmui":11001,"Ġseo":11002,"anÄįiose":11003,"ĠuÅ¾pildyti":11004,"Ġdarbuotojus":11005,"ĠtarnybÄħ":11006,"ĠvalstybiniÅ³":11007,"emti":11008,"Ġsekso":11009,"Ġnebet":11010,"Ġtokiomis":11011,"yderland":11012,"Å¡iandien":11013,"Ġpareikal":11014,"Ġkeliuose":11015,"ĠdeÅ¡imtmeÄįius":11016,"umer":11017,"ĠpÄĹsÄįiÅ³jÅ³":11018,"ĠpagrÄ¯st":11019,"Ġsapn":11020,"Ġskaidr":11021,"Ġskaito":11022,"Ġteka":11023,"Ġetiket":11024,"ĠsusimÄħ":11025,"Å¾emio":11026,"Ġatlyginimo":11027,"Ġnas":11028,"Ġ53":11029,"ype":11030,"viÅ¡k":11031,"mir":11032,"suk":11033,"Ġdalyvis":11034,"ĠsunkveÅ¾im":11035,"ĠsutarÄįiÅ³":11036,"Ġdievui":11037,"ĠsÅ«naus":11038,"Ġkint":11039,"raÅ¡tis":11040,"ĠÅ¡ans":11041,"Ġdokumentas":11042,"ĠklubÅ³":11043,"ĠpasitikÄĹjimo":11044,"eguli":11045,"Ġelektra":11046,"tinÄĹse":11047,"ĠpriminÄĹ":11048,"ĠpaÅ¡tas":11049,"Ġpacientams":11050,"Ġnaujam":11051,"Ġmank":11052,"ĠdidesniÅ³":11053,"yna":11054,"ĠpaprastÄħ":11055,"Ġparad":11056,"Å«sta":11057,"ĠnuorodÄħ":11058,"eliams":11059,"apusi":11060,"tona":11061,"ĠÅ¡Å«":11062,"Ġveiksmas":11063,"Ġreguliavimo":11064,"ĠnatÅ«raliÅ³":11065,"ĠpaaugliÅ³":11066,"ĠÅ¾lug":11067,"brÄĹÅ¾":11068,"ĠiÅ¡kilm":11069,"okie":11070,"Ġsubalans":11071,"Ġnemuno":11072,"Ã¤":11073,"Ġsiaur":11074,"ĠitalÅ³":11075,"Ġlankytojai":11076,"Ġnejau":11077,"ĠvyrÄħ":11078,"ytei":11079,"Ġtan":11080,"ĠÅ¾vaigÅ¾dÄĹ":11081,"Ġsavyje":11082,"Ġtriko":11083,"ĠtreniruotÄĹs":11084,"ĠoranÅ¾":11085,"ĠdarÄĹ":11086,"Ġpartneriai":11087,"Ġjonavos":11088,"ĠpridÅ«rÄĹ":11089,"gius":11090,"Ġpasauliui":11091,"Ġprivatumo":11092,"Ġpasiimti":11093,"ĠatstovÄĹ":11094,"ĠkaiÅ¡iad":11095,"Ġ51":11096,"Ġelektroninio":11097,"Ġbad":11098,"nia":11099,"inkime":11100,"Ġtieki":11101,"ĠstruktÅ«ros":11102,"Ġsavijau":11103,"Ġdraugus":11104,"ĠtrÄħ":11105,"Ġekipa":11106,"ĠÅ¡ul":11107,"Ġteorijos":11108,"Ġginti":11109,"ĠspinduliÅ³":11110,"ĠvalstybÄĹse":11111,"Ġmoderniz":11112,"Ġkeitimas":11113,"Ġauginti":11114,"ĠaugimÄħ":11115,"uotojai":11116,"Ġsvarbiausi":11117,"ĠÄ¯trauki":11118,"ĠnumerÄ¯":11119,"Ġnuostabus":11120,"Ġrenginiuose":11121,"ĠuÅ¾duoti":11122,"toriui":11123,"ĀĀĀĀĀĀĀĀĀĀĀĀĀĀĀĀĀĀĀĀĀĀĀĀĀĀĀĀĀĀĀĀ":11124,"inia":11125,"ĠesanÄįio":11126,"ĠveiksniÅ³":11127,"Ġ1989":11128,"Ġkeliauja":11129,"iklos":11130,"raj":11131,"Ġlyga":11132,"ĠuÅ¾tr":11133,"ĠbulviÅ³":11134,"ĠÅ¡ilumÄħ":11135,"Ġtraukia":11136,"Ġapsisprend":11137,"ĠkompiuterÄ¯":11138,"Ġprotes":11139,"Ġadap":11140,"Ġ1918":11141,"tauragÄĹs":11142,"ĠÅ¾iniomis":11143,"ÄĹjusÄ¯":11144,"Ġveiksmo":11145,"Ġchr":11146,"Ġkvadrat":11147,"Ġmarket":11148,"ĠpobÅ«d":11149,"uojamo":11150,"beto":11151,"Ġtikimasi":11152,"Ġreikalus":11153,"acinio":11154,"Ġakimirk":11155,"Ġsfer":11156,"ĠgydytojÄħ":11157,"ya":11158,"Ġnoro":11159,"Ġpirmoje":11160,"ĠpaÅ¾ymÄĹti":11161,"Ġreali":11162,"Ġbroliai":11163,"tiÅ¡kos":11164,"ĠkandidatÅ³":11165,"Ġpavadinimo":11166,"'s":11167,"Ġdidesni":11168,"ĠkairÄĹje":11169,"sÄĹj":11170,"Ġskandinav":11171,"Ġnauda":11172,"ĠÄ¯gijo":11173,"galiÅ³":11174,"ĠnustatytÄħ":11175,"kirsti":11176,"Ġfotos":11177,"Ġrinkimai":11178,"Ġsustabd":11179,"Ġvaizdai":11180,"ĠiÅ¡lyg":11181,"ĠgamtÄħ":11182,"Ġvyrauja":11183,"inÄĹjimas":11184,"ĠpirkÄĹjo":11185,"ĠdatÄħ":11186,"ĠprocedÅ«rÅ³":11187,"Ġmeile":11188,"skaitÄĹ":11189,"dÅ³":11190,"iam":11191,"ĠaiÅ¡kina":11192,"Äįiant":11193,"Ġpilnas":11194,"Ġsurengti":11195,"Ġpraleid":11196,"Ġmos":11197,"Ġugdyti":11198,"matÅ³":11199,"ribu":11200,"cinÄĹ":11201,"Ä¯Å¡":11202,"Ġ64":11203,"Ġvaistai":11204,"Ġzonoje":11205,"ĠpatikÄĹti":11206,"ĠÅ¡irv":11207,"ojimu":11208,"dÅ¾iui":11209,"ĠgraÅ¾Å«s":11210,"ĠÅ¾ib":11211,"Ġkursus":11212,"Ġpikt":11213,"Å¡luos":11214,"Ġsekti":11215,"stis":11216,"ĠsocialinÄĹ":11217,"ĠkraujagysliÅ³":11218,"Ġdirig":11219,"Ġlogoti":11220,"Ġapyrank":11221,"ĠrÅ«Å¡ys":11222,"Ġeuropa":11223,"ĠvieÅ¡butis":11224,"ĠtinklÄħ":11225,"Ġcha":11226,"tube":11227,"stan":11228,"ĠskundÄħ":11229,"Ġvaisius":11230,"ĠprasmÄĻ":11231,"âĢĻ,":11232,"Ġaktuali":11233,"iat":11234,"ĠaudiniÅ³":11235,"ĠnagÅ³":11236,"ytojui":11237,"ĠuÅ¾l":11238,"Ġprezident":11239,"auskite":11240,"gita":11241,"Ġoperos":11242,"Ġbendradarbiauti":11243,"Ġidealiai":11244,"ĠgelbÄĹjimo":11245,"Ġvykdoma":11246,"andos":11247,"ĠdainÄħ":11248,"Ġtikslai":11249,"Ġpatraukli":11250,"yste":11251,"Ġprotest":11252,"ĠkunigÅ³":11253,"bank":11254,"torija":11255,"Ġpilis":11256,"pris":11257,"Ġmaistu":11258,"Ġaudinys":11259,"ĠÅ¡ni":11260,"Ġ62":11261,"bel":11262,"Ġpastangas":11263,"ovus":11264,"Ġsudarytas":11265,"Ġalbumo":11266,"ĠlangÄħ":11267,"Ġnekr":11268,"inamasis":11269,"Ġindustri":11270,"ĠbÅ«site":11271,"Ġkalvar":11272,"Ġnegr":11273,"ĠlaikÄĹ":11274,"ley":11275,"Ġbalsas":11276,"Ġkolektyvas":11277,"ykti":11278,"Ġbeton":11279,"ĠkrizÄĹs":11280,"Ġencikl":11281,"uro":11282,"ĠpamuÅ¡":11283,"uomo":11284,"Ġgausa":11285,"ĠmaÅ¾eiki":11286,"bis":11287,"ĠÅ¡vÄį":11288,"ĠÅ¾iniasklaida":11289,"Ġturintiems":11290,"ĠdidÅ¾iojoje":11291,"ĠkonkreÄįiai":11292,"ram":11293,"Äįiamas":11294,"Ġtav":11295,"Ġbakalau":11296,"Ġparduodami":11297,"ĠÄ¯raÅ¡Äħ":11298,"emonstr":11299,"ĠarchitektÅ«r":11300,"Ġson":11301,"Ġgeriausiu":11302,"Ġveltui":11303,"ĠvariantÄħ":11304,"ĠplungÄĹs":11305,"Ġpareigos":11306,"Ġencikloped":11307,"kn":11308,"Ġsusitvark":11309,"Ġonline":11310,"Ġpjaus":11311,"ĠratÅ³":11312,"ert":11313,"toma":11314,"Ġlipd":11315,"Ġapval":11316,"Ġnormos":11317,"Ġpertraukos":11318,"Ġfilosofijos":11319,"Ġpert":11320,"ĠvieÅ¡buÄįiai":11321,"acinÄĹ":11322,"Ġslop":11323,"Ġkurjer":11324,"esia":11325,"Ġdera":11326,"Ġjutik":11327,"ÄĹno":11328,"Ġvengti":11329,"Ġatsil":11330,"eika":11331,"ojÅ³":11332,"Ġstatinio":11333,"ĠaÅ¡tun":11334,"Ġinternetas":11335,"cd":11336,"Ġradvil":11337,"ĠstriukÄĹs":11338,"Ġpavar":11339,"Ġmokyklas":11340,"Ġpirmiausiai":11341,"edijos":11342,"Ġsms":11343,"Ġjaunimui":11344,"ĠtrÅ«kumas":11345,"Ġsind":11346,"gen":11347,"ÄĹjime":11348,"Ġlas":11349,"ĠaukÅ¡tak":11350,"Ġnedr":11351,"Ġantano":11352,"orid":11353,"Ġsakau":11354,"Ġgimd":11355,"ĠvienetÅ³":11356,"Ġvartotojas":11357,"Ġvak":11358,"istiniÅ³":11359,"Ġpusfin":11360,"Ñĩ":11361,"ĠatsiÅ¾velgti":11362,"ĠdaÅ¾ai":11363,"Ġzaras":11364,"ĠatidÅ¾iai":11365,"eiÅ¡kÄĹ":11366,"ĠgreitÄ¯":11367,"Ġkomentarai":11368,"ret":11369,"lioti":11370,"Ġnorintys":11371,"Ġ(,":11372,"Ġatsakymo":11373,"Ġemocijas":11374,"ĠÅ¡itaip":11375,"Ġnegyv":11376,"Ġmarc":11377,"Ġdalyvius":11378,"ĠapaÅ¡t":11379,"Ġmarg":11380,"51":11381,"Ġlands":11382,"ĠaukÅ¡tyn":11383,"Ġsupirk":11384,"ografija":11385,"ĠpranciÅ¡k":11386,"Ġstorio":11387,"ĠpagrindinÄ¯":11388,"Ġmagnet":11389,"Ġkonkurencijos":11390,"ĠÅ¾vilgsnio":11391,"Ġgalvoja":11392,"Ġsuaugusiems":11393,"Ġrytas":11394,"indi":11395,"Ġnid":11396,"ĠpradÄĹjus":11397,"%,":11398,"Ġpasisak":11399,"ĠnaujÅ³jÅ³":11400,"klÄĹs":11401,"Ġtikina":11402,"Ġbesir":11403,"ula":11404,"Ġpalieka":11405,"Ġkontekste":11406,"Ġkitoks":11407,"ĠpraneÅ¡imus":11408,"ĠvyÅ¡":11409,"press":11410,"ĠbaimÄĹs":11411,"link":11412,"Ġnutol":11413,"Ġprincipus":11414,"Ġmelod":11415,"ĠjudÄĹjimas":11416,"Ġcas":11417,"Ġindijos":11418,"ĠprivaÄįiÅ³":11419,"Ġhim":11420,"ĠlaidÅ³":11421,"ĠakÄ¯":11422,"ĠslÄĹn":11423,"Ġrasa":11424,"Ġnext":11425,"fotograf":11426,"Ġstreso":11427,"edÄĹ":11428,"Ġpopuliarus":11429,"ĠÅ¡viesiai":11430,"Ġbasan":11431,"ĠprotÄĹ":11432,"ĠtÄĹra":11433,"ĠpritarÄĹ":11434,"Ġdebiut":11435,"\").":11436,"ĠsocialinÄĻ":11437,"ĠreikÅ¡mÄĹ":11438,"liukÄħ":11439,"Ġperkel":11440,"Ġprincipas":11441,"Ġkomplik":11442,"ĠiÅ¡silavinimÄħ":11443,"ee":11444,"Ġjurbarko":11445,"ĠkreipkitÄĹs":11446,"Ġkrau":11447,"ĠinovacijÅ³":11448,"adoje":11449,"baigi":11450,"ï¿½ï¿½ï¿½":11451,"teliu":11452,"Ġpraleis":11453,"Ġxviii":11454,"ĠkurÅ¡iÅ³":11455,"ĠsvetainiÅ³":11456,"teli":11457,"Ġlaisvas":11458,"Ġvalios":11459,"Ġnaudojantis":11460,"Ġmilijard":11461,"ĠÅ¾iÅ«rovai":11462,"ekas":11463,"intÄ¯":11464,"Ġbmw":11465,"Ġnamams":11466,"Ġ{":11467,"Ġ57":11468,"Å¾ad":11469,"Ġrezultatu":11470,"ĠgavÄĻs":11471,"uke":11472,"ryÅ¾":11473,"Ġdieno":11474,"Ġpirmajame":11475,"ĠasmenÄ¯":11476,"Ġtekstas":11477,"Ġsint":11478,"Ġsluoksnis":11479,"ĠmoterÄ¯":11480,"Ġpotenci":11481,"ĠneÅ¡var":11482,"ĠgydytojÅ³":11483,"auskaitÄĹs":11484,"Ġnesunkiai":11485,"Ġveli":11486,"Ġstovyklos":11487,"ĠgautÅ³":11488,"Ġnurodoma":11489,"aitytÄĹ":11490,"Ġvertinimas":11491,"Ġkonsultacijos":11492,"ĠpadidÄĹjo":11493,"amsung":11494,"ĠmakiaÅ¾o":11495,"Ġgarsiai":11496,"ĠpersonaÅ¾":11497,"ĠesanÄįius":11498,"Ġjuozap":11499,"Ġatvejis":11500,"Ġfilmus":11501,"Ġpalangoje":11502,"Ġvargu":11503,"Ġapdirb":11504,"ĠatsidÅ«rÄĹ":11505,"Ġdeser":11506,"enkite":11507,"Ġsulaukti":11508,"Ġtech":11509,"ĠsumaÅ¾ina":11510,"ĠÅ¡iuolaikinÄĹs":11511,"riau":11512,"ĠvirÅ¡ininkas":11513,"aizd":11514,"Ġldk":11515,"Ġnepageid":11516,"ĠtonÅ³":11517,"ĠuÅ¾siimti":11518,"Ġpirmuoju":11519,"Ġignor":11520,"81":11521,"ĠgalimÅ³":11522,"Ġnumatoma":11523,"ĠÄ¯Å¾valg":11524,"ĠÅ¾avi":11525,"Ġvyrui":11526,"Ġtrej":11527,"Ġkeptuv":11528,"Ġpost":11529,"Ġmindaugo":11530,"ĠgrÄħÅ¾inimo":11531,"ater":11532,"ĠÅ¾uvis":11533,"Ġmergaitei":11534,"ĠmasÄĹ":11535,"Ġautonom":11536,"Ġyo":11537,"ĠvÄĹlyv":11538,"Ġragina":11539,"Ġnustatytos":11540,"inamÄħ":11541,"Ġatstumas":11542,"damasis":11543,"ĠÅ¡unys":11544,"Ġgavau":11545,"Ġstudijuoti":11546,"ciu":11547,"giris":11548,"uolio":11549,"ĠuÅ¾rak":11550,"rud":11551,"ĠdaÅ¾nas":11552,"Ġbuvusios":11553,"Ġestet":11554,"Ġlogis":11555,"ĠmedÅ¾ioklÄĹs":11556,"Ġslaug":11557,"ĠÅ¡iltn":11558,"Ġpatvirtintas":11559,"ĠapÅ¡vietimo":11560,"eksp":11561,"96":11562,"Ġchemijos":11563,"Ġtinkle":11564,"Ġekspedi":11565,"Ġregis":11566,"Ġfarm":11567,"amam":11568,"Ġmontavimas":11569,"Ġtikiu":11570,"ĠelektroniniÅ³":11571,"Ġnavig":11572,"ĠbiudÅ¾etÄħ":11573,"ĠnesÄħmon":11574,"Ġgalut":11575,"omais":11576,"ĠteismÅ³":11577,"anÄįiosios":11578,"ylÄĹ":11579,"ĠpaÅ¾eidimus":11580,"Ġpateiktas":11581,"ĠÅ¡ventÄĹje":11582,"Ġdau":11583,"Ġnba":11584,"Ġmoteriai":11585,"ĠkatÄĹs":11586,"ĠlÄĻ":11587,"Ġkiekvienoje":11588,"Ġros":11589,"onomis":11590,"ĠpuikÅ«s":11591,"Ġautos":11592,"Ġlei":11593,"ĠbÅ«dingas":11594,"Ġkojas":11595,"Ġjuodas":11596,"Ġpamokas":11597,"ĠkryÅ¾i":11598,"Ġnorima":11599,"Äħsd":11600,"Ġkepti":11601,"ĠstovÄĹjo":11602,"Ġprided":11603,"Ġgimnazija":11604,"Ġnaujag":11605,"plauk":11606,"ĠtrukmÄĹs":11607,"Ġkij":11608,"ĠidÄĹj":11609,"vilk":11610,"Ġpatiekalai":11611,"ekomend":11612,"ĠsituacijÅ³":11613,"ĠnepaÅ¾Ä¯st":11614,"Ġtikslu":11615,"Ġregistracija":11616,"Ġstudijavo":11617,"ĠlaisvÄĹ":11618,"Ġinven":11619,"tijÄħ":11620,"ĠkoncertÄħ":11621,"ÄĹjusio":11622,"Ġkenksm":11623,"ĠÅ¾aidyn":11624,"ĠvirtuvÄĹje":11625,"äº":11626,"Ġsantuo":11627,"Ġnyderland":11628,"Ġtradicijos":11629,"ĠmarÅ¡kiniai":11630,"Ġaukci":11631,"ĠsÄħnaudos":11632,"Ġsusisiekti":11633,"ĠprasmÄĹs":11634,"Ġartimiausiu":11635,"Ġsunkus":11636,"Ġmeg":11637,"Ġore":11638,"ĠsÄħveik":11639,"Å«naitÄĹ":11640,"avÄħ":11641,"Ġapgalv":11642,"verÅ¾":11643,"ĠdeÅ¡ini":11644,"Ġsutvarkyti":11645,"ĠprofesionalÅ³":11646,"Ġvadovauja":11647,"tikrinti":11648,"dÅ¾iau":11649,"aidÄĹ":11650,"Ġnaudokite":11651,"ĠnereikÄĹs":11652,"ĠgirdÄĹti":11653,"Ġilgos":11654,"Ġrenkantis":11655,"Ġtikru":11656,"Ġanglies":11657,"icien":11658,"ĠvaikystÄĹje":11659,"ĠÅ¡abl":11660,"Ġnuopel":11661,"Ġignalinos":11662,"Ġpropor":11663,"Ġkitokia":11664,"den":11665,"kult":11666,"ĠaplinkiniÅ³":11667,"Ġvyru":11668,"Ġmanyti":11669,"ĠaukÅ¡tu":11670,"Ġstrategijos":11671,"Ġtrumpam":11672,"Ġklubai":11673,"Ġpozicijos":11674,"Ġplanetos":11675,"ĠanalizÄĹs":11676,"Ġkvart":11677,"Ġgalutinai":11678,"tul":11679,"ĠiÅ¡likti":11680,"Ġdirbame":11681,"Ġmintimis":11682,"Ġimport":11683,"________________":11684,"Ġnorvegijos":11685,"ĠplanÅ¡":11686,"Ġkomisariato":11687,"mil":11688,"ĠinternetinÄĹje":11689,"Ġnusipel":11690,"bri":11691,"Ġnariais":11692,"Ġdeim":11693,"Ġ110":11694,"Ġteorija":11695,"ĠpaieÅ¡ka":11696,"Ġtrag":11697,"ĠtyrinÄĹj":11698,"ĠruoÅ¾tu":11699,"ĠartÄĹjant":11700,"ydas":11701,"Ġpagrindinius":11702,"Ġnorma":11703,"iÅ¡kumas":11704,"ĠskrydÅ¾iai":11705,"Ġkeitimo":11706,"ĠnutarÄĹ":11707,"ĠÅ¡iuolaikinio":11708,"Ġstatistika":11709,"Ġseser":11710,"rganiz":11711,"ĠÄ¯statymai":11712,"Ġikiteism":11713,"Ġmokytojo":11714,"Ġpaskola":11715,"ĠsveikÄħ":11716,"Ġsei":11717,"der":11718,"alumo":11719,"Ġreligijos":11720,"Ġklientui":11721,"ĠÅ¾monijos":11722,"ĠdaugiabuÄįiÅ³":11723,"Ġindividualiai":11724,"ĠÅ¾inomÅ³":11725,"ĠorÄħ":11726,"Ġkostium":11727,"ĠskrydÅ¾io":11728,"ãĤ¢ãĤ¢ãĤ¢ãĤ¢ãĤ¢ãĤ¢ãĤ¢ãĤ¢":11729,"timais":11730,"Ġfunkcional":11731,"daugiau":11732,"utÄĹje":11733,"Ġstanis":11734,"ĠparduotuvÄĻ":11735,"Ġatvyksta":11736,"Ġnebep":11737,"Ġnutiko":11738,"otÄħ":11739,"Ġvilties":11740,"Ġdeng":11741,"ĠÅ¡k":11742,"ĠakmenÅ³":11743,"Ġvietomis":11744,"Ġsekasi":11745,"ĠiÅ¡veng":11746,"Ġskalbimo":11747,"ĠsudÄĹtingas":11748,"mÄĹn":11749,"Ġ700":11750,"Ġprigl":11751,"ĠdeÅ¡imties":11752,"Ġkambariai":11753,"xx":11754,"liumi":11755,"Ġgalimybe":11756,"Ġsuprojek":11757,"ĠiÅ¡vadÄħ":11758,"Ġaplinkybes":11759,"unku":11760,"Ġchor":11761,"ĠparodÅ³":11762,"Ġstandart":11763,"ĠsavininkÅ³":11764,"rug":11765,"gÅ³":11766,"dÅ¾ia":11767,"aityti":11768,"ĠtreniruoÄįiÅ³":11769,"Ġbuve":11770,"Ġare":11771,"Ġbendravimas":11772,"Ġvalymas":11773,"Ġkompiuteris":11774,"ĠiÅ¡kep":11775,"ĠiÅ¡vados":11776,"ĠasmeniniÅ³":11777,"tre":11778,"ĠpripaÅ¾Ä¯sta":11779,"Ġmalonus":11780,"pend":11781,"Ġhen":11782,"Ġip":11783,"Å¡tai":11784,"Ġmedis":11785,"ĠÅ¡iluma":11786,"Ġduben":11787,"Ġpademonstr":11788,"Å¾iuje":11789,"ĠtechnikÄħ":11790,"Ġatostogas":11791,"Ġsusib":11792,"Ġtaut":11793,"ĠjÅ«ra":11794,"Ġdarius":11795,"ĠprasidÄĹs":11796,"Ġgroup":11797,"ĠÅªkio":11798,"Ġblak":11799,"Ġhipo":11800,"Ġkum":11801,"Ġsuim":11802,"ĠkodÄħ":11803,"Ġunikali":11804,"=\"":11805,"by":11806,"mag":11807,"Ġjauna":11808,"Ġnesik":11809,"ĠÅ¾il":11810,"Ð¹":11811,"Ġgimdymo":11812,"ĠsvajoniÅ³":11813,"Ġrel":11814,"ĠÄ¯vesti":11815,"Ġsenosios":11816,"ĠuÅ¾mirÅ¡":11817,"Ġprotokol":11818,"Ġnusipirk":11819,"ĠmaÅ¾osios":11820,"Ġsektoriuje":11821,"ĠbirÅ¡":11822,"ingumu":11823,"aviÅ¡":11824,"Ġmetodus":11825,"Ġapeig":11826,"Ġbatali":11827,"Ġdidelius":11828,"Ġtatu":11829,"Ġbilietai":11830,"ĠieÅ¡kote":11831,"Ġnaujais":11832,"Ġkainomis":11833,"gro":11834,"ĠmenininkÅ³":11835,"ĠdydÅ¾iÅ³":11836,"ĠpadÄĹj":11837,"Ġprabangi":11838,"Ġribas":11839,"Ġapklausos":11840,"ĠapdovanojimÅ³":11841,"ĠnerÅ«dij":11842,"Ġsuorganiz":11843,"ÄĹgiÅ³":11844,"Ġpasienio":11845,"Ġradik":11846,"ÄĹkime":11847,"Ġatsk":11848,"Ġlor":11849,"ojimui":11850,"ĠÄ¯gal":11851,"Ġvartojimas":11852,"\\/":11853,"Ġsult":11854,"Ġatiteko":11855,"ulniai":11856,"Ġusb":11857,"Ġpolitinis":11858,"pagr":11859,"ĠtyrinÄĹ":11860,"ĠbÅ«tini":11861,"Ġruda":11862,"Ġpakel":11863,"%.":11864,"Ġinstancijos":11865,"Ġdalimis":11866,"Ġxiii":11867,"uojantÄ¯":11868,"Ġpraleido":11869,"ĠÅ¾urnalistÅ³":11870,"Ġdaugia":11871,"tone":11872,"Ġleon":11873,"nink":11874,"Ġapdovanoti":11875,"Ġcr":11876,"ĠuÅ¾ter":11877,"ĠketvirtÄ¯":11878,"vius":11879,"ĠrajonÅ³":11880,"ĠbÅ«Äįiau":11881,"esiai":11882,"Ġ99":11883,"Ġpasod":11884,"Ġprofesionalus":11885,"Ġpapasakoti":11886,"ĠpraneÅ¡imÅ³":11887,"iausias":11888,"ĠplotÄħ":11889,"Ġatstovauj":11890,"ĠnuotykiÅ³":11891,"liukÅ³":11892,"Ġkalendor":11893,"tetÄħ":11894,"neg":11895,"ĠuÅ¾duoÄįiÅ³":11896,"versl":11897,"Ġpakviesti":11898,"ĠprietaisÅ³":11899,"ĠmylÄĹti":11900,"monÄĹs":11901,"buli":11902,"ĠiÅ¡eina":11903,"Ġpasitrauk":11904,"Ġsriub":11905,"ĠbutÄħ":11906,"ĠsuÅ¾av":11907,"ĠnurodytÄħ":11908,"enki":11909,"antÄĹ":11910,"ĠskaitÄĹ":11911,"Ġnetruk":11912,"ĠmedÅ¾iagomis":11913,"Ġapdailos":11914,"Ġdreb":11915,"ĠÅ¾enklus":11916,"Ġjuozo":11917,"Ġ1946":11918,"Ġpasirodys":11919,"Ġfen":11920,"Ġatskiras":11921,"Ġkaupi":11922,"tims":11923,"ĠsostinÄĹ":11924,"ĠÅ¾monos":11925,"ĠÄ¯gyvendinant":11926,"ĠposÄĹdÅ¾io":11927,"Ġmiestai":11928,"Ġtatuir":11929,"Ġjungtis":11930,"ĠstatusÄħ":11931,"ĠeglÄĹ":11932,"Ġarenoje":11933,"ĠgrÅ«dÅ³":11934,"Ġtokiam":11935,"Ġnaudojimui":11936,"atoriumi":11937,"ĠpaaiÅ¡kino":11938,"ĠesanÄįiÄħ":11939,"Ġturkijos":11940,"Ġinciden":11941,"Ġpopuli":11942,"ĠiÅ¡vadas":11943,"Ġsunaud":11944,"Ġdaktaras":11945,"sant":11946,"Ġsusiklos":11947,"Ġpud":11948,"Ġatsakingai":11949,"ĠmÄĹnesiais":11950,"Ġneskub":11951,"Ġein":11952,"ĠmokesÄįiai":11953,"wo":11954,"Ġnumatytas":11955,"Ġresurs":11956,"Ġtobulinti":11957,"Ġpalaip":11958,"Ġprabang":11959,"ĠÄ¯sil":11960,"Ġreikalo":11961,"Ġkoef":11962,"Ġsveika":11963,"Ġpapildoma":11964,"ĠuÅ¾imti":11965,"ĠmuitinÄĹs":11966,",\"":11967,"ulmon":11968,"ĠgyvybÄĻ":11969,"Ġtilto":11970,"Ġtrejus":11971,"ĠÅ¾iedai":11972,"urk":11973,"ĠgrÄĻÅ¾":11974,"eka":11975,"ĠabejonÄĹs":11976,"ĠuÅ¾imtumo":11977,"ĠparkÄħ":11978,"ĠÄ¯renginys":11979,"Äįk":11980,"amiems":11981,"Ġsiekdami":11982,"aris":11983,"Ġmastu":11984,"rut":11985,"Ġnemokami":11986,"anÄįiuose":11987,"Ġapykai":11988,"ĠsudÄĹtÄ¯":11989,"ĠmÄĹ":11990,"Ġkraujyje":11991,"Ġkgb":11992,"ĠplanÅ³":11993,"ĠnustatytÅ³":11994,"ĠturÄĹjome":11995,"Ġ140":11996,"Ġpriedas":11997,"Ġgaminius":11998,"ĠiÅ¡skirtinis":11999,"takos":12000,"ĠgrybauskaitÄĹ":12001,"Ġmontavimo":12002,"ĠÅ¡alims":12003,"Ġtarpuk":12004,"sie":12005,"Ġesama":12006,"Ġepiz":12007,"bc":12008,"ĠbuvusiÅ³":12009,"ĠvirÅ¡ut":12010,"Ġvairuoti":12011,"Ġneverta":12012,"ĠÄ¯sir":12013,"ĠgamybÄħ":12014,"Ġintensyviai":12015,"Ġzara":12016,"Ġlikimas":12017,"uosime":12018,"ĠpasiraÅ¡yti":12019,"ĠuÅ¾tikrin":12020,"ĠÅ¡iuolaikiÅ¡k":12021,"Å¡tÅ³":12022,"ĠbebÅ«tÅ³":12023,"ĠaÅ¡tri":12024,"Ġsandar":12025,"ĠiÅ¡vaizdÄħ":12026,"Ġprogos":12027,"Ġanglijoje":12028,"engiant":12029,"ingr":12030,"Ġslenk":12031,"oskop":12032,"Ġvyresn":12033,"Ġdemokr":12034,"ĠÄ¯sisav":12035,"uolius":12036,"Ġvienodai":12037,"usia":12038,"Ġdatos":12039,"amat":12040,"ĠradviliÅ¡kio":12041,"ĠstruktÅ«rÄħ":12042,"ĠaukÅ³":12043,"Ġukrain":12044,"ĠvalstieÄįiÅ³":12045,"Ġneveik":12046,"à¤":12047,"ĠuÅ¾kar":12048,"Ġsed":12049,"Ġsimboliz":12050,"Ġbateri":12051,"ĠsÄħskaitos":12052,"ĠoperacijÅ³":12053,"alk":12054,"Ġdro":12055,"Ġportalas":12056,"ĠÅ¾ind":12057,"ĠasmeninÄĹs":12058,"Ġfinale":12059,"Ġvartus":12060,"Ġapy":12061,"Ġnevyriaus":12062,"Ġmityba":12063,"Ã¶":12064,"prod":12065,"Ġpries":12066,"Ġreprez":12067,"piÅ³":12068,"Ġpuse":12069,"Ġov":12070,"Ġmanote":12071,"Ġredakcija":12072,"ĠveislÄĹs":12073,"Ġfizinis":12074,"Ġkinija":12075,"ĠbolÅ¡ev":12076,"ĠlinijÅ³":12077,"ĠnusikaltimÅ³":12078,"Ġsudom":12079,"vt":12080,"ĠpaÄįiai":12081,"manas":12082,"Ġnepilname":12083,"Ġmetro":12084,"metyje":12085,"Ġkolekcijos":12086,"ĠsocialdemokratÅ³":12087,"ĠpardavimÅ³":12088,"ĠkinÅ³":12089,"Ġsantuokos":12090,"ĠÅ¡altiniai":12091,"Ġatsipalaiduoti":12092,"Ġkoeficien":12093,"Ġcentru":12094,"700":12095,"ĠvidÅ³":12096,"Ġkilim":12097,".[":12098,"ĠÄ¯skai":12099,"smas":12100,"hotels":12101,"astrof":12102,"ybÄĹse":12103,"Ġtaikymo":12104,"Ġski":12105,"Ġstebi":12106,"Ġverd":12107,"ĠâĪĴ":12108,"Ġtiksli":12109,"adienis":12110,"Ġnutik":12111,"Ġnelik":12112,"Ġklaida":12113,"Ġmakar":12114,"Ġprisideda":12115,"Ġnaudod":12116,"Å¾r":12117,"Ġatstovais":12118,"Ġgyvename":12119,"Ġplov":12120,"Ġsveikos":12121,"ĠgerovÄĹs":12122,"vej":12123,"Ġsraig":12124,"joms":12125,"Ġfre":12126,"ausite":12127,"rank":12128,"ĠkaraliÅ¡k":12129,"nav":12130,"oliu":12131,"ĠiÅ¡vada":12132,"okÅ³":12133,"ĠÄ¯jung":12134,"Ġnepakar":12135,"ĠreikalingÅ³":12136,"Ġspalvas":12137,"Ġstatistikos":12138,"ÄħÅ¾inti":12139,"wa":12140,"tÅ«s":12141,"Ġfrag":12142,"Ġnesutar":12143,"ĠrÅ«Å¡i":12144,"esas":12145,"ĠsandÄĹlyje":12146,"Ġvaidmuo":12147,"ĠvidurinÄĹs":12148,"sek":12149,"ĠuÅ¾uol":12150,"Ġkalboje":12151,"aka":12152,"iÅ¡sk":12153,"Ġrespublika":12154,"pet":12155,"Ġkatastrof":12156,"ĠkraÅ¡tovai":12157,"Ġbaltas":12158,"cipl":12159,"ĠiÅ¡sam":12160,"ĠrugsÄĹj":12161,"Ġansamblis":12162,"Ġsilik":12163,"Ġtinkamos":12164,"Ġelgiasi":12165,"ĠsavaitÄĹ":12166,"Ġdalintis":12167,"ĠpanaÅ¡ios":12168,"mena":12169,"ĠsÄĹkmÄĹ":12170,"ĠÄ¯tampa":12171,"ĠÅ¡imtai":12172,"ĠpridÄĹti":12173,"Ġtrauki":12174,"94":12175,"ĠmirtÄ¯":12176,"viesti":12177,"Ġprojektavimo":12178,"ĠÄ¯rodymÅ³":12179,"sÅ³":12180,"Ġpoveiki":12181,"ĠneÄ¯sivaizd":12182,"Ġpilietis":12183,"uotojas":12184,"ĠÄ¯vykis":12185,"Ġskonis":12186,"ĠgraÅ¾iÅ³":12187,"ĠÄ¯Å¾vel":12188,"eras":12189,"ĠskundÅ¾i":12190,"ill":12191,"Ð¾Ð²":12192,"Ġtyliai":12193,"ypi":12194,"Ġdirbant":12195,"Ġvardai":12196,"ĠkariuomenÄĹ":12197,"2020":12198,"uojanÄįius":12199,"Ġapdaila":12200,"Å¾u":12201,"ago":12202,"Ġarbata":12203,"ĠtarybÅ³":12204,"Ġpadaug":12205,"ey":12206,"vario":12207,"ĠÅ¡eÅ¡i":12208,"vesti":12209,"Ġmokymus":12210,"Ġhumanitar":12211,"Ġbalso":12212,"Å¡yps":12213,"ĠÄ¯taka":12214,"Ġkeistis":12215,"ĠtriukÅ¡mo":12216,"Ġlinas":12217,"ĠÅ¡imtmeÄįio":12218,"Ġkalin":12219,"ĠsusiÅ¾":12220,"Ġpadaro":12221,"juos":12222,"Ġemig":12223,"ymÄħsi":12224,"ĠpaskutinÄĻ":12225,"Å¡Äħ":12226,"ĠnuostoliÅ³":12227,"uoji":12228,"Ġsuvien":12229,"Ġestijoje":12230,"Ġaktyvus":12231,"Ġtrita":12232,"ĠmaÄįiau":12233,"ĠgroÅ¾Ä¯":12234,"Ġsaugumas":12235,"93":12236,"Ġblogo":12237,"ĠtobulÄĹti":12238,"Ġkorek":12239,"ĠiÅ¡laisv":12240,"97":12241,"Ġtragi":12242,"Ġuoste":12243,"Ġsmals":12244,"lija":12245,"Ġmanimi":12246,"ĠpuslapÄ¯":12247,"Ġeks":12248,"Ġmeistri":12249,"Ġlemp":12250,"ĠÅ¾enklÄħ":12251,"Ġpapildyti":12252,"ygiai":12253,"ĠvisokiÅ³":12254,"Ġden":12255,"ĠÅ¡iaud":12256,"ĠÄ¯raÅ¡ai":12257,"Ġ68":12258,"Ġapyvar":12259,"Ġdirvo":12260,"ĠnedidelÄĹ":12261,"ipuli":12262,"ĠakimirkÄħ":12263,"Ġdetek":12264,"Ġsmurto":12265,"Ġangliav":12266,"ĠpaÅ¾velgti":12267,"Ġmirtis":12268,"ĠtapatybÄĹs":12269,"ulos":12270,"ĠnacionalinÄĹ":12271,"Ġtaurag":12272,"Ġpoetas":12273,"Ġiliuz":12274,"ĠkapinÄĹse":12275,"Ġsodyba":12276,"ijungi":12277,"Ġnaudota":12278,"ĠpuikÅ³":12279,"Ã¼":12280,"engva":12281,"ĠÄ¯darb":12282,"eidÅ¾iama":12283,"ÑĢÐ°":12284,"edo":12285,"Ġklasifik":12286,"ĠstengÄĹsi":12287,"vÄ¯":12288,"Ġetapo":12289,"ĠdiskusijÅ³":12290,"Å«tÄĹ":12291,"Ġilgamet":12292,"Ġgerus":12293,"ĠmÄħstymo":12294,"ĠÅ¡irdyje":12295,"ĠpavyzdÄ¯":12296,"Ġdaliai":12297,"Ġpereiti":12298,"Ġvyskupas":12299,"Ġskelbiama":12300,"ĠsunkumÅ³":12301,"Ġvaisiai":12302,"Ġbaigti":12303,"Ġatminimo":12304,"Ġtransportas":12305,"ĠnuodÄĹm":12306,"ĠiÅ¡met":12307,"Ġligas":12308,"ĠtÄĻsiasi":12309,"ĠgatvÄĹse":12310,"eriams":12311,"ĠliberalÅ³":12312,"Ġpusiausvyr":12313,"ĠligoninÄĻ":12314,"ĠsvorÄ¯":12315,"ĠpailsÄĹti":12316,"Ġvakaras":12317,"ĠraÅ¡ytojÅ³":12318,"Ġsubr":12319,"Ġfrakcijos":12320,"aga":12321,"ĠbÅ«dinga":12322,"Ġsvarbios":12323,"Ġpopier":12324,"Ġ1988":12325,"Ġargen":12326,"Ġ01":12327,"Ġpajusti":12328,"ĠetapÄħ":12329,"uolab":12330,"tajame":12331,"ĠdÅ¾iazo":12332,"Ġmoni":12333,"aulio":12334,"ĠÄ¯staigoje":12335,"Ġmarat":12336,"eiskite":12337,"Ġpavaizd":12338,"ĠÄ¯dar":12339,"Ġpasiteis":12340,"reg":12341,"Ġtamp":12342,"ĠmasaÅ¾as":12343,"Ġimti":12344,"Ġprincipu":12345,"Ġgyvenamosios":12346,"Ġatrodys":12347,"Ġparduoda":12348,"ĠnarkotikÅ³":12349,"ĠÅ¡ed":12350,"Ġpirminink":12351,"Ġgeriausios":12352,"Ġnumato":12353,"Ġapranga":12354,"Ġxvii":12355,"Ġandr":12356,"Ġpatvirtinta":12357,"ykÄ¯":12358,"Ġpinigais":12359,"Ġtikino":12360,"Ġnaujiena":12361,"ĠÄ¯rengimas":12362,"ĠraukÅ¡":12363,"Ġmotin":12364,"Ġatviras":12365,"Ġssrs":12366,"Ġnemen":12367,"ĠÄ¯tamp":12368,"Ġec":12369,"ĠvaldymÄħ":12370,"intu":12371,"Ġmikroautobus":12372,"Ġsiurbl":12373,"unik":12374,"ĠuÅ¾kl":12375,"Ġbendrosios":12376,"Ġpsichiat":12377,"Ġhel":12378,"Ġsuderinti":12379,"ygoje":12380,"Ġzona":12381,"ĠmasÄĻ":12382,"Ġvingi":12383,"Ġaplik":12384,"ĠÅ¡eimoms":12385,"ĠgyvenvietÄĹs":12386,"ĠpradinÄĹ":12387,"ĠkariniÅ³":12388,"ĠpastatÄħ":12389,"Ġkim":12390,"Ġsavivaldos":12391,"avime":12392,"ĠÄ¯teis":12393,"ĠnusiÅ¾eng":12394,"ĠkÅ«dikio":12395,"Ġnepakartoj":12396,"Ġobjektai":12397,"ĠvaÅ¡":12398,"Ġmau":12399,"ĠversijÄħ":12400,"Ġnerim":12401,"ĠiÅ¡reikÅ¡ti":12402,"ĠpriedÅ³":12403,"ckas":12404,"Ġlev":12405,"ĠlyderiÅ³":12406,"ĠdÅ¾iaugiamÄĹs":12407,"ĠligoniÅ³":12408,"ĠsÄħmoningai":12409,"ĠkiauÅ¡iniÅ³":12410,"Ġspecialistus":12411,"Ġsuki":12412,"ĠfiziniÅ³":12413,"Ġdus":12414,"ĠtapÄĻs":12415,"Ġordino":12416,"ĠjÅ«roje":12417,"Ġsusideda":12418,"ĠkÅ«rÄĹjas":12419,"ĠprestiÅ¾":12420,"Ġbendradarbiavimas":12421,"jud":12422,"ĠpopieÅ¾iaus":12423,"tautas":12424,"ĠoÅ¾":12425,"ĠinternetinÄĹs":12426,"ĠnerimÄħ":12427,"Ġpavadino":12428,"Ġypatinga":12429,"Ġdaugumos":12430,"ilÄĹ":12431,"ĠgrindÅ¾i":12432,"Ġcor":12433,"Ġnesim":12434,"Ġmarijampol":12435,"ÄĹtojÅ³":12436,"ĠprasidÄĹjus":12437,"ham":12438,"tnaudÅ¾i":12439,"ĠðŁĺ":12440,"orge":12441,"ĠliteratÅ«ra":12442,"Ġpagrei":12443,"ux":12444,"Ġbulgar":12445,"ĠnusprÄĻsti":12446,"Ġmusulmon":12447,"keviÄįiaus":12448,"Ġce":12449,"Ġremiasi":12450,"omÅ³jÅ³":12451,"ĠÄ¯sipareigojimÅ³":12452,"ĠÅ¾inai":12453,"Ġpaklausti":12454,"Ġevoliu":12455,"Ġprofesionali":12456,"Ġsusitaik":12457,"Ġatidarymo":12458,"Ġkalori":12459,"ĠkybartÅ³":12460,"ĠmatÄĹ":12461,"Ġdraugija":12462,"iÅ¡skyrus":12463,"ĠdvasiÄħ":12464,"ĠÄįiurli":12465,"ĠparyÅ¾iuje":12466,"Ġje":12467,"Ġdirbtuv":12468,"deÅ¡im":12469,"ĠorganizmÄħ":12470,"ĠtreÄįias":12471,"ĠplatÅ³":12472,"Ġplastikiniai":12473,"Ġkasos":12474,"ĠmiÅ¡kÄħ":12475,"ium":12476,"Ġekrane":12477,"ĠsavybÄĹmis":12478,"taisyti":12479,"omisi":12480,"Ġmatomas":12481,"ĠpaÄįias":12482,"Ġgret":12483,"Ġproduktyv":12484,"Ġsmil":12485,"ĠsÄħlyga":12486,"ĠÅ¾enklu":12487,"inukas":12488,"Ġkitai":12489,"Ġpalaipsniui":12490,"ky":12491,"Ġpaleisti":12492,"Ġautor":12493,"Ġskubiai":12494,"ĠnemaÅ¾a":12495,"ĠraÅ¡to":12496,"ĠbaimÄĹ":12497,"ĠreikÅ¡ti":12498,"automo":12499,"ĠlenktyniÅ³":12500,"angomis":12501,"Ġ66":12502,"Ġpavadinti":12503,"Ġpastaraisiais":12504,"ĠpamokÅ³":12505,"ĠpusmetÄ¯":12506,"bes":12507,"Ġsudarymo":12508,"Ġlob":12509,"Ġtelevizija":12510,"ĠneÄ¯galiÅ³jÅ³":12511,"ĠrÅ«pi":12512,"ĠÅ¡ventosios":12513,"ĠÅ¡akiÅ³":12514,"ĠlikÄĻ":12515,"ae":12516,"Ġsidabr":12517,"Ġpriekai":12518,"Ġmigracijos":12519,"ĠpraÅ¡ymo":12520,"ĠÅ¾ymos":12521,"thu":12522,"Ġsupjausty":12523,"Ġmatavimo":12524,"Ġkremas":12525,"Ġadministracinis":12526,"Ġplastiko":12527,"Ġstudija":12528,"ĠtÅ«kstant":12529,"Ġdomisi":12530,"ĠÄ¯vaizdÄ¯":12531,"Ġbuvimo":12532,"Ġpaskatinti":12533,"alinÄ¯":12534,"que":12535,"Ġpavyksta":12536,"ÃŃ":12537,"del":12538,"Ġapip":12539,"Ġrasta":12540,"ĠpasidÅ¾iaugti":12541,"Ġkiekvienai":12542,"Ġbelieka":12543,"Ġtvirtas":12544,"ĠkorÄĹjos":12545,"Ġmitolog":12546,"Ġnuolatinis":12547,"Ġkonv":12548,"ĠlÄĹktuvo":12549,"ĠÅ¡eÅ¡iÅ³":12550,"ĠpripaÅ¾intas":12551,"ĠkaunÄħ":12552,"Ġkalbame":12553,"Ġliepsn":12554,"ĠkontrolÄĻ":12555,"Ġnupir":12556,"Ġatsistat":12557,"ĠkÅ«rinÄ¯":12558,"yklÄĹ":12559,"Ġpakelti":12560,"ĠbÅ«sim":12561,"Ġburi":12562,"Ġalkoh":12563,"ĠkovÅ³":12564,"ĠiÅ¡paÅ¾":12565,"ĠnebÅ«na":12566,"ĠmolÄĹtÅ³":12567,"alui":12568,"Ġgalimi":12569,"ĠÅ«kininkÅ³":12570,"Ġpaciento":12571,"Ġnegail":12572,"Ġanta":12573,"Ġcentrai":12574,"ĠsprendÅ¾iant":12575,"Ġseb":12576,"Ġmedikai":12577,"Ġepo":12578,"Ġjuolab":12579,"Ġpasikar":12580,"Ġpagaminimo":12581,"Ġlitu":12582,"Ġstalas":12583,"max":12584,"ĠsÄħs":12585,"Ġsodas":12586,"Ġgediminas":12587,"Ġsuvir":12588,"ĠnatÅ«ralaus":12589,"ĠvidinÄĹs":12590,"Ġdidina":12591,"ĠÅ¡eimininkai":12592,"ĠbaigÄĻs":12593,"ĠÅ¾aislai":12594,"Ġakmuo":12595,"sil":12596,"ĠiÅ¡tar":12597,"Ġfragmen":12598,"ĠpuikiÄħ":12599,"Ġdaugeliu":12600,"ĠrÅ«ta":12601,"Ġkeliauj":12602,"Ġpaminklas":12603,"Ġrekomenduoja":12604,"ikliÅ³":12605,"Ġkava":12606,"neb":12607,"Ġmiegoti":12608,"ĠnorÄĹdamas":12609,"Ġsuomijos":12610,"eikÅ¡m":12611,"Ġbotan":12612,"Ġstotis":12613,"ĠminkÅ¡tas":12614,"Ġvystymosi":12615,"ĠsudÄĹkite":12616,"Ġnariu":12617,"Ġsezonui":12618,"kw":12619,"Ġpasmer":12620,"Ġprioritet":12621,"Ġtokioje":12622,"Ġdingo":12623,"ĠiÅ¡keli":12624,"Ġelementus":12625,"tiÅ¡kÅ³":12626,"Ġkulinar":12627,"Ġatvira":12628,"ĠpripaÅ¾inimo":12629,"ingam":12630,"Ġpataisos":12631,"ĠiÅ¡vard":12632,"ĠvaÅ¾iuoja":12633,"edija":12634,"Ġpirmyn":12635,"ingiau":12636,"Ġserga":12637,"ĠstaÅ¾":12638,"ĠgreitÄħ":12639,"ĠlaipsnÄ¯":12640,"Ġkardin":12641,"ĠkelmÄĹs":12642,"ĠpraktikÄħ":12643,"Ġneger":12644,"ĠuniversitetÅ³":12645,"tinimas":12646,"ikoje":12647,"Ġvaistus":12648,"esta":12649,"Ġkorid":12650,"ings":12651,"Ġmanipuli":12652,"ĠvarÄĹnos":12653,"uÄįiai":12654,"Ġkelerius":12655,"Ġsistemai":12656,"ĠsusipaÅ¾ino":12657,"Ġkurjeris":12658,"ĠnusikaltÄĹ":12659,"Ġgimtadienio":12660,"Ġbangos":12661,"Ġtokiems":12662,"iÅ¡ku":12663,"intais":12664,"Ġklaidos":12665,"Ġuniversitet":12666,"Ġvietiniai":12667,"pagrind":12668,"Ġaviacijos":12669,"terijos":12670,"prof":12671,"ĠrealybÄĹs":12672,"ĠteÅ¡lÄħ":12673,"tuosius":12674,"davosi":12675,"ĠuÅ¾dirb":12676,"Ġperka":12677,"ÄĹlÄĹmis":12678,"opuliar":12679,"tiesa":12680,"tuvus":12681,"meÄįiu":12682,"ĠgyvenamÅ³jÅ³":12683,"Ġchol":12684,"ĠpavyzdÅ¾iu":12685,"Ġstali":12686,"ĠpaskutinÄĹ":12687,"2012":12688,"tyniÅ³":12689,"ĠlotynÅ³":12690,"2011":12691,"Ġils":12692,"ĠprograminÄĹs":12693,"Ġgarantuoja":12694,"fu":12695,"Ġgyva":12696,"Ġsujungti":12697,"Ġrodikliai":12698,"Ġliudija":12699,"ĠkaulÅ³":12700,"insi":12701,"Ġstulp":12702,"ĠsodÅ³":12703,"ĠfiziÅ¡kai":12704,"entÄĹ":12705,"bius":12706,"Ġklaidas":12707,"ĠÄ¯mones":12708,"ĠprivaÅ¾i":12709,"Ġpristatys":12710,"Ġmisija":12711,"ĠtÄĹtis":12712,"ÄĹtojai":12713,"ita":12714,"Ġpaauk":12715,"Ġaugimas":12716,"Ġpasilik":12717,"ĠnepamirÅ¡ti":12718,"ĠpaÅ¾eidimo":12719,"ĠbatÅ³":12720,"ĠsÄħskaita":12721,"Ġsirg":12722,"ĠsankryÅ¾":12723,"ĠslaptaÅ¾od":12724,"ĠkÄĹbulo":12725,"Ġnebeb":12726,"Ġnac":12727,"Ġnuotraukose":12728,"tininkai":12729,"aa":12730,"uotÄĹje":12731,"Ġsportininkai":12732,"Ġtarkim":12733,"Ġsuvalg":12734,"anauskas":12735,"Ġkorupcijos":12736,"ĠartÅ«ras":12737,"Ġspaudoje":12738,"Ġpaskatino":12739,"ĠmaÅ¡in":12740,"Ġsunaikinti":12741,"ĠpamatÄĹ":12742,"enÄĹs":12743,"ĠgÄĹ":12744,"Ġnedalyv":12745,"Ġapgail":12746,"ĠkryptÄ¯":12747,"orld":12748,"ĠiÅ¡leista":12749,"ĠdegalÅ³":12750,"ĠuostÄħ":12751,"pn":12752,"ĠdarÅ¾elio":12753,"aÅ¡k":12754,"ĠtakÅ³":12755,"ĠgeleÅ¾ies":12756,"vydo":12757,"Ġpsichikos":12758,"tymas":12759,"bai":12760,"ĠkryÅ¾":12761,"ĠstriukÄĹ":12762,"ĠÄ¯vertinimÄħ":12763,"Ġarmijos":12764,"ĠÄ¯sigijo":12765,"adi":12766,"alizmas":12767,"ĠpastatÄĹ":12768,"Ġturis":12769,"Ġaleksandras":12770,"ĠganÄĹtinai":12771,"odas":12772,"ampa":12773,"sniais":12774,"onez":12775,"ĠprogÄħ":12776,"Ġdoc":12777,"Ġtapybos":12778,"Ġefektyvumo":12779,"Ġput":12780,"ĠÅ«gio":12781,"anui":12782,"audÄĹ":12783,"Ġkemp":12784,"Ġpristatyta":12785,"ah":12786,"Ġseka":12787,"ĠdaÅ¾Å³":12788,"Ġrutu":12789,"Ġderinti":12790,"ĠpranaÅ¡umÄħ":12791,"ĠatpaÅ¾inti":12792,"idai":12793,"Ġnuval":12794,"nk":12795,"Ġinformavo":12796,"nak":12797,"ĠgydymÄħ":12798,"ĠiÅ¡Å¡Å«kis":12799,"ĠkÅ«dikis":12800,"Ġbepr":12801,"ĠsuskaiÄįi":12802,"ĠpaÄįia":12803,"laus":12804,"ĠÄ¯lank":12805,"91":12806,"Ġpanaudojimo":12807,"ĠiÅ¡sirink":12808,"Ġ63":12809,"ĠatmosferÄħ":12810,"Ġtinkluose":12811,"ienÄħ":12812,"Ġmetodai":12813,"Ġlaivo":12814,"ĠpirkÄĹjÅ³":12815,"Ġsodyboje":12816,"Å¡vie":12817,"Ġspalvomis":12818,"ĠpasiprieÅ¡inimo":12819,"inÄįiÅ³jÅ³":12820,"Ġelektromo":12821,"Ġnauju":12822,"roÅ¾":12823,"oliv":12824,":'":12825,"ĠpavardÄĻ":12826,"Ġkomisijai":12827,"ĠreiÅ¡kinys":12828,"uper":12829,"sal":12830,"Ġsw":12831,"ĠkÅ«rybÄħ":12832,"pÄĹ":12833,"Ġslov":12834,"Ġtvirtinimo":12835,"ben":12836,"eliko":12837,"tiniam":12838,"æľ":12839,"Ġkolekcija":12840,"ĠvieÅ¡butÄ¯":12841,"saug":12842,"Ġvalyti":12843,"Ġnetradic":12844,"Ġfermen":12845,"Ġriba":12846,"Ġveget":12847,"amuosius":12848,"ĠuÅ¾mokesÄįio":12849,"mÄĹms":12850,"ĠpasitraukÄĹ":12851,"ĠelektrinÄĹs":12852,"amumas":12853,"ĠsvarbÅ³":12854,"Ġkoron":12855,"Ġfizikos":12856,"Ġtinklai":12857,"ytes":12858,"Ġsena":12859,"Ġcan":12860,"Ġekranas":12861,"ĠapÅ¡il":12862,"buvo":12863,"Ġpub":12864,"fice":12865,"Ġgriov":12866,"ĠÅ¡velni":12867,"ĠmaÅ¾o":12868,"Ġsiela":12869,"Ġmink":12870,"Ġprieinam":12871,"ytumÄĹte":12872,"vaÅ¾i":12873,"Ġsmagiai":12874,"Ġgerinti":12875,"Ġekonomis":12876,"Ġnepatenk":12877,"ĠcentrinÄĹs":12878,"ĠklaviÅ¡":12879,"Å¡iais":12880,"eidimas":12881,"Ġnaktis":12882,"ĠÅ¡akÅ³":12883,"Ġsuras":12884,"Ġdieg":12885,"Ġbendruomenei":12886,"ĠbendruomenÄĻ":12887,"Ġpastarasis":12888,"Ġmaskvoje":12889,"Ġmoz":12890,"Ġkukur":12891,"Ġgaminamas":12892,"ĠpolitinÄĹ":12893,"ĠklasikinÄĹs":12894,"Ġsaugus":12895,"auskis":12896,"bÅ³":12897,"Ġvisapusi":12898,"Ġpozicija":12899,"Ġviceminis":12900,"ĠpaÅ¾inimo":12901,"ĠrÅ«s":12902,"Ġlaikantis":12903,"ĠpraneÅ¡imo":12904,"Ġvakc":12905,"ĠsÅ«ri":12906,"Ġdraugams":12907,"Ġpristatytas":12908,"ĠaÅ¡tr":12909,"ĠiÅ¡sidÄĹs":12910,"Ġneturime":12911,"Ġnepasid":12912,"ĠtaÅ¡kas":12913,"Ġbai":12914,"Ġaplinkui":12915,"klaipÄĹdos":12916,"kÄĻ":12917,"ÄĹjaus":12918,"Ġtarkime":12919,"Ġinstitute":12920,"ilind":12921,"Ġplanuoti":12922,"Ġtaikant":12923,"irba":12924,"Å«nienÄĹ":12925,"ĠplÄĹtoti":12926,"Ġokupacijos":12927,"Ġreakcija":12928,"Ġgaid":12929,"Ġlk":12930,".âĢĿ":12931,"bendr":12932,"ĠnusprÄĻsta":12933,",âĢľ":12934,"Ġkeliones":12935,"Ġvalstijos":12936,"ĠuniversitetÄħ":12937,"Ġveiklas":12938,"ĠÅ¡itas":12939,"Ġvertas":12940,"ĠÅ¡akos":12941,"ĠpersikÄĹlÄĹ":12942,"baid":12943,"ser":12944,"Ġslid":12945,"Ġorganizatorius":12946,"ĠkaÄįi":12947,"ojos":12948,"Ġatsiskl":12949,"ĠvokieÄįiai":12950,"Ġnekalb":12951,"viena":12952,"Ð¿":12953,"Ġdarosi":12954,"gmail":12955,"istinio":12956,"Ġnegalv":12957,"tavimo":12958,"ĠrinkÄĹjÅ³":12959,"onams":12960,"Ġspecialios":12961,"ĠlieÅ¾uv":12962,"ĠkortelÄĻ":12963,"ĠreiÅ¡ki":12964,"ĠdÄĹli":12965,"Ġromanas":12966,"vyri":12967,"prasm":12968,"Ġnepasir":12969,"atsi":12970,"Ġinvesticijos":12971,"Ġgamyklos":12972,"ĠdirbanÄįiÅ³":12973,"Ġtalk":12974,"urm":12975,"ĠklubÄħ":12976,"Ġporeikiams":12977,"Ġminima":12978,"Ġatostogos":12979,"ĠrÅ«gÅ¡ÄįiÅ³":12980,"ĠrankÅ¡luos":12981,"ĠÅ¡iaurÄĻ":12982,"Ġsex":12983,"Ġnau":12984,"Ġsukak":12985,"Ġsutartyje":12986,"ĠtaÅ¡kÄħ":12987,"Ð½Ð¸":12988,"Ġskaitykite":12989,"tingumÄħ":12990,"tinku":12991,"Ġstatusas":12992,"ĠsugrÄ¯Å¾ti":12993,"vaj":12994,"cer":12995,"Ġkalbas":12996,"Ġlaikotarpiui":12997,"ÄĹliu":12998,"Ġnun":12999,"ĠnurodytÅ³":13000,"bre":13001,"Ġkiekvienu":13002,"Ġstubur":13003,"ĠÂ«":13004,"ĠlentelÄĹs":13005,"Ġvadovaud":13006,"ĠleistÅ³":13007,"Ġpramogos":13008,"Ġleidimas":13009,"ĠpasiruoÅ¡ÄĻ":13010,"ĠbÅ«kite":13011,"ĠprofesiniÅ³":13012,"Ġmoli":13013,"Ġmokytojos":13014,"lietuviÅ³":13015,"Ġarbat":13016,"ĠÅ¡or":13017,"ĠobuoliÅ³":13018,"Ġatidaryti":13019,"ĠvidutinÄĹs":13020,"Ġnebr":13021,"Ġimuni":13022,"ĠprisijungÄĹ":13023,"Ġgruod":13024,"Ġhorizont":13025,"nin":13026,"olÄ¯":13027,"ĠtemperatÅ«rÄħ":13028,"Ġskausm":13029,"Ġgalerijoje":13030,"tiÅ¡ko":13031,"ĠÅ¾aism":13032,"Ġpenkio":13033,"Ġatvejai":13034,"ĠdidÅ¾iulÄ¯":13035,"ĠnuotraukÄħ":13036,"Ġteigiamai":13037,"Ġnegird":13038,"ĠÅ¾urnalistas":13039,"ojate":13040,"Ġaugalas":13041,"Ġ72":13042,"Ġnustebino":13043,"Ġkonstrukcija":13044,"this":13045,"Ġmagistro":13046,"Ġsmulki":13047,"Ġ1939":13048,"Ġperkr":13049,"ĠpÅ«k":13050,"Ġkolegos":13051,"kor":13052,"Ġregistro":13053,"ĠbagaÅ¾":13054,"Ġpirmame":13055,"chi":13056,"ĠryÅ¡kiai":13057,"ĠpabaigÄħ":13058,"telius":13059,"mit":13060,"ĠvietinÄĹs":13061,"ĠÅ«kis":13062,"ĠpapraÅ¡ÄĹ":13063,"ĠtikÄĹjimÄħ":13064,"ĠturÄĹtume":13065,"Ġhiper":13066,"ĠÅ¡uns":13067,"ĠiÅ¡siun":13068,"esnÄĹmis":13069,"ĠsÄĹkmÄĻ":13070,"Ġsvarstyti":13071,"Ġplanai":13072,"Ġnesid":13073,"Ġaudito":13074,"Ġneblogai":13075,"jie":13076,"ĠpareigÅ«nams":13077,"ĠÅ¡imtÅ³":13078,"smuo":13079,"Ġgalerija":13080,"Ġperskaityti":13081,"ĠlÄĹktuvÅ³":13082,"Ġkolegija":13083,"ĠbÅ«dama":13084,"ĠÄ¯rankis":13085,"ĠÄįempionÅ³":13086,"Ġpusan":13087,"ĠsiÅ«lÄĹ":13088,"ĠparaiÅ¡kos":13089,"Ġaktus":13090,"ĠlygiÅ³":13091,"Ġdanijos":13092,"Ġpadengti":13093,"Ġfotoses":13094,"Ġreformos":13095,"Ġsukr":13096,"Ġakyse":13097,"etenz":13098,"Ġtendencijos":13099,"ĠiÅ¡pr":13100,"ĠrinkinÄ¯":13101,"ĠÅ¾r":13102,"ypaÄį":13103,"ĠtarÄĹ":13104,"Ġjausti":13105,"ĠiÅ¡naudoti":13106,"ÄĹmus":13107,"ĠesanÄįiame":13108,"eiÅ¡ki":13109,"ĠpasiÅ«":13110,"ĠuÅ¾siima":13111,"ĠsÄĹdi":13112,"Ġkelius":13113,"Ġskvern":13114,"ytojÄħ":13115,"Ġlikimo":13116,"Ġrezoliu":13117,"Ġato":13118,"atvÄĹs":13119,"ykime":13120,"Ġskirst":13121,"ĠsÄħjungÄħ":13122,"ĠpavardÄĹs":13123,"Ġpartizan":13124,"ĠÎ":13125,"Ġmokinius":13126,"Ġsienas":13127,"Ġapsigyven":13128,"Ġblaksti":13129,"oriu":13130,"Ġsusijusias":13131,"Ġpajud":13132,"Ġlv":13133,"Ġvartai":13134,"ĠreikalingÄħ":13135,"urod":13136,"Ġatribu":13137,"ĠaplinkybÄĹs":13138,"Ġlygmen":13139,"ĠkarÅ¡Äįi":13140,"maiÅ¡":13141,"Ġkovoje":13142,"Ġblogas":13143,"ĠruoÅ¡iasi":13144,"))":13145,"ĠraiÅ¡":13146,"ĠÄ¯sakymas":13147,"ĠlaikraÅ¡Äįio":13148,"Ġstok":13149,"uotais":13150,"Ġpertvar":13151,"Å¡Å³":13152,"ĠkarinÄĹs":13153,"Ġmokytojams":13154,"Ġrepu":13155,"ĠgyvenanÄįiÅ³":13156,"ĠtikÄĹti":13157,"unction":13158,"ĠabsoliuÄįiai":13159,"Ð±":13160,"ĠtautiniÅ³":13161,"Ġnaujausias":13162,"Ġneatsiej":13163,"Ġpolitikas":13164,"Ġdvaras":13165,"enko":13166,"Ġtabako":13167,"Ġpritraukti":13168,"ĠaplankÄĹ":13169,"kiasi":13170,"Ġsustiprinti":13171,"ĠpuikiÅ³":13172,"ĠprocedÅ«ras":13173,"Ġlaikus":13174,"Ġapsaugotas":13175,"ĠlietuviÅ¡kas":13176,"ĠnatÅ«ralu":13177,"ĠpajÄĹgos":13178,"Ġfe":13179,"Ġdirbantys":13180,"Ġvice":13181,"ologai":13182,"Ġkompet":13183,"Ġgavimo":13184,"plÄĹÅ¡":13185,"ĠpatalynÄĹs":13186,"Ġbrandos":13187,"Ġ74":13188,"Å«dis":13189,"Ġdebiu":13190,"Ġpozicijas":13191,"arus":13192,"ĠÄ¯vykdyti":13193,"ĠÄįik":13194,"bs":13195,"Ġdeguon":13196,"ĠrusijÄħ":13197,"ĠlinijÄħ":13198,"Ġlaikrodis":13199,"ĠsulÄįiÅ³":13200,"Ġberniukui":13201,"ÄĹjimais":13202,"Ġnebij":13203,"ĠvaÅ¾iuojant":13204,"ĠrÅ«gÅ¡tis":13205,"Ġgyventojas":13206,"ĠsusitarimÄħ":13207,"2010":13208,"ĠefektyvumÄħ":13209,"Ġpasyv":13210,"ĠkompanijÅ³":13211,"ĠplÄĹtrÄħ":13212,"ĠtiekÄĹjÅ³":13213,"Ġslypi":13214,"ĠparyÅ¾iaus":13215,"Ġdiplomat":13216,"ubl":13217,"alinÄĻ":13218,"Ġlova":13219,"Ġdisko":13220,"iekite":13221,"Ġpoilsiui":13222,"ĠÅ¾ala":13223,"ĠprezidentÄĹs":13224,"Ġskirstom":13225,"Ġsaugaus":13226,"Ġrodiklis":13227,"ckis":13228,"audÅ¾ia":13229,"ĠdidÅ¾iausios":13230,"Ġpartizanai":13231,"Ġskelbti":13232,"ĠgroÅ¾is":13233,"ĠÅ¾ymiÅ³":13234,"ĠÅ¾enkliai":13235,"ÄĹto":13236,"ĠmÄĹgstu":13237,"Ġgrindys":13238,"Ġmaksimaliai":13239,"ĠryÅ¡iai":13240,"agen":13241,"ĠkokybiÅ¡kÄħ":13242,"Ġsimptomai":13243,"Å¾a":13244,"ĠsÄĹklÅ³":13245,"ĠorganizatoriÅ³":13246,"ĠpaÅ¡nekovas":13247,"Ġbalsavimo":13248,"ĠdidÅ¾iulÄĹ":13249,"ĠÅ¡epet":13250,"Ġpersvar":13251,"Ġsupapras":13252,"Ġpakeliui":13253,"Ġcir":13254,"Ġmokslus":13255,"aviÄįienÄĹ":13256,"tuok":13257,"Ġpertek":13258,"Ġrodos":13259,"''":13260,"ĠgebÄĹjimus":13261,"Ġpritvirtin":13262,"Ġpaneig":13263,"skir":13264,"Ġjach":13265,"Ġ1950":13266,"ingiems":13267,"Ġtrink":13268,"Ġprogimnazijos":13269,"Ġduona":13270,"Ġrusai":13271,"Ġomenyje":13272,"Ġanon":13273,"ĠpuslapiÅ³":13274,"Ġdemokratijos":13275,"zmÄħ":13276,"ĠsuÅ¾ad":13277,"Ġbazi":13278,"Ġstiprina":13279,"ĠÅ¡ypsena":13280,"ĠÅ¡ildymas":13281,"ĠnesudÄĹ":13282,"Ġvidpad":13283,"Ġratas":13284,"ĠraÅ¡tas":13285,"reng":13286,"ĠbazÄĹs":13287,"ogen":13288,"Ġprotas":13289,"ĠdÄĹstÄĹ":13290,"lau":13291,"uojanÄįio":13292,"Ġsavaitgali":13293,"ĠapÅ¡vietimas":13294,"Ġprovincijos":13295,"hop":13296,"Ġkron":13297,"ĠÅ¡ald":13298,"Ġsukurtos":13299,"Ġpenkerius":13300,"Ġgyvenantys":13301,"ĠÅ¾vejybos":13302,"ĠÄ¯eina":13303,"Ġeksport":13304,"Ġstacion":13305,"Ġdos":13306,"Ġneapsi":13307,"oru":13308,"ĠpokalbiÅ³":13309,"Ġbankroto":13310,"Ġfaz":13311,"ĠpraÅ¡ymu":13312,"ĠpaÅ¾ymi":13313,"Ġvalia":13314,"mei":13315,"ĠbÅ«stÄħ":13316,"Ġpacientai":13317,"Ġkvapo":13318,"ĠatvÄĹs":13319,"ĠÄ¯vertino":13320,"Ġpakli":13321,"ĠpramonÄĹ":13322,"Ġatrink":13323,"ble":13324,"Ġdeko":13325,"Ġall":13326,"Ġpremija":13327,"ÄĹmimas":13328,"ĠÅ¡iuose":13329,"ytume":13330,"Ġsiena":13331,"iose":13332,"yras":13333,"ĠtechniniÅ³":13334,"ĠpabrÄĹÅ¾ti":13335,"Ġnuosprend":13336,"ĠplÄĹtoj":13337,"Ġprieglob":13338,"ĠtÄĹvus":13339,"Ġstiklas":13340,"Ġaustralijos":13341,"Ġvertinamas":13342,"Ġsimpa":13343,"ĠsumaÅ¾ÄĹja":13344,"Ġradio":13345,"Ġsusirasti":13346,"ĠvaikÅ¡Äįioti":13347,"ĠgamtiniÅ³":13348,"ĠnaujausiÄħ":13349,"ĠsuÅ¾al":13350,"Ġepid":13351,"adÅ³":13352,"ĠbÅ«ta":13353,"Ġplaukams":13354,"Ġnepatinka":13355,"ĠrÅ«pesÄįiÅ³":13356,"Ġseksu":13357,"ĠkaralystÄĹje":13358,"Ġveidas":13359,"ska":13360,"Ġ1949":13361,"ĠsÄħskaitas":13362,"ĠÄ¯Å¾ym":13363,"Ġneatsak":13364,"ĠpripaÅ¾Ä¯st":13365,"Ġpastate":13366,"Ġmedaus":13367,"ĠtradiciniÅ³":13368,"Ġstengtis":13369,"Ġradau":13370,"Ġunikal":13371,"ĠtaisyklÄĹmis":13372,"Ġilgus":13373,"dd":13374,"Ġult":13375,"Ġklausia":13376,"eviÄįiÅ³":13377,"ĠprisiminÄĹ":13378,"iminar":13379,"ĠdruskininkÅ³":13380,"ĠefektÄħ":13381,"ĠkamuolÄ¯":13382,"Ġminus":13383,"Ġsode":13384,"Ġedi":13385,"ĠilgaamÅ¾i":13386,"Ġgraikijos":13387,"ĠvariantÅ³":13388,"ĠkomentarÅ³":13389,"Ġgintaras":13390,"Ġ160":13391,"vu":13392,"ĠmedÅ¾iai":13393,"Ġvainik":13394,"ĠlukÅ¡":13395,"Ġatiduoti":13396,"Ġmokyti":13397,"yvena":13398,"ĠjoniÅ¡kio":13399,"Ġmediena":13400,"gana":13401,"ĠmiÅ¡kuose":13402,"Ġlind":13403,"Ġluk":13404,"esnei":13405,"Ġvadovu":13406,"ĠiÅ¡vysti":13407,"Ġvait":13408,"nag":13409,"ĠÄ¯teikÄĹ":13410,"Ġpakilo":13411,"ĠnusprendÅ¾iau":13412,"Ġ1920":13413,"oth":13414,"ĠÄįiuÅ¾":13415,"ĠprancÅ«zija":13416,"vileg":13417,"ĠdovanÄħ":13418,"ĠmiÅ¡kas":13419,"Ġprodukcija":13420,"ĠbÄĹda":13421,"Ġgintaro":13422,"Ġcd":13423,"Ġreikalauti":13424,"Ġantrosios":13425,"ÄĹliais":13426,"Ġvm":13427,"tukus":13428,"Ġatskai":13429,"ĠstebÄĹs":13430,"han":13431,"teriÅ³":13432,"ĠÑģ":13433,"Ġpavaduotoja":13434,"Ġtermo":13435,"ĠnevirÅ¡":13436,"Ġsusivien":13437,"ĠvalstijÅ³":13438,"Ġfinansuoti":13439,"ĠpraeitÄ¯":13440,"ĠslÄĹg":13441,"vard":13442,"Ġ98":13443,"Ġpadidina":13444,"Ġpartneriais":13445,"ĠkaimÄħ":13446,"uliu":13447,"ĠvieÅ¡paties":13448,"Ġepoch":13449,"Ġminties":13450,"ĠÅ¡altinio":13451,"Ġeksperiment":13452,"ĠdomÄĹtis":13453,"Ġnesin":13454,"Ġprocesai":13455,"ĠÅ¡achmatÅ³":13456,"ĠÅ¡ta":13457,"ĠÄ¯renginius":13458,"prog":13459,"Ġlaimingas":13460,"ĠsuÅ¾inojo":13461,"\"),":13462,"ĠiÅ¡kas":13463,"Ġkokiais":13464,"Ġreabilitacijos":13465,"sch":13466,"Ġcilind":13467,"ĠkupiÅ¡kio":13468,"ĠatlikÄĹjÅ³":13469,"Ġatsakymus":13470,"Ġatpalaid":13471,"auÅ¾ÄĹ":13472,"Ġskirtus":13473,"Ġego":13474,"Å¡ok":13475,"ĠkÅ«rinio":13476,"ĠÅ¡aliai":13477,"Ġpasitenk":13478,"ĠsenamiesÄįio":13479,"ĠdÄĹkojame":13480,"inimosi":13481,"Ġprarado":13482,"Ġamor":13483,"Ġ130":13484,"ĠapmÄħ":13485,"ĠvieÅ¡oji":13486,"Ġatrak":13487,"ilÄĹs":13488,"ĠÄ¯vaÅ¾i":13489,"Ġatsiveria":13490,"ĠÅ¡auliÅ³":13491,"Ġpasigirti":13492,"ĠpilnÄħ":13493,"Äįiama":13494,"Ġchris":13495,"Ġtendencijas":13496,"ĠkaÅ¾koks":13497,"ĠprivertÄĹ":13498,"ĠgrÄĹsmÄĻ":13499,"Ġdaiktas":13500,"anÄįioji":13501,"Ġkaskart":13502,"Ġgas":13503,"ÄĹtus":13504,"Ġhit":13505,"Ġneil":13506,"ĠÅ¾olÄĹs":13507,"ĠprieÅ¡mok":13508,"omasis":13509,"Ġnepageidauj":13510,"Ġmikal":13511,"Ġikimokyklinio":13512,"ĠvokiÅ¡k":13513,"Ġpasako":13514,"trauka":13515,"Ġoperacija":13516,"ĠvaÅ¡ing":13517,"ĠiÅ¡kyla":13518,"Ġkristina":13519,"Ġatskiri":13520,"ĠraÅ¡ytojo":13521,"ĠÅ¡ukuos":13522,"Ġpenktadienio":13523,"Ġkartoj":13524,"Ġnedideli":13525,"Ġdaili":13526,"ĠÅ¡vÄĻsti":13527,"ĠbandymÅ³":13528,"Ġkompleksas":13529,"forto":13530,"ĠpraÅ¡ymas":13531,"ĠsenÅ³jÅ³":13532,"----------------":13533,"Ġbandyti":13534,"Ġsurinkimo":13535,"social":13536,"Ġmesti":13537,"dÅ¾iug":13538,"ĠsÄħvoka":13539,"ĠuÅ¾seg":13540,"Ġpis":13541,"ĠuÅ¾st":13542,"Ġjuda":13543,"draug":13544,"ĠdabartinÄĹs":13545,"sy":13546,"Ġjaunieji":13547,"Ġstere":13548,"Ġateiti":13549,"Ġstoj":13550,"eryje":13551,"azi":13552,"Ġvakarais":13553,"akÄħ":13554,"Ġantis":13555,"Ġkopij":13556,"Ġsegmen":13557,"tumu":13558,"Ġneatitinka":13559,"Ġsvie":13560,"Ġideolog":13561,"Ġjac":13562,"ĠtaurÄĹ":13563,"ugen":13564,"ĠveiklÅ³":13565,"Å«kÄ¯":13566,"Ġpuses":13567,"ĠkaÄįiÅ³":13568,"Ġatsiradimo":13569,"................................":13570,"Ġpretenz":13571,"Ġvadovams":13572,"ĠkaiÅ¡iadoriÅ³":13573,"Ġataskaitos":13574,"Ġsekretorius":13575,"Ġnety":13576,"Ġhib":13577,"Ġvykusiame":13578,"Ġsenjor":13579,"ĠiÅ¡imtis":13580,"Ð·":13581,"Ġinstitucijoms":13582,"Ġapdovanotas":13583,"Ġterapijos":13584,"kan":13585,"Ġkombinez":13586,"Ġnaudingos":13587,"Ġoriginali":13588,"yst":13589,"ĠtikÄĹjimas":13590,"Ġprivalumai":13591,"iausiÅ³":13592,"ĠÄ¯sitikinti":13593,"Ġnustatytus":13594,"Ġspektaklio":13595,"raÅ¡Äįio":13596,"ĠatsakymÅ³":13597,"ĠÅ¡ri":13598,"ement":13599,"ĠtreÄįiojo":13600,"Ġpamatysite":13601,"europos":13602,"ĠjaponÅ³":13603,"Ġbesis":13604,"ĠrÅ«gÅ¡ties":13605,"uosiu":13606,"etÄĻ":13607,"ĠkaÅ¾kodÄĹl":13608,"ĠinÅ¾inerijos":13609,"ĠsudÄĹties":13610,"col":13611,"Ġdokumentuose":13612,"ĠskulptÅ«r":13613,"ĠsportinÄĹ":13614,"tojos":13615,"Ġtarif":13616,"vinas":13617,"Ġkrante":13618,"Ġinsul":13619,"ĠbÄĹgimo":13620,"Ġiliustra":13621,"********":13622,"gaud":13623,"Ġeksporto":13624,"ĠpasiruoÅ¡ti":13625,"eksu":13626,"kin":13627,"Ġvesti":13628,"ĠÄ¯sitvirtin":13629,"Ġcentruose":13630,"Ġvdu":13631,"inskio":13632,"Ġaliejumi":13633,"ĠpiktnaudÅ¾i":13634,"Ġekskursijos":13635,"ĠnerÅ«dijanÄįio":13636,"Ġreglamento":13637,"Ġfos":13638,"Ġprovok":13639,"ĠÄ¯vertinimas":13640,"Ġpardavimas":13641,"ĠÅ¡alÄį":13642,"Ġpatraukl":13643,"Ġklausimo":13644,"ĠgimÄĻs":13645,"Ġadministracinio":13646,"omoji":13647,"Ġatleisti":13648,"jonas":13649,"Ġpakeli":13650,"Ġsalda":13651,"ela":13652,"prek":13653,"ĠtitulÄħ":13654,"Ġsusie":13655,"Ġatlikimo":13656,"Ġtry":13657,"Ġprielaid":13658,"kalb":13659,"uokÅ¡":13660,"Ġspauda":13661,"tag":13662,"Ġtalpa":13663,"ĠprisipaÅ¾ino":13664,"juo":13665,"Ġgresia":13666,"ĠÅ¾emaitijos":13667,"Ġteisinga":13668,"Ġinteraktyv":13669,"rov":13670,"ĠiÅ¡dÅ¾i":13671,"Ġskersmuo":13672,"Ġlaipsnio":13673,"ĠprocedÅ«rÄħ":13674,"sw":13675,"ĠperÄĹmÄĹ":13676,"eland":13677,"akamp":13678,"kodÄĹl":13679,"Ġautomobiliams":13680,"uodu":13681,"Ġreikalauj":13682,"riko":13683,"Ġpokalbio":13684,"audos":13685,"adieniais":13686,"Ġmoko":13687,"Ġskersmens":13688,"ĠasortimentÄħ":13689,"ĠapmokÄĹjimo":13690,"ĠÄ¯tais":13691,"Ġvirsta":13692,"Ġpagrindines":13693,"finans":13694,"ĠverÅ¾":13695,"ansas":13696,"Ġwe":13697,"Ġwindows":13698,"Ġbakalauro":13699,"Ġkubi":13700,"insko":13701,"akÅ³":13702,"Ġlankyti":13703,
[...]
