#version: 0.2 - Trained by `huggingface/tokenizers`
a i
i n
Ġ p
Ä Ĺ
a s
Å ³
Ġ k
Ġ s
t i
a u
Å ¡
o s
i e
a l
a r
Ġ i
Å ¾
Ġ t
Ġ n
i s
a n
u s
Ä ħ
Ġ v
Ġ d
Ġ m
a m
i m
e n
a t
Ä ¯
r i
Ġi r
â Ģ
Ġ b
Ġ g
e i
Å «
e r
u o
l i
k i
t o
ÄĹ s
r a
Ä į
e s
Äį i
Ġ j
o n
a v
e t
i j
a d
Ġ Ä¯
Ġ r
Ġs u
Ġ l
j e
Ġp r
o m
Ġ âĢ
a p
au s
u r
in i
i r
Ġ Å¡
t u
Ġi Å¡
a k
o r
e l
Å¾ i
Ġn e
ai s
ie n
o k
Ġp as
t e
ÄĹ j
Ä Ļ
ti k
Ġ at
Ġ Å¾
e k
t in
i l
al i
t Å³
in k
y b
Ġp a
au g
Ġ ap
t a
o d
u m
o je
ai p
i Å³
Å¡ k
t as
i d
âĢ ľ
ai k
t r
im o
c ij
Ġk ad
ĠâĢ ĵ
o g
y v
Ġ u
u ri
ei k
e m
o j
Ġ (
s i
Ġ y
ĠâĢ ŀ
an t
Ġv is
Ġ 1
y s
ar b
Ġ L
n i
a b
u i
o v
tu v
y m
o l
u v
Ġy ra
Ġ tik
Ġs av
ÄĹ l
g i
e d
a Å¾
ti s
Ġu Å¾
u os
y k
u k
Ġ K
Å« r
Ġp at
an d
Ġ V
e li
i k
s t
Ġ S
Ġ f
Ġm et
y ti
Ġb Å«
to j
ie k
Â Ń
Ġ P
Ġ A
Ġ 2
in g
au d
Ġn uo
aus i
Ġ ar
au k
Ġg al
Ġs k
ie tuv
im as
us i
Ġpr ie
Å ł
u l
t Äħ
Ġk uri
uv o
Ġ o
Ġp ar
en d
Ġp er
. .
Ġ in
Ġs p
u n
Ġ M
Å« s
m en
Ġp o
ÄĹ m
e is
am e
Ġk ur
au j
ini Å³
m on
Äįi Å³
am s
d Å¾i
uo j
e g
Ġb uvo
Ġk i
c i
Ġt ai
Ġk ar
t os
ij os
o ki
Ġm ok
ĠÅ¡ i
Ġg r
e ri
an k
Ġv ien
Ġ J
a g
in ti
Ġ B
ÄĹj o
Ġ ti
ie s
am a
Ġp ri
Ġ R
ra Å¡
Ġ -
Ġsav o
Ġk aip
c h
t ai
t at
Ġd aug
Ġv al
in ÄĹs
Ġk ai
Ġat s
Ġ T
Äįi au
am as
a cij
ĠL ietuv
Ġ D
Ġt r
Ġpa g
Ġp l
0 0
in ÄĹ
ei ki
Ġg yv
p r
Ġn es
Ġs v
im Äħ
y je
Ġg ali
en g
ÄĻ s
i au
t er
om is
in is
Ġpr o
Ġj au
ini o
am i
ai d
y g
t ar
y n
Ġt ur
m o
Ġd al
t ÄĹ
ra d
Ġk l
Ġ E
Ġap ie
uos e
Ġd arb
o ri
in ink
k l
Ġd ar
i Å¡k
y r
Ġl aik
Ġb et
i o
i z
or m
Ġk on
j Å³
al b
a Å¡
s l
Ġp av
Ġp ir
av o
li k
v ai
Ġp ad
Ġv ie
Ġt ar
y d
ÄĹ ti
Ġ G
Ġl ab
ki r
t us
Ġ N
Ġk om
Ġgyv en
an Äįi
an g
Å«s Å³
to ri
Ġb ei
e p
ie m
Ġn et
Ġd id
Ġk r
in o
uo ti
v ar
Ġt aip
Ġt o
Ġgal im
yb ÄĹs
Ġ ak
Ġ c
e v
j os
0 1
a Äįiau
li Å³
en t
Å« n
ini ai
i ai
u p
Ġv er
Ġne p
in a
os i
u d
Ġs us
o p
Ġr e
u b
Ġ I
Å ½
Ġpas i
as i
Ġv ar
u t
ij a
Ġ or
ei g
ÄĹ d
k ai
ki te
Ġ 3
ÄĹ je
ĠLietuv os
os e
e Å¡
in d
ym o
Ġm an
Ġd ÄĹl
Ġv aik
li o
Ġk eli
v al
ai n
Ġn auj
es n
Ġd ien
) .
eiki a
Ġn aud
Ġg er
en k
Ġp ak
Ġlab ai
ti m
yk l
.. .
ĠÅ¾ mon
âĢľ ,
Ġd r
s p
Ġj Å³
Ġpir m
Ġk as
Ġi ki
Ġr eik
Ġt uri
im e
Ġb end
Ġ Åł
oj o
r as
uo men
Ġ a
Ġv eik
Ġn or
Ġ li
ĠÅ¡ v
Ġm ed
o ti
âĢ ŀ
Ġp ra
Ġn ei
v er
r o
iem s
im Å³
ÄĹ g
Ġ as
Ġt eis
v ir
am os
Ġp ap
Ġmet Å³
Ġ arb
ti es
Å¡ ki
un g
Ġ au
e j
ĠbÅ« ti
cij os
Ġsu k
k as
Äįi a
Ġ es
ei d
Ġap s
âĢ ĵ
t ÄĹs
b i
Ġn us
f orm
Ġ e
Ġs Äħ
od ÄĹl
Ġpr is
) ,
Ġv ad
Ġ1 9
u g
Ġarb a
au n
Äįi o
Ġk iek
Ġmet u
Ġt oki
Ġj o
ĠÅ¡ al
Å« k
Ġj is
y toj
v i
Ġd ir
Ġ auk
g an
Ġs i
Ġpas ir
Ġne b
T ai
Ġ "
ÄĹ n
uo d
j a
Ġk alb
om a
yb os
Ġs kir
er g
Ġg am
i ausi
Ġtar p
av imo
l g
z d
Ġsu d
t ais
Ġv yk
t yv
Å«r os
um o
Ġ C
au l
ai g
k o
Äįi us
al v
es i
ÄĹm is
Ġb us
an ti
Ġ 4
ol og
Ġp al
Ġti ek
Ġ 5
im ai
Ġ2 01
ad a
Ġ el
tin g
Ġm aÅ¾
ÄĹ tÅ³
Ġt e
l o
ĠV il
om s
s ti
p i
Ġm o
in Ä¯
Äįi ai
Ġtik r
ĠiÅ¡ s
ini us
Ġ ek
Ġt aÄįiau
Ġprie Å¡
y l
Ġn ÄĹ
el is
u li
a z
t Ä¯
on o
Ġ ant
m e
acij os
an tis
Ġdaug iau
Ġau to
Ġb al
Ġn am
im us
u z
Ġm Å«sÅ³
om e
Ġgalim a
ie j
Ġkur ie
k a
Ġr ink
au ti
ci al
uoj a
te m
Ġne g
ĠÄ¯ si
m og
Ġt ink
Ġpr og
Ġj os
v ien
Ġ an
e z
Ġm ies
1 9
Ġp rad
Äħ j
Ä ®
ir Å¡
k r
âĢľ .
in ÄĻ
p a
Ġpa Å¾
t el
Ġ ra
p l
Ġpro c
v ie
Ġbend r
Ġp am
gan iz
Ġb e
d om
Ġ h
Ġpas k
Ġs en
Ġat v
um s
ĠÄ¯ vai
a Å¾i
Ġs t
Åł i
en tr
ĠÄ¯ r
m as
Ġ U
Ġs usi
li au
Â ł
li ai
Ġsu t
m et
ar d
i t
Ġk ok
ai Å¡k
Ġv id
Ġdal yv
Ġas men
oje k
i us
ym as
cij a
ÄĹ k
ai t
ĠÅ¾ mog
ai m
am b
ki Å³
y ri
Ġreik al
kl aus
P r
Ġauk Å¡
Ġd aÅ¾
Ġs ak
m ok
tr auk
ab ar
ĠÅ¾ em
Ġin ter
Å« d
in imo
. ,
osi os
ul t
Ġ 6
Ġj ie
Å« l
V is
e b
Ġ F
Ġv ai
im u
Ġp us
to v
tin ÄĹs
Ġsv arb
Ġval st
Ġor ganiz
Ġin form
is tem
an s
ĠnÄĹ ra
Ġm at
s ta
ĠVil ni
ĠE ur
ĠuÅ¾ s
r ind
uo toj
ĠbÅ« d
Ġm in
en s
ak ar
Å³ jÅ³
i c
ausi ai
Ġp an
te ri
n a
Ġap l
Ġi lg
Ġat si
Ġn ar
Ġpas l
i g
Ġpo li
Å¾i Å«r
Ġs istem
Ġt ap
Ġkur is
ĠbÅ« tÅ³
a c
Ġj og
Ġn iek
Ġt am
ÄĹs i
Ġk ol
Ġdir b
yb ÄĹ
Ġ H
Ġc entr
Ġmed Å¾i
Ġn er
Ġj ei
eli o
Ġl ietuv
Ġr Å«
uo Å¡
ĠÄ¯ st
Ġpa ti
Ġr eikia
Ġr y
Ġ al
Ġs ti
um Äħ
P as
Ġt uo
Ġnaud oj
Ġpr ojek
o li
Ġn u
I Å¡
k ur
Ġsp e
Ġ Å½
Ġmok ykl
Ġvad ov
Ġk Å«r
i a
Ġi s
Ġg eri
Ġsp r
in t
ki ai
Ġs m
ĠÄ¯ v
Å¾ in
e to
ij oje
Ġ raÅ¡
Ġt odÄĹl
uo l
Ġkl aus
r an
te b
Ġpag al
ÄĹm s
Ġm uz
Ġdarb o
Ġgr ei
Ġv and
Ġg im
k Äħ
Ġveik l
r od
ij Äħ
acij a
Ġm ÄĹn
Ġprog r
p er
ÄĹ v
Ġ aÅ¡
Ġr ank
Ġ O
an ÄįiÅ³
oj i
Ġp il
iÅ¡k ai
im a
ĠÅ¡ e
Ġk Äħ
um as
Ġa ti
ek s
im ui
Ġ aug
ĠÄ¯vai ri
y ta
yb ÄĻ
Ġpar d
i b
Å¡k ai
Ġs tr
ai l
ki o
d o
u je
ĠiÅ¡ l
Ġgr up
Ġ Äįia
Ġ 8
Ġmok sl
is t
tu m
Ġpas ak
Ġj i
Ġkiek vien
âĢ Ŀ
es ni
as ar
k os
Ġsu n
ĠEur op
ĠÄ¯ g
i li
Ġf orm
Ġs aug
ei dÅ¾i
n ai
ie Å¡
a j
at ori
Ġpag rind
on as
am Äħ
b l
n yg
y t
Ġk oki
ini u
T aÄįiau
Ġlaik o
Ġat l
ÄĹj a
Ġj uos
Ġg ar
Ġpasl aug
n o
Ġk al
Ġ2 00
Ġauto mo
Ġmet ais
Ġte ch
Ġsv eik
Ġpa b
ĠLietuv oje
at e
Ġp ui
Ġ 7
l t
tin a
el b
em s
Ġv yr
Ġnor s
Ġd abar
Ġs l
Ġra j
ok ie
eig u
ing as
m an
Ġt au
Ġvien as
val d
am Å³
ei l
ÄĹj imo
ĠÅ¾ aid
ĠÄ¯ mon
p aÅ¾
ij Å³
ing ai
Ġval d
Ġdid Å¾i
al Å³
tu d
Ġapl ink
ali Å³
ĠA n
to m
t ak
e f
li us
ad ien
Ġk el
ĠiÅ¡ v
Ġpro f
Ġspr end
s m
ĠÅ¾ in
Ġg ra
Ġkuri os
e Å¾
Ġp or
un k
Ġr eg
eis ti
Ġs tat
Ġj Ä¯
Ġi m
Ġpr ek
2 01
Å¾i o
av i
Ġ ad
Ġat lik
Ġk ult
Ġpas aul
at v
Ä Į
in es
Ġats ak
Ġdr aug
Ġ1 0
s n
J ei
Ġt el
Ġprie mon
p o
to r
ĠÅ¾mon iÅ³
u Å¾
ĠÅ¡ il
Ġ am
au ki
Ġsav i
Ġvie Å¡
av imas
ar t
am ai
Ġ ri
ĠuÅ¾ d
ek tr
ir d
ik os
Ġjau n
Ġt yr
tin is
ie ki
Ġk nyg
ym Äħ
Ġf il
on al
Ġsp alv
Ġl yg
Ġtikr ai
ant ys
Ġre z
ok s
Ġman o
Ġdien Äħ
aus iÅ³
om as
Ġpr as
âĢ ¦
Ġd uomen
ed a
T aip
Ġpl an
Ġd v
ing a
ĠK aun
i u
Ġm es
Ġk et
to je
n et
Ġt var
ri k
tin ÄĹ
te k
Ġpa Å¡
Ġkar tÄħ
ĠmedÅ¾i ag
j oje
Ġki tÅ³
ĠÄ¯ s
Ġti esi
u Å¡
od uk
ali z
Ġpr an
Ġne d
Ġ ab
L ietuv
in s
Ġk o
Ġis tori
tik r
ali ai
ra v
Ġn uos
in as
ien ÄĹ
z dÅ¾i
Ġl eng
Ġaps aug
Ġs tud
es ti
in e
Ġsud ar
Ġsu m
r e
to g
Ġk am
Ġsk ai
in imas
Ġk ov
Ġli g
Ġtiesi og
Ġs o
Ġtik sl
Ġr ek
or to
Ġkom and
I r
i Å¡
Ġu ni
y tas
Ġk aÅ¾
v a
ÄĹs e
Ġm en
Ġ 9
in ys
k ri
Ġmo ter
Ġnus tat
al o
Ġ ,
Ġpad ar
tik os
Ġpr oduk
ÄĹj as
in gi
Âł m
A t
Ġpap ras
s o
Ġs ek
ov an
y p
auj a
Ġd u
Ġkai n
ÄĹj us
Ġg yd
Ġpasir ink
ĠEurop os
Ġver sl
Ġmet us
ev i
Ġk v
inink as
Å« ra
Ġpo p
Ġk il
vir tin
Ġpa Äįi
Ġj Å«sÅ³
Ġm ie
Ġt em
Ġmies to
toj Å³
Ġvien Äħ
Ġb uv
Ġkar tu
t yje
si te
ti jos
oj a
Ġ |
Ġ1 5
dÅ¾i o
t iniÅ³
s ni
Ġb l
pr as
ĠM ar
ie v
N or
ĠVilni aus
at o
eli Å³
v il
el ÄĹs
bl em
Ġsu g
Ġsavi vald
Ġautomo bi
Ġm od
Ġatv ej
Ġr eng
A r
Ġs al
ÄĹj Å³
ini ais
Ġv akar
ÄĹ Å¾
ir m
ra f
Ġn en
cij Äħ
z i
Ġkuri Å³
m ÄĹs
Ġpar od
Ġl ais
Ġ ank
Ġv ir
b u
um p
Ġvis i
Ġi d
Ġb r
Ġ ch
Ġ en
Ġf in
at os
acij Äħ
inÄĹ je
iej i
Ġkom p
s tr
A n
Ġpro blem
Ġv irÅ¡
yb iÅ³
ĠÅ¾ od
inink Å³
ĠA l
Ġn el
Ġb i
Ġs ri
t au
en gi
ub lik
Ġk at
ek tyv
Ġ lik
j Äħ
Ā Ā
ir k
t yn
Ġpris tat
Ġt a
Ġl auk
a ti
Ġm inis
sti tu
Ġd ÄĹm
u ni
at Å«r
ĠÅ¡e im
uo k
Ġn um
es Ä¯
l yg
Ġel ektr
cij Å³
ul tat
t ra
Ġtech n
Äħj Äħ
Ġ od
yb a
ĠÅ¾mon ÄĹs
Ġpas tat
Ġne m
y tÅ³
en tÅ³
o b
Ġd vi
Ġpri klaus
Ġpa j
n y
ausi as
f ik
ta b
an o
e Äįi
ini g
iausi a
ali o
eÅ¡ im
ki ri
Ġd Å¾i
kai t
Ġ1 8
ai Å¡
B e
on e
k u
Ġn ori
Ġm ais
ĠâĢ ľ
Ġat rod
Ġti es
ĠiÅ¡ g
i ais
A p
eik ti
Ġ1 2
ti mo
Ġgali te
P o
Ġt er
yri aus
Ġv ÄĹ
K ai
en ki
i os
Ġl ie
es p
ie Å¡k
Ġrez ultat
B et
Ġpap il
Ġvis uomen
Ġpra dÅ¾i
Ġ2 0
Ġkl as
Ġpasi Å«l
V ien
k us
Ġpav ad
ĠK l
uo tas
Ġm ÄĹg
aik Å¡
Ġgal v
K aip
¿ ½
ei p
ï ¿½
Ġm al
Ġnuo l
ĠB al
Ġj Äħ
ti Å¡k
ĠP r
tori us
Ġvien a
v el
am in
Ġl aim
Ġn ur
Å« t
anÄįi os
Ġspe cial
Ġt en
Ġso cial
el Ä¯
Ġp inig
Ġ /
Ġek sp
im i
Ġe ur
Ġne Ä¯
k Å³
Ġc m
Ġd i
us iÅ³
g al
ĠÅ¡ Ä¯
pa Äį
uo ta
Ġvai zd
Ġk uo
Ġr od
inink ai
Ġinter net
w w
at yv
Ġl ank
al us
Ġj am
Ġdarb uotoj
Å¾i Å³
el ÄĹ
Ġin d
j ung
Ġm aÅ¾i
Ġv ÄĹl
Ġv asar
J is
au lio
Å«k st
Ġs ant
ĠÄ¯r eng
Ġsu l
Ġki ti
Ġsu r
et as
am en
Ġvalst ybÄĹs
Ġats is
Ġ ieÅ¡k
t aik
Ġ W
usi os
and ien
ali a
ĠK r
m in
o t
Ġdal is
Ġtar n
Ġgyven imo
p at
Ġpir k
Ġt ÄĹv
T ik
Ġd ain
y gi
Ġuni ver
Ġsuk ur
tu i
Ġger ai
t ys
om i
ĠÄ¯st at
Ġan tr
l e
Ġ er
ok um
A V
Ġj ums
Ġm ar
Ġvis Äħ
y zdÅ¾i
on Å³
ausi a
Ġpag alb
as is
esn is
N uo
j er
ÄĹj imas
yk o
Ġfin ans
f er
ab ai
Ġatl iek
Ġpar eig
Ġpat s
p os
Ġk ri
Ġnur od
eg z
Ġraj ono
yv end
ÄĹj ai
Ġen erg
Ġlietuv iÅ³
ĠiÅ¡ si
esp ublik
ĠsÄħ lyg
Ġpati r
l ap
Ġj oki
p as
Ġk or
adien Ä¯
m inis
aip ÄĹd
ĠiÅ¡ k
Ġu g
ÄĹj au
uoj u
Ġt Å«kst
at Å³
Ġats tov
eidÅ¾i a
D aug
uli ar
Ġk raÅ¡
Ġt aik
je k
Ġvie tos
1 0
Ġ X
ĠÅł v
en a
Ġsus id
Ġpas iek
ĠÅ¡i os
ur n
Ġs ieki
Ġvis Å³
pi u
an gi
p ar
tu ose
aÅ¾ ny
o f
t y
Ä¯ Å¾
Ġdal yk
ie d
Ġpran eÅ¡
N e
Ġr ei
tin ai
um i
Ġ 0
Ġvaik Å³
Ġsu tar
on om
m Äħ
Ġkon kur
Ġkur Ä¯
at as
Ġvis us
Ġb and
Å¾ as
Ġd okum
Ġt ri
Ġt Äħ
ÄĹm ÄĹ
Ġ Z
r es
in tas
id Å¾i
Ġap d
Ġsk ait
Ġd er
r y
" ,
Ġv ais
Ġd is
Ġspe ci
ki l
U Å¾
ĠdaÅ¾ ni
et Äħ
Ġm as
Ġt ek
P er
Ġr as
ym Å³
d yti
Ġm erg
in os
P ag
l as
a ci
Âł âĢĵ
d ar
Å¡ Äįi
Ġo b
in ta
uo tuv
Ġs teb
Å¾i ai
Ġkult Å«ros
ĠR us
ra k
Ġsav ait
et ain
Ġkeli on
er is
em on
Ġlab iau
Ġvand ens
1 8
ir b
ÄĹ r
ĠÅ¡ iÅ³
Lietuv os
ov ÄĹs
Ġproc es
ĠKaun o
Ġkon c
Ġk Å«n
ei gi
Ġ Å«
Ġgam in
ÄĹj usi
s k
es io
2 00
er v
t al
ĠdaÅ¾ nai
Ġsi Å«l
Ġl eid
toj ai
Ġtur ÄĹtÅ³
ĠÄ¯si g
I I
vai zd
ĠV al
Ġtap o
Ġ1 6
uoj ama
to n
Ġam Å¾i
ei v
d as
2 0
Ġpat og
ĠÅ¡i o
en tas
Ġpasir od
anÄįi us
ini ame
Ġt ada
Ġak tyv
Ġt ais
toj o
tin ÄĻ
S u
Ġin stitu
Ġf o
ev eik
iausi ai
Ġy paÄį
eri Å³
g o
G al
y kite
ie t
Äįi u
d ymo
ĠJ Å«sÅ³
Ġsus ij
ai v
Ġm ir
ez id
Ġsud ÄĹ
Ġ Äį
ie ri
Ġl ink
Ġpa tik
Ġj eigu
d ÄĹ
is tr
Ġpra k
Ġt ad
ant Ä¯
Ġtechn olog
p il
Ġvad in
in imÄħ
Ġn usi
Ġl ap
ĠÅ¾ ini
an as
Ġkuri o
Ġki to
Ġmok ytoj
Ġvand en
ĠÄ¯ k
Ġper s
ĠÅ¾em ÄĹs
Ġpas aulio
ĠS e
Ġvar Å¾
am o
Ġlais v
ĠuÅ¾ tikr
Ġg atv
on Äħ
ÄĹ p
es t
cij as
l is
Ġt as
Ġneg ali
ien os
Ġp raÅ¡
Äħj Ä¯
Ġvis ada
ĠI n
Ġto liau
l Å³
Ġs od
amb ar
A S
om os
Ġpri im
yv en
ĠÅ¾mog aus
dÅ¾i Å³
Ġk ap
ĠÅ¡v en
am p
S v
ra g
Ġpri val
Ġnep ri
Ġj Å«s
el n
Ġ et
Ġpard uotuv
d ami
im ais
ym us
ĠuÅ¾s ien
Ġb u
Ġkl ub
tin Ä¯
an a
ĠA r
ĠÄ¯st aig
uk as
Ġpan aÅ¡
Ġki t
ĠÅ¾mog us
enk a
Ġbendr uomen
Ġkl ien
Ġtr an
y tis
au r
Ġ z
Ġj iems
Ġr ug
Ġ1 4
ang os
Ġad minis
Ġstr aip
av imÄħ
Ġ3 0
Ġdien os
Ġsak ÄĹ
Ġt oks
Ġlaik Äħ
in tis
ĠuÅ¾ si
b ul
d avo
d amas
Ġskir ting
ĠvÄĹ liau
d v
Ġver tin
ĠR espublik
Ġv il
uk ai
Ġspecial is
Ġtvar k
Ġatvej u
ir ink
en kl
Ġb ank
D ÄĹl
Ġ1 1
ys tÄĹs
I n
ĠÅ¡v ie
ÄĹm e
Ġdir ek
ÄĹ Å¡
t ÄĻ
. )
Ġneb uvo
Ġt eri
im s
Ġmok es
si ch
Ġvis iÅ¡kai
Ġpl auk
aci onal
ri g
M an
Ġki tÄħ
Ġ1 00
yzdÅ¾i ui
al is
Ġt rad
ĠÅ¡i uo
J eigu
Å« ri
Ġ1 3
Ġniek o
ir Å¾
ÄĹk m
Å« p
Ġval and
ĠK ar
Ġ1 7
Ġsv etain
ĠÅ¡ is
im is
Ġsu pr
- -
Ġkon s
al as
ĠÄ¯g yvend
ĠÄ¯ dom
i v
Ġvalst yb
eÅ¡im t
Å¡ki a
Ġor o
ver tin
Ġnam Å³
Å« z
ĠÅ¡al ies
A B
Ġb eveik
ing os
on d
Ġn ug
Ġnei Å¡
c en
Ġm ums
at ai
Ġk ambar
Ġnuol at
tik a
Ġsi tu
al ai
uk Å¡
ĠKl aipÄĹd
ÄĹj imÄħ
Ġp ok
Ġf unk
P irm
ki us
Ġsusi tik
S p
il ie
Ġnuo trauk
Ġi tin
ini ams
tin k
Ġvie tÄħ
eng ti
Ġtran sp
li u
Ġsk l
Ġank s
ing Äħ
5 0
Ġt eig
ĠJ AV
Ġneg al
Ġ :
Ġsavivald ybÄĹs
et r
Ġtel ef
to l
Ġ [
Ġne at
ĠD iev
Ġtarp tau
Ġ19 9
uk r
h e
om end
1 2
t n
m Å³
Ġsu b
Ġe f
eli ai
ĠÅ¡v ent
Ġvis kas
Ġj ud
Ġf ak
Ġtr ump
auk Å¡
Ġsak o
d ien
Ġmuz ik
Ġvar to
Ġj aus
ĠÄ¯ raÅ¡
e Å¡k
K ar
esn ÄĹ
Ġsti pr
Ġm us
Ġek onom
Ġ ÄĮ
Ġpat eik
Ġne k
Ġveik sm
Nor s
ĠmaÅ¾i au
Ġpab aig
ÄĹ te
uk o
Ġteis ÄĹs
Å¡ki o
Ġm iÅ¡k
Ġpr am
Ġt eigi
yb es
Ġin v
T odÄĹl
Äįi os
Ġpr al
ĠÅ¡v ies
Ġb aig
Ġp ali
Ġveikl os
ali os
Ġ em
Ġkuri ame
uos ius
K ad
ĠÅ¾ enkl
Ġper d
Ġy pat
Ġvis ai
Ġsu v
is i
m a
Ġversl o
Ġleng v
Ġki tos
Ġs im
Ġk vie
anÄįi o
Ġre gi
ep Å¡
Ġn ak
Ġg en
t inio
Ġteri tori
Ġar ch
Ġapsaug os
Ġpl o
V il
Ġ rad
Ġkon tr
Ġne Å¡
t en
Ġpui kiai
Ġ Â
ĠÄ¯ sp
Ġt ol
3 0
ang a
g r
ĠbÅ« t
Ġk ep
Ġ Å¾iÅ«r
Ġs ez
p ri
Ġpat ar
Ġsum aÅ¾
aus kas
ĠÅ¡i Äħ
Ġkuri Äħ
b il
ausi o
Ġ â
Ġpapil dom
Ġkalb a
ĠG r
A Å¡
ij as
em pi
Ġpras id
Ġtur ÄĹjo
Ġpasaul yje
Ġ eil
ed i
ÄĹ liÅ³
Ġkuri uos
ĠÅł iau
tÄĹ je
g n
Ġpat virtin
Ġatrod o
Ġsp or
Ġprof es
Ġbl og
Ġry Å¡
l ai
Ġob jek
et ai
Ġprie Å¾as
" .
d in
at a
Ġp sich
Ġb aÅ¾ny
Ġpop uliar
Ġ ang
K iek
aud Å¾i
Å«n as
Ġpat al
pr end
Ġ aiÅ¡k
acij Å³
Ġd ur
tom is
Ġp os
Ġm eil
Ġpas id
Ġs kiri
Ġinform acijos
Ġmal on
ĠP al
G r
Ġmokykl os
ĠiÅ¡ r
Ġkom piu
Ġsveik atos
ĠiÅ¡ d
auki a
ĠÅ¡ eÅ¡
Ġmais to
Ġl ygi
Ġ aud
Äħ s
n e
um a
ok Å¡
ar as
K i
Ġl ang
Ġs to
Ġg i
ĠkaÅ¾ k
Ġer dv
L abai
T uo
uos i
ÄĻs ti
Ġn atÅ«r
ĠdÅ¾i aug
Ġpal aik
ĠÅ¡i andien
Ġo per
m ÄĹ
Ġsu Å¾
Ġar tim
Ġkuri oje
Ġminis teri
I N
1 5
r os
Ġpas ik
ov ÄĹ
at Äħ
Ġ egz
ini uose
ĠÄ¯vairi Å³
ij o
in kite
ĠÄ¯ vertin
l aus
Ġd e
Ġv eid
ĠRespublik os
Ġk m
ĠbÅ« s
Ġri b
Ġm l
Ġvie toje
Ġtoki Å³
un d
Ġkr epÅ¡
Ġ aikÅ¡
Ġ ag
ing Å³
Ġvaik ams
Ġat ei
t ri
ÄĹl ÄĹ
ut ÄĹs
t iniai
Ġvis as
Ġr ung
Ġne mok
u ÄįiÅ³
Ġs tov
ym ai
p j
n az
in ant
Ġsistem a
Ġv os
eri o
ar g
au p
in ai
Ġo f
Ġsant y
T oki
ÄĹ ta
Ġpam at
ĠÅ¡ ird
ie ÄįiÅ³
uoj amas
Ġprad ÄĹjo
ĠbÅ«d u
Ġsuk n
00 0
ÄĹ tis
Ġd ovan
y tos
Ġta Å¡k
b ol
Ġpr e
Ġdarb Äħ
ar p
t Å«r
Ġnet ur
ausi Äħ
Ġ Ð
Å«r ÄĹ
Ġm eto
Ġkalb os
Ġf iz
c Å«z
an tas
e ÄįiÅ³
Ġmuz ikos
in Å³
M es
Å¾ ym
iek a
Ġd ek
Ġduomen Å³
Ġvar d
Ġte at
Äįi aus
J ie
ing o
Ġ2 5
and a
Ġg auti
Å«n Å³
Ġj ÄĹg
tori aus
Ġm on
tin ink
o c
Ġkr auj
c m
Ġl yd
Å¾ vel
k s
ĠamÅ¾i aus
ĠÅ¾ ino
rad arb
Åł is
Ġgrei tai
er s
Ġvis iems
Ġtr en
o Å¾
ĀĀ ĀĀ
ĠA m
ĠÄį empi
Ġreik Å¡
Ġv ys
Ġv ed
aud oj
Ġcentr o
en to
Tai gi
Ġats kir
Ġlaiko tar
inink o
Ġgal ÄĹtÅ³
ym u
Ġnet uri
Ġval dÅ¾i
Ġsav e
b Å«t
Ġb ent
Ġmies te
Ġ Å¾i
si t
Ġpas is
uod a
ÄĹj ÄĻs
Ġd et
Ġ ci
Ġgeri au
e ch
. âĢľ
Ġnaud oti
Ġsistem os
yn o
var k
tog raf
ĠÅ¡eim os
Ġpat ys
Ĥ ¬
y tÄĹ
ĠVilni uje
Ġkai na
si u
yd is
inÄĹ ti
um u
Ġs ÄĹkm
er ni
Ġs au
Ġk an
lo b
Å¾i us
en tai
D ar
Ġvis kÄħ
l a
iz ain
Ġgrup ÄĹs
ĠE S
m os
Ġap tar
Ġgyd ytoj
tim as
Ġpask elb
ĠV okie
Ġpad id
evi Äįius
Ġaps kri
aid os
uni g
uk us
1 1
Ġg el
Ġnam uose
ĠrÅ« p
ĠdaÅ¾ni ausiai
Ġs iek
Ġnuo mon
P av
ar i
ar o
g a
Ġat n
str uk
ÄĮ ia
anÄįi Äħ
n os
ĠN r
Ġvis a
ij ai
Ġsut eik
âĢ Ļ
Ġpas kir
on iÅ³
Ġd y
Ġpad ÄĹti
uoj ant
Ġk ei
Ġpri paÅ¾
Ġgr Ä¯Å¾
m at
i ci
ÄĹsi te
Ġnum at
l ÄĹ
ĠsÄħ raÅ¡
ĠrÅ« Å¡
Ġsk at
Ġkonc er
Ġpaslaug Å³
Ġpar aÅ¡
Ġtoki a
ĠÄ¯mon ÄĹs
Ġvaik ai
Ġspalv os
Ġk omis
ĠÅ¡ aliÅ³
ĠP as
J i
on ai
Ġeur Å³
Ġvai r
Ġgyven imÄħ
s ÄĹjo
Ġpr ezid
A I
an ki
esn ÄĹs
ĠÅ¾ ais
um os
Ġpl at
ĠbÅ« na
ĠÄ¯v yk
n as
Ġt u
Ġbend radarb
Ġatlik ti
et Å³
r ÄĹ
ĠiÅ¡ mok
v eik
Ġsp orto
Ġrek omend
o z
Ġv aÅ¾i
ov as
Ġat k
ĠÄ¯ tak
am us
Ġvid ur
ĠÅ¾ ym
M ok
Ġminis tr
Ġkas dien
Ġvis os
Ġkom pl
Ġl aip
Ġ ...
Ġmie st
Ġs ta
i p
Ġkeli Å³
ib lio
Ġpar ti
Ġkar tais
ĠL enki
ti Å¡kai
Ġkok ybÄĹs
av os
im in
ĠS Äħj
Ġ5 0
ink a
ĠuÅ¾s ak
b us
Ġp enk
Ġprof esi
Ġtuo met
Ġprie Å¾i
n iÅ³
Ġj as
Ġpadar yti
Ġd izain
Ġkok yb
Ġpl ÄĹ
s is
Ġki tas
uo tÅ³
ali u
ĠÅ¾ urn
ys e
vie jÅ³
ur g
Ġgyven tojÅ³
Ġto bul
o tas
ais iais
t adienÄ¯
Ġras ti
Ġautomobi liÅ³
ĠÄ¯ t
uo tos
P ar
Ġap g
ĠkÅ«r yb
ie tÅ³
Ġtr eÄįi
Ġvis o
eg uÅ¾
Ġreikal av
an ijos
yb Å³
tu me
Ġk odÄĹl
em ok
Ġkad a
in tÅ³
tin ÄĹje
Ġi l
Ġ av
Ġman e
ĠÅ« kio
Ġti e
Ġvyk sta
Ġ .
Ġpriklaus o
Ð °
Ġsvarb u
r ÄĹs
Ġbal s
Ġdar Å¾
Ġs aul
ĠÅ¡ im
e c
og raf
Ġmuz iej
_ _
ww w
Ġn orm
Ġatv yk
Ġp ov
P at
tin ka
i ui
ĠmÄĹn esÄ¯
Ġpas teb
dÅ¾i ai
ol ÄĹs
Ġki tus
ĠâĢ Ķ
Ġd aik
Ġelektr on
N es
Ġv aid
Ġvyk o
tim i
S k
Ġef ektyv
Ġu p
Ġkr eip
Ġtik s
Ġk os
Ġt vir
Ġvie ta
tik o
gi o
Ġadminis tra
Ġinform acijÄħ
toj as
Äħ st
Ġr ud
Ġ201 8
1 7
Ð ¾
em i
Ġat vir
1 6
Ġtam pa
Ġket vir
Ġp ai
Ġ #
Äħ Å¾
ĠÅ½ em
N auj
Ġvien o
Ġdien Å³
ov o
ini am
Ġel g
Ġkult Å«r
Ġprogr am
klaus om
Ġ Å«k
ĠJ ums
Å«n ai
Ġgalim ybÄĻ
Ġd eg
Ġtink l
Å¡ki Å³
gi au
Ġb irÅ¾
ei ti
Ġdar yti
Ġkr Å«
u to
Ġtech ni
Ġpad eda
ĠdÄĹm esÄ¯
id u
Ġin f
4 0
tum ÄĹte
esn iÅ³
Ġpui ki
Ġgar s
ĠÅ¡ iek
Ġn uv
Ġsu p
oj imo
Ġsp aud
Ġk oj
ak o
ik a
ĠRus ijos
Ġpr in
Ġrei Å¡kia
Ġlaik as
Ġv eikia
anti ems
Ġmoksl o
Ġtink a
on u
D abar
ĠP ar
yl a
Ġtr is
ĠpaÅ¾ ym
usi us
Ġb iblio
tori Å³
ĠC h
Ġt al
fer en
Ġl in
ien o
ĠbÅ« kl
eg ori
Ġanks Äįiau
Ġpirm Äħ
Ä ĸ
ĠiÅ¡s kir
Ġ ini
i ki
Ġpr im
Ġpr iek
Ġpar tn
ei Å¡k
Ġj ai
ĠP ran
Ġdalyv avo
Ġl eidÅ¾ia
an Å³
Ġnep as
K as
in ama
ni o
Kiek vien
ĠT r
ev iz
Ġn acional
el yje
I S
a ki
av au
ĠuÅ¾sien io
ie g
a f
M Å«sÅ³
Ġgim naz
Ġgra Å¾i
ĠbÅ«t ent
Ġkai m
l ÄĹs
Ġdarb Å³
Ġb es
ĠÅ¾ iem
Ġdr aud
Ġnem aÅ¾
Ġvisuomen ÄĹs
Pas ak
ĠÅ¡ ak
ĠK al
Ġtransp orto
Ġdirb ti
li z
iÅ¡k as
Ġsk yri
b er
en tus
Ġpak ei
Ġasmen s
Ġper k
in ÄĹmis
Ġkar tus
and Å¾io
Ġsudar o
p Å³
ausi os
and ar
t ams
or o
ok Ä¯
Ġsk amb
Ä¯ st
Ġuniver sit
Ġne pr
ĠiÅ¡ b
al Äħ
ar s
b o
usi o
in amas
ÄĹ kite
A T
p us
ul k
or d
im ti
vai g
si ai
tin as
ĠSÄħj ung
Ġap raÅ¡
an tÅ³
ĠLietuv a
el ÄĻ
ÄĹd ami
v z
ni ai
Pr ieÅ¡
Ġl enk
Ġsav ai
ĠÄ¯vai r
Ġod os
ĠsÄħ jung
ik al
Ġd viejÅ³
Ġsk r
Ġpinig Å³
a ch
ĠSe imo
eguÅ¾ ÄĹs
Ġs tik
Ġats ir
Ġtr Å«k
Ġsen i
Ġlab iausiai
ĠT au
Ġsti pri
in am
Ġnaud o
Ġu os
Ġl ÄĹÅ¡
uk Å³
Y ra
ie b
yn as
Ġnauj Äħ
ĠÅ¾ v
Ġgra Å¾
Ġk unig
ing umo
m uo
O S
kri Äįio
Ġveikl Äħ
ok ai
ĠK on
Ġkeli as
Ġpor eiki
Ġpak ank
n eto
.. ..
19 9
t uo
1 4
Ġval g
Ġtem per
ĠkÅ«n o
Ġapd ovan
r ai
k v
s u
d aug
um Å³
r Å³
Ġinform acija
Ġre Å¾
Vil ni
Ġd eÅ¡imt
Ġk od
7 0
ĠKlaipÄĹd os
Ġcentr as
Ġg ana
al d
in ÄĹj
Ġprojek to
Ġrung tyn
Ġvar toj
Ġpask ol
av ÄĻs
Ġ2 4
J au
A R
eli u
esn Ä¯
or t
rav imo
Ġap ib
Ġeksp er
atori us
m ai
en os
Ġf esti
sni o
ĠÄįempi on
er n
Ġk t
Ġnes u
o ci
Ġpav irÅ¡
Ġm yl
yt au
ag r
Äįi ais
Ġfo tograf
Ġd ra
Ġprek ybos
v o
Ġdien a
Ġmen o
i tek
Ġleng vai
ĠÄ¯ pras
Ġr es
ali us
in ar
l amen
olog ijos
Ġpus lap
r ÄĹÅ¾
Ġneb Å«
inÄĹs e
Å¾iÅ«r ÄĹti
ÄĹ tas
Ġpa aiÅ¡k
Ġkov o
Ð µ
Ġk ab
li aus
1 3
Ġg aus
Ġkar o
ie si
at Å«ros
Ġml n
ĠU AB
Ġt eiki
Ġpali k
m ÄĻ
Ġautomo bil
ĠiÅ¡l aik
ir g
Ġap si
Å¾ er
ĠÅ¡ alia
vaig Å¾
T r
Ġmeto d
Ġatsi rad
ã Ĥ
ĠS k
Ġd ail
Ġati tink
u tÄĹ
ĠÄ¯ d
Ġki ta
Ġj uo
Ġs ien
Ġtais ykl
Ġkonkur s
Ġsk yriaus
Ġsi un
ĠkraÅ¡ to
Ġtur ÄĹti
Ġg aun
ĠP an
uoj ami
Ġt os
Ġned id
Ġat r
Ġsavait ÄĻ
Ap ie
j ai
Ġrek l
eli us
Ġbal d
Ġd om
Ġpo zi
Ġbendradarb i
Ġdal Ä¯
Ġel em
y tÄħ
end r
Ġ201 7
Å½ in
Ġsur ink
ÄĹl ÄĹs
ap ras
Ġnauj Å³
Ġind iv
Ġt eks
Ġjoki Å³
ai ki
ak s
Ġsk elb
P l
Ġdarb us
Ġli ter
Ġpav oj
kai Äįi
et a
on ÄĹs
Ġs er
Åłi uo
ad os
Ġkr yp
ĠS p
Ġ4 0
ĠÅ¾mon ÄĹms
Ġpaslaug as
c om
eri jos
Ġm il
h o
Ġab ej
ÄĹl is
Ġsun ku
ym ui
ĠÅ¾ uv
uo tis
Ġb at
J o
Ġl aid
val g
Ġkr edi
Ġsut eikia
Ġj uod
aud on
Ġs aus
Ġsu pras
Ġ2 2
ĠÅ¡ ok
K on
ĠÄ¯v y
Ġkon kr
cij oje
E S
Ġkiekvien Äħ
el ti
Ġpoli tik
oli u
B al
Å¡k as
Ġkiekvien as
s ak
N ep
c e
Ġn uk
Ġad res
Ġlig on
ÄĹj os
Ġpriemon iÅ³
ĠLietuv Äħ
ÄĹ li
Ġr emon
Ġâ Ĥ¬
r on
man oma
Ġkomand os
in ami
Ġnam o
ie Äįiai
is k
Ġsk aus
o te
Ġl eis
ĠÅ¡i ol
ĠN auj
N et
site to
Ġt Å³
Ġgalim e
ĠÂ »
Ġg lob
Ġpre kiÅ³
ĠsÄħ s
Ġs r
Ġpask u
ur b
Äįi Å«
ï¿½ ï¿½
Ġtel eviz
Ġver t
ĠmedÅ¾iag Å³
l os
ri o
ut bol
Ġsukur ti
Ġket uri
kait yti
Ġvald ymo
sn iÅ³
esni o
ĠÅ¡i aur
Ġvair uotoj
Ġskai Äįius
Ġr om
ĠpaÅ¡ al
t an
Ġpas tar
c ien
Ġilg is
au Å¾
Ġr uoÅ¡
d a
l Äħ
Å¡ki ai
ai gi
ĠL i
E N
n Å³
n is
2 5
ÄĹj ome
ĠprieÅ¾i Å«ros
Ġpai eÅ¡k
en o
Ġner eik
an ta
Ġv yri
iem et
Ġp i
Ġats p
Ġilg ai
Ġ Ä®
Ġprin ci
men Å³
st at
ĠiÅ¡ n
Ġtiksl as
Ġs os
Ð ¸
Ġd ang
Ġs ÄĹd
Ġatn auj
ĠÅ¾ini as
K l
Ġkomand a
Ġ ai
Ġs cen
Ġtoki o
ĠbÅ« tina
Ġ +
âĢ ĺ
Ġpri taik
uo dÅ¾io
gi ai
eid o
Ġkit aip
ed ag
Ġtr uk
T ur
Ġkok s
anÄįi as
uol aik
Ġk rik
Å¡ ti
ĠAm eri
Ġtoki os
ĠD idÅ¾i
i ams
Ġt okie
uoj ame
Ġsusi paÅ¾
Ġati dar
Ġm aÅ¡
in Äħ
Ġskir tas
Ġs ie
et e
tu mo
Ġk op
ĠmedÅ¾iag os
ĠAn d
un gi
e ina
Ġ201 6
Ġ2 3
) ;
Ġskir ti
Ġnep at
sn is
Ġsv e
Ġpam ok
al u
Ġpri d
Ġpav yzdÅ¾iui
pj Å«
Ġveikl a
Ġsul auk
p s
Ġenerg ijos
Ġvadov as
Ġri z
eri us
Äįi ui
Ġet ap
ĠuÅ¾ k
Ġv iz
Ġreik ÄĹtÅ³
Ġmet ai
toj ams
Ġistori jos
Ġarch itek
Ġr us
Ġkuri as
Vis i
ori Å³
ĠsudÄĹ ting
Ġkar to
iÅ¡k a
Ġniek ada
Ġrug sÄĹjo
in ei
k m
inink ÄĹ
Ġir gi
A M
ÄĹj ÄĻ
en Å³
Ġlaik u
Å¡k a
a Äįi
Ġki tais
Ġk elis
ie Å¾
Ġkel etÄħ
ili j
Ġne ap
Ġmed ic
E R
Ġsus ik
Ġt ak
men s
A l
Ġpat eiki
Ġdarb as
asi te
v en
Ġgyven ti
Ġkai mo
ad em
ĠÅ¡ ie
Ġf utbol
yb Äħ
Ġsi Å«
Ġprogr amos
T ad
Ġsus irink
Ġvyk d
Ġkar Å¡
T ies
Ġaplink os
Ġinter neto
ĠÄ¯sig yti
ĠÅ¾ yd
Ġo p
aud oti
A L
Ġpat r
Ġgrup ÄĹ
Ġpar uoÅ¡
Ġr im
au Å¡
ĠÅ¾ vaigÅ¾
n yr
eri ai
ol is
Ġnauj as
si as
ĠP l
Ġs eks
in us
Ġkad angi
Ġm ik
e x
Ġt ÄĹ
Ġform os
m us
Ġteigi a
P ra
Ġmoter is
Ġkain os
Ġsvarb i
Ġpav asar
ĠA t
Ġkeli o
ali Äħ
er b
K r
A N
Ġuniver siteto
as e
Ġini ci
6 0
Ġm el
aus k
ĠE l
Ġtur ime
ĠÄ¯si k
Ġpav eik
Ġne Å¾in
J os
Ġ w
Ġd ep
Ġniek as
Ġpris im
Ġkon feren
Ġg au
al ÄĹ
on is
Ġs and
ij ung
Ġne tik
ĠV ytau
Ġpa cien
Ġg yn
trauk ti
t adien
Ġk eis
Ġindiv idu
er al
kai tÄĹ
Ġne v
2 2
ĠV is
ÄĹl yn
ri b
ar Å³
D aÅ¾
Ġpard av
Ġtar si
Ġpagalb os
K om
uo met
Ġpaslaug os
kr ain
Å«n o
Ġdalyv auti
Ġnus prend
Ġproc ed
ĠdÄĹm esio
Ġskir ta
ĠÅ¾mon es
ĠT ar
Ġteis ÄĻ
Ġkur s
Ġk li
eli g
d ama
Ġreg uli
Ġkol eg
Ġkat egori
k up
Ġpapras tai
Ġsl ap
oki te
al og
b aig
r u
ĠÄ¯r od
l y
Ġat g
Ġkar i
Ġe Å¾er
Ġkompiu teri
tel ÄĹs
ĠÅ¾in oma
ĠpaÅ¾ eid
Ġd ÄĹs
Ġes u
Ġ2 1
c k
Ġpr em
Ġvaik o
ĠKaun e
. ).
z mo
uo g
ĠÄ¯sp Å«d
Ġg eguÅ¾ÄĹs
Ġg ÄĹr
Ġpat eikti
Ġkl aid
Ġb ÄĹg
Ġcentr e
Ġsp alio
Ġ, ,
Ġsri tyje
Ġreg istr
Ġnet r
Ġproduk tÅ³
Ġdra bu
Ġdarb ai
Ġj uk
Ġk ie
Ġg arb
ien ÄĹs
ai tin
Ġrank ov
us Ä¯
Ġtur nyr
Ġap yl
Ġb az
Ġpasi raÅ¡
Ġprad ÄĹti
Ġnar iÅ³
o u
ytoj Å³
Ġvir tuv
Ġb yl
J uk
ef ek
yr ÄĹ
is tÅ³
ĠbirÅ¾ elio
oj oje
ud Å¾
ĠpradÅ¾i oje
Ġpris id
te liÅ³
Ġistori ja
Ġnus ikal
ra cijos
Ġpav el
Å ª
tin e
en ti
yn ÄĹs
ĠvieÅ¡ bu
Ġskai Äįi
Ġpat ek
int ys
tin es
ej a
Ġin t
g Å¡
Ġvien os
Ġvar i
Ġtrad i
Ġap r
ai tÄĹ
ter is
Ġgr o
Ġd ÄĹÅ¾
in u
Ġgal ÄĹjo
Ġt okÄ¯
Ġid e
k e
Ġner eikia
ĠÄ¯si tik
Ġl ÄĹk
Ġvyk s
Ġ19 8
at eg
rig in
Ġinternet u
l us
k Å¡
Ġvien u
Ġsug eb
Ġats id
t Å«ros
ĠÄ¯mon iÅ³
Ġdirb a
Ġk ino
i te
Ġrod o
Ġm ilij
Ġv eiki
Ġp ik
Ġv eÅ¾
ais v
tu mas
Ġtap ti
Ġdarbuotoj Å³
par eig
art amen
el es
Ġan aliz
og r
Ġd var
r us
Ġgyven a
j Ä¯
ĠaukÅ¡ Äįi
Ġstr uk
U R
Ġapl ank
Ġnar ys
Ġpasiek ti
ak al
il p
V al
Ġs ausio
ĠDiev o
Ġ19 4
Ġd ÄĹ
ytoj as
Ġdien omis
Ġsu tik
Ġas oci
ur o
Ġal iej
el e
uo t
Ġvar ik
en tar
Ġg ri
Ñ Ĥ
Ġdal ies
p irk
ĠiÅ¡ or
v e
ie jÅ³
in tos
Ġkoki a
Ġlie pos
d av
Ġpa tikr
Äįi ame
ink Å¡
Åłi andien
ĠÅ¡ un
Ġkon f
ij us
Ġlap kriÄįio
Ġm ag
Ġkuri uo
ĠÅ¾ al
ar os
ki u
li ais
ÄĹn Å³
ĠÅ¡i oje
ausi us
/ /
cij ai
ĠV ar
oj imas
Ġl aiv
ĠPan ev
ĠÅ¾ ing
s ime
tim Äħ
Ġs tab
eli a
Ġnet gi
ĠmaÅ¾ ai
v ies
P ard
Ġsug r
Ġl aiÅ¡k
Ġp ie
Å¡ i
ar a
Ġtoki u
pjÅ« Äįio
Ġats kl
Ġf or
* *
Ġr engi
Ġduomen is
Ġ2 8
ĠVil k
in ÄįiÅ³
Ġis tor
am ojo
Ġp eln
Ġlietuv iÅ¡k
Ġug dymo
k al
yb e
2 4
Ġ alb
Ġpriemon ÄĹs
V aik
mon ÄĹs
Ġr am
Ġ eis
Ġlaikotar p
Ġnam us
Äįi ams
at Å«ra
G ali
Ġtek o
Ġpakank amai
Ġgyven ime
ori us
j as
Ġnori te
en cijos
Ġg ab
ĠiÅ¡b and
Ġdid elis
Ġpr at
on s
Ġpo il
Ġties Å³
Ġl em
Ġpasi tik
K aun
ej i
um us
Ġministeri jos
Ġtrad ic
Ġap Å¡
iausi as
ĠsiÅ« lo
Ġatsak om
ĠdÄĹl to
ÄĹ Äįiau
ĠiÅ¡ lik
Ġkomp an
Ġtar ybos
Ġvie tÅ³
Ġnar iai
Ġm m
ĠpaÄįi u
ĠB ri
Ġkam p
Ġkv ap
Ġd uo
Ġdy dÅ¾io
el bi
tel ÄĹ
U S
Ġs em
oj au
Ġteig ÄĹ
oki Å³
ĠBal tijos
ĠVilni us
Ġj us
Ġelektr os
yd amas
Ġpasak yti
Ġs tog
ech an
Ġsun ki
Ġproblem Å³
t uoti
Ġg eb
Ġdv as
Ġatsis ak
Ġr elig
Ġsl uok
Ġ2 6
Ġt eik
Ġpagalb a
Ġpad ÄĹs
Ġg ink
P ri
ĠÅł il
Ġpsich olog
tuv as
Ġt avo
Kad angi
ĠL atv
Ġ6 0
ĠPran cÅ«z
yd ami
Ġvaik us
uk Äħ
Ġsistem Äħ
Ġsk ol
Ġbi udÅ¾
ar st
Ġv okie
Ġgal ÄĹs
Ġnuos tat
Ġger a
Ġpabaig oje
ver s
Ġmie g
Ġek ran
Ġpok y
to vai
Ġj ung
o w
Ġpak eisti
po zi
ul is
ĠÅ¡vie timo
Ġprogr ama
kr eip
Ġinici atyv
ĠnemaÅ¾ ai
Ġmoter Å³
Ġatsi Å¾vel
ri jos
Ġbal andÅ¾io
uod amas
Ġak adem
Ġpoli cijos
an to
Ġsu aug
o ta
G er
Ġnu tar
Ġn up
no z
od o
Ġpas in
Ġp j
ang Å³
Ġ201 5
Ġtr auk
Ġkiti ems
I M
ĠM aÅ¾
ÄĹ lio
Ġne uÅ¾
ĠbÅ«d as
Ġpl okÅ¡
ĠÅ¡al yje
Ġnepri klausom
Ð ½
um ai
e o
arb u
S i
p al
ĠiÅ¡ m
Ġklas ÄĹs
c o
Ġr ieb
ut Ä¯
il ank
ĠSÄħjung os
Ñ Ģ
Ġraj one
Ġvaizd o
ĠÅ¡i uolaik
Ġl eidÅ¾i
Ġat os
Ġsupras ti
Ġturi te
v ad
2 3
d y
Ġg av
Ġpag amin
ĠsÄħs kai
ĠmÄĹn esi
t t
Ġal ko
a y
Ġ2 7
Ġsv aj
Ġgr uodÅ¾io
Ġknyg os
Ġbendruomen ÄĹs
Ġneg u
b Å«
ykl os
ĠLenki jos
Ġatl yg
Ġkuri a
tr o
Ġtr up
Ġt uos
uri a
Ġtren ir
Ġsp ar
Ġr enk
ĠM as
ĠÅ¾ ied
Ġ >
Ġapyl ink
Ġank st
Ġkar tÅ³
usi Äħ
Ġpag alv
on us
ĠÅ¡il umos
Ġgam tos
Ġvid aus
Ties a
Ġstr ateg
in yje
es tuv
âĢĿ ,
im ams
Ġpar eiÅ¡k
Ġpl as
Äįi ausiai
Ġatos tog
t inius
Ġver s
ĠV akar
Ġk Å«d
Ġinv esti
Ġat m
om Å³
atori Å³
edag og
M aÅ¾
Ġdien as
j o
Ġsieki ant
Ġkari uomen
ĠP et
Ġkompl ek
Ġasmen Å³
Ġjaun imo
ÄĹ z
v ok
i ta
uo z
ali fik
ĠV yriaus
en as
ĠK az
M at
Ġgrei Äįiau
Vien as
Ġgam ybos
Ñ ģ
Ġim p
ali au
Å¾i a
Ġpasirink ti
ĠÄ¯stat ymo
ÄĹ Å¾io
ÄĹ liau
Pav yzdÅ¾iui
ĠmÄĹn es
esn ÄĻ
uoj amos
N a
e ti
-- --
Ġpasaul Ä¯
Ġnuo taik
avi Å¡kio
Ġneb us
Ġpati ek
Ġr ÄĹm
Ġg ird
Ġti po
Ġsukn elÄĹs
av a
Ġats tovai
ĠiÅ¡ Å¡
Ġprek ÄĹs
Ġr asite
M ano
Ġak tu
ÄĹj Äħ
Ġvaik as
atori ai
us iems
Ġs ep
Ġp el
ra Å¾
Ġnep ak
Ġ: )
ra z
ÄĹj ams
Ġsut rik
er k
Ġb ar
ĠâĢ ¢
ĠiÅ¡ pl
yk Å¡
Ġpaj ÄĹg
Ġkur ti
Ġgalim ybÄĹ
v is
Pag rind
Ġs es
Ġmokykl oje
P ro
ĠmaÅ¾ daug
eng ÄĹ
Ġ201 4
Ġgal bÅ«t
Ġkon struk
r Äħ
Å¡ iÅ³
an i
ĠÅ¾ ali
li ui
om o
n ek
Ġgyven tojai
tin os
ÄĹ t
T arp
es ys
Ġautomobi lio
Ġs Å«n
tr uk
k art
ek tak
Ġpasl ap
al ÄĹs
to ti
ras ti
ĠI I
Ġpas t
Ġnauj o
ĠVal st
Ġsp aus
Ġpris i
ÄĹd amas
ys tÄĹ
uo tÄħ
pr es
am ÄĹs
Å½in oma
Ġpasi Å¾ym
Pr ie
n Äħ
Ġg l
ĀĀĀĀ ĀĀĀĀ
Ġ Y
os of
ĠÅ¡i ame
l ar
ĠÅłiau liÅ³
Ġkuri ose
ĠJ on
tol og
Ġpil ie
im uose
ytoj ai
ad o
âĢĿ .
Ġkur iems
8 0
Ġm aiÅ¡
Ġd ydis
or is
ok o
Ġbiblio te
uo Å¾
te is
Ġst andar
Ġjau Äįi
ĠV id
ĠÄ¯ kur
acij as
Ġter min
Ġdal yje
P an
Ġkar jer
dÅ¾i us
E ur
en tÄħ
b a
on io
tr os
Ġr ed
ĠuÅ¾ pil
Ġes ame
Ġgel eÅ¾
Ġj Å«r
Ġc ukr
Ġnauj a
n ÄĹs
Å¾ em
ĠL R
sn Ä¯
and id
Pag al
Ġm er
en iai
Ġklaus imus
arb o
Ġgyven imas
Ġtr ys
Ġtyr imÅ³
el s
ĠA d
to ran
Ġpag er
Ġs ov
ãĤ ¢
tin o
Ġpram og
: //
ĠÅ¾ ai
Ġdep artamen
Ġgal ÄĹsite
aid inÄĹs
Ġpriim ti
Ġo rigin
P al
Ġper gal
Ġ %
tr as
Ġj Å«ros
Ġ2 9
or as
Ġtvar ka
in asi
yb ai
A k
Ġprojek tÄħ
e ki
Ġstat ybos
Ġpaveik sl
Ġsusi tar
y tÄĹs
av e
Ġsieki a
ĠÄ¯sik Å«r
inink ams
Ġmat yti
ÄĹ liai
Ġl ent
Ġinter es
Ġra g
Ġstud ijÅ³
V er
Ġgalv os
Ġrink tis
tori ai
Ġsp ind
ĠpaÄįi os
f o
p ti
am Å³jÅ³
ĠuÅ¾tikr inti
ĠÅ¡i uos
ĠÄ¯ var
ai tis
Ġvadov auj
Ġtem a
Ġs iau
p Äħ
Ġreikal Å³
y Å¾i
Ġm aitin
men ys
Ġseni Å«n
Ġpar tijos
D idÅ¾i
ĠmedÅ¾iag a
Ġegz ist
Å¡k os
am u
Ġm ÄĹs
Ġk er
ĠI Å¡
tu l
tin gi
Ġmokykl a
Ġsaug umo
Ġpatr auk
Ġvasar io
E L
Ġnustat yti
Ġd eÅ¡
l and
ĠiÅ¡v yk
Ġm or
Ġt v
rag ÄĹs
ãĤ¢ ãĤ¢
ĠN or
Ġ ol
Ġteis iÅ³
Ġmies tas
Ġtik ri
Ġtur to
Ġpus ÄĻ
Ġprogr amÄħ
Ġg in
Ġsuv ok
Ġm echan
Ġl og
Ġvyr as
u al
Ġkelion ÄĹs
ol o
Ġd efek
ĠiÅ¡s aug
t am
Ġak im
Ġap mok
Ġnep av
Ġpasi g
2 6
Ġpra ei
Ġkaim yn
Ġati d
Ġprofesi on
Ġsun k
I ki
ĠU krain
Ġd eÅ¡im
Ġ x
Ġch em
Ġnauj os
Ġger okai
Ġinv est
Å¾ ud
Ġmo tyv
T ada
Ġp edagog
Ġdar o
al e
Ġkalb ÄĹjo
Ġdr ÄĹg
Ġl aukia
Ġlaik ais
er c
Ġgalim ybes
Ġtr ans
in imui
Ġlik o
Ġduomen ys
toj a
ĠuÅ¾ m
ĠU Å¾
at u
e jÅ³
Ġkol ek
ain a
201 8
eiv iÅ³
l u
ies iems
M o
Ġa ki
Ġkol ektyv
Ġf on
ĠJ ung
ĠVokie ti
Ġkeli Äħ
Ġli tÅ³
Ġp ieÅ¡
ym osi
ĠÄ¯ Å¾
t ame
Å¾i u
Ġklaus imas
Ġvasar os
iÅ¡k Äħ
Ġkrik Å¡Äįi
ie r
19 4
Ġprojek tas
I lg
Ġpal yg
Ġdirek torius
ĠmÄĹg st
Å¾i Å«ri
Ġvid ut
en c
im ok
Ġprad eda
ĠEurop oje
anÄįi u
P ui
en e
ÄĹl Ä¯
Ġaptar n
E T
ĠÄ¯r anga
um ui
Ġauto bus
Ġaps is
Ġm inÄĹ
ĠÅ¡al yse
eli ui
Ġsus is
Ġb ilie
on a
Ġistori jÄħ
ĠÅ¡ iemet
anÄįi ais
Ġsk ry
Ġm i
Ġm iÅ¡
ĠAn g
Ġne Å¾
Å¡k Äħ
2 1
Ġp unk
c ep
iÅ¡k os
ĠÅ¾ iniÅ³
O N
Ġak is
ĠÅ¡ l
ij amp
Ġtri jÅ³
Ä¯ s
m u
Å« g
Ġ www
ĠuÅ¾d ar
Ġtur ÄĹs
Ġrug pjÅ«Äįio
ĠVokie tijos
V ar
Ġkain Äħ
rav o
ĠA p
m i
Ġt enka
B uvo
eis tas
Ġpus ÄĹs
et en
Ġk ak
uo tÄĹs
Ġpa ÄįiÅ³
v eÅ¾
Ġin te
ĠJ o
Ġgr ieÅ¾
Ġpasirink imas
Ġprad ed
n es
Ġkam er
Ġpak laus
al yv
ĠÄ¯s ak
Ġdaug uma
ov Å³
at us
Ġper sp
Ġt virtin
âĢ ¢
Ġpag r
Ġr au
P asi
i as
f or
ing us
M ed
in ame
Ġprival o
ov iÅ³
ad as
ci on
ens yv
Ġb ro
ĠrÅ« gÅ¡
in ÄĹms
Ð¾ Ð
av imui
aj ame
Ġp uoÅ¡
âĢ¦ ]
Ġpris ijung
Ġatvej ais
d i
Ġtarp u
Ġm a
ĠiÅ¡l aid
ut ÄĻ
tim Å³
Ġuni k
Åłi os
eg istr
Ġra k
Ġtau tos
Ġk andid
Ġkuri uose
Ġgr ind
Ġpr ar
g ar
Ġg avo
me Äįio
ĠÅ¡e ima
Vilni aus
Ġg e
Ġmok iniÅ³
2 7
ĠieÅ¡k oti
ĠÄ¯v yko
2 8
ĠbÅ«kl ÄĹs
Ġkv alifik
= =
Ġbendr ovÄĹs
Ġsprend imas
ri Å³
al aus
Ġsk elbi
Ġpa ties
ieri us
ti pr
ĠiÅ¡s il
ĠL t
ĠK in
Ġm e
n oj
ut es
uod ami
Ġmin uÄįiÅ³
usi as
ykl a
Ġpasir uoÅ¡
uo m
ĠM o
yr us
Ġtarn ybos
Ġmokes ÄįiÅ³
ĠJ us
d e
emok r
yb oje
Ġs ilp
Ġpamat yti
Ġpok alb
ĠA k
ÄĹ tai
Ġv estuv
ta bi
Ġknyg a
v ed
Ġtik ras
b in
Ġsk ub
P ak
Ġpir Å¡
V I
yp s
Ġm Äħst
ĠJ uoz
Ġdalyk Å³
toj us
Daug iau
An t
Ġstud ij
ĠÅ¾mog ui
Ġpat enk
Ġak c
M ar
tor ÄĹ
Ġst engi
tu kas
Ġknyg Å³
ki a
Ġsav an
kur s
ĠI tal
Ġtar i
Ġat Å¡
Ġprofesi onal
uoj asi
Ġsut eiki
Ġtoki Äħ
Ġmeil ÄĹs
ĠreÅ¾ is
ĠS t
to k
ĠvaldÅ¾i os
Ġmok ymo
Ġnuo Å¡
av imai
Ġdvi ra
Ġes ant
Ġpinig us
Ġats par
Ġprog a
Ġnuos tab
Ġdis kus
Ġgalim ybÄĹs
gi u
Ġvie tas
Ġj ame
Ġs n
uo liÅ³
Åł Ä¯
Ġsus ir
ul p
Ġaps ilank
ti z
K ol
iÅ³ sti
Ġpirm a
ov in
Ġp aukÅ¡
Å ²
ti on
2 9
yb ÄĹje
k ar
om Äħ
Ġpri va
V ÄĹliau
im os
ĠkaÅ¾ kÄħ
tik Äħ
Ġm eis
Ġlauk o
ĠsÄĹkm ingai
i Äħ
eli ais
Ġger as
Ġl ed
Ġpov eik
Ġli ud
Ġbr and
ie st
Ġpra b
ĠpradÅ¾i Å³
gi ant
Ġspalv Å³
Ġteat ro
Ġfil osof
ÄĹ ra
Ġplauk Å³
Ġsvarb us
Ġskirting Å³
ĠÅ¡ird ies
Ġfutbol o
Ġ 000
Ġ19 7
Ġk ul
D id
ĠT el
yn ÄĹ
ĠN e
Ġdraud imo
Ġdaug elis
Ġkoki os
Ġlygi o
ĠsÄħlyg as
p ag
ĠiÅ¡ p
aug o
Ġpasirod ÄĹ
Ġres toran
Ġkrauj o
Ġor gan
Ġnaudoj amas
kai tos
Ġmok iniai
Ġr audon
ys t
T o
Ġsprend imÄħ
ĠR ad
Ġpoil si
Ġtarp us
j us
ausi u
ap on
Ġinternet e
ta cijos
Ġnauj ien
Ġap im
aus ti
Ġkas met
g ub
Ġtechnolog ijÅ³
Ġper si
av us
Ġ ok
Ġred ak
Ġm inkÅ¡
Ġst alo
K ur
ĠÅ¡al is
in imu
ĠkrepÅ¡ inio
en Äħ
Ġnet eis
Ġpad al
Ġmik ro
Ġnep am
li ams
Ġrink os
aÅ¾ o
O R
tos ios
Ġproblem a
Ġt he
Ġsaul ÄĹs
Ġsu mok
ĠÅ¡ var
K Äħ
k is
Ġpat Ä¯
Ġsp ektak
Ġk ir
Ġn ul
Ġvasar Äħ
b r
Ġp vz
Äįi Äħ
od ami
t h
Ġ201 2
Ġprasid ÄĹjo
g im
Ġd ÄĹv
y site
A U
ĠÅ¾urn alis
ĠVilk aviÅ¡kio
ĠiÅ¡r ink
Ġgr ÄħÅ¾
im osi
ÄĹ kl
ð Ł
Ġ201 3
Ġvys t
Ġ( âĢŀ
Ġtur in
Ġnaudo tis
Ġpasid al
Ġdid elÄĹ
Ġdirb o
ai r
Ġ8 0
__ __
Ġn ukr
Ġ anti
eri ja
Ġtoki us
j ame
ni us
Ġpap uoÅ¡
Ġk g
ã ģ
Ġv it
aug os
Ġdalyv iai
l Ä¯
Ġpat inka
ĠJ Å«s
3 5
ting as
II I
Ġorganiz acijos
Ġduomen imis
Ġnei gi
ĠÅ¾inias kl
in ÄĻs
ĠÄ¯mon ÄĹ
Ġman au
ĠÅ¡i ais
Ġr ep
y tus
Ġbr ang
ĠnebÅ« tÅ³
Ġdaug i
n uo
er Ä¯
Ġsav imi
Ġb aigi
yk liÅ³
ĠtÄĹv Å³
Ġti l
Ġ ep
Ġfo to
Ġ Äįi
Ġv on
te p
ant ai
Ġv yriaus
ov a
Ġpirm ininkas
Ġv eis
B Å«
tys e
av ÄĹ
Ġger Äħ
ĠV ieÅ¡
Ġpriemon es
Ġd el
Ġag ent
J Å³
Ġlig os
Ġspeci ali
Ġem o
ol ÄĹ
Ġger os
ĠPal aidinÄĹs
uni k
Ġki auÅ¡
Ġasmen ys
Ġvis uomet
ab ej
av imu
I T
aid a
kait ant
ĠÄ¯si pareig
Ġpapil d
or e
ri us
Ġr emi
oj imÅ³
ĠA us
amas is
Ġtarpus av
Ġti r
Ġmar Å¡
Ġs ienos
Ġpar amos
Ġes ate
Ġkiekvien o
em a
aud os
Ġrud en
Ġvar g
uo ÄįiÅ³
Ġpask ut
Ġsvetain ÄĹje
Ġk eisti
P a
S us
Ġr eiki
Ġspalv a
Ġkok Ä¯
tom s
Å¾i ais
Ġpasak ojo
Ġver ta
ĠiÅ¡g yven
Ġkalb ÄĹti
ĠÄ¯k v
o ok
Ġpasik ei
y Å¡
. ),
Ġmoksl Å³
ĠÅ¾vaigÅ¾ d
Ġint ensyv
Ġv el
Ġe ki
Ġpag eid
Ġpirm asis
Ġreikalav imus
Ġat as
ĠA lg
Ġprojek tÅ³
D r
Ġprie tais
vil g
anÄįi a
l am
Ġvyk dom
Ġkreip tis
y zd
Ġs tai
ĠÄ¯gyvend inti
ti r
Ġsav ÄĻs
ĠdaÅ¾ni au
ĠsÄħjung os
Ġd uk
is ti
uo kite
Ġatsir anda
ĠÄ¯ tar
ĠAmeri kos
eng v
Ġvalst ybiÅ³
as ak
Ġg il
E s
ang Äħ
ĠiÅ¡ man
Ġparti z
ĠtÄĹ vai
ĠK at
Ġsvarb iausia
Ġpa aug
Ġform a
ĠmedÅ¾i o
ĠlÄĹÅ¡ Å³
Ġfil m
Ġmedic inos
Ġpl a
eik ÄĹ
v yd
yb ei
Ġklub o
ar anki
Ġas muo
Ġ eiti
met Ä¯
Ġmir ties
Ġrankov ÄĹmis
Ġtink amai
y Å¾
Ġdr us
ei pi
Ġmokykl Å³
i Å¡ki
I K
Ġpatal p
Ġgimnaz ijos
Ġab s
ĠiÅ¡s k
Ġpoli tikos
Ġpak r
ik Äħ
Ġmod erni
Ġat Å¾
Ġpri v
ail a
ĠsuÅ¾ ino
Ġpri ÄĹm
avi Äįius
Ġkon tak
Ġ( "
men Ä¯
Ġdarbuotoj ai
Ġop tim
ĠS i
Ġl eg
Ġlengv iau
Åł ie
Ġnor int
iÅ¡k Å³
Ġkei Äįi
ĠvarÅ¾ yb
ĠraÅ¡ o
ik s
Ġch ar
ĠT eis
Ġbank o
ing u
Ġ[ âĢ¦]
K odÄĹl
Ġpam ink
Ġgal o
Ġinform ac
tum Äħ
Ġmon t
Ġatsirad o
Ġkons ul
ĠL T
ki t
ĠkaÅ¾ kas
am inti
av ÄĻ
Ġm ÄĹlyn
Ġat kreip
s e
Ġsut eikti
Ġ *
Ġprie d
Ġb ur
eri u
C h
oj u
Ġger o
Ġnam ai
Ġmoter ys
t Å«ra
V id
Ġb erni
Ġfesti v
E l
Ġinter jer
Ġnaudoj ant
Ġver tÄĹ
ori o
Ġli aud
Ġlig Å³
Ġgyd ymo
Ġk yla
ĠiÅ¡ kil
ys is
yd avo
ĠtaÅ¡k Å³
ĠB ar
s to
Ġt uÅ¡
Ġsk an
ta Å¾
Å¡k Å³
Ġ ÄĹmÄĹ
ĠiÅ¡s is
aks im
Ġkompiu ter
Ġpus ÄĹje
Ġvys kup
Ġrank Å³
Ġd iev
ĠM ed
at or
ĠÄ¯g Å«
Ġ aus
Ġfesti val
et er
Ġof ici
Ġdalyk as
Ġpar ap
Ġdaug iausia
Ġvien i
Ġ and
ti c
Ġ19 6
arb a
Ġper t
Ġki Å¡
Ġmokykl Äħ
Ġm it
Ġporeiki us
ĠÅ¾mog Å³
Ġrei Å¡k
Ġsi gn
n t
ov os
Ġnak tÄ¯
dÅ¾i a
Ġbend ra
Ġkr em
aun a
Ġveid o
ĠI r
Ġp ur
Ġsv arst
ĠIn d
ĠPanev ÄĹÅ¾io
Ġnegal ima
ĠÅ¡vent ÄĹs
Ġn agr
Ġpavad uotoj
c ik
im p
p ek
Ġ19 5
Ġj ais
Pas k
en ta
Ġ3 5
Ġne to
inti es
eri a
ĠiÅ¡ tek
Ġkl ini
Ġnuo rod
Ġpirm iausia
ĠaukÅ¡ t
T am
Ġkuri ais
Ġin Å¾in
19 8
ei Å¡kia
tÅ³ jÅ³
pr o
Ġtek st
Kaun o
pr ÄĻsti
Ġl auki
Ġtikr Å³jÅ³
p u
Ġd ÄĹk
Ġstraip snio
Ġvyr Å³
ĠAn t
Ġs tar
id ab
Ġdv asi
j au
Ġdalyv iÅ³
Ġklien tÅ³
ĠuÅ¾ raÅ¡
l og
yb ÄĹmis
ok ur
Ġang lÅ³
Ġmo teri
Ġsk ys
ĠlÄĹk tuv
Ġmin im
tin ti
Ġneat s
Ġproblem as
ĠsÄħ n
Ġb aim
Ġvokie ÄįiÅ³
Ġ201 0
an tu
Ġregi on
J Å«s
Ġteis mo
Ġrus Å³
Ġpav yzdÅ¾i
yd Ä¯
am osios
Ġvis oje
Ġp ÄĹd
Ġgalim ybiÅ³
Ġpov eiki
Å«r imo
S avo
l es
ĠV er
Ġpar eng
Ġpui kus
Ġ201 1
Ġh tt
Ġp ig
ĠiÅ¡v engti
201 7
on os
N iek
avi vald
Ġnustat yta
Åł tai
Ġsk aid
ĠÅ¡ lap
Ġeis mo
Ä¯ sta
ĠâĢ ĺ
ĠaukÅ¡ tos
inink us
Ġlaik raÅ¡
Ġl ak
Ġnet ek
anÄįi ai
id as
Ġsm ul
ÄĹ tumÄĹte
Ġpri tar
Ġrink oje
b e
ÄĹl ap
ĠÄ¯ manoma
as ti
ĠÄ¯staig Å³
ĠB aÅ¾ny
eg al
ĠT ur
auj ant
Ġp ens
ais ant
m ui
ĠÅ¡iaur ÄĹs
Ġknyg Äħ
Äħ Å¾in
ÄĹ gi
Ġpav yzd
ed er
Ġlink sm
Ġm is
Ġpask ui
Ġlaik Å³
no t
ai ÄįiÅ³
ÄĹj ui
u liÅ³
Ġvid uje
Ġsupr ant
Ġnuos av
Ġleng va
Ġtyr imo
evi Äįiaus
m ati
Å¡k o
Ġbuv au
Ġpri z
Ġspecialis tai
ĠLietuv ai
Ġnaudoj ami
Gal ima
ĠneÅ¡ i
Ġd ev
Ġsprend imus
Ġsav aranki
Ġsu Å¾in
Ġb Å«r
Ġk av
z ÄĹs
i ausiÅ³
Ġpam irÅ¡
Pr ojek
ki tÄĹs
G eri
ĠKal ÄĹd
ys ime
yn Å³
ai tÄĹs
ĠM ok
E D
Ġvien in
3 3
ĠÄ¯vertin ti
Ġdokum entÅ³
esni us
ĠreikÅ¡ m
en ÄĹ
ĠpasiÅ«l yti
al aik
Ġgatv ÄĹs
I X
ĠÅ¾ino ti
P ad
Ġkuri am
sni ai
ĠJ ÄĹz
Å½ em
Ġaktyv iai
ent ais
T au
9 9
Ġklaus imÄħ
Ġh er
n us
Ġ7 0
K eli
ĠK om
ĠG ed
Ġpri ver
Ġp ieno
ĠK or
S R
ĠpradÅ¾i os
y ni
Ġpirk ti
ÄĹ tume
Ġs am
ti fik
ĠM on
Ġsun kiai
Ġpas ek
g ti
ĠprieÅ¾as ÄįiÅ³
Ġd ol
i aus
ting ai
et ÄĹ
S ud
ĠiÅ¡g ir
ĠÅ¾ vilg
lik a
S en
Ġger b
ok as
Ġliter atÅ«ros
pr ieÅ¡
i ch
yk sta
ĠMar ijamp
Ġkontr oli
Ġre cep
Pr is
Ġvis ame
Ġp ublik
Ġsti liaus
Ġmiest Äħ
ra cija
0 7
Ġk iem
Ġsutar tÄ¯
Ġkalb Äħ
ĠpaieÅ¡k os
Ġreg ist
e in
Ġm ama
vie timo
ting a
yn e
Ġdek lar
Ġpran cÅ«z
ĠsÄħ mon
Ġpo Å¾iÅ«r
in tÄħ
en tu
ĠM at
ĠVakar Å³
atori aus
Ġap ar
Ġte ori
inti ems
Ġnel aim
ter n
eis ta
ĠÅ¡ven tÄĹ
Ġskl yp
am iesi
p ai
Ġkom entar
Ġkok ie
Ġti ems
ĠmÄĹn esio
Ġtiesiog iai
Ġes mÄĹs
Ġvie tov
Ġvand uo
ĠrÅ«p es
Ġgali u
4 5
Ġkiek is
Ġturi u
Ġpav ard
ĠdÄĹ ka
on ÄĹ
Ġp eri
Ġteritori joje
ie tis
acij ai
ĠR ytÅ³
Ġ3 1
Ġre al
Ġanks to
Ġdi pl
av ome
Ġkom pozi
ĠiÅ¡ ties
P rad
Ġmin tis
aus ko
P ir
ĠP il
en z
u c
Ġ ink
Ġpat yr
0 5
Ġteig imu
iÅ¡k o
ti l
Ġklas ik
ieri aus
Ġpriklaus om
ĠL e
Ġgar so
t es
g e
tr Å«k
en tÄĹ
om etr
ĠÄ¯st eig
ĠmÄĹnes iÅ³
ĠP ag
n ÄĹ
ej us
Ġg an
f in
ĠuÅ¾si ÄĹm
Ġ200 9
Ġsugr Ä¯Å¾
ĠÅ¾ais ti
Ġpapras ta
Ġl a
evi Äį
Ġpas ieki
Ġautomobil Ä¯
Ġok up
3 9
Ġvard u
tiÅ¡k as
Ġb ui
Å« Å¡
Ġvietos e
Ġkompl eks
Ġgar si
ĠÅ¡ tai
ĠB er
Ġgyven o
Ġkiekvien am
Ġsem inar
M A
Ġveiksm Å³
ÄĹj imÅ³
Ġsez ono
Ġug d
yb inÄĹs
V akar
Ġter m
ain iÅ³
Ġrezultat us
Ġats ilie
Ġb ul
Eur op
ame rik
Ġp enki
to no
jung ti
Ġpareig as
Ġek olog
in amos
v id
Ġd antÅ³
An tr
Ġsv eÄįi
ĠbaÅ¾ny Äįios
Ġat gal
Ġkons ult
ĠplÄĹ tros
Man au
Ġpasak oja
ĠK ur
Ġdalyv auja
d os
uoj antis
ĠG al
A not
q u
in imÅ³
ĠuÅ¾s id
apras tai
Kar tais
r ed
Ġb esi
pal aid
I J
ĠuÅ¾s is
3 8
ys tÄĻ
cij omis
Ġsm ulk
Ġreik ÄĹs
Ġparduotuv ÄĹje
ik as
Ġlaisv ÄĹs
n eÅ¡
tim us
yn Äħ
auk ÄĹ
3 7
ar k
Ġkons erv
Ġd ie
ing umÄħ
ĠpaÅ¡ to
ĠrÅ«Å¡ iÅ³
ĠsusipaÅ¾ inti
Ġm om
Ġkr ov
Ġj a
Ġtikr Äħ
Ġpad ÄĹ
ĠpaÅ¡ tu
T he
Ġnuo ma
Ġl eisti
y tu
Ġklaus imÅ³
Ġpan aik
tar us
ak teri
Ġil giau
Ġstruk tÅ«r
Ġnep asi
aus kaitÄĹ
Ġtr e
Ġsitu acija
vie tÄĹ
Ġsuk Å«rÄĹ
Ġrink imÅ³
Tuo met
ĠAl eks
Ġgr ÄĹs
Ġpriemon ÄĹ
ing umas
Ġbi ur
st yti
Ġm ini
Ġdizain o
k ÄĹ
Ġkai mas
Ġ200 8
Ġt end
! !
3 6
Ġpatir ties
ytoj o
ĠTr ump
Ġadministra c
ĠÄ¯r an
Ġor ien
Ġskai ÄįiÅ³
Ġproced Å«r
et os
Ġre form
D eja
Ġpaj amÅ³
Ġnaudoj imo
At si
Ġrezultat Å³
oj imÄħ
o cial
ĠP er
Å¡ al
Ġt ÄĻs
ĠÄ¯staig os
Ġkai me
ã ĥ
tik Å³
m is
aik o
t s
tr auki
Ġkiek Ä¯
ys tÄĹje
Ġnes i
ĠX X
Ġl ieka
ĠE UR
u lio
aÅ¾ as
a h
Vien a
Ġpas p
ĠdidÅ¾i ul
m ed
Be je
Ġrod ik
Ġk up
Ġnemok amai
ym e
ĠiÅ¡laik yti
ĠA f
e tikos
Ġatliek a
Ġministeri ja
Ġgar ant
Kiekvien as
Ġasmen ims
int elis
Ġpavad inimas
Ġsek m
tim is
ĠÅ¡i a
ĠsumaÅ¾ inti
yk s
et ÄĹs
yt aus
Lietuv oje
Ġkov os
ÄĻ si
ol as
Ġp uod
Ġp en
Ġp uol
Ġpap asak
Ġpasir Å«p
ĠD an
Ð »
Ġdain Å³
Ġsu form
K alb
uo to
ĠuÅ¾tikr ina
Ġati tinka
ĠaiÅ¡k u
al ap
ĠM il
t yti
Ġbuv ÄĻs
Ġsm eg
e Äįiai
in imai
Ġd aliÅ³
ri ai
Ġprasid eda
Ġj oje
Ġnuos tabi
Ġlietuv iai
Ġveik ti
ĠÅ¾em ÄĹlap
ÄĹs ti
rad o
O L
ĠprieÅ¾as tis
ĠÅ¡i as
Ġkvie Äįia
au tis
inink u
Ġr em
yg ard
Ġbiblio tek
Ġre ak
ĠiÅ¡ vaizd
o to
Ġnen ori
ÄĹd avo
t ur
Ġj uok
an ai
Ġ amerik
Ġpav yko
R e
Ġmok ytis
Ġkuo met
g ali
Ġp ul
Ġvis ais
ĠS en
ni k
Ġkat ali
ĠsÄħraÅ¡ Äħ
Ġkonf lik
ĠB r
im ÄĹs
n el
Ġdi ag
ĠÄ¯tak os
Ġm ig
Ġpabaig os
ĠgeleÅ¾ ink
Ġt eikia
Ġkoki Å³
Ġek s
Ġministr as
Ġod Äħ
v eg
ĠÅłiau rÄĹs
Ġst ri
Pas tar
av usi
Ġ3 6
ty ni
Ġsr au
Å«t ent
g yven
ĠJ onas
Ġr ami
Ġsen iai
Åł io
ik ai
ĠN acional
Ġtai gi
L i
ÄĹj u
ĠT ÄĹv
aik yti
m es
Ġrezultat ai
Ġspor tinink
Ġpaskelb ÄĹ
ÄĹl ÄĻ
tr Å³
al on
Ġvaik ui
Ġadministra cijos
Ġneto li
ĠsuÅ¾ino ti
t iniu
Ġ4 5
oki a
y ÄįiÅ³
m m
201 6
Ġkar ali
Ġpran aÅ¡
Ġsus tipr
li uose
sti jos
Ġnus teb
Ġnem at
Ġpo Å¾iÅ«ri
Ġkoki Äħ
Ġmet rÅ³
Ġapskri ties
sl o
Ġp om
Ġnes us
Ã ©
Ġats arg
Ġvis ur
Ġprek es
ĠT arp
Ġ5 00
Ġned aug
N er
ĠS v
Ġtrup utÄ¯
ur ti
kiri a
iÅ¡k u
tadien io
G yven
ÄĹjus iÅ³
Ġt ams
Åł il
Ġaug a
ĠÅ¡vies os
ĠkrikÅ¡Äįi on
Ġi z
ĠA ukÅ¡
Ġnuo d
Ġlaim ÄĹjo
Ġsprend imo
Ġg ir
Äįi oje
Ġatlik o
Ġsocial inÄĹs
ult Å«ros
Ġklaus imais
Ġvyr ai
Ġv a
Ġtechnolog ijos
Ġau torius
ĠÄ¯r angos
ĠieÅ¡k o
um is
uo liai
l ov
Ġgim ÄĹ
Ġatei tyje
Ġnel abai
Ġsusis iek
ĠsÄħlyg os
19 7
Ġvid u
Ġmies tÅ³
Ġbal t
At s
trauk ÄĹ
Ġatsi tik
kil noj
ÄĹk mÄĹs
Ġproces as
Ġklub as
us is
Ġpab rÄĹÅ¾
B Å«tent
Ġmuzik a
acij oje
Ġaud i
Ġg elb
al Å«s
ĠbÅ«d avo
ĠL ond
ik Å³
Ġkomis ijos
Ġnes eniai
Ġsud er
Ġpatir tÄ¯
ĠK omis
toj i
Ġgeri ausia
A m
h er
c es
Ġasoci acijos
Ġc ik
tuv ai
ĠmÄĹnesi us
Ġsri ties
Ġef ek
Ġdid elÄ¯
j or
ĠVyriaus ybÄĹs
sk is
Ġv i
Ġap ygard
ac k
Ġsk ulp
ĠKon stitu
Ġ9 0
Ġsal d
Ġdid elÄĹs
Ġpan audoj
k ad
Ġvakar Äħ
rav imas
Ġgro Å¾io
Ġspr ÄĻsti
Ġod a
ĠÅłv en
Ġpal aid
an e
Ġdefek tÅ³
Ġmar Å¡k
Ġai Å¡kiai
Ġpr okur
Ġtelef onu
Ġ on
Ġb ran
Åł iau
Ġb ri
ni ausiai
Ġbaig ÄĹ
uoj am
Ġdu jÅ³
Ġapskri tai
te bi
Ġs eri
Ġpavel do
Ġlais val
Ġsvetain ÄĹs
Ġlaikotar piu
Ġsprend imÅ³
Ġp ol
ĠÅ¡al Ä¯
Åł v
Ġmok ÄĹti
au lius
bi li
5 5
Ġt ep
Ġgr and
Ġap klaus
Ġgeri ausiai
ag u
Ġs erg
ĠD Å¾
A uto
Ġnuomon e
Ġaug alÅ³
ĠÄ¯si vaizd
Ġjoki os
Ġatas kai
Ġkunig aikÅ¡
Ġsu Å¡
Ġjoki o
Ġb ais
Ġvyk st
Ġnauj i
Ġv am
Ġf ond
Ġgar anti
uv os
I V
ĠA s
ÄĹj imus
es u
Ġgyv Å«nÅ³
ĠsÄħlyg omis
im en
Ġatliek Å³
Ġi t
c ar
engi a
Ġb ase
Ap s
usiÅ³ jÅ³
b al
Ġl av
ĠO r
in antis
ĠT V
Ġpagrind inis
Ġsitu acijÄħ
Ġnori u
Ġsta tis
K al
ĠPr ezid
Ġgra Å¾iai
Ġsub jek
Ġdail ÄĹs
Ġreik ÄĹjo
et u
tim ai
Ġsteb uk
3 4
1 00
Ġdokum entus
Ġantr Äħ
Ġkok ybÄĻ
et us
eik Å¡
Ġskiri asi
Ġ ur
ÄĹj osi
0 9
Ġlaik yti
Å½ al
Ġlenk Å³
Ġgeri ausias
Ġ3 00
Ġpab ÄĹg
auk ti
or tas
Ġkomp ens
P ap
Ġne abej
V M
Ġpatir tis
yb iniÅ³
ĠÅłv ed
Ġm aksim
Ġbl ok
Sv arb
O M
Ġtur bÅ«t
ĠE d
Å¾i au
Ġsal ÄĹje
Ġst eng
Ġt ra
Ġpri r
n ies
Ġnug alÄĹ
Ġdid elio
Ġnusprend ÄĹ
ĠI sp
v iÅ³
Ġsez onÄħ
ÄĹ tina
Ġeil ÄĹs
Ġgatv ÄĹje
ab l
Ġn aÅ¡
Ġdal ys
is tai
ĠpaÅ¾ Ä¯st
Ġvyk dyti
ov ai
Ġdur Å³
tas is
ĠmiÅ¡k o
Ġs erv
ien a
ij au
Ġket ur
ov e
ĠÅ¡ yps
Ġv ag
Ġnauj us
tel k
Ġgyv Å«n
ÄĹj imu
Ġnepam irÅ¡
Ġrank as
il g
Ġvien am
Toki u
Å¡k us
Ġekonom ikos
Ġreikal ingas
Ġteleviz ijos
T re
alb Å«t
Ġveik s
Ġpad ÄĹjo
uod u
Ġman ÄĻs
l an
Ġsutar tis
Ġdv iem
Ġproblem os
oj us
ĠÅ¡ oki
Ġin ov
y ra
ev oliu
Ġpersp ektyv
P S
Ġ200 7
Ġpareig Å«nai
Ġto li
Ġvalst ybÄĹ
ĠatÅ¾ vil
ĠaÅ¡ tuo
tern atyv
rad ien
Ġk ÄĹl
T oks
in ÄĹjo
3 1
i asi
Ġver tÄĹs
Ġsanty kius
Ġvaland Å³
Ġpral aim
tik ai
Ġprem jer
Ġdvi gub
Ġt ave
D arb
D ydis
ĠAng li
S usi
t ÄĹj
S t
Ġkeli a
Ġplo tis
Ġd emon
Ġ amb
y to
Ġp ÄĹs
Ġl o
Ġproduk tus
Ġ eg
Ġsut vark
Ġpap l
ĠÅ¡i aip
ĠÅ¾aid imÅ³
ĠneÄ¯ manoma
v yk
Ġaplink Äħ
Ġvanden Ä¯
n u
Ġati tik
t ÄĻs
ĠpaÄįi Äħ
id r
" )
ĠTau ragÄĹs
ov ÄĻ
vi u
T eis
ĠÅ¡im t
Ġpagrind iniÅ³
as ad
Ġpar lamen
eik al
m iÅ³
Ġpo bÅ«
ie p
Ġgal u
ĠiÅ¡k art
Ġdirek toriaus
ĠM an
Ġprojek t
Ġdur is
Ġkoki o
t v
ri Å¡
Ġp aim
Ġtap s
Ki ta
Ġe ina
ĠÅ¾mon ÄĹmis
Ġkar al
Ġregi ono
ĠÄ¯vairi us
ai Äįio
Ġprezid entas
el g
ĠK i
Ð º
Ġtik ra
Ġnes k
Ġsus il
Ġpask at
E K
0 6
v arbu
y li
Ġpar ink
Ġt eikti
am ino
ĠLatv ijos
Ġgeri ausiÅ³
y siu
Ġ avi
P irk
Ġpagalb Äħ
k et
ĠKr is
Ġdepartamen to
Ġnes ug
li g
ĠpasiÅ¾ym i
U AB
uo kl
Ġprek yba
Ġapib Å«d
Ġsus tab
Ġklas iÅ³
V asar
Ġsukn elÄĹ
Ġparod a
uk ais
tel ÄĻ
ĠÄ¯kv ÄĹp
ÄĹ tos
ĠB e
is o
Ġsuk elia
uri o
tel ek
Ġas pek
19 6
on g
T I
Ġp ien
ĠM ind
Ġgal e
sp ek
Ġsudar ÄĹ
Ġkontr olÄĹs
Ġvien od
ĠR om
Ġlenk tyn
uk s
Ġform Äħ
ac eb
Ġup ÄĹs
Ġf irm
Ġlig a
om in
Ġsanty kiÅ³
Ġper nai
0 4
z ÄĹ
Ġpus ÄĹ
h t
Ġtechni kos
il d
ÄįiÅ« tÄĹ
Ġrez erv
Ġsavai tÄĹs
ĠvaldÅ¾i a
R A
Ġdaug elio
ĠD aug
Ġkom unik
Ġspecialis tÅ³
Ġpadar ÄĹ
ĠÅ¾aid imas
Ġt es
Ġproduk tai
in ÄĹja
uk u
Ġakim ir
Ġp usi
ĠÅ¡v el
p Å¡
Ġsukur tas
Åłi ame
Ġgalv Äħ
Ġkomp eten
v as
Ġreikal inga
Ġsistem Å³
ĠVytau to
om b
s amb
ĠÄ¯s kaitant
Ġstov ykl
ak tar
O r
Ġgaun a
f as
ton as
Ġh i
Ġbendr ovÄĹ
Ġtechni ka
ĠatÅ¾vil giu
Kl aipÄĹd
Ġpaskol os
0 3
Ġv ok
ĠR am
Ġprim ena
uri d
Ġatr ank
o og
Ġp uos
Ġkv ÄĹp
T uri
Ġnen us
Ġpasiek ÄĹ
em un
Ġprog noz
Ġpastat o
Ġkelion ÄĻ
Ġpristat ÄĹ
Ġpas im
S av
Ġkos ti
Ġdek or
uod ama
Vis kas
ĠdidÅ¾i ausias
sni u
Ġautomobil is
Ġkil mÄĹs
R eng
Ġkomp anijos
T en
Ġparod ÄĹ
Ġteritori jos
Ġvien oje
Ġteis es
Sv eik
ĠR e
Ġtyr imai
ini ui
Äįi uose
Ġa kiÅ³
Ġplas tik
Ġkitos e
g l
ĠP irm
k oje
Ġkap it
Ġsutar ties
or tu
ar aÅ¡
Ġskat ina
lo at
K et
201 5
Ġnen or
esn es
Ġdis k
Ġkambar io
Ġ ed
Ġtais ykliÅ³
ĠMas kv
Ġ3 8
ri a
Ġnaudoj ama
Ġpo ten
Ġkonkur so
Ġsk yr
ĠuÅ¾d eg
Ġstri uk
or din
ak tyv
ĠÅ¾aid imo
Ġvanden iu
0 8
ĠK an
Ġdaug ybÄĻ
ĠiÅ¡k ov
ĠÄ¯vairi as
Ġner etai
Ġpav er
Pr an
in au
Ġj ungi
Ġpram onÄĹs
Ġs ÄĹkl
aud o
Ġpop ie
ĠA z
Ġmuziej us
ĠÅ¾od Å¾iÅ³
te to
Ġgen er
Ġvarto tojÅ³
Ġg ul
Ġties a
ĠÅ¾yd Å³
Ġpalik ti
Ġsvarb iausi
Ġpasi p
tiÅ¡k a
ĠÅ½em ÄĹs
ĠE n
Ġnep aÅ¾
on ui
en cija
d eÅ¡imt
Ä Ħ
Ġp ili
ov imo
Ġskait yti
au kite
ie l
Ġtoki as
a x
Ġkal end
Ġbendr Äħ
Ġsri tis
Ġstik l
S m
Ġatsp ind
eiv iai
ĠÄ¯tak Äħ
fik s
J Å«sÅ³
Ġvaland Äħ
ĠiÅ¡ im
ek omend
Ġalko ho
Ġgr oÅ¾
Ġte b
ĠÅ¾in omas
or Å³
ent ÄĹs
ar io
Ġbuv usi
L ab
Ġnereik al
Val st
Ġdet al
Ġmoter ims
Ġli Å«d
Ġvar das
ĠpraneÅ¡ ÄĹ
Ġartim iausi
Ġtap at
In ter
v os
men is
Ġatsilie p
Ġdraug Å³
Ġfinans Å³
Ġvadov ÄĹ
ĠuÅ¾ im
Ġnetr ukus
Ġliaud ies
ĠN ep
ĠÅ¾v ej
ang l
t ei
Ġneb e
ei vi
Ġteis ÄĹ
Ġpasaul is
G albÅ«t
Ġm yg
str um
ar e
Ġkr uo
Ġ200 0
Ġleg end
in imus
ĠV ai
Ġauto mati
Ġtyr imas
Åł iÅ³
Ġr Å«k
yn iÅ³
pl ink
ausk ienÄĹ
Ġpalyg inti
I D
Ġn ub
S D
sni us
an Äħ
ĠuÅ¾sien yje
Ġgr Å«d
â Ĥ¬
Ġministr o
ĠmarÅ¡ ru
Ġr espublik
Ġr and
ar ÄĹ
Ġap Å¾
Ġp u
E k
Ġpor Äħ
Ġti pas
Ġdid eliÅ³
Ġkat ed
Ġstat us
L T
Ġnep ad
ĠuÅ¾d uotis
Ġsudar yti
Ġpirm oji
ĠiÅ¡s irink
ant Äħ
ĠuÅ¾ p
ĠÄ¯ trauk
ĠT ra
te ch
Ġdraug e
Ġsur eng
Ġk u
Ġsteb ÄĹti
ĠP at
Ġser tifik
ĠP ard
li av
ĠuÅ¾ ÄĹmÄĹ
Ġ )
Å¾in s
Ġmet al
Ġpar aiÅ¡k
Ġgr yn
Ġtemper atÅ«r
Ġsaug os
Ġ( )
Ġb aud
ĠS m
Ġ &
Ġst ad
Å¾ o
Ġpap raÅ¡
Vis a
Ġrink tinÄĹs
ĠpaÅ¾ ad
Ġauk s
Ġtemper atÅ«ra
ĠD r
Ġsun aik
ĠbÅ« tin
ĠtrÅ«k sta
R ug
Pas ir
Ġal ternatyv
oog le
Ġk avos
aik Å³
ĠsÄħlyg Å³
Ġpasi taik
Ġver tus
Ġkariuomen ÄĹs
Ġsusij ÄĻ
ĠU r
Ġab u
Ġvil k
Ġnusi pirk
ĠTar ybos
Ġd ydÄ¯
Ġvis ko
dom as
Ġpirm ÄħjÄ¯
Ġremon tas
Ġkri teri
Ġstipri ai
Ġmerg ina
Ġre ag
av osi
Ġh um
ĠJ apon
Ġim a
Ġv eter
Ġes i
Ġnet ink
Ġpat ais
yd ama
Ġvaland as
al Ä¯
Ġkeli u
ĠbÅ«d Å³
amas i
aj am
ĠÅ¾mon a
Ġs ank
ĠPrancÅ«z ijos
aj ai
ĠAl ytaus
dÅ¾i u
Ġsocial iniÅ³
S e
R eikia
n Ä¯
Ġs ap
Ġnaudoj a
tu kÄħ
ĠkiÅ¡ en
ĠpasiÅ«l ymus
id o
ĠKaun as
ĠVytau tas
Ġreikal auja
Ġlyg os
ang as
Ġ ðŁ
Ġaki vaizd
Ġorganiz acijÅ³
Ġtvark ymo
IÅ¡ s
aceb ook
Ġs e
ĠKlaipÄĹd oje
Ġkompan ija
Ġpra ÄĹjusi
V yr
Äįi as
Ġnauj ai
Ġmet ams
9 0
L aik
S uk
Ġn os
: )
Ġkredi to
ĠÅ¾iem os
Ġdr audÅ¾i
Y paÄį
ĠmiÅ¡k Å³
N us
Ġry Å¡ki
g ir
K L
Ġuniversit ete
Ġdid esnis
Ġatstov as
k es
Ġet n
19 5
Ġan samb
J aun
Ġskir tos
ar ch
tem p
Ġstr es
Ġsv orio
i uose
in usi
Ġt rak
l ys
Ġin strum
Ġd ed
Ġrek on
vai zdÅ¾i
Ġki tomis
Ġpag aliau
Ġmuziej aus
ite to
3 2
Ġatrod ÄĹ
i am
anÄįi am
Ġbald Å³
Ġpam inÄĹti
ĠKar al
Ġgrup iÅ³
Ġreng iniÅ³
Äįi ami
D Å¾i
Ġtiks liai
ĠP ro
ĠI z
ĠâĢ ¦
Ġn aik
Ġiz oli
Ġsant yk
Ġatn eÅ¡
ĠGed im
ĠiÅ¡si aiÅ¡k
Ġsk on
Ġrad ijo
km erg
Ġar m
tin ei
B end
ĠmÄĹg sta
Ġpor tal
Ġparod yti
ĠneÅ¡ io
Ġmoter s
Ġil gio
A s
Ġv nt
ĠP ietÅ³
ĠraÅ¡ yti
Ġskait men
t iniais
Ġ '
âĢ Ķ
Ġin telek
ĠiÅ¡sk yrus
Ġsiek ti
Ġkom un
oj ama
Ġk au
el l
ub il
Ġli p
B A
au tÅ³
ĠTarp tau
Ġpasi baig
Ġturi zmo
t avo
Ġdaug ybÄĹ
ri d
Ġr aid
Ġgali ausiai
Ġapylink ÄĹs
e ci
h al
Pr ek
Ġrungtyn es
Ġeil ÄĹ
ori t
ĠBal tarus
Ġnus il
Ġpad ed
mos fer
ar n
or os
Ġpastat Å³
DaÅ¾ niausiai
Ġnesu pr
ar ai
av imus
iesi og
ĠP irk
Ġdalyk us
0 2
Ġdid elÄĻ
Ġ3 4
ĠÄ¯sp Å«
ĠbaÅ¾ny Äįia
) :
Ġf ig
Ġtink lo
Ġvadin amas
Ġmechan iz
Ġb ud
ĠbiudÅ¾ eto
Å«n a
Ġperi od
Ġes Äħ
p vz
Ġkil o
k aip
Ġrieb alÅ³
Ġprogr amÅ³
ĠS u
Ġgrup ÄĹje
ĠÅ¾od Å¾ius
Ġpl aÄįiau
ĠdÄĹs t
ĠraÅ¡ ÄĹ
ti e
Ġgen eral
oj ame
Ġdr Äħ
at ÄĹs
Ġe tik
Ġsm ar
Ġnar Å¡
A D
Âł km
Ġobjek tÅ³
alv a
G B
ĠA ud
Ġsukur ta
ki os
Ġtr au
Ġpagrind inÄĹs
Pir mas
Ġtelef ono
Ġg ais
l av
Ġskyri us
Ġpoveik Ä¯
v es
Ġpos ÄĹd
ten os
Ġrezultat as
Ġnu Å¾ud
Ġmokytoj Å³
ak yti
Ġb liz
ĠP av
ĠnÄĹ Å¡
Ġm egz
Ġvien intelis
Ġspeci aliai
Ġkom iteto
Ġkain uoja
Ġpagrind inÄĹ
Ġko ordin
Ġpirm as
Ġpr ev
Ġat min
ÄĹj imai
Ġdur ys
gal Ä¯
or ti
ĠÅ¡v eln
Ġdid eli
inink ÄĹs
201 4
Ġat rasti
ĠpobÅ« dÅ¾io
ras truk
ĠS h
sn yje
y si
Ġap rib
Ġpoveiki o
Ġk ÄĹd
Ġ ais
Ġkar tos
eg a
Ġgam yba
Ġsm ur
Ġf iks
Ġpatik o
Ġpasak ÄĹ
Ġr ieÅ¡
N eb
Ġvard Äħ
v ys
Ġkalb Å³
Ġlaik rod
Ġl aÅ¡
en er
ĠJ an
Ġeur op
Ġat ÄĹjo
Ġ15 0
avivald ybÄĹs
Ġauk lÄĹ
P am
tinÄĹs e
Ġstud entÅ³
tek s
Ġkil ometr
and en
ĠJ ur
Ġarch yv
Ġvien uol
Ġsk aud
ist ams
Ġvalg yti
ĠtÅ«kst anÄįiÅ³
Ġkom it
Ġtr o
ij omis
Ġbendradarbi avimo
Ġsu man
Ġv ic
ĀĀĀĀĀĀĀĀ ĀĀĀĀĀĀĀĀ
pr ÄĻs
Ġsv eÄįiÅ³
av imÅ³
esni u
Ġlauk e
Ġinte gr
Ġdom in
Ġeksp loat
Ġs tor
B endr
Ġaplink a
Ġkiekvien a
Ġvertin imo
Ġinstitu cijÅ³
ĠÅ¾ av
k aus
Ġmokytoj a
Ġparduotuv ÄĹs
âĢľ )
7 5
Ġval s
201 3
Ġplat form
Ġm ad
Ġsveik atai
Ġvaik ais
ĠP ak
Ġpasin audoti
an os
V ad
Ġruden Ä¯
Ġsim b
Ġaplink oje
ĠÅ¾iem Äħ
st rak
Ġn ag
k ienÄĹ
R aÅ¡
I O
ĠiÅ¡band yti
Ġk aul
uoj anÄįiÅ³
ur s
ĠÅ¡i ukÅ¡
ĠS im
Ġpo ra
um b
Ġ ~
t aip
Ġnuotrauk os
Ġin spek
im ato
ĠÅ¾ini os
Ġs in
Ġne kilnoj
Ġadminis tr
Ġs idab
paÅ¾ ind
y Äįiau
Ġd aktar
Ġat mosfer
Ġsim bol
k on
ĠÅ¾od Å¾io
cij oms
Ġ $
Ġbibliote kos
Ġpad ÄĹk
Kar tu
Ġkult Å«ra
ol d
u tis
Ġkos me
Ġinf rastruk
Ġar g
Ġtr as
Ġties iai
ĠÅ¡ aukÅ¡
Ġkonkr eÄįi
Ġki tu
ĠiÅ¡sil av
Ġpavasar Ä¯
Ġak tÅ³
Ġfil mas
ent ams
Ġpo Å¾ym
anÄįi oms
Ġprak tiÅ¡kai
Ġper trauk
ĠV i
Ġaplank yti
ĠMarijamp olÄĹs
Ġalkoho lio
Ġnep al
ĠÅ¾ ad
Ġaug al
v ÄĹs
ĠM al
Ġkel etas
3 70
Ġdaug iausiai
Ġsuk elti
ĠL a
ĠVokieti joje
V ieÅ¡
uoj anti
ĠÅ¾od Å¾iai
Ġkit am
Ġsut aup
Ġnepri klaus
. :
Ġu n
ak as
ieri Å³
Ġkoki us
Ġpak ar
d r
Ġpar ko
ĠUkrain os
Ġat stat
Ġper Å¾iÅ«rÄĹti
Ġtau p
ĠDiev as
oj imus
Ġpristat yti
iÅ³ s
Ġid ÄĹja
Ä® si
Ġatei ties
ĠV l
Ġgamin tojÅ³
ĠR im
Ġstik lo
E M
or s
k op
inink ui
f f
ĠsÅ«n us
Ġsm a
ÄĹd a
Ġap at
Ġnor isi
tin ÄĹmis
Ġfil mo
Ġhtt p
b erg
Ġvid eo
ĠAleks and
P A
tr ai
eg ist
Ġpapl Å«d
Äħ sias
Ġpram on
Ġkal tin
I L
Ġeksp on
Ġvien ame
Ġm ados
Ġed uk
Ġlaik ui
at au
Ġliter atÅ«r
oj imai
Ġlab or
uk ti
ÄĹsi u
ar m
Ġkontr ol
I A
Ġprojek tus
Ġpri Å¾iÅ«r
Ġpatir timi
ÄĹd ama
Ġauk so
ĠÄ¯dom u
K nyg
ir dÅ¾iai
Ġkok ybÄĹ
Ġpras me
P aÅ¾
Ġpeln ÄĹ
v akar
nel yg
Ġb okÅ¡
avi Äįiaus
ĠP o
Ġilg a
Ġinf ek
Ġat eina
ĠpradÅ¾i a
Ġvald yti
ym ais
Ġsk alb
ĠÄ¯vairi os
Ġpris imin
ĠS al
Ġbend ras
ta cija
Ġfestiv alio
T el
Ġtikri ausiai
ĠeÅ¾er o
ĠbÅ« tinai
Ġpor eik
Ġsti l
4 4
Ġegz amin
Å½ mog
tuv o
ĠP etr
Å¡k umo
d inti
emok ra
aug a
mo bi
Ġnug al
ytoj a
s ul
Ġalko h
Ġt y
Ġypat ingai
R us
ÄĹj ais
Ġankst yv
O K
Ġn a
Ġprogr amas
ins kas
K aina
ĠiÅ¡Å¡ Å«
Ġglob os
Ġkod as
Ġpoilsi o
am et
Ġl Å«k
T iesiog
Ġr at
ĠN er
Ġkom erc
Ġsum a
anÄįi ame
Vis os
In form
ĠÅ¡i am
aÅ¾ u
Ġne ati
ĠÅ¡il dymo
ĠS kaityti
Ġrekl amos
ĠF r
Ġvir us
eiki Å³
ĠI II
mok es
Ġsu paÅ¾ind
Ġreng inio
ĠÄ¯stat ymÅ³
Ġsak yti
idÅ¾i aug
er ti
Ġpapildom Å³
ti ja
ĠP R
Ġsieki ama
ĠÅ¾enkl as
il o
Ġats in
ĠÅ¡ au
ien io
olog ija
Ġter ap
Ġat rad
Ġnuos to
Ġsim p
ĠÄ¯reng ti
ĠrÅ« b
h i
Ġtink ami
Ġsup ra
Ġ3 7
Ġkain Å³
Ġal yv
S T
Ġfil mÅ³
us tel
te in
Ġpapildom ai
Ġr en
Ġsusid om
Ġd eb
Ġbald ai
Ġnuomon ÄĻ
Ġsu rasti
Ġpag aminti
ĠÅł al
ĠuÅ¾ g
Ġtvar kos
Ġdol eriÅ³
Ġt ÄĻsi
ĠV ik
ãĤ¢ãĤ¢ ãĤ¢ãĤ¢
Ġpatal pÅ³
au to
Nor ÄĹdami
Ġ200 6
ĠX V
ÄĻs tu
Ġb audÅ¾i
ĠÅ¡ okiÅ³
6 5
Ġkuri ai
Ġpuos el
Ġtikr Å³
Ġner v
em p
ĠkÅ«r ybos
K uo
Ġmed vil
Ġbu te
ti enÄĹ
Ġmeil ÄĹ
Ġpriemon ÄĹmis
Ġbendr auti
Ġplo tas
Ġin struk
tin Äħ
ini Å¡kai
Ġlaip sniÅ³
t vark
inink Äħ
e im
u te
Ġam Å¾in
Ġmod elis
is tat
Ġpa ki
DaÅ¾ nai
is tas
Ġval ymo
ori ai
Ġak s
Ġpaskir ties
Ġt ame
ÄĹl yje
Ġb aus
ĠdidÅ¾i ausiÅ³
Ġpasir eng
Ġgin Äį
Ġmais tas
ch em
ard as
M erg
Ġrekl am
Ġleid o
ĠbÅ«d Äħ
ter ap
ĠneÅ¡i oj
Ġpre ki
Ġnukr eip
Ġ uog
ting Äħ
Ġprezid ento
Europ os
ĠiÅ¡ var
K at
Ġd ata
Åł al
l in
Ġdipl om
ik o
Ġapg yvend
Ġstat yb
Ġim tis
eri ais
Ġgam inti
ri kos
Ġlaikotarp Ä¯
ĠiÅ¡ tik
Ġdal imi
al inis
Åłi Äħ
Ġdv id
ytoj ams
ĠÅ¡eim oje
L ap
Ġmais tÄħ
Ġmed ienos
Ġuniver s
au tas
Ġmo to
Ġmir ÄĹ
ĠvieÅ¡ b
6 8
uo li
Ġpirk imo
ĠlÅ«k es
Ġdalyk ai
Ġsvarbi ausiÅ³
Ġvald ybos
Ġnep ag
Ġerdv ÄĹje
Ġval sti
Ġb el
Ġj urid
t virtin
ĠÅ¾iÅ«r ÄĹti
Ġ3 2
Ġmag istr
ĠneÅ¾ ino
Ġvaid menÄ¯
ĠatsiÅ¾vel giant
Ġb urn
Ġapib rÄĹÅ¾
Ġreg uliar
p ir
Ġnegal ÄĹjo
Ġpasaul inio
E su
ĠTrump os
Ġpr ovin
Ġfon do
ĠD ar
Ġdarb e
ĠÅ¾aid imai
j am
al s
Ġteis mas
Ġj auk
Ġl au
ĠmaÅ¾ as
Å« Å¾
ĠÅ¡vent ÄĻ
Å«ri o
Ġsri tyse
o tÅ³
Ġilg Äħ
t enka
Ġc er
Ġtink amÄħ
ykl ÄĹs
Ġap ima
aul ÄĹs
Si Å«l
Ġpali ko
ĠG er
c a
ĠT ai
ausi te
ĠIn ter
Ġkon d
ĠdÅ¾i ug
ĠuÅ¾ fiks
Ġpagrind u
Ġveiksm us
Ġid ÄĹjÅ³
tr Äħ
ov Äħ
in tar
om p
Ġspeci aliz
Ġadres u
ĠK as
l er
ÄĹjus Ä¯
eid imo
z o
Ġreikalav imÅ³
A ukÅ¡
Ġes m
aik ÄĹ
Ġproces Äħ
Ġkit ur
Ġpir men
Ġtiksl Å³
Å¡ to
Gr ei
Ġrank a
Ġvarto ti
Ġgr ÄħÅ¾in
Ġpasi v
Ġat paÅ¾
F il
ar yti
ri klausom
A tr
N aud
a Äį
ĠÄ¯ pro
Ġpakr ant
Ġh a
Ġol imp
Ġatkreip ti
Å« m
Å½ monÄĹs
el ÄĹmis
av iÅ¡k
Ġlaik omas
Ġvyr o
Ġper nelyg
li j
Ġtaisykl es
in to
ĠpareiÅ¡k ÄĹ
ĠuÅ¾d av
Ġatsisak yti
ÄĹl es
Ġatv ejÅ³
ĠÄ¯vair Å«s
Ġsanty kiai
ĠiÅ¡d ÄĹs
ĠrÅ« mÅ³
Ġinstitu to
Ġspaud os
eik Å¡ti
Ġmet alo
ki jos
Ġpalaik yti
Ġvaik Äħ
9 5
yÅ¾i aus
ĠpaÅ¡al inti
Ġpas kai
ali as
Ġnaudoj amos
Ġvadov ai
ien Å³
Ġdaug elÄ¯
Ġmerg inos
Ġid ÄĹjos
E C
Ġnak v
yn ai
Ġgyven tojams
Ġkomis ija
orti men
in osi
Ġkomand Äħ
ĠC entr
Ġlaim ÄĹ
Ġk ank
Ġk ati
ori aus
Ġpers onal
ar mon
Ġatsak yti
tik as
Ġk uk
aikÅ¡ Äįi
tr al
ĠD on
Ġpirm ÄħjÄħ
Ġproces o
Ġkur o
AT O
Ġkelion iÅ³
Å¾ ini
Ġtinkl alap
Ġvadin ama
N audoj
b et
Ġatv yko
vi li
Ġsavivald ybiÅ³
T U
ĠÄ¯ l
Ġsien Å³
im naz
tu k
V ie
v aÅ¾i
Ġd es
anÄįi omis
Ġav ar
Ġmin utes
pi a
Ġsve Äįiai
Daug elis
A C
Ġpab and
Ġstat yti
am ais
Ġtarn yba
Ġpas au
ĠuÅ¾d irb
i Å¡kio
Ġnuotrauk as
Ġem ig
---- ----
Ġvais iÅ³
Ġar om
at ÄĹ
Ġpap li
Ġpral eisti
Ġsilp n
ĠÅł i
ĠpaplÅ«d im
k eviÄįius
inink ais
k ime
Ġs li
Ġgim imo
Ġk a
Ġ200 4
ĠpaÅ¾ as
ĠprieÅ¡ tar
ĠdÅ¾iaug sm
ĠaukÅ¡ Äįio
Ġarg um
Ġform ul
ie tiÅ¡k
ĠvarÅ¾yb ose
Ġapsaug oti
Ġkod eks
ag a
Ġ200 5
Ġag res
to liau
Ġant ra
Ġsavivald ybÄĹ
Ġtik ÄĹtis
un ka
Ġnor ÄĹtÅ³
Ġpriek Ä¯
gi a
in ter
Ġmerg ait
tuv ÄĹs
ĠuÅ¾ baig
Ġbendruomen ÄĹ
ĠsÄħ vok
Ġsulauk ÄĹ
Ġplan Äħ
ĠP u
ĠvarÅ¾ ybÅ³
Ġmat eri
ĠÅ¾ym iai
Ġpoli tika
? âĢľ
am etr
Ġmeil ÄĻ
ĠdeÅ¡imt me
Ġorganiz acija
Ġpo ez
Ġdvar o
oj Å«
Ġband o
Vis Å³
Ġgali a
Ġlang ai
it h
Ġsistem oje
ĠvirÅ¡ Å«n
Ġ Ã
ie tÄĹ
Ġgrei Äįiausiai
ik lis
ĠNor veg
ai ni
im ybÄĹ
Ġapsaug a
Ġstog o
Ġr u
Ġtri ukÅ¡
Ġtro Å¡k
ĠpaÄįi am
Ġskl and
ind ami
Ġabej o
ĠpanaÅ¡ iai
Ġgra f
yn ÄĻ
P il
ĠA B
Ġs ÄĹkmÄĹs
ĠÄ¯d ieg
Åłi oje
ĠÅ¾od is
Ġnuotrauk Å³
ĠiÅ¡l ieka
ti ems
Vilni us
al l
K vie
ĠA uto
Ġdaik tÅ³
Ġvartoj imo
Ġnor ÄĹjo
Ġgrei t
Ġh ig
Ġlaisv ÄĻ
ĠR o
4 8
Ġspind uli
Ġnepak ank
Ġvit amin
T O
Ġst eig
Ġpateiki ami
Ġpal engv
Ġsu tr
D alyv
Ġpinig ai
Ġau tori
od amas
Ġcukr aus
Ġsimp tom
Ġvyri ausi
Ġlyg Ä¯
p ad
Ġgeri ausiÄħ
radien Ä¯
Ġl Äħst
Ġp yk
Ġvaik u
Ġdid esnÄĹ
Ġeksper im
d u
mat avimai
T yr
Pan aÅ¡
Lietuv a
av er
ĠprieÅ¾i Å«ra
am oji
ÄįiÅ³ jÅ³
on t
Ġdarb ui
Ġvirtuv ÄĹs
M ies
ori z
Ġriz ikos
ĠaukÅ¡ to
Ġpask yr
6 7
Ġdain os
Ġ ÄĹm
Ġklien tams
am ieji
Ġpri gim
Ġskir tÄħ
i ur
Ġsu per
Ġsu pl
Ġre aliz
ies Äįio
ĠpaÅ¾ inti
Ġatsi palaid
ĠÄ¯k Å«r
Ġmokytoj ai
Ġry tÄħ
Ġnar ko
.... ....
gi rio
c er
Ġgali os
Ġr oÅ¾
Ġp ietÅ³
ing ais
Ġpadid inti
usi u
Ġpal yd
ÄĹ tum
ĠaukÅ¡ tis
Ġnumat yta
Ġsug alv
Ġseks ual
ĠA i
um e
Ġpan audoti
j ungi
Ġp ojÅ«
Ġnep er
Ġap k
Ġm ak
Ġkoki u
Ġrungtyn iÅ³
Ġm Å«Å¡
Ñ ĥ
adien io
lam ent
A u
Ġkol on
ĠpaÅ¡ nek
Ġviz i
ĠA ug
ÄĹ lius
Ġr uoÅ¾
Ġf ail
Ġpak vies
Ġtrans li
Ġvais tÅ³
Ġapygard os
Ġpristat ymo
r at
Ġas ortimen
Ġpriv at
ĠdidÅ¾i ausia
Åł iemet
Ġpirm ojo
Ġdaugi ab
ĠdÅ¾iaug s
ĠK ÄĹd
ĠsudÄĹting a
Ġp iet
ĠiÅ¡v ad
Ġj oms
Ġvadov o
Ġkv ep
S tr
inink ystÄĹs
Ġpil nai
p h
Ġkain as
Ġremon to
Ġm aki
Ġnaud inga
Ġpirm Å³jÅ³
d ymas
Ġpapras tas
Ġkeli ais
Ġpal Å«k
ov iz
ĠvieÅ¡ ai
ĠdÄĹm esys
Ġpla Äįiai
Ġsu var
K aÅ¾
ĠryÅ¡ io
Ġkr os
ĠkÅ«n Äħ
ĠÅ¾aid imÄħ
Ġatstov Å³
Ġlaik ytis
Ġsprend imai
ĠtÄĹv as
ĠgrÄ¯Å¾ ti
Ġk aup
ep ar
ard o
Ġkab in
ĠiÅ¡mok ti
Ġpl y
Ġp et
Ġpriklaus ÄĹ
ĠÄ¯s is
uol is
ĠB l
Ġpirm osios
** **
ÄĹj imui
ĠmÄĹs os
Ġ eig
Ġnor ime
Ġpak ab
Ġsto vi
Ġerdv ÄĹs
Ġsuk aup
N em
Ġkor pus
ist aus
ĠaukÅ¡ Äįiau
s tÅ³
eid ÄĹ
Ġpar em
Ġauto mat
Ġparod os
ting Å³
toj ui
Ġr etai
Ġreng inys
il as
pj aus
in anÄįiÅ³
ĠÄįempion ato
Ġdr Äħs
te liai
P oli
Ġnu Å¡
Å« ti
ov i
Ġnaud os
Ġsum aiÅ¡
ĠsiÅ«l ome
anÄįi oje
ĠÅ¡e imai
um uli
T A
ac inÄĹs
Äħ mon
ra b
eviÄį ienÄĹ
ĠE g
Ġvie toj
Ġav al
Ġinvesti cijÅ³
Ġde bi
l ine
ÄĹ tinai
ĠgraÅ¾ us
Ġprie Å¾iÅ«r
Ġenerg etikos
oj ant
ĠD i
Ġs an
Ġdrabu Å¾iÅ³
Ġketuri Å³
ri u
Ġl Å«p
ĠÅ¾em iau
ov er
Ġlygi ai
l op
S kir
Daug uma
Ġstengi asi
Ġchar ak
Ġl en
Ġger Å³
ĠR ob
Ġn af
ĠRus ija
Ġkonkurs e
d ino
ĠU ni
ol e
Ġsocial inio
an ija
ĠjÄĹg Å³
z mas
Ġpavyzd ys
ĠR as
b od
Ä® dom
ĠX IX
Ġistori joje
v yr
ĠS tr
Ġdraug ai
Ġenerg ija
Ġsos tinÄĹs
ain Å³
Ġnuo mos
r is
Ġform Å³
f il
Ġatostog Å³
ĠmaÅ¾i ausiai
ĠÄ¯v eikti
E B
Ġsk and
uotoj Å³
Ġgyven vie
ĠP ri
Ki tas
ĠiÅ¡saug oti
ĠU kmerg
on uose
r d
ĠiÅ¡ tr
Ġsud ÄĹti
usi am
Ġlin ijos
ĠÄ¯t am
Ġi lius
Ġilg alaik
ĠmaÅ¾ a
ĠKin ijos
ĠB as
A d
tori ja
d irb
Ġsuk Å«r
Ġvisuomen ei
Ġv aliu
Ġveid rod
ind amas
o zi
Å¡k is
Ġpi giau
Ġproc entÅ³
ĠK ÄĻstu
D U
Ġg ÄĹliÅ³
Ġgydytoj as
Ġpl ieno
Ġpersi k
Ġpers on
ĠÄ¯gyvend inimo
ĠiÅ¡ t
ä ¸
Ġatsakom ybÄĹs
ĠV el
auj ama
Nor int
Ġpos ÄĹ
Ġlais vai
Ġtur g
el ÄĹje
st Äħ
ĠK ultÅ«ros
d Äħ
Ġtyr imÄħ
ĠÄ¯ tik
Ġat kur
T Äħ
ĠG ar
Ġti ki
ÄĹs ime
Ġadminis t
Ġ ali
ĠEl ektr
201 2
Ġd ub
ori u
Ġkel yje
Ġmok ÄĹjimo
Ġd emokr
e at
ĠpripaÅ¾ inti
Ġlem ia
o lio
ĠjÄĹg os
Ġpa kil
ĠJ uod
uo tÄĹ
Ġfunk cija
Ġkai r
] .
Ġmokes Äįio
Ġsavait es
esni am
Ġplauk us
Ġt eÅ¡
s as
Ġperd irb
Ġteis ingai
ro b
Ġniek ur
Ġn ut
Ġv iÅ¡
ĠLietuv iÅ³
ar Äħ
Ġatk Å«rimo
raÅ¡ tis
b ur
Ġs tul
ĠÅ¡i ai
Ġtari ant
201 1
Ġ5 5
al inÄĹs
Ġci tr
Ġarchitek tÅ«ros
ĠÄ¯ traukti
Ġelg tis
Ġeks kurs
Ġnetur ÄĹtÅ³
t eik
Ġb er
Ġsu kil
ali ais
Ġai Å¡ki
Ġnes ud
ĠÄ¯t virtin
ins ime
Ġdokum en
Ilg is
Ġat ak
p av
Ġsavivald ybÄĹje
ki ais
Sv arbu
Ġpro pag
Ġli ber
ĠÅ¡al tinis
Ġkelion ÄĹ
tim u
Ġprie sk
ĠÅ¾ ud
Ġsk und
ĠjauÄįi asi
ij imo
Ġrank os
S ak
Ġrenk asi
Ġnesug eb
ek si
Ġpard uoti
uo tus
ĠvarÅ¾ ybos
Ġinstitu cijos
lik os
Ġplan o
s tu
Ġfunk cijas
ai zd
ĠU tenos
Ġsusij usi
Ġatskir ai
Ġknyg as
Ġstud ijas
teri o
ĠiÅ¡ tir
Ġmet as
ek o
ĠP VM
K o
Ġaug in
uk Å¡Äįi
Ġprof il
Ġt uoj
ykl oje
ĠÅ¡al dy
Ġmok ymosi
ĠÄ¯vy kiÅ³
Ġb akteri
ĠP a
T as
l ÄĹp
9 8
ĠM ik
Ġvidur yje
ĠiÅ¡laid Å³
Ġkruo pÅ¡
ĠA Å¡
ĠValst ybÄĹs
Vis gi
yb ar
Ġjau ni
Ġso ci
Ġst al
Ġlyg is
Ġs erijos
om ÄĹs
E O
ĠkaÅ¾ kur
Ġatsp alv
Ġr aud
ausi ais
i Å«r
Ġem oc
t uotas
an is
Ġd oz
Ġtar yba
Ġpar ametr
Ġpatvirtin o
tin Å³
Ġ ev
Ġaliej us
Ġd emokra
ĠA b
ÄĹ tÄħ
Ġt oje
Ġtur intis
ĠpadÄĹ tÄ¯
ĠprancÅ«z Å³
t aus
Ġkompiuteri o
Ġkomp on
uoj antys
Ġpard avimo
Ġnuk ent
te d
ĠryÅ¡ iÅ³
ĠItal ijos
Ġbran gi
Ġci vi
Ġgrind Å³
Ġrank omis
Ġrekomend uojama
Ġpr os
Ġorganiz mo
ĠKr et
Ġr et
Ġtink amas
Ġpatek o
Ġmil Å¾ini
ĠS tat
ĠIz ra
Ġpenk tadienÄ¯
ĠÄ¯ m
Ġsiek ÄĹ
Ġ4 00
Ġkonc ent
ĠpavirÅ¡ iaus
Ġpast angÅ³
Ġsmar kiai
Ġtarpusav yje
Äĸ S
Ġl op
ĠÅ¾od Å¾iais
Ġrau menÅ³
ĠaikÅ¡ tel
Ġ6 5
Ġpuslap yje
ĠvaÅ¾i uoti
tos e
ĠdidÅ¾i ausiÄħ
Ġri t
Ġskyri uje
KlaipÄĹd os
Ġ7 5
ĠiÅ¡l eido
ĠkaÅ¾k oki
B r
aug as
Ġiniciatyv a
Ġrib Å³
Ġm ug
Ġb ag
d emokr
Ġregi one
Ġpl ak
Ġpil n
Ġdien ai
e u
cij ose
Ġbaig ÄĹsi
To liau
Ġdraug ijos
Ġpal anki
Ġv aÅ¾
Ġpad ovan
ĠapÅ¡ vie
Ġtur inÄ¯
Ġ3 3
Ġ200 3
ĠLR T
Ġs ij
Ġvaland os
eis tÅ³
r aus
ÄĹm ÄĹs
A iÅ¡ku
Ġab iejÅ³
ĠiÅ¡ aug
Ġkarjer os
Ġmo bili
Pirm iausia
ĠuÅ¾ ima
ĠiÅ¡kov ojo
tuv Äħ
g en
Ġversl Äħ
v iz
Ð° Ð
I s
Ġcentr Äħ
Ġtur intys
Ġgink l
ĠmarÅ¡k inÄĹ
Ġpat eikia
Ġak men
inar ijos
av Å³
Ġbuv ÄĻ
P ab
ĠmedÅ¾i ok
ĠÅ¡ok ol
Ġry to
vyd as
w s
ĠÄįempion ate
Ġkom bin
L ie
ĠKr istaus
Pro f
Ġaps kaiÄįi
Ġnor as
p or
tinink Å³
P op
auj ame
B uv
Ġn amas
Ġsav ybiÅ³
I R
Ġkeli au
Ġkon tra
g as
Ġpareig Å«n
Ġtvar kÄħ
Ġkov oti
. "
ĠÅ¾em ÄĻ
Å¡ o
V okie
z as
ijos e
ĠkÅ«r iniÅ³
Ġneat si
Ġpasi prieÅ¡
8 8
Ġry Å¾
Ġelg esio
ĠbÅ«d ais
Ġkeli auti
D irb
Ġstab il
s id
Ġsp ustel
ĠÅ¾ ol
ir urg
Mok sl
Ġ100 0
v y
Ġdraug ais
Ġpar kas
ĠprieÅ¾as ties
Ġkalb ama
Ġker am
ĠJ ono
Ġpritaik yti
T R
Ġak cijos
om en
ei car
N eg
Ġtemper atÅ«ros
J ums
Ġvakar e
Ġpir mo
ob ul
j i
Ġd uoti
Ġsekm adienÄ¯
Ġpil ieÄįiÅ³
ĠDidÅ¾i osios
Ġs oli
ĠPas aulio
T inka
Ġpr aras
Ġt h
Ġpasirod o
A ug
tÄħ jÄ¯
anÄįiÅ³ jÅ³
Ġpa Å¾iÅ«r
Ġpar amÄħ
Ġskiri a
ĠÅ¡eÅ¡ tadienÄ¯
Ġci vil
ĠD arbo
Ġj uoda
N u
im ie
Ġsveik ata
ĠÄ¯r angÄħ
Ġpateik ÄĹ
Ġg aud
ĠkÅ«d i
Ġvaizd as
Ġnepav yko
Ġpati ems
Ġpatvirtin imo
Ġtarpusav io
Ġnuo ty
Ġor kes
Ġpak l
Åłi ais
Ġ ÄħÅ¾
== ==
Ġdarb dav
Toki a
Ġblog ai
p raÅ¡
ĠuÅ¾ mokes
Ġsuvok ti
in Äįi
Ļ Ĥ
rus k
ĠtaÅ¡k us
Ġ3 9
Ġknyg oje
esni ais
Ġkat alog
ut ÄĹmis
Ġpad ÄĹtis
J AV
Ġgal va
Äħ ja
Ġt enk
Ġd ai
as tr
ĠÄ¯ mok
Ġpramog Å³
ĠsudÄĹ tyje
Ġsimb oli
Ġnurod yti
Ġp e
yg os
Ġad vok
I C
ĠpoÅ¾iÅ«r is
ĠB et
Ġpri ÄĹmÄĹ
Ġkoj Å³
ubil iej
SR S
Ġsep tyn
Ġgrup ÄĻ
Ġk enk
ĠÄ¯v ed
S od
s a
Ġsu jung
y rag
s tom
Ġdovan Å³
R y
Ġmok a
Ġkep ur
aisv ÄĹs
ĠneÄ¯ pras
Ġs iej
Ġsum Äħ
ĠsÄħ Å¾in
Ġpristat ymas
Ġorganiz uoja
J ame
Ġautomati Å¡kai
Ġdaik tus
aÅ¾ Äħ
Ġsi uv
Ġ4 4
en is
Ġklaus imai
Ġpab rÄĹ
eik s
Å« dÅ¾io
or ai
Ġligon inÄĹs
Ġproblem Äħ
Ġkambar ys
Ġsaug o
ĠaikÅ¡ tÄĹje
Ġsov ie
Ġaps kaitos
s v
auj antis
Ġsavait galÄ¯
Ġma Äį
er a
M S
Ġjau tr
i ama
ĠG ied
ci onal
Ġsuteik s
Ġatv aÅ¾i
Ġdir Å¾
ij aus
k ol
ĠmÄĹg autis
ol et
Ġm amos
Ġtaisykl ÄĹs
Ġfinans avimo
Ġt yl
ici on
Ġkilometr Å³
Ġegzist uoja
ag ys
Ġin st
tr aukia
Ġaks esu
N S
ei Äįi
Ġsen am
ĠAnt anas
Ġdovan a
ĠraÅ¡ oma
Ġtink lÅ³
Ġkonc ep
e ur
Ġpar ag
ut yje
Ġskat inti
ĠN ATO
Ġjaus mas
El ektr
Sv eiki
Ġkeli os
Ĩ Ĵ
in anti
Ġl auÅ¾
iÅ³ jÅ³
ak u
Ġvyk usi
ĠS veik
ĠÅ¡al ys
er o
ĠTra kÅ³
____ ____
Ġsavai me
lamen to
Ġsk onio
Å¡ t
ir v
as t
Ġpris it
ang eli
ĠK el
Ġt ank
Ġj u
Ġes anÄįiÅ³
Ġbend ro
uo lio
Ġremi antis
Ġl ub
Ġband ÄĹ
uol Ä¯
ĠmedÅ¾iag as
Ġskir tum
ĠÄ¯s im
Ġobjek tyv
t iniame
om us
Ġvil n
um ais
Ġskelbi a
ĠÄ¯vairi ais
Ñ ı
Ġlauk ti
plink os
M uz
Ġuos to
Ġbr uoÅ¾
Ġadres as
Ġpagrind as
ĠB end
K it
6 4
Ġmieste lio
iu jor
ab ili
Ġpr epar
Ġj uose
kir st
Ġveik ÄĹ
Ġnetur ÄĹjo
Ġreg lament
Ġpri orit
Ġspr og
ĠI gn
eis kite
Ġprisim inti
Ġlabor atori
y po
Ġmer as
tuv Å³
Ġid enti
ie go
Ġdv ej
ĠÅ¾iniaskl aidos
on i
Ġsant uo
Ġkal n
Ġpasteb ÄĹjo
Ġk aun
ĠÄ¯ kai
Ġpatog u
Ġtiksl us
ov es
ri ja
L K
osi te
Ġ4 2
Ġvidut inio
ĠG ab
Ġmod ern
Ġpan aud
am omis
Ġvald ymas
Ġnug aros
li p
Ġsveik atÄħ
Ġar tÄĹj
Ġskyri Å³
Ġpasi tar
Gali te
k om
ĠG e
201 0
Ġinterjer o
" :
c inis
Ġnep a
od a
ti ek
Ġstai ga
! âĢľ
Ġpor os
ĠjÄĹg a
ĠiÅ¡g elb
ĠDidÅ¾i ojo
Ġnar ÄĹ
Ġmat yt
Ġpartn er
Ġor as
Ġd ukr
Ġprisi paÅ¾
Ġpager inti
ei Å¡
Ġtyr imus
pl ek
l aiv
ĠiÅ¡laid as
ĠiÅ¡ kr
ĠB u
ĠR i
Ġli cen
ĠÅ¾em yn
p ak
ĠdrÄħ siai
Ġmod elio
Ġsl ÄĹp
ĠmedÅ¾i Å³
ĠpoÅ¾iÅ«ri u
Ġsav ybes
Ġne tol
Ġneb log
Ġsi urb
Ġk vai
ÄĹj usios
ĠPanev ÄĹÅ¾
ÄĻ Å¾
Ġr evoliu
Ġvyk do
Pagrind inis
Vis as
Ġmuzik Äħ
A ÄįiÅ«
am oje
ĠS uom
ÄĹr ÄĹ
ali ojo
kai tÄĹs
At sak
ĠiÅ¡s prÄĻsti
Ġvaik Å¡Äįi
yd o
Ġreikal ingi
ĠT h
Ġtur tÄħ
Ġvon ios
Ġ4 8
ĠpaÅ¾ vel
ĠpasiÅ«l ymai
ĠÅ¡e imÅ³
Ġp ei
ĠeilÄĹ raÅ¡
... ]
l s
ĠÅ¾in au
yb inÄĹ
ĠVil niÅ³
K el
yl is
Ġtol im
Ġmoto cik
Ġsavai ÄįiÅ³
ies e
Ġmokykl ose
ĠB ut
Ġnes varbu
d Å³
J am
Ġsv ars
ĠG en
Ġtik ro
Ġpatalp ose
Ġvidut iniÅ¡kai
S ek
ai kio
Ġgra fik
Ġdid esnÄ¯
Ġprar ad
G am
ĠryÅ¡ Ä¯
ĠÅ¾ vel
Ġteat ras
Ġrami ai
Ġmies tuose
lik o
ĠN uo
Ġsprend Å¾i
Ġf eder
Ġpili akal
Pat s
b ÄĹg
R ank
Ġlaik oma
Ġdet aliÅ³
Ġpard uod
Ġkuri omis
Ġveikl oje
Ġpag arb
Ġjau tri
ĠC o
Ġgam iniÅ³
Ġproduk tas
Ġpartiz anÅ³
Ġpras m
Ġdirek torÄĹ
Ġpriemon ÄĻ
ĠbÅ«s to
Ġk alv
ĠdarÅ¾ oviÅ³
up er
Ġspar Äįiai
Ñ ĭ
Ġ Q
Ġtoki ais
ĠJ uoda
Ġelem entÅ³
osi omis
Â °
Ġpas veik
ĠÄ¯vairi ausiÅ³
Ġtur inio
Ġm Å«r
Ġsv og
Ġnes p
c id
ĠiÅ¡r aiÅ¡k
6 9
Tik rai
al ais
c inÄĹs
Ġpas tov
f e
ĠÄ¯kur ta
Ġal aus
Ġne ver
evi ÄįiÅ«tÄĹ
ĠkÅ«n as
Ġgam ta
el d
Ġterm inas
ĠÅ¾ uvo
Ġpergal ÄĻ
oj ÄĻs
Ġab i
Ġnepas teb
Ġsk ers
ĠgrÄħÅ¾ inti
Ġsk ur
ak ÄĹ
Ġprogram oje
Ġ }
Ġatsi g
uo tu
Ġprie ig
Ġsus irg
Ġpirm ieji
unk u
ĠBaÅ¾ny Äįios
o tel
Ġenerg ijÄħ
Ġscen ar
Ġdarbuotoj ams
Ġautomobi liai
ĠuÅ¾ aug
ygi ai
S ieki
ĠpavirÅ¡ iÅ³
am ÄħjÄ¯
P aprastai
Ġpaslaug omis
Ġl iek
Ġstraip snyje
al iniÅ³
dom i
ĠÄ¯stat ymas
ĠneiÅ¡ v
ĠneÅ¾in au
ĠS avivaldybÄĹs
ĠgrÄ¯Å¾ o
Ġbliz g
ĠÅ¡ird is
aug i
n er
Ġver tina
Ġbi olog
u e
tek Å³
ci o
ĠV in
Ġm aud
Ġâ ĨĴ
Ġkvie Äįiame
ail os
Ġsusij usiÅ³
Ġtal p
Ġpavasar io
Ġsu pjaus
Ġsupr anta
Ġvadov Å³
Ġsri ÄįiÅ³
Ġskir tÅ³
ĠpasirÅ«p inti
D arbo
ĠÅ¾i d
Ġsen ov
Ġk auk
Ġpatenk inti
Ġmit ybos
vir tina
uoj amÅ³
pl e
Ġpam ÄĹg
ĠaukÅ¡Äįi ausios
m uose
J uos
ĠvieÅ¡ ojo
li uz
Ġar k
ĠT o
Ġpagamin tas
Ġprak tik
Ġkal nÅ³
te z
Ġpus ry
ĠB ir
e olog
7 7
Ġtrump omis
Pard uodu
aki au
Ġnep aisant
ĠkÅ«r imo
p el
Ġper veÅ¾
Ġkonsul ta
Ġti tu
Ġn ud
Ġbu hal
ĠÅ¡ aud
Ġstud ijos
Åł eÅ¡
Ġsak ant
Ġpasku tinÄ¯
Ġmuziej uje
ir o
Ġpris kir
to d
Ġpil iet
Ġinf o
Å¾i aus
Ġap aÄįi
ĠV ien
Ġel eg
z el
Ġdisk ut
Ġpaslap tis
ograf ijos
Å« kl
Ġb ene
Ġveikl ai
ĠrÅ«p intis
ĠmedÅ¾iag Äħ
Ġmok ÄĹ
ĠB i
ni os
ĠreikÅ¡ mÄĹs
Nep aisant
tu zi
ĠR ud
ĠGr yb
ien e
and os
pr et
Ġeur o
Ġvis ose
Ġfestival is
Ġtend en
Ġap tik
Ġpolitik Äħ
Ġki toje
ar iÅ³
Ġbal ta
g os
Ġplan avimo
Ġorganiz uoti
Ġsti liÅ³
ĠÅ¡e imÄħ
Ġm u
Ġbal k
Ġstud entai
Ġkor up
Ġmedic in
ail es
ĠI S
Ġmo bil
Ġvis uo
Ġasmen iÅ¡kai
d arb
or k
Ġal erg
uoj ate
Ġvari antas
h a
tori umi
ĠsiÅ«l oma
Ġatsin auj
Ġklaid Å³
R ink
ĠpabrÄĹÅ¾ ÄĹ
li c
ĠB irÅ¾
Ġapr Å«p
Ġ =
ĠM i
Ġpat enka
Ġau toriÅ³
Ġvisuomen ÄĹje
Ġtv enk
um oje
ail s
ĠM ic
g ÄĹ
Ġatsak ÄĹ
ie Äįiams
N en
ai Å¾
ĠsÄħraÅ¡ as
Ġdr ÄĹk
jos e
ĠJuoz as
tin imo
Ġoptim iz
Ġz on
s en
Å¡ Ä®
Ġfil mÄħ
Ġpirm ininko
Ġk un
ĠS av
Ġvar do
B i
ĠiÅ¡ min
Ġsv ies
ĠpasiÅ«l ÄĹ
Ġg ili
Ġnegali u
ĠAlg ird
Å¾i Å«ros
to p
6 6
Pas ku
ĠMar ijos
ati on
Ġspeci f
ĠS ocial
Ġf rak
Ġpar ke
Ġt ab
ĠÅł vietimo
Ġkov Äħ
e Äį
Ġrud ens
8 5
ĠdÅ¾i ov
Ġnep il
Ġv ÄĹjo
ans o
N ed
Ġakim irk
Ñ Į
on tolog
tu ku
t anijos
ĠneÄ¯ tik
Å¡k ÄĹs
ĠiÅ¡tek liÅ³
Ġes antis
Ġlaim ÄĹti
Ġsavaranki Å¡kai
n ys
Ġm em
Pirmas is
Ġtir p
Å« v
Ġstraip snis
Ġsek re
Ġr ob
Ġpriklausom ai
ĠRus ijoje
t ad
ĠM art
Ġparduotuv ÄĹ
Ġrink od
D A
ĠE r
Ġd eja
is l
j aus
ĠS tan
ĠTel Å¡iÅ³
uk ui
ĠÅ¾i Å«ri
or ganiz
iau ti
Ġk ieki
Ġatei tÄ¯
ĠKalÄĹd Å³
ĠK ai
ien ei
Ġgali oj
Ġlang Å³
z a
Ġd ug
Ġtiksl Äħ
Ġilg omis
ech n
ĠamÅ¾i uje
ie tÄĹs
Ġpaslaug a
ĠpraÅ¡ ymÄħ
ĠÅ¾enkl o
Ġpas idÅ¾iaug
ang o
Ġgi tar
Ġpl ÄĹv
Ġnaujien Å³
Ġd uÅ¡
ĠiÅ¡v eÅ¾
Ġen tuzi
Pr ogr
rad ic
ĠLenki joje
Ġreng inÄ¯
ar ko
M as
Ġtr em
ĠÄ¯var d
Ġspalv Äħ
li os
Ġpas tebi
Ġpi gi
Ġsu kl
ĠT am
Ġmoksl ininkai
um at
ĠbaÅ¾ny Äįioje
Ġspecialis tas
Ġakadem ijos
Ġabs oliu
Ġatsi kr
ĠbÅ«kl ÄĹ
v Äħ
ri au
Ġsuk uria
A K
Ġ200 2
Ġver tÄĻ
Ġlie p
ĠmÄĹlyn a
Ar ba
bi a
Ġatsi v
Ġketvir tadienÄ¯
ap ie
Ġmok ÄĹsi
Ġpaslaug Äħ
Ġgaus u
Ġvadin asi
ĠR Å«
Ġapd or
ĠO l
Ġdiag noz
ch o
Ġkreip ÄĹsi
Ġvir tu
ĠÅ¾ yg
ĠseniÅ«n ijos
Ġkl eb
uli us
Ġnuomon ÄĹs
il l
4 9
Ġn omin
ĠN emun
aÅ¾ ai
ap l
ĠiÅ¡ ei
Ġatrod yti
t enk
Ġ ;
B irÅ¾
ĠT he
Ġpa Äįius
Ġki tuose
ĠiÅ¡v aÅ¾i
ĠPr ek
oj ome
Ġtarn au
Ġ201 9
G yv
Å½ aid
lo w
Ġl ag
c as
Ġsov iet
Ġatvyk ti
ĠS tas
Ġpop ieriaus
Ġpas il
Ġlie men
f al
a kiÅ³
Ġpastat yti
Ġpakei tÄĹ
ĠGr aiki
Ġkel nÄĹs
in ans
Ġl Å«
ĠNep riklausom
ĠiÅ¡l aidos
kl is
T ink
Ġfunk cijos
Ġpro to
ĠAus tral
Ġdokum entai
ĠruoÅ¡ i
ĠkeiÄįi asi
Tau ragÄĹs
Ġsm agu
Ġproced Å«ros
of t
Ġdraud imas
S kaityti
Ġrink inys
Ġvyr ams
Ġatv eÅ¾
Ġk var
er m
Ġali um
Ġapsaug o
Ġl yti
ĠK os
E n
4 7
ĠB raz
Ġdet alÄĹs
T iek
Ġak mens
Ġmat ema
Å¡ l
uli ai
Ġakc ent
Ġsuteik ÄĹ
r ie
Ġd anga
ĠP ov
Ġpatog us
Ġpavad inimÄħ
S tat
Ġp yrag
ol es
Ġv yn
ĠapÅ¾ valg
Ġdizain as
A ud
Ġpatikr inti
uomen ÄĹs
ur e
tiÅ¡k Äħ
ĠkÅ«d ik
A b
Ġsusij ÄĻs
ĠamÅ¾i us
tu ko
Ġreikalav imai
Ġd em
P R
ĠiÅ¡sirink ti
Ġkomis ari
Ġnetik ÄĹtai
ĠpriÄĹm imo
Ġpalaik o
Ġsav ybÄĹs
Ġkli Å«
Ġre fer
Ġtiksl ais
ĠvieÅ¡ osios
Sp alio
ĠD ov
kÅ¡ Äįiai
Ġpoveik is
ĠB endr
ĠÄ¯vairi ose
and o
ag os
Ġnusipirk ti
ĠiÅ¡siaiÅ¡k inti
li ukas
uotoj ai
âĢľ ).
t et
ÄĹ to
Ġtau rÄĹs
Ġaptarn avimo
ĠGedim ino
Ġniek am
ĠÄ¯spÅ«d Ä¯
Ġk yl
ĠreikÅ¡ mÄĻ
Ġparti ja
Ġf antas
Ġpatir ti
Ġak imis
Ġats tum
Ġskiri ama
ĠÅ¾aid ÄĹ
200 9
ti Å¡ki
Ġf ili
o liÅ³
Projek to
u Äįio
Ġd ing
ĠG intar
Ġlin ija
uo tÄĻ
Ġkarjer Äħ
iÅ¡k umo
Ġry te
p ard
Ġproduk to
Ġher oj
ĠjÅ«r Å³
ĠÅ¾od Ä¯
Ä ģ
Ġmalon iai
ÄĹn as
Ġpar k
Ġ ei
ĠpraneÅ¡ ime
Ġak cijÅ³
enki a
T ÄĹv
Ġdel eg
Ġprisid ÄĹti
or g
p eln
Ġind us
Ġamb asad
tÄĹs i
Ġat ein
ep ia
Ġkond icion
ind ow
in ukai
Ġplan us
Ġpar Äħ
auj anÄįiÅ³
Ġmat o
P ati
ĠvieÅ¡ Å³jÅ³
Ġter as
ĠE m
Ġsp in
Ġang l
ĠiÅ¡gir sti
ĠA uÅ¡
ri joje
ykÅ¡ ÄįiÅ³
Ġpareig Å³
Ġini cij
Ġi k
T okie
Ġa tim
Ġ å
Ġod ai
Ġtechnolog ija
Vil k
Ġpatek ti
ĠK ol
ul ys
Ġpoten cial
ĠbÅ«kl ÄĻ
S tud
ĠR ase
Ġd avÄĹ
Ġsu mon
ĠiÅ¡s ami
Ġ200 1
Å«r is
Ġsumok ÄĹti
Å«r Äħ
ĠrÅ«Å¡ is
n auj
eg uli
Ġpatal pos
T a
Ã ¡
Ġklien to
Ġgr ie
Ġ <
toj ais
Ð ²
Ġfak ult
Ġi sp
N ÄĹra
Ġprojek tai
ĠE sti
Ġek strak
Ġpasl ÄĹp
C O
Ġdrus kos
ĠM yk
Ġatsir as
Ġofici aliai
Ġsmeg enÅ³
al yje
Ġren ov
Ġinter pret
Ġjud ÄĹjimo
Ġsusi form
Ġtik ÄĹjimo
Ġj ubiliej
Ġmoksl eiviÅ³
N uos
vi ra
k ÄĹs
Ġvai ravimo
t usi
Ġnuo tr
j ei
Ġug ni
Ġkar Äħ
uod avo
ĠgeleÅ¾ink elio
Ġkomand Å³
us ieji
Ġnes uk
Ġp ip
te ko
Ġgyven imui
At l
Ġpasteb ÄĹti
Ġbibliote ka
Ġbr on
Ġtvir tina
Ġg aiv
Ġtaik yti
uoj anÄįios
Ġnor ÄĹÄįiau
Ġf l
ĠparaÅ¡ ÄĹ
Ġgyd ymas
ĠÄ¯vair aus
om et
ĠÅ¾enkl Å³
au b
Ġdaug eliui
tel ÄĹjo
ĠvieÅ¡bu Äįio
7 8
ĠÅł im
Ġprofes orius
Ġvai ki
ĠÅ½em ai
Ġpakei timo
ytoj us
ani tar
Ġg ed
ĠN iujor
Ġvadov avo
ĠtreÄįi adienÄ¯
Ġetap as
u tr
Ġmok iniams
Ġgamin tojai
te lio
Ġkie kio
Ġvakar o
taÅ¾ od
Ġpas tab
Ġpoky ÄįiÅ³
tu kai
yb as
F I
Ġnuo m
Ġkom for
Ġnusi teik
Ġfotograf ijos
Ġm az
el o
Ġgali oja
ar v
Å¡k umÄħ
200 8
Ġversl ui
ting os
Ġaps ir
An ks
Ġnuotrauk a
ĠÄ¯reng iniÅ³
Ġvakar Å³
Ġnepriklausom ybÄĹs
ÄĹm imo
Ġ12 0
tu n
ĠÄ¯gÅ« dÅ¾iÅ³
Ġgalv oti
Ġkar iÅ³
Ġpui k
Tr ump
Ġrezultat Äħ
Pui kiai
( '
Ġkl avi
Ġprojek te
aliz acijos
Ġplan as
ĠiÅ¡ rad
uoj amÄħ
Ġes antys
Å«k is
ra Å¾i
Ġparduotuv ÄĹse
Ġtel k
Ġvers ija
Ġsak oma
4 2
Ġper m
ĠJ is
Ġketur is
Ki ti
Ġv eda
Ġm inti
ĠiÅ¡ tis
Ġprek ÄĻ
or Äħ
G im
Ġsvarb iausias
met ÄĹ
ĠraÅ¡ tu
Ġlau re
acij ose
ĠI T
Ġregist racijos
Ġm umis
en oje
Ġuniversit etas
Ġnaf tos
Tre Äįi
aud ami
D iev
Ġdvira ÄįiÅ³
Ġpar ama
Ġparap ijos
Ġprisijung ti
ĠryÅ¡ ius
tu os
m l
Kvie Äįiame
4 6
ry Å¡k
ĠJo h
Ġst and
Ġsek tori
Ġmokes tÄ¯
aid as
ind avo
uo lius
tel es
ki au
Ket vir
ĠAus tri
gi p
ĠdÅ¾iaug tis
Ġar ki
ĠmaÅ¾ y
Ġcer emon
Ġf r
ĠpoÅ¾iÅ«r Ä¯
ĠÅ¡ven ÄįiÅ³
Ġsal os
Ġch irurg
ies ti
ĠR audon
ĠÅ¡al tiniÅ³
Ġjaus tis
Ġvestuv iÅ³
Ġstraip sniÅ³
Ġsurink ti
Ġnam Äħ
Ġnes ÄĹkm
ĠD rusk
ĠpasiraÅ¡ ÄĹ
ĠpraneÅ¡ imÄħ
ĠI lg
Ġsut uok
Ġvienin telÄĹ
ĠtÄĹv ams
Ġvalstyb inÄĹs
uosi uose
Ġsitu acijos
esn e
ĠrieÅ¡ u
Ġpavaduotoj as
ĠT omas
t var
Ġdain a
Ġkv ad
ĠkaÅ¾ ko
T u
ĠÅ¾aid ÄĹjÅ³
Ġ6 00
ud o
ic e
Lap kriÄįio
Ġml rd
Ä® vai
Ġne aiÅ¡k
ĠR omos
Ġmaitin imo
Ġr o
ĠiÅ¡ augo
ĠM ich
y j
ĠD id
y tais
Ġap Å¾iÅ«r
ĠsÄħjung a
ĠR oki
Ġkr eipi
ap ar
Ġpastat as
ties iems
Ġs a
Ġrungtyn ÄĹse
ĠÄ¯pras ta
Ġgyn ybos
i cial
Ġpri k
Ġasoci acija
ĠÅ¡ ou
Ġlop Å¡
» ¿
Â ®
Ġry tÅ³
ili us
ĠkultÅ«r Äħ
Ġlaisval aikio
Ġvis gi
l ug
Ġv yno
et end
Ġs alo
Ġauk l
tÅ«r as
usi ais
Ġasmen iui
ĠkraÅ¡ tas
eli uose
acij omis
Ġnes ik
Ġm ui
vir Å¡
Ġb ij
Ġan ot
ĠB en
Ġst amb
Ġmin ÄįiÅ³
8 6
M ums
R ekomend
Ġeksp ozi
al a
Ġilga am
Ġak ys
Ġpal ank
Ġatnauj inti
Ġsaug oti
ï »¿
Ġstad i
ĠpaaiÅ¡k ÄĹjo
Ġgyv ybÄĹs
ĠB o
' ,
ĠB elg
ÄĹn ai
ĠE k
ĠL u
Ġreik tÅ³
Ġatsak ingas
ki uose
ov us
Ġn o
Ġmat ome
Ġerdv ÄĻ
ĠT aip
Ġneabej o
ĠgraÅ¾ u
ĠÅ¾ valg
Ġvaizd Äħ
Ġpastat yta
Ġrim tai
ĠuÅ¾ trauk
Ġlank ytojÅ³
ĠS er
Ġdarb ams
Ġnem alon
ĠÅ¡ ach
Å¡k u
ĠÅ¾ini a
Ġsk yrÄĹ
Ġdrabu Å¾iai
ĠV I
Ġb ed
Ġmuz iejÅ³
ank s
Ġtarptau tiniÅ³
Ġap v
Ġmiest us
Ġnar io
Ġvam zd
Ġl ai
Ġaplink ai
Ġpozi tyv
tel Ä¯
ov ietÅ³
Ġreng iniai
Ġkambar yje
Ġriz ik
Ġd a
al os
ĠL aur
ĠK up
ais to
ĠBri tanijos
D ÄĹv
ĠG ir
Ġnuos ek
ĠsÄħraÅ¡ e
Ġmod eliÅ³
ak os
tÄħ jÄħ
ĠÄ¯mon ÄĹms
Ġvisuomen ÄĹ
ĠjÄĹg as
ĠD ai
ap o
Ġprog imnaz
ĠmaÅ¾ Å³
men inÄĹ
Ġtikr os
Ġnurod yta
Ġbi uro
ĠiÅ¡ ÄĹjo
Ġv ÄĹÅ¾
Ġcivi liz
ĠI R
t iniuose
Ġkatali kÅ³
Ġp iev
Ġniek aip
vir at
Ġap yk
S kait
Ġpav id
ĠS an
Ġseks as
on ais
ĠE stijos
uol ÄĹ
Ġh armon
ti eji
Ġkambar Ä¯
Ġskelb imai
Ġbibliotek oje
Ġpatog iai
Ġbank as
Ġperd uoti
ĠUkmerg ÄĹs
Ġaliej aus
Vaik ai
IJ A
Ġsod o
Ġinter viu
Ġspaus din
ap s
Åł ven
ant us
Ġpat yrÄĹ
ri os
ÄĹ bul
L ik
O J
d is
Ġautomobi lius
c iniÅ³
Ġdekor atyv
Ġsk ard
ĠuÅ¾sak ymÄħ
ĠÅ¾ing snis
D u
Ġsaug umÄħ
Ġgeri ausius
ĠMaskv os
Ġpro tok
Ġnes usi
az o
so ci
ĠVl ad
s kio
Ġa z
R ad
Ġdid inti
Ġvalstyb ei
Ġlaim ÄĹs
ĠÄ¯sikÅ«r usi
ĠPal angos
t uoja
im antas
Ġpapildom Äħ
ĠAug us
Ġkoj os
ĠnuoÅ¡ ird
dÅ¾i ais
yr o
Ġdvid eÅ¡imt
G ar
ver Å¾
Ġdv y
Ġnus k
Ġvir Å¡k
Ġmokytoj as
Ġgeri ausi
Ġpatog i
Ġled o
Ġb o
Ġprak tikos
Ġpareig Å«nÅ³
Ġrek ord
Ġkategori joje
Ġsocial demokr
Ġtren eris
ĠiÅ¡ val
M I
Ġliud ij
Ġasmen ybÄĹs
Ġpel no
Ġautomobi liu
ĠiÅ¡ sp
Ġpolitik ai
or mon
Ġpagrind o
Ġvyriaus ybÄĹs
Ġkov a
Ġsim bo
6 3
Ġsusitik imas
Ġak umuli
Ġnu trauk
Ġvyk ti
ting o
ĠmaÅ¡ inos
ver ti
Ġs uo
Ġan alog
Ġtam si
ĠNauj ienos
P h
I m
Ġparod o
Ġb ev
eÅ¡ io
Ġmat osi
Ġnustat ytas
p alv
ĠÅ¾ an
Ġsl ÄĹ
Ġkoki as
Ġsunki au
in ome
Ġ/ /
Ġkrauj agys
at yti
ĠÄ¯sikÅ«r ÄĻs
Ä® mon
Ġla zd
Ġpirm adienÄ¯
Ġ ing
ul teto
Ġpristat o
ĠÄ¯vy kio
ki ui
Ġvertin ti
ĠbÅ«d amas
K laus
Ġde pres
id ÄĹs
K oki
L aim
ausias is
Ġs tum
Lietuv iÅ³
ac e
ĠiÅ¡s isk
ĠdÅ¾iaug i
ĠiÅ¡l eis
Ġmo tina
Ġemo cijÅ³
ting umo
I eÅ¡k
M iÅ¡
anta z
Ġsen ovÄĹs
ĠpajÄĹg Å³
ul Ä¯
eg u
Ġfinans iniÅ³
Ġs ter
Ġtau tÅ³
Ġefektyv iai
Ġper l
Svarb iausia
Ġl e
Ġlie taus
Ġsusid ar
Ġsvarb Å«s
r inÄĹs
Ġnepat og
ĠsumaÅ¾ ÄĹjo
Ġkryp timi
uo tai
Ġkon tein
Ġnusikal st
Â ¬
Ġser gan
Ġklaus imu
ĠvieÅ¡bu ÄįiÅ³
uv al
k ie
Ġaug imo
Ġsam pr
m ar
Ġvien tis
Ġpasitaik o
Ġvis am
Ġatliek amas
Ġg ies
ĠV ol
ac iniÅ³
ĠBri tan
Ġar ti
pil d
men t
Ġpasiv aikÅ¡Äįi
in ÄĹjimo
b io
ĠBal ta
Ġpr od
es s
M od
Ġs andar
ĠvirÅ¡ uje
ĠiÅ¡kil m
ĠMaÅ¾ eikiÅ³
Ġant radienÄ¯
Ġsti lius
Ġdiag nos
Ġatsakom ybÄĻ
Ġ2 50
Ġper Å¾iÅ«r
Ġvakar us
Ġsusitik imo
j omis
A P
p aÅ¡
Ġaps up
Ġkiekvien os
Ġinteres Å³
g ais
ĠE x
ĠpaÄįi oje
Ġnereik ÄĹtÅ³
ĠP aul
Ġid ÄĹjÄħ
ĠRob er
r en
st ant
Ġtiksl o
Ġpr asi
Ġtau ta
Ġmokes tis
y ja
Ġprie var
alb ÄĹti
id Å³
Ġved ÄĹ
Ġpor t
ĠÄ¯v es
Ġsu tiko
ag e
Ġvanden yje
i ame
t ÄĹja
Ġbalt ymÅ³
Ġnuol atos
Anks Äįiau
Ġpastat ytas
ĠÅ¾ ygi
Ġ uol
Ġsudar yta
K am
ĠpaukÅ¡ ÄįiÅ³
Ġdr aus
ter s
us ti
ĠÄ¯s id
P enk
Ġmin eral
a Å¡k
Ġs eg
Ġgr eta
en kite
Ġnaud Äħ
od e
J Ä¯
ĠÄ¯ man
ĠpasiÅ«l ymÅ³
er ÄĹ
Ġtik isi
Ġsv oris
200 7
Ġtur tas
enk ti
z e
Ġpasidal inti
iÅ¡k us
Ġd Å¾ins
ĠB ul
Ger ai
Ġscen os
Ġ Åª
Ġspustel ÄĹkite
Å«n Äħ
Ġtechnolog ijas
Ġnagr inÄĹj
Ġam Å¾iÅ³
Ġdalyv iams
Ġlank s
ĠiÅ¡ ryÅ¡k
Ġkonkur enc
ĠB ud
ĠÄ¯stat ymÄħ
Ġsi ur
Ġner eiÅ¡kia
Ġgyven tojus
Ġb atai
Ġkomand ai
Ġvam zdÅ¾i
Ġdalyv aus
Ġrengi a
Ġfak ulteto
ĠA u
ĠkraÅ¡ te
enti li
Ġstraip snÄ¯
li uko
Ġsu raÅ¡
Ġskaus mas
Ġekran o
ĠÄ¯dom us
Ġes anti
Ġpap ro
Ġnar iams
ĠsÄħskai tÄħ
o tos
ir ti
Ġparod oje
ĠKÄĹd ainiÅ³
ĠL ED
tori jos
ĠÅłil utÄĹs
g er
vys kup
tÅ³ si
Ġink stÅ³
Ġkon e
Ġnum eris
Ġnup l
ĠðŁ ĻĤ
Ġtarptau tinÄĹs
ĠÄ¯vai zd
Ġkategori jos
Ġtradi cijas
ĠL ie
Ġsistem as
Ġpie tus
Ġpom id
Ġrink imuose
Ġneb uv
Ġj aud
Å«d is
Ġaud inio
toj Äħ
Ġnurod o
Pirm Äħ
k Ä¯
Å¡ a
Ġveik ÄĹjas
ykl inio
ĠuÅ¾d uo
Ġ4 6
ĠpraÅ¡ ome
Ġteigi ama
Ġtrump ai
ĠM ol
Ġpoli tinÄĹs
o ch
Ġfunk cijÄħ
Ġperd avimo
Ġsupr ato
aud Å³
and as
Ġnes ib
ĠÅ¾al os
Ġvad ina
Ġ !
ĠÅłv eicar
Äįi omis
P raÅ¡
Ġsm Å«
ĠÄ¯gÅ« dÅ¾ius
ĠpraneÅ¡ a
ĠiÅ¡l eisti
Ġsupr atau
Ġkonkurs as
Ġaki vaizdÅ¾i
Ġteritori ja
Ġrink Äħ
ĠÅ¡ nek
ĠvirÅ¡ u
Ġd uoda
am ÄħjÄħ
v esti
Ġdal ij
ali k
Ġatitink amai
c s
Ġar Äįiau
Ġres tau
Ġved ÄĹjas
Â ²
Ġpen kiÅ³
Su pr
Ġvert ybiÅ³
ok yb
Ġnam ie
Å £
ĠN U
Ġnustat o
i at
Ġtarp e
G yd
T ar
ĠÄ¯reng ta
in site
ĠÅ¾iÅ«r ovÅ³
ĠvaldÅ¾i Äħ
Ġkr an
Ġtiek imo
ij oms
en u
ĠÅ¡ uo
Ġvarto tojams
ties i
aiÅ¡ i
Ġuos tas
Ġneb er
Ġry Å¡k
b as
v an
Ġteritori jÅ³
Ġsn ieg
toj u
ĠPl ung
Ġp li
Ġtink lap
ien ÄĻ
ĠÅ¡ird Ä¯
Ġpl auki
Ġv ili
ĠÅ¡vie si
Ġgim inÄĹs
Ġpraded ant
ĠparaÅ¡ yti
Ġmin tys
ĠBer l
Ġdid eliu
Ġduo nos
Ġpoli cija
Ġparduotuv iÅ³
Ġnel eidÅ¾ia
U N
ĠvÄĹ li
tuv iÅ³
ĠJ urg
z os
Ġg ÄĹl
Ġg ai
Ġlank ÄĹsi
ĠBaltarus ijos
ĠD alia
Ġprak tika
Ġl az
Ġsek toriaus
ĠM ak
var g
ĠÅ¾in omi
Ġid ÄĹjas
Ġne j
ĠD arb
lo tis
ĠsveÄįi ams
Ġsaug iai
Ġpastar uosius
Ġpav yks
Ġpozi cijÄħ
ĠpamirÅ¡ ti
Ġv ik
Ġn av
Ġs kil
Rug sÄĹjo
is to
iausi os
tu Å¡
Ġsvetain ÄĹ
V os
Ġsud ed
Ġa c
Ġb io
Ġf ab
Ġpri ima
à ¸
ĠiÅ¡v ys
me tis
Ġbri tÅ³
Ġ ÄĹjo
ĠI N
Ġu z
Ġti pÅ³
ĠVieÅ¡ pa
Äįi ama
Ġau ten
ĠD ub
Ġsuk ÄĹlÄĹ
ĠnatÅ«r aliai
Ġtur inÄįiÅ³
Ġgam iniai
ĠÅ¾in ome
Ġatskl eisti
Ġapsilank yti
Ġkan tr
T ie
sni ui
ĠnuoÅ¡ irdÅ¾iai
Ġk az
Ġdarbuotoj as
S K
at s
ul kiÅ³
Ġnuo tekÅ³
ĠÅ¡lap imo
Ġbendr ojo
tÅ«r Äħ
ĠkruopÅ¡ Äįiai
ĠKret ingos
ĠD v
Ġ8 5
Ġsud eg
indow s
D i
Ġkompiuteri Å³
Ġtaik oma
usi ai
Ġskr aid
ĠR y
Ġkonkurs Äħ
Äįi amas
Ġfunk cijÅ³
Ġpatal pas
Ġkli j
P ras
ĠN ik
Ġbal tÅ³
ĠprieÅ¡ ingai
ĠM ad
Ġsuprant ama
ĠÅłiau liuose
ĠIsp anijos
ĠkÅ«d iki
asar io
Ġsk yl
Ġgrup ei
Vien Äħ
ĠÅ¾ai dÅ¾i
Ġskai Äįiaus
Ġautobus Å³
Ġskon Ä¯
Ġpateiki ama
ĠrÅ«Å¡ ies
Ġgamin tojo
Ġ ?
Ġvairuotoj as
Ġbendr ov
S ut
Ġp uÅ¡
Ġpad eng
Ġketuri as
g res
Ġpris kiri
Ġprof i
Ġpip ir
Ġatrank os
Ġprad ÄĹjau
Ġkel ti
Ġm enk
Ġscen oje
Ġkir p
Ġm yli
Ġreng ti
Ġ- -
f a
Ġdaug elyje
Å¾in au
ĠÄ¯reng tas
Ġmilij onÅ³
uk a
Ġsutaup yti
us e
ĠbÅ« tinas
Ġdek o
Ġsav ininkas
ĠmaÅ¾ esnis
Ġsuv oki
Ġd virat
ĠÅ¡ uk
ĠpaaiÅ¡k inti
Ġpopuliar iausiÅ³
V P
on ijos
ĠdÅ¾iaug iasi
Ġveid Äħ
Ġkvalifik acijos
ĠÄ¯vy kius
Ġh ormon
ĠtÄĹv o
Ġplauk ai
Ġelem entai
Ī Ĵ
Ġes anÄįios
op er
ym uose
ĠKomis ijos
Pas irink
ĠmaÅ¡ ina
ĠÄ¯sak ymu
Ġsk yd
kite is
Ġan im
Ġatsak o
ĠiÅ¡sis kiria
Ġ199 0
Ġdemon str
Äħs teliÅ³
ĠÅ¡ uni
Ġapsaug Äħ
O D
d amos
ĠC on
Ġpil na
Ġpasirink imÄħ
ĠÅ¾ irg
Ġnekilnoj amojo
Ġpl aÄįi
Ġtol er
eri joje
ĠSe ime
ĠAn tr
Ġp ails
and s
Tarp tau
ĠdÄĹÅ¾ ÄĹ
Ġsuteik tas
ĠkaÅ¾k aip
Ġug nies
Ġkonferen cijoje
ĠrÅ« mai
in tus
ĠlÄĹÅ¡ omis
Ġsm ÄĹlio
Ġnuosav ybÄĹs
ĠÅ¾aid ÄĹjai
Ġk aÅ¡
Ġsub ti
ĠK ub
ĠneÅ¡io ti
oj amas
tin tas
Pl an
S c
Ġap kr
Ġz onos
Ġel as
Ġpasirink imo
Ġskamb a
osi oms
K ovo
Ġg y
Ġpsich o
c inio
Ġgrup es
Ġstipr us
sl as
Ġlaik omi
Ġbend ravimo
Ġatr ink
Ġpartn eriÅ³
uol aiki
Ġpaskir tas
au liÅ³
ĠuÅ¾sis akyti
Ġpoli tiniÅ³
Ġjaus mÄħ
en Äįia
ĠdidÅ¾i oji
Ġsavan ori
ol Ä¯
Ġrank ose
Ġteritori jÄħ
Ġtr okÅ¡
ĠaiÅ¡k ino
ĠG ro
Å½ od
4 3
Ġarb atos
ĠÄ¯t eik
Ġb ÄĹd
Ġat vaizd
e cial
ĠÄ¯raÅ¡ Å³
oj ÄĻ
N auja
ĠneiÅ¡v engi
Ġlyd eris
Ġteks to
Ġv an
Ġrib os
Ġd av
ĠVar Å¡
Ġlaik inai
Ġ4 3
O P
tyn Å³
âĢľ ),
eg ul
Ġtur inti
Ġversl as
ÄĹj om
Ġpasp aud
Ġadminist ravimo
ov ok
Ġnuo bod
Ġreng inius
Ġrink tinÄĹ
os t
ĠuÅ¾s im
Ġgrei Äįio
eli ams
ĠbaÅ¾ny ÄįiÄħ
Ġf er
Gali ausiai
ĠpavirÅ¡ ius
Ġkal ÄĹd
Ġko Å¡
Ġsve tim
Ġb an
Ġgab en
ĠdrÄĹg mÄĹs
5 8
Ġsprend imu
ĠÄ¯k Å«rÄĹ
Gr up
Ġveter inarijos
ĠJ ei
am bi
ĠpripaÅ¾ ino
Ġpasikei tÄĹ
Ġlink ÄĻ
ĠÅ¾mog umi
Ġank sti
K az
ĠAlgird as
Ġsve Äįius
ĠuÅ¾k and
Ġporeiki Å³
ĠpanaÅ¡ aus
ĠP oli
Å¡ as
Ġpag erb
un t
Ġkontroli uoti
Ġskaus mo
ĠT i
aus kite
e y
Ġlik ti
E G
ĠÅ¾od Å¾iu
ĠÄ¯kur tas
In d
Ġpri jung
esi u
olog as
ĠÅ¾em ÄĹ
ang oje
Ġskiri amas
Ġf ol
ĠA G
Ġrad o
Ġturnyr o
Ġvis oki
Ġneb eg
ĠaukÅ¡ tas
Ġgi liai
or Ä¯
Ġpapras Äįiausiai
Ġsm ag
Å½al girio
Ġg ied
N ak
ĠÅ¾ alÄħ
I Å²
Ġnar ÄĹs
ĠlÅ«p Å³
Ġpriek yje
end a
Ġ4 7
k uri
Ġl ÄħsteliÅ³
Ġmod elÄ¯
ran sp
ĠT er
Ġskir tingi
Kit aip
Ðµ Ð
Ġvid urio
ĠkÅ«r inys
ĠkÅ«r imas
Ġtik ÄĹtina
Ġpri vers
Ġinte g
S ocial
Ġskl ypo
ĠAmeri koje
Ġkvie Äįiami
Ġinstitu tas
Ġcharak teris
ĠM od
4 1
m ÄĹn
uotoj as
yn os
Ã ·
Ġtau r
ĠÄ¯ pareig
Ġnuol aidos
Ġdraug as
Ġprad ÄĹs
ĠÅ¾em ÄĹje
ĠV eng
Ġsos tinÄĹje
ĠT ik
Ġgatv iÅ³
Ġrekon struk
Ġas tr
Å«r Å³
Ġskir tumas
Ġn r
Ġpoky Äįius
ĠaukÅ¡ te
im pi
ĠLatv ijoje
T S
Ġilg alai
ĠC ar
Ġklas ÄĹ
ĠÄ¯staig a
Ġoper acijos
Äį d
Ġnurod ÄĹ
Ġj omis
Ġgyv yb
Ġki toms
aid imai
Ġlaikotarp io
Ġrankov iÅ³
Ġat kr
Ġtur istÅ³
ÄĹlyn a
st er
Ġgr an
ĠG rig
ĠpaÄįi ame
Ġg um
ĠV it
uog iÅ³
ĠparuoÅ¡ ti
Ġb egal
Ġvarik lis
Ġkal no
st os
anti eji
ĠAnd rius
c el
l en
ĠneiÅ¡ s
Ġdir v
toj imo
Ġvad as
Ġbu tÅ³
ĠÅ¡vies a
G eguÅ¾ÄĹs
ici Å¡kai
Ġelektron iniu
tel e
Ġti ri
Ġang li
d avau
Ä «
t ini
Ġveik imo
Ġsum os
Ġri tu
Ġkomunik acijos
Ġrom anti
Ġr ub
ĠneÄ¯ si
Ġsek und
Ġ199 1
Ġel gi
ĠiÅ¡ aiÅ¡k
ĠiÅ¡ ki
at ais
ÄĹl imo
tech ni
Ġteik imo
J uod
ĠpaÅ¾ eidÅ¾i
ĠÅ¡un Å³
ĠÄ¯ kr
Ġtruk mÄĹ
Ġd an
Ġsusik aup
Ġdi alog
Ġkoncer tas
Ġklien tai
ul ÄĹs
Ġd ik
Ġ4 1
Ġpriim tas
Ġsur engÄĹ
ar us
Ġf antaz
Ġpers eki
Ġkomp ak
Ġ[ ...]
Ġprad ÄĹta
Ġtem os
tom a
Ġjuos ta
ĠE gip
ĠC om
ĠmaÅ¾ os
v alio
Ġlaikotarp is
Ġmoksl iniÅ³
Ġstai g
trauk a
ra cijÄħ
Ġstud entams
ĠmaÅ¾ inti
iest yje
oks id
n ame
ien Äħ
ĠkÅ«r iniai
ĠÅ¾aid imus
Ġvalst ybÄĻ
iem uo
v ej
ĠÅł ar
Ġgyd yti
ĠposÄĹd yje
Ġpav ed
var kos
An g
ĠL aim
ali aus
li f
in antys
Ġtu al
ĠÄ¯staig ose
Par od
ĠJÄĹz aus
b ÄĹ
et ui
Ġtvark yti
au ta
Ġkon teks
Ġsun kv
Ġsri ub
Ġfirm os
Ġsk er
Ġrekl ama
Ġlig omis
Ġkri tik
U ni
acij oms
Tur bÅ«t
Ġvaik ystÄĹs
Ġatliek ami
ĠÅ¡vies Äħ
ĠaukÅ¡ tÄħ
ĠT al
Ġvarik lio
M W
uk ams
Ġnes is
id ro
Ġr ied
Ġprad ÄĹtas
Ġproces us
ĠÄ¯g yti
Ġorganiz atoriai
red ien
Ġnor Äħ
D K
Ġkonferen cijos
ĠV Å¡Ä®
Ġsusij usius
Ġpacien tÅ³
Å¡ tas
Ġl ov
esn iems
ingi ausiÅ³
P apras
Ġod ontolog
Ġ eli
Ġskaus mÄħ
ĠP ra
ĠÂ ·
ĠD om
ĠA g
Ġnaudoj asi
Ġnaudoj imas
Ġpaj amas
Ġtvirtin o
ir as
al ans
ĠÅ¡il tas
Ġjaun Å³
Ġpr etend
Ġre pr
Ġbendruomen iÅ³
R ud
Ġrink imus
Ġm eÅ¡k
Ġjaus mus
tim ui
c entr
Ġamerik ieÄįiÅ³
G oogle
ĠBal tic
ĠpanaÅ¡ us
es iÅ³
ĠbÅ«d o
Ġnuv aÅ¾i
Tur ime
Ġvisuomen ÄĻ
Ġrezultat yv
ĠL aik
ĠI V
ĠJ er
Ġsaul ÄĹ
B Å«d
a w
Ġvien ai
Ġdrabu Å¾ius
Ġing redien
Ġkep imo
Ġkryp tis
t uota
Ġpad angos
ĠKlaipÄĹd a
Ġteat re
Ġplan uojama
Sieki ant
ĠuÅ¾sak ymo
Ġs tim
ini a
Ġry tus
ĠÅ¡ ep
Ġprie l
Ġgamin ami
Ġ8 6
Ġrinkod aros
Ġsk un
yb ÄĹms
ÄĹl e
ÄĹj ant
9 2
Ġsunkv eÅ¾
ton e
ĠF or
Ġrank Äħ
R eik
Ġvaik inas
Ġkonferen cija
m ail
si o
ĠNepriklausom ybÄĹs
ykl Å³
Ġl atv
Ġtik imybÄĹ
Ġpatik im
Ġnem ÄĹg
f i
Ġties Äħ
Ġm uÅ¡
Ġkrov iniÅ³
Ġp lius
Ġnuotaik Äħ
Ġbi Äįi
B eveik
ur k
Ġnar ius
Ġdeb es
Ġj ose
yt ÄĻ
ĠÄ¯vairi omis
Ġskirting as
Ġgal ÄĹtume
ĠD e
il ÄĹ
Ġ9 5
Ġgal imas
ar giai
ais e
S B
Ġpasir enk
ĠÅ¾ino te
iÅ¡k umÄħ
ĠreÅ¾is ierius
Ġv eg
ĠR eg
k g
Nauj as
ĠK o
Ġn ame
Ġnes ul
Ġsusid uria
Ġveiksm ai
Ġidenti fik
ev a
ros oft
Ġneabejo tinai
Ġkunig as
Ġfestival yje
esp ond
Ġpakar to
V D
Ġpadar yta
G amin
Ġprat ÄĻs
Ġr usi
ĠryÅ¡ ys
Ġpatar imÅ³
ĠJ as
Ġgarb ÄĹs
Ġalb umas
ul ti
Ġt avÄĻs
Ġlap Å³
Ġs il
o od
Ġaps kai
and Å³
Ġdra b
SiÅ«l ome
ĠS ovietÅ³
p e
Ġilg as
ĠkÅ«r yba
iz mo
Ġkri z
Pan ev
ed ija
ĠPrancÅ«z ijoje
ĠdÅ¾iaugs mo
Ġpl ÄĹÅ¡
Ġvis oms
f unk
ĠuÅ¾s ir
ĠvieÅ¡b utyje
Ġpal aim
ĠJapon ijos
viz i
X X
Ġagent Å«ros
Ġkar ta
ĠJ ank
Ġ uod
Ġpask amb
d ai
Ġkon stitu
Ġh oriz
Ä¯ sti
V ÄĹl
Ġskry dÅ¾iÅ³
ĠiÅ¡rink tas
Vis Äħ
Ġnetr Å«k
Atr odo
200 6
Ġpal iek
Ġlauk ÄĹ
A ti
Ġmin utÄĹs
Ġsusitik ti
tuv u
rav imÄħ
ĠlÅ«kes Äįius
Auto mobi
ĠÅ¾ ada
Ġkomand oje
ĠdeÅ¡imt metÄ¯
ta cijÄħ
Ġpat virtina
Ġneb ent
Ġbendr oviÅ³
Ġerdv ÄĹ
ĠG el
Ġprisid ÄĹjo
ÄĹli ais
Ġatm inties
Ġgaranti ja
At lik
ĠJ urb
Ġplo to
Ġpirk imÅ³
Ġmas ÄĹs
ĠAf rikos
Ġkil ogr
Ġk in
Ġkalb omis
Ġbuv ome
Ġpat obul
N etr
Ġp ama
ch e
Ġpak vietÄĹ
ok a
Å¡k umas
Ġf raz
Ġger ti
aus t
ac inis
Ġlengv as
ĠÅ¡ on
ul s
, -
ĠnÄĹÅ¡ tumo
Susi tik
Ġbal ans
oj ami
Ġpak raÅ¡
Ġkalb ant
Ġkel eiviÅ³
ĠPas aul
ĠapaÄįi oje
Ġmokes Äįius
Ġd Å«
Ġt rik
ĠatsiÅ¾vel g
Ġcentr Å³
l ÄĻ
Ġv ab
dom os
ĠpanaÅ¡ i
Ġsvetain ÄĻ
K ep
Ġpasir yÅ¾
Ġproduk cijos
Ġplo Äįio
ĠÅłved ijos
9 7
in tÄ¯
f on
Ġasmen is
Ġpak eis
ĠiÅ¡si g
Ġnor ÄĹdami
Ġetap e
c tion
Ġpri dÄĹ
Ġinst ali
Ġnuomon ÄĹ
b os
ĠR en
ĠsÄħraÅ¡ o
Ġsuk el
Ġlaik osi
Ġturnyr e
Ġatg aiv
ĠJ am
Ġgimnaz ijoje
Ġte or
Ġdarb u
Ġlyg oje
Ġnacional inio
b and
ĠpaÅ¾eid imÅ³
Ġdv ik
Ġobjek tus
Ġgam toje
Ġreng imo
V ir
ĠlÄĹÅ¡ as
ĠÅ¡vent es
Ġtre Äįd
ĠL ib
Ġtelef onÄħ
ĠC i
Or ganiz
200 0
ut inio
O T
Ġatsisak ÄĹ
in kiÅ³
iek aiÅ¡
Ġsus k
U M
an u
ul ÄĹ
Ġsu pil
Ġkom ent
Ġsie los
te ka
Ġved ÄĹja
Ġatvir kÅ¡Äįiai
un kiai
Ġanaliz ÄĹ
Ġmerg inÅ³
tu osi
od i
egistr uoti
ain os
Ġmen iu
ĠUr b
ĠG u
Ġkated ros
T er
V T
tos i
Ġvis uose
Ġsus p
Sp alva
ã Ģ
r ink
, ...
ac inÄĹ
Ġdid esnÄĹs
aid Äħ
Ġre aliai
An tra
ĠK ybar
Ġkiem e
eng va
ter Ä¯
Ġgalv oje
Ġpapras Äįiau
Åł alia
ĠlaiÅ¡k Äħ
s im
Ġaug int
Ġim per
Ġau toriaus
ĠaukÅ¡ tÅ³
Vis ada
Ġpastar uoju
Es ame
ĠT e
Ġpoez ijos
Ġprogr es
M et
u Äįiai
Ġarch eolog
Ġek str
ĠmÄĹgst ami
Ġkr y
Ġnes ir
Ġpateik ta
Ñģ ÑĤ
ĠvirÅ¡ Å³
Ġaval ynÄĹ
ĠÅ¡ auk
Ġbyl os
ĠÅ¡ amp
am inas
Äįi ant
ym os
Ġ199 9
ĠuÅ¾ l
Ġpar engti
d amiesi
Å«d ij
t yr
Ġgr yb
Ġpagrind iniai
P us
ĠvÄĹ Å¾io
Ġvis omis
Ġpl uoÅ¡
aud ÄĹ
Ġsn iego
ĠpasiÅ«l ymÄħ
Ġsand ÄĹli
ĠA plinkos
Ġmie go
and ens
el si
Gr Ä¯Å¾
Ġnus is
Ġsuv aÅ¾i
Ġplan uoja
Ġpl au
Ġn i
Ġspecialis tÄĹ
Ġdetal es
Ġpoky Äįiai
Ġrad i
Ġdvasi os
pr at
Ġmer o
Ġgrei tis
in Äįius
Ġsupl an
Ġdr amos
ĠK aip
ĠMind augas
ĠÅ¡i to
Ġturnyr as
Ġtransp ort
Ġadres Äħ
Ġdid esnÄĻ
ĠpabrÄĹ Å¾ia
Ġgam ina
Ġmie lai
ur kÅ¡
on es
ĠV isi
ol a
ĠAt l
Ġkop ly
Ġpaj amos
Ġgim tadien
ek a
Ġkap i
Ġku pr
Ġjud ÄĹti
Ġjaun imas
ĠuÅ¾ kr
Ġfond Å³
Ġd angos
Ġvyk si
aliz acija
Ġinteres us
Ġnus prÄĻs
Ġdrus ka
ĠJ ak
Ġatsir asti
Ġneb ÄĹra
Ġpra Å¾
Ġkonstruk cijos
m ais
om ai
ĠF il
Ġreguliar iai
Ġs tori
Ġmo tinos
al inio
Ġsvarb Äħ
Ġm ol
Ġobjek tas
S ant
Ġjau Äįia
ĠP h
Ġagres yv
Ġpav arg
ĠItal ijoje
ĠK am
en cijÄħ
osi ose
Se imo
ra j
Ġagent Å«ra
un tÄĹ
Ġriz ika
bl og
I AI
Å¾ eng
Ġvyk dymo
Ġkak lo
Ġvad yb
Ġskirting us
Ġ( -
v ÄĹ
ĠkarÅ¡ to
t av
Ġg ard
Ġket v
Ġdv ejus
ĠÅ¾v ak
Kiekvien a
ĠÅ¡oki o
ĠÅ¾in ojo
iet ÄĻ
Ġpasir eiÅ¡kia
ĠÅ½ al
Ġarki vyskup
Ġtaik omas
aid Å³
Ġb as
ĠL ap
uv a
Ġ6 8
dar Å¾
J Äħ
ank st
7 1
ĠL ab
Ġ5 8
Å¾i Å«ra
ĠA ukÅ¡Äįi
tu kÅ³
Å¾i ui
Ġtur ÄĹsite
Ġpusi au
K Å«r
ali oje
ĠÅ¡vel niai
Ġpam aÅ¾u
Ġi kiteis
Ġpriesk on
ki ams
aliz uoti
Ġt auti
ĠaikÅ¡ tÄĹs
Ġnes ut
T ais
Ġak torius
Ġsep tyni
ib li
n am
ri kas
aiÅ¡i ad
Ġl aiki
Ġlyg inant
ĠRase iniÅ³
Ġh idr
Ġsul aik
Ġpuiki os
Ġap yv
ĠS T
Ġnug ar
Ġhtt ps
Ġkriteri jus
v yl
Ġvadin ami
tik s
Ġsug ad
ĠraÅ¡ ytojas
ĠvirÅ¡ aus
ĠÄ¯ am
Ġvai vad
Ġpasin aud
ĠuÅ¾ r
ĠÅ¾aid ÄĹjas
ĠdÅ¾iaug ÄĹsi
ĠVal d
Ġvairuotoj o
is as
u ti
Ġpat ri
Å½mog us
irg in
ni u
Ġpra ÄĹjus
Ġnetek o
Ġeleg anti
P aÅ¡
Ġaug alai
iz mas
Ġorganiz avo
Ġgydytoj o
7 6
9 6
Å¡k ÄĹ
An d
ĠN av
m ei
Ġne va
Ġtur ÄĹjau
ĠiÅ¡lik o
Ġsuaug usiÅ³jÅ³
Ġsugeb ÄĹjo
ĠR em
ograf ija
Ġel ek
Ġim pl
Ġil gi
ĠuÅ¾ tenka
ed ijos
ĠS aulius
Ġsusitik imÄħ
Ġpad ÄĹtÅ³
Ø §
Ġs iÅ³sti
Ġkuri oms
Ġpasirod yti
Ġmoksl ininkÅ³
Ġpr esti
Äį ienÄĹ
aud as
Ġpalaik ymo
Ġpasip uoÅ¡
At sis
Ġsugeb a
Ġkomplek tas
Ġkl imato
J iems
ĠgrieÅ¾ tai
Ġmed ik
Ġpapasak ojo
Ġkar as
Ġsov ietÅ³
Ġbes ik
ti enos
yd er
ĠuÅ¾pil d
Ġsen o
aik os
ĠPard av
Ġg ud
Ġci gar
ĠiÅ¡l eistas
Ġgal ÄĹtumÄĹte
ĠP ap
ĠR um
Ġatsis p
tar o
Ġpirm uosius
ĠtreÄįi Äħ
man o
Ġv ÄĹs
oj aus
ĠÅ¡i uolaiki
Ġrung tyni
Ġlang o
ĠÄ¯r ank
Ġalb umÄħ
Ġnup irk
y te
Ġkor telÄĹs
l d
Ġimp erijos
ĠAngli jos
ykl Äħ
Ġnep aprastai
Ġre abili
Ġfak tas
kir p
ausi omis
Ġpri Å¾iÅ«rÄĹti
ĠÅ¾ enk
Ġgydytoj ai
ĠH D
Ġsum uÅ¡
od avo
ĠJ u
yv ena
Ġvis u
Ġtradi cija
Ġpuslap io
S P
ĠI s
Ġdang aus
Ġram ybÄĹs
ĠM es
Ġjuos tos
Ġd yk
Ġjaun as
ry Å¾
et ÄĻ
Ġl im
Ġpatiek alÅ³
ĠÄħÅ¾ uol
Ġdarb ais
Ġtam siai
Ġli zd
Ġaptar ti
ank a
es tin
Ġak cija
ink ime
Ġpasku tinis
Ġbr olis
Ġsen Å³
ĠÅ¡ tab
Ġdid ÄĹja
ĠÐ ¿
Ġman ymu
ni ui
Ġsm Å«g
ĠÅ¡il d
Ġdovan os
Ġpagrind inio
Ġsurink o
Ġgr un
Ġl ÄĹ
Vien i
Ġraj onas
Ġpan or
Ġnugal ÄĹjo
Ġnen u
J oje
Ġvien iÅ¡
Å« st
Ġpam inÄĹ
ĠH ar
Ġtr um
ili ja
var i
ĠvertÄĹ tÅ³
Ġpenki as
Ġorganiz me
ĠA ir
sm uo
ĀĀĀĀĀĀĀĀĀĀĀĀĀĀĀĀ ĀĀĀĀĀĀĀĀĀĀĀĀĀĀĀĀ
p ra
Ġpapildom as
k ab
en ai
Ġnacional inÄĹs
et es
Ġnek alb
Ġpri lyg
bi liz
M ÄĹg
Ġsutik ti
Ġtechn inÄĹs
Ġstebuk l
i fik
Ġp up
ĠlÄĹk Å¡
imas is
Ġaug ti
aliz mo
Ġsusij usios
Ġprofil ak
Ġteri tor
Ġal k
Ġadministra cija
tinink as
Åłiau liÅ³
Ġti p
ĠÅ¾urn al
f r
Ġypat ingÄħ
ieri ai
od ama
Ġlauk Äħ
Ġelg esÄ¯
Ġpasirink o
Ġv ÄĹd
Ġspaud ai
Ġan tik
var st
Ġmyg tukÄħ
Ġim pr
ĠnatÅ«r alios
c inÄĹ
al g
Med Å¾i
h tt
Ġeksper tai
imas i
ĠvarÅ¾yb as
7 4
Ġnemok amas
k yr
Ġvar tÅ³
Ġriz ikÄħ
Ġpraei ties
s on
Ġprod ius
ĠÄ¯mon ÄĻ
Ġ5 6
Sv etain
Ã ³
Ġpas ist
Ġnu traukti
ĠPet ras
Ġtik tÅ³
ĠD av
Ġpriver sti
ĠiÅ¡or ÄĹs
Ġnuotaik a
tr y
k am
ĠtaÅ¡k o
or b
ur od
Ġd ieg
ĠÄ¯dom iÅ³
Ġatlik tas
Ġsu tink
Ġdvasi a
ĠS ib
Ġet er
r Å«s
Ġar eÅ¡
Ġvad inti
Ġnaud ingas
ĠmaÅ¾ Äħ
Ġrefer end
Ġsu tinka
tor ÄĹs
Ġtikr us
Ġatvir ai
ĠL aisvÄĹs
ov ams
Ġket ina
i to
ĠpraÅ¡ o
Ġkontr olÄĹ
I EN
oc k
Ġsus ie
Ġduk ra
Ġatsakom ybÄĹ
ĠiÅ¡ klaus
Ġpavad inimu
Ġv entili
Ġantr as
Ġvarto tojai
ri z
Ġk ub
Ġtink ama
yn us
Ġsal ÄĹ
Ġger bi
Ġapgyvend inimo
Ġpaskelb ti
gi us
Ġtur inys
ek ÄĹ
ins ko
ĠÄ¯v eik
Ġpasi tel
an cijos
ĠI sl
BirÅ¾ elio
ĠpÄĹd sak
l aik
Ġkl asi
ĠS ch
7 9
Ġp Å«s
Ġskirting ai
Ġof icial
EL FI
Ġtink las
ĠrÅ« muose
Ġd o
ĠkÅ«r inius
Ġneb es
Ġsusi Å¾
f l
ym ams
S M
ĠkÅ«r ÄĹ
Ġpusi aus
Ġs ir
. -
g alv
Ġgyv as
Ġgyven imu
ĠdÄĹv ÄĹti
ĠJ aun
b urg
Ġgyv ai
T V
R om
ĠS tep
B u
em at
Ġlaikotar pi
Ġvyr esni
Ġnuo tol
og i
Ġbaigi asi
Ġ8 00
em inis
Ġlietuv iÅ¡kai
in av
Ġsk al
b ÄĹs
ĠÅ¾ai zd
ci Å¡k
ĠkÅ«r ÄĹjai
Ġapim tis
Ġporeik Ä¯
id om
Ġstipr inti
t iniams
Ġsod ybos
Ġkr anto
ĠG am
Ġlyti es
ĠÄ¯d ÄĹti
Ġt ÄĻsti
oj asi
enk ÄĹ
g u
ĠSe imas
Ġorganiz mas
Ġdom ina
ĠgrÄ¯Å¾ ta
Ġpatvirtin ti
Ġl ovos
Ġatskl eidÄĹ
um er
B us
ĠprieÅ¾iÅ«r Äħ
5 9
Ġl aidos
yb inio
Ġpaskol Äħ
Ġap Å¾iÅ«rÄĹti
Ġprat ur
yr ank
in anÄįios
Ġorganiz avimo
Ġpagalv oti
g lob
ĠiÅ¡ eiti
Ġtaik omos
ĠG ud
Ġbald us
N atÅ«r
Ġmok osi
ĠiÅ¡ ver
ĠJÄĹz us
N uol
ĠpanaÅ¡ Å«s
Ġmin utÄĻ
R ez
ĠJung tiniÅ³
ĠveÅ¾ im
ĠK aina
Ġtiks liau
n ink
Ġgali Äħ
Ġkon stat
Ġnustat ÄĹ
ĠP ab
Ġpried ai
Ġap kal
Ġatk ak
ind ama
Ġkambar iÅ³
Ġpatrauk li
Ġtaik omi
Ġburn os
IM AS
aud amas
ĠiÅ¡g ird
Ġsuk uri
Ġapskri tyje
ĠS od
Vasar io
ĠÅ¾in om
ĠN o
ÄĹjusi Äħ
ĠuÅ¾ klaus
ĠLa zd
Ġvitamin Å³
Ġkuri ant
ro id
Ġes mÄĹ
or u
Ġtur ÄĹtumÄĹte
Ġfiz inio
Ġnak ties
r eng
or ÄĹ
Ġkor eg
Ġval do
Inter net
ais t
Ġt ok
ĠkÅ«r ÄĹjÅ³
ĠrÅ«p inasi
Toki os
b rÄĹÅ¾
ĠO land
Bal andÅ¾io
Ġ( ,
Ġnu teis
Ġ5 2
Ġgl aud
Ġm g
Ġapd irb
Ġr edag
Ġfil me
ĠmiÅ¡k e
ĠÄ¯ dÄĹ
Ġkar alius
ĠÄ¯vyk d
Ġkeis ta
Ġdang Å³
Ġstruk tÅ«ra
Ġko ali
Ã ¤
ie Äįio
aiÅ¡k os
ing omis
V ol
ĠpaÄįi ais
Ġnev yk
200 5
an us
Ġinform uoti
t uoju
ĠiÅ¡v is
Ġd antis
ĠÄĮ eki
li ukai
and Ä¯
Ġl yt
Ġsusid Å«r
Ġg ausite
Ġgatv ÄĹ
men inÄĹs
ï¿½ï¿½ ï¿½
Ġkapit alo
ĠsÄħ j
Ġkarali aus
Ġ4 9
Ġal iejÅ³
Ġb eg
Ġpenk is
Ġdain as
Pas aul
Ġnes il
Ġlang us
Ġreiki amÄħ
Ġbyl oje
ĠÄ¯g ali
ĠÄ¯mon ÄĹje
elsi ant
ri ausiai
Ġfunk cion
inter es
Ġatskl eidÅ¾ia
V ytau
Ġsvarb iÅ³
Ġinvest uoti
m er
ri p
Ġ omen
Ġnor imÄħ
V irÅ¡
L yg
ĠKaz imie
Ġ199 8
Ġpak uotÄĹs
ĠAn ykÅ¡ÄįiÅ³
audÅ¾i a
200 4
Ġtem Äħ
Ġnor ÄĹjau
ĠpraneÅ¡ ti
Ġkar iai
ĠP ad
Ġtap tÅ³
ĠÅ¾enkl ai
Ġatk eli
eivi ams
Ġgel ton
Ġnumat yti
Ġprofes inÄĹs
Ġol impi
ĠbÅ«d us
Ġreng inyje
ĠS te
ĠiÅ¡s ir
ĠÅ¾uv Å³
Pirm oji
Ġpirm ininkÄĹ
cik lop
g Å³
Ġnel eg
Ġes antÄ¯
Ä¯ Å¡
Ġgyven s
ĠiÅ¡v yko
Netr ukus
Ġsusitik o
ĠpradÅ¾i Äħ
Ġd ÄĹti
Ġbrand uol
Ġb ÄĹgi
T iki
ĠÄ¯sig ij
Ġtelef onÅ³
Ġdokum entÄħ
k im
ĠÅ¾ ir
ĠIgn al
lio ti
Ġmen Å³
Ġvert ybes
Ġmod eliai
Ġsusi gr
Ġmen as
Ġpor tr
i osios
Ek sp
Ġgim inai
Ġlem p
N acional
Ġligon inÄĹje
Ġfon das
Ġkur so
ki Å¡
ĠkvÄĹp avimo
to na
Ġprisim ena
5 6
Ġsusid aro
ĠS ant
ul a
Ġvarto tojo
Ġb ali
eks as
y tum
ator ÄĹ
an ce
Ġdepartamen tas
Ġpavard ÄĹ
in ui
ta bu
UÅ¾ s
Ġrink ti
Ġpaskol Å³
ad Äħ
iur li
Ġatkur ti
ĠM ag
ĠiÅ¡m aiÅ¡
Å«r as
Dr aug
ĠÅ¾uv ies
Ġdaug ybÄĹs
ĠmaÅ¾ ÄĹja
Ġnuorod Äħ
g yvend
Ġtekst Äħ
oj Å³
Ġatskir ti
Ġpavoj Å³
kl as
ĠdraudÅ¾i ama
Ġkokyb iÅ¡kai
ĠÅ¾ arn
ĠO n
ĠÅ¡i omis
S h
ank Å¡
ĠvÄĹ liav
ĠÄ¯ran kiai
ĠP aulius
Ġelektron inÄĹs
ĠÄ¯sitik inÄĻs
tin ÄĹms
ĠparaÅ¡ yta
S an
Valst ybÄĹs
Ġkur or
ĠkraÅ¡ tÄħ
ĠLond one
Ġprim en
ank os
ĠÅ¡v ed
Ġkurs ai
Ġnepr iekaiÅ¡
Ġklini k
Ġproced Å«ra
ĠKonstitu cijos
Ġgal ÄĹÄįiau
" ).
ĠÄ¯ran kiÅ³
âĢĻ ,
ol Å¡
Ġlietuv is
Ġproduk tÄħ
Ġsen as
Ġam bi
Ġpatik sl
ĠS lov
Ġatsikr atyti
Ġpolitik Å³
Å¡ os
Ġpasid om
Ġsusirink o
o tÄħ
el as
Ġreikal ingos
ri bu
Ġnuotaik os
ĠiÅ¡si k
Atsi Å¾vel
c l
IÅ¡ matavimai
Ġkoncer tÅ³
at ui
ni as
ĠÅłven Äįi
Kiekvien Äħ
Ġpas to
Ġpiet vakar
S aug
er t
B aig
Ġgrei tas
Ġsien Äħ
ĠGr uz
ĠpalÅ«k anÅ³
ing oje
os o
Ġpaskelb ta
ĠÄ¯stat ymus
ĠnatÅ«r alus
Ġbal tos
Ġiniciatyv os
otel s
Ġtik tai
Ġat eis
Ġs irg
ev o
ĠleidÅ¾i ama
in Äįios
Ġtrump Äħ
ĠL ink
Ġpaskir st
Ġnerv Å³
ol l
Ġkei Äįia
ĠVar ÄĹn
ä º
ĠK unig
ĠmaÅ¾ ina
Ġg aila
f ek
Ġeksper tÅ³
Ġkosme tikos
I U
et iniÅ³
Ġteis ingumo
Vis iÅ¡kai
Ñ ĩ
Ġnepr al
Ġproces Å³
Ġtrans form
Ġorgan Å³
P et
ĠÅ¾vaigÅ¾d ÄĹs
ĠM or
ĠÄ¯v eikÄĹ
Ġg es
Äįi usi
ang omis
Ġatliek ant
Ġvyriaus ybÄĹ
ĠO b
5 3
Ġf ron
ĠÄ¯sivaizd uoti
auto bus
p in
ap usi
am umo
ĠaikÅ¡tel ÄĹje
ĠMar ija
Ġporeik is
Ġties os
uot es
ĠK u
Ġpati ria
Ġr oko
Å¡ Äħ
eri ui
Ġpal ink
Ġl ÄĹtai
Am eri
Ġpus iÅ³
ro Å¾
Ġpirm os
ĠKomis ija
ĠA dom
bÅ« tÅ³
L e
Ġl ÄĹmÄĹ
ĠÄ¯vairi uose
F A
ĠÄ¯vyk s
ĠÄ¯vai zdÅ¾i
Ġpatar ia
Ġpasitik ÄĹjimÄħ
tikr inti
ĠSveik atos
Ġvadovauj antis
Ġne form
Ġaug o
ep i
Ġsav yje
Pris tat
Ġmiest elyje
Ġpil ieÄįiai
ĠX VI
5 4
ĠAz ijos
ĠÅ¡il ta
Ġkil ÄĻs
Ġinfrastruk tÅ«ros
Ġdid esnio
Ġim un
ĠapraÅ¡ ymas
c eli
Ġpapras Äįi
Ġperk elti
Pran cÅ«z
ov ui
ĠiÅ¡ mat
ĠÄ¯g alio
Ġparti jÅ³
Ġatspind i
Ġbals Å³
% ,
P K
Ġoper atyv
Es ant
Ġsuteik ta
Ġsimbol is
ĠÅ¾ ar
7 2
Ġpoli c
Ġpra ÄĹjusiÅ³
Ġmeto das
id a
Niek o
Å³ jÄ¯
ĠplÄĹ tra
eipi a
Ġsri tÄ¯
er alÅ³
ĠÄ¯dom i
Ġd ulk
Ġd ok
ĠiÅ¡gyven ti
B l
Ġdraug us
Ġgr aikÅ³
Ġsup irk
Ġbendradarbi avimÄħ
Ġvairuotoj ai
Ġnauj ienos
Ġstat ybÅ³
Ġjuod os
ie Äįius
Ġr ytoj
ĠVokieti ja
? ?
Ġilius tr
an ijoje
Ġstandar tus
Ġnek al
Ġur ÄĹd
iÅ¡k umas
ĠplokÅ¡ tÄĹs
Ġinov atyv
ĠÅ¡vie Å¾i
Ġrink a
Ġtr unka
Ġsal ÄĹs
Ġekonom inÄĹs
p iÅ³
Ġbuv usio
Ġl y
ĠRad vili
ek as
Ġstim uli
Ġpakank a
ĠpaÅ¾ angi
Ġdaik tai
ĠVyriaus ybÄĹ
Ġtaik os
ortu gal
Ġkokyb iÅ¡kas
200 3
at ur
Ġap a
Ġfol kl
ak alb
ĠgÄĹr imÅ³
ĠprieÅ¾as tys
ãĤ¢ãĤ¢ãĤ¢ãĤ¢ ãĤ¢ãĤ¢ãĤ¢ãĤ¢
Ġvanden iui
Ġpas ij
Ġ18 0
ĠiÅ¡k el
Ä®dom u
Ġapib endr
Ġned elsiant
Ġmag net
Ġprofes inio
Å«n us
Ġpapras tÄħ
ĠÄį esn
s ko
Ġnegal ime
ĠG ri
ĠtÅ«kst anÄįius
ĠlietuviÅ¡k Å³
ĠB os
Ġsto ties
auj antys
ĠÄ¯ n
yt ei
Ġpe ties
ĠLond ono
Mo ter
ÄĹ tus
Ġpar engÄĹ
Ġvie tiniÅ³
Ġklas ÄĹje
Ġo pozi
Ġrod yti
DÅ¾i augi
em ti
ĠJ uli
Ġatliek ama
ĠkaÅ¾k ada
ad e
o ur
Ġint rig
ĠiÅ¡vaizd a
Ġl emi
Ġb audos
Ġpa Å¾iÅ«rÄĹti
ĠB ern
Ġbu to
6 2
Ġsustab dyti
ĠKÄĻstu tis
Ġ199 5
Ġpasieki a
Ġapylink ÄĹse
Ġpil vo
yn a
Ġpat eis
Ġp eÄįiÅ³
Ġik imok
Ġlietuv iams
ev er
v aj
in tai
Ġklub e
ĠDv asi
Ġkil ti
ĠIzra elio
Ġlik s
Ġproces e
N ug
Ġsusi b
Ġ199 7
ĠnebÅ« tinai
Ġkrik Å¡
c t
I G
ak a
ĠG i
yp e
Ġ199 2
Ġdar oma
ĠuÅ¾pil dyti
ĠÅ¾i bin
Sp eci
am inimo
Ġparod Äħ
P vz
Ġg ausiai
Ġkurs us
man tas
m aiÅ¡
Ġmas yv
gi ta
Man oma
ri jÅ³
Ġspind uliÅ³
Ġd ulkiÅ³
Ġtvir tai
tak ul
Ġkur jer
Ġpagrind Äħ
Ġdir ektyv
ĠÅ¡imt me
Ġsitu acijoje
Å¾ d
m atÅ³
Ġre Äįiau
Ġr ai
ĠÅ¾ai dÅ¾ia
Ġkito kiÅ³
Äįi am
ĠB NS
Ġver Äįia
Ġvari antÄħ
ĠmarÅ¡kinÄĹ liai
L A
Ġgaus a
Ġpaver sti
Ġform as
Ġpasir inkite
Ġsantyk is
ais ti
Ġpapildom os
D ÄĹk
Ġgydytoj Äħ
mo bil
Ġbend rijos
Ġprinci p
Ġkeli ai
Ġorganiz mui
D vi
Ġpras mÄĻ
Ġreng iniuose
Ġskelb imÅ³
Ġkvap Äħ
Ġnesk ub
Ġpak op
Ġprem ijos
ĠEurop Äħ
Ġvalstyb ÄĹje
ĠlÄĹÅ¡ os
Ġg a
Ġmeil e
Ġkodeks o
ĠI m
ĠPr Å«s
ĠnatÅ«r aliÅ³
Ġb ak
Ġpriek ab
Ġpad angÅ³
Ġgam ybai
Ġpasi imti
ĠdidÅ¾i ulis
il ÄĹs
egori jos
Ġsutrik imÅ³
ni a
ĠiÅ¡ trauk
Ġvairuotoj Å³
Å«s ta
Ġsuteiki ama
ĠG oogle
V yk
ĠV en
Ġreikal as
Ġnum erÄ¯
ĠÄ¯tam pos
om ojo
Ġlank y
Ġtinkl araÅ¡
Ġsp ektr
L enki
Ġauto rÄĹ
Ġry tuose
Ġtek sti
Ġpal ap
Ġatlik ta
ĠiÅ¡ pr
Ġnor o
Ġfoto apar
ĠaikÅ¡ telÄĹs
ĠpavyzdÅ¾i Å³
ĠR aÅ¡
Ġpergal ÄĹs
Ġdi ab
Ġekstr em
ĠpadÄĹti es
Ġnep aj
Ġpil ies
Ġatsis veik
ĠÅ¡il umÄħ
Ġlang Äħ
ĠLenki ja
Ġfil mai
Ġnedid elis
Ġsusir Å«p
' s
vi us
n elÄĹ
Ġnes in
Ġ5 9
ĠÄ¯g ijo
Ġpar os
Ġvad ybos
Ġnepriklausom ai
p ÄĹ
ys te
Ġbyl Äħ
ĠÄĹm ÄĹsi
ĠÅ¡ ali
Ġki b
Ġpavad inimo
Ġleid imo
Ġatskir Å³
5 7
ĠaukÅ¡ ta
Ġniek ad
Ġkompiuter Ä¯
ĠAnd ri
ĠÄįempion atas
Ġst end
Ġd ez
Ġpastat ai
Ġpro t
ymas is
Ġdi rig
ĠÅ¾ini omis
Ġbank Å³
Ġkai ri
Ġs tu
Ġteat r
Ġteig ti
Ġdis kr
et ur
Ġchar akteri
ĠÅ¡iukÅ¡ liÅ³
Ġelg esys
ĠTau tÅ³
Ġaug imÄħ
Ġbendr ai
Ġsav ijau
ÄĹn o
st an
Ġnes ig
à ¤
Ġnusi vyl
Ġmoksl as
Ġpra pl
Ġsak r
yder land
ĠDiev Äħ
âĢľ :
Ġtr aukia
Ġhig ienos
r Ä¯Å¾
ĠÄ¯ temp
ĠPar lamento
Ġreikal us
el a
Ġes te
Ġabej oniÅ³
V A
ir e
Ġaug inti
Ġskai to
ĠmaÅ¡ inÅ³
5 2
ĠÅ¡im tus
ĠkrikÅ¡Äįi oniÅ³
v yst
Ġas fal
Ġalium inio
Ġatsak ymÄħ
Ġentuzi as
ĠÅ¡i ose
Ġpaim ti
ĠaikÅ¡ telÄĹ
Åłi uolaik
S um
ol Å³
Å½ mon
Ġantr asis
7 00
Ġkvap as
ĠdeÅ¡imt meÄįio
ien tas
ĠKr em
A uÅ¡
Ġm am
Ġkeli auja
Ġtal en
telk ti
ĠprieÅ¡ ais
Ġteiki ama
ĠmaÅ¡ in
ri to
yb inis
Ġnaud ingi
Ġmat au
ki Äħ
tas i
k y
Ġrez id
dÅ¾i ui
Ġnaudoj imÄħ
ĠmÄĹg ÄĹjÅ³
au ro
Ġvit amino
Ġa er
ĠÄ¯vy kiai
is s
Ġki aul
Ġvyr Äħ
Ġpus an
ĠsunkveÅ¾ im
ori d
IJ OS
X V
Ġstov ÄĹjimo
oj antis
ĠB ron
Ġb enz
Ġ199 6
Vaik Å³
Ġdr eb
E x
Ġprim inÄĹ
ĠuÅ¾si im
n ep
Ġv ib
ĠÄ¯ p
Ġdu j
Ġkar t
Ġkei timas
ĠiÅ¡l yg
Ġsez onas
Ġpaskelb tas
B ar
Ġemo cijas
Ġpavel d
R eg
ĠT ais
Ġh idro
Ġnep apras
Ġ {
Ġe tikos
Ġrungtyn ÄĹs
Ġpas ien
Ġmod ifik
Ġmais tu
Ġdarbuotoj us
Ġsidab ro
tiÅ¡k os
ĠRoki Å¡kio
g aliÅ³
anÄįi ose
ÄĻ Å¡
ĠBas an
ĠÅ¾mog iÅ¡k
at er
ĠR oÅ¾
ĠPr ienÅ³
Ġvyri ausiasis
oj usi
ĠI l
tr u
Ġpamok os
Ġsus imÄħ
E g
L R
Ġv az
Ġaud iniÅ³
ĠbÄĹg ant
ĠbÅ«r ys
Ġdain Äħ
auj anti
ĠÅł is
Ġner e
Ġpasitik ÄĹjimo
Ġnepriklausom ybÄĻ
Ġsek ti
Ġklub Å³
Ġsal a
o tai
ĠsudÄĹ tis
Ġalb umo
Ġnepr is
Ġilg am
ĠB ag
ĠÅ¾vaigÅ¾ dÅ¾iÅ³
Ġpral eid
Ġsav ininkai
ĠlietuviÅ¡k os
ÄĹjusi o
te li
ĠuÅ¾ tr
Ġarchitek tÅ«r
Ġl enki
Ġeki pa
Ġdvigub ai
Ġpatik ÄĹti
Å« tÄĹ
Ġ5 4
Ġdemokr at
am Å¾iÅ³
Ġkit ame
ĠapÅ¡ il
Ġpo b
d ik
V eik
Ġlaiv Å³
Ġvel tui
ĠrÅ«Å¡ ys
in ÄĹjimas
ÄĹj ime
ang ai
uomen Å³
v at
ĠmaÅ¾ esnÄĹ
ĠNemun o
Ġsur engti
ĠiÅ¡s in
d al
l ie
Ġug dyti
Å« si
S A
Ġan ali
Ġgeneral inis
es as
Y pat
ĠS aulÄĹs
ĠÅłv Äį
% .
Ġrezultat u
Ġnustat ymo
ok Å³
ĠÄ¯rod yti
ali am
k st
Ġb akal
ĠVel yk
Ġvirtuv ÄĹ
ytoj ui
Ġviz u
Ġap Å¾vel
Ġsi uÅ¾
Ġfil mus
te liu
Ġdar ÄĹ
Ġpavoj us
ĠÅ¾vilg snio
Ġgalim ai
Ġstruk tÅ«ros
Si un
ĠF l
Ġmas aÅ¾
Ġsub alans
Turi u
Ġpalaid inÄĹ
7 3
Ġi sl
ĠT u
ĠÄ¯ trauki
Ġlab dar
uk e
dÅ¾i au
Ġup ÄĹ
al inÄĹ
ĠÅ¡ lai
Ġat ras
ĠW il
Ġpasku tinÄĹs
Ġpasibaig us
Ġl ek
ĠaukÅ¡ tai
on y
es ta
Ġes anÄįio
Ġgamin tojas
Ġned r
Ġpast angas
ti ki
ĠpaÅ¾ in
Ġsal oje
Ġatstov ÄĹ
aid ÄĹ
Ġnag Å³
ist iniÅ³
Ġnuostat Å³
Ġs fer
ĠÅ¡ ans
Ġsmeg en
Ġjaun imui
Å¾ uv
engi ant
Ġs chem
Ġpasau liui
Ġsu interes
T AS
auj u
Å«nai tÄĹ
ĠpaÅ¾ym ÄĹti
ĠRad vil
ĠM a
Ġt est
id ai
Ġmont avimas
Ð¸ Ð
Ġsuk eli
Ġs arg
Ġtr Äħ
Ġpil is
Ġmel od
ĠÅ¾urn alo
Ġintelek tu
Ġstori o
Ġpabaig a
dÅ¾i os
Ġsluok snis
Ġvai Å¡
r ganiz
s ÄĹj
Ġen ciklop
r op
Ġst ambi
Ġdalyv ius
Ġge ograf
M on
D is
Ġnel yg
Ġjau na
Ġpal ieka
ĠbÅ«d ai
Ġne var
ĠpaÅ¡ tas
ĠeÅ¾er as
H otels
Ġsusi tvark
Ġlyg a
Ġgyv Å«nai
ĠdeÅ¡imtme Äįius
ĠJung tinÄĹs
qu e
Sk elb
ĠU N
Ġtri ko
Ġb aj
Ġkamer a
r om
ĠÅ¡i tÄħ
Ġpati ri
Ġtarptau tinio
l yje
ÄĹg iÅ³
Ġkunig Å³
os p
a kius
E r
Ġpartn eriai
Ġdid esniÅ³
Ġkonc entr
Ġdr ama
Ġb aid
Ġpagamin ta
st ravo
Ġbilie tus
Ġmerg aitÄĹs
Ġobjek to
ĠR es
tyn iÅ³
ĠV ir
Ġbendradarb iauti
ĠT om
in kitÄĹs
Ġlo Å¡
kir sti
tori ui
ar is
j u
Ġapsis prend
ĠiÅ¡ raÅ¡
g in
ĠV irgin
Ġstudij uoti
ĠBri us
Ġkoj as
Ġnor intiems
Ġkraujagys liÅ³
Ġlik us
eÅ¡ i
Ġmaki aÅ¾o
Ġlog oti
Ġsl op
Ġat om
uoj amo
Ġparduotuv ÄĻ
Ġpris ik
Ġfo tos
ĠÄ¯reng iniai
Ġjaun Å³jÅ³
Ġid ÄĹj
F acebook
Ġsulauk ti
Ġskirting os
Ġaplink iniÅ³
Ġnuotrauk oje
Ġzon oje
Ġgalv oja
ĠuÅ¾d uoti
ĠatsiÅ¾vel gti
ĠakivaizdÅ¾i ai
ĠDiev ui
ĠE v
ĠS and
ĠneÄ¯ gal
Ġgars us
Ġsveik at
atu ir
Ġfinans inÄĹs
Ġmalon u
ĠK aiÅ¡iad
ĠX III
Ġg inti
Ġtarptau tinis
Pl aÄįiau
on omis
ĠreikÅ¡ mÄĹ
Ġaktu al
Ġkonkr et
Ġder a
Kalb ant
Ġsupr antu
Lab iausiai
ĠP au
Ġkomisari ato
Ġ1 10
Ġpamok as
ĠB ab
u tÄĹje
Ġdrab uÅ¾
Ġsveik Äħ
in siu
Ġneturi u
Ġp elÄĹs
Ġne utr
Ġd oc
Pras id
ĠkrÅ« tinÄĹs
ĠiÅ¡silav inimÄħ
Ġsmul ki
ot h
Ġtrenir uotÄĹs
ĠBirÅ¾ Å³
Ġstriuk ÄĹs
ĠÅ¡il um
Ġtinkl Äħ
li umi
Ġnes unkiai
Ġnam ams
ant ÄĹ
Ġatvej us
Pagrind inÄĹ
ĠNe w
ĠS ab
Ġveik sniÅ³
ĠsumaÅ¾ ina
kai to
ĠaukÅ¡ tyn
Ġsl ÄĹn
Ġati teko
Ġvykd oma
Ġ \
tr us
": "
Ġbendr os
Ġnu tol
Ġvai ro
Ġaktu ali
f os
ĠÄ¯sig ali
Ġteis e
ĠprocedÅ«r Å³
Str aip
L auk
Ġpav ien
ĠÄ¯raÅ¡ as
ĠdaÅ¾ ai
Ġmoter Ä¯
Ġkolektyv as
ĠPanevÄĹÅ¾ yje
Ġstat yba
Ã ¶
Ġad ap
M in
8 9
Ã ¼
id e
Ġlaik ÄĹ
Ġak Ä¯
Ġkomp lik
Ġdeg uo
Å½ iem
ĠLi ud
Ġprofesion alÅ³
Ð¾Ð ²
ĠbÅ« site
Ġpam uÅ¡
Ġmokykl as
Ne Å¾inau
ĠA ur
C entr
Ġpar eikal
Ġprek ÄĹ
Ġskai tÄĹ
ĠUni ver
Ġgimnaz ija
ĠuÅ¾si imti
Ġg ÄĹlÄĹs
oj os
ĠiÅ¡vaizd Äħ
Ġst ak
eiÅ¡k ÄĹ
ĠVid ur
h ol
ĠM erk
Ġbals as
Ġpakvies ti
Ġb ut
N el
Tik riausiai
akar toj
ĠValst ybinÄĹs
Ġapg alv
Ġstov ÄĹjo
ĠÅ¾vaigÅ¾ dÄĹ
Ġk W
k ap
Ġatsis kait
Ġtek a
Ġm and
ÄĹk ime
Ġuniversit et
Ġv alios
Pasir odo
uo mo
Ġkain omis
Ġsusisiek ti
Ġtelef onas
ĠJon avos
in amÄħ
m ies
ĠÅ¾i au
Ġvaizd ai
Ġmoderni z
m y
Niek as
Ġpopuliar us
Ġf ini
Ġsuaug usiems
Ġseks o
ĠuÅ¾ rak
Ġlaid Å³
ĠpraneÅ¡ imas
Nes eniai
Ġpro tÄĹ
es iai
Ġnereik ÄĹs
Ġmoksl eiviai
Ġsutvark yti
Ġnar iais
Per nai
Ġpageid auj
ul o
ing umu
is e
Ġs ag
Ġpras mÄĹs
Ġklien tas
ĠA li
Reng inio
tiesi og
Ġspeci fik
ĠdidÅ¾i Å³jÅ³
Ġmok ymai
Ġvyr u
S up
ĠvalstybÄĹs e
I Å¡k
ĠÄ¯k al
Ġpacien tams
ĠÅ¾iniaskl aid
At vyk
od as
Ġtechni kÄħ
le y
ĠÅ¾in omÅ³
Vilni uje
ĠÄ¯g al
ĠJ Å«r
ĠtÄĹ ra
Ġpertrauk os
ĠVlad im
Ġpatog Å«s
Ġgird ÄĹti
Ġver tik
Ġantr ÄħjÄħ
Ġbat eliai
ĠUkrain oje
Lie pos
Ġats argiai
Ġbilie tÅ³
N emok
Ġstres o
ult Å«r
ĠinÅ¾in er
s tis
Ġbaim ÄĹs
E P
Ġminti mis
Ġtiksl u
ĠneÄ¯ gali
Ġnuostat as
at h
Ġteiki amos
atv ÄĹs
ĠnepaÅ¾ Ä¯st
Ġtarn ybÄħ
Ġkonteks te
Ġd or
Ġapdovan oti
Ġ eid
Ġgr as
Ġten iso
Pran eÅ¡
uk so
ĠL au
Ġau toriai
Tik s
ci a
Ġgar siai
6 1
Â »
ĠKal var
Ġb ijo
Ġnaud a
Ġes anÄįius
ĠÄ¯raÅ¡ Äħ
ĠMind augo
Ġprog os
Ã Ń
pat s
Ġd on
Ġtradi cijos
ĠÅł irv
Ġsek asi
Ġak torÄĹ
Ġpa auk
Ġl ob
Ġsiau r
Ġkos m
ĠiÅ¡lik ti
Ġpert vark
Ġpapasak oti
Ġapyk ai
Ġsvetain iÅ³
tom at
Ġmetod us
Ġbe bÅ«tÅ³
Ġt onÅ³
yr as
ĠV U
Ġak menÅ³
Ġperk el
Ġnepag eid
Ġpr ez
Ġ6 4
Ġv ÄĹjas
ĠS P
Ġprev encijos
ul mon
Ġlik vid
ĠÄ¯pras tai
Ġpas m
Ġgam inius
Ġvais tai
Ġtikr u
s us
Å½ iÅ«r
ĠÄ¯mon ei
yl ÄĹ
Ġpuslap Ä¯
er as
N r
Ġn ov
Ġgau tas
imen u
Ġatsipalaid uoti
Ġt ei
8 2
Ġman oma
ĠÅ¡ abl
Sp ecial
Ġ7 00
Ġ199 4
Ġm y
Ġpat var
ĠAk men
Ġkoncer tÄħ
teri jos
Ġgalim ybe
tar p
ĠMar c
ĠZ aras
Ġatostog as
Ġmergait ei
Ġinformac iniÅ³
Ġd atÄħ
Ġres urs
Ġnutar ÄĹ
emi antis
Ġter eikia
Ġv y
Ġprinci pus
9 4
ĠMar Å¡k
A us
kl ÄĹ
ĠdidÅ¾i ÄħjÄħ
Ġpritar ÄĹ
ĠÅ¾aid yn
Ġs Å«nÅ³
ĠVal sti
Ġkomit etas
yk ti
Ġgali ojimo
ĠV aikÅ³
Ġpasim at
Ġkeli uose
ait ytÄĹ
Ġnaudoj imui
ci pl
ĠneÅ¡ var
Ġv oki
Ġpadid ÄĹjo
Ġv engti
ĠÄ¯Å¾ valg
en ÄĹs
Ġnel eis
uos ime
Ġvid uri
5 1
yÅ¾i uje
eikÅ¡ m
ĠVilk aviÅ¡k
Ġatsak ymas
es tas
Ġtur intiems
Ġatvyk sta
N oriu
Ġnor ima
Ġkod Äħ
A G
Ġmen ininkÅ³
ĠgrÄħÅ¾ inimo
Ġap val
tak os
Ġstudij avo
Ġvadov auja
Ġlank ytojai
ĠR ol
Ġvais ius
Ġes tet
Ġvasar a
Ġtie ki
Ġmyl ÄĹti
od ÄĹ
Ġkambar iai
Ġju tik
ĠÄ¯s il
M ic
Ġes anÄįiÄħ
Ġsteb ÄĹjimo
B and
Ġsuo rganiz
ĠtrÅ«k umas
Ġne jau
ĠM ÄĹlyna
Ġteis mÄħ
rik Å¡Äįi
Ġmerg aitÄĹ
Ġj ap
eik us
Ġmod eli
ĠpraneÅ¡ imus
ĠgroÅ¾ Ä¯
Ġpaaug liÅ³
ag o
Ġses er
im tas
Ġsvars to
ĠÅ¾enkl us
Ġspaus d
Ar tim
Ġindus tri
t elis
Ġp on
ĠpaÅ¾ym ÄĹjo
Ġbes ir
ĠmedÅ¾iag omis
ĠiÅ¡v eng
Ġdien o
ot an
Ġgalim Å³
Ġcentr u
Ġreg lamen
Ġbank ro
usi a
Ġkri zÄĹs
Ġv e
ĠbÅ«d ingas
pl ÄĹÅ¡
ĠpÄĹs ÄįiÅ³jÅ³
kait ÄĻ
Ġpagr Ä¯s
ĠS aul
Ġd ist
Ġtobul ÄĹti
Ġnuod ÄĹm
ĠÅ¾ lug
K or
ĠuÅ¾m irÅ¡
ĠvieÅ¡bu Äįiai
Ġkenk sm
Ġspalv as
Ġinform uoja
esi a
k at
Ġsma gi
Ġd eng
Ġpar kÄħ
b ar
Ġap eig
Ġval ymas
Toki Å³
D e
Ġor Äħ
Å«d Ä¯
Ġatsak ymo
Ġ199 3
M al
ĠsudÄĹting as
ĠapÅ¡ vietimo
Ġsug ri
atori umi
Ġraj onÅ³
Ġkito ks
Å½al gir
Ġekonom ika
ĠmÄĹnesi ais
ĠÄ¯sis av
Ġbe ton
r in
Ġteori jos
ei t
ĠV an
li d
ĠKin ijoje
u ch
Ġdalyv is
Ġjoki u
ĠÅ¾ais m
ĠTur ki
Ġgelb ÄĹjimo
m aÅ¾
Ġpop ier
ĠA gn
Ġatvyk ÄĻ
j aun
Kaun as
n om
Ġpo Å¾em
l augos
in aras
uoj antÄ¯
ĠÄ¯raÅ¡ yti
ĠpaieÅ¡k a
Ġneb ep
Ġt abl
Ġindividu aliai
Ġregi onÅ³
ĠdidÅ¾i ausi
Ġbuv usios
9 3
Ġatsid Å«rÄĹ
Ġt atuir
ĠbiudÅ¾ etÄħ
Ġ5 3
Ġspor t
ĠF ran
Ġpagrind inÄ¯
Ġdid elius
Ġ19 40
Ġenerg et
Ġit alÅ³
Ġreikal o
ĠÄ¯s ir
Ġkrauj yje
Ġneap s
Ġ5 1
Ġmatema tikos
Ġs ing
vyd o
ĠuÅ¾d r
æ ľ
Ġk int
Ġsveik as
ĠnatÅ«r ali
on inÄĹs
Ġbul viÅ³
in dÅ¾i
Ġgim dymo
Ġkolek cijos
Ġpert var
Ġvid Å³
ĠvirÅ¡ ininkas
Ġpatar imai
Ġpagrind inius
Pask elb
D D
eidÅ¾i ama
Ġveis lÄĹs
Ġgrei Äįiu
Ġnauj ais
ĠL o
Ġkito kia
en tui
minis tra
Mo teris
damas is
Ġkalb oje
Ġnep an
Ġakivaizd u
Ġnus id
Ġati dÅ¾iai
Vis us
M ir
a ja
ĠS ta
Ġsupr ojek
Ġjud ÄĹjimas
Ġatstov ais
Ġpaskol a
Å¡l uos
Ġats il
Ġprojek tui
P ok
Ġanaliz ÄĹs
ĠPlung ÄĹs
Ġ6 2
Ġleid imÄħ
Ġperk ant
8 4
Ġl es
Ġpui kÅ³
Ġtiksl ai
Ġketvir tÄ¯
ĠS c
an Å¾
Ġsand ÄĹlyje
Ġvyr auja
Ġveiks mas
ĠtÅ«kst anÄįiai
Ġbro liai
z Å«
Ġpl atÅ³
Ġpriva ÄįiÅ³
ĠM ac
ĠÅ« g
ĠInd ijos
k ui
Ġgam tÄħ
d ÄĹl
ul os
tim s
Ġpasirod ys
Ġl ok
Ġoper os
Ġprinci pas
ĠR yg
man as
Ġpails ÄĹti
P rak
tin imas
Ġr aukÅ¡
ÄħÅ¾ inti
ĠÅ¾em dirb
t ant
Ġtur int
ĠpaÅ¾vel gti
d abar
Ġniek uo
Ġsektori uje
Ġatvej is
Ġjung tis
Ġgalu tinai
Ġansamb lis
aip sniui
ĠS il
V ais
Ġugni ag
Ġpasis ak
Ġkamer os
ij ungi
ĠP ol
ĠaiÅ¡k ina
ĠneaiÅ¡k u
A bu
ykl ÄĹ
Ġvyr ui
ĠJuoz o
ĠÅ¡il uma
Ġeksp edi
ur m
ĠbÅ«t ini
uoj i
Ġnem al
S im
Ġsv eiki
ĠÅ¾mon os
Å¾ Å³
Ġtra gi
L E
tuv ÄĹ
Ġtink le
am am
ĠL DK
Ġpanaik inti
av as
ĠPet erb
ĠÄ¯d arb
ri f
Ġbu tÄħ
tinink ai
ra vi
Ġpoten ci
Ġinstitu cija
Ġveiks mo
Ġpoli tinis
Ġkonkr eÄįiai
Ġskaus m
av usiÅ³
ĠV iÅ¡
Ġh ip
ĠÅ¾ alia
Ġmoteri ai
Ġpens ijÅ³
ĠuÅ¾ imti
Ġdarbuotoj o
ĠsuÅ¾ av
Ġgink lÅ³
Ġsun kus
Ġnorm a
Ġvirtuv ÄĹje
Ġau Å¡
Ġgra Å¾iÅ³
ÄĹbul o
or ge
ybÄĹs e
S teb
Ġpav aizd
Ġatsak ingai
Ġabej onÄĹs
Ġkei timo
ĠÅ¾ avi
K A
ok os
Ġger us
ĠÅ¡ird yje
Ġs int
ĠI D
Ġlin ijÅ³
ĠdÅ¾i azo
ĠPet ro
S al
ĠÄ¯v esti
ĠPl at
Ġsitu acijÅ³
Ġdal intis
ĠgraÅ¾i os
uol ab
Ġtyr inÄĹj
Ġmok ymÅ³
ed o
teri Å³
ĠdeÅ¡im ties
Ġfunk cional
Ġypat ingas
Ġnu tiko
Ġsvaj oniÅ³
Ġgydytoj Å³
Ġnetr uk
Ġdid esni
ĠuÅ¾d uoÄįiÅ³
sk yrus
ĠÅ½ il
ĠiÅ¡ eina
ing s
Ġapdovan ojimÅ³
Ġpa Äįiai
Ġvykdom as
in tuvas
b aigi
Ġparod Å³
Ġkvad rat
ĠDaug iau
Ġpus e
Pard uodamas
ĠruoÅ¾ tu
Ph one
ĠiÅ¡r eikÅ¡ti
Ġvienod ai
' '
var io
ĠK ud
Pr ezid
Ġprasid ÄĹs
ĠstruktÅ«r Äħ
Ġstatus Äħ
Ġman imi
Ġsav ybÄĹmis
Ġar enoje
Ġin s
Å¡ il
Ġsudar ytas
ĠPrek ÄĹs
Ġdiskus ijos
Ġpersonal o
ili jos
en i
Ġtrump am
ĠM et
Gr uodÅ¾io
p ÄĹs
Ġâ ĪĴ
al umo
Ġgam ybÄħ
Ġgydytoj a
ĠKi ti
ĠAl b
ad oje
Ġpus fin
Ġsutar ÄįiÅ³
Ġrom an
Ġskry dÅ¾iai
Ġteks tas
Ġsv orÄ¯
Ġpad ÄĹj
Ġpral eis
ĠGryb auskaitÄĹ
Ġpadar o
Ġtobul inti
ak sti
ĠsudÄĹ tÄ¯
Ġvar tus
ĠL ands
Ġkap inÄĹse
Ġpozi cijos
Ġsimboli z
Kal ÄĹd
in ukas
ÄĹl ÄĹmis
ĠP ortugal
Ġpaj usti
Ġatsi k
Ġleng vi
eri ams
Ġreguli avimo
Ġtrenir uoÄįiÅ³
Ġblog o
ri c
Ġkurjer is
Ġkeis tis
olÅ¡ ev
Ġarb ata
Ġmas ÄĹ
Ġteis me
Ġpas od
L ig
Ġbuhal ter
Ġkor ek
Ġinternet inÄĹje
, ,
Ġgau tÅ³
Åł vies
Ġunik alus
raÅ¡ to
Ġvis okiÅ³
8 7
ĠP op
Ġman yti
Ġpral eido
Ġprie s
k eviÄįiaus
Y M
Ġmont avimo
ip uli
ĠV yri
ĠiÅ¡dÄĹs t
G el
Ġvaid muo
D ain
ĠgraÅ¾ Å«s
ĠJurb arko
Ġlap ai
Ġtik ina
y pi
uotoj o
ĠSÄħjung oje
Ġprisid eda
Vilk aviÅ¡kio
J on
auk Å³
Ġasmen iniÅ³
ar to
Ġa ÄįiÅ«
ĠiÅ¡t ver
Ġkr yÅ¾i
Ġpra ÄĹjo
inamas is
Ġskaid r
ĠPal angoje
Ġf asad
Ġvien uo
r uoj
Ġpad emon
ĠÅ¾enkl Äħ
Ġnuostat os
Ġkad aise
ie kite
Ġmas tu
tel ÄĹmis
ĠNorveg ijos
Ġprid Å«rÄĹ
i ti
ĠKunig aikÅ¡
Pask ui
Ġsl aug
ri ko
ĠÅ«k ininkÅ³
ĠdeÅ¡ ini
ĠÄ¯vaizd Ä¯
Ġrepr ez
Ġsti p
Ġgrei tÄ¯
Ġvyriausi ojo
Ġsav ininkÅ³
Ġplo tÄħ
eivi us
Ġep iz
in ate
ed ÄĹ
Ġimp ort
Ġpl ien
Ġgeri ausiu
an kiai
Ġelgi asi
men a
S ub
ac inio
b ie
ĠD ir
fo tograf
Ġnep akartoj
Ġnetol iese
Ġlip d
ĠS U
Ġgrei tÄħ
l ietuv
Ġgyv ybÄĻ
Sud ÄĹtis
Ġvie tomis
k eln
a tik
ĠR Å«d
Ġtoki omis
Ġbu tas
Aps kri
Pra dÅ¾ia
ĠS ud
ĠB irÅ¡
Ġmeis tri
Ġ ..
oj imu
me Äįiu
Ðµ Ð½
Ġspecialis tus
Ġmalon us
Ġantr oje
ĠÄ¯raÅ¡ ai
omis i
Ġ14 0
Ġfilosof ijos
Ġatrod ys
tim ais
ak e
!! !
Ġpusiaus vyr
eli ko
Ġtri ta
ĠreikÅ¡ ti
ĠpasidÅ¾iaug ti
Ġelektron inio
Ġsu vien
Ġsusid eda
Ġor e
ĠmÄħst ymo
g us
ĠrÅ« pi
ei Å¡ki
Ġtr auki
Ġartim Å³jÅ³
Å½em ÄĹs
Ġkonsul tacijos
Ġeg l
Ġl at
ki b
anÄįi uose
Ġgarant uoja
Ġf rag
daug iau
. âĢĿ
Ġpak el
Ġrag ina
Ġa f
B C
var d
Ġkv ies
Ġnorm os
Ġpried Å³
Ġnus prÄĻsti
ĠVal en
s mas
G raÅ¾
Ġmir tÄ¯
ĠpaÄįi as
inÄįiÅ³ jÅ³
ĠN BA
ĠÅ¾mon ijos
Ġkoleg ijos
Ġtr ejus
Ġpavad inti
ĠsÄħ veik
Ġpavyzd Ä¯
Ġsunk umÅ³
Ġakimir kÄħ
Ġneb ij
Ġdaktar as
Ġpuik Å«s
k uo
ĠkÅ«ryb Äħ
ĠÅ¾v ÄĹr
ĠA T
8 3
ĠÄ¯ Å¾vel
Ġnurod ytas
ĠÅ¡un ys
to ras
ĠgrÅ«d Å³
Ġintensyv iai
Ġpil nas
Ġp ud
il ind
ai niai
J ung
Ġnuo peln
Ġrad ik
met yje
Ġrank ovÄĹs
Ġuos te
ed ant
Ġvers ijÄħ
ex t
ĠbÅ« Äįiau
Ġpl ov
Ġrib as
Ġskry dÅ¾io
ĠmÄĹs a
Ġbuv usiÅ³
Ġvalstyb inio
am iems
ĠsÄħn audos
li a
ĠpraneÅ¡ imÅ³
Ġprab angi
Ġne lik
t avimo
N ori
Ġsavan oriÅ³
ĠaÅ¡ tri
Å¡ yps
Ġsusik los
Ġatg im
Ġlig as
ĠIgnal inos
Nauj i
Ġ5 7
ĠsusipaÅ¾ ino
Ġapsi pirk
Ġorganiz mÄħ
Ġpuiki Äħ
Ġg avau
Ġtarptau tinÄĹ
ĠÄ¯tak a
oÅ¾ em
Ġskalb imo
ni ais
em ent
ĠAnt ano
yb ose
Ġantr oji
Ġdebi ut
ĠK GB
Ġapd ailos
Ġgyvenvie tÄĹs
ran tÅ³
Ġsep tin
Ġetap Äħ
Ġlaip snÄ¯
Ġmok ymus
Ġtyr inÄĹ
Ġkau pi
ĠS tar
Ġnemok ama
eid imas
ch as
ĠvieÅ¡b utÄ¯
ĠEur ol
Ġpro por
-------- --------
Ġstov yklos
Ġrelig ijos
ĠP aÅ¡
Ġbe je
ymÄħ si
Ġdy dÅ¾iÅ³
Ġim ti
ams ung
Ġr atÅ³
ĠÅ¾uv is
Ġmat omas
t ali
ĠpripaÅ¾ Ä¯sta
ĠR ag
eks u
ak Å³
Ġpus metÄ¯
Ġatrod ytÅ³
ĠÄ¯t amp
Ġkompiu teris
Ġnuoty kiÅ³
Ġklub ai
ĠÅ¾iÅ«r ovai
ĠÅ¡ aun
Ġpateik imo
Ġuos tÄħ
F o
Ġligon inÄĻ
Ġelem entus
Ġprojekt avimo
Ġpristat ys
s Å³
i ose
yt es
r ank
ni au
Ġpav yksta
Ġnu tik
ĠÅ¾enkl u
in ijos
Å«n ienÄĹ
ĠkÅ«r inÄ¯
Ġsocial inÄĻ
Ġsos tinÄĹ
Ġspalv omis
Ġliud ija
Ġ 01
Ġsu lt
ai lg
Å¾ ad
ĠN yderland
Ġbaig ti
si g
Ġ194 5
S ausio
Ġpavad ino
Ġtam p
Ġrekomend uojame
is tikos
Å¾ u
ytoj Äħ
Ġnaudoj antis
Ġtapat ybÄĹs
ĠIn form
9 1
Ġnes Äħmon
ol f
Ġkryp tÄ¯
ĠpanaÅ¡ iÅ³
G alv
I P
Ġprinci pu
Ġsteng ÄĹsi
ĠKaun Äħ
Ġetap o
yk Ä¯
ĠÅ¡ven tÄĹje
Ġgal Å³
Pak laus
Ġremi asi
Ġev angeli
Ġraudon a
Ġreikal ingÅ³
Ġkal ori
Ġplat us
j oms
" ),
Ġnar iu
Ġty liai
Ġnauj ag
ĠpavirÅ¡ i
Ġj Å«ra
Ġgr ÄĻÅ¾
bi liÅ³
ĠprieÅ¡ gais
Ġbal so
Ġatm inimo
Ġtil to
Ġpak elti
Ġkil im
Ġpastat Äħ
Ġf as
K las
Ġlik imas
200 2
Ġasmen Ä¯
ingi au
tuv us
Ġproduk tyv
Ġpapil dyti
Ġnauj asis
ÄĹ tojai
G raÅ¾i
Ġry tas
Ġteis inÄĹs
az i
Ġdes er
Ġmedvil nÄĹ
Ġpersik ÄĹlÄĹ
Ġpasi teis
Ġsub r
Ġd omisi
ĠD ELFI
Ġtiki uosi
Ġm ankÅ¡
olog ai
Ġprot est
ting umÄħ
Ġang liav
Ġatskir as
Ġdub en
ĠK ij
Ġbat ali
as k
Ġlaid oje
ĠS tal
Ġstat iniÅ³
Ġnen audoj
Ġpro tes
Ġb yla
Ġrink imai
Ġsez onui
Ġsuder inti
on iz
g mail
Ġide aliai
ĠbÅ«d inga
ĠB el
Ġcentr ai
ĠAn tan
ĠÅ« gio
ep ti
Å«dij anÄįio
om osios
ĠÅ¾iniaskl aida
ĠÅ¾ iev
ĠKaral ystÄĹs
ĠapraÅ¡ o
egist rav
ĠI P
L ink
ac iniai
yr Å³
raÅ¡ Äįio
Ġmat ÄĹ
Ġpaskat inti
Ġinv en
d id
ĠÄ¯vertin imÄħ
ing am
Ġmokes Äįiai
Ġdirb tuv
Ġnuostab us
oj imui
ĠD ÄĹl
tiÅ¡k Å³
Ġdal imis
irb ti
Ġpriek aiÅ¡
Ġvair uoti
ĠH en
Ne Ä¯
Ġper eiti
Ġplan Å¡
Ġpastat ÄĹ
Åłi aip
Ġi liuz
Ġbend ravimas
Ġprog Äħ
ĠuÅ¾ uol
Ġsu jungti
Ġneb Å«na
L a
eik a
ĠL iv
ĠÅ¾ ind
Ġpinig ais
Ġaudi tori
Ġmieg oti
jer as
Ġil s
Ġkiekvien ame
ĠrÅ«gÅ¡ ÄįiÅ³
Ġfeder acijos
uo tÄĹje
Ġvakar as
an c
tais yti
Ġger ovÄĹs
ci z
ĠpasiraÅ¡ yti
Ġpaklaus ti
val st
Åł e
Ġvidur inÄĹs
Ġvald ymÄħ
ĠÅ¡iaur ÄĻ
Ġpateik tas
Ġprietais Å³
ĠtÄĻsi asi
Ki tÄħ
ĠNacional inÄĹs
Ġsvarb ios
Ġpristat yta
D F
ÄĹ tojÅ³
ĠR ank
Ġmiest ai
ĠAukÅ¡Äįi ausi
Ġsm als
Ġbilie tai
Ġatsisp ind
Ġtap ybos
ÄĹm us
ĠiÅ¡k eli
ov ie
ĠÅ¡eim oms
Ġtrad iciÅ¡kai
ÄĹj aus
) )
uoj anÄįius
S iek
ĠmiÅ¡k Äħ
vies ti
S ur
Sek m
Pap il
ĠiÅ¡l aisv
ĠDar ius
Ġal g
in tu
Ġs tebi
Ġsud om
N ev
Ġstrateg ijos
Ġplan Å³
ĠÄ¯mon es
Ġap lik
ĠsÄħskai tos
ĠUÅ¾ s
Ġdraug ams
dav osi
b ai
tn audÅ¾i
Ġmit yba
Ġpardav imÅ³
Ġd atos
ĠGab rie
ĠnepamirÅ¡ ti
ĠTau rag
Ġpasi trauk
Ġz ona
Ġapyv ar
ĠuÅ¾ ter
ĠiÅ¡ paÅ¾
in ing
ĠaÅ¡ tun
Ġgyd ymÄħ
ĠBal s
Pat og
Ġprid ÄĹti
ĠdaÅ¾ Å³
ĠuÅ¾ kl
Ġnum ato
ĠÅ¡il tn
iausi Äħ
ĠpasiÅ«l ymas
Ġmet ro
ĠEsti joje
Ġfrag men
Ġkandid atÅ³
ĠkÅ«di kio
Ġnumat ytas
Ġrekomend uoja
Ġsavai tÄĹ
Ġpr el
si k
ĠrÅ«gÅ¡ tis
eiki te
Ġportal as
Ġvertin imas
Ġs ind
Ġasmen inÄĹs
ent uoti
n in
n ors
Ġteori ja
x t
Ġsak au
Ġmano te
A ki
Ġpaskir tis
Ġdiskus ijÅ³
ĠÄ¯stat ymai
C H
Ġne ur
ĠÄ¯tar i
p oli
ĠMar ga
ak Äħ
aliz mas
I E
Ġapd aila
L ank
Ġpatvirtin tas
ĠpaÅ¾eid imus
Ġplauk ams
or ld
ĠAngli joje
Ġdy zel
Ġpamok Å³
inink e
ink l
ĠÄ¯vyk is
Ġkl im
Ġnever ta
Ġatsis kl
ĠÄ¯ teis
Å«k Å¡
Ġ20 20
Ġtik ÄĹjimÄħ
Ġkov Å³
Ġklaid a
in si
ĠVal stijos
ĠpavyzdÅ¾i u
b uv
r ut
Ar ch
tiÅ¡k umo
ist inio
Ġantr ojo
Ġtap ÄĻs
Ġvyst ymosi
ĠU SB
ĠiÅ¡l eista
Ġdokum ento
Ġpasi traukÄĹ
Ġantr ÄħjÄ¯
ai mon
Ġauk Å³
ĠH er
200 1
Ġdraug ija
Ġmi tolog
ĠKybar tÅ³
Ġpasi lik
Ġpa Äįia
Ġekran e
Ġprisijung ÄĹ
on ÄĻ
Ġbendruomen ÄĻ
ĠT avo
ia funk
Ġap aÅ¡
Ġpav yd
Ġrei Å¡ki
Ġpui kiÅ³
Ġap yrank
ĠL K
Ġsuk ak
Ġtink amos
ĠiÅ¡v adas
ic inos
lo t
Ġsusi taik
Ġaplink ybiÅ³
li ukÄħ
Ġkat ÄĹs
Ġprek yb
ir do
j uos
Ġkl aipÄĹd
tin ku
Ġvais tus
ĠPar yÅ¾iuje
ĠdarÅ¾ elio
ĠÅ¡iuolaik inÄĹs
Ġinov acijÅ³
ĠIsl and
oli v
Ġm ain
Ġpers kaityti
ÄĹ tÄĹ
Ġvykd ant
Ġnedid elÄĹ
Ġpaskat ino
Ġpo etas
Ġgatv ÄĹse
Ġsap n
Ġplan uoti
Ġvaik ystÄĹje
Ġtik ino
Ġnuosto liÅ³
Ġlyd eriÅ³
ĠsÄĹkm ÄĹ
Ġsie la
Ġkalb as
Ġgamin amas
ĠsÄħmon ingai
ĠpaÅ¾ inimo
Ġsek a
Ġypat inga
Ġstatus as
Ġkr imin
Pag aliau
L atv
ol v
Ġvien etÅ³
ĠpranaÅ¡ umÄħ
S aul
Ġsmur to
I F
Ġstraip sniai
id al
ĠF acebook
v io
Nep am
Ġmokytoj o
ĠLe on
Ġpal eisti
Ġmed is
end o
ÄĹm imas
ĠR od
ĠÄ¯sig ijo
ti onal
ytoj os
Nauj os
Ġlaisv ÄĹ
ĠB ur
**** ****
Ġat ribu
tuosi us
Ġtruk mÄĹs
ĠÅ¡al ims
Ġparlamen tar
Ġm ez
am pa
Ġfrak cijos
Å¡k ais
Ġval yti
Ġaplank ÄĹ
Ġak muo
Ġpagr Ä¯st
ĠpasiruoÅ¡ ÄĻ
I US
Ġsi lik
Ġklub Äħ
Ġk yÅ¡
d eÅ¡im
ĠÄĮ iurli
Ġgri ov
Ġrodik liai
S kr
ĠÅ«k is
Ġsank ryÅ¾
I d
Ġnesu tar
evi ÄįiÅ³
ĠÅ¾i b
Ġkr au
ĠRas a
Ġbendruomen ei
Ġpamat ÄĹ
Ġobjek tai
eri jÄħ
ĠÄ¯ jung
ĠtÅ«kst ant
Ġder inti
Ġgr et
Ġar e
ĠN em
Ġvartoj imas
O b
esn ÄĹmis
Ġd ef
Ġpunk te
Ġatlyg inimo
sni ais
Ġsma giai
ĠÅ¡Ä¯ kart
ĠÄ¯t eikÄĹ
ĠEurop a
Å¡ Å³
or tÄħ
Ġt av
Ġkokyb iÅ¡kÄħ
Ġauto r
Ġatidar ymo
Pop uliar
g ai
Ġtak Å³
S ti
an tr
Ġlaik us
Ġdaugiab uÄįiÅ³
Ġdid ina
ef ic
Ġserg a
Ġatmosfer Äħ
ĠB ro
ĠÅ½ mog
Ġkolek cija
K v
K oks
ta jame
Ġilgai niui
k auskas
ĠvÄĹl yv
Ġpik t
ĠÅ¾ym iÅ³
Ġvab zdÅ¾i
R emiantis
Ġman ipuli
ĠsugrÄ¯Å¾ ti
Â ³
esn ei
Ġpamink las
ĠMol ÄĹtÅ³
ÄĹ liu
ĠnatÅ«r alaus
Ġ19 18
b ri
Ġpav ar
ri ka
Ġsul ÄįiÅ³
Ġkelion es
enk o
Ġtre Äįia
Ġsu valg
yk ime
Nuol at
Ġneb eb
N ei
Ġsiur bl
Ġvyskup as
Ġbuv imo
Ġjaus ti
on ams
ĠraÅ¡ ytojÅ³
Ġned ar
Ġstand art
n ie
Ġpra g
Ġplas tiko
ĠsÅ«n aus
Ġkaul Å³
Ġpresti Å¾
raÅ¡ yti
........ ........
ĠK ri
u Äįius
Ġu krain
Ġmetod ai
ĠiÅ¡ tar
Ġgyv a
Ġlaik in
uotoj ams
Ġmas ÄĻ
Ġspaud oje
M aÅ¾i
Panev ÄĹÅ¾io
Ġsocial inÄĹ
Ġvard ai
199 0
Ġmin ima
Ġmilij ard
b ank
ĠrÅ«Å¡ i
Ġg ailes
ĠXV III
K uri
ĠÅ¡al tiniai
Ġmar at
Ġuniversit etÄħ
Ġch a
b ro
ĠpripaÅ¾ intas
Ġsklyp as
Ġd ingo
Ġsistem ai
entar ai
Ġpoilsi ui
Ġkvap o
Ġpirm yn
Ġlank st
Ġap i
un ction
ali Å³jÅ³
Vis iems
Ġpacien to
Ġsk onis
Ġprak tikÄħ
DidÅ¾i oji
ĠÅł akiÅ³
y tumÄĹte
str uoti
Ġkor telÄĻ
ĠM egz
Ġuniversit etÅ³
ĠsÄħlyg a
ĠÅ¡iuolaik inio
ĠrÅ«pes ÄįiÅ³
uk l
ĠÅ¡ak os
Ġch or
Ġfin ale
ur go
Ġtermin Äħ
Å¾ valg
Ġsk ri
T h
Ġkonstruk cija
am umas
ik lio
Ġvil ties
ĠS l
Ġgan ÄĹtinai
Ġak yse
T ra
Ġpagr ei
Ġpad aug
Ġneats iej
te lius
ins kio
ÄĹj imais
ĠdÅ¾iaugi uosi
al k
ĠV ad
Ġki tai
Ġauto nom
Ġnusikal timÅ³
J uo
ĠpanaÅ¡ ios
Ġmas aÅ¾as
v ÄĹr
Ġpavaduotoj a
Ġes anÄįiame
Ġpremjer as
Ġdokum entas
Ġtrump as
Ġdovan Äħ
Ġkrem as
Ġr aus
ou tu
Ġsunaik inti
h op
Ġreal ybÄĹs
Ġp ic
ĠÅ¡ iems
Atl iek
teri ai
ĠgeleÅ¾ ies
ĠRum un
Ġmed ita
ob il
J as
V el
ĠvaÅ¾i uoja
Ġstud ija
ĠA ps
tiÅ¡k o
ĠkÅ«dik is
Ġsto tis
Ä® monÄĹs
Ġmoksl us
Ġmus ulmon
ĠP i
ĠneÄ¯si vaizd
P sich
Rus ijos
Ġinternet as
Ġsvarb Å³
ĠuÅ¾si ima
Ġlaisval aik
Ġpal aipsniui
mÄĹ lio
Ġfiz iÅ¡kai
ap j
ĠieÅ¡k ote
T i
Ġangl ies
Ġoper acijÅ³
Ġatsis tat
Ġpuslap iÅ³
ali kÅ³
Ġgal erijoje
uok Å¡
ĠiÅ¡n audoti
ĠM eksi
Ġpri traukti
Ġartimiausi u
Ġes ama
Ġkompan ijÅ³
ĠJ uk
Ġprad ÄĹjus
Ġsusi g
Ġsantuo kos
ĠtaÅ¡k Äħ
Ġnuotrauk Äħ
Ġapsaug otas
ĠreiÅ¡k inys
ĠatpaÅ¾ inti
Ġnauj u
ĠA c
Ġau tos
iej us
ĠK ad
ali uose
ĠÅ¡ak Å³
ĠDov yd
Ġras ta
Ġsusir asti
8 1
Ġnor intys
Ġ194 1
Ġbendradarbi avimas
ĠsÄĹkm ÄĻ
ĠÄ¯reng inys
Ġklaid as
Ġmokytoj os
Ġpabaig Äħ
C D
ĠPil ka
Ġaug imas
Ġkosti um
Ġver tas
Ġkel erius
ĠtaÅ¡k as
Ġnuv al
Ġfotos es
ĠÄ¯sipareig ojimÅ³
Ġger inti
Ġaktyv us
Ġmokytoj ams
Ġkar Å¡Äįi
ĠSuom ijos
ev as
Ġep och
ĠF inans
w er
Pas teb
Ġtau t
ĠjÅ«r oje
Ġveikl as
Ġsien as
Ġpristat ytas
Nuo trauk
Ġ194 4
Ġat vira
ang us
Ġj umis
ĠS o
Ġchem ijos
ak amp
ar Å¡
Vis ai
Ġg and
Ġsod as
ĠtemperatÅ«r Äħ
ĠAr ch
Ġ Ñģ
Ġ6 6
Ġsli din
ĠkiauÅ¡ iniÅ³
uv oje
Ġpri g
Ġpad engti
Ġslap taÅ¾od
Ġasortimen tÄħ
am at
uo tais
av ime
Ġatlik ÄĹjÅ³
ĠA P
Ġlyg men
Sk amb
Ġmok inius
Ġsl ypi
Ġpop uli
ĠiÅ¡sp aus
Ġg ausi
en h
ĠsÄħskai ta
Ġk ava
Ġk Å«
Ġb olÅ¡ev
ĠÅ¡uk uos
Pas tat
Ġko efic
ĠsÄĹkl Å³
ĠP us
Ġdirb ant
Nes varbu
Ġhi po
ĠB MW
Ġlin ijÄħ
Ġapsi gyven
ĠiÅ¡ met
f orto
Ġatidar yti
Ġgam yklos
Ġpozi cijas
Ġim ig
Ġper tek
Ġtink lai
Ġmikro autobus
Ġvai nik
Ġk orid
Ġsustipr inti
ĠpabrÄĹÅ¾ ti
ĠÅ¡v ÄĻsti
Ġb y
c is
Ġu lt
ĠiÅ¡s idÄĹs
Ġner imÄħ
Ġkon ven
Ġkai mÄħ
Ġsl enk
ĠkraÅ¡to vaizdÅ¾i
Ġt rag
Ġdar osi
ff ice
ĠT en
Ver slo
ki asi
Ġlig oniÅ³
eiv is
==== ====
Ġatsi praÅ¡
Ġb uri
Ġilgaam Å¾i
ĠL en
olog Å³
ĠS tud
Ġokup acijos
T echn
ap us
Ġpartn eriais
ĠÄ¯ eina
Ġatsiv eria
ak c
ĠlaikraÅ¡ Äįio
S ug
ĠÄ¯rank is
ĠÅ¡im tai
ĠrÅ«gÅ¡ ties
Ġpsich iat
Kon feren
Ġlie Å¾uv
ĠÅ¡eÅ¡ iÅ³
Ġsveik a
ĠÅ¡imt meÄįio
Ġpas ienio
ĠdÄĹs tÄĹ
V aizd
Ġvis apusi
Ġvari antÅ³
ug en
Ġnusikal tÄĹ
Ġtiks li
Ġkon gres
Ġkeli us
ĠÄĮ i
V i
Ġbuv e
ĠÅłven tosios
Ġnauj ausiÄħ
ai ron
Ġteigi amai
Ġner im
Ġspor tas
Ġdvar as
Ġstul p
S em
ar u
ĠM ÄĹn
Ġbl aksti
Ġstipr ina
F or
Ġvidu tinis
uli u
ĠmedÅ¾iok lÄĹs
ĠdÅ¾iaugsm Äħ
Ġdom ÄĹtis
ĠÅ¡yps ena
Ġpus es
ĠdidÅ¾iul Ä¯
Ġtik ÄĹti
ĠM inis
Ġrank Å¡luos
toj os
og en
p irm
Ġsr aig
ur Å³
Y S
R O
Å Ĥ
Ġval dom
ĠsiÅ«l ÄĹ
ĠL or
Ġpirm uoju
Ġgeb ÄĹjimus
ci u
Ġefektyv umÄħ
Ġneg ird
Ġsusitik ime
ĠKur Å¡iÅ³
Pui kus
ĠvieÅ¡bu tis
ĠsumaÅ¾ ÄĹja
Ġkariuomen ÄĹ
Ġpraei tÄ¯
Ġpopuliar i
ĠVieÅ¡pa ties
Ġapr anga
B er
å ¤
ĠP ir
irÅ¡ ta
Ġtenden cijas
ĠVarÄĹn os
Ġspektak lis
Ġtem omis
in anÄįius
Ġpavard ÄĹs
V ai
ĠÅ¡eim ininkai
Ġkompleks as
Ġsportinink ai
Ġtur ÄĹjome
Ġpasin audoj
ĠJ og
ĠÅ¾enk liai
Rug pjÅ«Äįio
Ġporeiki ams
Ġprofesional us
on ez
ĠAr tÅ«ras
ĠÅ½em aiÄįiÅ³
ol u
Ġpadid ina
i f
Ġmagistr o
Ġkas os
avi ÄįienÄĹ
ĠRÅ« ta
raÅ¡ ymas
Ġb atÅ³
uos iu
ĠiÅ¡vys ti
Ġt un
Ġvid inÄĹs
eten z
ĠK Å«r
Ġbe pr
ĠTur kijos
ĠG re
Ġg avÄĻs
Ġned alyv
Ġre ali
ĠpaÅ¡ auk
Ġberni ukui
Gal ime
ĠÄ¯tam pa
Ġstatis tika
t etas
Ġreikal ingÄħ
ĠpapraÅ¡ ÄĹ
D alis
Ġinform avo
Ġvar tai
aÅ¾ od
N egal
ĠSp or
Pas aulio
Ġpozi cija
M il
Ġpareig os
ĠÅ¡ach matÅ³
ĠtÄĹv us
Ġnepat enk
Ġbaz ÄĹs
ĠKor ÄĹjos
d er
tr e
Ġpaj ud
es o
Ġnemok ami
Ġreform os
Ġi gn
tum u
Ġprogram inÄĹs
pag al
Ġkair ÄĹje
K omis
Ġklien tui
ing iems
Ġdirb anÄįiÅ³
kaiÄįi uoti
vil eg
Ġkl ausia
ĠiÅ¡Å¡ Å«kis
ÄĦ Å¾
in imosi
Ñ ħ
ĠiÅ¡s am
Ġpasig irti
aj us
Ġkalb ame
Ġprie v
Ġsveik os
Ġe x
ak t
Ġgyven tojas
ut iniÅ³
adien is
ĠpaaiÅ¡k ino
Ġlaisv as
Sp alv
Ġkontrol ÄĻ
A g
' ).
Per k
Ġvykusi ame
ĠÄĮ ik
Ġlank yti
Ġsu vir
Ġmaksim aliai
y tume
Ġdvasi Äħ
Ġpopie Å¾ius
g alio
Ġteis mui
Ġarb at
Ġpard uodami
Vad inasi
p en
ĠS SRS
ap as
Ġap mÄħ
Ġomen yje
Ġ198 9
Ġb en
Ak tyv
Ġskir tus
ĠPirk ÄĹjas
Ġleis tÅ³
Ġpar ad
Ġikiteis m
ĠRadvili Å¡kio
ti joje
ĠM uz
R E
r eg
om Å³jÅ³
Ġin cid
ĠK ir
Å«r o
201 9
Ġsod yboje
Ġneblog ai
ĠÂ °
Ġlik imo
Ġsteng tis
ĠMaskv oje
Ġproduk cija
l abai
em os
Ġ16 0
Ġr el
oj ate
Ġpak li
Ġapg ail
Ġnev yriaus
ĠÅ¾em ai
Ġkar din
Ġvadov u
tuv ÄĹje
Ġmal d
Ġdirv oÅ¾em
Ġatei ti
ver sti
Ġsukur tos
M eil
k ti
t uok
Ġpram onÄĹ
S ta
Ġv alia
am uosius
Ġefektyv umo
Ġkam uolÄ¯
N T
Ġr atas
el and
Ġat rak
ĠÄ¯ Å¾ym
ĠC l
ĠGedim inas
Ġkran te
Ġneg alv
Ġreak cija
Ġnepil name
æ Ĺ
Ġsupr at
ĠS EO
ĠR os
h am
Ġs Å«ri
ĠuÅ¾si kr
IN G
Ġprie inam
Ġmok yti
Ġprovin cijos
Ġdirb antys
ces s
Ġbal tas
V C
en umer
ĠG o
ant os
ub o
ĠPr iek
ĠMed Å¾i
Ġp ed
ur Å«z
Ġsen osios
Ġc irk
Ġapdovan otas
Ġlik ÄĻ
ĠprocedÅ«r as
Ġmir tis
Ġnacional inis
ĠtriukÅ¡ mo
el ei
Ġgrup e
st ame
Ġf az
ĠN a
Ġgim tadienio
ĠAntr ojo
Ġinternet inÄĹs
Ġduo b
ĠÅ¡ er
Ġst alas
astr of
Ġpasi tenk
Ġnepat inka
Ġvalstyb iniÅ³
K ada
Ġpanaudoj imo
Ġnesud ÄĹ
Ġvic eminis
ĠM ano
ub lic
Ġatid uoti
av ai
Ġsien a
ĠmaÅ¾ o
ri bo
U K
ali osios
ĠraÅ¡ ytojo
ver n
Ġpri tvirtin
IÅ¡s kir
Ġtvir tas
Ġtinkl uose
ĠT aÄįiau
Ġkreip kitÄĹs
Ġgyven antys
uk ÄĹ
aud avo
Ġkl aidos
Ġsim pa
Ġsta Å¾
Ġskir stom
, âĢľ
ĠC D
Ġkat astrof
Ġnurod oma
Ġtoki am
ĠKel mÄĹs
Ġf en
ĠD el
ĠTeis mo
Ġefek tÄħ
ĠvaikÅ¡Äįi oti
Ġrep u
ĠplÄĹ trÄħ
Ġb angos
Ġmok o
ĠZ ara
ĠsÄĹd i
ĠFr ank
Ä®mon ÄĹ
ĠS K
ĠÐ ²
Ġgyven anÄįiÅ³
Ġjuod as
Ġ6 3
Åł K
ĠÅ¾in ai
Ġbaim ÄĹ
ei tÄĹ
ei Äįia
Ġeksp ort
Ġper ÄĹmÄĹ
m ÄĹms
Ġatvir as
ĠK nyg
Ġduo na
Ġat palaid
Ġpokalb iÅ³
ĠAleksand ras
Ġk inÅ³
ĠaukÅ¡ tu
ink o
Ġlenktyn iÅ³
Ġ9 9
Ġkr ist
Ġpav arÅ³
Ġaliej umi
ĠiÅ¡k yla
T e
ĠnusprÄĻs ta
Ġpil nÄħ
Ġunik ali
Ġskulp tÅ«r
Prof esi
olog iniÅ³
ĠbÅ«s im
et ais
B aÅ¾ny
19 40
Ġkokyb e
Ġlak Å¡
Ġnaud odami
Ġ evoliu
Ġnetur ime
Ġpasak o
Ġskelb ti
Ġvarg u
Ġdis ko
ans as
Ġband yti
Ġmin us
Ġder inys
Ġsusij usias
Ġnen aud
Ġnaud ingos
Ġcentr uose
Ġklasi fik
ĠseniÅ«n ijoje
Ġpirm oje
t etÄħ
Ġmis ija
Ġl ova
ĠÄ¯sitik inti
Ġfer men
Ġgyven amÅ³jÅ³
Ġvir sta
ĠG raÅ¾
ĠplÄĹ toti
Ġtem as
ĠSÄħjung a
An kst
Ġv esti
Ġak cen
K okia
Ġkep ti
ĠÄ¯reng imas
Ġf arm
ub l
ĠsÄħskai tas
Ġv eng
iausi u
Ġvarto tojas
Ġpard avimas
Ġnet radic
Ġmo tin
Ġpasik ar
pl auk
P O
ĠT re
Ġskub iai
Ġvyr esn
ĠtÄĹv ais
Ġper ka
Ġnustat ytos
er yje
Ġr Å«s
ĠVis os
Ġlaikotarpi ui
y Å¡k
Å¾ r
Ġlaip snio
Ä ĵ
Å¡ vie
ĠJ ok
Ġsaug us
ĠÄ¯si tvirtin
Ġgim d
Ġhum anitar
Ġfiz inis
Ġnarko tikÅ³
ĠEk onom
ĠV ie
Ġneg er
Rez ultat
ĠT SRS
Ġdr oÅ¾
Ġaug alas
Ġmes ti
Ġlaim ingas
Ġrodik lis
Ġnumat oma
Ġprem ija
Ġapsi g
e Äįius
Ġnak tis
r inÄĹ
Ġd ÄĹli
ĠruoÅ¡ iasi
ri ui
Mat yt
tuv e
M en
atori ams
Ġtar ÄĹ
ĠlÄĹktuv o
Ġjaus mÅ³
S ul
Ġsez one
aus kaitÄĹs
Ġpak eli
Ġplan ai
ĠÅ¾vaigÅ¾d utÄĹmis
m ir
osi u
ĠÄ¯vyk dyti
ĠiÅ¡vaizd os
ĠÅ¾ olÄĹs
Ġgr e
Ġorganiz atoriÅ³
ĠpasiruoÅ¡ ti
s Äħ
ĠD anijos
I de
ĠV ait
Ġm inties
eis k
Ġb ang
Ġab ip
ĠK av
aÅ¡ ing
Ġsal ÄĻ
Ġpraras ti
Ġpard uodamas
Ġ7 2
Ġatsak ymus
ĠXV II
Ġveis liÅ³
Ġpen kio
ĠJoh n
uoj anÄįio
Ġmed aus
ĠsuÅ¾in ojo
ĠG l
Ġdemokra tijos
N ek
y Äįia
Ġsod e
Ġtradi cijÅ³
iÅ¡k is
Ġtarp uk
Ġsuk r
Kar tÄħ
ĠbÅ« stÄħ
Ġhi per
Ġprisim inÄĹ
ĠVis ag
R ek
Ġnuo varg
Ġnustat ytÄħ
Ġpal tai
ĠÅ¾ied ai
Ġapklaus os
Ġdaug umos
Ġvertin amas
auÅ¾ ÄĹ
Ġpriver tÄĹ
Ġatsirad imo
am uose
pr ie
kir ti
ĠI ran
Ġsu ras
Ġnepageid auj
pr og
ĠlietuviÅ¡k Äħ
Ġrib a
Ġtradic iniÅ³
i oje
Ġnav ig
Ġkiekvien ais
Ġpers var
Ġrau menis
Ġpamat ysite
Ġtal k
Ġproduk cijÄħ
Ġ13 0
Ġpatrauk l
B ri
ĠÅ½ aidimai
Ġkov oje
pras m
Ġpasi Å«
Ġpatiek alai
Ġlent elÄĹs
J ai
Ġkr yÅ¾
ĠS uval
ĠiÅ¡vad Äħ
uot ame
ĠM eil
ĠryÅ¡ iai
ï ¼
ĠA R
omas is
Ġterap ijos
Ġmar ket
ĠðŁ ĺ
Ġpri gl
ic kas
ÄĹjo te
Ġtur ÄĹtume
ĠÅ¡im tÅ³
Ġk um
ĠÅ½ i
Pirm ieji
Ġam atÅ³
ĠK eli
Ġpaki lo
ĠkrepÅ¡ ininkai
Ġpoli tinÄĹ
ĠÄ¯staig oje
Ġblog as
Ġtitu lÄħ
V aÅ¾i
Ġtaik ymo
Ġmar g
m od
Ñģ Ðº
S S
Ġor u
Sav ait
Ġauk ci
ĠTÄĹv ynÄĹs
Ġb ek
Ġsv yr
Ġli t
ĠRus ijÄħ
Ġpagrind ines
Ġmal dos
K ap
Ġkoj omis
ĠS ank
Å«k Ä¯
Ġneg yv
Daug iausia
Ġteks tÅ³
Ġvadov ams
Ġli Å«
ĠMegz tiniai
Ġproces ai
Ġfiz iniÅ³
li ukÅ³
Kom p
Ġn un
z mÄħ
Ġorganiz atorius
20 20
Ġabsoliu Äįiai
ĠkÅ«r inio
Ġkar toj
Ġskers mens
ĠL auk
ĠM c
Pastar uoju
Var Å¾
Ġtiek ÄĹjÅ³
Ġdaik tas
uk ÄĹs
Toki o
ok us
ik liai
Ġstriuk ÄĹ
ĠapÅ¡vie timas
ĠÅ¡ ul
ĠÄ¯r anki
ĠPar yÅ¾iaus
ĠÅ«k yje
v aik
and inav
Ġry Å¡kiai
Ġkomp et
d en
Ġmo tor
oj amos
ĠÅ¾urnalis tas
Ġg ÄĹ
ĠB ank
ĠSt ank
iej o
ĠdaÅ¾ nas
Ġnuotrauk ose
Ġv es
Ġrug sÄĹj
Ġneturi te
ĠBaÅ¾ny Äįia
Ġplan etos
Ġpenk erius
Ġsavivald os
ĠN ext
ĠKup iÅ¡kio
Ġkiekvien u
Ġkiekvien oje
Ġnauj ojo
p aud
ith u
ĠmiÅ¡k as
ĠÅ¡vent ei
ĠiÅ¡n agr
Ġt ÄĹtis
ol ei
Ġvais iai
ĠSÄħj Å«dÅ¾io
Ġdebi u
Ġneat sak
Ġkoleg os
i Å¡kiÅ³
Ġasmen ybÄĹ
Ðµ ÑĢ
ĠSv etain
pav yzdÅ¾iui
Ġpastat e
M inis
ĠpoÅ¾iÅ«ri o
ĠÅ¡ak nÅ³
ĠK ita
ĠN et
tyn ÄĹs
B o
ĠjÅ«r Äħ
5 00
inti eji
ĠpasiprieÅ¡ inimo
ĠÅ¡ep et
ĠM us
Pard uod
Ġpan eig
ĠuÅ¾mokes Äįio
ĠJ os
u f
tu kus
Ġtur is
ĠK ap
M ax
Ġgeri ausios
und a
Ġrink osi
Ġteis mÅ³
er gi
ĠmiÅ¡k uose
tak as
Ġpers kait
e oti
dÅ¾i oje
Ġgyven amosios
P i
Ġap ip
Ġtvir tov
Ġj apon
Ġgyven ame
Ġjud a
Ġ Î
Ġgalim ybÄĹmis
n elÄĹs
Ġmerg aiÄįiÅ³
ĠT echn
Ġlank o
Ġob uoliÅ³
Ġpadid ÄĹja
F orm
Ġsantyk Ä¯
ĠRoÅ¾ inÄĹ
ĠÅ½ yd
Ġeki pos
D ir
Ġspeci alios
ĠN es
anÄįi osios
Ġsavait gali
I ET
ĠlÄĹktuv Å³
n ijos
Ġsvarst yti
P C
ĠplÄĹ toj
g am
ĠÅ¾urnalis tÅ³
ed Å¾i
er e
Ġap n
Pirm a
it ur
Ġbakal auro
ĠÅ¡un s
ĠsuÅ¾ al
Ġm aÄįiau
Ġsl ÄĹg
Ġelektron iniÅ³
U r
v ais
ĠnemaÅ¾ a
Ġeg o
ĠBasan aviÄįiaus
Ġgyven vietÄĹ
Ġpos t
ĠAnd r
ins kienÄĹ
Ġpas yv
S kl
C on
Ġvald ÄĹ
Ġelem entas
Ġtr y
Ġlietuv iÅ¡kas
ĠÅ¡eÅ¡ i
Ġapim ties
Ġgal erija
ĠEn erg
ĠB at
Ġgatv ÄĻ
ĠÂ «
T ap
Ġ| |
im es
Ġver Å¾
Ġra cion
Ġger ina
Ġveg et
Äįi uje
Ġats tumas
w n
Ġ7 4
Ġank Å¡
ĠpanaÅ¡ u
Ġan ta
Pui kios
ĠdÅ¾i ovin
S unku
ul l
ĠinÅ¾in erijos
Ġais tr
ir ko
ĠI van
ĠÅ½emai tijos
ĠÅ¡ Å«
ĠKaiÅ¡iad oriÅ³
D efek
Svetain ÄĹje
Ġign or
Ġredak torius
ik Å¡
Ì ¨
ĠuÅ¾sien Ä¯
ĠjÄĹg Äħ
ĠiÅ¡ dÅ¾i
Ġsod yba
Ġsek un
an ori
Ġkiekvien ai
Ġim uni
ĠlaiÅ¡k us
Ġpakrant ÄĹje
Ġdi vizi
ĠÄ¯mon ÄĹse
l ais
S prend
Ġautomobi liams
ĠkultÅ«r Å³
S n
op uliar
ti jÄħ
Ġrad au
tin u
Ġpro tas
y kit
Ġbaz i
tin ta
Ġsusi vien
ĠÄį ek
Ġform uoti
klausom ai
it y
ĠV yd
K il
Ġtransp ortu
Ġr atÄħ
ĠBul gar
ĠÅ¡ vark
Ġlygi u
U T
ant ais
ĠÄ¯raÅ¡ us
ĠdidÅ¾iul ÄĹ
Ġskland Å¾iai
Ġatidar yta
ĠE s
ĠH o
Ġpasm erk
ĠJ au
ĠÄ¯vair ovÄĹ
Ġkar p
Ġpsich ikos
ĠAt s
Ġlaim ingi
Ġbaz ÄĹje
ag en
Ġliter atÅ«ra
aÅ¾ Å³
ĠpraÄĹjusi ais
Ġfolkl oro
Ġstat inio
Ġproblem omis
ĠKunigaikÅ¡ tys
________ ________
Ġprogimnaz ijos
Ð ´
ĠV asario
Ġta Å¡kai
Kon cer
C i
Ġistor iniÅ³
T ark
Ġj ach
Ġnep agr
Ġg uma
ĠmedÅ¾i ai
Ġprim inti
Ġnepas ik
Ġredak cija
Ġkalend or
ĠÅ¡i taip
ĠreÅ¾is ieriaus
iÅ¡ skyrus
pad is
ĠprisipaÅ¾ ino
ek sp
Å¡k osios
an ijÄħ
el ÄĹse
Ġsurink imo
Ġpasku tinÄĻ
] ,
ed ik
Ġtau rÄĹ
ÄĹjusi us
Ġkorup cijos
Ġbed arb
ĠK ro
Ġprofes iniÅ³
199 8
dÅ¾i asi
im et
Ġtikr ais
ĠGen eral
Ġpr ovok
ĠK ali
ĠiÅ¡skir tinis
Aki vaizd
na tional
Ġval go
Ġnuolat inis
A uks
Ġinstitu te
Ġpirm iausiai
ĠtemperatÅ«r oje
Ġatl eisti
Ġaplink ui
Ġsiau b
Naudoj ant
Ġtruk do
eto n
Ġilg us
ĠPr ieÅ¡
Ġpai lg
Ġsimptom ai
S tar
ĠS PA
ĠkÅ«r ÄĹjas
ĠsuÅ¾ ad
Ġseg men
Ġsek ÄĹsi
ĠprocedÅ«r Äħ
at l
Ġaug alus
Ġdeg alÅ³
R Å«
Ġrink inÄ¯
ĠiÅ¡ pil
aug oti
O G
Ġdid ele
Ġsustab d
V yriaus
Ġprar ado
Ġd inas
ĠbÄĹg imo
Ġsusitar imÄħ
Ġpasak os
Ġseks u
3 00
Ġatstov us
Tr ys
ĠiÅ¡l eid
Ġkryp ties
Ġpri vileg
Ġuni kal
Ġs erija
Ġpralaim ÄĹjo
Ġekran as
Ġistori jÅ³
Ġkonstruk cijÅ³
Ġnusteb ino
Ġapr angos
199 1
ĠÄ¯sim yl
takul niai
Ġprezid entÄĹ
Ġklaus ytis
Ġsv aig
Ġarm ijos
om asi
tom i
Ġatsak ymÅ³
Ġkop ij
Ġtari f
ĠSi gi
ĠsudÄĹti es
ĠS am
Ġcik lo
Ġklaus imo
ĠÄ¯reng inius
v yri
Ġsup apras
or tai
Ġmat avimo
ĠÅ«k ininkai
ĠGraiki jos
Ġvalsti eÄįiÅ³
eik is
uv el
V ald
ĠÄ¯sak ymas
inÄĹ liai
Ġh im
ink eviÄįius
Ġgim sta
Ġveid as
ĠDidÅ¾i ojoje
Ġtaisykl ÄĹ
ĠgroÅ¾ is
Ġsusij ung
l aug
Ġmor al
ĠkaÅ¾k oks
Ġd aliai
Ġteis inga
ĠpareigÅ«n ams
ĠbÅ« gn
Ġmom entu
Ġtvirtin imo
Vad ov
ĠbÅ« ta
Ġsusid uri
Ġ9 8
Ġmon i
Ġlaiv o
Ġkeram ikos
ĠminkÅ¡ tas
au t
Pr oduk
Did elis
Ġ9 00
Ġeksp orto
ĠmaÅ¡ inÄħ
Ġpasi Å¡
Ġs ki
ĠuÅ¾ st
Ġspeciali Å³jÅ³
u Äįi
ES CO
Ġor dino
Ġkomentar Å³
le c
Pal yg
M us
Ġpik tnaudÅ¾i
Ġpapildom o
ĠP aÅ¾
Ġvadin amos
Ġvert ybÄĹs
ĠV asi
atÅ«r Äħ
Vyr as
ĠK er
Ġatk ar
Ġatas kaitos
rav imui
Ġc on
ĠÄ¯steig ta
ĠÄ¯ tais
Ġpopie Å¾iaus
or ÄĹs
Ġgim ÄĻs
G aliu
I tin
Ġgerb ÄĹjÅ³
Ġaud inys
ĠmiÅ¡ inys
Ġaplink ybes
Ġkar tas
Ġs ar
Ġup iÅ³
En erg
is h
tar n
Ġapdovan ojimÄħ
Ġnusprend Å¾iau
Ġreak cijos
G en
Ġmed iena
aul t
Ġatk ov
Ġnaujien a
Ġsusisiek imo
her e
ĠÅ¾i aur
Ġpast angos
ĠsÄħvok a
Ġalkoh ol
Ġsuk asi
ir kos
in imais
Ġpro tez
ĠGro up
Ġmil tÅ³
Ġpama Äįiau
Ġats im
Ġv oÅ¾
Ġne veik
Ġpie try
Ġsudar ymo
Ġsuk on
ĠAl f
Ġteleviz ija
ama jame
Ġrenk antis
Ġpilie tis
Ġg eguÅ¾
ku tÄĹ
en te
ĠCh r
Ġpalik uo
ĠprieÅ¾iÅ«r ai
Ġpartn eris
rik oje
ĠiÅ¡si un
outu be
ej o
Ġnos ies
Ġnor us
Ġs iÅ³s
ĠA rab
Ġnaud ojo
Kom plek
Ġdiplom at
Ġsker smuo
L aisv
Ġjau ki
Ġstik las
Ġseni ausiÅ³
Ġer z
199 2
Ġreikal auti
an ia
Ġb omb
ol fo
Ġpus val
ol Äħ
ĠVokieti jÄħ
Ġcivil inÄĹs
ĠÅ¾ais lai
Ġtarn yb
O l
ĠP am
uo lo
d ant
k liai
Ġs ex
M aisto
or us
ub ern
ĠÄ¯gyvend inant
ĠR ygos
M ik
199 5
Ġne man
Ġak tus
st ra
Ġatsi tiko
Ġlig Äħ
Ġdaug eliu
Ġeduk ac
Ġ end
Ġatlik s
Ġrez oliu
Ġilg Å³
KaÅ¾ k
Ġkoki ais
k oti
Ġsm ui
Ġnurod ytÄħ
Ġpav og
Ġin sul
ĠpripaÅ¾ inimo
E X
eÅ¡ ti
tadien is
Ġvestuv es
Ġvilk aviÅ¡k
ĠAustral ijos
Ġpag elb
Ġprar anda
J us
ĠsÄħ Å¾
Ġp sl
ĠL inas
Ġmem ori
av om
Ġpak lus
ĠG us
ut au
ykl ÄĻ
in amÅ³
Ġatstov auja
ĠÄ¯vyk Ä¯
Ġelek tra
Ġsen Äħ
ĠÅ¡ aliai
Ġangliav anden
Ġpaband yti
Ġnu tinka
Ġmiest elis
ĠiÅ¡ kas
Ġvie tiniai
eis tos
Ġpolitik as
Ġatstov ams
Ð ¼
Ġnep ali
Ġneap yk
Ġgrup ÄĹse
ting us
s ud
Ġdizain Äħ
Ġr anda
Ð° Ð½
Ġsmul kiÅ³
ĠN ij
ĠSp alva
ĠduÅ¡ o
is tÄĹ
Ġstraip snius
Ġg ÄĹd
ĠpraneÅ¡ imo
Ġveikl Å³
Ġpirk ÄĹjÅ³
J ÄĹz
Ġgim tadienÄ¯
ĠÄ¯v aÅ¾i
Ġpl unk
Ġlaik antis
Nus tat
ĠKris tina
Ġpriklaus ys
ĠpajÄĹg os
Ġak cijas
Ġvanden yno
ty tis
Ġkonkr eÄįiÅ³
Vis kÄħ
Ġsvarb ius
Ġatskir Äħ
... >
Ġab itur
ĠÄ¯reng tos
ogr am
Ġinvesti cijos
Ġplastik iniai
199 7
Ġkai mÅ³
Ġtil tas
Ġatostog os
ieri umi
ĠÅłal Äį
Ġnedid eli
Ġspektak lÄ¯
iest Äħ
ĠsÄħ monÄĹs
Ġmat om
d vi
Ġstud ijoje
p on
Ġsusid or
Ġka ÄįiÅ³
Ġn ac
ĠG yven
j ud
ĠiÅ¡sisk yr
194 5
ed es
Ġdabar tinÄĹs
ĠDrusk ininkÅ³
X IX
ĠD is
ĠÄįi uÅ¾
ĠÅ¡al tinio
Ġspaud a
ĠÅ¾ing snÄ¯
ĠuÅ¾d raus
Ġugd ymas
Ġdiskr imin
ĠdidÅ¾i ojo
Ġn aci
ĠV aid
Ġpavard ÄĻ
R eikal
IM O
ĠSocial inÄĹs
Ġsekre torius
K okyb
yst ei
Ġvadov auti
Ġsen jor
Ġpilie Äįiams
st ai
ĠN id
Ġsaug omi
Ġstip end
Ġpris istat
iÅ¡k ais
ĠtreÄįi as
Ġsti lis
ĠÅ½ yg
ĠiÅ¡skir tin
Ġr aidos
ĠÄ¯s kai
Ġsitu acijose
Ġek onomis
Ġbrand os
Ġtiksl ams
Ġsusid urti
m s
Ġveik ÄĹjÅ³
Ġskait ymo
Ġkredi tai
Ġinter aktyv
ĠIr ena
R as
eÅ¾ is
ĠÄ¯vertin o
Ġst ali
ĠpaieÅ¡k Äħ
ĠÅłiau liai
ĠBritan ijoje
Ġvidu tinÄĹs
Ġelektr inÄĹs
la y
kl ini
Apskri tai
ĠG yv
Ġtik ÄĹjimas
Ġned irb
Ġkokyb iÅ¡ki
Ġtiksl ui
ĠRem ig
Ġsti eb
Ġatsak ingi
Ġsudar ytos
Ġmin imas
Ġtechn iniÅ³
Ġrink ai
gi ui
199 9
ĠPrezid ento
Ġir kl
ĠV M
Ġnepad ar
Ġdez in
Ġspecial istams
Ġtal pos
J uoz
Ġaps kr
Ġsocialdemokr atÅ³
Ġar ab
Ġmyl im
Ġgrind ys
Ġsul aukia
Ġon line
Ġger esnis
Ġperspektyv os
fil m
r ov
Ġchem iniÅ³
Ġsluok snÄ¯
em as
Ġpuslap is
Ġseni Å«nas
Ġak to
Ġpapild oma
ĠslÄĹ gio
Ġrestoran Å³
Ġnes um
Ġgatv e
At vir
ien tai
y paÄį
Äħj ung
Ġprival umas
Ġtab ako
er ÄĹs
Ġpasirod ymÄħ
Ġpasek mes
aud ies
re e
ĠÄ¯spÅ« dÅ¾iÅ³
bur go
Åł vie
Ġreabili tacijos
Ġsutr ump
ĠuÅ¾duo tÄ¯
Ġrezultat o
Ġreag uoja
ĠseniÅ«n ija
ed u
un das
Ġats kiri
Ġkie mo
i omis
Ġsk ver
ĠL ina
Ġpalaik ÄĹ
Ġb ad
Ġkalend oriÅ³
Ġgr esia
Ġband ymÅ³
tal as
ĠV DU
Ġsp ÄĹjo
ĠÅ¡ ni
Ġ os
Ġtr imis
Ġprie glob
ĠsupaÅ¾ind inti
Ġster eoti
avi ÄįiÅ«tÄĹ
ĠteÅ¡ lÄħ
Ġkaral ystÄĹs
an aliz
ĠnÄĹ r
DidÅ¾i ausias
Ġtok iems
et inÄĹs
as h
ĠÅ¡ ar
Ġmetod Å³
Ġkreipi asi
Ġk enÄįia
Ġpatog iau
B el
ĠS tri
Ġtoki oje
ĠM ir
r oje
Ġgr indÅ¾i
ĠÅ¾ied Å³
Ġskir st
ĠiÅ¡im tis
Ġper kr
Å¡ki us
ĠpraÅ¡ yti
Ġnaud od
Ġsaug umas
ri l
Ġkr yÅ¾iaus
Ġsur enk
s uk
ĠPas valio
ĠÅ¡ arv
Pas tab
ut ei
Ġpop ieriÅ³
Ġpareig a
Ġinstitu cijoms
ĠD ari
ĠÄ¯vyk sta
Ġklien tus
Ġpartiz an
Ġsekun dÅ¾iÅ³
ind ex
ĠdeÅ¡imt metyje
Ġsusil aukÄĹ
Ġner Å«dijanÄįio
Ġprofesion aliai
Ġkal tÄĹs
Ġbiur as
Ġs olis
Ġsportinink Å³
å ½
ĠÅ¡eim ininkas
aÅ¾ n
Ġapsis prÄĻsti
Ġmok inys
Ġpasis kol
ol ÄĹje
sp aud
ĠS MS
Ġz o
Ġoper acija
Ġnurod ytu
Ġ antis
ĠN ar
Ġpriv aÅ¾i
b uvo
Ġkr ent
Ġgal imÄħ
AtsiÅ¾vel giant
Y B
ĠreÅ¾ imo
s y
Ġrestau r
ien tÅ³
Ġpirm inink
t iniam
D ail
au m
O V
E d
Kat egorijos
Ġnauj am
Ġproduk tais
ĠPirk ÄĹjo
eder acijos
Ġvykdom i
Ġlyg iÅ³
on ienÄĹ
ĠZaras Å³
ĠpripaÅ¾ Ä¯st
A c
UÅ¾ si
toj oje
Ġpri trÅ«k
Ġpav ald
Ġneap si
Ġak toriÅ³
Ġnep ar
Bal tic
Ġspektak lio
Ġd aig
Ġtr ink
Ġnep ais
ĠMar ius
A plink
Ġnepas id
kv ÄĹp
ĠiÅ¡tir p
Ġdalyk Äħ
ĠiÅ¡v akar
Ġkov ojo
Ġgab ali
Ġneb et
eidÅ¾i ami
ĠbÄĹg ti
Ġnuostab Å³
ĠpaÅ¾as tÅ³
Ġmilij onus
ĠKan ados
ĠÅ¡ yp
Ġind Å³
Ġm iÅ¡kai
od os
Darb as
htt p
i usi
d eg
Ġpokalb io
ĠgrÄĹs mÄĻ
ĠAr gen
av usios
Ġsupjaus ty
Ġimpr oviz
Ġilius tra
Ġc ilind
Ġatliek as
Ġ198 8
ĠJer uz
Ġapmok ÄĹjimo
Kon kur
ĠuÅ¾ truk
Ġpl on
Ġbaz ÄĻ
Niek ada
ĠdaÅ¾ n
Ġatm inti
Ġkredi tas
Ġraudon os
Ġnaujien as
Ġ ÄĹ
olog ÄĹ
irÅ¡ kite
ĠM ikal
ĠprieÅ¡ mok
Ġg o
ĠÅ¡al Äįio
Kas met
d es
ĠÄ¯spÅ«d is
val ga
Ġkos mos
Ġ6 1
Ġsta biliz
Ġak cijÄħ
Ġkas kart
Ġc en
Ġteis ÄĹjÅ³
s Ä¯
Ġpr etenz
Ġpramog os
tÄĹ ti
ĠÅ½ ymos
Ġrod omas
ĠAuto mobi
Ġikimok yklinio
Ġblog a
Ġkvalifik acijÄħ
K ultÅ«ros
ĠAustri jos
ĠÅłved ijoje
egz ti
ĠpaÅ¾eid imo
or n
ĠJ ac
pras ti
194 4
Ġmin tÄ¯
ĠIsp anijoje
Ġlietuv ius
M etÅ³
ĠT ol
ĠS to
Ġsen Å³jÅ³
Ġnepas ir
Ġlav inimo
ĠkaÅ¾k iek
u ck
Ġlaik ai
Ġtinklalap yje
tod ail
Ġatvej ai
Bend ras
te liais
ĠD Å¾i
soci acijos
Ġl iemuo
ĠiÅ¡n audoj
ĠsprendÅ¾i ant
a e
ĠM ax
Ġs el
ĠiÅ¡ kirp
Ġportal e
F esti
Ġsos tinÄĻ
Ġspor tuoti
Ġd Å¾em
ĠsÄĹd ynÄĹs
V air
ĠPrancÅ«z ija
ĠM erg
Pagrind iniai
Ġistori jas
adien iais
Ġlaikrod is
Ġgam yboje
Ġprival oma
on im
ĠP L
ausk is
Ġj ub
iausi us
ovi Äįius
Ġhoriz ont
Ġk emp
Ġt Å¡k
Ġpriim ami
Ġkonferen cijÄħ
Ġparlamen to
ĠnepamirÅ¡ kite
ta Äįius
BÅ« tina
Ġsavi Å¾ud
Ġmed ikai
Ġteiki amas
Ġskr andÅ¾io
Ġtik imasi
Ġgars ÄĹja
ov u
Ä¯ vai
Ġypat ingi
Ġrestoran e
ĠpaukÅ¡ Äįiai
Ġdev yni
el ektr
Ġsen a
Mok iniai
ĠA M
ĠpadÄĹk os
Ġskir tis
Ġmo li
v est
Ġsaug umui
z g
ĠiÅ¡ kl
ĠbÅ« rio
D om
ĠL os
ov ei
Pab and
al iniai
Ġpab Å«ti
Ġatstov avo
ai tienÄĹ
ĠÄ¯rod ymÅ³
Akivaizd u
Ġsri tys
d aÅ¾
ĠD ang
Ġp uokÅ¡
st aig
Ġbe tono
eidÅ¾i amas
Å½ yd
yl e
Äįi ausi
âĢ ĭ
v inas
Ġbaud a
Ġsuk ÄĹl
ig h
Sp ektak
ĠO s
Ġskelbi ama
ti ve
", "
esniÅ³ jÅ³
Ġn at
ĠJon iÅ¡kio
Ġkom pr
Ġfinans inÄĻ
Ġrom anas
ĠH ol
B ent
tech n
Ġpor n
r ok
Ġnauj ausias
Ġanti bio
Ġmod elius
Ġstrateg ija
Ġsiek s
F inans
p ap
G i
ĠmÄĹg stu
R M
Ġs toj
Ġsusik urti
Ġneb laiv
in antÄ¯
iÅ¡k ÄĹs
G A
Ġsud alyv
ĠGe orge
ĠÄ¯tamp Äħ
ov s
vi ais
Ġkri zÄĹ
Ġsud r
ÄĹjus iems
ĠÄ¯reng inio
ĠlaiÅ¡k Å³
Mies to
ĠAnd Å¾
Ġgl eiv
ĠmaÅ¾ esnÄĹs
ĠdarÅ¾ oves
Kon s
Bal tijos
Ġraj onuose
aus tas
Ġvil nos
Ġsta cion
in tais
Ġpl eÄįi
Ġp usias
Ġtermin Å³
ĠÅ¡okol ado
ĠK ul
Ġkur je
R audon
Ġgr uod
Ġkontr as
ĠÅ¡im tÄħ
Ġkurs Å³
ĠdarÅ¾ ovÄĹs
Ġpatalp oje
ĠrieÅ¡u tÅ³
Ġm akar
ĠK op
Ġkar inÄĹs
ĠrÅ« mus
Ġaptarn avimas
Ġsmulk men
Ġnuosek liai
Äįi ausias
ĠÄ¯s ijung
Ġpaskol as
alb a
ĠÄ¯ ter
ĠKon stan
Ġversl ininkai
Ġpacien tai
Ġd inami
Ġ6 7
Ġlatv iÅ³
ĠI g
Ġfak tÅ³
ĠlaikraÅ¡ tis
Ġvakar uose
Ġ0 9
Ġv aliÄħ
Ġpatais os
Ġpirm ajame
Ġpadovan ojo
Ġantr osios
ĠÅ¡vel ni
Ġatlik ÄĹjas
Mic rosoft
Pr iek
V yri
I Åª
vald yti
Ġnorm aliai
F i
Å¾ ÄĹ
ting umas
kl aid
Ġpavad intas
in in
Per s
Ġekstrak tas
Ġkri tikos
Ġlap kri
Ġneat sis
Pui ki
Ġpasid arÄĹ
Ġpaklaus ÄĹ
Ġtr eÄįiÅ³
Ġpav ir
Ġkep enÅ³
Ġapib rÄĹ
ĠiÅ¡v ados
Ġats imin
Ġnet inka
Ġreguli uoti
Ġatv ÄĹs
âĢľ ;
al ams
Ġder ÄĹtÅ³
Ġstres Äħ
Ġrekomend acijas
ĠPro f
Ġform avimo
ĠÅ¡ Å«d
Ġ6 9
âĢľ ?
ĠnebÅ« tina
os f
Ġor ai
ĠM e
ĠgraÅ¾i Äħ
S un
S Å«d
ĠaikÅ¡ tÄĹ
ĠÅ¾ini Äħ
Ġang el
ĠpirÅ¡ tÅ³
Ġadministrac inis
Ġakimir kos
Ġprinci po
Ġjaun ieji
m ulk
Ġsusitik imai
Ġto p
Ġatsak inga
Ġkel eto
Ġvyr esnio
Ġvaizd us
Nes u
ri jÄħ
Ġpasidom ÄĹti
ant ama
ĠÄ¯sid arb
Ġpra ÄĹjusÄ¯
Ġnusi Å¾eng
ĠEv angeli
Ġb ai
ĠiÅ¡ jungti
kaiÄįi uota
ĠB ibli
O C
Ġarchitek tÅ«ra
Ġcitr inos
ĠPar lamen
Ġpagamin tos
Ġpros pek
Ġcukr Å³
ĠneÄ¯gali Å³jÅ³
: '
Ġs Å«r
Å«n u
Ġavi acijos
P u
D et
tor e
Ġatstat yti
Ġpaskir tÄ¯
eidÅ¾i ant
ĠÄ¯s isk
Ġkrauj Äħ
ĠG int
ijos i
Ġkvie tÄĹ
Ġor din
G aila
Ġor anÅ¾
Ġatlik imo
Ġpasirod ymas
Ki tos
tep ij
ĠposÄĹ dÅ¾io
t esnis
Su Å¾in
ĠDai va
O B
Ġbankro to
Ġbes is
Ġprinci pÅ³
K an
ij imas
Ġnaud ingÅ³
Ġjud esi
Ġketuri os
ic k
Ġnuol aida
ĠÄ¯ran kius
w it
Ġl t
ĠD o
ĠI eva
Ġli trÅ³
Ġtend encijos
Ġgr ub
Ġter mo
Geri ausia
n ag
ĠG ra
Ġvai ni
ĠvaÅ¾i uojant
Ġdev yn
ĠkunigaikÅ¡ Äįio
Ð¾ ÑĢ
Ġd eln
ĠÅ¾emÄĹlap yje
Ġpra gyven
Ġap els
Ġreik mÄĹms
Ġdalyv avimÄħ
ĠaÅ¡tuo n
ĠRespublik oje
au kio
em ia
ÅłeÅ¡ tadienÄ¯
Ġvokie Äįiai
Åłiau rÄĹs
Ġkombin ez
Ġlap us
Ġnustat ytÅ³
K os
Ġbendr amin
Å½algir is
ĠÅ¾aid yniÅ³
jungi a
oles ter
aus iems
Ġ3 000
Ġide olog
tak al
ĠAr Å«nas
Ġkurs as
Å¾em io
Ġats tumÄħ
Ġpa blog
erv atyv
ĠÄ¯staig Äħ
Projek tas
A A
Ġpr aus
Ġmat ote
Ġdain ininkÄĹ
Ġnakv ynÄĻ
Ð ±
Ġkar iniÅ³
Ġdie tos
Ä® sp
Ġtau tiniÅ³
im ybÄĻ
ĠÄ¯ dar
Ġilg os
ĠRespublik a
ĠvieÅ¡ ojoje
Ġuog Å³
ĠÅ¡ak nis
ĠV aÅ¡ing
Ġmod er
ĠiÅ¡pl at
Ġneati tinka
Ġnepasi tenk
Ġvyk dÄĹ
Ġbaz ÄĹ
Mar ijamp
Äįi uo
Ġmies tui
ĠÄ¯stat yme
Ġpritaik ytas
Ġfiz ikos
ur ys
eks o
Ġbag aÅ¾
am oms
ĠA K
Ġpad irb
Ġnuosto lius
Ġti tul
Ġ8 8
ĠKin ija
Ġpsicho terap
Å« kio
Ġpirk imas
Ġm ono
uoj anÄįiÄħ
Ġpsich ologijos
Ġobjek tÄħ
ĠpaÅ¾ym i
Ġnenor ÄĹjo
ĠEg lÄĹ
to me
Ġlie tus
Ġvien erius
Ġpj ovimo
Äĸ J
Ġkoncent racija
ĠpraÅ¡ ymu
Ġsub til
AM AS
gan ist
Ġpapil do
eiki ame
Ġfiz i
dÅ¾i ug
ĠkraÅ¡ tu
ons ult
ĠNauj osios
Ġjaun uoliai
Ġ9 2
Ġatkreip ÄĹ
Ġrim tÅ³
D P
kai Äįiau
Ġlank ytojams
ĠÄ¯trauk tas
Ġpasveik ino
Ġmok ymas
Ġsti liumi
Ġvakar ais
As men
N K
mon iÅ³
ĠiÅ¡m ÄĹg
ĠlÄħst elÄĹs
ĠF o
Ġop on
Ġvil tis
Ġpavoj aus
Ġses uo
Ġpasid aryti
Ġpasek miÅ³
Ġpasim ÄĹg
Ġregist racija
Ġkaimyn ai
ĠÅª kio
Ġsutik imÄħ
y a
Ġneat rod
L engv
Ġkito kios
Ġmilij ono
Ġ0 8
Inform acija
Ġkompet encijos
Å¡ ÄĹ
ĠÄ¯sipareig oja
ÄĹm ÄĻs
Ġvie tinÄĹs
Ġs c
ĠsiÅ«l omas
F F
ĠJ ol
ĠG ard
ingi ausias
l ovas
og os
A i
oki o
Tiki uosi
yn uose
Ġkonferen cijÅ³
Ġbron zos
M ie
Ġk ÄĹlÄĹ
Ġrezultat ais
Ġtem p
Ġkambar ius
Ġkuk urÅ«z
Ġregion uose
U V
Ġnum eriu
A ukÅ¡Äįi
ĠbÅ«d ama
Ġvaid ina
M i
teri ja
Ġl ÄĻÅ¡
ĠInter net
ĠVieÅ¡ pats
Ġprisit aikyti
Ġakivaizd oje
ĠpraÅ¡ ÄĹ
Ġsusitar ti
Ġpraktik oje
ang iÅ³
Ġpar al
ĠSk vern
ĠkÄĹd ÄĹs
ransp orto
is tinÄĹs
Ġsp rag
ĠW indows
ĠÅ¡al ta
ang e
Ì ĥ
uni go
i ojo
Ġsal Äħ
ĠJapon ijoje
Ġlen tos
ĠkaÅ¾k odÄĹl
Ġpien Äħ
Ġkoncer to
Ġanaliz uoti
Ġreg is
ĠÄ¯vertin imas
Ġsign at
ĠLazd ijÅ³
Ġstrateg ijÄħ
Ġpoli tinio
Ġpristat ymÄħ
> >
Ġdis cipl
Ġtobul inimo
ĠiÅ¡laik o
Ġsaug aus
Ġagent Å«r
Ġnukreip ti
Ġor kai
ĠdidÅ¾i ausios
Å½mog aus
Ġleid imas
Ġpasi un
... âĢľ
Ġelem entar
Pat ar
uo Å¾as
Ġparink ti
ĠÄ¯am Å¾
ĠieÅ¡k ojo
Ġpav yk
Ġsuv okia
Ġmokykl ai
Ġnori ai
Ġskai Äįiai
B log
Ġsteb ÄĹjo
Ġautomati z
Ġjap onÅ³
Ġrod os
Ġtak si
ĠKris tus
Ġprigim ties
ĠPrÅ«s ijos
ÄĹj oje
Ġskait ytojÅ³
Ġd il
ĠAi rijos
Ġatk Å«r
Ġmol ek
ub as
Ġplatform a
t alÅ³
Ġd inam
Ġm ink
Ġkom pres
ĠM asi
Ġnor u
Ġgeri ausio
Ġprival umÅ³
uos tabu
ĠM er
ĠIlg is
Ġmechaniz mas
ÄĹ tu
Ġeur us
ĠSk uod
Man e
Ġpavoj inga
ĠVid aus
ĠkiauÅ¡ inius
Å¡ ak
yn ei
ĠaikÅ¡ telÄĻ
Ġt Å«ris
Äįi amos
ĠÅ¡v ei
Ġnepasi tik
Ġpag arba
Ġtaik ant
Äįi umi
Ġlietuv iÅ¡ka
Ġtechnolog ijÄħ
g yv
ait ÄĻ
ĠmÄĹlyn os
Ġkai rÄĹs
Ġkolek cijÄħ
ĠMart ynas
R o
ĠÅ¡i tas
Ġr atai
ĠaukÅ¡ tÅ³jÅ³
ĠvirÅ¡ ija
D ev
ĠuÅ¾ kirsti
Ġpav ÄĹs
Ġgrie tin
ĠdÅ¾iug ina
ie lg
ol os
auki tÄĹs
on ija
ali Å¡kai
ĠS of
yg a
Prof es
ĠPag ÄĹgiÅ³
Ġatmosfer a
P L
d ys
ĠP AR
ĠM antas
Ġt egul
ĠV y
ĠiÅ¡si pl
ĠR ed
ĠT il
Ġfak tÄħ
ĠH e
Ġband oma
Ġvar p
res as
Ġb ÄĹda
Ġreikal ingus
Ġniek uomet
A pl
Ġnesi tik
ĠtÄĻsi a
ĠgyvÅ«n us
Ġkantr ybÄĹs
ĠaukÅ¡Äįi ausio
Ġatsi imti
Ġvers ijos
Ġr aiÅ¡
an auskas
om oji
Ġkap sul
ĠÐ ¸
ĠS ol
Ġti kiu
Ġak tai
Ġnor ÄĹdamas
Ġspeci aliÅ³
Ġgamin amos
Ġas o
Ġkain uos
ĠbÅ«s enÄħ
MaÅ¾ ai
Ġrespublik os
O f
Ġkoncent racijos
ĠuÅ¾im tumo
ĠÅ¾em iÅ³
c ent
d ie
Å« b
ĠA vi
ĠuÅ¾baig ti
c al
Ġlaid o
Ġvietov ÄĹse
in aro
Ġap m
Ġap aug
Ġsteb ÄĹs
W h
Ġpagrind Å³
Ġap y
techni kos
Ġs ykÄ¯
Ġveik sniai
Ġatei tis
Ġch oras
Ġvanden tie
Ġrink ÄĹjÅ³
Ġkal cio
Ġpasiek s
BÅ« klÄĹ
auj anÄįios
Ġko oper
Ù Ħ
Ġl oj
Ġrealiz uoti
g ri
Ġasmen inio
Ġlais va
Ġpab endr
Ġtapat ybÄĻ
ĠmÄħst yti
Ġ Ø
Ġpagrind inÄĻ
Ġter Å¡
ĠÅ¡vie siai
et inis
otan ikos
i ant
Ġapylink es
si on
el ÄĹms
ĠkunigaikÅ¡ tys
e an
Ġnepri tar
ra bu
ĠiÅ¡ anks
IN K
S C
Ġne tiesiog
em o
op oli
Ð° Ð»
Ġmas aÅ¾o
Ġv ingi
Ġkleb onas
Ġnusprend Å¾ia
ĠJ ud
ĠkraÅ¡ tÅ³
pres s
amin ta
uosi te
ĠGintar as
Ġterap ija
ĠNacional inio
) {
Ġ Yra
Ap ple
ĠDiev u
Ġsprend Å¾ia
Ġru tu
isl ovas
ĠS us
Ġbals uoti
Ġatsid Å«r
R am
Ġbakteri jÅ³
Å½ uv
H z
in Äįio
u a
er os
Ġblog iau
ĠM iÅ¡
P os
Ġnaudoj ame
Ġsuvar toj
od ai
Ġsun kiÅ³
Ġkiem Äħ
Ġatitik ti
ie do
ĠKar ol
ĠÅ¡ lif
Ġdai li
radarb i
Ġisp anÅ³
. ;
tuk ais
v nt
Ġpir am
ĠraÅ¡ ymo
1 50
Ġpi an
Ġg Äħs
ĠPat al
Ġskamb ÄĹjo
ĠdÅ¾iaugs mas
ĠvÄĹli ava
Ġger kl
Ġasmen inÄ¯
Ġgeb a
Ġpam ald
el k
M ag
Ġr ol
Ħ ¢
Ġdid eles
Ġtarptau tinÄĹje
ĠiÅ¡vakar ÄĹse
to ni
ĠV aik
on inis
Ġprivat umo
P ac
Ġgr oti
V andens
n ÄĻ
ĠÅ¡il dy
i ami
ĠÄ¯staig oms
Ġteksti lÄĹs
Ġpal ei
med Å¾io
aud yti
uomen ÄĹ
Ġpatiek alus
Ġm amai
Ġscen Äħ
Ġvyr us
Ġnegali te
Ġaktyv umo
c ed
ĠÄ¯ jungti
Ġprab ÄĹg
Ġfilosof ija
rai Å¾
ĠminÄĹ tÅ³
Ġiniciatyv Äħ
ĠUN ESCO
Ġband ymas
ĠiÅ¡s ak
Ġnedid elÄ¯
Ġnuv er
em ijos
ys ta
ĠiÅ¡gelb ÄĹti
ĠP AS
IÅ¡ l
Ġdalij asi
Ġl amin
Ġpavasar is
Ġsk ie
Ġpasak ojimas
ĠpaÅ¡nek ovas
Ġh omos
Ġk e
Ġr ato
Ġf an
ĠPag rind
Ġparduotuv es
Ġvil ki
baig us
ĠM ies
uo toje
Åłi a
Ġfinans avimÄħ
Ġpamink lÅ³
Ġtik imÄĹs
ĠE ugen
Ġakadem ijoje
Ġr enka
Ġatitik tÅ³
ĠÅ¡tab o
ik liÅ³
Ġkokyb iÅ¡kos
Ġbes imok
ĠR ug
Ġtvark araÅ¡
Ġprinci pai
Ġs uol
Ġbat us
te kos
ĠSk andinav
Ġlog istikos
at ink
Ġamb as
Ġtarn auti
ĠÅ¾od ynas
Ġdokumen tuose
iej aus
Ġsusitik imus
Ġep id
Ġt ose
Ġpasitik ÄĹti
Ġklas ÄĻ
Ġes Äħs
ĠdaÅ¾ ais
Ġpasau liu
Ġm aj
Ġki auliÅ³
ĠM in
ek torius
Ġnorm Å³
Ġefektyv iau
Ġnesib aigi
ĠiÅ¡r eikÅ¡
Ġnes ur
ĠKaral ystÄĹje
P aj
si Å¡kai
N eto
Ġpasi tei
Paskelb ta
Ġlyg us
I ON
Ġtend encija
ĠpirmÄħ sias
w e
Ġstor is
Ġskol os
Ġsutrik imai
D er
Ġaplink ybÄĹs
Ġvari antai
Å¡ ius
ov skis
Ġjau Äįiu
Ġlaik ys
ĠuÅ¾s uk
Ġpatvirtin ta
BÅ« tÅ³
ĠrugsÄĹj Ä¯
Ġpasig aminti
Sud ÄĹ
Ġatsiliep imus
Ġpav eikti
Ġvadovauj ama
uv ienÄĹ
Ġpo eto
Ġneb en
Ġjaus mai
Ġkurs Äħ
L eid
Ġpirm ininku
Ġsluok sniÅ³
ĠkÅ«diki ams
Ġpag ard
me Äįiui
Ġnaud ingumo
Ġr eli
and Äħ
Å«n ui
Ġdail ininkas
Ġmen Äħ
Vien intelis
Ġpastar Å³jÅ³
Ġorganiz avimas
Ġteleviz oriÅ³
ĠdidÅ¾i osios
Ð° ÑĤ
Ġo Å¾
Ġrus ai
Ġpastat us
Ġne virÅ¡
ag oje
Ġap eli
and art
ĠEgip to
S U
Ġkor teliÅ³
ĠpÄĹs Äįiomis
Ġreag uoti
ĠÄ¯staig as
Ġdaug ÄĹja
aud ama
Ġnen usi
ĠiÅ¡rink ti
ĠB lu
ĠT ies
Ġdokum ent
Ġpasirink tas
gal is
Ġpag yven
ic a
Ġuni form
Ġpie tuose
Å¾i ama
Ġneigi amai
ĠiÅ¡skir ti
li auskas
Ġr ie
ÄĹli ams
c on
Ġauk os
Ġtri um
ht ml
Ġkan alÅ³
ĠR ec
Ġdvar e
Ġy ou
Ġklini kos
ĠÅ¾iÅ«r ovams
Ġsul auki
Ġras tas
ĠÄ¯ pil
Ġmas to
Ġkor telÄĹ
ĠPr is
Ġpokalb Ä¯
Ġsusirink imas
Ġg ubern
Ġatlyg inimÄħ
Ġsiek dami
ĠMyk olo
Ġparametr ai
Ġapmok estin
ĠÄ¯ Å¡
ĠiÅ¡ ankst
ĠÄĮ ep
IS T
Ġpacien tas
ieki a
Ġnes unku
Ġbals Äħ
Ġstatis tikos
Ġw ith
ov ÄĹmis
ĠM A
Ġkompiuter yje
Ġch ore
ĠEg id
Ġgal ÄĹtum
Ġd antys
Ġpateiki amas
Ġfiz inÄ¯
p asi
Ġkoj Äħ
Ġg avimo
ĠÅ¾aid ime
199 3
Ġpapras ti
Ġfotograf ijÅ³
Ġasmen inÄĻ
ĠiÅ¡lik s
Ġmalon umÄħ
N uoÅ¡
Ġvandentie kio
Ġpj es
Ġnelaim ÄĹs
ult Å«ra
ĠR ink
ĠuÅ¾m ig
F OR
tik oje
ĠS au
Ġkoki omis
er kite
Ġneg atyv
Ġbal Å³
ĠiÅ¡v ada
Ġegz oti
Ġtvark ymas
Ġpristat omos
Ġbaig ÄĻs
ĠÅ¡veln us
Ġregistr uotis
esn ÄĹje
Ġpaskut iniÅ³
Ġvietov iÅ³
ĠaukÅ¡Äįi ausi
Ġnaud okite
UÅ¾ sak
Ġtechnolog ijomis
Ġnes t
Ġkov oja
Ġpak vie
Ġpasis av
ĠLenki jÄħ
ĠV IS
Ġnet yÄįia
Ġmeis tras
y tomis
ep s
ĠÄįempion atÄħ
red it
al ti
ĠdÄĹm es
Ġch oro
ĠÅ¡iuolaik iniÅ³
tr op
vis Å³
ĠPak ruoj
Ġsli d
Ġnor ÄĹs
Ġ8 2
amen to
Ġgi liau
Ġsanty kiuose
199 6
Ġpunk tas
Ġdid ÄĹj
Ġkoleg Å³
ĠÄ¯reng imo
Ġatsis ako
Ġpatik s
ord s
ĠÄ¯ neÅ¡
ij ÄĻ
ĠvirÅ¡ ininko
Ġvarto tojui
id en
ĠjÄĹg omis
Ġstog as
al ui
od r
Ġmui tinÄĹs
ĠpadÄĹk oti
ur is
ĠtreÄįiÅ³ jÅ³
Ġpig men
Ġteis ingas
Ġpaj ung
Ġer t
Ġpasku tinÄĹ
Var to
Ġs Å«rio
Kaz imie
} ,
ĠÅ¡ m
ĠÐ ½
ĠraÅ¡ to
ĠpaÅ¾ym ÄĹjimÄħ
Ġpaskut inius
Ġnuos prend
07 700
ĠiÅ¡d av
Ġsv ar
ĠN emok
ĠTeis ÄĹs
S aulÄĹs
Ġpav alg
ks kurs
Ġf one
Ġkonkur encijos
Ġpaveik s
os as
ĠÅ¾al a
Ð ¿
Ġh ib
Ġpasid ar
ĠkÅ«n ui
Ġpatenk intas
si a
Ġner eg
Ġtau tai
Ġpaskut inio
Ġsupra timÄħ
l ei
Ġv akc
ytu je
Penk tadienÄ¯
e e
Ġtinkami ausiÄħ
Ġmok ama
Ġplau ÄįiÅ³
L eng
er ta
Ġprojek tams
ĠaikÅ¡ tÄĻ
Ġkaz ino
v in
urb uli
D al
Pard av
ĠS erg
Ġnu eiti
Ġnepri im
ĠÅ¾ alios
Ġpasaul ÄĹ
Ġnegal ÄĹs
ĠvieÅ¡ oji
Ġtaisykl ÄĹmis
Ġstengi amÄĹs
Ġatnauj inimo
uomo ti
D Å¾
ĠmÄĹs Äħ
Ġkaimyn Å³
b Å³
Ġlaisv Äħ
Ġmeis trai
ĠSank t
T M
Nauj asis
Re gi
ĠP re
Ġkri to
K ri
am ina
Ġnu trÅ«k
on iniÅ³
ĠS me
tar Å³
Ġtradic inÄĹs
N eÅ¡io
Ġd yg
Ġm ai
J uoda
ki Å¡kiÅ³
ĠS avivald
Ġsutik imo
ĠM oti
Ġne val
tadien iais
Ġfinans uoti
Ġder ybÅ³
Ġin tui
Ġnuk eli
rip t
Ġd at
ak r
Ġ19 20
ĠW h
Ġpur kÅ¡
yk st
ĠB enz
S tov
al uose
Ġ19 39
Ġd ÄĹd
Ġatnauj intas
Ġbendr Å³
ĠuÅ¾s kl
Ġmed ikÅ³
ĠNiujor ko
Ġrelig ija
ĠNorveg ijoje
ĠÅ¾ Å«
Ġversl ininkas
Ġ urb
Ġk ant
Ġab strak
ĠÄ¯s tojo
ĠC ol
Ġdokum entais
Ġkompiuteri ai
R ob
Ġnaud ai
Ġv ol
Å½ i
ĠP ie
Ġpop ietÄĻ
ki ant
et inÄĹ
R en
Ġaso cij
S Äħ
uoj amus
bl e
Ġberni ukas
Ar tÄĹj
az z
E m
v iai
Ġdaug umÄħ
Ġskys ÄįiÅ³
Nori te
j ÄĹ
Ġas ist
Pas ik
Ġsiun Äįia
Ġsind r
ÄĹj ausi
Ġbendr osios
ĠpasivaikÅ¡Äįi oti
Ġne ai
Å«s ti
ĠÅ¡eÅ¡ is
Ġpedagog Å³
Ġpatik imas
iki p
Ġorganiz uojamas
Ġri ki
Ġgatv ÄĹmis
Ġregion inio
ĠS mÄĹlio
Ġbals u
Ġkredi tÅ³
ingi ausia
ĠM oz
Ġpor Å³
Ġati dav
ĠÄ¯sik Å«rÄĹ
ĠskaiÄįi uoti
Ġvaik inai
Ġypat ingo
Ġp ulk
ĠbÅ«d ami
Ġvald yba
Ġabs olv
Ġne kr
var ka
ĠvirÅ¡k inimo
uol ys
ali omis
Ġbr ok
ame tis
Ġalyv uogiÅ³
amÄħ sias
ok Å¡Äįi
ul as
Ġvien us
Ġnaud otas
Ġam Å¾
ĠÄ¯gyvend inimÄħ
Ġnuorod a
Ġpasi Å¾iÅ«rÄĹti
Ġmat menys
Ġlaisv os
anÄįi oji
Ġatlik tÅ³
yb iniai
Ġkalori jÅ³
N usi
ki ra
Ġsoli dar
tat os
I tal
t ap
ĠL abai
L in
Ġparti jÄħ
Ġtv oros
ĠpoÅ¾ym iÅ³
T ol
Ġl ot
Ġsluok snio
Ġnepa tik
ĠTar yba
am ame
ai dÅ¾i
Ġlabdar os
Ġregistr uoti
yt ame
Ġjud ÄĹjimÄħ
Ties Äħ
Ġbaud Äħ
O rigin
Ġne men
iek vien
Po int
ĠÄ¯sipareig ojimus
ĠÅ¾urnal istams
Ġgam tiniÅ³
Ġvidur amÅ¾iÅ³
Ġh erb
Ġag ur
Ġdal yko
Ġlaim ÄĻ
Ġbaigi ant
im anto
ĠÅ¾emÄĹlap Ä¯
ĠpabÄĹg ti
p an
ĠÅ¡vent ÄĹms
Ġsald um
Ġply telÄĹs
u Äį
at ams
Ġbel ieka
Ġemo cijos
Ġaps unk
ĠpraneÅ¡ imai
Ġistor inÄĹs
Ġnusteb inti
ĠV atik
Ġprofesional ai
in ukÅ³
Ġnes aug
il e
Ġklien tais
P inig
Ġsupra timo
auk Å¡Äįi
ÄĻ st
PaÅ¾ ym
V it
ĠF er
S ÄĹkm
Ġm ili
ĠV MI
Ġatspalv iÅ³
V idu
ĠpaÅ¡ il
Ġpj Å«kl
Pa aiÅ¡k
ĠAl ber
Ġpamink lo
Ġch olester
Ġinstrum entÅ³
kir s
Ġvar gÅ¡
Par eig
Ġeksper tas
Ġlaiv as
ĠreÅ¾ imas
Pask ut
Vien os
ĠpraÄĹjusi Äħ
ĠpoÅ¾ym iai
ul e
Ġnei lg
Ġtem Å³
Ġtekst ai
Ġpagarb Äħ
Ġkomand as
Ġpl yÅ¡
ĠÅ¡il dymas
Ġantr os
Ger a
ing esnis
Ġkategori ja
ed ame
ĠmaÅ¾ esni
en cijai
Ġlyd eriai
Ġtal pa
rikÅ¡Äįi on
ĠsugrÄ¯Å¾ o
Ġlaisv o
ĠneiÅ¡ si
ĠN ev
Ġc om
ĠKal ining
Ġ7 7
Ġatspar us
e Äįia
h an
ĠK raÅ¡to
Ġpapras tÅ³
uoj antiems
tr yÄįiÅ³
ĠuÅ¾siÄĹm imai
ĠmÄĹn uo
ĠgalÄĹs ime
Ġper ved
Ġsuv en
on ytÄĹ
Ġdu jos
Ã ł
Ġat rado
ĠiÅ¡ki lo
Ġd os
Ġbl aiv
Ġpasi tikrinti
Aud i
ĠsÄĹkl os
Ġnusil eido
ĠuÅ¾dirb ti
ĠÄ¯sig ijimo
ĠdÄĹv ÄĹta
Ġdraug ÄĹ
å ħ
Ġorien t
Ġinspek cijos
194 1
ĠE N
ĠÅ¾vej ybos
ĠV P
ĠuÅ¾s eg
Ã Ĺ
Ġ æ
Ġnepav yksta
ĠÄĮiurli onio
ĠiÅ¡sami ai
ĠÅłil alÄĹs
ĠparaiÅ¡k as
Ġegzamin Äħ
Ġkam uoli
Ġind ik
Ġ194 6
Ġ7 8
Ġak toriai
Ġnu ties
Ġprofes ijos
Ġakimirk sniu
Ġnes l
ĠvaldÅ¾i ai
Ġelektron ikos
ÄĹj ama
ĠD et
Ġmedvil nÄĹs
tik us
Ġkatali ki
Ġgalv oju
T ÄĹ
t rad
e kiÅ³
ĠN T
Ġlaim inga
Ġspaud imÄħ
Susi paÅ¾
Ġrekonstruk cijos
ĠK arb
Ner etai
d ovan
Ġautomobi liui
Ġpaveiksl as
c inÄ¯
Ġes anÄįioje
... )
ĠlietuviÅ¡k o
Ġparag auti
Ġpas kaitos
ĠB art
ĠK eliÅ³
Ġm ÄĹl
Ġkat ÄĹ
Ġaksesu arai
San trauka
ĠuÅ¾ tv
Ġver d
Ġk aÄįi
Ġnet aik
Ġsk ep
ĠpabÄĹg ÄĹliÅ³
T eigi
Ġg li
ne y
ĠCh ar
Ġr etas
Ġkalb ÄĹtis
Ġpral eidÅ¾ia
Ġatitink amÄħ
Ġnep ab
Å½ urn
Ġkryp ÄįiÅ³
Ġkorpus as
Ġlyd erio
ĠiÅ¡g ar
Ġsocial iniuose
Ġglaud Å¾iai
Ġprir eiks
C C
an tiesiems
Ġpavad inta
Ġauk a
Ġprad ÄĹjome
ĠÅ¡okol ad
Ġsluok sniu
Ġkompeten cijÄħ
ĠÐ ¾
nio lik
Ġgen e
Ġpakei timai
g atv
at uose
Ġreikal ai
ijungi a
M P
aukÅ¡ tis
Ġlaip snis
ĠAukÅ¡ tai
ĠaÅ¡ tr
U krain
y ota
Ġtau todail
Ġfestival Ä¯
Ġprie inama
Ġvien ij
Ġturin Äįios
ĠÅ¾yd ai
jer o
stat ymo
Ġteritorijos e
Ġpalyg inus
Ġatstum u
ĠÅ¡iaur ÄĹje
Ġv yÅ¡
Ġra gan
v Å³
fin ans
ĠSpor tinÄĹ
ĠM MA
Ġdaktar o
Ġpagarb os
ĠkrÅ« tinÄĻ
Automobi liÅ³
Ġsr ovÄĹs
Ġsukur tÄħ
uokl ÄĹs
ver tÄĹ
Ġsie lÄħ
AN D
M a
DÅ¾i ug
G e
aus to
ĠuÅ¾ter Å¡
Ġlaisvalaik Ä¯
Ġbiur ok
ĠkaÅ¾k am
Ġparem ti
Ġnauj iems
Ġinternet inÄĻ
ĠÄ¯vairi oms
Par aÅ¡
Ġpatyr ÄĻ
Ġvad o
Ġmo Äįi
Ġsrau to
r auk
Ġdovan as
Ġsvarst ÄĹ
c iniai
Ġpoli tinÄĻ
j ob
Ġti pÄħ
Ġatlik ÄĹjai
At ei
Ġnemok amÄħ
ĠminÄĹ ta
ĠÅ¾in utÄĻ
ĠÄ¯stat ymu
Ġdeguo nies
Ġnus p
ĠÅ¡e imas
Ġne Å¾ym
ĠT op
ĠraÅ¡ tas
Ġleid iniÅ³
Ġp Å«k
ĠneÄ¯ v
au tÄħ
Ġsus toj
Ġnuostat a
ĠdidÅ¾iul ÄĻ
Ġsukn elÄĻ
Ġsuvok imas
ord e
Ġlen kai
ĠpasiÅ¾ym ÄĹjo
Ġparametr us
Ġnauj omis
Ġkain avo
uri Å³
ytoj ais
Ġvir to
ch ron
Ġkap iniÅ³
ĠNU O
ĠaukÅ¡Äįi ausiÄħ
Ġsaug ojimo
Ġakadem ija
Ġgyv ul
Ġm ul
ĠkliÅ« tis
usi ame
Ġspecialis to
ĠÅ¾ibin tai
m uz
Ġgal erijos
engi ama
Ġram ybÄĻ
tori ais
ĠNiujor ke
ĠnetrÅ«k sta
Ġne eil
Ġveiki anÄįiÅ³
ĠpavyzdÅ¾i ai
Ġsav Å³
at si
Ġkul inar
aud a
Sveik atos
ĠeÅ¾er Å³
Å¡ ys
Ġper Å¾
ĠPr ie
Ġser ver
ĠtrÅ«k o
ĠsiÅ«l omi
S er
Ġpro tÄħ
Ġpasiek imus
Ġsvies to
ĠP rod
ĠteisÄĹs augos
Ġp olis
uokl is
Ġ7 6
Ġam or
Ġper galiÅ³
Ġnesupr anta
ĠT or
Ġlauk s
ÄĹjusi ais
Å¾ ÄĹs
oj anti
Ġatlyg inimas
ĠRi Äį
f unction
ĠN at
Ġkoleg omis
Ġpokalb is
Ġprev enc
è ¯
Ġ ov
oj imais
Ġjaun uoliÅ³
Ġpirm ame
ĠU n
ĠÄ¯reng inÄ¯
ĠMas k
ef er
ĠÅ¾aidyn ÄĹse
Ġcik las
T okÄ¯
ĠB ra
ĠÄ¯rod ÄĹ
Ġteiki amÅ³
Ġrep or
ĠjauÄįi uosi
ĠuÅ¾tikr ins
Ġpenk tadienio
tel ÄĹje
ĠÄ¯kur ti
Ġpei z
Ġdarb uose
Ġgeb ÄĹjimÅ³
Ġnenori u
ĠRober tas
ars el
Ġsuform uoti
gi ama
Ġprival umus
Ger as
Ġstengi uosi
tin us
Ġrim tas
Ġon k
Ġslidin ÄĹjimo
Ġreikal ui
Åłi am
ĠsudÄĹ kite
Ġcik lÄħ
Ġpastov iai
U L
Kon kurs
Ġgeb ÄĹjimas
Ġklaid Äħ
yn ais
Ġdaik tÄħ
å ı
egz ist
Ġtvark omi
Ġpateik tos
Ġw eb
ĠAlg imantas
up io
Ġplauk imo
ĠVarÅ¡ uvos
ins kis
Ġtek ti
Ġsta Äįi
ĠS erb
Ġkated ra
R K
Ġgri uv
Ġanti oksid
ĠgraÅ¾i ausiÅ³
ĠdÄĹ kl
Ġdid meninÄĹ
Ġrekomend acijos
Ġaudi to
ain ÄĹs
ĠMaÅ¾ eiki
Ġpareng tas
ĠValsti jÅ³
T al
r et
Ġsvarb iau
Ġ198 0
ĠÄ¯dieg ti
OJ E
r ys
ĠuÅ¾sak ymus
ĠU V
Ġtrump alaik
ĠgrÄĹs mÄĹ
Ġl ies
Ġnu ÄĹjo
ĠkÅ«r imÄħ
or eg
Ġlub Å³
ĠAtl anto
w a
Ġtris deÅ¡imt
Ġsrau tas
ta Å¾as
ytoj u
w ay
ch i
an kiÅ³
av ietÄĹs
MedÅ¾i aga
Ġ 00
Ġtur o
Ġ ausk
ti eÄįiÅ³
ĠÄ¯sig yj
og a
ĠVik toras
Ġim asi
Pav asar
olei bus
R es
ĠS ur
ĠkÅ«ryb inÄĹs
ĠLaik raÅ¡tis
Ġkonkret aus
ĠieÅ¡k ant
Ġpoli klini
ain as
Ġkrauj as
Ġataskai ta
oj ai
ĠStas ys
ĠsÄĹd ÄĹti
Ġ8 4
Ġport alo
s Äįio
Ġdid ysis
ĠiÅ¡Å¡Å« kius
iek imo
Ġsusitik imÅ³
Ġ15 00
Ġf osf
eid us
ĠiÅ¡d uoti
ĠM airon
Ġsen s
Ġc ar
ĠsudÄĹ tingi
g ird
ĠP C
Ġkl ausi
inink uose
Ġpriemon e
Tik imÄĹs
oj anÄįiÅ³
Å¡ iai
Äįi ose
ĠÅłveicar ijos
Ġvid inis
Ġabs ur
Ġsklyp Å³
eur op
Ġpil v
Ġekran Äħ
Ġtrau mÅ³
Ġegzamin Å³
Ġat vi
Ġteis ÄĹjas
Ġkito kio
ĠiÅ¡si vys
ĠPar k
Ġnusk amb
Ġpolitik oje
Buv au
ĠapibÅ«d inti
Ġautomobil yje
Ġeig Äħ
Ġartim ieji
olet inÄĹ
ĠdeÅ¡ inÄĹje
ÄįiÅ« tÄĹs
Ġk oja
Ġkom forto
Ġm eg
Ġpergal ÄĹ
ĠpuoÅ¡ ia
Pa tik
T os
Ġbendradarbi auja
ĠPov ilas
an cija
Ġkeli oms
Ġbase inas
N R
ĠÅ¡i ur
ag as
Ġmetod Äħ
Ġgab al
T IN
pl an
Ġartim iesiems
tuv ÄĻ
Ġregi onas
Ġimp uls
Ġgal ingas
Ġistori kas
Ġefek tas
Ġp Å«l
Ġpr ailg
ĠpaÅ¾ eisti
Ġsp yg
egori ja
Ġkal nas
Gyven imas
J onas
Ġprisit aik
dom ai
ĠÄ¯vair iems
Ġtr ej
i oji
ili p
c inÄĻ
ĠD eiv
Ġtr uko
ĠI Åł
Ġlent yn
ĠuÅ¾r egistr
Ġkamp u
Ġpatar imus
am ose
Ġpat ink
Ġk eb
Åł iek
Ġmilij onai
ĠuÅ¾ tek
ĠZ ig
Ġkr on
Ġmed inÄĹs
ĠVid urio
Ġbui ties
Ġspaud imo
Ġcentr aliz
Ġnegal ÄĹtÅ³
Ġpartner ystÄĹs
n eb
ĠX IV
ĠvarÅ¾ ovÅ³
AuÅ¡ ros
ĠÅ¾ and
Ġre organiz
ĠkarÅ¡ ta
ĠTeis ingumo
Ġdvira Äįiu
Ġveik ÄĹjai
R U
Ġkamp anijos
Ġgars Å³
ilp n
ĠÅ¾ali Å³jÅ³
Ġsup ak
D I
atori ui
iv idu
Ġnaudo ta
erc edes
Ġdal ijosi
Ġc o
ĠÄ¯raÅ¡ o
ĠMo tinos
Ġs alÅ³
T vark
Ġgal Å«n
Ġprie p
ĠTam siai
ĠpraÅ¡ ymus
at om
Ġdraug o
Ġetik et
Ġpas kl
Ġpateik tÄħ
anti ja
ĠÅ¾urn alas
irk Å¡
ĠneÅ¾in ojo
Ġkariuomen ÄĻ
Pagrind inÄĹs
ĠÄ¯kai tin
Ġnem ato
Ġsvaj onÄĹ
ĠA tÄĹ
Ġs uom
Å¾ od
Ġnu im
ĠÄ¯spÅ« dÅ¾iais
ĠiÅ¡tir ti
k Å«r
ĠiÅ¡v yst
Ġh ek
ĠiÅ¡skir tinai
Ġliep sn
ĠD ail
Ġsav ir
Ġvaliu tos
evi Äįiui
Ġprietais as
ĠS kir
Ġgimnaz ijÄħ
Ġma gi
Mies tas
ĠAleksand ro
ĠiÅ¡raiÅ¡k a
es to
j onas
li ukus
Ġorkai tÄĹje
Ġvietov ÄĹs
Ġnek et
ĠteÅ¡ los
Fo tograf
ykl ose
Ġpareig Å«nas
ĠAkmen ÄĹs
Ġjoki a
ĠMich a
Ġb anga
Ġprad iniÅ³
Ġmoksl Äħ
ĠT ib
Ġpor no
Ġstovykl Äħ
ĠR aud
Ġsus kirst
kai Äįius
Ġprietais ai
Ġpirmen ybÄĹse
Ġsunki os
Ner eikia
Ġtiek ÄĹjai
Su tar
Ġpir ties
ĠÅ¡ok ti
ĠTeis mas
Ġkontra k
ĠÅ¡eim yn
Ġperd avÄĹ
ĠparuoÅ¡ tas
ub er
Ġpaskut ini
paÅ¡ to
w agen
Ġpar si
Ġskulp tÅ«ros
ut h
Ġtriko taÅ¾
K ÄĹd
tu liÅ³
Ġvartoj amas
ĠKat alikÅ³
Prad inÄĹ
Å½od Å¾iu
ti ena
ĠMarÅ¡k iniai
Ġkal nus
eiki ama
ĠpaplÅ«dim io
Ġpasak Å³
ĠdÄĹÅ¾ ÄĹs
Ġpav ieÅ¡
Ġkel eiv
ĠAf ganist
Ġlaik omos
Ġsus imok
Ġruden iui
Ġpiliet ybÄĹs
eÅ¡ ÄĹ
ĠU l
Ġkri p
ĠKaz lÅ³
t fin
å °
ik oje
Ġtren erio
ĠDon el
. /
ĠM az
Ġnuorod os
Ġnek on
Ġperdirb imo
ĠÄ¯si bÄĹg
ĠKÄĻstu Äįio
Ä¯s tu
Ġuos tam
Ġpavid alu
Ġpadar ytas
Ġsta bili
Ġj oks
Ġnaudoj amÅ³
Ġvil tÄ¯
Ġp ogr
ĠpaÅ¾as ties
Ġatliek amos
Ġofici ali
æĹ ¶
Ġv eli
ĠÅ¾ Å«kl
Ġnes uvo
D okum
L o
Ġprofesion aliÅ³
ĠÅ¾iÅ«r int
Ġtekst us
Ġpomid orÅ³
Ġkito kÄ¯
Ġlyd i
Ġsidab r
j eigu
Ġnagr inÄĹti
ĠÅłirv intÅ³
ĠUÅ¾s ienio
Ġne liko
ĠS ut
Ġpasi b
Ġasmen inius
IÅ¡ si
Ġgret ose
Pastab a
ĠuÅ¾trauk tuku
Ġbro liÅ³
ra p
ami o
iz oli
199 4
Ġvartoj imÄħ
T ri
c ore
Ġsus toti
ig ht
Ġdv ejÅ³
ĠRaudon a
s av
Ġsvarbiausi us
â Ħ¢
A bi
I B
Ġne vien
Ġmalon i
Ġprofi lio
J okiÅ³
Ġteigi amÄħ
Ġkr enta
Ġskirting ose
tu al
Ġbals avimo
Ġmoksl eiviams
ĠÅ¾iem a
Ġprokur atÅ«ros
Ġap tink
ci Å¡kus
Ġsubjek tÅ³
ĠAl d
ĠB us
Ġsutar tyje
Ġpili gr
ĠuÅ¾dar yti
Geri au
ĠI v
Ġper e
ĠtrÅ«k umÅ³
ar y
Ä®si vaizd
ĠB arb
Ġkati l
S avivaldybÄĹs
Sus is
ĠÅ¾in omos
Ġministr ÄĹ
Å½in au
Auto mobil
ĠÅ¾iem ai
l ink
å½ ©
ĠdÅ¾ins ai
Ġspecial ybÄĻ
ĠÄ¯pro Äįius
Ì Ħ
Ġspeci aliÄħ
Ġpamok sl
ĠMaÅ¾ osios
av ori
ĠS aug
ĠÅ¡au liÅ³
ĠiÅ¡mok Å³
Ġneigi amÄħ
ĠiÅ¡n yk
Ġindividu alius
Ġvien etas
Ġg ur
Ġgais ro
Ġpartiz anai
Ġetn ograf
k alb
Ġl iej
Ġskat inimo
Ġpa ÄĹmÄĹ
ĠiÅ¡g yvena
Ġgrup ÄĹms
ĠL ais
Ġpasi tiko
Ġmiest elÄ¯
Ġrau men
Ġinfek cijos
Ġk ali
Ġpastar aisiais
Ġaktu alu
ĠÄ¯steig ÄĹ
li jos
on inÄĹ
Ġbat eri
ĠneiÅ¡vengi amai
Ġpra vaÅ¾i
Ġrod ÄĹ
Ġpakrant ÄĹs
Ġj uvel
Ġkar kas
ĠtÄĹv eliai
Ġrekl amÄħ
ĠG arg
Ġvaizd Å³
Ġtransp ortas
Kas dien
Ġ3 50
Ġdalyv avimas
Ġtarptau tinÄ¯
Ġpateik tÅ³
ĠAd am
Ġsusitvark yti
Ġl ei
Ġvad ino
Ġavar ijos
ok ti
Ġstud entas
ĠT ail
Ġdvy lik
Ġd Å«m
ori umi
Ġab iem
ĠkiÅ¡en ÄĹs
Ġnustat oma
ĠL iu
si os
Ġp is
ĠJ K
Ġsv y
Ġpak enkti
Å«d i
ĠÅ½ iem
ĠbÅ«s ena
ĠK ovo
oli d
ĠkraÅ¡to tyr
Ġmis ijÄħ
d avi
s in
ĠNer ies
ĠapÅ¾valg os
ĠÅ¾arn yno
Ġlit urg
C IJA
ĠS ar
ĠÅ¾em e
Ġbat erijos
Ġk unigo
Ġpritaik yta
Ġsij onas
Ġpageid avimus
Ġpatog ios
gr ÄĻÅ¾
Ġpaskelb imo
Ġpast angomis
ĠÅ¾ engti
ĠnatÅ«r alu
Ġslap ukus
Ġsk iep
Ġpasik eisti
ĠiÅ¡vyk ti
Ġautobus u
Ġaspek tus
eat ro
Ġtikras is
Ġsenam iesÄįio
Ġd ant
ĠuÅ¾m egzti
Ġalternatyv a
ed Å¾io
Ġeki paÅ¾
Ġc oliÅ³
Ġ19 50
ieÅ¡ tar
Ġatkr eipia
ĠÅ¡im to
Ġsim fon
Ġnugar oje
ï¿½ï¿½ ï¿½ï¿½
Ġbal eto
Ġsocial ines
ĠiÅ¡mok os
Ġtinkl us
Ġmie las
Ġnauj osios
Ġpamok a
k ÄĻ
âĢ ¯
ĠTarptau tinÄĹs
Sus irink
Ġmegz tukas
ac inÄ¯
Ġpatar tina
Knyg os
Ġdemokr atÅ³
d ytÅ³
Ġpir tis
Ġnep rad
Ġkolektyv o
Ġgav ÄĻ
ĠVeng rijos
Ġdien oms
Ġnepas iek
D ek
Ġes anÄįias
ys ÄįiÅ³
ĠS ig
ĠmÅ«Å¡ io
ĠiÅ¡sisk yrÄĹ
ausk ui
u tat
Ġpasak ojama
sn ys
Ġsitu acijas
Ġveiki anti
Ġtur ting
ĠdrÄĹg n
ar ius
Ġvien Å³
Ġst alÄħ
Ġtau tÄħ
Ġteat rÄħ
Ġakimirk Å³
oj osi
Pra dÅ¾ioje
or do
Ġpasik laus
ai li
ĠAp ie
Prek ÄĹs
n aus
alis tas
Ðµ ÑĤ
ĠpraÅ¡ ymo
ĠtrÅ«k umus
olog inÄĹs
Ġatsitik tinai
ĠkraÅ¡tovaizdÅ¾i o
Ġpak eliui
Ġmerg in
Ġnuopeln us
Ġe inant
Ġgyv uliÅ³
Ġtir Å¡
Ġmen ininkas
ĠrÅ«b Å³
Ġpuosel ÄĹti
Ġapsaug ai
Ġmais tui
Ġspecial Å³
ant ÄĹs
Ġdetal ÄĹmis
D ÄĹm
Ġkar Å«n
E Å¾er
bu tis
A F
ind a
Ġapskri tis
Ġbilie tÄħ
Ġdieno raÅ¡
ĠL ank
Ð½ Ñĭ
ĠÅ« kiÅ³
Ġmal da
Ġvienuol yno
ĠSlov aki
b ran
uod amos
Ġr inkitÄĹs
ĠN K
Ġan Å«k
ĠkaÅ¾k uo
Ġdaug ybe
Ġpateiki amos
Ġuod eg
P D
ĠM ig
Ġgars as
Ġrank en
Ġatmin tis
Ġbakteri jos
Ġgrei ta
Ġup ÄĻ
Ġr aiÅ¡kos
Ġdrabu Å¾iais
Ġgalim i
Ġvertin ami
Ġvis tiek
Ġr eis
ĀĀĀĀĀĀĀĀĀĀĀĀĀĀĀĀĀĀĀĀĀĀĀĀĀĀĀĀĀĀĀĀ ĀĀĀĀĀĀĀĀĀĀĀĀĀĀĀĀĀĀĀĀĀĀĀĀĀĀĀĀĀĀĀĀ
N ÄĹ
Ġsocial inius
Ġsieki ame
S uv
Ġm Äħs
Ġpri aug
Ġvalstyb es
Ġbaim ÄĻ
ĠLands berg
ĠmaÅ¾ inimo
ĠSe imÄħ
ĠÄ¯g auna
Ġkriteri jÅ³
ĠDari aus
Ġman ev
Ġpager ina
ot yr
Ġgau ta
å ®
Ġmig d
Ġmed iniÅ³
Ġrestoran as
ij ÄĻs
ĠiÅ¡p ard
Ġvals Äįiuje
man Å³
Ġstovykl oje
Ġtradi cijÄħ
ĠiÅ¡ vir
Å¾i ams
Ġb oks
ins is
B ank
li avos
Ġpr om
Ne pr
ap az
Å½ ym
ĠsÄħ si
Ġdirb ame
Ġeil ÄĻ
Merg elÄĹs
u j
Ġdar au
Ġnetink amai
k an
Ġg ylis
ĠÄ¯sitik inÄĻ
ĠnuoÅ¡ ir
ĠsÄħlyg oms
ilie jÅ³
st us
W indows
Ġdain avo
ĠÅłvenÄįi oniÅ³
Ġpasireng ÄĻ
Pr em
I sp
Eksp er
al ija
k liÅ³
Ġgrei to
Ġsvarbi Äħ
ĠnorÄĹtÅ³ si
Ġlaisval aiki
Ġcirk uli
ĠJ ava
lo tas
ĠaukÅ¡ tum
Ä® pras
Ġsod Äħ
Pri klausomai
Ġpri trauk
Ġsod ybÄħ
Ġplatform os
Ġdaug umai
Ġneb aig
Ġatsispind i
Ġv ynas
Ġm ent
ĠlÄĹktuv u
Ġinfrastruk tÅ«ra
Ġgen oc
imen ame
Ġfak tiÅ¡kai
ĠplÄĹ trai
Ġnen umat
Ġkor po
19 18
Ġteis ingÄħ
ĠAr m
ĠneÄ¯tik ÄĹ
ĠG im
Ġstandar tÅ³
Ġrecep tÄħ
Ġpriim ta
Ġarchitek tas
ĠÅ¾ing snius
on ic
ĠiÅ¡tek lius
ol ai
Ġnusikal timus
b endr
ĠVidur Å¾emio
Ġsaug oma
T avo
ĠpripaÅ¾ inta
Ġsusirink imo
and uo
Ġaps in
Nor ÄĹÄįiau
eg ÄĹ
ĠGr ei
ĠÄ¯r egistr
Ġdet alÄĹ
Ġpask yrÄĹ
ĠA L
Ġpag im
Ġbal tar
S istem
Ġenerg e
Ġerdv es
Ġnetik sl
Geri ausias
Ġpop ierius
u ra
Ġrem ia
Net gi
ĠL iep
ĠÅ¡il tÄħ
ĠgraÅ¾ Å³
ĠiÅ¡k ep
Ġnuv eÅ¾
Ġpasirink ta
Ġbase ino
ĠÄ¯ ver
Ġun ijos
Knyg a
ĠatneÅ¡ ÄĹ
ĠÅ¾valg ybos
Ġkompozi torius
Ġplat aus
ks wagen
ĠdeÅ¡ inÄĻ
Atsi praÅ¡
d ata
Ġstipr Å«s
AI K
Ġpaveiksl Å³
Ġak ies
ĠH el
Ġsav ininkams
Ġklaus ÄĹ
Ġoper acijÄħ
Ġsukur tÅ³
Ġrug pjÅ«
ĠPr am
! )
Ġpavoj ingas
Ġpabendr auti
Ġint ym
Ġmit ybÄħ
ĠinÅ¾in ierius
P M
Ġi f
ĠS n
Ġpok erio
Ġatvyk st
Ġtol ygiai
AN T
ik inÄĹs
Ġlaid a
Ġtr ob
Ġor Å³
ĠiÅ¡g erti
eri uose
Ġkosme tika
V ik
un kite
Ġfor umo
ĠValst yb
z Äħ
Ġtink amo
Ġprasid ÄĹjus
Ġseptyn iÅ³
Ġkriz ÄĻ
Ġ7 3
ĠÅ«k Ä¯
Ġnebeg ali
Ġataskai tÅ³
ĠmaÅ¾ umÅ³
Ġplunk sn
Ġgyven antis
Ġpens ijos
Ġes mÄĻ
ĠiÅ¡val yti
. ]
Ġfor tepij
Ġmin tyse
ak ai
Ġskl eisti
ĠÐ º
ĠsÄħn ariÅ³
Ġpas ielg
u tinis
Ġli tu
Ġkeli auj
Ġrink o
Ġnukent ÄĹjo
ĠM el
ĠAs mens
l eris
Ġjaus mo
Ġtak as
ĠD onal
ĠF orm
Ì ģ
Ġne tikr
Ġsusitar imo
Ġtoki ose
Ġnepr ar
ĠÄ¯kÅ«r ÄĹjas
Ġmerg inÄħ
Ġprival umai
Å¡ te
Ġar tis
Åł eim
Ġpl ovimo
Ġdiskus ija
il is
ĠsuÅ¾ aidÄĹ
Ġit ali
u ter
Ġpirk ÄĹjas
Ġt aus
ien to
ĠneÅ¾ inia
K okie
S uper
ĠÅ¡un Ä¯
Ġterm ino
n yje
j uod
Ġpad angas
audo tos
Ġvaland a
O ro
ĠK rik
ĠnemaÅ¾ Äħ
and is
Ġkal ÄĹjimo
Ġskirting ais
Ġinte lig
Ġsekm adienio
Ġaptik ti
D v
k iem
ĠÅłalÄį ininkÅ³
ĠÅ¾ r
J ud
ĠÅ¾ied as
ĠT S
lÄĹp ÄĹ
Ġmil tus
i amas
ul Å³
Ġilg amet
ĠJaun imo
d uo
Ġatvyk ÄĻs
M alon
Ġpopuliar umo
ĠkÅ«ryb iniÅ³
am umÄħ
imÄħ si
Ġprojekt avimas
Ġversl ininkÅ³
d ÄĹs
Å¡k Ä¯
Ġapar atas
Ġmedvil n
ĠneuÅ¾ m
Ġpasi telk
Ġlank ytis
tuv es
Ġberni ukÅ³
ĠR iet
Ġprojek tu
Ġbyl Å³
Ġkompiuteri u
Ġkoleg ija
198 9
Ġvadov ybÄĹ
Ġpard uoda
Ġatsis kaityti
ĠplokÅ¡ ÄįiÅ³
Vid ur
ĠkÅ«di kiÅ³
ĠuÅ¾skl anda
yd avau
Ġprezid entu
ĠÅ¡al to
en Äįi
Ġanaliz ÄĻ
yn es
Ġger u
Ġpaskir ti
Ġsu aktyv
ĠruoÅ¡ ti
Ġprat ÄĻsti
ab a
Å½ ied
Ġgalv ojau
Ġ; )
ov ais
ĠposÄĹd is
ĠPr ojek
Ġdef ici
ĠpaÅ¡ ven
Ġkompr omis
op o
Ġpasis ekÄĹ
ĠÅ«k inink
J ono
Ġnauj oji
Ġvaik inÅ³
o terap
Ġs at
Ġn iu
Ġtiesiog inÄĹs
R enk
Ġs h
Ġtarn ybÅ³
p yr
Ġ Å¾io
Ġp og
ak ti
Ġdraug u
Ġaplinkos aug
Ġpri ar
Ġ198 7
Ġturin Äįius
Ġ0 5
ĠÅ¡i uose
Ġmet af
Ġmies tu
ĠP ers
Ġveiksm Äħ
Ġpagerb ti
Ġcigar eÄįiÅ³
ĠidÄĹj omis
s h
Ä¯ sl
Ġat ver
ĠaukÅ¡ tÄ¯
Ġnev eikia
Ġsimbo liÅ³
Ġmoli Å«g
om ais
Ġvertin ama
Ġher ojus
Ġnustat ytus
Ġvairuotoj ams
Mat menys
Ġsu ver
eli ks
ĠpapuoÅ¡ ti
Ġz onÄħ
Ġsie ja
Ġs ch
Ġpro te
Vien o
ĠliteratÅ«r Äħ
D ovan
u zd
Ġbendr auja
Ġspr ÄĻs
Ġaug ina
Ġcharakteri o
Ġkom uni
eÄįi ams
ĠaukÅ¡ tyje
Ñ Ĩ
Ġrib Äħ
ĠRim antas
Ġturnyr Äħ
Ġgri po
Ġnacional iniÅ³
in anÄįiÄħ
Ġspecialis tais
Ġnedid elÄĹs
il k
Ġtarn yboje
Ġindividu aliÅ³
Ġsut virtin
ĠmÄĹg ÄĹjai
ĠÄ¯k Å«n
Ġnus istat
Ġjud esiÅ³
ĠÅ¡imt metÄ¯
ĠÅ¾mon Äħ
bl ok
en ir
Ġaktyv umas
Ġkompon entÅ³
Sekm adienÄ¯
ĠÅ¾ali uz
Ġant raÅ¡
Ġ9 6
Å« gÅ¡
Ġpal aidinÄĹs
ĠÅ¾em es
RaÅ¡ o
ä ¹
on to
ĠsiÅ«l omos
Ä¯s kaitant
Grei tai
Ġsut ap
Ġvard Å³
Ġpatiksl inti
esi gn
ĠAgn ÄĹ
Ġsp uog
Ġvar go
ĠMok slo
Ġor laiv
ĠÅ¡ven tov
Naud odami
Ġpr enumer
ĠD ain
Ġpil ka
olog ijÄħ
Ġ0 6
Ġvizi to
Ġap eti
kai tom
Ġatv eria
Ġ0 3
aj aus
Ġsocial iniai
Ġmom ento
aiÅ¡k a
Ġpatar ÄĹjas
ĠartÄĹj ant
oj antys
usi oje
ĠtÄĻs ÄĹ
ri kÄħ
Ġtarptau tiniame
j is
ie rÄĹ
Ġsmul kiai
Ġtrau mos
Ġdal inasi
Ġrod omi
Ġ194 9
Vakar Å³
ĠuÅ¾tr unka
Ġnauj ÄħjÄ¯
ĠÄ¯s imin
Ġgerb ÄĹjai
ÄĹ tojas
Ġtam pri
o o
Ġg liuko
atori ais
uok liÅ³
ĠÄįempi onas
Ġrieb alai
Ġkonflik to
Ġentuzi az
Ġmat oma
Ġgars Äħ
y Å¾iÅ³
od Å³
Al ytaus
Atsak ymas
Ġcukr us
Ġbur bul
Ġdar ome
var styti
Ġpozi cijoje
Ġcukr umi
Bendr ovÄĹ
Ġvaliu ta
Ġjub iliejÅ³
Ġgyd ymui
ĠAr vydas
ĠÅ¾ mo
Ġsav ininko
Ġtr ejÅ³
Ġkal nÄħ
Ġangli Å¡kai
om u
Ġpl ytÅ³
Ġketv erius
Ġk n
Ġnutar imu
Ġbendrov ei
Ġdalyv avimo
Ġsir up
Ġnustat ymas
Ġdiagnos tikos
ĠÄ¯sitik inusi
ub e
ĠsÄħj Å«dÅ¾io
au tos
av imais
Ġpar eikÅ¡ti
ili aus
entÅ³ jÅ³
Ġskol Å³
V a
or f
t uojamas
Ġlaim i
Ġpotencial Äħ
Ġvalstyb inÄĹ
ĠL M
ĠpaÅ¾ad ÄĹjo
st el
Ġteigi amÅ³
Ġdug no
Ġli z
Ġskl eidÅ¾i
Ġrom ano
Ġgav us
Ġatidar ymas
t l
Ġsav as
S ep
c kas
Ġpalaik ymas
ĠreÅ¾ imÄħ
Ġhum oro
am uoju
Ġpl ÄĹsti
Ġbesik eiÄįi
R ed
Ġpasirink tÄħ
ĠkraÅ¡ tus
Ġsergan tiems
Ġpasirod ymo
Ġsult ys
Ġvis kuo
Ġs ai
Ġm irk
ĠIS O
ĠP e
Ġprie gl
Ġpik tin
B as
Ġnel eido
damas i
Keli onÄĹ
Ġl Å«Å¾
Ġbuv usÄ¯
Ġdid eliais
Ġpasir enka
Ġpasp auskite
ĠÅł koti
Ġmie l
Ġpien as
Sp or
Ġkar oli
Ġprojek tuose
Ġb ra
Ġapgail est
ĠC or
Ġnel engva
Ġkunig ai
Ġprisijung imo
Ġinternet Äħ
ĠKali for
V S
Ġpadar ys
Ġatstov auj
ĠLatv ija
Ġmeis tr
Ġgars iÅ³
Ġsureng ta
ĠL ev
ĠT ri
Ġgatv es
Ġim s
ĠaiÅ¡k us
Pris im
ph p
Ġdain uoti
ĠvarÅ¾ ÄĹsi
ĠpasiÅ«l ymo
Ġgeb ÄĹjimÄħ
Ġdarbo tvark
w ed
Ġatsistat yd
Ġfak tai
ĠA v
V O
Ġleid inys
es ter
ĠbirÅ¾ elÄ¯
Ġprin ces
DÅ¾iaugi amÄĹs
Ġide ali
Ġdi apaz
Ġsvaj onÄĹs
ĠbÅ« si
ĠuÅ¾fiks uoti
Ġform ato
ĠS tu
Ġsusigr ÄħÅ¾inti
Ġbaus mÄĹs
ĠvÄĹli avos
Ġsen iau
Ġnurod ytos
Ġbaid ar
Ġbank ai
ĠRom oje
ĠsiÅ«l yti
Ġpaveiksl Äħ
P or
er tu
Ġilg o
Ġner aÅ¡
Ġsiun tos
uokl ÄĹ
os ime
r ei
Ġrengi ant
Ġbibliotek Å³
Ġsek toriÅ³
Kr eip
ĠJung tinÄĹje
Ġgr ybÅ³
ymu isi
= "
Äį as
ĠÄ¯pras tas
ci au
ĠÄ¯dom ios
Ġvidur kis
ĠamÅ¾in ai
Ġpra var
Ġmig racijos
Ġrekon str
T eko
Ġelg s
Ġgitar a
Ġg imus
Ġ19 19
Ġinterjer Äħ
ĠÄ¯vaizdÅ¾i o
ĠparaiÅ¡k Äħ
ĠnarÅ¡ yklÄĹs
ĠBir utÄĹ
ĠO d
l Å«s
Ġal us
Ġstov ykla
Ġ2 20
Ġkelio lika
Ġver timo
D Äĸ
ĠuÅ¾ b
Ġlinksm ai
uri u
Ġmen ki
Ġskry dÅ¾ius
Ġtrum pa
L ygiai
tar as
Ġr ang
ĠmÄĹnes iai
ien as
Ġfin alÄħ
Ġre fl
ĠKalÄĹd as
Is torija
K ino
Ġsteb ina
Ġmobili ojo
Ġ om
ni Äħ
ĠÄ¯m uÅ¡
Ġpl ati
ĠiÅ¡g r
Prek ÄĹ
al umÄħ
Ġnep lan
ĠÄį er
Ġbuv imas
al p
ĠpraÅ¡ oma
ĠAl ytuje
ĠeÅ¾er Äħ
Ġnepakank amai
Ġnepav yks
ĠM Å«sÅ³
ĠsveÄįi as
ÄĹk Å¡
Ġpateik tus
aun amas
ĠInter national
enk ÄĹs
Ġnor inÄįiÅ³
Ġvasar ai
Ġstipr Å³
ĠiÅ¡d al
Ġvarik liÅ³
Ġval domas
Ġgaus us
Ġ Å
Ġrel je
Ġgr Ä¯Å¡
Ġrengi amas
ĠV ene
Ġnumat ytos
Ġnesil aik
Ġpatri oti
Ġtik ÄĹjosi
Ġsen os
Ġrestoran o
Ġegz amino
Ġemig r
P P
Ġfin al
C o
cen z
Ġbes il
Ġapa Äįios
Ġtau tinÄĹs
Ġtiesiog iniÅ³
Ġide alus
ĠÄ¯kvÄĹp imo
ĠrÅ«p inosi
Ġprie das
Ġpavad inimai
Ġvidu tinÄĹ
Laik as
Ġkaln uose
Ġnaujag im
B ilie
Ġtar kim
Ġleid ykla
Ġapsir eng
Ġpapildom us
ĠJ eigu
Ġnorm as
Ġrink ose
Ġmas k
Ġpasek mÄĹs
t ver
Ġ8 7
ĠÅ¾urn ale
in ime
Ġmalon umas
Ġministeri jai
ech ni
m it
Ġn eig
ec t
Ġb ej
dÅ¾i ams
ĠiÅ¡laik ÄĹ
Ġprel imin
y zel
s ÄĹ
usi c
Ġpri jungti
Ġrez ist
Ġatlik ÄĹja
ĠÅ¾iniasklaid oje
Åł im
Ġspeci alius
ĠBelg ijos
Ġsveik ai
Ġm ainÅ³
Ap raÅ¡ymas
Ġkeli avo
Ð¾Ð »
ĠmaÅ¾ ame
ur as
Ġbals avo
Ġger anori
Ä®si g
ÄĻs ta
Ġataskai tÄħ
Ġrau menys
Ġgeneral inio
D S
ov skio
Sen i
ĠlauÅ¾ o
Ġfakult ete
Ġteritori jas
ĠÄ¯t eikti
Ġprez ervatyv
Ġpagrind iniu
ĠPanevÄĹÅ¾ ys
ĠiÅ¡ ieÅ¡k
Ġdezin fek
ĠR E
ÄĹli uose
Ġnakv ynÄĹs
Ġmez g
tori ams
ĠsÄħ m
ĠPau liaus
f u
Ġasmen ybÄĻ
Ġpakei timus
Ġpriskir ti
Ġ0 7
Ġtikr ovÄĹs
an ui
Ġdvid eÅ¡im
Ġn iÅ¡
ĠAlg irdo
Ġbi ÄįiÅ³
Ger os
ĠiÅ¡g yd
Ġdail ininkÅ³
Ġpos tÄħ
Ġapdirb imo
Nor ime
Ġpasid aro
Ġdomin uoja
Diev as
ok Äħ
Ġmet ines
Åłi uos
ĠiÅ¡k elti
âĢĻ .
ĠbaÅ¾ny ÄįiÅ³
Ġb amb
Ġats kira
Ġ$ ('
b y
e pr
Ġrom anÄħ
Ġsu telk
Ġpak alb
ĠC as
Ġbar zd
Ġsta Äįia
Ġman ÄĹ
celi ar
tr oli
Ġper Å¡al
Ġnemok a
ĠÅ¡eim ininkÅ³
Ġkilogr amÅ³
Ġper ÄĹjo
Ġ0 4
Ð¾Ð ´
ĠAk adem
t Å«
Ġparod ose
Ġvid inÄĹ
Ġdirb u
Ġaktyv i
Ġvadov ui
ĠSt amb
Ġtaup yti
Ġdepres ija
le x
Ġ17 0
Ġbag aÅ¾o
uo tomis
Ġskelb imÄħ
Ġes amÄħ
Ġfig Å«r
Ġreal ybÄĹ
Sc ript
Ġb uk
ĠÅ¡ak nys
Ġasortimen tas
M O
Ġsavait ei
Ġangliavanden iÅ³
Ġaptar ÄĹ
Å¾ a
DidÅ¾i ausia
Ġtur im
Ġbend ri
Ġleis ta
Ġpalengv inti
ĠR aimon
Ġrei ting
ĠiÅ¡skir tinÄĹ
Ġsimboliz uoja
.. ...
Ġseri jÄħ
Ġkieki u
Ġfin alo
A lg
ĠB ui
Ġgau b
Ġsavait galio
ĠÄ¯sikÅ«r ÄĻ
k el
amen u
Ġvyskup ijos
Ġ19 70
Ġfiz inÄĹs
k ub
Ġdarb davi
Ġski lt
ĠVer slo
au z
ĠbruoÅ¾ Å³
Ġkok tei
Ġkokyb iÅ¡ka
Ġsavaitgali ais
B ul
tr ol
Ġdirb antis
Ġdvar Äħ
Ġtar Å¡os
ĠkarÅ¡ tÄħ
ĠiÅ¡Å¡Å« kiÅ³
Ġefektyv us
Ġprid ed
Ġprir eikus
ed ros
Ġh ier
Ġmat omi
Ġsiurbl ys
ad i
ĠÅ¡eÅ¡ ias
Ġkav Äħ
Ġcen tim
LK D
y dÅ¾io
Ġnepakank a
1 20
Å¾ is
Ġsk ald
[ âĢ¦]
Ġtink amÅ³
ĠKl as
Åł ved
ĠiÅ¡skir tinio
Ġsv iestÄħ
Ġdarb ininkÅ³
ĠAuÅ¡ ra
ĠJ ie
Ġansamb lio
ĠpaÅ¾eid imas
TÄĹ vai
U g
A pi
j ono
men imis
Ġpag rob
isi on
Ġpasitik ÄĹjimas
Ġsut ampa
Ġscenar ijÅ³
Ġsusid Å«rÄĹ
Ġdraug Äħ
Ġmuzik antai
ĠpaÅ¾ em
aÅ¾i au
Ġvals Äįiaus
ĠEurol ygos
ĠsusiÅ¾ av
Ġapyl inkiÅ³
ĠkliÅ« ÄįiÅ³
ĠpluoÅ¡ to
ĠKazimie ras
v Ä¯
ĠK TU
Ġgyv avimo
Ġlauk Å³
dav ome
Ġjuos tÄħ
Ġtarn auja
Ġlink me
Ġpriesk oniÅ³
ĠN ÄĹr
ĠL ukÅ¡
ĠmedÅ¾i us
Ġnepriklaus omos
At kreip
ĠSk elb
Ġbrang us
Antr asis
Ġsocial inis
ĠuÅ¾sid irbti
DÄĹv ÄĹta
Ġprincip ais
Pr am
Å«ri au
ĠparaiÅ¡k os
Ġmig r
ĠauklÄĹ tiniai
ĠkaÅ¾k okiÅ³
ĠN ap
ĠÅ¾ym iausiÅ³
ĠAf rikoje
Ġsiek is
ĠÄĮeki jos
K T
ĠÅł eÅ¡
Ġpras tai
Ġstab dÅ¾iÅ³
ĠVilkaviÅ¡k yje
ki lo
ĠQ u
Ġinform avimo
ĠO rai
Ġpraei tyje
Ġdr ob
Ġaps il
âĢ¦ âĢľ
Ġrim t
K iau
AU J
uol ÄĹs
ĠÄ¯gyvend ina
Åł iai
ant ams
tus iÅ³
Ġprek ybÄħ
s iÅ³
Ġp ublic
eli ja
Ġmeis trÅ³
Ġsuv aid
Ġmy liu
Ġnurod ytÅ³
Ġkrauj osp
ĠÅ½em ÄĹje
Ġprie Å¡k
in amai
ĠiÅ¡k ÄĹlÄĹ
Ġgraf ikos
Ġrekomend uoju
Ġsaus Ä¯
ĠÅ¾urnalis tai
ĠÄ¯dom Å«s
ĠkrikÅ¡Äįion iÅ¡k
ĠkonkreÄįi os
ar eikÅ¡m
gi os
Ġkon tek
Ġsie l
Ġmar in
ty Äįio
ĠiÅ¡mok o
Ġkandid atas
Ġvon ia
el f
Ġduk art
Ġsk audÅ¾i
ĠI ki
Ġatmin tÄ¯
Ġner ad
ow n
Ġlaid as
ĠneÄ¯tik ÄĹtinai
vil ÄĹ
Ġburn Äħ
ĠH it
k eli
ur to
ĠÄ¯st ri
Ġskait ykite
Ġb os
Ġtyr imais
Ġch l
Ġneteis ÄĹtai
ĠL ithu
Ġmen ininkai
ĠKar olis
ĠJurg is
ĠÅ¡iandien os
Ġarchitek tÅ³
T rad
ax y
b uro
ĠÅł e
Ġdraud imÄħ
Ġpoil sis
ĠT R
Ġgaun amas
Klaus imas
ĠÅ¡v yt
Ġjaun imÄħ
us o
yn u
Ġenciklop ed
Ġlent elÄĹje
Ġk enkia
Ġskund Äħ
Ġgruod Ä¯
Ġmok inio
Ġkair ÄĻ
ĠÅ¡ved Å³
Ġm ada
Ġskamb inti
Ġfak tus
Ġpirm adienio
Ġatstov o
Ġdaug iafunk
ĠreiÅ¡k ÄĹ
ĠVM VT
ĠTau tos
in ÄįiÄħ
Ġm irÅ¡ta
ĠC an
ĠTÄĹv o
s Äħjung
Ġpj aus
k ais
Ġan onim
dom u
Pasi baigus
Ġpalengv ina
Ġbro lio
Moter ys
Ġteis iniÅ³
Pasir inkite
ĠvaÅ¾i avimo
an air
yk as
Ġunivers alus
Au torius
g Äħ
ino te
Ġtam pr
Ġantr ame
E I
Ġpopuliar Å«s
ĠK ep
Ġmed alius
ĠiÅ¡g auti
ap n
il a
Ġ7 1
ĠÅ¡ok o
ov ÄĹje
Ġsen us
Ġatsis iÅ³sti
ĠpagrÄ¯s tas
k in
Ġat ÄĹjus
ä »
ys ti
ĠuÅ¾ ÄĹm
Ġkap inÄĹs
Ġkraujo tak
ak is
Ġpat rio
kl Ä¯
Ġder liaus
tinink o
Ġplat in
Ġvaik Å¡
ĠgeleÅ¾ink eliÅ³
Ġprieig Äħ
li pti
Ġre pres
Ġdom ÄĹjosi
T radic
ĠCi vil
R ag
ĠplokÅ¡ tÄĹ
K in
Ġmom entas
Ġsukil imo
Ġrad io
Ġversl e
Ġpusiausvyr Äħ
Ġatstov auti
Ġk ed
Ġal gos
Ġgarb ei
Ġt ing
Ġtik inÄįiÅ³jÅ³
A plinkos
Vaik ams
Ġelem entais
ĠS uper
ÄĹn uose
ĠiÅ¡tis us
Ġlaik ymo
Ġpasaul inÄ¯
ĠveÅ¾ ti
Ġnebuv au
Ġciviliz acijos
Ġnuotrauk omis
Ġkomun istÅ³
O p
Ketvir tadienÄ¯
Ġpil Ä¯
Ġmieste liÅ³
ĠkÄĹl inyje
TreÄįi adienÄ¯
Pirk ÄĹjas
ir Äħ
t ÄĹjo
ĠposÄĹd Ä¯
Ġskirting o
Ġpalaik ymÄħ
yk us
Ġsudar ys
ĠuÅ¾ uo
Ġar tÄĹja
ny tÄĹs
Ġautobus ai
Ġlauki ame
h el
ĠsiÅ«l omÅ³
ĠnuÅ¾ud yti
ĠÄ¯si verÅ¾
Ġrank ena
im at
Ġsv arÅ³
ĠÅ¡ urm
Ġaplink ybÄĹmis
Ġkontroli uoja
ing esni
Ġkoncer tai
G D
P ig
Ġak menys
Ġseni Å«nai
B O
ĠgeguÅ¾ ÄĻ
Ġsusi p
ĠÄ¯tik inti
Ġremon tÄħ
ĠMarijamp olÄĹje
Ġr ÄĹÅ¾
Ġbyl oja
ĠlÅ« pas
ĠiÅ¡s iÅ³sti
ĠuÅ¾duo tys
ĠÄ¯rod o
Ġim ita
ĠbiudÅ¾ etas
ĠatÅ¡ auk
G ed
Ġsp intos
Pag aminimo
Ġveis l
Ġpaj Å«r
Ġapsilank ÄĹ
ĠS ausio
Ġveik imÄħ
Ġprieig os
Åł vel
Ġsusid aryti
Ġs ol
ĠaukÅ¡ tojo
Ġnesugeb a
Ġsusid ari
Ġpenk eriÅ³
Ġpriver Äįia
ĠraÅ¡ tÅ³
al ÄĹje
ĠÄ¯ prat
Kaun e
Ġpakarto tinai
ĠruoÅ¡ tis
ĠVik torija
Ġr ate
Ġjaun iÅ³
Ġatv ÄĹrÄĹ
ĠiÅ¡p opuliar
ĠdeÅ¡im tis
Moksl ininkai
Ġkal tas
ĠB ak
Ġbal ti
Ġpasak yta
Ġekonom iniÅ³
kar Äįiais
tin ys
Rekomend uojama
ĠBerl yno
ĠÅ½ ali
Ġpaj ÄĹgi
ĠN ov
Ġmil teliai
Pro blem
ĠturÄĹs ime
Ġstar to
ĠG B
ĠpraÄĹjusi o
Ġpunk to
Ġgyven u
Ġstr eik
Ġmoksl ininkas
Ġtobul ai
Ð¸ ÑĤ
Å½em iau
ĠN ob
ĠdarÅ¾ elÄ¯
ĠdrÄĹg mÄĻ
Ġ194 7
Ġalk Å«n
ĠL uko
ĠapraÅ¡ yti
ĠÄ¯s k
Ġpacien tui
Ġnuv eikti
Ġm inÄĹti
ac inÄĻ
ĠÄ¯g yja
Ġmo Äįiu
Ġaktyv Å«s
ved ÄĹ
Ġpa Äįio
Ġn aiv
Ġmergait ÄĹms
ĠÐ ´
Ġprofesion ali
Ġkontak tÅ³
Gim ÄĹ
Ġlauk us
AI T
Ġsem inaras
tin tÅ³
yv Å³
Ġkap o
R egistr
Ġpak eistas
Ġtel pa
Keli onÄĹs
Ġgrand inÄĹs
Ġpasis kirst
ĠiÅ¡ jung
Ġpaskyr oje
ĠN i
kai n
Ġtelef onai
Ġvyskup o
aÅ¡ as
ĠiÅ¡ei tis
raÅ¡ ÄĹ
ĠÅ½ uk
Ġt or
ĠP asi
Ġvid inÄ¯
Ġsur emon
Ġtr ims
ĠraÅ¡ yt
ĠdrÄħ si
Ġmar m
Ġsav im
ĠbÄĹg a
aud oja
ig a
Ġleid ybos
Ġtvark ingai
Ġreikal ais
Ġsoci aliai
ĠB arsel
Ġprivers tas
? )
ÄĹl ÄĻs
ĠSp orto
ĠS ek
Ġvien ija
Ġbend raÅ¾
Ġkomplek tai
Ġpavasar iui
Ġskaud a
ÄĹj antis
c an
Ġpl okÅ¡Äįi
Ġvadov ÄĹs
Ġvyst ymo
Ġpasik albÄĹti
Ġpakei Äįia
Äįi Å«nas
ok ol
Ġtoki ai
Ġsklyp Äħ
iÅ³s tas
Ġnugal ÄĹti
ĠmaÅ¾ Å³jÅ³
Ġpras mÄĹ
Ġlo tynÅ³
Ġ198 5
Ġapg aul
Ġr alio
ur tas
Ġkl os
ĠpasiruoÅ¡ ÄĻs
ĠiÅ¡ eiv
aid Å¾
ĠAn takal
J ur
ĠP el
Ġgam ykla
ĠNauj Å³jÅ³
Ġrat lan
ĠK en
Ġner ekomend
Nuos tab
ĠkÅ«n u
Ġpert eikti
ĠÅ½mog aus
eri jus
Ġgi ri
un a
Ġsveikat ingumo
ĠuÅ¾ uot
ĠiÅ¡s kiri
Ġjaun esni
Ġgamin ama
Ġgydytoj u
Ġ0 2
ĠTr um
Kom entarai
ĠÅ¾iÅ«r ÄĹjo
Ġbr ÄĹÅ¾
ĠKud irkos
Ġtvark ingas
ec k
im an
Ġfotograf as
Ġantr o
Ġkomfor tÄħ
ĠX II
ĠJung tinÄĹse
em per
gi ais
Ġval stijos
p lotis
Ġnegal ÄĹjau
Ġbev il
Ġki ber
Ġsti ch
Ġintelek to
Ġug nÄ¯
Ġgr ieb
ĠSi rijos
Ġpiliakal nis
a a
r ÄħÅ¾
Ġgali Å³
Ġak tas
Ġnepri paÅ¾
Ġsaus as
ĠeilÄĹraÅ¡ ÄįiÅ³
ĠdÅ« mÅ³
Ġg aid
ÄĹl imas
Ġsal onas
Ġvanden ys
ĠpaÅ¡al ina
Ġjau tÄĹsi
MaÅ¾ daug
tai tÄĹ
Ġnu tek
ĠatÅ¡ aukti
Vytau tas
Ġypat umai
ĠdÄĹst ytojas
Ġlab ui
Ġstat ybai
Ġklasik inÄĹs
Ġd eiv
Ġgr ob
var as
S os
Ġmo biliÅ³
n iek
ĠprieÅ¡tar auja
D R
Ġgalim us
ĠD al
Ġpak yl
Ġteleviz ijÄħ
ĠDr aug
ĠS Å«d
Ġkai tos
Ġsus mulk
auÅ¾ ti
aid o
ĠPal enkÄĹs
194 6
ĠminkÅ¡ ta
Ġsek torius
ĠkultÅ«r ai
Ġinstitu cijas
ien ai
ĠkrepÅ¡ ininkas
ĠGruz ijos
Ġnen um
Ġor ui
Ġligon inÄĹ
Ġpasidal ino
å Ľ
ykl as
ie ti
ĠiÅ¡s kiria
I l
ÄĹ kit
ed ev
Ġnor veg
Ġpasieki amas
Ġjungi a
Ġsal one
Ġhormon Å³
Ġoper acijas
Ġatg auti
Ġprofesional Å«s
p ort
Ġnes uv
Ġkov as
Ġmar iÅ³
ĠliÅ«d na
r auti
Ġatliek ame
Ġder l
Ġpal aukti
Ġs ei
ĠiÅ¡r eiÅ¡kÄĹ
ĠL KL
st ÄĹ
Ġpareig Äħ
Ġband ymai
per k
val k
R aj
b end
Ġlaisv Å³
Ġfab rik
ĠpasimÄĹg auti
on tan
Ġpirm us
ĠpraneÅ¡ ta
ĠuÅ¾siÄĹm imÅ³
ĠuÅ¾dav inys
Ġgyv ybei
Ġgim dos
Ġskun dÅ¾iasi
ĠatneÅ¡ a
Ġprivat aus
Ġreikal avimas
i lio
at ch
ĠmarÅ¡ru tÄħ
Ġpas uk
ed it
ĠValstijos e
in anÄįio
ĠMic rosoft
las tik
Ġgaun asi
F iz
Ġpaskai tas
Ġsp audÅ¾i
ĠG ali
anÄįi ojo
Ġkam Å¡
Ġd umb
Ġpasirod Å¾i
Ġkito kie
ĠlaÅ¡ iÅ¡
ĠG PS
Ġopozi cijos
Ġkry Å¾ius
Ġins tink
ed os
ĠV asar
Ġkan ap
tÄĹ tÅ³
Vis o
Ġslap ta
Ġregistr e
am Å¾iais
Ġtur tingi
Ġpaslaug oms
Ġkryp tys
Var iklis
Ġakimir kas
darÅ¾ elio
Ġg uli
ĠÅ¡un ims
Ġind ai
Ġpasto vi
Ġdabar tinÄĹ
ĠbirÅ¾ os
ri aus
Ġdirb tuvÄĹs
Ġsveik o
Ġpaslap ÄįiÅ³
ãĤ¢ãĤ¢ãĤ¢ãĤ¢ãĤ¢ãĤ¢ãĤ¢ãĤ¢ ãĤ¢ãĤ¢ãĤ¢ãĤ¢ãĤ¢ãĤ¢ãĤ¢ãĤ¢
Ġnenus tat
Nepam irÅ¡kite
au tojai
Ġnel aik
Ġtarptau tinÄĻ
Ġnak timis
P ie
Ġ198 6
L auki
g eri
veÅ¾ ti
tor s
Ġpas imok
esi ui
Ġmokytoj us
Ġgrind is
ĠbruoÅ¾ ai
Kom piu
raÅ¡ o
Ġgalim os
ĠMart yno
ĠÅ¾yg Ä¯
s kir
ÅłÄ¯ kart
ad Å³
ĠZ eland
ĠginÄį Å³
ink sm
Ġpar enk
Ġ7 9
ĠstruktÅ«r iniÅ³
T ER
ĠR ub
ĠD zÅ«
ĠMat ul
Ġsocial inÄ¯
Ġkonkur encija
Ġeksper tiz
B es
ĠK il
ĠS kr
Ġpatrauk ÄĹ
19 39
ĠTar ybÅ³
ais tas
pr ojek
Ġmin ÄĹjau
Ð¾Ð ¼
Ġkon ver
Ġaplinkos augos
Ġr asi
Ġnes ant
Ġvys tosi
Ġ12 5
ĠkÄĹl inio
un s
Pat ys
Ġab on
Ġskait ytojai
Ġ ).
Ġpra vers
Ġgyven anti
Ġak vari
Ġambi c
imi tyv
Pra ÄĹjus
Ġsusitar imas
aÅ¾n yt
B at
ĠL aisv
Ġpasir eikÅ¡ti
Ġim it
ĠÄħÅ¾ uolo
ĠsÄħÅ¾in ingai
Ġdid vyri
Ġsupra timas
ĠdrÄħs os
ĠsÄħraÅ¡ us
Ġsl augos
Ġpaaug l
Ġner imo
Ġkoki am
Ġbald ais
Ġprisim en
Ġkeis tas
var o
olog inis
ĠlÄħst eles
V G
vo ra
Vytau to
ej au
Ġvid inÄĻ
Ġsmegen ys
Ġnet enk
ĠkaÅ¾k okia
Ġkompan ijÄħ
ĠKom plek
Ġnuostab aus
ĠiÅ¡skir tinÄ¯
Ġdain ininkas
Ġfinans avimas
Ġtrauk os
ĠÅ¾iau riai
Rus ija
ĠTi pas
Ġtarpuk ario
ĠM echan
tog ÄĹs
pas ak
Ġval domi
Ġmik ros
Ġfor umas
Ġdik tat
T C
sis iÅ³sti
Ġvykdom os
oviz ijos
ĠK v
Ġsek ÄĹ
Ġdist an
Ġb rig
ĠiÅ¡s prend
Å¾iÅ«r int
Ġvertin imÄħ
ĠdÄĹÅ¾ utÄĹs
Ġpatiek alas
ĠvÄĹd inimo
Ġstadi one
Ġm ÄĹÅ¡
Ġpaj Å«rio
Ġgalv as
Ã ¨
ad ing
Ġautomobi liais
ĠÅ¡ak a
E F
I z
Ġbaig sis
Ġprogram avimo
Ġdan ties
Ant radienÄ¯
Ġkonserv atori
Ġbul v
ĠT oki
d ir
ĠJÅ«r atÄĹ
w ard
Ġatsi lik
ĠpraÅ¡ au
ĠvÄĹ Å¾iu
Ġfinans inÄĹ
Ġkomentar us
ur et
Ġsavan oriai
deÅ¡im ties
Ġpat aik
Ġscenar ijus
am ent
Ġli uter
Ġlauk as
ĠTrump as
O per
ĠÅ¡al tiniuose
ĠL as
Ġgr aik
Ġlov oje
ĠÄ¯gyvend inimas
Ġgyvens enos
07700 70
inÄĹj ant
Ġs Å«k
l ok
ĠA S
Ġtri b
ĠR egistr
Ġmarket ingo
ciÅ¡k aus
Ġpuiki ausiai
Ġketvir tÄħ
Ġatsiliep imai
P AR
Äįi ojo
Ġspecial us
Ġp ut
ĠuÅ¾ vir
eil is
Ġpapildom i
auk s
ĠpradÅ¾i ug
â Ĩ
Ġkar aliÅ³
Ġeil ÄĹje
Ġpirk ÄĹjai
Daug iausiai
ĠI X
Ġviz ijÄħ
Ġs Å«ris
Ġbepr oti
Ġsur eguli
ĠRam Å«nas
ov iet
ĠCentr o
Å¾ os
Ġind Äħ
Ġvertin o
Ġcer kv
Å¾ inÄĹ
ĠDai nius
ai nius
ĠpraÅ¡ ymas
ĠVyri ausi
eks ual
Ġerdv iÅ³
ĠsÄĹkm ingas
Ġkond ens
Ġplauk ti
ĠÄ¯vertin tas
ĠuÅ¾k ari
ĠDidÅ¾i oji
Ġli f
Ġned arb
Ġtau tinio
o tus
Ġv ej
Ġr amus
Ġrelig iniÅ³
Äįi ausia
ĠL uk
Ġaktyv umÄħ
ĠÅł vie
Vid uje
Ġpuol ÄĹjas
Ġskyr imo
j an
Ñ Ī
Ðµ Ð»
Ġbiur e
ĠtrokÅ¡ ta
ĠMar k
Ġeur ai
Ġskys Äįio
ĠapÅ¾ valga
ĠpapraÅ¡ yti
Ġ ÄĹd
las h
R ak
pr oc
Ġesm iniÅ³
Ġnauj oviÅ³
Ġstipri os
IN A
Ġ194 8
k ak
Ġger esniÅ³
Ġpam Äħst
ab os
ĠdÅ¾iaugi amÄĹs
u Å¡k
Ġbibliote kÄħ
Lietuv iai
Pl at
kal nio
ĠElektr ÄĹnÅ³
Ġ5 000
oz ÄĹs
ĠÅ¾ali avÅ³
low job
ĠnÄĹ Å¡Äįi
Ġorganiz acijoms
Ġprofes oriaus
Ġreform a
Ġkar ui
ĠÅ¡eÅ¡ io
Ġsu pa
PrieÅ¡ ingai
Ġ us
Ġkon tÅ«r
Ġpak ait
Ġpak oreg
ĠPran ciÅ¡kus
ĠBag d
T egul
int ame
erb aidÅ¾
L ais
Ġtransp or
Ġkonsulta cijas
Reik ÄĹtÅ³
ĠFinans Å³
ang r
Å« tÅ³
emp li
k elb
Ġgyv os
Ġkoki oje
Nep t
K up
ĠAz ijoje
in or
Ġefektyv umas
Ġat oki
Ġf avori
Ġpareng ta
Ġrevoliu cijos
Ġle gi
ĠM aÄįi
ter Å³
uo Äįiau
Å¡k umu
Ġtir ti
Ġrem ti
Ġsutar tys
ÄĹl ÄĹje
ĠdeÅ¡im tys
ĠsÄħ var
ĠrÄĹm ÄĹjÅ³
ĠS ub
Ġlyd er
D on
Ġk ieno
Ġsak yÄįiau
k omis
Å¾i ant
Ġak l
Ġgin taro
Ġsuvok imo
Å« kiÅ³
Ġnuo mo
ĠVelyk Å³
Ġkvie timÄħ
Ġskelb ÄĹ
el em
Ġvadin amÄħ
ĠrÅ«b ai
Pra ei
L S
ĠstaÄįi akamp
G intar
re x
Ġneigi amÅ³
in inkiÅ³
Ġkorpus o
Ġprasid ed
Ġaprib oti
lÄĹp ti
Ġt omis
ĠT rak
Ġ19 60
ez ijos
Pirm osios
ik e
Ġpas kaityti
Ġpar yÅ¡k
Ġhib rid
ĠGr and
ĠRol andas
ĠRemig ijus
G ra
Ġv amp
Vien u
ĠgÄĹr imai
ĠDvasi os
ĠL IET
Ġkor espond
Ġypat ingos
Ġ ç
yk Å¡Äįi
Ġlink smas
Ġbais u
Å«r oje
Ġtr unk
Ġketvir tfin
Ġsen eliÅ³
Ġrengi ami
gi Å¡kai
Ġnep asis
Ġrink tinÄĻ
car on
Ġsusiform avo
Ġinternet iniÅ³
ow er
Ġtaur ÄĻ
N amai
Ġk alio
Ġkl aj
Ġ% ,
olog o
Åłv entÄĹs
Ġkatalog as
Ġnupirk ti
L it
Â ·
alis tÅ³
ĠlopÅ¡ elio
av Äħ
Ġsmur tÄħ
Ġpreki auti
ĠÄ¯k Å«rimo
Ġ3 60
ĠP ok
Ġpo tv
ĠG eri
iest eris
DÅ¾iaugi uosi
Ġmerg inai
ĠV III
Ġtradic inis
ĠpakraÅ¡ tyje
Ġgarant uoti
ĠÄ¯ ÄĹjimo
ĠKar aliau
ĠÅ¡ird imi
ĠmÄħst ymÄħ
Ġsimptom us
ĠbÅ«r Ä¯
Ġmin eralÅ³
Ġpasip ik
ĠÅ¡Å«d as
em b
ver b
Ù ħ
ov iniÅ³
re en
Ġkonserv atoriÅ³
Ġsk ais
Ġaug alo
ĠF I
ĠuÅ¾siÄĹm imus
Ġpag ul
Ġgam inio
Ġekonom ikÄħ
S ÄĹd
Ġtik o
k ep
è µ
Ġr amin
ĠP erk
Ġpeln Äħ
ĠÅ¾and ik
ait ei
Ġreguli avimas
Ġrecep tÅ³
Ġpirmen ybiÅ³
Ġprad ÄĹjÄĻs
ĠiÅ¡gir do
Ġsureng tas
Ġkeliau tojÅ³
Progr ama
ĠuÅ¾sak yti
Pra ÄĹjusiÄħ
Tyr imo
Ġvien kar
Ġpag yv
ĠÅ¡il tai
Ġnesusi pra
an y
Ġten is
Ġsunk umus
Ġ< ...>
ver Äįia
Ġry Å¡kus
ĠAl ex
Ġtras os
X L
Ġpuiki u
Ġteb ÄĹra
Ġkonflik tÅ³
veÅ¾ ÄĹ
Ġval o
ĠÅ¾ad ÄĹjo
Å¡ e
Ġdarbuotoj ais
ĠgrÄ¯Å¾ t
Ġgarsi akalb
ĠE P
ĠÅ¾v ejÅ³
u ki
Ġapd ail
ĠuÅ¾mokes tis
ag Å³
ĠM T
ĠÅ¡i aud
Ġprir eikÄĹ
Ġpris ilie
ant Å«ros
Ġdraug ÄĹs
Ġpov anden
Ġviz ija
Ġpagalv ÄĹs
M ad
ĠÅ½ od
Ġvadov Äħ
Ġmok ymÄħ
Ġgaun ame
Li ter
Ġtvir ta
Vokie tija
ĠmÄĹg ÄĹjams
Ġkondicion ierius
k ams
Ġc inam
C ar
os kop
Åª k
OL AI
laug Å³
Ġpanaud otas
ĠbÅ«s imo
Ġtrik amp
ArtÄĹj ant
Ġgr oja
Ġpagrind inÄĹje
ĠBerl yne
M C
ĠL ukas
Ġtr oleibus
M inkÅ¡
Ġpopuliar iausi
ĠsÄħn audas
Ġnusi peln
ĠÄįi uoÅ¾
4 00
Ġt on
ys tem
Ġkokyb ei
Ġsuform ul
B iblio
eg as
Ġkeis tai
Re al
s il
en tat
Ġkoncer tus
Al b
ĠmÄħst ymas
ĠDon atas
Vasar Äħ
Ġpapil dÄĹ
ÄĹ giai
Ġatmosfer os
ĠÅ¾ar nos
ĠmaÅ¾ ais
Ġteigi amas
Ġde form
bo x
ĠÅ¾ais lÅ³
Ġpartn erio
Ġeig a
av ed
ĠA dv
Ġegz empli
Ġreikal auj
Ġkelion ei
ĠInd ijoje
ĠÅ¾vilg snis
pir ko
Ġnes imato
ĠiÅ¡ ilg
Ġkel niÅ³
ĠKr istÅ³
gr ei
Ġform uoja
Ġkal ad
Ġlik imÄħ
ĠPakruoj o
ĠJava Script
Ġorganiz acijas
ĠskaiÄįi avimo
Ġkor tele
? ..
Ġkito kiÄħ
Ġnereik ÄĹjo
ĠUkrain a
Ġkoali cijos
Ġsp alÄ¯
ĠU K
AI S
Ġtvirtin ti
Ġsusib Å«r
Ġsuk ti
tiÅ¡k u
Ġnug ri
am iesÄįio
Ġor g
ĠKalvar ijos
F in
Ġnuosav ybÄĹ
Ġpatar iama
Ġpasiek imÅ³
Ġdarbuotoj a
Ġver ti
Ġapdovan ojimai
Ġskaitmen inÄĹs
Ġsul tis
Ġnustat omas
ĠPal anga
ĠiÅ¡d r
ĠÅ¾an ro
Ġeksper imen
ĠsupaÅ¾ind ino
Ġgr ojo
Ġned aro
Pav ad
ĠiÅ¡silav inimo
ĠiÅ¡g ars
Ġmed alÄ¯
ĠlaiÅ¡k e
M ama
ĠÅ¾ eld
Ġkom er
inam ÄĹs
ĠsuÅ¾in osite
ĠO ro
ĠneiÅ¡ l
g raf
Ġneb egal
ĠPr istat
Ġmel s
ĠÄ¯gal inti
s ek
ek om
Ġnaudoj ate
Ġati dÄĹ
S par
Ġmoksl inÄĹs
ĠuÅ¾ teks
vat umo
M inÄĹ
Ġb it
Ġver g
ĠÄ¯vertin imo
ĠW eb
Ġvykd ymÄħ
Ġpuod Äħ
ĠviÅ¡ tienos
Ġrud os
ĠSp eci
ĠkÅ«diki ui
Ġpob Å«dÄ¯
Ġfor ume
Ġatl aid
Ġrag ino
ĠÄ¯spÅ«d ingas
Ġkei tÄĹsi
M is
ai lo
Ġpardav imai
Ġpuiki a
Ġsocial iniame
ĠIn ga
Ġformul ÄĹ
Ġsampr ata
Ġg umos
ĠAutomobi liÅ³
Ġlaid Äħ
Ġinteg racijos
M ac
s ch
Ġpasiek tas
Ã ¸
Ġskiri amos
Ġdang uje
ab il
Ġprezid ent
ĠpÄĹd Å³
Ġ erg
Ġklub ui
Ġypat umus
aud imo
Ġsavivald ybei
Ġbat ukai
Ġnov atori
an oriÅ³
il s
yp as
Knyg oje
Ġply teliÅ³
] :
ĠkÅ«ryb oje
ĠskaiÄįi uoja
Ġstu buro
Ġinspek cija
Ġsusidom ÄĹjimo
Eg z
auk ÄĹs
Ġmed iniai
sm Äħ
Ġdabar tinis
ton Äħ
Ġvard us
Pasi Å«l
ĠItal ija
Ġarom atas
iz z
Ġugd ymui
e h
ĠK air
Ġpasis tat
Ġtiks liÅ³
Ġperk eli
Pap ild
t avimas
Ġprad inio
ausk ienÄĹs
B ro
Ġmok ÄĹjo
Ġapskai tÄħ
Ġats iÅ³sti
ĠiÅ¡s prÄĻs
Ġkito ki
ĠVal das
ij ui
Pr imename
Ġorkes tras
t uotos
ĠÅ¾ing sniÅ³
ĠKaz ach
Ġpakil ti
Ġatidar ytas
Ġvyriausi oji
Ġles b
S til
Å½ ali
Ġpasteb ÄĹjau
ed eral
Ġvari antus
Ġpiliet ybÄĻ
Ġlapkri tÄ¯
Ġunik alÅ³
t esni
Ġket ver
ĠuÅ¾si brÄĹÅ¾
Ġbes idom
ti kiÅ³
Ġreik menys
Sus id
an ch
en io
Ġmed Ä¯
j aur
Ġmat ai
Ġp Å«
ir eng
Ġnesugeb ÄĹjo
Ġpatikr inimo
Ġpatyr ÄĻs
Ġpra bil
t usios
Ġpas ijus
Å½ ais
i tÅ³
ys kup
Ġneat l
Ġneatsiej ama
Ġnos Ä¯
ĠÅ¡al tinÄ¯
Ġbendruomen ÄĹje
? "
Ġneg yven
Ġprisi imti
Ġnes kl
Ġgener olas
l yd
tiÅ¡k umÄħ
Ġf und
Ġst yg
Ġgink lus
l ygi
eln ÄĹs
Ġsto telÄĹs
Ġpramon ÄĹje
Ġnorm alu
Ġlink ÄĻs
ĠsÄħn audÅ³
ĠMon ika
ĠN aud
ov imas
ĠiÅ¡d avimo
Å¡k ojo
ĠRud a
Ġteis ingumas
ĠlaiÅ¡k as
N esi
ĠgrÄĹs mÄĹs
ĠuÅ¾sak ymÅ³
Inform uojame
Ġpu tÅ³
Ġnac iÅ³
Å¾ ai
Ġmetod ais
Ġpagr Ä¯sti
ĠBaltarus ijoje
r ug
Bend radarbi
Ġpamok Äħ
ank Å³
ĠÄ¯trauk ta
Ġetik etÄĹs
lo ck
ĠMok sl
Ġasmen inis
esn ÄĹse
Ġper Å¡
Ġ8 1
Ġvartoj a
Ver ta
Ġtvar ko
ĠÄ¯mok Å³
ĠÄ¯pras tÄħ
ĠuÅ¾sis ak
Ġfotograf ija
Lenki jos
d ina
al ÄĻ
eid avo
Ġpadal iniÅ³
l uok
ĠiÅ¡ kri
ĠapmÄħ st
g av
Ġnup ieÅ¡
Ġs akiau
ĠMar tin
ĠÄ¯am Å¾in
Ġ9 7
Ġtvir tÄħ
Ġlin ijas
Ġkonkurs Å³
ĠNij olÄĹ
Ġkal nai
Ġpasid idÅ¾i
Ġpavoj ingÅ³
Ġpadal inio
Ġdalyk ais
Ġapdovan ojimus
ĠStat ybos
iej uose
Äį o
Ġelektron inÄĹje
ĠD auk
ausi au
ĠE K
ĠRus ijai
Ġg ÄĹles
Ġgen tis
ĠpaÅ¾Ä¯st amas
Ġam at
Ġmieg Äħ
n imi
Ġteis ÄĹmis
y toje
Ġneb el
Ġat met
Ġpri Å¾iÅ«ri
ĠkultÅ«r inio
198 8
Sod ros
Ġatvir os
Ġraud onas
el os
Ġnug ara
Ġtarptau tinÄĹse
Ġst eigi
ĠH oliv
Ġsimptom Å³
Ġnel auk
Ġsusis iekite
Ġkak l
ĠuÅ¾p akal
yd amos
ĠÄ¯si trauk
ĠPrezid entÄĹ
ĠK uro
Ġner imas
Ġnor ÄĹtumÄĹte
PanaÅ¡ u
M ES
Ġjog os
Ġinstitu cijomis
Ġbank e
B ur
ĠpojÅ« tÄ¯
l auskas
Ġkr am
Ġsul aikyti
Ġtvark ymÄħ
K K
Ġpam atÅ³
ĠtreÄįi asis
Ġdvira Äįio
Ġlie pÄħ
ĠKalining rado
Ġnuostab iai
Ġskirtum ai
Ġl enta
Ġver timas
Ġveiki antis
Ġstatus o
ÄĹj anti
ĠA sta
Ġartim a
Ġsav a
ĠdrÄĹk ina
z in
ĠbÅ« siu
Ġdr ug
oz ÄĹ
Ġjaus m
ĠMarc ink
Ġsav aip
Ġministeri joje
Ġneg rÄ¯Å¾
s er
Ġnepr ieÅ¡tar
Ġpasig roÅ¾
Ġserv et
ÄĦÅ¾ uol
Ġprem ijÄħ
Ġpropor c
t Å«s
Ġatm int
Ġnukr yp
Ġfig Å«ros
ĠRyg oje
Ġlauk uose
Ġding sta
J uose
L iet
ĠB VP
Ġfak torius
ĠtemperatÅ«r ai
ing ame
Ġtur b
Ġmedic ina
Ġnen urod
Ġsulauk ÄĻs
ĠpaÅ¾eid imÄħ
Ġd engi
ĠraÅ¡ ytoja
Ġkai ta
ES T
s ur
Ġm Å«si
ĠÄ¯si klaus
Ġmo lio
Ġauto m
je v
Ġlank ytojus
Ġvalstyb e
Pra ÄĹjusÄ¯
Ġpunk tÄħ
ĠBl ack
Ġsu riÅ¡
Ek onom
Ġkonkurs uose
Ġfeder acija
ĠiÅ¡si verÅ¾
ĠparaÅ¡ ytas
Ġinf li
ĠmiÅ¡k us
Ġb unk
rak m
ĠkunigaikÅ¡ tis
Ġtinklap yje
ĠL is
eg o
ĠD Å¾ins
av al
et iniai
lik as
Ġsvetain ÄĹse
ĠnatÅ«r alÅ³
ĠbokÅ¡ tas
Ġr aug
Ġal s
Ġsl ep
ĠÅ«k ininkas
Ġtei r
up ÄĹs
Ġdvi ta
Ġapklaus a
Ġsiun timo
Ġtrenir uotes
ãĥ ¼
uli ais
ĠmaÅ¾ us
Ġatlik us
Ġprival u
ĠÄ¯gÅ« dÅ¾iai
ĠbÅ«s enos
Ġdet ektyv
Ġlent elÄĻ
ĠpriÄĹm imas
PanaÅ¡ iai
K uro
un o
and u
eto je
Ġporeiki ai
B Å«s
Ġskiri ami
Ġtinkl inio
ĠtrÅ«k umo
ĠpaÅ¾ eis
Pirm adienÄ¯
Ġgal ut
ĠpasidÅ¾iaug ÄĹ
sni uose
Ġdr amat
Pri val
Ġgarsi ausiÅ³
po z
Ġnud aÅ¾
Ġsumon tuoti
Ġsusi tuok
n ing
yd amiesi
AU G
un ch
ĠU p
Ġmen ininko
Ġger esnÄĹs
Ġmaud ymosi
ar iai
am entÅ³
Ġpuslap ius
Sak oma
Ġkry Å¾iÅ³
ĠBut keviÄįius
ĠAustral ijoje
Ġkai lio
ĠkaÅ¾k okÄ¯
ĠtreÄįi ÄħjÄħ
Ġk inta
Ġartim as
entas is
ĠÅ¾ygi o
d us
Ġneigi amas
ĠS em
Ġsaug omÅ³
al umas
ĠLiud v
O d
ĠÄ¯pro ÄįiÅ³
ir Å¡k
ĠÄ¯vard ij
ĠtriukÅ¡ m
O n
ar iu
Ġtur imÄħ
M arg
Ġgal imo
Ġkvar tal
ra cijÅ³
Ġvidur Ä¯
ĠiÅ¡or iniÅ³
Ġskan us
Ġgaranti jos
ĠÄįi ul
sta gr
K unig
ol ÄĻ
Nauj oji
ĠAnd re
ĠpaslÄĹp ti
av oje
Ġdr amb
Ġcentr inÄĹs
Pag alv
ĠpasiraÅ¡ yta
ĠRÅ«d os
Ġmai tina
ĠnepamirÅ¡ t
YM AS
S O
Ġpav al
" ;
ĠV iet
Ġvid us
Ġpriim ant
ĠM P
Ġsuaug usieji
ĠiÅ¡pl ÄĹs
D an
Ġataskai tas
ing Å³jÅ³
âĢ¦ .
ĠbÅ«s imÄħ
Ġkan celiar
ĠÅłv ies
Ġpavad inimÅ³
Ġvyst yti
au Å¾i
Ġpas Äħ
Ġskl eidÅ¾ia
man n
ĠÅłar Å«nas
ĠP ui
ĠO m
Ġstov ÄĹti
Ġnacional inÄĹ
ĠNU OLAI
Ġcholester olio
eid imÄħ
EN T
et inio
Ġalyv os
eg ti
Ġpra eina
Ġsuteik imo
Ġp yl
Ġorigin ali
Ġkaup ti
Ġdis er
em e
Ġproc ento
SD P
Ġm Ä¯sl
Ġatliek os
av ar
Ġjaun uolis
Mok yklos
Ilg ai
Ġministr Å³
Ġger esnÄ¯
Reng inyje
Ġpakop os
tuv ais
alb os
Ats kir
ĠsiÅ«l au
ĠPas laugos
MaÅ¾ a
inimas is
wit ter
ï»¿ ï»¿
Ġpriemon ÄĹms
Ġlik usi
K ul
Ġbend ravimÄħ
Ġpab r
Ġpilie Äįio
Ġraid ÄĹs
Ġsp yr
tom os
ĠiÅ¡m inties
Ġg ÄĹda
ĠM os
Ġnusi pel
Ġs y
Ġne vil
ard core
to kai
g el
Ġb angÅ³
Ġatsp aus
x x
ĠSu tar
ti tu
ÄĹj omÄĹs
ui z
ĠN E
espond entÅ³
Ġkr ovin
ĠPl aÄįiau
pirk ti
Ġkamer Å³
Ġsubjek tyv
S lap
ĠSkuod o
Ġmug ÄĹ
r ar
ri Å¡ti
Ġnepas ak
Ġevangeli kÅ³
al inÄĻ
ĠÅ¡ edev
Ġapskai ta
Ġl yÄįiÅ³
Ġreikal avo
Ġlyd ÄĹjo
ĠbÅ« tume
Ġcentr inÄĹje
Ġgalu tinis
Ġb aug
Ġpat aikÄĹ
Ġmok iniais
Ġatsiliep imÅ³
Ġporeiki o
Ġatlyg inimai
Ned id
ĠG ai
Ġform atu
Vokie tijos
Ġgud r
ĠÅ½al girio
R ung
ĠbÅ« kite
Ġlent elÄĹ
ĠgÄĹ rio
ĠR ita
ĠÅ¡al inimo
ĠuÅ¾sis pyr
Ġry Å¾iÅ³
Ġned arbo
Ġ11 2
ies tis
Ġak tais
Ġsaug omas
s ki
Ġk ra
in c
Ġtem pi
Ġapsis toti
Ġinformac inÄĹs
Ġvarik lÄ¯
ĠlaiÅ¡k ai
ĠBirÅ¡ tono
Ġneb ijo
Ġpam atai
Ġdirb s
Ġkil usi
E sm
Ġfutbol ininkas
Ġpaklaus a
ĠparaiÅ¡k Å³
Savait galÄ¯
Ġvil na
is tus
Ġskyri ai
Ġkompeten cijÅ³
Ġkvad r
y tuvas
on do
kir styti
riu Å¡k
Ġv o
Ġsugalv ojo
Ġpusan tro
s ai
IT E
ĠPeterb urg
Ġin jek
Ġnusiteik ÄĻ
Klas ik
ĠieÅ¡k oma
Ġug nis
Ġpl auti
ĠXX I
ab o
ĠprieÅ¡ Å³
Ġpapras tos
ilg is
at es
ta Äįiau
Ġpasak oti
Ġvard an
and Å¾i
sp alv
Ġtikr oji
Ġpam ato
DÄĹk ojame
Ġnuomon iÅ³
F C
Ġgin ek
ĠnemÄĹg sta
ĠK ras
Ġtikr inti
Ġnesupr ant
N umat
Ġparod ys
Ġakc entas
n au
Ġgam inimo
Ġneteis ingai
Ġpastab as
Ġne egzist
Ġdebiut avo
Ġnustat ymus
ĠÄ¯dom iai
Ġkod o
ĠÄ¯kv epi
Ġap Å¾iÅ«ros
Ġak us
Ġfail us
Ġpro tu
ĠMyk olas
ard i
Ġbi ograf
pr is
Ġgyven amÄħjÄħ
Ġvisuomen e
Ġgars ai
Ġpakei timÅ³
Ġprinci pÄħ
ĠValst ybinÄĹ
Ġpali kite
Ġpob Å«dis
Antr oji
L aisvÄĹs
ĠuÅ¾deg imas
p here
ĠÅ¡eÅ¡ tadienio
Ġtras a
yr ai
ĠÅ¾uv Ä¯
Ġslap ukai
Ġsu j
Ġlag amin
S idab
Bal ta
et uose
Ġpriklausom ybÄĹs
Ġ197 5
Ġsvyr uoja
Marijamp olÄĹs
ç ļ
Ġgau tÄħ
et h
Ġpens ijÄħ
Ġpadovan oti
sk ienÄĹ
yk Å³
Ġadministr atorius
Ġ ie
ĠKr isti
Ġvald oma
Ġ8 3
Ġpri pil
Ġnesin ori
ĠiÅ¡kilm ingai
Ġk aukÄĹ
ĠJ umis
Ġpra timus
Ġbal tÄħ
Ġsovie tinÄĹs
Ġs ÄĹ
Ġ19 38
Ġkri ok
Ġpaskai tÅ³
Ġcharak terÄ¯
Ġbas utÄĹs
Ġviz ual
m ÄĹje
ĠR eng
h n
Ġn ykÅ¡
ĠkÅ«n e
Ġniu ans
il ti
ĠA sociacijos
ins kaitÄĹ
Ġliep ÄĹ
s c
Ġne kl
Ġvadov autis
Ġsos tine
l ÄĹmis
Ġlik tÅ³
Ġambasad orius
Ġkiber net
Ġdalyv io
Ġpagrind us
å ¹
Ġk ÄĹbul
ĠiÅ¡sin uomoti
eÄįi ais
ĠÄ¯vair ovÄĻ
pard uotuv
Ġfail Å³
ĠB ob
Ġsrau tÄħ
Ġskirtum us
Ġatk arp
Ġ198 4
Ġsimb oliu
r am
ez i
Ġreikal aujama
Ġkam uolio
ĠuÅ¾s ukti
Ġner as
Ġ9 4
Ġapg inti
ĠbokÅ¡ to
And roid
ĠA uks
Ġaktyv Å³
a jÅ³
g s
Ġvald ytojas
ĠtreÄįi ojo
Ġeil es
ĠvaÅ¾i avo
Ġkal iniÅ³
ĠdeÅ¡ inÄĹs
Ġapdor ojimo
Ġdialog o
uoj anÄįias
Ġpatar imais
Ġblog Äħ
Ġproduk tams
ĠW i
Ġi Phone
ĠpaÅ¾ eidÅ¾ia
kur ti
Ġjauk us
ĠÅ¾ ymus
Ġpaskir ta
Ġkapi tonas
Ġmuzik ai
Ġekonom inÄĹ
ĠapibÅ«d ina
J uolab
ĠpaaiÅ¡k ina
Ġkonf ig
ĠV Ä®
ĠV enc
Ð¸ Ð½
ĠnugalÄĹ tojai
ÄĹd avau
ĠpaÅ¾ inÄįiÅ³
Ġliek n
Ġdirb antiems
Ġvien ybÄĹs
ingi ausi
ĠS tok
ĠB aj
pr iek
ĠliteratÅ«r oje
y e
Ġnen uv
ĠdarÅ¾ elyje
Ġkamer Äħ
Ġantra jame
Ð ³
B Å«na
ek do
aun ama
Ġorganiz acijÄħ
ĠÅ¡vie Å¾iÅ³
Ġdisk om
tik l
ĠneiÅ¡ d
ĠâĤ¬ .
Ġteis m
V an
ĠK auk
Ġaktyv iÅ³
Ġplauk o
ĠÅ¡ ono
Ġlaip tais
Ġkomerc inÄĹs
Ġneber eikia
P AS
m erg
Ġskir to
Ġjaun os
ĠtÅ«kst anÄįio
Î ±
li ja
ĠS ing
Ġnes ÄħÅ¾in
Ġvidur inÄĻ
Ġatlyg inimÅ³
k or
Ġgal ÄĹjau
ĠR u
ĠaiÅ¡k inti
Ġskulp tÅ«ra
Ġmag nio
Ġbur ok
Ġkal ÄĹjime
Ġmel ag
B ene
Å¾ e
Ġskir tumo
Ġvic epr
Ġ8 9
Ġfinans inius
ĠaukÅ¡t esni
Ġvietov ÄĹje
Koki os
Ġvadov us
ĠP aj
ent s
Ġreg ener
Ġned er
Ġpet neÅ¡
y c
em ija
mos phere
Ġpr es
Ġvien iems
Ġreiki amus
Ġdraug ystÄĹs
Ġgyd o
ĠJur gita
Ġskilt yje
Ġaktyv aus
ĠgyvÅ«n ams
ĠgrÄ¯Å¾ ÄĻs
ĠuÅ¾sak ymas
Ġsiun timas
Ġekskurs ijos
to mas
og o
Ġkuri ama
uoj amÄĹs
Ġperd uoda
Ġdail ininko
Ġduo nÄħ
Ġtarnau tojÅ³
ĠL E
ĠK A
O ffice
Ġvadov aud
Ġnuorod Å³
vie Å¡
ĠraÅ¡ tÄħ
Ġper imti
Ġ197 6
Ġvertin gi
Ġdarbdav ys
li Å¡kai
Ġvir p
ĠKr ok
Ġmug ÄĹje
ĠiÅ¡ matavimai
Å½ S
Ġdu etas
Ġrep ertu
Ġvals Äįius
Åł vietimo
uÅ¡ as
Ġkov ai
Ġrodik liÅ³
ĠLau ra
ĠÅ¾em aiÄįiÅ³
Ġgra vi
Ġpatar ti
Ġerdv ÄĹse
Val g
B ald
F ak
Ġstipr inimo
ĠOr ganiz
Ġvaivad ijoje
li uku
Ä® vertin
Ġorganiz uojami
ĠJÄĹz Å³
ci us
af e
ĠL it
Ġnusprend ÄĹme
Ġveis lÄĹ
Ġingredien tÅ³
an ausko
Ġsav ig
Ġsuk Äįi
Ġkan alo
Ġskait ytojams
S tai
Ġnep ra
Ġkam uolius
ĠSe imui
Ġakcent avo
Ġtap usi
Ġparad oks
Ġlaip tÅ³
Ġindividu alios
Pasku tinis
Ġp se
ĠNyderland Å³
S ie
p lg
ik lÄ¯
Ġger esnÄĹ
ĠVi ol
V arg
Ġapk ab
ĠK im
ĠP VC
Ġstat ybiniÅ³
ĠperveÅ¾ imas
Ġf onas
Ġorigin alus
ĠdÄĹv ÄĹtas
Ġket inama
ĠÅ¾ym i
Gel eÅ¾
Ĺ ı
aik a
Ġpasieki ama
ykl es
ĠCh ris
Ġapsis augoti
u x
Ġpatik ino
Ġreguli uojamas
ĠÄ¯steig tas
Ġfond Äħ
ĠNob elio
en ce
uli ui
Ġunik aliÄħ
ĠÅ¡yps osi
Ġdalyv aujant
Ġkonf iden
Ġnuolat inÄĹs
Ġ197 9
Ġjaun ystÄĹs
Ġsusirink ÄĻ
M M
Ġstik lai
Ġizoli acija
t urb
ĠC O
ho w
Konkur so
men os
Ġnauj ausius
ĠkultÅ«r iniÅ³
Ġamor tiz
Ġapdovan ojimas
ĠiÅ¡lik ÄĻ
Ġpar as
ĠM is
Ġnuostab iÅ³
ĠJ i
Ġbran giai
Ġsin chron
am aisiais
Ġmen inÄĹs
Ġkokyb iÅ¡k
Ġatvyk us
iest Ä¯
Ġrank inio
Ġdiskut uoti
Ġatspar i
uks em
N o
Ġbendr ovÄĻ
Ġrim ta
ag net
Ġnes ate
irÅ¡ t
Ġtechn inÄĹ
ĠVl adas
Ġsod Å³
ĠsÄħjung Å³
Ġatsid uria
ĠpavirÅ¡i uje
Ġap artamen
op ij
T vir
ĠbÅ« n
Ad ministra
ĠN ek
a tijos
ki ja
Ġplan e
ĠkarÅ¡ Äįio
ÄĹz ui
Ġresurs Å³
Ġdid esniu
Ġpak ep
ĠH an
Ġnumat ytÄħ
Ġinfek cija
ĠD abar
Ġfin an
Ġsto ti
Ġsmeg enis
an kius
Ġpag on
Ġskr uos
Ġklasik inio
h u
AM E
r uto
ĠiÅ¡ gan
ties a
Ġsiej amas
Ġlot yni
eg n
ĠdÅ¾iaugsm u
Ġdal eliÅ³
Ġpak uoÄįiÅ³
Toki Äħ
ĠpaÅ¾ intis
ĠKar o
Supr antama
ĠprieÅ¡gais rinÄĹs
Ġlank ÄĹ
19 20
Ġtri uÅ¡
ĠÄ¯sak ymo
ĠiÅ¡si vyst
at Ä¯
Ġind eks
Ġnum erio
ĠÅ¾iÅ«r ovus
Ġkokyb iÅ¡kÅ³
ĠuÅ¾siÄĹm imas
Ġpaskirst ymo
Ġalg orit
vi ce
Ġbal andÄ¯
Ġsl avÅ³
Ġem oci
Ġrodik lius
Ġdovan oti
ĠiÅ¡rink ta
aÅ¾ us
ĠneÄ¯ man
ĠprieÅ¾as tÄ¯
Ġnesu tik
Å¡i uose
Ġapsin uod
ta f
Ġt oji
ab le
Ġkl est
Ġsaug omos
Ġspaud imas
Ġlinksm a
ĠSuom ijoje
ĠkitÄħ met
Ġpipir Å³
ĠH il
ĠprieÅ¡mok yklinio
Ġmie la
Ġmis ijos
Ġpeln as
y tina
Ġprogram inÄĹ
Ġbal to
Ġbat erija
Ġe inam
Ġgerb ti
Ġvais tas
ĠÅ½ in
ĠD VD
Ġpoli cijai
Ġstud entus
ĠveÅ¾ imo
ins k
B aigi
Ġistor inis
Ġfail Äħ
K er
Ġkuri amas
Ġak tÄħ
Ġbran giau
A v
ti enÄĹs
Ð° ÑĢ
Ġaspek tas
erv is
ĠsuÅ¾in ojau
Grup ÄĹ
Kiekvien am
Ġfotograf uoti
ĠAud rius
ĠkÅ«dik Ä¯
Ġapyk ak
ĠM u
ĠsÄħvok os
Ġpedagog ai
Ġatsi tinka
Ġarchyv o
ç Ķ
Ġm Å«
aus kÄħ
Ġatsp al
è ½
oki tÄĹs
ĠbÅ«d ingi
ines s
Ġvaizd ais
Ġpr imityv
Ġjuos tÅ³
tim e
Ġnuol aidÅ³
ĠlÄĹk tuvas
Ġmaksim alus
ĠpaÅ¡nek ovÄĹ
Neg ana
Ġprir eikia
Ġstog Å³
Ġketuri o
AI P
ĠV ac
Ġprovin cijoje
Ġt vora
G ir
Ġtrium f
ĠP un
ĠdidÅ¾i uotis
Ġklavi Å¡
t esnÄĹ
Ġpoli tolog
ĠvÄĹl gi
ĠDan ie
Ġcentim etr
R em
X IV
Ġant radien
ĠLib eralÅ³
Ġsal ono
Ġsaul ÄĹg
el la
Ġpopuliar ios
Ġlanky tinÅ³
Ġspor tui
ĠkÄĹl imo
Ġper im
EM OK
U tenos
t mas
yn c
mon ÄĹ
vil as
á »
Ġkambar iuose
Ġkonflik tas
Ġsav ybÄĹ
Ġkam pas
Ġkri tikÅ³
Ġsp ontan
Ġkomplek tÄħ
Ġsutrik imus
Ġsk au
ĠT ad
eik ÄĹs
ÄĹd amos
Ġkeli aujant
n Å«s
an ÄĹ
ras mus
pr op
Ø ±
Ġn ard
Ġveik snys
ĠdÄĹÅ¾ utÄĹ
Ä¯ jÄ¯
Ġnu traukÄĹ
Ġm amÄħ
Ġinter val
ĠKlaipÄĹd Äħ
ĠgyvÅ«n ais
ĠMairon io
Ġdeg imo
ĠÄ¯kvÄĹp ÄĹ
Vasar os
ÄĹm iau
ĠC ity
ĠvÄĹl ai
Ġkasdien ybÄĹs
Ġkom b
Ġdalyv auj
Ġdraud imu
{ "
Ġatnauj inimas
Ġsv et
Ġant sto
ĠkraÅ¡ tuose
Ġdid esnius
Ġor d
ĠmedÅ¾io tojÅ³
Ġadvok atas
Ġsil u
Ġinstitu cijose
Ġprofes ijÄħ
Ġpasikar toj
ak Å¡
ĠG ran
Ġkoncer te
? âĢľ,
up o
ĠuÅ¾d eng
Ġblog io
ĠtÄĹv Äħ
ĠkrÅ« ties
Ġpatog iu
Ġaptarn avimÄħ
Ġpatog umui
ĠJol anta
in form
ĠV SD
ĠPatal ynÄĹs
Ì ĩ
ĠbÅ«s imÅ³
p eriai
Ġs teri
Ġsusid arÄĹ
Ġtek tÅ³
Ġvil ni
Ġpriz Äħ
um pa
ĠÅ¾ va
Ġtarp inink
Ġteori jÄħ
ĠraÅ¡ tais
Ġsen ojo
ci ai
Ġdirb au
Ġbendradarbi aujant
ĠLandsberg is
ĠD uomenÅ³
anti jos
R i
ĠsÅ«n ui
Ġpirm inÄĹs
Ġneg alia
ĠbÅ« ties
Ġgr etas
Ġskan ÄĹs
ĠAi rijoje
Ġnu fotograf
Ġskr ydis
ĠiÅ¡Å¡ Å«kÄ¯
Ġ195 4
Trump ai
Ġpozi cijÅ³
Vaik as
nink Å³
ch en
Ġklini kÅ³
Ġsoviet meÄįiu
Ġb em
Ġmikro f
Ġtvenk inys
ĠDarb inis
Ġjud esio
ĠB an
ĠAmeri kÄħ
ĠPrezid ent
Ġvizu aliai
k W
ĠKris tu
U B
ĠpaÅ¾iÅ«r Å³
Ġkomis ijÄħ
Ġkomentar ai
ĠÄ¯kvÄĹp ti
Ġveiksm ais
Ġrep eti
Ġs ÄĹk
Gamin tojas
ĠÅ¡i oms
ĠÅ¡al tinius
Ġtar kime
Ġekonom inÄĻ
ĠÄĮ es
Ġnei Å¡k
ĠiÅ¡m esti
ĠVieÅ¡ Å³jÅ³
Ġregistr o
ĠPu tinas
K I
C om
d ytas
çļ Ħ
D uomenÅ³
R ib
Ġs mog
oj om
enk Å³
no w
ygi o
Ġugd yt
G alÅ³
Ġsaug Å«s
ĠDan ijoje
Fil mas
ĠrugpjÅ« tÄ¯
V iÅ¡
Grei Äįiausiai
Ġsug ed
Ġdvy lika
odi ako
ĠiÅ¡ taisyti
ĠS usis
yl Ä¯
Ġkol ed
Ġinfrastruk tÅ«rÄħ
ĠP art
ĠuÅ¾tikr intai
Ġnutar imo
Ġilg esnÄ¯
Ġsl ink
Ġtelef one
ec kas
ie Äįiais
Ġne rib
Ġg astr
Ġli gi
ĠNUOLAI DA
M or
Ġatskir us
Vakar e
Ġnuk rito
Ġsaug i
Ġaliej ai
Ġkompleks o
Ġais tra
Ġnepriklaus oma
k ul
Ġnusis tov
Ġtarptau tinius
ĠpÅ«l ingas
Ġh em
Ġlenktyn ÄĹse
Ġnet enka
Ġdaik to
EN D
ĠpareiÅ¡k imÄħ
ĠÅ¡il ti
Å¡k oji
Ġpap ai
Ġpavad inimus
Ġkovo tojÅ³
Ġprisimin imai
TÄĹv as
Ġpra timai
Ġmuzik antÅ³
ĠgÄĹr ybiÅ³
D viejÅ³
Ä® gyvend
Ġform oje
Ġpietry Äįius
Ġypat ingÅ³
Ġkep en
Ġtras oje
Ġjautri ai
Ġg ail
ĠÄ¯vair ovÄĹs
ĠuÅ¾d arb
Ġtermin ai
V iz
on ia
Ġbaus mÄĻ
Ġkr eiv
Ġsusi raÅ¡
Ġsuvok imÄħ
Ä¯vai r
Ġdraug ui
Ġsutrik imas
Ġsus ilpn
ĠdÄĹÅ¾ utÄĻ
ĠgÄĹr imas
ĠÅ½ uv
Ġpuol ÄĹ
ĠGied rius
Å¾ b
es tro
Ġpil d
ĠjauÄįi amas
Ġj ÄĹzui
Ġsurink ta
htt ps
ĠÄ¯p ÄĹd
on iniai
Ġc ink
ĠU g
Ġlyg inti
ĠvirÅ¡ ut
Ġdvas inio
ĠiÅ¡k yl
ĠW orld
Ġsand oriÅ³
ĠLt d
Ġnaik inti
Ġsusidor oti
ĠSkvern elis
ĠT adas
XV III
Ġkri auk
Ġger esnio
Ġsprend imais
Ġkepur ÄĹs
Ġrank raÅ¡
Ġgav osi
ĠtrÄħ Å¡Å³
ĠuÅ¾dr austi
Ġprival omas
ĠkarÅ¡ tas
Ġvirus as
O ne
ĠiÅ¡pr ovok
wed bank
t le
Ġmir ti
Ġorien tuo
Ġgav usi
Ġeksperim ent
Ġreg lamento
ĠpieÅ¡ iniÅ³
Ġm um
Ġpaj uto
Ġdiev iÅ¡k
Ġpad av
Ġpakei timas
Ġm ÄĹgi
Ä® reng
Ġlegend a
Ġsu telkti
Ġrud uo
ĠgÄĹr imo
Ġbase ine
ĠpÄĹs tininkÅ³
Ġsk y
ĠmÄĹnesi ams
ĠBritan ija
Ñ İ
ĠL S
Ġspe c
ĠiÅ¡or ÄĹje
Ġaug inimo
ĠneiÅ¡ n
Ġatvir u
Ġnek okyb
Ġapylink ÄĹ
amb l
mok sl
Ġpopuliar iausias
Ġlabor ator
Ġsiun tÅ³
ĠNer ingos
Åłe imos
ĠÅ¾ym ÄĹs
Ġegzamin us
Ġl os
Ġinterjer as
ĠsugrÄ¯Å¾ ta
Ġ1 01
ĠC V
Al eks
ĠÅ¡ali gatv
Ġr oz
staig os
ĠC r
ĠV ali
Ġneb Å«d
ĠbirÅ¾ oje
Ġpel k
Ġekspozi cija
l umas
os to
ĠE C
Ġdramat urg
n av
Ġs anitar
Ġvir ti
Ġatitink amÅ³
eis i
Ġvid iniÅ³
Ġinteres ams
E kskurs
Ġrom ÄĹnÅ³
E A
ÄĹ c
val sti
Ġprad inÄĹs
Ġvid inio
ist iniai
Pardav ÄĹjas
Ġteat rÅ³
Ġpi giai
omp on
Ġmet inÄĹs
Ġkoncep cija
Ġkam po
Ġatidar ÄĹ
Pr ekiÅ³
Ġspecial Å«s
Ġistor inio
Ġfilosof as
ĠNer inga
Ġbaus mÄĹ
vald as
ĠSigi tas
Ġklasik inis
Ġprokur oras
ĠÅ¡vie timas
Ġtarn avo
Bend ra
Negal ima
Å¾ mog
ĠV ikip
Ġpremjer o
Ġcitr inÅ³
Ġats iÅ³
Ġtruk mÄĻ
Å¡ io
ĠdÄĹm iÅ³
Ġob lig
Ġgy lio
ĠDonel aiÄįio
D el
Ġpirm aisiais
Ġkas p
R egist
eb o
Ġrod oma
ra c
Ġdizain eriÅ³
Ġprisim enu
ĠEurop e
Ġr aida
IA US
Rud en
li Äħ
Ġpas akiau
Ġdabar tinÄĻ
Ġkoleg a
Pastar asis
E IK
k yri
Ġindividu alÅ³
Es Äħ
Ġvik tor
Ġneb and
Ġmin er
Ġrud a
au ri
Ġver Äįi
Ġinternet inÄĹ
Ġapk ep
ĠR ich
ĠmaÅ¾ meninÄĹ
Ġrecep tas
Ġzo ologijos
S aus
r ui
ĠAnd roid
Ġleid inio
s el
tuÅ¡ ÄĹs
Ġsu imtas
S o
Ù Ĩ
e et
ĠX S
ĠS ti
Ġnes up
ĠÅł l
ĠmaÄį o
ĠÅ¡var us
B ud
Dis kus
Ġv ls
Ġdirek toriumi
ĠnaÅ¡ ta
Ġnauj ausiÅ³
lav as
ĠÄ¯spÅ« dÅ¾ius
1 10
arb on
Ġskir tumÄħ
Ġvai v
Ġprid ÄĹjo
ef onas
Ġnurod ymus
ĠÅ¡ven Äįia
Ġved ÄĹjo
Kazimie ro
k oj
Ġgam tai
e gi
ĠÅ¾uv ys
ĠÅ¡ aÅ¡
Ġsistem ose
ĠpasiÅ«l a
Ġro Å¾iÅ³
Ġt oms
Ġaud iniai
Ġnetol er
ev os
Ġkategori jÅ³
ĠÄ¯vyk ti
Ġsv ir
Ġrank ovÄĹ
Ġfilm avimo
Ġvyn uog
Ġnepri val
od s
ĠS ij
auj asi
ĠgraÅ¾ aus
Ġinvesti cijas
Ġnepa tiko
ÄĹl us
Ġtap etai
c us
inink ystÄĹ
Ġkomis ijai
Ġnat rio
Ġgyv i
Ġbr uoÅ¾as
ĠtaÅ¡k ais
S to
19 19
ĠiÅ¡dÄĹs tyti
Ġsu mas
Ġl ep
Ġcentr ui
ĠsusimÄħ styti
Ġd uos
irink ti
T T
rex it
Å½ vaigÅ¾
up ti
Ġgro tuvas
ons as
ĠkrikÅ¡Äįion ys
Ġsudalyv auti
Ġskelb imas
Ġskirtum Å³
PraÅ¡ ome
ĠU gn
Ġpo z
Ġty Äįia
ĠS amsung
Å½ ini
Ġnor ÄĹsite
Ġnor ÄĹjosi
Ġapmok ÄĹti
Ġpried us
Ġinteres ai
Parod os
Ġvadov ais
Ġatom inÄĹs
ĠA U
Ġvartoj ant
Ġpavel dÄħ
Ġinvesti cija
Ġbaigi a
p ui
Ġvien aip
ĠJ ov
uÅ¡ o
Ġprid er
ĠminÄĹ tas
f ic
tik lis
Ġpasis ek
Ġak tuose
ed as
Ġpl Å«d
Ġsusie ti
ĠS iau
ĠD u
ĠprieÅ¾as timi
Ġkvap Å³
Ġpedagog as
L ib
b ras
in tuvai
ĠpanaÅ¡ ius
ĠÅ¾emÄĹlap is
Ġnenori te
Ġsu valdyti
Ġned els
Ġatskir os
AM A
ĠsÄħskai tÅ³
ĠV aiÅ¡
Ġpatais as
Pr og
Ġneatsi Å¾vel
ĠtÄĻs ÄĹsi
Ġjaun atv
Ġdy dÅ¾iai
Ġnereikal auja
y z
Ġkomand ir
Ġsusik Å«r
amin tas
Ġpasilik ti
Ġarab Å³
Ġgr ani
Ġprezid entÄĹs
Ġatvir Äħ
Ġman iki
v ent
as men
Ġnen uk
Ġtvir tos
BÅ« kite
Ġk rakm
Ġret karÄįiais
Ġgyv end
ĠneÄ¯ vyk
kaiÄįi uojama
ĠAp ple
ĠPeterb urgo
Ġmet e
Ġekonom iÅ¡kai
Ġgyn ÄĹjas
Ġkontra cep
Ġsiurb liai
Ġatkov ojo
eto oth
Ġkel eiviai
Nem aÅ¾ai
ĠMar g
Ġdep utat
Ġspausd inimo
ĠÄ¯pras tÅ³
Ġtuoj au
Ġpipir ais
Ġkoply Äįia
Ġgel s
Par uoÅ¡
ĠlaiÅ¡k o
ĠRom ual
vie tÄĹs
ĠÅ¡aldy tuve
Ġtaip ogi
Ġ4 50
Ġkonkr etÅ³
Ġatsak ymai
Ġvi olet
Ġkompens uoti
Diev o
Teigi ama
L og
at inÄĹs
z ÄĻ
Ġsen ÄĹjimo
Ġvirtuv ÄĻ
Ġsubjek to
Ġm ÄĹ
Ġlik usÄ¯
Ġneats kl
Ġlaboratori jos
ĠLaim a
Ġpasi tinka
aks as
ĠK ab
N amÅ³
uotos e
Ġvienuo lik
L V
Ġ9 3
Ġatspar umÄħ
l erio
un do
tor inis
Sm agu
ĠT IK
Ne w
ĠrÄĹm imo
Ġkarjer a
ĠJ Ä¯
Ġsant uok
ĠiÅ¡ bl
ĠaukÅ¡t esnÄĹs
FOR MA
Ġpristat oma
Ġstebuk las
Ġpak ran
Ġneform aliojo
Ġneai Å¡ki
DÅ¾iug u
Ġinv az
ĠtreÄįi osios
ĠL G
Ġaprib ojimÅ³
ĠUniver siteto
ĠaukÅ¡ tus
ĠraÅ¡ tai
Ġer dvi
Ġministr u
Ġl imi
Ġpuslap iuose
ĠSlov ÄĹn
Ġvis ad
Ġrenk ami
ĠvÄĹÅ¾ ys
Ġpasi auk
Ġry t
Ġfilm uose
Ġpiliakal nio
Ġkaim ai
Å¡k omis
ĠpaÅ¾ angos
ĠneuÅ¾ tenka
ud u
Ġsk el
Ġlap o
pr om
Ġkil s
Ġj okie
Ġnusi Å¡yps
med Å¾iÅ³
Ġhier arch
Ġdarbuotoj ui
Ġstud ijÄħ
ĠiÅ¡si pil
Ġartim uosius
f t
in oje
Ġnus ir
Ġpasaul inÄĹs
ĠM it
in ÄĹjimÄħ
l ing
Ġp aukÅ¡Äįi
Ġlab ir
Ġlie mens
Ġspaus dinti
MaÅ¾ eikiÅ³
Ġsign alas
ĠgÄĹl ÄĹmis
M G
Ġl ovÄħ
ĠD yzel
Ġrank darb
Ġprofes ija
Ġinstitu tÄħ
Ġpil kos
Ġpav ers
entÄĹ ti
Ġkav inÄĹs
ĠMies to
ab i
ĠmaÅ¾ esnÄĻ
ĠreÅ¾ imu
Ġarm ija
oros kop
Ġfinan siÅ¡kai
vel n
ĠaukÅ¡Äįi ausias
Ġ196 8
ĠSkandinav ijos
Ġsal dÅ¾i
Ġind ÄĹlÄ¯
Ġkar e
Ġgyv Å«nas
pr of
ĠVis uomenÄĹs
Ġtr am
ĠN ic
Ġtams oje
ĠKan adoje
Ġper mat
ej er
Ġvalstyb inis
ĠD us
yk is
Ġti pai
t Å«ri
ĠM B
pos t
Ġleis tis
Ġskr ydÄ¯
Ġpritaik ytos
AC IJOS
Ati dar
iz mÄħ
Ġpok ario
Ġatsirad imÄħ
Buv ÄĻs
n an
Ġdirb anti
Ġded ame
ĠslÄĹn yje
Ġj unt
Ġnes lÄĹpÄĹ
Ġdirek cijos
emi um
ĠprotÄĹ viÅ³
Ġraj onÄħ
Ġpristat omi
Ġkor teles
d an
Ġpak etÄħ
D iena
ri t
Ġkuo pos
Ġparti jai
Ġram ina
ut ais
Ġkonkr eÄįius
Ġpig us
Ġprof sÄħjung
ĠreikÅ¡m ingas
ĠaÅ¡tuo niÅ³
Vyr ai
a jos
Ġg ad
om ÄħjÄ¯
ĠiÅ¡gyven o
ek os
Ġtr eti
ĠV yk
Ġnuo g
ĠT iÅ¡k
enk sm
ĠleidÅ¾i antis
tar ÄĹ
Ġnu tuk
gal ima
Ġw h
Ġapa Äįia
N uk
Ġorganiz uojam
ĠiÅ¡s imok
Ġst Å«k
ĠÄ¯vairi ai
ĠsÄħskai toje
ĠJas ik
Ġc uk
Ġsaug Å³
ĠvieÅ¡ nag
Ġmem bran
ĠEgid ijus
enki tÄĹs
Ġvasar Ä¯
ĠAr mÄĹn
Ġkos met
NuoÅ¡ irdÅ¾iai
ĠAr tim
Reng inys
om ÄħjÄħ
Ġgal Äħ
ĠÅ¾aid ÄĹjams
Ġfak toriÅ³
Ġmyl imÄħ
ĠMad ri
Ġkeli amus
Ġreguli uoja
ori ui
Ġra fin
Ġlank osi
Ġpagalv ojau
Ġvalsti joje
Ġpanaudoj imas
Ġdarbdav iÅ³
Ġtur ÄĹdami
ĠC K
uo te
ĠkrÅ« tinÄĹ
Ġkrik Å¡to
Ġ197 8
Ġpritar ia
ĠapskaiÄįi uoti
oki u
Ġklini ka
Ġne pras
Ġdr as
Ġsen elis
Pat al
ĠKub ilius
Ġdv iems
ï¼ Į
Ġpis tol
Ġnam ais
lo ok
ĠaukÅ¡ ti
Ġdid esnes
Ne abej
Ġnuv eik
uo liais
Ġrink tinÄĹje
Ġadministrac iniÅ³
ĠrÅ«k yti
Ġlietuv io
Ġry tinÄĹje
ĠKaz ys
ĠT a
ĠsavivaldybÄĹs e
ĠmÄĹnesi ui
Ġmini os
tin ant
ĠiÅ¡skir tinÄĹs
ĠBraz ilijos
ĠV ÄĹl
ĠdÄĹk ingi
197 5
Ġpat y
Merg ina
usi omis
Ġatk uri
Ġsr ovÄĹ
Ġ198 3
tat a
Ġri Å¡
Ġrib otas
Ġpokalb iai
Ġduk tÄĹ
Ġpapras to
Vien ame
Ġarch e
ĠKunigaikÅ¡tys tÄĹs
V U
in tojo
ĠpasiÅ«l yta
Ġbaig tas
Ġmikro b
ĠraÅ¡ y
Ġch r
Bendr ovÄĹs
in tume
Ġ2 30
Ġgyven am
At nauj
Ġspor tÄħ
Ġorkes tro
Ġdukr os
Ġkelion ÄĹje
Ġlaiv Äħ
ang Å«s
Ġteras a
Ġap tiko
Ġver Äįiau
Net ur
Ġpanaudoj ant
Ġpaver Äįia
A ir
Ġpai ni
Ġkomentar Äħ
Ġantr op
urn ak
Ġbend rav
Ġprogram omis
ĠpadÄĹ tyje
ĠmobiliÅ³ jÅ³
K O
Ġpasi traukti
Ġvis iÅ¡kÄħ
Ġkonserv atyv
ek onom
ĠiÅ¡tr inti
ĠÄĮ ia
Ġgyn imo
Ġtradic inÄĹ
ĠpaÅ¾Ä¯st amÅ³
Ġmug ÄĹs
ar ais
ĠE B
Ġnuolat inio
AukÅ¡ tos
in amo
ĠmaÅ¾ esnÄ¯
ni c
ĠÅłveicar ijoje
Ġr ÄĹ
Ġspar n
Ġj uolab
Ġses ijos
ĠTaurag ÄĹje
Ġkap Å³
Ġatei Äįiai
ĠH otel
Ġspeci aliu
Ġkrov inius
Ġult rag
ĠkaÅ¾ in
Ġkil mÄĻ
ĠieÅ¡k ome
Ġaud inius
Ġgam ykloje
ĠdidÅ¾i ausio
Ġlygi aver
Ġpusry ÄįiÅ³
Ġfinans ines
ĠVal anÄįi
Ġmotyv acijos
Ġstai giai
Ġlim f
ĠÄĮ er
ĠpaÅ¾eid imai
Ġfas ado
ag ar
ĠH els
Ġkandid atai
Ġgaranti jÄħ
ĠBrius elyje
ĠA C
ĠÅ¡al imis
Ġpie tinÄĹje
ĠmiÅ¡ inÄ¯
i Phone
Ġd us
Ġlaik omasi
Ġrung tyje
Ġankst esniÅ³
Ġastr onom
J apon
Ġ19 30
ĠÄĮ empi
Ġneap l
Ġne ribo
tem pti
ĠnatÅ«r alÅ«s
ĠpieÅ¡ ti
ĠNap ole
t ÄĹmis
Ġasmen inÄĹ
ĠO g
Ġlang as
Ġistor inÄĻ
ĠÅ¡i ta
Ġgyven antiems
Ġbal z
Ġasmen imis
Ġarb atÄħ
Ġcentr us
ĠpriÄĹm imÄħ
ðŁ ĺ
ĠmarÅ¡ru tas
Ġpad ÄĹkl
ĠpaÅ¾ Ä¯sta
ĠleidÅ¾i asi
ĠreiÅ¡k iniÅ³
ĠÅ½ iÅ«r
Ġrengi amos
ĠpabÄĹg o
in Äį
K AS
Ġsp ir
ĠÄ¯r engi
Ġdirb iniÅ³
je vas
tin tos
Ġbend ravo
Ġprad ÄĹjusi
Ġautobus o
v ÄĹp
MES IO
vi Å¡kiÅ³
Pop ie
ri ki
ok uro
tum ti
Ġkri tuliÅ³
Ġsupjausty kite
Ġpas en
Ġb eri
ĠS idab
ĠÅ«k ininkams
Ġvidur inÄĹje
ĠvabzdÅ¾i Å³
ĠR ek
Ġjau nik
Ġ ait
Ġsuteik tÅ³
Geri ausiai
Ġjurid inio
t ymo
ĠmaÅ¾ ylis
Ġkok os
ec o
Ġkamp Äħ
ri ve
Ġtur ÄĹÄįiau
Ġra cional
Ġvadov ybÄĹs
Ġaus Å³
Ġnes ijau
Ġkompozi toriÅ³
ĠM ur
Nuos tabi
Ġapsigyven o
ĠparuoÅ¡ ÄĹ
ĠâĢ Ŀ
ĠuÅ¾ me
Ġdvas inÄĹs
U kmerg
Ġatsi rib
ĠmÅ«Å¡ is
Ġvis uma
per s
Ġbank Äħ
Ġpasik eis
Ġmergin oms
Ġvestuv ÄĹs
ku lio
Ġprak tiniÅ³
ĠteÅ¡ la
tab il
Ġb ab
uk ytÄĹs
ĠK et
Ġkil ÄĻ
Ġkvie ÄįiÅ³
Ġnaci on
Ġpavel das
ĠsumaiÅ¡ ykite
ĠÅ¾v yr
ĠÅ¡m aikÅ¡
G ro
Ġpristat ome
Ġpoil sÄ¯
ĠÐ¿ ÑĢ
ĠP lotis
Ġdid inimo
ĠÄ¯stat ymais
ĠtreÄįi oji
Ġgarb ÄĻ
ori Å¡kai
ej aus
Ġsugalv oti
ĠNÄĹr ies
Ġinter ven
Ġnug arÄħ
j uo
ĠK uz
ĠuÅ¾tikr inant
Ġbu tai
Ġdang us
Ġnuo b
trÅ«k ti
ĠÄ¯mok os
Ġr ent
ĠO na
Ġ197 2
ĠPu tino
ĠneÄ¯gal iesiems
ĠU ten
ĠraÅ¡ ykite
Ġdefek tu
Ġkr uv
up i
Ġlie Äįia
Tik ÄĹtina
ĠProd uk
Å¾in ys
ĠiÅ¡d uoda
Ġautobus as
ĠÅ¡ mei
ĠV irb
ĠF in
Ġpatik imÄħ
Ġnetur ÄĹjau
G ri
Ġkup inas
Ġkosmos o
ĠBen edik
v ÄĻ
ĠÅ¡ auki
ĠmarÅ¡ru tu
T ransporto
ĠR okas
Ġvil ÄįiÅ³
iÅ³s kite
Ġnauj ov
Ġnu dÅ¾iug
Did elÄĹ
yd i
Ġtechn inÄĻ
Ġlaure atas
S and
Ġpl onas
Ġpriva tiz
Ġrank oje
Ġplan uojate
Ġpasirink imu
Grup ÄĹs
Ġsp i
Ġlaik ÄĹsi
Ġpergal es
Ġnes veik
ĠÅ¡ rif
Ġmal Å¡
1 000
s es
Ġpapli tusi
l iniÅ³
ĠEl ena
Ġpris ig
Ġprogram inÄĻ
ĠB oris
Ġnegali Äħ
Ġpramog a
Ġin do
vir us
Ġnuovarg is
st rav
aik Äħ
Ġpadar iau
Ġskelb imus
ĠSod Å³
k er
auk is
Ġkonsulta cijÅ³
ĠÄ¯vaizd is
BÅ«d amas
z ijos
Ġvestuv ÄĹms
N O
Ġkredi tÄħ
Pok alb
R espublik
ĠÄ¯rod yta
ĠgÄĹr imus
Ġsanty kiams
Ġatsiras tÅ³
al inÄ¯
Ġ19 33
ĠSÄħjung Äħ
ĠSal om
ĠsumaiÅ¡ yti
Äįi ausiÅ³
Ġdu jas
Ġekonom inio
ĠPl us
Ġklini koje
Muz ikos
Ġat verti
Ġnaudoj u
ĠGarg Å¾
ĠG arb
ra gi
ĠapibrÄĹÅ¾ ti
Ġaus is
d intas
Ġsu kib
194 9
AtsipraÅ¡ ome
T iems
Ġl aÅ¾
Ġ198 2
G ab
Ġt egu
Ġnedid elÄĻ
Ġprie inamas
Ġstabil umÄħ
Ġtav imi
Ġvar io
ĠGir ÄĹno
in ais
Ġa kir
ĠÄ¯kv epia
ĠÅ¾id inio
Ġk anÄįios
Ġlai vai
Ġd au
Å¡k oje
Ġtiek imas
ĠX I
Ġkompozi cijos
Ġbi ologijos
rabu Å¾iai
Ġtur as
Ġpan ev
Ġklas ika
ry Å¾i
Ġatsir and
Ġimp erija
Ġeki pÄħ
Mies te
Ġprog ai
ys im
Ġtaik o
ĠneuÅ¾ si
Ġgam inys
Ġpard uodu
Ġfili alo
Ġneg ailes
Ä® tar
am il
ĠaÅ¡tuo ni
Ġhomos eksu
Ġtik ÄĹjo
Ġmikro organiz
Ġtink amus
Ġmegz tiniai
tyv iai
Ġsto ka
as tro
Ġd z
Ġmed inÄĹ
Ġsusij usiÄħ
ĠiÅ¡p li
Ġpalaid otas
Ġp ami
Ġtris palv
Ġnesu pras
ĠplÄĹ to
Ġtrauk iniÅ³
sto mas
ĠÄ¯amÅ¾ inti
Ġat ÄĹmimo
men as
Ġsveik ino
Ġdv el
ori ais
ĠT omo
ĠMod elis
! "
eÅ¡ a
An tras
ĠS uk
ĠKom piu
tin giau
ĠpapuoÅ¡ alÅ³
an te
ed ijÄħ
B ÄĹg
Vien in
antys is
ĠKazach st
N eiÅ¡
Ġtr op
ĠÅ¡iaur inÄĹje
Ġt yli
Ġmet alÅ³
Ġ2 40
Ġvaliu tÅ³
Ġpaved imu
ĠpirmÄħ kart
Ġkop ijÄħ
Ġpul s
, "
b ei
l im
ĠS id
Ġlig oms
ĠÅ¾in ojau
ini k
zd a
ili akal
Ġmalon umo
Ġdukr Äħ
T urn
Ġmet iniÅ³
ĠbÅ« tinos
Ġper n
Ġsuprant ame
Ġsusirg ti
Ġkoreg uoti
vi to
Ġkonf isk
Ġsvaj oja
Ġ10 4
Ġnepriklaus o
Ġkorup cija
ĠAuÅ¡ ros
Ġpyk Äįio
ĠPardav ÄĹjas
ĠR ap
ĠNor s
B enz
in tojas
ĠN ag
Ġvertin ant
ĠVisag ino
Ġteis ÄĹjai
Ġnuostabi Äħ
Ġpavalg yti
Ġvis iÅ¡kas
Ġrib ose
et s
ĠS par
ĠmaÅ¾ ieji
v asar
ĠÅł er
Ġneg ail
Ġsun audoj
Ġpasik onsult
Ġskaus mai
ĠÄ¯dieg ta
Ġhidr aul
Ġb aÅ¾nyt
ĠO ne
Î ¿
ĠU SD
Ġpartn eriu
Ġmetod ika
Ġaksesu arÅ³
N E
ĠvieÅ¡bu Äįius
Ġstikl inÄĹs
Ypat ingai
uo liams
Ġtur istai
ĠuÅ¾dar ymo
ĠpoÅ¾ym ius
in anÄįias
Ġp ump
Ġpri art
ĠraÅ¡ iau
ĠskaiÄįi umi
Ġseptyni as
G lob
J ose
ĠK Å«
Ġteb uvo
ĠBend rijos
Ġsusitaik yti
P ol
Tik r
ĠminÄĹ tÄħ
Ġpapli tÄĻs
Ġteis inÄĻ
Ġsusirink ime
ali ui
Å¡k asis
Tra kÅ³
Ġform omis
Ġsvetain es
Ġprofi liÅ³
Ġl ing
Ġnu film
Ġdy dÅ¾iu
ĠA N
ĠGint autas
Ġatidav ÄĹ
uv Äħ
tat e
Ġpui ku
Ġpral aid
ĠÅ¾v ÄĹ
ĠÄ¯steig ti
Ġbaud Å³
Ġmok s
S il
Ġkop Å«st
ĠMedÅ¾i aga
ĠV as
ĠKl aus
ĠBenz inas
ĠpraÅ¡ ymÅ³
Ġpastar asis
Inter neto
yb inius
ĠS M
usi uosius
Ġvalstyb ÄĹms
Ġmie ga
Ġkor oz
Ġkamp e
ĠP or
ĠbÄĹd Å³
Ġmin ÄĹjo
AM S
Ġs ed
Ġn au
Ġd en
ĠSp ort
iel d
Ġtransport avimo
Å¡ im
G l
M ind
ĠÅ¾enkl ais
Ġfiz inÄĻ
ĠplÄĹv elÄĹs
ĠY ork
Nak v
ĠÅ¾iniasklaid ai
Ġilg esnis
Ġup elio
ĠBir utÄĹs
Ġat metÄĹ
Ġatim ti
ĠpasipuoÅ¡ ti
Ġg ob
ĠM etÅ³
Ġpav akar
Ġveiki ausiai
yt ÄĹmis
Ġsav ik
Ġkon di
Ġvykst ant
Ġpiln aver
Ġmin int
Ġaplank o
Ġd uod
ĠÅ¾ iedo
Ġkad encijos
Ġneb r
Ġtarn ybai
Åłal ies
ĠB on
Ġpard uota
Ġsul aikÄĹ
Ġpirk ÄĹjams
ĠiÅ¡man i
ĠÄ¯skai toje
Ġsus ting
ĠÄ¯spÅ«d inga
ĠdÄĹk ojame
Vie toj
ĠÄ¯Å¾vel gti
Ġdal inosi
G R
n en
Ġsk ied
Ġkonkur uoti
Ġbalt ymai
Ġhoriz on
Ġatgaiv inti
ĠVladim iras
ĠB og
Ġlauk ai
ĠpasiÅ«l ys
ĠpajÄĹg as
ori uje
Ġper eina
Ġnauj ausi
19 50
ĠkvÄĹp uoti
ĠiÅ¡si vad
S L
Ġpat ep
Ġnesud er
Ġsk Å³
ĠOland ijos
Ġpasak ojimo
Ġdirek torÄĹs
Ġgalu tinÄ¯
Ġ} );
keln ÄĹs
M el
Ġprad ÄĹtos
Ġklaus ti
R oÅ¾
Ġd antu
Ġgyven imus
Ġslap yv
Ġvienin telÄ¯
Ġpasil ieka
al Å¡
ĠF M
ac inius
ĠÅ½ ib
ĠÄ¯var dinti
H er
Ġpapil das
Sp orto
Ġveiki anÄįios
ĠAu tomat
r eto
Ġal Å³
Ġfig Å«ra
Ġtarptau tiniu
Ġvarik liu
Ġkrem Äħ
ĠT eatro
ĠuÅ¾tikr inimo
Ġin takas
Ġsiek dama
Ġskur do
Ġdis pon
Uni ver
tr an
ĠÅ¡eim ininkÄĹ
Ġram ybÄĹ
Ù Ī
at iniÅ³
ĠÄ¯vair ove
Ġvi tr
Ġdok tor
f ak
s ub
am on
Ġvicepr ezid
Pas in
M ÄĹn
Ġrink Å³
ĠkultÅ«r inÄĹs
Ġpar azi
v u
G ars
ĠL V
Ġnuo to
Ġpj aust
Ġauto rÄĹs
ĠKr ymo
Ġdvej etÅ³
L G
Ġaspek tai
T aik
Ġsus tojo
Ġgel tona
Ġatmint yje
Ġk eik
ĠS uv
Ġorganiz acijai
Leng vai
Ġb ep
ĠÄ¯raÅ¡ ytas
Ġsusir enka
Ġkvep i
Ġfr om
inamas i
ĠKol umb
Meil ÄĹ
Ġpoli tinÄ¯
Ġsusitik s
Ġsuprant amas
Ġartimiausi Äħ
ĠatpaÅ¾ Ä¯st
Ġdi agr
vad as
Ġtrem tiniÅ³
Å«k o
Ġmok amas
ĠSim on
Ġsm al
Ġpig iÅ³
Aps ilank
Ġ10 5
S amsung
h os
Ġpla Äįia
Ġs uoli
ĠdidÅ¾iul ÄĹs
Ġsvies tu
Ġ( +
Ġpav ÄĹl
Ġdraug iÅ¡kas
Ġatnauj inta
Ġstatis tikÄħ
Ġjurid iniÅ³
e kio
ingi o
Ġpati eki
uotÅ³ jÅ³
ĠS ad
Ġpadar ytÄħ
A dv
Ġpersonal as
poz ic
dÅ¾i uose
ĠT aigi
Ġvarg on
Ġatl etikos
Ġpoez ija
Ġnauj Å³jÅ³
ĠaukÅ¡ tosios
Ġnuotol iniu
Ġseminar us
c inius
au tojÅ³
ĠÅ¡ onÄħ
Ġgarb ÄĹ
ĠKalÄĹd os
Ġaspek tÅ³
f ai
ÄĹli ui
ĠuÅ¾sir egistrav
Ġk ÄĹbulo
om er
ĠV II
Ġdang umi
ĠB il
Ġvaik ino
Ġvakar ienÄĹs
Ġlengv os
Of ici
av imosi
Ġpas akius
Ġbr Å«kÅ¡
Ġvisuomen inÄĹs
ĠÅ¡vies tuvai
Ġkop Å«s
Ġdoz ÄĹs
un as
Ġpav erg
Ġpor tu
ĠStok hol
Ġm oki
ĠgrÄĹs m
h as
Ġkoki ai
Ġgav ome
om ieji
B lu
ĠM eÅ¡k
eik os
tik tinai
ĠAl l
Ġpaveiksl ai
Ġgrand in
ĠR io
ĠÅ¾aid ÄĹjus
Ġtais yti
ĠiÅ¡skir tiniÅ³
ĠmarÅ¡k iniai
Ġlaz er
Ġpoli cijÄħ
Ġaktyv ios
Ġgaun ama
Ġlauki ami
E f
Ġs olo
usi oms
per is
Ġkoncer tavo
Ġpaslap tÄ¯
I Å¡ki
Ġf i
ĠaukÅ¡Äįi ausia
Ġ ï¿½
al es
Ġprogram ose
Ġvid e
Ġreng ÄĹ
ĠPran as
Ġaukl ÄĹjimo
er tas
alis tai
Ġapsi k
Ġsuteiki amas
Ġ1 18
ĠN ak
tiÅ¡k us
Ġnepas ieki
Ġsvaj ones
Ġ197 4
Ġmak Å¡
Ġl ÄĹliÅ³
Ġpaaug liams
Ġmodern us
Profesi onal
aik is
Ġsij on
omet ro
li do
ird ies
inam ojo
ĠBal tr
ĠKur Å¡
ĠbruoÅ¾ us
Ġuniversitet uose
B N
ij oj
ĠPl an
ĠiÅ¡band ÄĹ
ĠposÄĹ dÅ¾iÅ³
ĠvaÅ¾ inÄĹti
ĠG il
Vien oje
Ġkabin ete
tai n
Ġvaik Å¡to
Ġrekomend acijÅ³
Ġprar and
Ġgyv Å«no
ĠG lob
Ġkelion ÄĹms
Ġskat ino
Ġmetod u
Ġpaaug liai
Ġsustipr ina
Ġgrei tosios
ĠsÄĹkm ingÄħ
Ġkav inÄĹje
yl ÄĹs
ĠdaÅ¾ yti
Ġsar af
Ġr ÄĹk
Ġtobul as
ĠDyzel inas
Ġelektr om
ĠdÅ¾i u
Ġk iet
ug e
Ġpasak ys
ĠAd ministra
Ġprepar atÅ³
Ġilgalai kio
ol fas
Ġras ime
Ġnaudo tÅ³
Ġprab angos
Ġ197 7
Ġvis umÄħ
ĠJ ulius
ĠT est
Ġdi viz
Ġpadal inys
UÅ¾s ienio
ĠS tor
Ġarchyv as
ĠDav id
ti eÄįiai
yb ÄĹn
ĠÄįempi onu
Ġteleviz oriaus
ĠAud ron
ĠVirgin ija
tiÅ¡k umas
ĠkrÅ« m
Ġnar iui
Ġpremjer a
Ġmon etÅ³
Ket uri
Ġlaikrod Å¾io
Ġpasibaig ÄĻs
ĠsmÅ« gio
Ã «
an au
aun ami
Ġvarik liai
ĠiÅ¡klaus yti
ĠraÅ¡ au
Nep riklausom
ote ch
Ġperspektyv as
Ġklas es
Ġbar jer
Ġsin ag
Ġpas Äħmon
man u
V estuv
Ġpirm Å³
Ġtaup ymo
Ġgrafik Äħ
Ġdirb ÄĻs
Ġl ev
Ġkoj inÄĹs
ĠsÄĹd ÄĹjo
Ġs amb
Ġkodeks as
ĠdeÅ¡imtme ÄįiÅ³
ĠÄ¯tvirtin ti
n ug
Ġbend rija
ĠC ap
Ġgyven tojais
ut look
Ġskys tis
ĠP os
Ġgr amÅ³
ĠÄ¯rod ymas
Ġgird i
Ġpanaud ota
ĠÄ¯v eÅ¾
ĠLT SR
ĠnemaÅ¾ as
Ġcentr inis
uok liai
ĠÅ¡vie Äįi
Ġpasinaud ojo
n uol
Ä® stat
dom Å³
Ġjuos toje
Ġsk ar
Ġporeiki ui
Ġpoveiki u
Ġport f
Ġtur imas
ÄĹ tojo
Ġpras isk
ĠY ou
Ġki aur
Ġne valg
Ġpam inÄĹjo
KaÅ¾ kas
Ġpapild Å³
ĠpavyzdÅ¾i us
A uk
P aÅ¾i
aliz uoja
Ġpardav ÄĹ
ĠÅ¡l aun
au liai
ĠÄ¯ brÄĹÅ¾
Ġinvest uotojÅ³
Ġel ast
Pam at
[...]
