{"<s>":0,"<pad>":1,"</s>":2,"<unk>":3,"<mask>":4,"!":5,"\"":6,"#":7,"$":8,"%":9,"&":10,"'":11,"(":12,")":13,"*":14,"+":15,",":16,"-":17,".":18,"/":19,"0":20,"1":21,"2":22,"3":23,"4":24,"5":25,"6":26,"7":27,"8":28,"9":29,":":30,";":31,"<":32,"=":33,">":34,"?":35,"@":36,"A":37,"B":38,"C":39,"D":40,"E":41,"F":42,"G":43,"H":44,"I":45,"J":46,"K":47,"L":48,"M":49,"N":50,"O":51,"P":52,"Q":53,"R":54,"S":55,"T":56,"U":57,"V":58,"W":59,"X":60,"Y":61,"Z":62,"[":63,"\\":64,"]":65,"^":66,"_":67,"`":68,"a":69,"b":70,"c":71,"d":72,"e":73,"f":74,"g":75,"h":76,"i":77,"j":78,"k":79,"l":80,"m":81,"n":82,"o":83,"p":84,"q":85,"r":86,"s":87,"t":88,"u":89,"v":90,"w":91,"x":92,"y":93,"z":94,"{":95,"|":96,"}":97,"~":98,"¡":99,"¢":100,"£":101,"¤":102,"¥":103,"¦":104,"§":105,"¨":106,"©":107,"ª":108,"«":109,"¬":110,"®":111,"¯":112,"°":113,"±":114,"²":115,"³":116,"´":117,"µ":118,"¶":119,"·":120,"¸":121,"¹":122,"º":123,"»":124,"¼":125,"½":126,"¾":127,"¿":128,"À":129,"Á":130,"Â":131,"Ã":132,"Ä":133,"Å":134,"Æ":135,"Ç":136,"È":137,"É":138,"Ê":139,"Ë":140,"Ì":141,"Í":142,"Î":143,"Ï":144,"Ð":145,"Ñ":146,"Ò":147,"Ó":148,"Ô":149,"Õ":150,"Ö":151,"×":152,"Ø":153,"Ù":154,"Ú":155,"Û":156,"Ü":157,"Ý":158,"Þ":159,"ß":160,"à":161,"á":162,"â":163,"ã":164,"ä":165,"å":166,"æ":167,"ç":168,"è":169,"é":170,"ê":171,"ë":172,"ì":173,"í":174,"î":175,"ï":176,"ð":177,"ñ":178,"ò":179,"ó":180,"ô":181,"õ":182,"ö":183,"÷":184,"ø":185,"ù":186,"ú":187,"û":188,"ü":189,"ý":190,"þ":191,"ÿ":192,"Ā":193,"ā":194,"Ă":195,"ă":196,"Ą":197,"ą":198,"Ć":199,"ć":200,"Ĉ":201,"ĉ":202,"Ċ":203,"ċ":204,"Č":205,"č":206,"Ď":207,"ď":208,"Đ":209,"đ":210,"Ē":211,"ē":212,"Ĕ":213,"ĕ":214,"Ė":215,"ė":216,"Ę":217,"ę":218,"Ě":219,"ě":220,"Ĝ":221,"ĝ":222,"Ğ":223,"ğ":224,"Ġ":225,"ġ":226,"Ģ":227,"ģ":228,"Ĥ":229,"ĥ":230,"Ħ":231,"ħ":232,"Ĩ":233,"ĩ":234,"Ī":235,"ī":236,"Ĭ":237,"ĭ":238,"Į":239,"į":240,"İ":241,"ı":242,"Ĳ":243,"ĳ":244,"Ĵ":245,"ĵ":246,"Ķ":247,"ķ":248,"ĸ":249,"Ĺ":250,"ĺ":251,"Ļ":252,"ļ":253,"Ľ":254,"ľ":255,"Ŀ":256,"ŀ":257,"Ł":258,"ł":259,"Ń":260,"ai":261,"in":262,"Ġp":263,"ÄĹ":264,"as":265,"Å³":266,"Ġk":267,"Ġs":268,"ti":269,"au":270,"Å¡":271,"os":272,"ie":273,"al":274,"ar":275,"Ġi":276,"Å¾":277,"Ġt":278,"Ġn":279,"is":280,"an":281,"us":282,"Äħ":283,"Ġv":284,"Ġd":285,"Ġm":286,"am":287,"im":288,"en":289,"at":290,"Ä¯":291,"ri":292,"Ġir":293,"âĢ":294,"Ġb":295,"Ġg":296,"ei":297,"Å«":298,"er":299,"uo":300,"li":301,"ki":302,"to":303,"ÄĹs":304,"ra":305,"Äį":306,"es":307,"Äįi":308,"Ġj":309,"on":310,"av":311,"et":312,"ij":313,"ad":314,"ĠÄ¯":315,"Ġr":316,"Ġsu":317,"Ġl":318,"je":319,"Ġpr":320,"om":321,"ĠâĢ":322,"ap":323,"aus":324,"ur":325,"ini":326,"ir":327,"ĠÅ¡":328,"tu":329,"ĠiÅ¡":330,"ak":331,"or":332,"el":333,"Å¾i":334,"Ġne":335,"ais":336,"ien":337,"ok":338,"Ġpas":339,"te":340,"ÄĹj":341,"ÄĻ":342,"tik":343,"Ġat":344,"ĠÅ¾":345,"ek":346,"tin":347,"il":348,"ali":349,"tÅ³":350,"ink":351,"yb":352,"Ġpa":353,"aug":354,"Ġap":355,"ta":356,"od":357,"um":358,"oje":359,"aip":360,"iÅ³":361,"Å¡k":362,"tas":363,"id":364,"âĢľ":365,"aik":366,"tr":367,"imo":368,"cij":369,"Ġkad":370,"ĠâĢĵ":371,"og":372,"yv":373,"Ġu":374,"uri":375,"eik":376,"em":377,"oj":378,"Ġ(":379,"si":380,"Ġy":381,"ĠâĢŀ":382,"ant":383,"Ġvis":384,"Ġ1":385,"ys":386,"arb":387,"ĠL":388,"ni":389,"ab":390,"ui":391,"ov":392,"tuv":393,"ym":394,"ol":395,"uv":396,"Ġyra":397,"Ġtik":398,"Ġsav":399,"ÄĹl":400,"gi":401,"ed":402,"aÅ¾":403,"tis":404,"ĠuÅ¾":405,"uos":406,"yk":407,"uk":408,"ĠK":409,"Å«r":410,"Ġpat":411,"and":412,"ĠV":413,"eli":414,"ik":415,"st":416,"ĠS":417,"Ġf":418,"Ġmet":419,"yti":420,"ĠbÅ«":421,"toj":422,"iek":423,"ÂŃ":424,"ĠP":425,"ĠA":426,"Ġ2":427,"ing":428,"aud":429,"Ġnuo":430,"ausi":431,"Ġar":432,"auk":433,"Ġgal":434,"Ġsk":435,"ietuv":436,"imas":437,"usi":438,"Ġprie":439,"Åł":440,"ul":441,"tÄħ":442,"Ġkuri":443,"uvo":444,"Ġo":445,"Ġpar":446,"end":447,"Ġper":448,"..":449,"Ġin":450,"Ġsp":451,"un":452,"ĠM":453,"Å«s":454,"men":455,"Ġpo":456,"ÄĹm":457,"eis":458,"ame":459,"Ġkur":460,"auj":461,"iniÅ³":462,"mon":463,"ÄįiÅ³":464,"ams":465,"dÅ¾i":466,"uoj":467,"eg":468,"Ġbuvo":469,"Ġki":470,"ci":471,"Ġtai":472,"Ġkar":473,"tos":474,"ijos":475,"oki":476,"Ġmok":477,"ĠÅ¡i":478,"Ġgr":479,"eri":480,"ank":481,"Ġvien":482,"ĠJ":483,"ag":484,"inti":485,"ĠB":486,"ÄĹjo":487,"Ġti":488,"ies":489,"ama":490,"Ġpri":491,"ĠR":492,"raÅ¡":493,"Ġ-":494,"Ġsavo":495,"Ġkaip":496,"ch":497,"tai":498,"tat":499,"Ġdaug":500,"Ġval":501,"inÄĹs":502,"Ġkai":503,"Ġats":504,"ĠT":505,"Äįiau":506,"amas":507,"acij":508,"ĠLietuv":509,"ĠD":510,"Ġtr":511,"Ġpag":512,"Ġpl":513,"00":514,"inÄĹ":515,"eiki":516,"Ġgyv":517,"pr":518,"Ġnes":519,"Ġsv":520,"imÄħ":521,"yje":522,"Ġgali":523,"eng":524,"ÄĻs":525,"iau":526,"ter":527,"omis":528,"inis":529,"Ġpro":530,"Ġjau":531,"inio":532,"ami":533,"aid":534,"yg":535,"tar":536,"yn":537,"Ġtur":538,"mo":539,"Ġdal":540,"tÄĹ":541,"rad":542,"Ġkl":543,"ĠE":544,"Ġapie":545,"uose":546,"Ġdarb":547,"ori":548,"inink":549,"kl":550,"Ġdar":551,"iÅ¡k":552,"yr":553,"Ġlaik":554,"Ġbet":555,"io":556,"iz":557,"orm":558,"Ġkon":559,"jÅ³":560,"alb":561,"aÅ¡":562,"sl":563,"Ġpav":564,"Ġpir":565,"avo":566,"lik":567,"vai":568,"Ġpad":569,"Ġvie":570,"Ġtar":571,"yd":572,"ÄĹti":573,"ĠG":574,"Ġlab":575,"kir":576,"tus":577,"ĠN":578,"Ġkom":579,"Ġgyven":580,"anÄįi":581,"ang":582,"Å«sÅ³":583,"tori":584,"Ġbei":585,"ep":586,"iem":587,"Ġnet":588,"Ġdid":589,"Ġkr":590,"ino":591,"uoti":592,"var":593,"Ġtaip":594,"Ġto":595,"Ġgalim":596,"ybÄĹs":597,"Ġak":598,"Ġc":599,"ev":600,"jos":601,"01":602,"aÄįiau":603,"liÅ³":604,"ent":605,"Å«n":606,"iniai":607,"iai":608,"up":609,"Ġver":610,"Ġnep":611,"ina":612,"osi":613,"ud":614,"Ġsus":615,"op":616,"Ġre":617,"ub":618,"ĠI":619,"Å½":620,"Ġpasi":621,"asi":622,"Ġvar":623,"ut":624,"ija":625,"Ġor":626,"eig":627,"ÄĹd":628,"kai":629,"kite":630,"Ġ3":631,"ÄĹje":632,"ĠLietuvos":633,"ose":634,"eÅ¡":635,"ind":636,"ymo":637,"Ġman":638,"ĠdÄĹl":639,"Ġvaik":640,"lio":641,"Ġkeli":642,"val":643,"ain":644,"Ġnauj":645,"esn":646,"Ġdien":647,").":648,"eikia":649,"Ġnaud":650,"Ġger":651,"enk":652,"Ġpak":653,"Ġlabai":654,"tim":655,"ykl":656,"...":657,"ĠÅ¾mon":658,"âĢľ,":659,"Ġdr":660,"sp":661,"ĠjÅ³":662,"Ġpirm":663,"Ġkas":664,"Ġiki":665,"Ġreik":666,"Ġturi":667,"ime":668,"Ġbend":669,"ĠÅł":670,"ojo":671,"ras":672,"uomen":673,"Ġa":674,"Ġveik":675,"Ġnor":676,"Ġli":677,"ĠÅ¡v":678,"Ġmed":679,"oti":680,"âĢŀ":681,"Ġpra":682,"Ġnei":683,"ver":684,"ro":685,"iems":686,"imÅ³":687,"ÄĹg":688,"Ġas":689,"Ġteis":690,"vir":691,"amos":692,"Ġpap":693,"ĠmetÅ³":694,"Ġarb":695,"ties":696,"Å¡ki":697,"ung":698,"Ġau":699,"ej":700,"ĠbÅ«ti":701,"cijos":702,"Ġsuk":703,"kas":704,"Äįia":705,"Ġes":706,"eid":707,"Ġaps":708,"âĢĵ":709,"tÄĹs":710,"bi":711,"Ġnus":712,"form":713,"Ġe":714,"ĠsÄħ":715,"odÄĹl":716,"Ġpris":717,"),":718,"Ġvad":719,"Ġ19":720,"ug":721,"Ġarba":722,"aun":723,"Äįio":724,"Ġkiek":725,"Ġmetu":726,"Ġtoki":727,"Ġjo":728,"ĠÅ¡al":729,"Å«k":730,"Ġjis":731,"ytoj":732,"vi":733,"Ġdir":734,"Ġauk":735,"gan":736,"Ġsi":737,"Ġpasir":738,"Ġneb":739,"Tai":740,"Ġ\"":741,"ÄĹn":742,"uod":743,"ja":744,"Ġkalb":745,"oma":746,"ybos":747,"Ġskir":748,"erg":749,"Ġgam":750,"iausi":751,"Ġtarp":752,"avimo":753,"lg":754,"zd":755,"Ġsud":756,"tais":757,"Ġvyk":758,"tyv":759,"Å«ros":760,"umo":761,"ĠC":762,"aul":763,"aig":764,"ko":765,"Äįius":766,"alv":767,"esi":768,"ÄĹmis":769,"Ġbus":770,"anti":771,"Ġ4":772,"olog":773,"Ġpal":774,"Ġtiek":775,"Ġ5":776,"imai":777,"Ġ201":778,"ada":779,"Ġel":780,"ting":781,"ĠmaÅ¾":782,"ÄĹtÅ³":783,"Ġte":784,"lo":785,"ĠVil":786,"oms":787,"sti":788,"pi":789,"Ġmo":790,"inÄ¯":791,"Äįiai":792,"Ġtikr":793,"ĠiÅ¡s":794,"inius":795,"Ġek":796,"ĠtaÄįiau":797,"ĠprieÅ¡":798,"yl":799,"ĠnÄĹ":800,"elis":801,"uli":802,"az":803,"tÄ¯":804,"ono":805,"Ġant":806,"me":807,"acijos":808,"antis":809,"Ġdaugiau":810,"Ġauto":811,"Ġbal":812,"Ġnam":813,"imus":814,"uz":815,"ĠmÅ«sÅ³":816,"ome":817,"Ġgalima":818,"iej":819,"Ġkurie":820,"ka":821,"Ġrink":822,"auti":823,"cial":824,"uoja":825,"tem":826,"Ġneg":827,"ĠÄ¯si":828,"mog":829,"Ġtink":830,"Ġprog":831,"Ġjos":832,"vien":833,"Ġan":834,"ez":835,"Ġmies":836,"19":837,"Ġprad":838,"Äħj":839,"Ä®":840,"irÅ¡":841,"kr":842,"âĢľ.":843,"inÄĻ":844,"pa":845,"ĠpaÅ¾":846,"tel":847,"Ġra":848,"pl":849,"Ġproc":850,"vie":851,"Ġbendr":852,"Ġpam":853,"ganiz":854,"Ġbe":855,"dom":856,"Ġh":857,"Ġpask":858,"Ġsen":859,"Ġatv":860,"ums":861,"ĠÄ¯vai":862,"aÅ¾i":863,"Ġst":864,"Åłi":865,"entr":866,"ĠÄ¯r":867,"mas":868,"ĠU":869,"Ġsusi":870,"liau":871,"Âł":872,"liai":873,"Ġsut":874,"met":875,"ard":876,"it":877,"Ġkok":878,"aiÅ¡k":879,"Ġvid":880,"Ġdalyv":881,"Ġasmen":882,"ojek":883,"ius":884,"ymas":885,"cija":886,"ÄĹk":887,"ait":888,"ĠÅ¾mog":889,"aim":890,"amb":891,"kiÅ³":892,"yri":893,"Ġreikal":894,"klaus":895,"Pr":896,"ĠaukÅ¡":897,"ĠdaÅ¾":898,"Ġsak":899,"mok":900,"trauk":901,"abar":902,"ĠÅ¾em":903,"Ġinter":904,"Å«d":905,"inimo":906,".,":907,"osios":908,"ult":909,"Ġ6":910,"Ġjie":911,"Å«l":912,"Vis":913,"eb":914,"ĠF":915,"Ġvai":916,"imu":917,"Ġpus":918,"tov":919,"tinÄĹs":920,"Ġsvarb":921,"Ġvalst":922,"Ġorganiz":923,"Ġinform":924,"istem":925,"ans":926,"ĠnÄĹra":927,"Ġmat":928,"sta":929,"ĠVilni":930,"ĠEur":931,"ĠuÅ¾s":932,"rind":933,"uotoj":934,"ĠbÅ«d":935,"Ġmin":936,"ens":937,"akar":938,"Å³jÅ³":939,"ic":940,"ausiai":941,"Ġpan":942,"teri":943,"na":944,"Ġapl":945,"Ġilg":946,"Ġatsi":947,"Ġnar":948,"Ġpasl":949,"ig":950,"Ġpoli":951,"Å¾iÅ«r":952,"Ġsistem":953,"Ġtap":954,"Ġkuris":955,"ĠbÅ«tÅ³":956,"ac":957,"Ġjog":958,"Ġniek":959,"Ġtam":960,"ÄĹsi":961,"Ġkol":962,"Ġdirb":963,"ybÄĹ":964,"ĠH":965,"Ġcentr":966,"ĠmedÅ¾i":967,"Ġner":968,"Ġjei":969,"elio":970,"Ġlietuv":971,"ĠrÅ«":972,"uoÅ¡":973,"ĠÄ¯st":974,"Ġpati":975,"Ġreikia":976,"Ġry":977,"Ġal":978,"Ġsti":979,"umÄħ":980,"Pas":981,"Ġtuo":982,"Ġnaudoj":983,"Ġprojek":984,"oli":985,"Ġnu":986,"IÅ¡":987,"kur":988,"Ġspe":989,"ĠÅ½":990,"Ġmokykl":991,"Ġvadov":992,"ĠkÅ«r":993,"ia":994,"Ġis":995,"Ġgeri":996,"Ġspr":997,"int":998,"kiai":999,"Ġsm":1000,"ĠÄ¯v":1001,"Å¾in":1002,"eto":1003,"ijoje":1004,"ĠraÅ¡":1005,"ĠtodÄĹl":1006,"uol":1007,"Ġklaus":1008,"ran":1009,"teb":1010,"Ġpagal":1011,"ÄĹms":1012,"Ġmuz":1013,"Ġdarbo":1014,"Ġgrei":1015,"Ġvand":1016,"Ġgim":1017,"kÄħ":1018,"Ġveikl":1019,"rod":1020,"ijÄħ":1021,"acija":1022,"ĠmÄĹn":1023,"Ġprogr":1024,"per":1025,"ÄĹv":1026,"ĠaÅ¡":1027,"Ġrank":1028,"ĠO":1029,"anÄįiÅ³":1030,"oji":1031,"Ġpil":1032,"iÅ¡kai":1033,"ima":1034,"ĠÅ¡e":1035,"ĠkÄħ":1036,"umas":1037,"Ġati":1038,"eks":1039,"imui":1040,"Ġaug":1041,"ĠÄ¯vairi":1042,"yta":1043,"ybÄĻ":1044,"Ġpard":1045,"ib":1046,"Å¡kai":1047,"Ġstr":1048,"ail":1049,"kio":1050,"do":1051,"uje":1052,"ĠiÅ¡l":1053,"Ġgrup":1054,"ĠÄįia":1055,"Ġ8":1056,"Ġmoksl":1057,"ist":1058,"tum":1059,"Ġpasak":1060,"Ġji":1061,"Ġkiekvien":1062,"âĢĿ":1063,"esni":1064,"asar":1065,"kos":1066,"Ġsun":1067,"ĠEurop":1068,"ĠÄ¯g":1069,"ili":1070,"Ġform":1071,"Ġsaug":1072,"eidÅ¾i":1073,"nai":1074,"ieÅ¡":1075,"aj":1076,"atori":1077,"Ġpagrind":1078,"onas":1079,"amÄħ":1080,"bl":1081,"nyg":1082,"yt":1083,"Ġkoki":1084,"iniu":1085,"TaÄįiau":1086,"Ġlaiko":1087,"Ġatl":1088,"ÄĹja":1089,"Ġjuos":1090,"Ġgar":1091,"Ġpaslaug":1092,"no":1093,"Ġkal":1094,"Ġ200":1095,"Ġautomo":1096,"Ġmetais":1097,"Ġtech":1098,"Ġsveik":1099,"Ġpab":1100,"ĠLietuvoje":1101,"ate":1102,"Ġpui":1103,"Ġ7":1104,"lt":1105,"tina":1106,"elb":1107,"ems":1108,"Ġvyr":1109,"Ġnors":1110,"Ġdabar":1111,"Ġsl":1112,"Ġraj":1113,"okie":1114,"eigu":1115,"ingas":1116,"man":1117,"Ġtau":1118,"Ġvienas":1119,"vald":1120,"amÅ³":1121,"eil":1122,"ÄĹjimo":1123,"ĠÅ¾aid":1124,"ĠÄ¯mon":1125,"paÅ¾":1126,"ijÅ³":1127,"ingai":1128,"Ġvald":1129,"ĠdidÅ¾i":1130,"alÅ³":1131,"tud":1132,"Ġaplink":1133,"aliÅ³":1134,"ĠAn":1135,"tom":1136,"tak":1137,"ef":1138,"lius":1139,"adien":1140,"Ġkel":1141,"ĠiÅ¡v":1142,"Ġprof":1143,"Ġsprend":1144,"sm":1145,"ĠÅ¾in":1146,"Ġgra":1147,"Ġkurios":1148,"eÅ¾":1149,"Ġpor":1150,"unk":1151,"Ġreg":1152,"eisti":1153,"Ġstat":1154,"ĠjÄ¯":1155,"Ġim":1156,"Ġprek":1157,"201":1158,"Å¾io":1159,"avi":1160,"Ġad":1161,"Ġatlik":1162,"Ġkult":1163,"Ġpasaul":1164,"atv":1165,"ÄĮ":1166,"ines":1167,"Ġatsak":1168,"Ġdraug":1169,"Ġ10":1170,"sn":1171,"Jei":1172,"Ġtel":1173,"Ġpriemon":1174,"po":1175,"tor":1176,"ĠÅ¾moniÅ³":1177,"uÅ¾":1178,"ĠÅ¡il":1179,"Ġam":1180,"auki":1181,"Ġsavi":1182,"ĠvieÅ¡":1183,"avimas":1184,"art":1185,"amai":1186,"Ġri":1187,"ĠuÅ¾d":1188,"ektr":1189,"ird":1190,"ikos":1191,"Ġjaun":1192,"Ġtyr":1193,"tinis":1194,"ieki":1195,"Ġknyg":1196,"ymÄħ":1197,"Ġfil":1198,"onal":1199,"Ġspalv":1200,"Ġlyg":1201,"Ġtikrai":1202,"antys":1203,"Ġrez":1204,"oks":1205,"Ġmano":1206,"ĠdienÄħ":1207,"ausiÅ³":1208,"omas":1209,"Ġpras":1210,"âĢ¦":1211,"Ġduomen":1212,"eda":1213,"Taip":1214,"Ġplan":1215,"Ġdv":1216,"inga":1217,"ĠKaun":1218,"iu":1219,"Ġmes":1220,"Ġket":1221,"toje":1222,"net":1223,"Ġtvar":1224,"rik":1225,"tinÄĹ":1226,"tek":1227,"ĠpaÅ¡":1228,"ĠkartÄħ":1229,"ĠmedÅ¾iag":1230,"joje":1231,"ĠkitÅ³":1232,"ĠÄ¯s":1233,"Ġtiesi":1234,"uÅ¡":1235,"oduk":1236,"aliz":1237,"Ġpran":1238,"Ġned":1239,"Ġab":1240,"Lietuv":1241,"ins":1242,"Ġko":1243,"Ġistori":1244,"tikr":1245,"aliai":1246,"rav":1247,"Ġnuos":1248,"inas":1249,"ienÄĹ":1250,"zdÅ¾i":1251,"Ġleng":1252,"Ġapsaug":1253,"Ġstud":1254,"esti":1255,"ine":1256,"Ġsudar":1257,"Ġsum":1258,"re":1259,"tog":1260,"Ġkam":1261,"Ġskai":1262,"inimas":1263,"Ġkov":1264,"Ġlig":1265,"Ġtiesiog":1266,"Ġso":1267,"Ġtiksl":1268,"Ġrek":1269,"orto":1270,"Ġkomand":1271,"Ir":1272,"iÅ¡":1273,"Ġuni":1274,"ytas":1275,"ĠkaÅ¾":1276,"va":1277,"ÄĹse":1278,"Ġmen":1279,"Ġ9":1280,"inys":1281,"kri":1282,"Ġmoter":1283,"Ġnustat":1284,"alo":1285,"Ġ,":1286,"Ġpadar":1287,"tikos":1288,"Ġproduk":1289,"ÄĹjas":1290,"ingi":1291,"Âłm":1292,"At":1293,"Ġpapras":1294,"so":1295,"Ġsek":1296,"ovan":1297,"yp":1298,"auja":1299,"Ġdu":1300,"Ġkain":1301,"ÄĹjus":1302,"Ġgyd":1303,"Ġpasirink":1304,"ĠEuropos":1305,"Ġversl":1306,"Ġmetus":1307,"evi":1308,"Ġkv":1309,"ininkas":1310,"Å«ra":1311,"Ġpop":1312,"Ġkil":1313,"virtin":1314,"ĠpaÄįi":1315,"ĠjÅ«sÅ³":1316,"Ġmie":1317,"Ġtem":1318,"Ġmiesto":1319,"tojÅ³":1320,"ĠvienÄħ":1321,"Ġbuv":1322,"Ġkartu":1323,"tyje":1324,"site":1325,"tijos":1326,"oja":1327,"Ġ|":1328,"Ġ15":1329,"dÅ¾io":1330,"tiniÅ³":1331,"sni":1332,"Ġbl":1333,"pras":1334,"ĠMar":1335,"iev":1336,"Nor":1337,"ĠVilniaus":1338,"ato":1339,"eliÅ³":1340,"vil":1341,"elÄĹs":1342,"blem":1343,"Ġsug":1344,"Ġsavivald":1345,"Ġautomobi":1346,"Ġmod":1347,"Ġatvej":1348,"Ġreng":1349,"Ar":1350,"Ġsal":1351,"ÄĹjÅ³":1352,"iniais":1353,"Ġvakar":1354,"ÄĹÅ¾":1355,"irm":1356,"raf":1357,"Ġnen":1358,"cijÄħ":1359,"zi":1360,"ĠkuriÅ³":1361,"mÄĹs":1362,"Ġparod":1363,"Ġlais":1364,"Ġank":1365,"Ġvir":1366,"bu":1367,"ump":1368,"Ġvisi":1369,"Ġid":1370,"Ġbr":1371,"Ġch":1372,"Ġen":1373,"Ġfin":1374,"atos":1375,"acijÄħ":1376,"inÄĹje":1377,"ieji":1378,"Ġkomp":1379,"str":1380,"An":1381,"Ġproblem":1382,"ĠvirÅ¡":1383,"ybiÅ³":1384,"ĠÅ¾od":1385,"ininkÅ³":1386,"ĠAl":1387,"Ġnel":1388,"Ġbi":1389,"Ġsri":1390,"tau":1391,"engi":1392,"ublik":1393,"Ġkat":1394,"ektyv":1395,"Ġlik":1396,"jÄħ":1397,"ĀĀ":1398,"irk":1399,"tyn":1400,"Ġpristat":1401,"Ġta":1402,"Ġlauk":1403,"ati":1404,"Ġminis":1405,"stitu":1406,"ĠdÄĹm":1407,"uni":1408,"atÅ«r":1409,"ĠÅ¡eim":1410,"uok":1411,"Ġnum":1412,"esÄ¯":1413,"lyg":1414,"Ġelektr":1415,"cijÅ³":1416,"ultat":1417,"tra":1418,"Ġtechn":1419,"ÄħjÄħ":1420,"Ġod":1421,"yba":1422,"ĠÅ¾monÄĹs":1423,"Ġpastat":1424,"Ġnem":1425,"ytÅ³":1426,"entÅ³":1427,"ob":1428,"Ġdvi":1429,"Ġpriklaus":1430,"Ġpaj":1431,"ny":1432,"ausias":1433,"fik":1434,"tab":1435,"ano":1436,"eÄįi":1437,"inig":1438,"iausia":1439,"alio":1440,"eÅ¡im":1441,"kiri":1442,"ĠdÅ¾i":1443,"kait":1444,"Ġ18":1445,"aiÅ¡":1446,"Be":1447,"one":1448,"ku":1449,"Ġnori":1450,"Ġmais":1451,"ĠâĢľ":1452,"Ġatrod":1453,"Ġties":1454,"ĠiÅ¡g":1455,"iais":1456,"Ap":1457,"eikti":1458,"Ġ12":1459,"timo":1460,"Ġgalite":1461,"Po":1462,"Ġter":1463,"yriaus":1464,"ĠvÄĹ":1465,"Kai":1466,"enki":1467,"ios":1468,"Ġlie":1469,"esp":1470,"ieÅ¡k":1471,"Ġrezultat":1472,"Bet":1473,"Ġpapil":1474,"Ġvisuomen":1475,"ĠpradÅ¾i":1476,"Ġ20":1477,"Ġklas":1478,"ĠpasiÅ«l":1479,"Vien":1480,"kus":1481,"Ġpavad":1482,"ĠKl":1483,"uotas":1484,"ĠmÄĹg":1485,"aikÅ¡":1486,"Ġgalv":1487,"Kaip":1488,"¿½":1489,"eip":1490,"ï¿½":1491,"Ġmal":1492,"Ġnuol":1493,"ĠBal":1494,"ĠjÄħ":1495,"tiÅ¡k":1496,"ĠPr":1497,"torius":1498,"Ġviena":1499,"vel":1500,"amin":1501,"Ġlaim":1502,"Ġnur":1503,"Å«t":1504,"anÄįios":1505,"Ġspecial":1506,"Ġten":1507,"Ġsocial":1508,"elÄ¯":1509,"Ġpinig":1510,"Ġ/":1511,"Ġeksp":1512,"imi":1513,"Ġeur":1514,"ĠneÄ¯":1515,"kÅ³":1516,"Ġcm":1517,"Ġdi":1518,"usiÅ³":1519,"gal":1520,"ĠÅ¡Ä¯":1521,"paÄį":1522,"uota":1523,"Ġvaizd":1524,"Ġkuo":1525,"Ġrod":1526,"ininkai":1527,"Ġinternet":1528,"ww":1529,"atyv":1530,"Ġlank":1531,"alus":1532,"Ġjam":1533,"Ġdarbuotoj":1534,"Å¾iÅ³":1535,"elÄĹ":1536,"Ġind":1537,"jung":1538,"ĠmaÅ¾i":1539,"ĠvÄĹl":1540,"Ġvasar":1541,"Jis":1542,"aulio":1543,"Å«kst":1544,"Ġsant":1545,"ĠÄ¯reng":1546,"Ġsul":1547,"Ġkiti":1548,"Ġsur":1549,"etas":1550,"amen":1551,"ĠvalstybÄĹs":1552,"Ġatsis":1553,"ĠieÅ¡k":1554,"taik":1555,"ĠW":1556,"usios":1557,"andien":1558,"alia":1559,"ĠKr":1560,"min":1561,"ot":1562,"Ġdalis":1563,"Ġtarn":1564,"Ġgyvenimo":1565,"pat":1566,"Ġpirk":1567,"ĠtÄĹv":1568,"Tik":1569,"Ġdain":1570,"ygi":1571,"Ġuniver":1572,"Ġsukur":1573,"tui":1574,"Ġgerai":1575,"tys":1576,"omi":1577,"ĠÄ¯stat":1578,"Ġantr":1579,"le":1580,"Ġer":1581,"okum":1582,"AV":1583,"Ġjums":1584,"Ġmar":1585,"ĠvisÄħ":1586,"yzdÅ¾i":1587,"onÅ³":1588,"ausia":1589,"Ġpagalb":1590,"asis":1591,"esnis":1592,"Nuo":1593,"jer":1594,"ÄĹjimas":1595,"yko":1596,"Ġfinans":1597,"fer":1598,"abai":1599,"Ġatliek":1600,"Ġpareig":1601,"Ġpats":1602,"pos":1603,"Ġkri":1604,"Ġnurod":1605,"egz":1606,"Ġrajono":1607,"yvend":1608,"ÄĹjai":1609,"Ġenerg":1610,"ĠlietuviÅ³":1611,"ĠiÅ¡si":1612,"espublik":1613,"ĠsÄħlyg":1614,"Ġpatir":1615,"lap":1616,"Ġjoki":1617,"pas":1618,"Ġkor":1619,"adienÄ¯":1620,"minis":1621,"aipÄĹd":1622,"ĠiÅ¡k":1623,"Ġug":1624,"ÄĹjau":1625,"uoju":1626,"ĠtÅ«kst":1627,"atÅ³":1628,"Ġatstov":1629,"eidÅ¾ia":1630,"Daug":1631,"uliar":1632,"ĠkraÅ¡":1633,"Ġtaik":1634,"jek":1635,"Ġvietos":1636,"10":1637,"ĠX":1638,"ĠÅłv":1639,"ena":1640,"Ġsusid":1641,"Ġpasiek":1642,"ĠÅ¡ios":1643,"urn":1644,"Ġsieki":1645,"ĠvisÅ³":1646,"piu":1647,"angi":1648,"par":1649,"tuose":1650,"aÅ¾ny":1651,"of":1652,"ty":1653,"Ä¯Å¾":1654,"Ġdalyk":1655,"ied":1656,"ĠpraneÅ¡":1657,"Ne":1658,"Ġrei":1659,"tinai":1660,"umi":1661,"Ġ0":1662,"ĠvaikÅ³":1663,"Ġsutar":1664,"onom":1665,"mÄħ":1666,"Ġkonkur":1667,"ĠkurÄ¯":1668,"atas":1669,"Ġvisus":1670,"Ġband":1671,"Å¾as":1672,"Ġdokum":1673,"Ġtri":1674,"ĠtÄħ":1675,"ÄĹmÄĹ":1676,"ĠZ":1677,"res":1678,"intas":1679,"idÅ¾i":1680,"Ġapd":1681,"Ġskait":1682,"Ġder":1683,"ry":1684,"\",":1685,"Ġvais":1686,"Ġdis":1687,"Ġspeci":1688,"kil":1689,"UÅ¾":1690,"ĠdaÅ¾ni":1691,"etÄħ":1692,"Ġmas":1693,"Ġtek":1694,"Per":1695,"Ġras":1696,"ymÅ³":1697,"dyti":1698,"Ġmerg":1699,"inos":1700,"Pag":1701,"las":1702,"aci":1703,"ÂłâĢĵ":1704,"dar":1705,"Å¡Äįi":1706,"Ġob":1707,"inta":1708,"uotuv":1709,"Ġsteb":1710,"Å¾iai":1711,"ĠkultÅ«ros":1712,"ĠRus":1713,"rak":1714,"Ġsavait":1715,"etain":1716,"Ġkelion":1717,"eris":1718,"emon":1719,"Ġlabiau":1720,"Ġvandens":1721,"18":1722,"irb":1723,"ÄĹr":1724,"ĠÅ¡iÅ³":1725,"Lietuvos":1726,"ovÄĹs":1727,"Ġproces":1728,"ĠKauno":1729,"Ġkonc":1730,"ĠkÅ«n":1731,"eigi":1732,"ĠÅ«":1733,"Ġgamin":1734,"ÄĹjusi":1735,"sk":1736,"esio":1737,"200":1738,"erv":1739,"tal":1740,"ĠdaÅ¾nai":1741,"ĠsiÅ«l":1742,"Ġleid":1743,"tojai":1744,"ĠturÄĹtÅ³":1745,"ĠÄ¯sig":1746,"II":1747,"vaizd":1748,"ĠVal":1749,"Ġtapo":1750,"Ġ16":1751,"uojama":1752,"ton":1753,"ĠamÅ¾i":1754,"eiv":1755,"das":1756,"20":1757,"Ġpatog":1758,"ĠÅ¡io":1759,"entas":1760,"Ġpasirod":1761,"anÄįius":1762,"iniame":1763,"Ġtada":1764,"Ġaktyv":1765,"Ġtais":1766,"tojo":1767,"tinÄĻ":1768,"Su":1769,"Ġinstitu":1770,"Ġfo":1771,"eveik":1772,"iausiai":1773,"ĠypaÄį":1774,"eriÅ³":1775,"go":1776,"Gal":1777,"ykite":1778,"iet":1779,"Äįiu":1780,"dymo":1781,"ĠJÅ«sÅ³":1782,"Ġsusij":1783,"aiv":1784,"Ġmir":1785,"ezid":1786,"ĠsudÄĹ":1787,"ĠÄį":1788,"ieri":1789,"Ġlink":1790,"Ġpatik":1791,"Ġjeigu":1792,"dÄĹ":1793,"istr":1794,"Ġprak":1795,"Ġtad":1796,"antÄ¯":1797,"Ġtechnolog":1798,"pil":1799,"Ġvadin":1800,"inimÄħ":1801,"Ġnusi":1802,"Ġlap":1803,"ĠÅ¾ini":1804,"anas":1805,"Ġkurio":1806,"Ġkito":1807,"Ġmokytoj":1808,"Ġvanden":1809,"ĠÄ¯k":1810,"Ġpers":1811,"ĠÅ¾emÄĹs":1812,"Ġpasaulio":1813,"ĠSe":1814,"ĠvarÅ¾":1815,"amo":1816,"Ġlaisv":1817,"ĠuÅ¾tikr":1818,"Ġgatv":1819,"onÄħ":1820,"ÄĹp":1821,"est":1822,"cijas":1823,"lis":1824,"Ġtas":1825,"Ġnegali":1826,"ienos":1827,"ĠpraÅ¡":1828,"ÄħjÄ¯":1829,"Ġvisada":1830,"ĠIn":1831,"Ġtoliau":1832,"lÅ³":1833,"Ġsod":1834,"ambar":1835,"AS":1836,"omos":1837,"Ġpriim":1838,"yven":1839,"ĠÅ¾mogaus":1840,"dÅ¾iÅ³":1841,"Ġkap":1842,"ĠÅ¡ven":1843,"amp":1844,"Sv":1845,"rag":1846,"Ġprival":1847,"Ġnepri":1848,"ĠjÅ«s":1849,"eln":1850,"Ġet":1851,"Ġparduotuv":1852,"dami":1853,"imais":1854,"ymus":1855,"ĠuÅ¾sien":1856,"Ġbu":1857,"Ġklub":1858,"tinÄ¯":1859,"ana":1860,"ĠAr":1861,"ĠÄ¯staig":1862,"ukas":1863,"ĠpanaÅ¡":1864,"Ġkit":1865,"ĠÅ¾mogus":1866,"enka":1867,"Ġbendruomen":1868,"Ġklien":1869,"Ġtran":1870,"ytis":1871,"aur":1872,"Ġz":1873,"Ġjiems":1874,"Ġrug":1875,"Ġ14":1876,"angos":1877,"Ġadminis":1878,"Ġstraip":1879,"avimÄħ":1880,"Ġ30":1881,"Ġdienos":1882,"ĠsakÄĹ":1883,"Ġtoks":1884,"ĠlaikÄħ":1885,"intis":1886,"ĠuÅ¾si":1887,"bul":1888,"davo":1889,"damas":1890,"Ġskirting":1891,"ĠvÄĹliau":1892,"dv":1893,"Ġvertin":1894,"ĠRespublik":1895,"Ġvil":1896,"ukai":1897,"Ġspecialis":1898,"Ġtvark":1899,"Ġatveju":1900,"irink":1901,"enkl":1902,"Ġbank":1903,"DÄĹl":1904,"Ġ11":1905,"ystÄĹs":1906,"In":1907,"ĠÅ¡vie":1908,"ÄĹme":1909,"Ġdirek":1910,"ÄĹÅ¡":1911,"tÄĻ":1912,".)":1913,"Ġnebuvo":1914,"Ġteri":1915,"ims":1916,"Ġmokes":1917,"sich":1918,"ĠvisiÅ¡kai":1919,"Ġplauk":1920,"acional":1921,"rig":1922,"Man":1923,"ĠkitÄħ":1924,"Ġ100":1925,"yzdÅ¾iui":1926,"alis":1927,"Ġtrad":1928,"ĠÅ¡iuo":1929,"Jeigu":1930,"Å«ri":1931,"Ġ13":1932,"Ġnieko":1933,"irÅ¾":1934,"ÄĹkm":1935,"Å«p":1936,"Ġvaland":1937,"ĠKar":1938,"Ġ17":1939,"Ġsvetain":1940,"ĠÅ¡is":1941,"imis":1942,"Ġsupr":1943,"--":1944,"Ġkons":1945,"alas":1946,"ĠÄ¯gyvend":1947,"ĠÄ¯dom":1948,"iv":1949,"Ġvalstyb":1950,"eÅ¡imt":1951,"Å¡kia":1952,"Ġoro":1953,"vertin":1954,"ĠnamÅ³":1955,"Å«z":1956,"ĠÅ¡alies":1957,"AB":1958,"Ġbeveik":1959,"ingos":1960,"ond":1961,"Ġnug":1962,"ĠneiÅ¡":1963,"cen":1964,"Ġmums":1965,"atai":1966,"Ġkambar":1967,"Ġnuolat":1968,"tika":1969,"Ġsitu":1970,"alai":1971,"ukÅ¡":1972,"ĠKlaipÄĹd":1973,"ÄĹjimÄħ":1974,"Ġpok":1975,"Ġfunk":1976,"Pirm":1977,"kius":1978,"Ġsusitik":1979,"Sp":1980,"ilie":1981,"Ġnuotrauk":1982,"Ġitin":1983,"iniams":1984,"tink":1985,"ĠvietÄħ":1986,"engti":1987,"Ġtransp":1988,"liu":1989,"Ġskl":1990,"Ġanks":1991,"ingÄħ":1992,"50":1993,"Ġteig":1994,"ĠJAV":1995,"Ġnegal":1996,"Ġ:":1997,"ĠsavivaldybÄĹs":1998,"etr":1999,"Ġtelef":2000,"tol":2001,"Ġ[":2002,"Ġneat":2003,"ĠDiev":2004,"Ġtarptau":2005,"Ġ199":2006,"ukr":2007,"he":2008,"omend":2009,"12":2010,"tn":2011,"mÅ³":2012,"Ġsub":2013,"Ġef":2014,"eliai":2015,"ĠÅ¡vent":2016,"Ġviskas":2017,"Ġjud":2018,"Ġfak":2019,"Ġtrump":2020,"aukÅ¡":2021,"Ġsako":2022,"dien":2023,"Ġmuzik":2024,"Ġvarto":2025,"Ġjaus":2026,"ĠÄ¯raÅ¡":2027,"eÅ¡k":2028,"Kar":2029,"esnÄĹ":2030,"Ġstipr":2031,"Ġmus":2032,"Ġekonom":2033,"ĠÄĮ":2034,"Ġpateik":2035,"Ġnek":2036,"Ġveiksm":2037,"Nors":2038,"ĠmaÅ¾iau":2039,"Ġpabaig":2040,"ÄĹte":2041,"uko":2042,"ĠteisÄĹs":2043,"Å¡kio":2044,"ĠmiÅ¡k":2045,"Ġpram":2046,"Ġteigi":2047,"ybes":2048,"Ġinv":2049,"TodÄĹl":2050,"Äįios":2051,"Ġpral":2052,"ĠÅ¡vies":2053,"Ġbaig":2054,"Ġpali":2055,"Ġveiklos":2056,"alios":2057,"Ġem":2058,"Ġkuriame":2059,"uosius":2060,"Kad":2061,"ĠÅ¾enkl":2062,"Ġperd":2063,"Ġypat":2064,"Ġvisai":2065,"Ġsuv":2066,"isi":2067,"ma":2068,"Ġverslo":2069,"Ġlengv":2070,"Ġkitos":2071,"Ġsim":2072,"Ġkvie":2073,"anÄįio":2074,"Ġregi":2075,"epÅ¡":2076,"Ġnak":2077,"Ġgen":2078,"tinio":2079,"Ġteritori":2080,"Ġarch":2081,"Ġapsaugos":2082,"Ġplo":2083,"Vil":2084,"Ġrad":2085,"Ġkontr":2086,"ĠneÅ¡":2087,"ten":2088,"Ġpuikiai":2089,"ĠÂ":2090,"ĠÄ¯sp":2091,"Ġtol":2092,"30":2093,"anga":2094,"gr":2095,"ĠbÅ«t":2096,"Ġkep":2097,"ĠÅ¾iÅ«r":2098,"Ġsez":2099,"pri":2100,"Ġpatar":2101,"ĠsumaÅ¾":2102,"auskas":2103,"ĠÅ¡iÄħ":2104,"ĠkuriÄħ":2105,"bil":2106,"ausio":2107,"Ġâ":2108,"Ġpapildom":2109,"Ġkalba":2110,"ĠGr":2111,"AÅ¡":2112,"ijas":2113,"empi":2114,"Ġprasid":2115,"ĠturÄĹjo":2116,"Ġpasaulyje":2117,"Ġeil":2118,"edi":2119,"ÄĹliÅ³":2120,"Ġkuriuos":2121,"ĠÅłiau":2122,"tÄĹje":2123,"gn":2124,"Ġpatvirtin":2125,"Ġatrodo":2126,"Ġspor":2127,"Ġprofes":2128,"Ġblog":2129,"ĠryÅ¡":2130,"lai":2131,"Ġobjek":2132,"etai":2133,"ĠprieÅ¾as":2134,"\".":2135,"din":2136,"ata":2137,"Ġpsich":2138,"ĠbaÅ¾ny":2139,"Ġpopuliar":2140,"Ġang":2141,"Kiek":2142,"audÅ¾i":2143,"Å«nas":2144,"Ġpatal":2145,"prend":2146,"ĠaiÅ¡k":2147,"acijÅ³":2148,"Ġdur":2149,"tomis":2150,"Ġpos":2151,"Ġmeil":2152,"Ġpasid":2153,"Ġskiri":2154,"Ġinformacijos":2155,"Ġmalon":2156,"ĠPal":2157,"Gr":2158,"Ġmokyklos":2159,"ĠiÅ¡r":2160,"Ġkompiu":2161,"Ġsveikatos":2162,"ĠiÅ¡d":2163,"aukia":2164,"ĠÅ¡eÅ¡":2165,"Ġmaisto":2166,"Ġlygi":2167,"Ġaud":2168,"Äħs":2169,"ne":2170,"uma":2171,"okÅ¡":2172,"aras":2173,"Ki":2174,"Ġlang":2175,"Ġsto":2176,"Ġgi":2177,"ĠkaÅ¾k":2178,"Ġerdv":2179,"Labai":2180,"Tuo":2181,"uosi":2182,"ÄĻsti":2183,"ĠnatÅ«r":2184,"ĠdÅ¾iaug":2185,"Ġpalaik":2186,"ĠÅ¡iandien":2187,"Ġoper":2188,"mÄĹ":2189,"ĠsuÅ¾":2190,"Ġartim":2191,"Ġkurioje":2192,"Ġministeri":2193,"IN":2194,"15":2195,"ros":2196,"Ġpasik":2197,"ovÄĹ":2198,"atÄħ":2199,"Ġegz":2200,"iniuose":2201,"ĠÄ¯vairiÅ³":2202,"ijo":2203,"inkite":2204,"ĠÄ¯vertin":2205,"laus":2206,"Ġde":2207,"Ġveid":2208,"ĠRespublikos":2209,"Ġkm":2210,"ĠbÅ«s":2211,"Ġrib":2212,"Ġml":2213,"Ġvietoje":2214,"ĠtokiÅ³":2215,"und":2216,"ĠkrepÅ¡":2217,"ĠaikÅ¡":2218,"Ġag":2219,"ingÅ³":2220,"Ġvaikams":2221,"Ġatei":2222,"tri":2223,"ÄĹlÄĹ":2224,"utÄĹs":2225,"tiniai":2226,"Ġvisas":2227,"Ġrung":2228,"Ġnemok":2229,"uÄįiÅ³":2230,"Ġstov":2231,"ymai":2232,"pj":2233,"naz":2234,"inant":2235,"Ġsistema":2236,"Ġvos":2237,"erio":2238,"arg":2239,"aup":2240,"inai":2241,"Ġof":2242,"Ġsanty":2243,"Toki":2244,"ÄĹta":2245,"Ġpamat":2246,"ĠÅ¡ird":2247,"ieÄįiÅ³":2248,"uojamas":2249,"ĠpradÄĹjo":2250,"ĠbÅ«du":2251,"Ġsukn":2252,"000":2253,"ÄĹtis":2254,"Ġdovan":2255,"ytos":2256,"ĠtaÅ¡k":2257,"bol":2258,"Ġpre":2259,"ĠdarbÄħ":2260,"arp":2261,"tÅ«r":2262,"Ġnetur":2263,"ausiÄħ":2264,"ĠÐ":2265,"Å«rÄĹ":2266,"Ġmeto":2267,"Ġkalbos":2268,"Ġfiz":2269,"cÅ«z":2270,"antas":2271,"eÄįiÅ³":2272,"Ġmuzikos":2273,"inÅ³":2274,"Mes":2275,"Å¾ym":2276,"ieka":2277,"Ġdek":2278,"ĠduomenÅ³":2279,"Ġvard":2280,"Ġteat":2281,"Äįiaus":2282,"Jie":2283,"ingo":2284,"Ġ25":2285,"anda":2286,"Ġgauti":2287,"Å«nÅ³":2288,"ĠjÄĹg":2289,"toriaus":2290,"Ġmon":2291,"tinink":2292,"oc":2293,"Ġkrauj":2294,"cm":2295,"Ġlyd":2296,"Å¾vel":2297,"ks":2298,"ĠamÅ¾iaus":2299,"ĠÅ¾ino":2300,"radarb":2301,"Åłis":2302,"Ġgreitai":2303,"ers":2304,"Ġvisiems":2305,"Ġtren":2306,"oÅ¾":2307,"ĀĀĀĀ":2308,"ĠAm":2309,"ĠÄįempi":2310,"ĠreikÅ¡":2311,"Ġvys":2312,"Ġved":2313,"audoj":2314,"Ġcentro":2315,"ento":2316,"Taigi":2317,"Ġatskir":2318,"Ġlaikotar":2319,"ininko":2320,"ĠgalÄĹtÅ³":2321,"ymu":2322,"Ġneturi":2323,"ĠvaldÅ¾i":2324,"Ġsave":2325,"bÅ«t":2326,"Ġbent":2327,"Ġmieste":2328,"ĠÅ¾i":2329,"sit":2330,"Ġpasis":2331,"uoda":2332,"ÄĹjÄĻs":2333,"Ġdet":2334,"Ġci":2335,"Ġgeriau":2336,"ech":2337,".âĢľ":2338,"Ġnaudoti":2339,"Ġsistemos":2340,"yno":2341,"vark":2342,"tograf":2343,"ĠÅ¡eimos":2344,"Ġpatys":2345,"Ĥ¬":2346,"ytÄĹ":2347,"ĠVilniuje":2348,"Ġkaina":2349,"siu":2350,"ydis":2351,"inÄĹti":2352,"umu":2353,"ĠsÄĹkm":2354,"erni":2355,"Ġsau":2356,"Ġkan":2357,"lob":2358,"Å¾ius":2359,"entai":2360,"Dar":2361,"ĠviskÄħ":2362,"la":2363,"izain":2364,"ĠgrupÄĹs":2365,"ĠES":2366,"mos":2367,"Ġaptar":2368,"Ġgydytoj":2369,"timas":2370,"Ġpaskelb":2371,"ĠVokie":2372,"Ġpadid":2373,"eviÄįius":2374,"Ġapskri":2375,"aidos":2376,"unig":2377,"ukus":2378,"11":2379,"Ġgel":2380,"Ġnamuose":2381,"ĠrÅ«p":2382,"ĠdaÅ¾niausiai":2383,"Ġsiek":2384,"Ġnuomon":2385,"Pav":2386,"ari":2387,"aro":2388,"ga":2389,"Ġatn":2390,"struk":2391,"ÄĮia":2392,"anÄįiÄħ":2393,"nos":2394,"ĠNr":2395,"Ġvisa":2396,"ijai":2397,"Ġsuteik":2398,"âĢĻ":2399,"Ġpaskir":2400,"oniÅ³":2401,"Ġdy":2402,"ĠpadÄĹti":2403,"uojant":2404,"Ġkei":2405,"ĠpripaÅ¾":2406,"ĠgrÄ¯Å¾":2407,"mat":2408,"ici":2409,"ÄĹsite":2410,"Ġnumat":2411,"lÄĹ":2412,"ĠsÄħraÅ¡":2413,"ĠrÅ«Å¡":2414,"Ġskat":2415,"Ġkoncer":2416,"ĠpaslaugÅ³":2417,"ĠparaÅ¡":2418,"Ġtokia":2419,"ĠÄ¯monÄĹs":2420,"Ġvaikai":2421,"Ġspalvos":2422,"Ġkomis":2423,"ĠÅ¡aliÅ³":2424,"ĠPas":2425,"Ji":2426,"onai":2427,"ĠeurÅ³":2428,"Ġvair":2429,"ĠgyvenimÄħ":2430,"sÄĹjo":2431,"Ġprezid":2432,"AI":2433,"anki":2434,"esnÄĹs":2435,"ĠÅ¾ais":2436,"umos":2437,"Ġplat":2438,"ĠbÅ«na":2439,"ĠÄ¯vyk":2440,"nas":2441,"Ġtu":2442,"Ġbendradarb":2443,"Ġatlikti":2444,"etÅ³":2445,"rÄĹ":2446,"ĠiÅ¡mok":2447,"veik":2448,"Ġsporto":2449,"Ġrekomend":2450,"oz":2451,"ĠvaÅ¾i":2452,"ovas":2453,"Ġatk":2454,"ĠÄ¯tak":2455,"amus":2456,"Ġvidur":2457,"ĠÅ¾ym":2458,"Mok":2459,"Ġministr":2460,"Ġkasdien":2461,"Ġvisos":2462,"Ġkompl":2463,"Ġlaip":2464,"Ġ...":2465,"Ġmiest":2466,"Ġsta":2467,"ip":2468,"ĠkeliÅ³":2469,"iblio":2470,"Ġparti":2471,"Ġkartais":2472,"ĠLenki":2473,"tiÅ¡kai":2474,"ĠkokybÄĹs":2475,"avos":2476,"imin":2477,"ĠSÄħj":2478,"Ġ50":2479,"inka":2480,"ĠuÅ¾sak":2481,"bus":2482,"Ġpenk":2483,"Ġprofesi":2484,"Ġtuomet":2485,"ĠprieÅ¾i":2486,"niÅ³":2487,"Ġjas":2488,"Ġpadaryti":2489,"Ġdizain":2490,"Ġkokyb":2491,"ĠplÄĹ":2492,"sis":2493,"Ġkitas":2494,"uotÅ³":2495,"aliu":2496,"ĠÅ¾urn":2497,"yse":2498,"viejÅ³":2499,"urg":2500,"ĠgyventojÅ³":2501,"Ġtobul":2502,"otas":2503,"aisiais":2504,"tadienÄ¯":2505,"Ġrasti":2506,"ĠautomobiliÅ³":2507,"ĠÄ¯t":2508,"uotos":2509,"Par":2510,"Ġapg":2511,"ĠkÅ«ryb":2512,"ietÅ³":2513,"ĠtreÄįi":2514,"Ġviso":2515,"eguÅ¾":2516,"Ġreikalav":2517,"anijos":2518,"ybÅ³":2519,"tume":2520,"ĠkodÄĹl":2521,"emok":2522,"Ġkada":2523,"intÅ³":2524,"tinÄĹje":2525,"Ġil":2526,"Ġav":2527,"Ġmane":2528,"ĠÅ«kio":2529,"Ġtie":2530,"Ġvyksta":2531,"Ġ.":2532,"Ġpriklauso":2533,"Ð°":2534,"Ġsvarbu":2535,"rÄĹs":2536,"Ġbals":2537,"ĠdarÅ¾":2538,"Ġsaul":2539,"ĠÅ¡im":2540,"ec":2541,"ograf":2542,"Ġmuziej":2543,"__":2544,"www":2545,"Ġnorm":2546,"Ġatvyk":2547,"Ġpov":2548,"Pat":2549,"tinka":2550,"iui":2551,"ĠmÄĹnesÄ¯":2552,"Ġpasteb":2553,"dÅ¾iai":2554,"olÄĹs":2555,"Ġkitus":2556,"ĠâĢĶ":2557,"Ġdaik":2558,"Ġelektron":2559,"Nes":2560,"Ġvaid":2561,"Ġvyko":2562,"timi":2563,"Sk":2564,"Ġefektyv":2565,"Ġup":2566,"Ġkreip":2567,"Ġtiks":2568,"Ġkos":2569,"Ġtvir":2570,"Ġvieta":2571,"tiko":2572,"gio":2573,"Ġadministra":2574,"ĠinformacijÄħ":2575,"tojas":2576,"Äħst":2577,"Ġrud":2578,"Ġ2018":2579,"17":2580,"Ð¾":2581,"emi":2582,"Ġatvir":2583,"16":2584,"Ġtampa":2585,"Ġketvir":2586,"Ġpai":2587,"Ġ#":2588,"ÄħÅ¾":2589,"ĠÅ½em":2590,"Nauj":2591,"Ġvieno":2592,"ĠdienÅ³":2593,"ovo":2594,"iniam":2595,"Ġelg":2596,"ĠkultÅ«r":2597,"Ġprogram":2598,"klausom":2599,"ĠÅ«k":2600,"ĠJums":2601,"Å«nai":2602,"ĠgalimybÄĻ":2603,"Ġdeg":2604,"Ġtinkl":2605,"Å¡kiÅ³":2606,"giau":2607,"ĠbirÅ¾":2608,"eiti":2609,"Ġdaryti":2610,"ĠkrÅ«":2611,"uto":2612,"Ġtechni":2613,"Ġpadeda":2614,"ĠdÄĹmesÄ¯":2615,"idu":2616,"Ġinf":2617,"40":2618,"tumÄĹte":2619,"esniÅ³":2620,"Ġpuiki":2621,"Ġgars":2622,"ĠÅ¡iek":2623,"Ġnuv":2624,"Ġsup":2625,"ojimo":2626,"Ġspaud":2627,"Ġkoj":2628,"ako":2629,"ika":2630,"ĠRusijos":2631,"Ġprin":2632,"ĠreiÅ¡kia":2633,"Ġlaikas":2634,"Ġveikia":2635,"antiems":2636,"Ġmokslo":2637,"Ġtinka":2638,"onu":2639,"Dabar":2640,"ĠPar":2641,"yla":2642,"Ġtris":2643,"ĠpaÅ¾ym":2644,"usius":2645,"Ġbiblio":2646,"toriÅ³":2647,"ĠCh":2648,"Ġtal":2649,"feren":2650,"Ġlin":2651,"ieno":2652,"ĠbÅ«kl":2653,"egori":2654,"ĠanksÄįiau":2655,"ĠpirmÄħ":2656,"Äĸ":2657,"ĠiÅ¡skir":2658,"Ġini":2659,"iki":2660,"Ġprim":2661,"Ġpriek":2662,"Ġpartn":2663,"eiÅ¡k":2664,"Ġjai":2665,"ĠPran":2666,"Ġdalyvavo":2667,"ĠleidÅ¾ia":2668,"anÅ³":2669,"Ġnepas":2670,"Kas":2671,"inama":2672,"nio":2673,"Kiekvien":2674,"ĠTr":2675,"eviz":2676,"Ġnacional":2677,"elyje":2678,"IS":2679,"aki":2680,"avau":2681,"ĠuÅ¾sienio":2682,"ieg":2683,"af":2684,"MÅ«sÅ³":2685,"Ġgimnaz":2686,"ĠgraÅ¾i":2687,"ĠbÅ«tent":2688,"Ġkaim":2689,"lÄĹs":2690,"ĠdarbÅ³":2691,"Ġbes":2692,"ĠÅ¾iem":2693,"Ġdraud":2694,"ĠnemaÅ¾":2695,"ĠvisuomenÄĹs":2696,"Pasak":2697,"ĠÅ¡ak":2698,"ĠKal":2699,"Ġtransporto":2700,"Ġdirbti":2701,"liz":2702,"iÅ¡kas":2703,"Ġskyri":2704,"ber":2705,"entus":2706,"Ġpakei":2707,"Ġasmens":2708,"Ġperk":2709,"inÄĹmis":2710,"Ġkartus":2711,"andÅ¾io":2712,"Ġsudaro":2713,"pÅ³":2714,"ausios":2715,"andar":2716,"tams":2717,"oro":2718,"okÄ¯":2719,"Ġskamb":2720,"Ä¯st":2721,"Ġuniversit":2722,"Ġnepr":2723,"ĠiÅ¡b":2724,"alÄħ":2725,"ars":2726,"bo":2727,"usio":2728,"inamas":2729,"ÄĹkite":2730,"AT":2731,"pus":2732,"ulk":2733,"ord":2734,"imti":2735,"vaig":2736,"siai":2737,"tinas":2738,"ĠSÄħjung":2739,"ĠapraÅ¡":2740,"antÅ³":2741,"ĠLietuva":2742,"elÄĻ":2743,"ÄĹdami":2744,"vz":2745,"niai":2746,"PrieÅ¡":2747,"Ġlenk":2748,"Ġsavai":2749,"ĠÄ¯vair":2750,"Ġodos":2751,"ĠsÄħjung":2752,"ikal":2753,"ĠdviejÅ³":2754,"Ġskr":2755,"ĠpinigÅ³":2756,"ach":2757,"ĠSeimo":2758,"eguÅ¾ÄĹs":2759,"Ġstik":2760,"Ġatsir":2761,"ĠtrÅ«k":2762,"Ġseni":2763,"Ġlabiausiai":2764,"ĠTau":2765,"Ġstipri":2766,"inam":2767,"Ġnaudo":2768,"Ġuos":2769,"ĠlÄĹÅ¡":2770,"ukÅ³":2771,"Yra":2772,"ieb":2773,"ynas":2774,"ĠnaujÄħ":2775,"ĠÅ¾v":2776,"ĠgraÅ¾":2777,"Ġkunig":2778,"ingumo":2779,"muo":2780,"OS":2781,"kriÄįio":2782,"ĠveiklÄħ":2783,"okai":2784,"ĠKon":2785,"Ġkelias":2786,"Ġporeiki":2787,"Ġpakank":2788,"neto":2789,"....":2790,"199":2791,"tuo":2792,"14":2793,"Ġvalg":2794,"Ġtemper":2795,"ĠkÅ«no":2796,"Ġapdovan":2797,"rai":2798,"kv":2799,"su":2800,"daug":2801,"umÅ³":2802,"rÅ³":2803,"Ġinformacija":2804,"ĠreÅ¾":2805,"Vilni":2806,"ĠdeÅ¡imt":2807,"Ġkod":2808,"70":2809,"ĠKlaipÄĹdos":2810,"Ġcentras":2811,"Ġgana":2812,"ald":2813,"inÄĹj":2814,"Ġprojekto":2815,"Ġrungtyn":2816,"Ġvartoj":2817,"Ġpaskol":2818,"avÄĻs":2819,"Ġ24":2820,"Jau":2821,"AR":2822,"eliu":2823,"esnÄ¯":2824,"ort":2825,"ravimo":2826,"Ġapib":2827,"Ġeksper":2828,"atorius":2829,"mai":2830,"enos":2831,"Ġfesti":2832,"snio":2833,"ĠÄįempion":2834,"ern":2835,"Ġkt":2836,"Ġnesu":2837,"oci":2838,"ĠpavirÅ¡":2839,"Ġmyl":2840,"ytau":2841,"agr":2842,"Äįiais":2843,"Ġfotograf":2844,"Ġdra":2845,"Ġprekybos":2846,"vo":2847,"Ġdiena":2848,"Ġmeno":2849,"itek":2850,"Ġlengvai":2851,"ĠÄ¯pras":2852,"Ġres":2853,"alius":2854,"inar":2855,"lamen":2856,"ologijos":2857,"Ġpuslap":2858,"rÄĹÅ¾":2859,"ĠnebÅ«":2860,"inÄĹse":2861,"Å¾iÅ«rÄĹti":2862,"ÄĹtas":2863,"ĠpaaiÅ¡k":2864,"Ġkovo":2865,"Ðµ":2866,"Ġkab":2867,"liaus":2868,"13":2869,"Ġgaus":2870,"Ġkaro":2871,"iesi":2872,"atÅ«ros":2873,"Ġmln":2874,"ĠUAB":2875,"Ġteiki":2876,"Ġpalik":2877,"mÄĻ":2878,"Ġautomobil":2879,"ĠiÅ¡laik":2880,"irg":2881,"Ġapsi":2882,"Å¾er":2883,"ĠÅ¡alia":2884,"vaigÅ¾":2885,"Tr":2886,"Ġmetod":2887,"Ġatsirad":2888,"ãĤ":2889,"ĠSk":2890,"Ġdail":2891,"Ġatitink":2892,"utÄĹ":2893,"ĠÄ¯d":2894,"Ġkita":2895,"Ġjuo":2896,"Ġsien":2897,"Ġtaisykl":2898,"Ġkonkurs":2899,"Ġskyriaus":2900,"Ġsiun":2901,"ĠkraÅ¡to":2902,"ĠturÄĹti":2903,"Ġgaun":2904,"ĠPan":2905,"uojami":2906,"Ġtos":2907,"Ġnedid":2908,"Ġatr":2909,"ĠsavaitÄĻ":2910,"Apie":2911,"jai":2912,"Ġrekl":2913,"elius":2914,"Ġbald":2915,"Ġdom":2916,"Ġpozi":2917,"Ġbendradarbi":2918,"ĠdalÄ¯":2919,"Ġelem":2920,"ytÄħ":2921,"endr":2922,"Ġ2017":2923,"Å½in":2924,"Ġsurink":2925,"ÄĹlÄĹs":2926,"apras":2927,"ĠnaujÅ³":2928,"Ġindiv":2929,"Ġteks":2930,"ĠjokiÅ³":2931,"aiki":2932,"aks":2933,"Ġskelb":2934,"Pl":2935,"Ġdarbus":2936,"Ġliter":2937,"Ġpavoj":2938,"kaiÄįi":2939,"eta":2940,"onÄĹs":2941,"Ġser":2942,"Åłiuo":2943,"ados":2944,"Ġkryp":2945,"ĠSp":2946,"Ġ40":2947,"ĠÅ¾monÄĹms":2948,"Ġpaslaugas":2949,"com":2950,"erijos":2951,"Ġmil":2952,"ho":2953,"Ġabej":2954,"ÄĹlis":2955,"Ġsunku":2956,"ymui":2957,"ĠÅ¾uv":2958,"uotis":2959,"Ġbat":2960,"Jo":2961,"Ġlaid":2962,"valg":2963,"Ġkredi":2964,"Ġsuteikia":2965,"Ġjuod":2966,"audon":2967,"Ġsaus":2968,"Ġsupras":2969,"Ġ22":2970,"ĠÅ¡ok":2971,"Kon":2972,"ĠÄ¯vy":2973,"Ġkonkr":2974,"cijoje":2975,"ES":2976,"ĠkiekvienÄħ":2977,"elti":2978,"Ġpolitik":2979,"oliu":2980,"Bal":2981,"Å¡kas":2982,"Ġkiekvienas":2983,"sak":2984,"Nep":2985,"ce":2986,"Ġnuk":2987,"Ġadres":2988,"Ġligon":2989,"ÄĹjos":2990,"ĠpriemoniÅ³":2991,"ĠLietuvÄħ":2992,"ÄĹli":2993,"Ġremon":2994,"ĠâĤ¬":2995,"ron":2996,"manoma":2997,"Ġkomandos":2998,"inami":2999,"Ġnamo":3000,"ieÄįiai":3001,"isk":3002,"Ġskaus":3003,"ote":3004,"Ġleis":3005,"ĠÅ¡iol":3006,"ĠNauj":3007,"Net":3008,"siteto":3009,"ĠtÅ³":3010,"Ġgalime":3011,"ĠÂ»":3012,"Ġglob":3013,"ĠprekiÅ³":3014,"ĠsÄħs":3015,"Ġsr":3016,"Ġpasku":3017,"urb":3018,"ÄįiÅ«":3019,"ï¿½ï¿½":3020,"Ġteleviz":3021,"Ġvert":3022,"ĠmedÅ¾iagÅ³":3023,"los":3024,"rio":3025,"utbol":3026,"Ġsukurti":3027,"Ġketuri":3028,"kaityti":3029,"Ġvaldymo":3030,"sniÅ³":3031,"esnio":3032,"ĠÅ¡iaur":3033,"Ġvairuotoj":3034,"ĠskaiÄįius":3035,"Ġrom":3036,"ĠpaÅ¡al":3037,"tan":3038,"Ġpastar":3039,"cien":3040,"Ġilgis":3041,"auÅ¾":3042,"ĠruoÅ¡":3043,"da":3044,"lÄħ":3045,"Å¡kiai":3046,"aigi":3047,"ĠLi":3048,"EN":3049,"nÅ³":3050,"nis":3051,"25":3052,"ÄĹjome":3053,"ĠprieÅ¾iÅ«ros":3054,"ĠpaieÅ¡k":3055,"eno":3056,"Ġnereik":3057,"anta":3058,"Ġvyri":3059,"iemet":3060,"Ġpi":3061,"Ġatsp":3062,"Ġilgai":3063,"ĠÄ®":3064,"Ġprinci":3065,"menÅ³":3066,"stat":3067,"ĠiÅ¡n":3068,"Ġtikslas":3069,"Ġsos":3070,"Ð¸":3071,"Ġdang":3072,"ĠsÄĹd":3073,"Ġatnauj":3074,"ĠÅ¾inias":3075,"Kl":3076,"Ġkomanda":3077,"Ġai":3078,"Ġscen":3079,"Ġtokio":3080,"ĠbÅ«tina":3081,"Ġ+":3082,"âĢĺ":3083,"Ġpritaik":3084,"uodÅ¾io":3085,"giai":3086,"eido":3087,"Ġkitaip":3088,"edag":3089,"Ġtruk":3090,"Tur":3091,"Ġkoks":3092,"anÄįias":3093,"uolaik":3094,"Ġkrik":3095,"Å¡ti":3096,"ĠAmeri":3097,"Ġtokios":3098,"ĠDidÅ¾i":3099,"iams":3100,"Ġtokie":3101,"uojame":3102,"ĠsusipaÅ¾":3103,"Ġatidar":3104,"ĠmaÅ¡":3105,"inÄħ":3106,"Ġskirtas":3107,"Ġsie":3108,"ete":3109,"tumo":3110,"Ġkop":3111,"ĠmedÅ¾iagos":3112,"ĠAnd":3113,"ungi":3114,"eina":3115,"Ġ2016":3116,"Ġ23":3117,");":3118,"Ġskirti":3119,"Ġnepat":3120,"snis":3121,"Ġsve":3122,"Ġpamok":3123,"alu":3124,"Ġprid":3125,"ĠpavyzdÅ¾iui":3126,"pjÅ«":3127,"Ġveikla":3128,"Ġsulauk":3129,"ps":3130,"Ġenergijos":3131,"Ġvadovas":3132,"Ġriz":3133,"erius":3134,"Äįiui":3135,"Ġetap":3136,"ĠuÅ¾k":3137,"Ġviz":3138,"ĠreikÄĹtÅ³":3139,"Ġmetai":3140,"tojams":3141,"Ġistorijos":3142,"Ġarchitek":3143,"Ġrus":3144,"Ġkurias":3145,"Visi":3146,"oriÅ³":3147,"ĠsudÄĹting":3148,"Ġkarto":3149,"iÅ¡ka":3150,"Ġniekada":3151,"ĠrugsÄĹjo":3152,"inei":3153,"km":3154,"ininkÄĹ":3155,"Ġirgi":3156,"AM":3157,"ÄĹjÄĻ":3158,"enÅ³":3159,"Ġlaiku":3160,"Å¡ka":3161,"aÄįi":3162,"Ġkitais":3163,"Ġkelis":3164,"ieÅ¾":3165,"ĠkeletÄħ":3166,"ilij":3167,"Ġneap":3168,"Ġmedic":3169,"ER":3170,"Ġsusik":3171,"Ġtak":3172,"mens":3173,"Al":3174,"Ġpateiki":3175,"Ġdarbas":3176,"asite":3177,"ven":3178,"Ġgyventi":3179,"Ġkaimo":3180,"adem":3181,"ĠÅ¡ie":3182,"Ġfutbol":3183,"ybÄħ":3184,"ĠsiÅ«":3185,"Ġprogramos":3186,"Tad":3187,"Ġsusirink":3188,"Ġvykd":3189,"ĠkarÅ¡":3190,"Ties":3191,"Ġaplinkos":3192,"Ġinterneto":3193,"ĠÄ¯sigyti":3194,"ĠÅ¾yd":3195,"Ġop":3196,"audoti":3197,"AL":3198,"Ġpatr":3199,"ĠgrupÄĹ":3200,"ĠparuoÅ¡":3201,"Ġrim":3202,"auÅ¡":3203,"ĠÅ¾vaigÅ¾":3204,"nyr":3205,"eriai":3206,"olis":3207,"Ġnaujas":3208,"sias":3209,"ĠPl":3210,"Ġseks":3211,"inus":3212,"Ġkadangi":3213,"Ġmik":3214,"ex":3215,"ĠtÄĹ":3216,"Ġformos":3217,"mus":3218,"Ġteigia":3219,"Pra":3220,"Ġmoteris":3221,"Ġkainos":3222,"Ġsvarbi":3223,"Ġpavasar":3224,"ĠAt":3225,"Ġkelio":3226,"aliÄħ":3227,"erb":3228,"Kr":3229,"AN":3230,"Ġuniversiteto":3231,"ase":3232,"Ġinici":3233,"60":3234,"Ġmel":3235,"ausk":3236,"ĠEl":3237,"Ġturime":3238,"ĠÄ¯sik":3239,"Ġpaveik":3240,"ĠneÅ¾in":3241,"Jos":3242,"Ġw":3243,"Ġdep":3244,"Ġniekas":3245,"Ġprisim":3246,"Ġkonferen":3247,"Ġgau":3248,"alÄĹ":3249,"onis":3250,"Ġsand":3251,"ijung":3252,"Ġnetik":3253,"ĠVytau":3254,"Ġpacien":3255,"Ġgyn":3256,"traukti":3257,"tadien":3258,"Ġkeis":3259,"Ġindividu":3260,"eral":3261,"kaitÄĹ":3262,"Ġnev":3263,"22":3264,"ĠVis":3265,"ÄĹlyn":3266,"rib":3267,"arÅ³":3268,"DaÅ¾":3269,"Ġpardav":3270,"Ġtarsi":3271,"Ġpagalbos":3272,"Kom":3273,"uomet":3274,"Ġpaslaugos":3275,"krain":3276,"Å«no":3277,"Ġdalyvauti":3278,"Ġnusprend":3279,"Ġproced":3280,"ĠdÄĹmesio":3281,"Ġskirta":3282,"ĠÅ¾mones":3283,"ĠTar":3284,"ĠteisÄĻ":3285,"Ġkurs":3286,"Ġkli":3287,"elig":3288,"dama":3289,"Ġreguli":3290,"Ġkoleg":3291,"Ġkategori":3292,"kup":3293,"Ġpaprastai":3294,"Ġslap":3295,"okite":3296,"alog":3297,"baig":3298,"ru":3299,"ĠÄ¯rod":3300,"ly":3301,"Ġatg":3302,"Ġkari":3303,"ĠeÅ¾er":3304,"Ġkompiuteri":3305,"telÄĹs":3306,"ĠÅ¾inoma":3307,"ĠpaÅ¾eid":3308,"ĠdÄĹs":3309,"Ġesu":3310,"Ġ21":3311,"ck":3312,"Ġprem":3313,"Ġvaiko":3314,"ĠKaune":3315,".).":3316,"zmo":3317,"uog":3318,"ĠÄ¯spÅ«d":3319,"ĠgeguÅ¾ÄĹs":3320,"ĠgÄĹr":3321,"Ġpateikti":3322,"Ġklaid":3323,"ĠbÄĹg":3324,"Ġcentre":3325,"Ġspalio":3326,"Ġ,,":3327,"Ġsrityje":3328,"Ġregistr":3329,"Ġnetr":3330,"ĠproduktÅ³":3331,"Ġdrabu":3332,"Ġdarbai":3333,"Ġjuk":3334,"Ġkie":3335,"Ġgarb":3336,"ienÄĹs":3337,"aitin":3338,"Ġrankov":3339,"usÄ¯":3340,"Ġturnyr":3341,"Ġapyl":3342,"Ġbaz":3343,"ĠpasiraÅ¡":3344,"ĠpradÄĹti":3345,"ĠnariÅ³":3346,"ou":3347,"ytojÅ³":3348,"Ġvirtuv":3349,"Ġbyl":3350,"Juk":3351,"efek":3352,"yrÄĹ":3353,"istÅ³":3354,"ĠbirÅ¾elio":3355,"ojoje":3356,"udÅ¾":3357,"ĠpradÅ¾ioje":3358,"Ġprisid":3359,"teliÅ³":3360,"Ġistorija":3361,"Ġnusikal":3362,"racijos":3363,"Ġpavel":3364,"Åª":3365,"tine":3366,"enti":3367,"ynÄĹs":3368,"ĠvieÅ¡bu":3369,"ĠskaiÄįi":3370,"Ġpatek":3371,"intys":3372,"tines":3373,"eja":3374,"Ġint":3375,"gÅ¡":3376,"Ġvienos":3377,"Ġvari":3378,"Ġtradi":3379,"Ġapr":3380,"aitÄĹ":3381,"teris":3382,"Ġgro":3383,"ĠdÄĹÅ¾":3384,"inu":3385,"ĠgalÄĹjo":3386,"ĠtokÄ¯":3387,"Ġide":3388,"ke":3389,"Ġnereikia":3390,"ĠÄ¯sitik":3391,"ĠlÄĹk":3392,"Ġvyks":3393,"Ġ198":3394,"ateg":3395,"rigin":3396,"Ġinternetu":3397,"lus":3398,"kÅ¡":3399,"Ġvienu":3400,"Ġsugeb":3401,"Ġatsid":3402,"tÅ«ros":3403,"ĠÄ¯moniÅ³":3404,"Ġdirba":3405,"Ġkino":3406,"ite":3407,"Ġrodo":3408,"Ġmilij":3409,"Ġveiki":3410,"Ġpik":3411,"ĠveÅ¾":3412,"aisv":3413,"tumas":3414,"Ġtapti":3415,"ĠdarbuotojÅ³":3416,"pareig":3417,"artamen":3418,"eles":3419,"Ġanaliz":3420,"ogr":3421,"Ġdvar":3422,"rus":3423,"Ġgyvena":3424,"jÄ¯":3425,"ĠaukÅ¡Äįi":3426,"Ġstruk":3427,"UR":3428,"Ġaplank":3429,"Ġnarys":3430,"Ġpasiekti":3431,"akal":3432,"ilp":3433,"Val":3434,"Ġsausio":3435,"ĠDievo":3436,"Ġ194":3437,"ĠdÄĹ":3438,"ytojas":3439,"Ġdienomis":3440,"Ġsutik":3441,"Ġasoci":3442,"uro":3443,"Ġaliej":3444,"ele":3445,"uot":3446,"Ġvarik":3447,"entar":3448,"Ġgri":3449,"ÑĤ":3450,"Ġdalies":3451,"pirk":3452,"ĠiÅ¡or":3453,"ve":3454,"iejÅ³":3455,"intos":3456,"Ġkokia":3457,"Ġliepos":3458,"dav":3459,"Ġpatikr":3460,"Äįiame":3461,"inkÅ¡":3462,"Åłiandien":3463,"ĠÅ¡un":3464,"Ġkonf":3465,"ijus":3466,"ĠlapkriÄįio":3467,"Ġmag":3468,"Ġkuriuo":3469,"ĠÅ¾al":3470,"aros":3471,"kiu":3472,"liais":3473,"ÄĹnÅ³":3474,"ĠÅ¡ioje":3475,"ausius":3476,"//":3477,"cijai":3478,"ĠVar":3479,"ojimas":3480,"Ġlaiv":3481,"ĠPanev":3482,"ĠÅ¾ing":3483,"sime":3484,"timÄħ":3485,"Ġstab":3486,"elia":3487,"Ġnetgi":3488,"ĠmaÅ¾ai":3489,"vies":3490,"Pard":3491,"Ġsugr":3492,"ĠlaiÅ¡k":3493,"Ġpie":3494,"Å¡i":3495,"ara":3496,"Ġtokiu":3497,"pjÅ«Äįio":3498,"Ġatskl":3499,"Ġfor":3500,"**":3501,"Ġrengi":3502,"Ġduomenis":3503,"Ġ28":3504,"ĠVilk":3505,"inÄįiÅ³":3506,"Ġistor":3507,"amojo":3508,"Ġpeln":3509,"ĠlietuviÅ¡k":3510,"Ġugdymo":3511,"kal":3512,"ybe":3513,"24":3514,"Ġalb":3515,"ĠpriemonÄĹs":3516,"Vaik":3517,"monÄĹs":3518,"Ġram":3519,"Ġeis":3520,"Ġlaikotarp":3521,"Ġnamus":3522,"Äįiams":3523,"atÅ«ra":3524,"Gali":3525,"Ġteko":3526,"Ġpakankamai":3527,"Ġgyvenime":3528,"orius":3529,"jas":3530,"Ġnorite":3531,"encijos":3532,"Ġgab":3533,"ĠiÅ¡band":3534,"Ġdidelis":3535,"Ġprat":3536,"ons":3537,"Ġpoil":3538,"ĠtiesÅ³":3539,"Ġlem":3540,"Ġpasitik":3541,"Kaun":3542,"eji":3543,"umus":3544,"Ġministerijos":3545,"Ġtradic":3546,"ĠapÅ¡":3547,"iausias":3548,"ĠsiÅ«lo":3549,"Ġatsakom":3550,"ĠdÄĹlto":3551,"ÄĹÄįiau":3552,"ĠiÅ¡lik":3553,"Ġkompan":3554,"Ġtarybos":3555,"ĠvietÅ³":3556,"Ġnariai":3557,"Ġmm":3558,"ĠpaÄįiu":3559,"ĠBri":3560,"Ġkamp":3561,"Ġkvap":3562,"Ġduo":3563,"ĠdydÅ¾io":3564,"elbi":3565,"telÄĹ":3566,"US":3567,"Ġsem":3568,"ojau":3569,"ĠteigÄĹ":3570,"okiÅ³":3571,"ĠBaltijos":3572,"ĠVilnius":3573,"Ġjus":3574,"Ġelektros":3575,"ydamas":3576,"Ġpasakyti":3577,"Ġstog":3578,"echan":3579,"Ġsunki":3580,"ĠproblemÅ³":3581,"tuoti":3582,"Ġgeb":3583,"Ġdvas":3584,"Ġatsisak":3585,"Ġrelig":3586,"Ġsluok":3587,"Ġ26":3588,"Ġteik":3589,"Ġpagalba":3590,"ĠpadÄĹs":3591,"Ġgink":3592,"Pri":3593,"ĠÅłil":3594,"Ġpsicholog":3595,"tuvas":3596,"Ġtavo":3597,"Kadangi":3598,"ĠLatv":3599,"Ġ60":3600,"ĠPrancÅ«z":3601,"ydami":3602,"Ġvaikus":3603,"ukÄħ":3604,"ĠsistemÄħ":3605,"Ġskol":3606,"ĠbiudÅ¾":3607,"arst":3608,"Ġvokie":3609,"ĠgalÄĹs":3610,"Ġnuostat":3611,"Ġgera":3612,"Ġpabaigoje":3613,"vers":3614,"Ġmieg":3615,"Ġekran":3616,"Ġpoky":3617,"tovai":3618,"Ġjung":3619,"ow":3620,"Ġpakeisti":3621,"pozi":3622,"ulis":3623,"ĠÅ¡vietimo":3624,"Ġprograma":3625,"kreip":3626,"Ġiniciatyv":3627,"ĠnemaÅ¾ai":3628,"ĠmoterÅ³":3629,"ĠatsiÅ¾vel":3630,"rijos":3631,"ĠbalandÅ¾io":3632,"uodamas":3633,"Ġakadem":3634,"Ġpolicijos":3635,"anto":3636,"Ġsuaug":3637,"ota":3638,"Ger":3639,"Ġnutar":3640,"Ġnup":3641,"noz":3642,"odo":3643,"Ġpasin":3644,"Ġpj":3645,"angÅ³":3646,"Ġ2015":3647,"Ġtrauk":3648,"Ġkitiems":3649,"IM":3650,"ĠMaÅ¾":3651,"ÄĹlio":3652,"ĠneuÅ¾":3653,"ĠbÅ«das":3654,"ĠplokÅ¡":3655,"ĠÅ¡alyje":3656,"Ġnepriklausom":3657,"Ð½":3658,"umai":3659,"eo":3660,"arbu":3661,"Si":3662,"pal":3663,"ĠiÅ¡m":3664,"ĠklasÄĹs":3665,"co":3666,"Ġrieb":3667,"utÄ¯":3668,"ilank":3669,"ĠSÄħjungos":3670,"ÑĢ":3671,"Ġrajone":3672,"Ġvaizdo":3673,"ĠÅ¡iuolaik":3674,"ĠleidÅ¾i":3675,"Ġatos":3676,"Ġsuprasti":3677,"Ġturite":3678,"vad":3679,"23":3680,"dy":3681,"Ġgav":3682,"Ġpagamin":3683,"ĠsÄħskai":3684,"ĠmÄĹnesi":3685,"tt":3686,"Ġalko":3687,"ay":3688,"Ġ27":3689,"Ġsvaj":3690,"ĠgruodÅ¾io":3691,"Ġknygos":3692,"ĠbendruomenÄĹs":3693,"Ġnegu":3694,"bÅ«":3695,"yklos":3696,"ĠLenkijos":3697,"Ġatlyg":3698,"Ġkuria":3699,"tro":3700,"Ġtrup":3701,"Ġtuos":3702,"uria":3703,"Ġtrenir":3704,"Ġspar":3705,"Ġrenk":3706,"ĠMas":3707,"ĠÅ¾ied":3708,"Ġ>":3709,"Ġapylink":3710,"Ġankst":3711,"ĠkartÅ³":3712,"usiÄħ":3713,"Ġpagalv":3714,"onus":3715,"ĠÅ¡ilumos":3716,"Ġgamtos":3717,"Ġvidaus":3718,"Tiesa":3719,"Ġstrateg":3720,"inyje":3721,"estuv":3722,"âĢĿ,":3723,"imams":3724,"ĠpareiÅ¡k":3725,"Ġplas":3726,"Äįiausiai":3727,"Ġatostog":3728,"tinius":3729,"Ġvers":3730,"ĠVakar":3731,"ĠkÅ«d":3732,"Ġinvesti":3733,"Ġatm":3734,"omÅ³":3735,"atoriÅ³":3736,"edagog":3737,"MaÅ¾":3738,"Ġdienas":3739,"jo":3740,"Ġsiekiant":3741,"Ġkariuomen":3742,"ĠPet":3743,"Ġkomplek":3744,"ĠasmenÅ³":3745,"Ġjaunimo":3746,"ÄĹz":3747,"vok":3748,"ita":3749,"uoz":3750,"alifik":3751,"ĠVyriaus":3752,"enas":3753,"ĠKaz":3754,"Mat":3755,"ĠgreiÄįiau":3756,"Vienas":3757,"Ġgamybos":3758,"Ñģ":3759,"Ġimp":3760,"aliau":3761,"Å¾ia":3762,"Ġpasirinkti":3763,"ĠÄ¯statymo":3764,"ÄĹÅ¾io":3765,"ÄĹliau":3766,"PavyzdÅ¾iui":3767,"ĠmÄĹnes":3768,"esnÄĻ":3769,"uojamos":3770,"Na":3771,"eti":3772,"----":3773,"ĠpasaulÄ¯":3774,"Ġnuotaik":3775,"aviÅ¡kio":3776,"Ġnebus":3777,"Ġpatiek":3778,"ĠrÄĹm":3779,"Ġgird":3780,"Ġtipo":3781,"ĠsuknelÄĹs":3782,"ava":3783,"Ġatstovai":3784,"ĠiÅ¡Å¡":3785,"ĠprekÄĹs":3786,"Ġrasite":3787,"Mano":3788,"Ġaktu":3789,"ÄĹjÄħ":3790,"Ġvaikas":3791,"atoriai":3792,"usiems":3793,"Ġsep":3794,"Ġpel":3795,"raÅ¾":3796,"Ġnepak":3797,"Ġ:)":3798,"raz":3799,"ÄĹjams":3800,"Ġsutrik":3801,"erk":3802,"Ġbar":3803,"ĠâĢ¢":3804,"ĠiÅ¡pl":3805,"ykÅ¡":3806,"ĠpajÄĹg":3807,"Ġkurti":3808,"ĠgalimybÄĹ":3809,"vis":3810,"Pagrind":3811,"Ġses":3812,"Ġmokykloje":3813,"Pro":3814,"ĠmaÅ¾daug":3815,"engÄĹ":3816,"Ġ2014":3817,"ĠgalbÅ«t":3818,"Ġkonstruk":3819,"rÄħ":3820,"Å¡iÅ³":3821,"ani":3822,"ĠÅ¾ali":3823,"liui":3824,"omo":3825,"nek":3826,"Ġgyventojai":3827,"tinos":3828,"ÄĹt":3829,"Tarp":3830,"esys":3831,"Ġautomobilio":3832,"ĠsÅ«n":3833,"truk":3834,"kart":3835,"ektak":3836,"Ġpaslap":3837,"alÄĹs":3838,"toti":3839,"rasti":3840,"ĠII":3841,"Ġpast":3842,"Ġnaujo":3843,"ĠValst":3844,"Ġspaus":3845,"Ġprisi":3846,"ÄĹdamas":3847,"ystÄĹ":3848,"uotÄħ":3849,"pres":3850,"amÄĹs":3851,"Å½inoma":3852,"ĠpasiÅ¾ym":3853,"Prie":3854,"nÄħ":3855,"Ġgl":3856,"ĀĀĀĀĀĀĀĀ":3857,"ĠY":3858,"osof":3859,"ĠÅ¡iame":3860,"lar":3861,"ĠÅłiauliÅ³":3862,"Ġkuriose":3863,"ĠJon":3864,"tolog":3865,"Ġpilie":3866,"imuose":3867,"ytojai":3868,"ado":3869,"âĢĿ.":3870,"Ġkuriems":3871,"80":3872,"ĠmaiÅ¡":3873,"Ġdydis":3874,"oris":3875,"oko":3876,"Ġbibliote":3877,"uoÅ¾":3878,"teis":3879,"Ġstandar":3880,"ĠjauÄįi":3881,"ĠVid":3882,"ĠÄ¯kur":3883,"acijas":3884,"Ġtermin":3885,"Ġdalyje":3886,"Pan":3887,"Ġkarjer":3888,"dÅ¾ius":3889,"Eur":3890,"entÄħ":3891,"ba":3892,"onio":3893,"tros":3894,"Ġred":3895,"ĠuÅ¾pil":3896,"Ġesame":3897,"ĠgeleÅ¾":3898,"ĠjÅ«r":3899,"Ġcukr":3900,"Ġnauja":3901,"nÄĹs":3902,"Å¾em":3903,"ĠLR":3904,"snÄ¯":3905,"andid":3906,"Pagal":3907,"Ġmer":3908,"eniai":3909,"Ġklausimus":3910,"arbo":3911,"Ġgyvenimas":3912,"Ġtrys":3913,"ĠtyrimÅ³":3914,"els":3915,"ĠAd":3916,"toran":3917,"Ġpager":3918,"Ġsov":3919,"ãĤ¢":3920,"tino":3921,"Ġpramog":3922,"://":3923,"ĠÅ¾ai":3924,"Ġdepartamen":3925,"ĠgalÄĹsite":3926,"aidinÄĹs":3927,"Ġpriimti":3928,"Ġorigin":3929,"Pal":3930,"Ġpergal":3931,"Ġ%":3932,"tras":3933,"ĠjÅ«ros":3934,"Ġ29":3935,"oras":3936,"Ġtvarka":3937,"inasi":3938,"ybai":3939,"Ak":3940,"ĠprojektÄħ":3941,"eki":3942,"Ġstatybos":3943,"Ġpaveiksl":3944,"Ġsusitar":3945,"ytÄĹs":3946,"ave":3947,"Ġsiekia":3948,"ĠÄ¯sikÅ«r":3949,"ininkams":3950,"Ġmatyti":3951,"ÄĹliai":3952,"Ġlent":3953,"Ġinteres":3954,"Ġrag":3955,"ĠstudijÅ³":3956,"Ver":3957,"Ġgalvos":3958,"Ġrinktis":3959,"toriai":3960,"Ġspind":3961,"ĠpaÄįios":3962,"fo":3963,"pti":3964,"amÅ³jÅ³":3965,"ĠuÅ¾tikrinti":3966,"ĠÅ¡iuos":3967,"ĠÄ¯var":3968,"aitis":3969,"Ġvadovauj":3970,"Ġtema":3971,"Ġsiau":3972,"pÄħ":3973,"ĠreikalÅ³":3974,"yÅ¾i":3975,"Ġmaitin":3976,"menys":3977,"ĠseniÅ«n":3978,"Ġpartijos":3979,"DidÅ¾i":3980,"ĠmedÅ¾iaga":3981,"Ġegzist":3982,"Å¡kos":3983,"amu":3984,"ĠmÄĹs":3985,"Ġker":3986,"ĠIÅ¡":3987,"tul":3988,"tingi":3989,"Ġmokykla":3990,"Ġsaugumo":3991,"Ġpatrauk":3992,"Ġvasario":3993,"EL":3994,"Ġnustatyti":3995,"ĠdeÅ¡":3996,"land":3997,"ĠiÅ¡vyk":3998,"Ġmor":3999,"Ġtv":4000,"ragÄĹs":4001,"ãĤ¢ãĤ¢":4002,"ĠNor":4003,"Ġol":4004,"ĠteisiÅ³":4005,"Ġmiestas":4006,"Ġtikri":4007,"Ġturto":4008,"ĠpusÄĻ":4009,"ĠprogramÄħ":4010,"Ġgin":4011,"Ġsuvok":4012,"Ġmechan":4013,"Ġlog":4014,"Ġvyras":4015,"ual":4016,"ĠkelionÄĹs":4017,"olo":4018,"Ġdefek":4019,"ĠiÅ¡saug":4020,"tam":4021,"Ġakim":4022,"Ġapmok":4023,"Ġnepav":4024,"Ġpasig":4025,"26":4026,"Ġpraei":4027,"Ġkaimyn":4028,"Ġatid":4029,"Ġprofesion":4030,"Ġsunk":4031,"Iki":4032,"ĠUkrain":4033,"ĠdeÅ¡im":4034,"Ġx":4035,"Ġchem":4036,"Ġnaujos":4037,"Ġgerokai":4038,"Ġinvest":4039,"Å¾ud":4040,"Ġmotyv":4041,"Tada":4042,"Ġpedagog":4043,"Ġdaro":4044,"ale":4045,"ĠkalbÄĹjo":4046,"ĠdrÄĹg":4047,"Ġlaukia":4048,"Ġlaikais":4049,"erc":4050,"Ġgalimybes":4051,"Ġtrans":4052,"inimui":4053,"Ġliko":4054,"Ġduomenys":4055,"toja":4056,"ĠuÅ¾m":4057,"ĠUÅ¾":4058,"atu":4059,"ejÅ³":4060,"Ġkolek":4061,"aina":4062,"2018":4063,"eiviÅ³":4064,"lu":4065,"iesiems":4066,"Mo":4067,"Ġaki":4068,"Ġkolektyv":4069,"Ġfon":4070,"ĠJung":4071,"ĠVokieti":4072,"ĠkeliÄħ":4073,"ĠlitÅ³":4074,"ĠpieÅ¡":4075,"ymosi":4076,"ĠÄ¯Å¾":4077,"tame":4078,"Å¾iu":4079,"Ġklausimas":4080,"Ġvasaros":4081,"iÅ¡kÄħ":4082,"ĠkrikÅ¡Äįi":4083,"ier":4084,"194":4085,"Ġprojektas":4086,"Ilg":4087,"Ġpalyg":4088,"Ġdirektorius":4089,"ĠmÄĹgst":4090,"Å¾iÅ«ri":4091,"Ġvidut":4092,"enc":4093,"imok":4094,"Ġpradeda":4095,"ĠEuropoje":4096,"anÄįiu":4097,"Pui":4098,"ene":4099,"ÄĹlÄ¯":4100,"Ġaptarn":4101,"ET":4102,"ĠÄ¯ranga":4103,"umui":4104,"Ġautobus":4105,"Ġapsis":4106,"ĠminÄĹ":4107,"ĠÅ¡alyse":4108,"eliui":4109,"Ġsusis":4110,"Ġbilie":4111,"ona":4112,"ĠistorijÄħ":4113,"ĠÅ¡iemet":4114,"anÄįiais":4115,"Ġskry":4116,"Ġmi":4117,"ĠmiÅ¡":4118,"ĠAng":4119,"ĠneÅ¾":4120,"Å¡kÄħ":4121,"21":4122,"Ġpunk":4123,"cep":4124,"iÅ¡kos":4125,"ĠÅ¾iniÅ³":4126,"ON":4127,"Ġakis":4128,"ĠÅ¡l":4129,"ijamp":4130,"ĠtrijÅ³":4131,"Ä¯s":4132,"mu":4133,"Å«g":4134,"Ġwww":4135,"ĠuÅ¾dar":4136,"ĠturÄĹs":4137,"ĠrugpjÅ«Äįio":4138,"ĠVokietijos":4139,"Var":4140,"ĠkainÄħ":4141,"ravo":4142,"ĠAp":4143,"mi":4144,"Ġtenka":4145,"Buvo":4146,"eistas":4147,"ĠpusÄĹs":4148,"eten":4149,"Ġkak":4150,"uotÄĹs":4151,"ĠpaÄįiÅ³":4152,"veÅ¾":4153,"Ġinte":4154,"ĠJo":4155,"ĠgrieÅ¾":4156,"Ġpasirinkimas":4157,"Ġpraded":4158,"nes":4159,"Ġkamer":4160,"Ġpaklaus":4161,"alyv":4162,"ĠÄ¯sak":4163,"Ġdauguma":4164,"ovÅ³":4165,"atus":4166,"Ġpersp":4167,"Ġtvirtin":4168,"âĢ¢":4169,"Ġpagr":4170,"Ġrau":4171,"Pasi":4172,"ias":4173,"for":4174,"ingus":4175,"Med":4176,"iname":4177,"Ġprivalo":4178,"oviÅ³":4179,"adas":4180,"cion":4181,"ensyv":4182,"Ġbro":4183,"ĠrÅ«gÅ¡":4184,"inÄĹms":4185,"Ð¾Ð":4186,"avimui":4187,"ajame":4188,"ĠpuoÅ¡":4189,"âĢ¦]":4190,"Ġprisijung":4191,"Ġatvejais":4192,"di":4193,"Ġtarpu":4194,"Ġma":4195,"ĠiÅ¡laid":4196,"utÄĻ":4197,"timÅ³":4198,"Ġunik":4199,"Åłios":4200,"egistr":4201,"Ġrak":4202,"Ġtautos":4203,"Ġkandid":4204,"Ġkuriuose":4205,"Ġgrind":4206,"Ġprar":4207,"gar":4208,"Ġgavo":4209,"meÄįio":4210,"ĠÅ¡eima":4211,"Vilniaus":4212,"Ġge":4213,"ĠmokiniÅ³":4214,"27":4215,"ĠieÅ¡koti":4216,"ĠÄ¯vyko":4217,"28":4218,"ĠbÅ«klÄĹs":4219,"Ġkvalifik":4220,"==":4221,"ĠbendrovÄĹs":4222,"Ġsprendimas":4223,"riÅ³":4224,"alaus":4225,"Ġskelbi":4226,"Ġpaties":4227,"ierius":4228,"tipr":4229,"ĠiÅ¡sil":4230,"ĠLt":4231,"ĠKin":4232,"Ġme":4233,"noj":4234,"utes":4235,"uodami":4236,"ĠminuÄįiÅ³":4237,"usias":4238,"ykla":4239,"ĠpasiruoÅ¡":4240,"uom":4241,"ĠMo":4242,"yrus":4243,"Ġtarnybos":4244,"ĠmokesÄįiÅ³":4245,"ĠJus":4246,"de":4247,"emokr":4248,"yboje":4249,"Ġsilp":4250,"Ġpamatyti":4251,"Ġpokalb":4252,"ĠAk":4253,"ÄĹtai":4254,"Ġvestuv":4255,"tabi":4256,"Ġknyga":4257,"ved":4258,"Ġtikras":4259,"bin":4260,"Ġskub":4261,"Pak":4262,"ĠpirÅ¡":4263,"VI":4264,"yps":4265,"ĠmÄħst":4266,"ĠJuoz":4267,"ĠdalykÅ³":4268,"tojus":4269,"Daugiau":4270,"Ant":4271,"Ġstudij":4272,"ĠÅ¾mogui":4273,"Ġpatenk":4274,"Ġakc":4275,"Mar":4276,"torÄĹ":4277,"Ġstengi":4278,"tukas":4279,"ĠknygÅ³":4280,"kia":4281,"Ġsavan":4282,"kurs":4283,"ĠItal":4284,"Ġtari":4285,"ĠatÅ¡":4286,"Ġprofesional":4287,"uojasi":4288,"Ġsuteiki":4289,"ĠtokiÄħ":4290,"ĠmeilÄĹs":4291,"ĠreÅ¾is":4292,"ĠSt":4293,"tok":4294,"ĠvaldÅ¾ios":4295,"Ġmokymo":4296,"ĠnuoÅ¡":4297,"avimai":4298,"Ġdvira":4299,"Ġesant":4300,"Ġpinigus":4301,"Ġatspar":4302,"Ġproga":4303,"Ġnuostab":4304,"Ġdiskus":4305,"ĠgalimybÄĹs":4306,"giu":4307,"Ġvietas":4308,"Ġjame":4309,"Ġsn":4310,"uoliÅ³":4311,"ÅłÄ¯":4312,"Ġsusir":4313,"ulp":4314,"Ġapsilank":4315,"tiz":4316,"Kol":4317,"iÅ³sti":4318,"Ġpirma":4319,"ovin":4320,"ĠpaukÅ¡":4321,"Å²":4322,"tion":4323,"29":4324,"ybÄĹje":4325,"kar":4326,"omÄħ":4327,"Ġpriva":4328,"VÄĹliau":4329,"imos":4330,"ĠkaÅ¾kÄħ":4331,"tikÄħ":4332,"Ġmeis":4333,"Ġlauko":4334,"ĠsÄĹkmingai":4335,"iÄħ":4336,"eliais":4337,"Ġgeras":4338,"Ġled":4339,"Ġpoveik":4340,"Ġliud":4341,"Ġbrand":4342,"iest":4343,"Ġprab":4344,"ĠpradÅ¾iÅ³":4345,"giant":4346,"ĠspalvÅ³":4347,"Ġteatro":4348,"Ġfilosof":4349,"ÄĹra":4350,"ĠplaukÅ³":4351,"Ġsvarbus":4352,"ĠskirtingÅ³":4353,"ĠÅ¡irdies":4354,"Ġfutbolo":4355,"Ġ000":4356,"Ġ197":4357,"Ġkul":4358,"Did":4359,"ĠTel":4360,"ynÄĹ":4361,"ĠNe":4362,"Ġdraudimo":4363,"Ġdaugelis":4364,"Ġkokios":4365,"Ġlygio":4366,"ĠsÄħlygas":4367,"pag":4368,"ĠiÅ¡p":4369,"augo":4370,"ĠpasirodÄĹ":4371,"Ġrestoran":4372,"Ġkraujo":4373,"Ġorgan":4374,"Ġnaudojamas":4375,"kaitos":4376,"Ġmokiniai":4377,"Ġraudon":4378,"yst":4379,"To":4380,"ĠsprendimÄħ":4381,"ĠRad":4382,"Ġpoilsi":4383,"Ġtarpus":4384,"jus":4385,"ausiu":4386,"apon":4387,"Ġinternete":4388,"tacijos":4389,"Ġnaujien":4390,"Ġapim":4391,"austi":4392,"Ġkasmet":4393,"gub":4394,"ĠtechnologijÅ³":4395,"Ġpersi":4396,"avus":4397,"Ġok":4398,"Ġredak":4399,"ĠminkÅ¡":4400,"Ġstalo":4401,"Kur":4402,"ĠÅ¡alis":4403,"inimu":4404,"ĠkrepÅ¡inio":4405,"enÄħ":4406,"Ġneteis":4407,"Ġpadal":4408,"Ġmikro":4409,"Ġnepam":4410,"liams":4411,"Ġrinkos":4412,"aÅ¾o":4413,"OR":4414,"tosios":4415,"Ġproblema":4416,"Ġthe":4417,"ĠsaulÄĹs":4418,"Ġsumok":4419,"ĠÅ¡var":4420,"KÄħ":4421,"kis":4422,"ĠpatÄ¯":4423,"Ġspektak":4424,"Ġkir":4425,"Ġnul":4426,"ĠvasarÄħ":4427,"br":4428,"Ġpvz":4429,"ÄįiÄħ":4430,"odami":4431,"th":4432,"Ġ2012":4433,"ĠprasidÄĹjo":4434,"gim":4435,"ĠdÄĹv":4436,"ysite":4437,"AU":4438,"ĠÅ¾urnalis":4439,"ĠVilkaviÅ¡kio":4440,"ĠiÅ¡rink":4441,"ĠgrÄħÅ¾":4442,"imosi":4443,"ÄĹkl":4444,"ðŁ":4445,"Ġ2013":4446,"Ġvyst":4447,"Ġ(âĢŀ":4448,"Ġturin":4449,"Ġnaudotis":4450,"Ġpasidal":4451,"ĠdidelÄĹ":4452,"Ġdirbo":4453,"air":4454,"Ġ80":4455,"____":4456,"Ġnukr":4457,"Ġanti":4458,"erija":4459,"Ġtokius":4460,"jame":4461,"nius":4462,"ĠpapuoÅ¡":4463,"Ġkg":4464,"ãģ":4465,"Ġvit":4466,"augos":4467,"Ġdalyviai":4468,"lÄ¯":4469,"Ġpatinka":4470,"ĠJÅ«s":4471,"35":4472,"tingas":4473,"III":4474,"Ġorganizacijos":4475,"Ġduomenimis":4476,"Ġneigi":4477,"ĠÅ¾iniaskl":4478,"inÄĻs":4479,"ĠÄ¯monÄĹ":4480,"Ġmanau":4481,"ĠÅ¡iais":4482,"Ġrep":4483,"ytus":4484,"Ġbrang":4485,"ĠnebÅ«tÅ³":4486,"Ġdaugi":4487,"nuo":4488,"erÄ¯":4489,"Ġsavimi":4490,"Ġbaigi":4491,"ykliÅ³":4492,"ĠtÄĹvÅ³":4493,"Ġtil":4494,"Ġep":4495,"Ġfoto":4496,"ĠÄįi":4497,"Ġvon":4498,"tep":4499,"antai":4500,"Ġvyriaus":4501,"ova":4502,"Ġpirmininkas":4503,"Ġveis":4504,"BÅ«":4505,"tyse":4506,"avÄĹ":4507,"ĠgerÄħ":4508,"ĠVieÅ¡":4509,"Ġpriemones":4510,"Ġdel":4511,"Ġagent":4512,"JÅ³":4513,"Ġligos":4514,"Ġspeciali":4515,"Ġemo":4516,"olÄĹ":4517,"Ġgeros":4518,"ĠPalaidinÄĹs":4519,"unik":4520,"ĠkiauÅ¡":4521,"Ġasmenys":4522,"Ġvisuomet":4523,"abej":4524,"avimu":4525,"IT":4526,"aida":4527,"kaitant":4528,"ĠÄ¯sipareig":4529,"Ġpapild":4530,"ore":4531,"rius":4532,"Ġremi":4533,"ojimÅ³":4534,"ĠAus":4535,"amasis":4536,"Ġtarpusav":4537,"Ġtir":4538,"ĠmarÅ¡":4539,"Ġsienos":4540,"Ġparamos":4541,"Ġesate":4542,"Ġkiekvieno":4543,"ema":4544,"audos":4545,"Ġruden":4546,"Ġvarg":4547,"uoÄįiÅ³":4548,"Ġpaskut":4549,"ĠsvetainÄĹje":4550,"Ġkeisti":4551,"Pa":4552,"Sus":4553,"Ġreiki":4554,"Ġspalva":4555,"ĠkokÄ¯":4556,"toms":4557,"Å¾iais":4558,"Ġpasakojo":4559,"Ġverta":4560,"ĠiÅ¡gyven":4561,"ĠkalbÄĹti":4562,"ĠÄ¯kv":4563,"ook":4564,"Ġpasikei":4565,"yÅ¡":4566,".),":4567,"ĠmokslÅ³":4568,"ĠÅ¾vaigÅ¾d":4569,"Ġintensyv":4570,"Ġvel":4571,"Ġeki":4572,"Ġpageid":4573,"Ġpirmasis":4574,"Ġreikalavimus":4575,"Ġatas":4576,"ĠAlg":4577,"ĠprojektÅ³":4578,"Dr":4579,"Ġprietais":4580,"vilg":4581,"anÄįia":4582,"lam":4583,"Ġvykdom":4584,"Ġkreiptis":4585,"yzd":4586,"Ġstai":4587,"ĠÄ¯gyvendinti":4588,"tir":4589,"ĠsavÄĻs":4590,"ĠdaÅ¾niau":4591,"ĠsÄħjungos":4592,"Ġduk":4593,"isti":4594,"uokite":4595,"Ġatsiranda":4596,"ĠÄ¯tar":4597,"ĠAmerikos":4598,"engv":4599,"ĠvalstybiÅ³":4600,"asak":4601,"Ġgil":4602,"Es":4603,"angÄħ":4604,"ĠiÅ¡man":4605,"Ġpartiz":4606,"ĠtÄĹvai":4607,"ĠKat":4608,"Ġsvarbiausia":4609,"Ġpaaug":4610,"Ġforma":4611,"ĠmedÅ¾io":4612,"ĠlÄĹÅ¡Å³":4613,"Ġfilm":4614,"Ġmedicinos":4615,"Ġpla":4616,"eikÄĹ":4617,"vyd":4618,"ybei":4619,"Ġklubo":4620,"aranki":4621,"Ġasmuo":4622,"Ġeiti":4623,"metÄ¯":4624,"Ġmirties":4625,"ĠrankovÄĹmis":4626,"Ġtinkamai":4627,"yÅ¾":4628,"Ġdrus":4629,"eipi":4630,"ĠmokyklÅ³":4631,"iÅ¡ki":4632,"IK":4633,"Ġpatalp":4634,"Ġgimnazijos":4635,"Ġabs":4636,"ĠiÅ¡sk":4637,"Ġpolitikos":4638,"Ġpakr":4639,"ikÄħ":4640,"Ġmoderni":4641,"ĠatÅ¾":4642,"Ġpriv":4643,"aila":4644,"ĠsuÅ¾ino":4645,"ĠpriÄĹm":4646,"aviÄįius":4647,"Ġkontak":4648,"Ġ(\"":4649,"menÄ¯":4650,"Ġdarbuotojai":4651,"Ġoptim":4652,"ĠSi":4653,"Ġleg":4654,"Ġlengviau":4655,"Åłie":4656,"Ġnorint":4657,"iÅ¡kÅ³":4658,"ĠkeiÄįi":4659,"ĠvarÅ¾yb":4660,"ĠraÅ¡o":4661,"iks":4662,"Ġchar":4663,"ĠTeis":4664,"Ġbanko":4665,"ingu":4666,"Ġ[âĢ¦]":4667,"KodÄĹl":4668,"Ġpamink":4669,"Ġgalo":4670,"Ġinformac":4671,"tumÄħ":4672,"Ġmont":4673,"Ġatsirado":4674,"Ġkonsul":4675,"ĠLT":4676,"kit":4677,"ĠkaÅ¾kas":4678,"aminti":4679,"avÄĻ":4680,"ĠmÄĹlyn":4681,"Ġatkreip":4682,"se":4683,"Ġsuteikti":4684,"Ġ*":4685,"Ġpried":4686,"Ġbur":4687,"eriu":4688,"Ch":4689,"oju":4690,"Ġgero":4691,"Ġnamai":4692,"Ġmoterys":4693,"tÅ«ra":4694,"Vid":4695,"Ġberni":4696,"Ġfestiv":4697,"El":4698,"Ġinterjer":4699,"Ġnaudojant":4700,"ĠvertÄĹ":4701,"orio":4702,"Ġliaud":4703,"ĠligÅ³":4704,"Ġgydymo":4705,"Ġkyla":4706,"ĠiÅ¡kil":4707,"ysis":4708,"ydavo":4709,"ĠtaÅ¡kÅ³":4710,"ĠBar":4711,"sto":4712,"ĠtuÅ¡":4713,"Ġskan":4714,"taÅ¾":4715,"Å¡kÅ³":4716,"ĠÄĹmÄĹ":4717,"ĠiÅ¡sis":4718,"aksim":4719,"Ġkompiuter":4720,"ĠpusÄĹje":4721,"Ġvyskup":4722,"ĠrankÅ³":4723,"Ġdiev":4724,"ĠMed":4725,"ator":4726,"ĠÄ¯gÅ«":4727,"Ġaus":4728,"Ġfestival":4729,"eter":4730,"Ġofici":4731,"Ġdalykas":4732,"Ġparap":4733,"Ġdaugiausia":4734,"Ġvieni":4735,"Ġand":4736,"tic":4737,"Ġ196":4738,"arba":4739,"Ġpert":4740,"ĠkiÅ¡":4741,"ĠmokyklÄħ":4742,"Ġmit":4743,"Ġporeikius":4744,"ĠÅ¾mogÅ³":4745,"ĠreiÅ¡k":4746,"Ġsign":4747,"nt":4748,"ovos":4749,"ĠnaktÄ¯":4750,"dÅ¾ia":4751,"Ġbendra":4752,"Ġkrem":4753,"auna":4754,"Ġveido":4755,"ĠIr":4756,"Ġpur":4757,"Ġsvarst":4758,"ĠInd":4759,"ĠPanevÄĹÅ¾io":4760,"Ġnegalima":4761,"ĠÅ¡ventÄĹs":4762,"Ġnagr":4763,"Ġpavaduotoj":4764,"cik":4765,"imp":4766,"pek":4767,"Ġ195":4768,"Ġjais":4769,"Pask":4770,"enta":4771,"Ġ35":4772,"Ġneto":4773,"inties":4774,"eria":4775,"ĠiÅ¡tek":4776,"Ġklini":4777,"Ġnuorod":4778,"Ġpirmiausia":4779,"ĠaukÅ¡t":4780,"Tam":4781,"Ġkuriais":4782,"ĠinÅ¾in":4783,"198":4784,"eiÅ¡kia":4785,"tÅ³jÅ³":4786,"pro":4787,"Ġtekst":4788,"Kauno":4789,"prÄĻsti":4790,"Ġlauki":4791,"ĠtikrÅ³jÅ³":4792,"pu":4793,"ĠdÄĹk":4794,"Ġstraipsnio":4795,"ĠvyrÅ³":4796,"ĠAnt":4797,"Ġstar":4798,"idab":4799,"Ġdvasi":4800,"jau":4801,"ĠdalyviÅ³":4802,"ĠklientÅ³":4803,"ĠuÅ¾raÅ¡":4804,"log":4805,"ybÄĹmis":4806,"okur":4807,"ĠanglÅ³":4808,"Ġmoteri":4809,"Ġskys":4810,"ĠlÄĹktuv":4811,"Ġminim":4812,"tinti":4813,"Ġneats":4814,"Ġproblemas":4815,"ĠsÄħn":4816,"Ġbaim":4817,"ĠvokieÄįiÅ³":4818,"Ġ2010":4819,"antu":4820,"Ġregion":4821,"JÅ«s":4822,"Ġteismo":4823,"ĠrusÅ³":4824,"ĠpavyzdÅ¾i":4825,"ydÄ¯":4826,"amosios":4827,"Ġvisoje":4828,"ĠpÄĹd":4829,"ĠgalimybiÅ³":4830,"Ġpoveiki":4831,"Å«rimo":4832,"Savo":4833,"les":4834,"ĠVer":4835,"Ġpareng":4836,"Ġpuikus":4837,"Ġ2011":4838,"Ġhtt":4839,"Ġpig":4840,"ĠiÅ¡vengti":4841,"2017":4842,"onos":4843,"Niek":4844,"avivald":4845,"Ġnustatyta":4846,"Åłtai":4847,"Ġskaid":4848,"ĠÅ¡lap":4849,"Ġeismo":4850,"Ä¯sta":4851,"ĠâĢĺ":4852,"ĠaukÅ¡tos":4853,"ininkus":4854,"ĠlaikraÅ¡":4855,"Ġlak":4856,"Ġnetek":4857,"anÄįiai":4858,"idas":4859,"Ġsmul":4860,"ÄĹtumÄĹte":4861,"Ġpritar":4862,"Ġrinkoje":4863,"be":4864,"ÄĹlap":4865,"ĠÄ¯manoma":4866,"asti":4867,"ĠÄ¯staigÅ³":4868,"ĠBaÅ¾ny":4869,"egal":4870,"ĠTur":4871,"aujant":4872,"Ġpens":4873,"aisant":4874,"mui":4875,"ĠÅ¡iaurÄĹs":4876,"ĠknygÄħ":4877,"ÄħÅ¾in":4878,"ÄĹgi":4879,"Ġpavyzd":4880,"eder":4881,"Ġlinksm":4882,"Ġmis":4883,"Ġpaskui":4884,"ĠlaikÅ³":4885,"not":4886,"aiÄįiÅ³":4887,"ÄĹjui":4888,"uliÅ³":4889,"Ġviduje":4890,"Ġsuprant":4891,"Ġnuosav":4892,"Ġlengva":4893,"Ġtyrimo":4894,"eviÄįiaus":4895,"mati":4896,"Å¡ko":4897,"Ġbuvau":4898,"Ġpriz":4899,"Ġspecialistai":4900,"ĠLietuvai":4901,"Ġnaudojami":4902,"Galima":4903,"ĠneÅ¡i":4904,"Ġdev":4905,"Ġsprendimus":4906,"Ġsavaranki":4907,"ĠsuÅ¾in":4908,"ĠbÅ«r":4909,"Ġkav":4910,"zÄĹs":4911,"iausiÅ³":4912,"ĠpamirÅ¡":4913,"Projek":4914,"kitÄĹs":4915,"Geri":4916,"ĠKalÄĹd":4917,"ysime":4918,"ynÅ³":4919,"aitÄĹs":4920,"ĠMok":4921,"ED":4922,"Ġvienin":4923,"33":4924,"ĠÄ¯vertinti":4925,"ĠdokumentÅ³":4926,"esnius":4927,"ĠreikÅ¡m":4928,"enÄĹ":4929,"ĠpasiÅ«lyti":4930,"alaik":4931,"ĠgatvÄĹs":4932,"IX":4933,"ĠÅ¾inoti":4934,"Pad":4935,"Ġkuriam":4936,"sniai":4937,"ĠJÄĹz":4938,"Å½em":4939,"Ġaktyviai":4940,"entais":4941,"Tau":4942,"99":4943,"ĠklausimÄħ":4944,"Ġher":4945,"nus":4946,"Ġ70":4947,"Keli":4948,"ĠKom":4949,"ĠGed":4950,"Ġpriver":4951,"Ġpieno":4952,"ĠKor":4953,"SR":4954,"ĠpradÅ¾ios":4955,"yni":4956,"Ġpirkti":4957,"ÄĹtume":4958,"Ġsam":4959,"tifik":4960,"ĠMon":4961,"Ġsunkiai":4962,"Ġpasek":4963,"gti":4964,"ĠprieÅ¾asÄįiÅ³":4965,"Ġdol":4966,"iaus":4967,"tingai":4968,"etÄĹ":4969,"Sud":4970,"ĠiÅ¡gir":4971,"ĠÅ¾vilg":4972,"lika":4973,"Sen":4974,"Ġgerb":4975,"okas":4976,"ĠliteratÅ«ros":4977,"prieÅ¡":4978,"ich":4979,"yksta":4980,"ĠMarijamp":4981,"Ġkontroli":4982,"Ġrecep":4983,"Pris":4984,"Ġvisame":4985,"Ġpublik":4986,"Ġstiliaus":4987,"ĠmiestÄħ":4988,"racija":4989,"07":4990,"Ġkiem":4991,"ĠsutartÄ¯":4992,"ĠkalbÄħ":4993,"ĠpaieÅ¡kos":4994,"Ġregist":4995,"ein":4996,"Ġmama":4997,"vietimo":4998,"tinga":4999,"yne":5000,"Ġdeklar":5001,"ĠprancÅ«z":5002,"ĠsÄħmon":5003,"ĠpoÅ¾iÅ«r":5004,"intÄħ":5005,"entu":5006,"ĠMat":5007,"ĠVakarÅ³":5008,"atoriaus":5009,"Ġapar":5010,"Ġteori":5011,"intiems":5012,"Ġnelaim":5013,"tern":5014,"eista":5015,"ĠÅ¡ventÄĹ":5016,"Ġsklyp":5017,"amiesi":5018,"pai":5019,"Ġkomentar":5020,"Ġkokie":5021,"Ġtiems":5022,"ĠmÄĹnesio":5023,"Ġtiesiogiai":5024,"ĠesmÄĹs":5025,"Ġvietov":5026,"Ġvanduo":5027,"ĠrÅ«pes":5028,"Ġgaliu":5029,"45":5030,"Ġkiekis":5031,"Ġturiu":5032,"Ġpavard":5033,"ĠdÄĹka":5034,"onÄĹ":5035,"Ġperi":5036,"Ġteritorijoje":5037,"ietis":5038,"acijai":5039,"ĠRytÅ³":5040,"Ġ31":5041,"Ġreal":5042,"Ġanksto":5043,"Ġdipl":5044,"avome":5045,"Ġkompozi":5046,"ĠiÅ¡ties":5047,"Prad":5048,"Ġmintis":5049,"ausko":5050,"Pir":5051,"ĠPil":5052,"enz":5053,"uc":5054,"Ġink":5055,"Ġpatyr":5056,"05":5057,"Ġteigimu":5058,"iÅ¡ko":5059,"til":5060,"Ġklasik":5061,"ieriaus":5062,"Ġpriklausom":5063,"ĠLe":5064,"Ġgarso":5065,"tes":5066,"ge":5067,"trÅ«k":5068,"entÄĹ":5069,"ometr":5070,"ĠÄ¯steig":5071,"ĠmÄĹnesiÅ³":5072,"ĠPag":5073,"nÄĹ":5074,"ejus":5075,"Ġgan":5076,"fin":5077,"ĠuÅ¾siÄĹm":5078,"Ġ2009":5079,"ĠsugrÄ¯Å¾":5080,"ĠÅ¾aisti":5081,"Ġpaprasta":5082,"Ġla":5083,"eviÄį":5084,"Ġpasieki":5085,"ĠautomobilÄ¯":5086,"Ġokup":5087,"39":5088,"Ġvardu":5089,"tiÅ¡kas":5090,"Ġbui":5091,"Å«Å¡":5092,"Ġvietose":5093,"Ġkompleks":5094,"Ġgarsi":5095,"ĠÅ¡tai":5096,"ĠBer":5097,"Ġgyveno":5098,"Ġkiekvienam":5099,"Ġseminar":5100,"MA":5101,"ĠveiksmÅ³":5102,"ÄĹjimÅ³":5103,"Ġsezono":5104,"Ġugd":5105,"ybinÄĹs":5106,"Vakar":5107,"Ġterm":5108,"ainiÅ³":5109,"Ġrezultatus":5110,"Ġatsilie":5111,"Ġbul":5112,"Europ":5113,"amerik":5114,"Ġpenki":5115,"tono":5116,"jungti":5117,"Ġpareigas":5118,"Ġekolog":5119,"inamos":5120,"vid":5121,"ĠdantÅ³":5122,"Antr":5123,"ĠsveÄįi":5124,"ĠbaÅ¾nyÄįios":5125,"Ġatgal":5126,"Ġkonsult":5127,"ĠplÄĹtros":5128,"Manau":5129,"Ġpasakoja":5130,"ĠKur":5131,"Ġdalyvauja":5132,"dos":5133,"uojantis":5134,"ĠGal":5135,"Anot":5136,"qu":5137,"inimÅ³":5138,"ĠuÅ¾sid":5139,"aprastai":5140,"Kartais":5141,"red":5142,"Ġbesi":5143,"palaid":5144,"IJ":5145,"ĠuÅ¾sis":5146,"38":5147,"ystÄĻ":5148,"cijomis":5149,"Ġsmulk":5150,"ĠreikÄĹs":5151,"ĠparduotuvÄĹje":5152,"ikas":5153,"ĠlaisvÄĹs":5154,"neÅ¡":5155,"timus":5156,"ynÄħ":5157,"aukÄĹ":5158,"37":5159,"ark":5160,"Ġkonserv":5161,"Ġdie":5162,"ingumÄħ":5163,"ĠpaÅ¡to":5164,"ĠrÅ«Å¡iÅ³":5165,"ĠsusipaÅ¾inti":5166,"Ġmom":5167,"Ġkrov":5168,"Ġja":5169,"ĠtikrÄħ":5170,"ĠpadÄĹ":5171,"ĠpaÅ¡tu":5172,"The":5173,"Ġnuoma":5174,"Ġleisti":5175,"ytu":5176,"ĠklausimÅ³":5177,"Ġpanaik":5178,"tarus":5179,"akteri":5180,"Ġilgiau":5181,"ĠstruktÅ«r":5182,"Ġnepasi":5183,"auskaitÄĹ":5184,"Ġtre":5185,"Ġsituacija":5186,"vietÄĹ":5187,"ĠsukÅ«rÄĹ":5188,"ĠrinkimÅ³":5189,"Tuomet":5190,"ĠAleks":5191,"ĠgrÄĹs":5192,"ĠpriemonÄĹ":5193,"ingumas":5194,"Ġbiur":5195,"styti":5196,"Ġmini":5197,"Ġdizaino":5198,"kÄĹ":5199,"Ġkaimas":5200,"Ġ2008":5201,"Ġtend":5202,"!!":5203,"36":5204,"Ġpatirties":5205,"ytojo":5206,"ĠTrump":5207,"Ġadministrac":5208,"ĠÄ¯ran":5209,"Ġorien":5210,"ĠskaiÄįiÅ³":5211,"ĠprocedÅ«r":5212,"etos":5213,"Ġreform":5214,"Deja":5215,"ĠpajamÅ³":5216,"Ġnaudojimo":5217,"Atsi":5218,"ĠrezultatÅ³":5219,"ojimÄħ":5220,"ocial":5221,"ĠPer":5222,"Å¡al":5223,"ĠtÄĻs":5224,"ĠÄ¯staigos":5225,"Ġkaime":5226,"ãĥ":5227,"tikÅ³":5228,"mis":5229,"aiko":5230,"ts":5231,"trauki":5232,"ĠkiekÄ¯":5233,"ystÄĹje":5234,"Ġnesi":5235,"ĠXX":5236,"Ġlieka":5237,"ĠEUR":5238,"ulio":5239,"aÅ¾as":5240,"ah":5241,"Viena":5242,"Ġpasp":5243,"ĠdidÅ¾iul":5244,"med":5245,"Beje":5246,"Ġrodik":5247,"Ġkup":5248,"Ġnemokamai":5249,"yme":5250,"ĠiÅ¡laikyti":5251,"ĠAf":5252,"etikos":5253,"Ġatlieka":5254,"Ġministerija":5255,"Ġgarant":5256,"Kiekvienas":5257,"Ġasmenims":5258,"intelis":5259,"Ġpavadinimas":5260,"Ġsekm":5261,"timis":5262,"ĠÅ¡ia":5263,"ĠsumaÅ¾inti":5264,"yks":5265,"etÄĹs":5266,"ytaus":5267,"Lietuvoje":5268,"Ġkovos":5269,"ÄĻsi":5270,"olas":5271,"Ġpuod":5272,"Ġpen":5273,"Ġpuol":5274,"Ġpapasak":5275,"ĠpasirÅ«p":5276,"ĠDan":5277,"Ð»":5278,"ĠdainÅ³":5279,"Ġsuform":5280,"Kalb":5281,"uoto":5282,"ĠuÅ¾tikrina":5283,"Ġatitinka":5284,"ĠaiÅ¡ku":5285,"alap":5286,"ĠMil":5287,"tyti":5288,"ĠbuvÄĻs":5289,"Ġsmeg":5290,"eÄįiai":5291,"inimai":5292,"ĠdaliÅ³":5293,"riai":5294,"Ġprasideda":5295,"Ġjoje":5296,"Ġnuostabi":5297,"Ġlietuviai":5298,"Ġveikti":5299,"ĠÅ¾emÄĹlap":5300,"ÄĹsti":5301,"rado":5302,"OL":5303,"ĠprieÅ¾astis":5304,"ĠÅ¡ias":5305,"ĠkvieÄįia":5306,"autis":5307,"ininku":5308,"Ġrem":5309,"ygard":5310,"Ġbibliotek":5311,"Ġreak":5312,"ĠiÅ¡vaizd":5313,"oto":5314,"Ġnenori":5315,"ÄĹdavo":5316,"tur":5317,"Ġjuok":5318,"anai":5319,"Ġamerik":5320,"Ġpavyko":5321,"Re":5322,"Ġmokytis":5323,"Ġkuomet":5324,"gali":5325,"Ġpul":5326,"Ġvisais":5327,"ĠSen":5328,"nik":5329,"Ġkatali":5330,"ĠsÄħraÅ¡Äħ":5331,"Ġkonflik":5332,"ĠBr":5333,"imÄĹs":5334,"nel":5335,"Ġdiag":5336,"ĠÄ¯takos":5337,"Ġmig":5338,"Ġpabaigos":5339,"ĠgeleÅ¾ink":5340,"Ġteikia":5341,"ĠkokiÅ³":5342,"Ġeks":5343,"Ġministras":5344,"ĠodÄħ":5345,"veg":5346,"ĠÅłiaurÄĹs":5347,"Ġstri":5348,"Pastar":5349,"avusi":5350,"Ġ36":5351,"tyni":5352,"Ġsrau":5353,"Å«tent":5354,"gyven":5355,"ĠJonas":5356,"Ġrami":5357,"Ġseniai":5358,"Åłio":5359,"ikai":5360,"ĠNacional":5361,"Ġtaigi":5362,"Li":5363,"ÄĹju":5364,"ĠTÄĹv":5365,"aikyti":5366,"mes":5367,"Ġrezultatai":5368,"Ġsportinink":5369,"ĠpaskelbÄĹ":5370,"ÄĹlÄĻ":5371,"trÅ³":5372,"alon":5373,"Ġvaikui":5374,"Ġadministracijos":5375,"Ġnetoli":5376,"ĠsuÅ¾inoti":5377,"tiniu":5378,"Ġ45":5379,"okia":5380,"yÄįiÅ³":5381,"mm":5382,"2016":5383,"Ġkarali":5384,"ĠpranaÅ¡":5385,"Ġsustipr":5386,"liuose":5387,"stijos":5388,"Ġnusteb":5389,"Ġnemat":5390,"ĠpoÅ¾iÅ«ri":5391,"ĠkokiÄħ":5392,"ĠmetrÅ³":5393,"Ġapskrities":5394,"slo":5395,"Ġpom":5396,"Ġnesus":5397,"Ã©":5398,"Ġatsarg":5399,"Ġvisur":5400,"Ġprekes":5401,"ĠTarp":5402,"Ġ500":5403,"Ġnedaug":5404,"Ner":5405,"ĠSv":5406,"ĠtruputÄ¯":5407,"urti":5408,"kiria":5409,"iÅ¡ku":5410,"tadienio":5411,"Gyven":5412,"ÄĹjusiÅ³":5413,"Ġtams":5414,"Åłil":5415,"Ġauga":5416,"ĠÅ¡viesos":5417,"ĠkrikÅ¡Äįion":5418,"Ġiz":5419,"ĠAukÅ¡":5420,"Ġnuod":5421,"ĠlaimÄĹjo":5422,"Ġsprendimo":5423,"Ġgir":5424,"Äįioje":5425,"Ġatliko":5426,"ĠsocialinÄĹs":5427,"ultÅ«ros":5428,"Ġklausimais":5429,"Ġvyrai":5430,"Ġva":5431,"Ġtechnologijos":5432,"Ġautorius":5433,"ĠÄ¯rangos":5434,"ĠieÅ¡ko":5435,"umis":5436,"uoliai":5437,"lov":5438,"ĠgimÄĹ":5439,"Ġateityje":5440,"Ġnelabai":5441,"Ġsusisiek":5442,"ĠsÄħlygos":5443,"197":5444,"Ġvidu":5445,"ĠmiestÅ³":5446,"Ġbalt":5447,"Ats":5448,"traukÄĹ":5449,"Ġatsitik":5450,"kilnoj":5451,"ÄĹkmÄĹs":5452,"Ġprocesas":5453,"Ġklubas":5454,"usis":5455,"ĠpabrÄĹÅ¾":5456,"BÅ«tent":5457,"Ġmuzika":5458,"acijoje":5459,"Ġaudi":5460,"Ġgelb":5461,"alÅ«s":5462,"ĠbÅ«davo":5463,"ĠLond":5464,"ikÅ³":5465,"Ġkomisijos":5466,"Ġneseniai":5467,"Ġsuder":5468,"ĠpatirtÄ¯":5469,"ĠKomis":5470,"toji":5471,"Ġgeriausia":5472,"Am":5473,"her":5474,"ces":5475,"Ġasociacijos":5476,"Ġcik":5477,"tuvai":5478,"ĠmÄĹnesius":5479,"Ġsrities":5480,"Ġefek":5481,"ĠdidelÄ¯":5482,"jor":5483,"ĠVyriausybÄĹs":5484,"skis":5485,"Ġvi":5486,"Ġapygard":5487,"ack":5488,"Ġskulp":5489,"ĠKonstitu":5490,"Ġ90":5491,"Ġsald":5492,"ĠdidelÄĹs":5493,"Ġpanaudoj":5494,"kad":5495,"ĠvakarÄħ":5496,"ravimas":5497,"ĠgroÅ¾io":5498,"ĠsprÄĻsti":5499,"Ġoda":5500,"ĠÅłven":5501,"Ġpalaid":5502,"ane":5503,"ĠdefektÅ³":5504,"ĠmarÅ¡k":5505,"ĠaiÅ¡kiai":5506,"Ġprokur":5507,"Ġtelefonu":5508,"Ġon":5509,"Ġbran":5510,"Åłiau":5511,"Ġbri":5512,"niausiai":5513,"ĠbaigÄĹ":5514,"uojam":5515,"ĠdujÅ³":5516,"Ġapskritai":5517,"tebi":5518,"Ġseri":5519,"Ġpaveldo":5520,"Ġlaisval":5521,"ĠsvetainÄĹs":5522,"Ġlaikotarpiu":5523,"ĠsprendimÅ³":5524,"Ġpol":5525,"ĠÅ¡alÄ¯":5526,"Åłv":5527,"ĠmokÄĹti":5528,"aulius":5529,"bili":5530,"55":5531,"Ġtep":5532,"Ġgrand":5533,"Ġapklaus":5534,"Ġgeriausiai":5535,"agu":5536,"Ġserg":5537,"ĠDÅ¾":5538,"Auto":5539,"Ġnuomone":5540,"ĠaugalÅ³":5541,"ĠÄ¯sivaizd":5542,"Ġjokios":5543,"Ġataskai":5544,"ĠkunigaikÅ¡":5545,"ĠsuÅ¡":5546,"Ġjokio":5547,"Ġbais":5548,"Ġvykst":5549,"Ġnauji":5550,"Ġvam":5551,"Ġfond":5552,"Ġgaranti":5553,"uvos":5554,"IV":5555,"ĠAs":5556,"ÄĹjimus":5557,"esu":5558,"ĠgyvÅ«nÅ³":5559,"ĠsÄħlygomis":5560,"imen":5561,"ĠatliekÅ³":5562,"Ġit":5563,"car":5564,"engia":5565,"Ġbase":5566,"Aps":5567,"usiÅ³jÅ³":5568,"bal":5569,"Ġlav":5570,"ĠOr":5571,"inantis":5572,"ĠTV":5573,"Ġpagrindinis":5574,"ĠsituacijÄħ":5575,"Ġnoriu":5576,"Ġstatis":5577,"Kal":5578,"ĠPrezid":5579,"ĠgraÅ¾iai":5580,"Ġsubjek":5581,"ĠdailÄĹs":5582,"ĠreikÄĹjo":5583,"etu":5584,"timai":5585,"Ġstebuk":5586,"34":5587,"100":5588,"Ġdokumentus":5589,"ĠantrÄħ":5590,"ĠkokybÄĻ":5591,"etus":5592,"eikÅ¡":5593,"Ġskiriasi":5594,"Ġur":5595,"ÄĹjosi":5596,"09":5597,"Ġlaikyti":5598,"Å½al":5599,"ĠlenkÅ³":5600,"Ġgeriausias":5601,"Ġ300":5602,"ĠpabÄĹg":5603,"aukti":5604,"ortas":5605,"Ġkompens":5606,"Pap":5607,"Ġneabej":5608,"VM":5609,"Ġpatirtis":5610,"ybiniÅ³":5611,"ĠÅłved":5612,"Ġmaksim":5613,"Ġblok":5614,"Svarb":5615,"OM":5616,"ĠturbÅ«t":5617,"ĠEd":5618,"Å¾iau":5619,"ĠsalÄĹje":5620,"Ġsteng":5621,"Ġtra":5622,"Ġprir":5623,"nies":5624,"ĠnugalÄĹ":5625,"Ġdidelio":5626,"ĠnusprendÄĹ":5627,"ĠIsp":5628,"viÅ³":5629,"ĠsezonÄħ":5630,"ÄĹtina":5631,"ĠeilÄĹs":5632,"ĠgatvÄĹje":5633,"abl":5634,"ĠnaÅ¡":5635,"Ġdalys":5636,"istai":5637,"ĠpaÅ¾Ä¯st":5638,"Ġvykdyti":5639,"ovai":5640,"ĠdurÅ³":5641,"tasis":5642,"ĠmiÅ¡ko":5643,"Ġserv":5644,"iena":5645,"ijau":5646,"Ġketur":5647,"ove":5648,"ĠÅ¡yps":5649,"Ġvag":5650,"Ġnaujus":5651,"telk":5652,"ĠgyvÅ«n":5653,"ÄĹjimu":5654,"ĠnepamirÅ¡":5655,"Ġrankas":5656,"ilg":5657,"Ġvienam":5658,"Tokiu":5659,"Å¡kus":5660,"Ġekonomikos":5661,"Ġreikalingas":5662,"Ġtelevizijos":5663,"Tre":5664,"albÅ«t":5665,"Ġveiks":5666,"ĠpadÄĹjo":5667,"uodu":5668,"ĠmanÄĻs":5669,"lan":5670,"Ġsutartis":5671,"Ġdviem":5672,"Ġproblemos":5673,"ojus":5674,"ĠÅ¡oki":5675,"Ġinov":5676,"yra":5677,"evoliu":5678,"Ġperspektyv":5679,"PS":5680,"Ġ2007":5681,"ĠpareigÅ«nai":5682,"Ġtoli":5683,"ĠvalstybÄĹ":5684,"ĠatÅ¾vil":5685,"ĠaÅ¡tuo":5686,"ternatyv":5687,"radien":5688,"ĠkÄĹl":5689,"Toks":5690,"inÄĹjo":5691,"31":5692,"iasi":5693,"ĠvertÄĹs":5694,"Ġsantykius":5695,"ĠvalandÅ³":5696,"Ġpralaim":5697,"tikai":5698,"Ġpremjer":5699,"Ġdvigub":5700,"Ġtave":5701,"Darb":5702,"Dydis":5703,"ĠAngli":5704,"Susi":5705,"tÄĹj":5706,"St":5707,"Ġkelia":5708,"Ġplotis":5709,"Ġdemon":5710,"Ġamb":5711,"yto":5712,"ĠpÄĹs":5713,"Ġlo":5714,"Ġproduktus":5715,"Ġeg":5716,"Ġsutvark":5717,"Ġpapl":5718,"ĠÅ¡iaip":5719,"ĠÅ¾aidimÅ³":5720,"ĠneÄ¯manoma":5721,"vyk":5722,"ĠaplinkÄħ":5723,"ĠvandenÄ¯":5724,"nu":5725,"Ġatitik":5726,"tÄĻs":5727,"ĠpaÄįiÄħ":5728,"idr":5729,"\")":5730,"ĠTauragÄĹs":5731,"ovÄĻ":5732,"viu":5733,"Teis":5734,"ĠÅ¡imt":5735,"ĠpagrindiniÅ³":5736,"asad":5737,"Ġparlamen":5738,"eikal":5739,"miÅ³":5740,"ĠpobÅ«":5741,"iep":5742,"Ġgalu":5743,"ĠiÅ¡kart":5744,"Ġdirektoriaus":5745,"ĠMan":5746,"Ġprojekt":5747,"Ġduris":5748,"Ġkokio":5749,"tv":5750,"riÅ¡":5751,"Ġpaim":5752,"Ġtaps":5753,"Kita":5754,"Ġeina":5755,"ĠÅ¾monÄĹmis":5756,"Ġkaral":5757,"Ġregiono":5758,"ĠÄ¯vairius":5759,"aiÄįio":5760,"Ġprezidentas":5761,"elg":5762,"ĠKi":5763,"Ðº":5764,"Ġtikra":5765,"Ġnesk":5766,"Ġsusil":5767,"Ġpaskat":5768,"EK":5769,"06":5770,"varbu":5771,"yli":5772,"Ġparink":5773,"Ġteikti":5774,"amino":5775,"ĠLatvijos":5776,"ĠgeriausiÅ³":5777,"ysiu":5778,"Ġavi":5779,"Pirk":5780,"ĠpagalbÄħ":5781,"ket":5782,"ĠKris":5783,"Ġdepartamento":5784,"Ġnesug":5785,"lig":5786,"ĠpasiÅ¾ymi":5787,"UAB":5788,"uokl":5789,"Ġprekyba":5790,"ĠapibÅ«d":5791,"Ġsustab":5792,"ĠklasiÅ³":5793,"Vasar":5794,"ĠsuknelÄĹ":5795,"Ġparoda":5796,"ukais":5797,"telÄĻ":5798,"ĠÄ¯kvÄĹp":5799,"ÄĹtos":5800,"ĠBe":5801,"iso":5802,"Ġsukelia":5803,"urio":5804,"telek":5805,"Ġaspek":5806,"196":5807,"ong":5808,"TI":5809,"Ġpien":5810,"ĠMind":5811,"Ġgale":5812,"spek":5813,"ĠsudarÄĹ":5814,"ĠkontrolÄĹs":5815,"Ġvienod":5816,"ĠRom":5817,"Ġlenktyn":5818,"uks":5819,"ĠformÄħ":5820,"aceb":5821,"ĠupÄĹs":5822,"Ġfirm":5823,"Ġliga":5824,"omin":5825,"ĠsantykiÅ³":5826,"Ġpernai":5827,"04":5828,"zÄĹ":5829,"ĠpusÄĹ":5830,"ht":5831,"Ġtechnikos":5832,"ild":5833,"ÄįiÅ«tÄĹ":5834,"Ġrezerv":5835,"ĠsavaitÄĹs":5836,"ĠvaldÅ¾ia":5837,"RA":5838,"Ġdaugelio":5839,"ĠDaug":5840,"Ġkomunik":5841,"ĠspecialistÅ³":5842,"ĠpadarÄĹ":5843,"ĠÅ¾aidimas":5844,"Ġtes":5845,"Ġproduktai":5846,"inÄĹja":5847,"uku":5848,"Ġakimir":5849,"Ġpusi":5850,"ĠÅ¡vel":5851,"pÅ¡":5852,"Ġsukurtas":5853,"Åłiame":5854,"ĠgalvÄħ":5855,"Ġkompeten":5856,"vas":5857,"Ġreikalinga":5858,"ĠsistemÅ³":5859,"ĠVytauto":5860,"omb":5861,"samb":5862,"ĠÄ¯skaitant":5863,"Ġstovykl":5864,"aktar":5865,"Or":5866,"Ġgauna":5867,"fas":5868,"tonas":5869,"Ġhi":5870,"ĠbendrovÄĹ":5871,"Ġtechnika":5872,"ĠatÅ¾vilgiu":5873,"KlaipÄĹd":5874,"Ġpaskolos":5875,"03":5876,"Ġvok":5877,"ĠRam":5878,"Ġprimena":5879,"urid":5880,"Ġatrank":5881,"oog":5882,"Ġpuos":5883,"ĠkvÄĹp":5884,"Turi":5885,"Ġnenus":5886,"ĠpasiekÄĹ":5887,"emun":5888,"Ġprognoz":5889,"Ġpastato":5890,"ĠkelionÄĻ":5891,"ĠpristatÄĹ":5892,"Ġpasim":5893,"Sav":5894,"Ġkosti":5895,"Ġdekor":5896,"uodama":5897,"Viskas":5898,"ĠdidÅ¾iausias":5899,"sniu":5900,"Ġautomobilis":5901,"ĠkilmÄĹs":5902,"Reng":5903,"Ġkompanijos":5904,"Ten":5905,"ĠparodÄĹ":5906,"Ġteritorijos":5907,"Ġvienoje":5908,"Ġteises":5909,"Sveik":5910,"ĠRe":5911,"Ġtyrimai":5912,"iniui":5913,"Äįiuose":5914,"ĠakiÅ³":5915,"Ġplastik":5916,"Ġkitose":5917,"gl":5918,"ĠPirm":5919,"koje":5920,"Ġkapit":5921,"Ġsutarties":5922,"ortu":5923,"araÅ¡":5924,"Ġskatina":5925,"loat":5926,"Ket":5927,"2015":5928,"Ġnenor":5929,"esnes":5930,"Ġdisk":5931,"Ġkambario":5932,"Ġed":5933,"ĠtaisykliÅ³":5934,"ĠMaskv":5935,"Ġ38":5936,"ria":5937,"Ġnaudojama":5938,"Ġpoten":5939,"Ġkonkurso":5940,"Ġskyr":5941,"ĠuÅ¾deg":5942,"Ġstriuk":5943,"ordin":5944,"aktyv":5945,"ĠÅ¾aidimo":5946,"Ġvandeniu":5947,"08":5948,"ĠKan":5949,"ĠdaugybÄĻ":5950,"ĠiÅ¡kov":5951,"ĠÄ¯vairias":5952,"Ġneretai":5953,"Ġpaver":5954,"Pran":5955,"inau":5956,"Ġjungi":5957,"ĠpramonÄĹs":5958,"ĠsÄĹkl":5959,"audo":5960,"Ġpopie":5961,"ĠAz":5962,"Ġmuziejus":5963,"ĠÅ¾odÅ¾iÅ³":5964,"teto":5965,"Ġgener":5966,"ĠvartotojÅ³":5967,"Ġgul":5968,"Ġtiesa":5969,"ĠÅ¾ydÅ³":5970,"Ġpalikti":5971,"Ġsvarbiausi":5972,"Ġpasip":5973,"tiÅ¡ka":5974,"ĠÅ½emÄĹs":5975,"ĠEn":5976,"ĠnepaÅ¾":5977,"onui":5978,"encija":5979,"deÅ¡imt":5980,"ÄĦ":5981,"Ġpili":5982,"ovimo":5983,"Ġskaityti":5984,"aukite":5985,"iel":5986,"Ġtokias":5987,"ax":5988,"Ġkalend":5989,"ĠbendrÄħ":5990,"Ġsritis":5991,"Ġstikl":5992,"Sm":5993,"Ġatspind":5994,"eiviai":5995,"ĠÄ¯takÄħ":5996,"fiks":5997,"JÅ«sÅ³":5998,"ĠvalandÄħ":5999,"ĠiÅ¡im":6000,"ekomend":6001,"Ġalkoho":6002,"ĠgroÅ¾":6003,"Ġteb":6004,"ĠÅ¾inomas":6005,"orÅ³":6006,"entÄĹs":6007,"ario":6008,"Ġbuvusi":6009,"Lab":6010,"Ġnereikal":6011,"Valst":6012,"Ġdetal":6013,"Ġmoterims":6014,"ĠliÅ«d":6015,"Ġvardas":6016,"ĠpraneÅ¡ÄĹ":6017,"Ġartimiausi":6018,"Ġtapat":6019,"Inter":6020,"vos":6021,"menis":6022,"Ġatsiliep":6023,"ĠdraugÅ³":6024,"ĠfinansÅ³":6025,"ĠvadovÄĹ":6026,"ĠuÅ¾im":6027,"Ġnetrukus":6028,"Ġliaudies":6029,"ĠNep":6030,"ĠÅ¾vej":6031,"angl":6032,"tei":6033,"Ġnebe":6034,"eivi":6035,"ĠteisÄĹ":6036,"Ġpasaulis":6037,"GalbÅ«t":6038,"Ġmyg":6039,"strum":6040,"are":6041,"Ġkruo":6042,"Ġ2000":6043,"Ġlegend":6044,"inimus":6045,"ĠVai":6046,"Ġautomati":6047,"Ġtyrimas":6048,"ÅłiÅ³":6049,"ĠrÅ«k":6050,"yniÅ³":6051,"plink":6052,"auskienÄĹ":6053,"Ġpalyginti":6054,"ID":6055,"Ġnub":6056,"SD":6057,"snius":6058,"anÄħ":6059,"ĠuÅ¾sienyje":6060,"ĠgrÅ«d":6061,"âĤ¬":6062,"Ġministro":6063,"ĠmarÅ¡ru":6064,"Ġrespublik":6065,"Ġrand":6066,"arÄĹ":6067,"ĠapÅ¾":6068,"Ġpu":6069,"Ek":6070,"ĠporÄħ":6071,"Ġtipas":6072,"ĠdideliÅ³":6073,"Ġkated":6074,"Ġstatus":6075,"LT":6076,"Ġnepad":6077,"ĠuÅ¾duotis":6078,"Ġsudaryti":6079,"Ġpirmoji":6080,"ĠiÅ¡sirink":6081,"antÄħ":6082,"ĠuÅ¾p":6083,"ĠÄ¯trauk":6084,"ĠTra":6085,"tech":6086,"Ġdrauge":6087,"Ġsureng":6088,"Ġku":6089,"ĠstebÄĹti":6090,"ĠPat":6091,"Ġsertifik":6092,"ĠPard":6093,"liav":6094,"ĠuÅ¾ÄĹmÄĹ":6095,"Ġ)":6096,"Å¾ins":6097,"Ġmetal":6098,"ĠparaiÅ¡k":6099,"Ġgryn":6100,"ĠtemperatÅ«r":6101,"Ġsaugos":6102,"Ġ()":6103,"Ġbaud":6104,"ĠSm":6105,"Ġ&":6106,"Ġstad":6107,"Å¾o":6108,"ĠpapraÅ¡":6109,"Visa":6110,"ĠrinktinÄĹs":6111,"ĠpaÅ¾ad":6112,"Ġauks":6113,"ĠtemperatÅ«ra":6114,"ĠDr":6115,"Ġsunaik":6116,"ĠbÅ«tin":6117,"ĠtrÅ«ksta":6118,"Rug":6119,"Pasir":6120,"Ġalternatyv":6121,"oogle":6122,"Ġkavos":6123,"aikÅ³":6124,"ĠsÄħlygÅ³":6125,"Ġpasitaik":6126,"Ġvertus":6127,"ĠkariuomenÄĹs":6128,"ĠsusijÄĻ":6129,"ĠUr":6130,"Ġabu":6131,"Ġvilk":6132,"Ġnusipirk":6133,"ĠTarybos":6134,"ĠdydÄ¯":6135,"Ġvisko":6136,"domas":6137,"ĠpirmÄħjÄ¯":6138,"Ġremontas":6139,"Ġkriteri":6140,"Ġstipriai":6141,"Ġmergina":6142,"Ġreag":6143,"avosi":6144,"Ġhum":6145,"ĠJapon":6146,"Ġima":6147,"Ġveter":6148,"Ġesi":6149,"Ġnetink":6150,"Ġpatais":6151,"ydama":6152,"Ġvalandas":6153,"alÄ¯":6154,"Ġkeliu":6155,"ĠbÅ«dÅ³":6156,"amasi":6157,"ajam":6158,"ĠÅ¾mona":6159,"Ġsank":6160,"ĠPrancÅ«zijos":6161,"ajai":6162,"ĠAlytaus":6163,"dÅ¾iu":6164,"ĠsocialiniÅ³":6165,"Se":6166,"Reikia":6167,"nÄ¯":6168,"Ġsap":6169,"Ġnaudoja":6170,"tukÄħ":6171,"ĠkiÅ¡en":6172,"ĠpasiÅ«lymus":6173,"ido":6174,"ĠKaunas":6175,"ĠVytautas":6176,"Ġreikalauja":6177,"Ġlygos":6178,"angas":6179,"ĠðŁ":6180,"Ġakivaizd":6181,"ĠorganizacijÅ³":6182,"Ġtvarkymo":6183,"IÅ¡s":6184,"acebook":6185,"Ġse":6186,"ĠKlaipÄĹdoje":6187,"Ġkompanija":6188,"ĠpraÄĹjusi":6189,"Vyr":6190,"Äįias":6191,"Ġnaujai":6192,"Ġmetams":6193,"90":6194,"Laik":6195,"Suk":6196,"Ġnos":6197,":)":6198,"Ġkredito":6199,"ĠÅ¾iemos":6200,"ĠdraudÅ¾i":6201,"YpaÄį":6202,"ĠmiÅ¡kÅ³":6203,"Nus":6204,"ĠryÅ¡ki":6205,"gir":6206,"KL":6207,"Ġuniversitete":6208,"Ġdidesnis":6209,"Ġatstovas":6210,"kes":6211,"Ġetn":6212,"195":6213,"Ġansamb":6214,"Jaun":6215,"Ġskirtos":6216,"arch":6217,"temp":6218,"Ġstres":6219,"Ġsvorio":6220,"iuose":6221,"inusi":6222,"Ġtrak":6223,"lys":6224,"Ġinstrum":6225,"Ġded":6226,"Ġrekon":6227,"vaizdÅ¾i":6228,"Ġkitomis":6229,"Ġpagaliau":6230,"Ġmuziejaus":6231,"iteto":6232,"32":6233,"ĠatrodÄĹ":6234,"iam":6235,"anÄįiam":6236,"ĠbaldÅ³":6237,"ĠpaminÄĹti":6238,"ĠKaral":6239,"ĠgrupiÅ³":6240,"ĠrenginiÅ³":6241,"Äįiami":6242,"DÅ¾i":6243,"Ġtiksliai":6244,"ĠPro":6245,"ĠIz":6246,"ĠâĢ¦":6247,"Ġnaik":6248,"Ġizoli":6249,"Ġsantyk":6250,"ĠatneÅ¡":6251,"ĠGedim":6252,"ĠiÅ¡siaiÅ¡k":6253,"Ġskon":6254,"Ġradijo":6255,"kmerg":6256,"Ġarm":6257,"tinei":6258,"Bend":6259,"ĠmÄĹgsta":6260,"Ġportal":6261,"Ġparodyti":6262,"ĠneÅ¡io":6263,"Ġmoters":6264,"Ġilgio":6265,"As":6266,"Ġvnt":6267,"ĠPietÅ³":6268,"ĠraÅ¡yti":6269,"Ġskaitmen":6270,"tiniais":6271,"Ġ'":6272,"âĢĶ":6273,"Ġintelek":6274,"ĠiÅ¡skyrus":6275,"Ġsiekti":6276,"Ġkomun":6277,"ojama":6278,"Ġkau":6279,"ell":6280,"ubil":6281,"Ġlip":6282,"BA":6283,"autÅ³":6284,"ĠTarptau":6285,"Ġpasibaig":6286,"Ġturizmo":6287,"tavo":6288,"ĠdaugybÄĹ":6289,"rid":6290,"Ġraid":6291,"Ġgaliausiai":6292,"ĠapylinkÄĹs":6293,"eci":6294,"hal":6295,"Prek":6296,"Ġrungtynes":6297,"ĠeilÄĹ":6298,"orit":6299,"ĠBaltarus":6300,"Ġnusil":6301,"Ġpaded":6302,"mosfer":6303,"arn":6304,"oros":6305,"ĠpastatÅ³":6306,"DaÅ¾niausiai":6307,"Ġnesupr":6308,"arai":6309,"avimus":6310,"iesiog":6311,"ĠPirk":6312,"Ġdalykus":6313,"02":6314,"ĠdidelÄĻ":6315,"Ġ34":6316,"ĠÄ¯spÅ«":6317,"ĠbaÅ¾nyÄįia":6318,"):":6319,"Ġfig":6320,"Ġtinklo":6321,"Ġvadinamas":6322,"Ġmechaniz":6323,"Ġbud":6324,"ĠbiudÅ¾eto":6325,"Å«na":6326,"Ġperiod":6327,"ĠesÄħ":6328,"pvz":6329,"Ġkilo":6330,"kaip":6331,"ĠriebalÅ³":6332,"ĠprogramÅ³":6333,"ĠSu":6334,"ĠgrupÄĹje":6335,"ĠÅ¾odÅ¾ius":6336,"ĠplaÄįiau":6337,"ĠdÄĹst":6338,"ĠraÅ¡ÄĹ":6339,"tie":6340,"Ġgeneral":6341,"ojame":6342,"ĠdrÄħ":6343,"atÄĹs":6344,"Ġetik":6345,"Ġsmar":6346,"ĠnarÅ¡":6347,"AD":6348,"Âłkm":6349,"ĠobjektÅ³":6350,"alva":6351,"GB":6352,"ĠAud":6353,"Ġsukurta":6354,"kios":6355,"Ġtrau":6356,"ĠpagrindinÄĹs":6357,"Pirmas":6358,"Ġtelefono":6359,"Ġgais":6360,"lav":6361,"Ġskyrius":6362,"ĠpoveikÄ¯":6363,"ves":6364,"ĠposÄĹd":6365,"tenos":6366,"Ġrezultatas":6367,"ĠnuÅ¾ud":6368,"ĠmokytojÅ³":6369,"akyti":6370,"Ġbliz":6371,"ĠPav":6372,"ĠnÄĹÅ¡":6373,"Ġmegz":6374,"Ġvienintelis":6375,"Ġspecialiai":6376,"Ġkomiteto":6377,"Ġkainuoja":6378,"ĠpagrindinÄĹ":6379,"Ġkoordin":6380,"Ġpirmas":6381,"Ġprev":6382,"Ġatmin":6383,"ÄĹjimai":6384,"Ġdurys":6385,"galÄ¯":6386,"orti":6387,"ĠÅ¡veln":6388,"Ġdideli":6389,"ininkÄĹs":6390,"2014":6391,"Ġatrasti":6392,"ĠpobÅ«dÅ¾io":6393,"rastruk":6394,"ĠSh":6395,"snyje":6396,"ysi":6397,"Ġaprib":6398,"Ġpoveikio":6399,"ĠkÄĹd":6400,"Ġais":6401,"Ġkartos":6402,"ega":6403,"Ġgamyba":6404,"Ġsmur":6405,"Ġfiks":6406,"Ġpatiko":6407,"ĠpasakÄĹ":6408,"ĠrieÅ¡":6409,"Neb":6410,"ĠvardÄħ":6411,"vys":6412,"ĠkalbÅ³":6413,"Ġlaikrod":6414,"ĠlaÅ¡":6415,"ener":6416,"ĠJan":6417,"Ġeurop":6418,"ĠatÄĹjo":6419,"Ġ150":6420,"avivaldybÄĹs":6421,"ĠauklÄĹ":6422,"Pam":6423,"tinÄĹse":6424,"ĠstudentÅ³":6425,"teks":6426,"Ġkilometr":6427,"anden":6428,"ĠJur":6429,"Ġarchyv":6430,"Ġvienuol":6431,"Ġskaud":6432,"istams":6433,"Ġvalgyti":6434,"ĠtÅ«kstanÄįiÅ³":6435,"Ġkomit":6436,"Ġtro":6437,"ijomis":6438,"Ġbendradarbiavimo":6439,"Ġsuman":6440,"Ġvic":6441,"ĀĀĀĀĀĀĀĀĀĀĀĀĀĀĀĀ":6442,"prÄĻs":6443,"ĠsveÄįiÅ³":6444,"avimÅ³":6445,"esniu":6446,"Ġlauke":6447,"Ġintegr":6448,"Ġdomin":6449,"Ġeksploat":6450,"Ġstor":6451,"Bendr":6452,"Ġaplinka":6453,"Ġkiekviena":6454,"Ġvertinimo":6455,"ĠinstitucijÅ³":6456,"ĠÅ¾av":6457,"kaus":6458,"Ġmokytoja":6459,"ĠparduotuvÄĹs":6460,"âĢľ)":6461,"75":6462,"Ġvals":6463,"2013":6464,"Ġplatform":6465,"Ġmad":6466,"Ġsveikatai":6467,"Ġvaikais":6468,"ĠPak":6469,"Ġpasinaudoti":6470,"anos":6471,"Vad":6472,"ĠrudenÄ¯":6473,"Ġsimb":6474,"Ġaplinkoje":6475,"ĠÅ¾iemÄħ":6476,"strak":6477,"Ġnag":6478,"kienÄĹ":6479,"RaÅ¡":6480,"IO":6481,"ĠiÅ¡bandyti":6482,"Ġkaul":6483,"uojanÄįiÅ³":6484,"urs":6485,"ĠÅ¡iukÅ¡":6486,"ĠSim":6487,"Ġpora":6488,"umb":6489,"Ġ~":6490,"taip":6491,"Ġnuotraukos":6492,"Ġinspek":6493,"imato":6494,"ĠÅ¾inios":6495,"Ġsin":6496,"Ġnekilnoj":6497,"Ġadministr":6498,"Ġsidab":6499,"paÅ¾ind":6500,"yÄįiau":6501,"Ġdaktar":6502,"Ġatmosfer":6503,"Ġsimbol":6504,"kon":6505,"ĠÅ¾odÅ¾io":6506,"cijoms":6507,"Ġ$":6508,"Ġbibliotekos":6509,"ĠpadÄĹk":6510,"Kartu":6511,"ĠkultÅ«ra":6512,"old":6513,"utis":6514,"Ġkosme":6515,"Ġinfrastruk":6516,"Ġarg":6517,"Ġtras":6518,"Ġtiesiai":6519,"ĠÅ¡aukÅ¡":6520,"ĠkonkreÄįi":6521,"Ġkitu":6522,"ĠiÅ¡silav":6523,"ĠpavasarÄ¯":6524,"ĠaktÅ³":6525,"Ġfilmas":6526,"entams":6527,"ĠpoÅ¾ym":6528,"anÄįioms":6529,"ĠpraktiÅ¡kai":6530,"Ġpertrauk":6531,"ĠVi":6532,"Ġaplankyti":6533,"ĠMarijampolÄĹs":6534,"Ġalkoholio":6535,"Ġnepal":6536,"ĠÅ¾ad":6537,"Ġaugal":6538,"vÄĹs":6539,"ĠMal":6540,"Ġkeletas":6541,"370":6542,"Ġdaugiausiai":6543,"Ġsukelti":6544,"ĠLa":6545,"ĠVokietijoje":6546,"VieÅ¡":6547,"uojanti":6548,"ĠÅ¾odÅ¾iai":6549,"Ġkitam":6550,"Ġsutaup":6551,"Ġnepriklaus":6552,".:":6553,"Ġun":6554,"akas":6555,"ieriÅ³":6556,"Ġkokius":6557,"Ġpakar":6558,"dr":6559,"Ġparko":6560,"ĠUkrainos":6561,"Ġatstat":6562,"ĠperÅ¾iÅ«rÄĹti":6563,"Ġtaup":6564,"ĠDievas":6565,"ojimus":6566,"Ġpristatyti":6567,"iÅ³s":6568,"ĠidÄĹja":6569,"Ä®si":6570,"Ġateities":6571,"ĠVl":6572,"ĠgamintojÅ³":6573,"ĠRim":6574,"Ġstiklo":6575,"EM":6576,"ors":6577,"kop":6578,"ininkui":6579,"ff":6580,"ĠsÅ«nus":6581,"Ġsma":6582,"ÄĹda":6583,"Ġapat":6584,"Ġnorisi":6585,"tinÄĹmis":6586,"Ġfilmo":6587,"Ġhttp":6588,"berg":6589,"Ġvideo":6590,"ĠAleksand":6591,"PA":6592,"trai":6593,"egist":6594,"ĠpaplÅ«d":6595,"Äħsias":6596,"Ġpramon":6597,"Ġkaltin":6598,"IL":6599,"Ġekspon":6600,"Ġviename":6601,"Ġmados":6602,"Ġeduk":6603,"Ġlaikui":6604,"atau":6605,"ĠliteratÅ«r":6606,"ojimai":6607,"Ġlabor":6608,"ukti":6609,"ÄĹsiu":6610,"arm":6611,"Ġkontrol":6612,"IA":6613,"Ġprojektus":6614,"ĠpriÅ¾iÅ«r":6615,"Ġpatirtimi":6616,"ÄĹdama":6617,"Ġaukso":6618,"ĠÄ¯domu":6619,"Knyg":6620,"irdÅ¾iai":6621,"ĠkokybÄĹ":6622,"Ġprasme":6623,"PaÅ¾":6624,"ĠpelnÄĹ":6625,"vakar":6626,"nelyg":6627,"ĠbokÅ¡":6628,"aviÄįiaus":6629,"ĠPo":6630,"Ġilga":6631,"Ġinfek":6632,"Ġateina":6633,"ĠpradÅ¾ia":6634,"Ġvaldyti":6635,"ymais":6636,"Ġskalb":6637,"ĠÄ¯vairios":6638,"Ġprisimin":6639,"ĠSal":6640,"Ġbendras":6641,"tacija":6642,"Ġfestivalio":6643,"Tel":6644,"Ġtikriausiai":6645,"ĠeÅ¾ero":6646,"ĠbÅ«tinai":6647,"Ġporeik":6648,"Ġstil":6649,"44":6650,"Ġegzamin":6651,"Å½mog":6652,"tuvo":6653,"ĠPetr":6654,"Å¡kumo":6655,"dinti":6656,"emokra":6657,"auga":6658,"mobi":6659,"Ġnugal":6660,"ytoja":6661,"sul":6662,"Ġalkoh":6663,"Ġty":6664,"Ġypatingai":6665,"Rus":6666,"ÄĹjais":6667,"Ġankstyv":6668,"OK":6669,"Ġna":6670,"Ġprogramas":6671,"inskas":6672,"Kaina":6673,"ĠiÅ¡Å¡Å«":6674,"Ġglobos":6675,"Ġkodas":6676,"Ġpoilsio":6677,"amet":6678,"ĠlÅ«k":6679,"Tiesiog":6680,"Ġrat":6681,"ĠNer":6682,"Ġkomerc":6683,"Ġsuma":6684,"anÄįiame":6685,"Visos":6686,"Inform":6687,"ĠÅ¡iam":6688,"aÅ¾u":6689,"Ġneati":6690,"ĠÅ¡ildymo":6691,"ĠSkaityti":6692,"Ġreklamos":6693,"ĠFr":6694,"Ġvirus":6695,"eikiÅ³":6696,"ĠIII":6697,"mokes":6698,"ĠsupaÅ¾ind":6699,"Ġrenginio":6700,"ĠÄ¯statymÅ³":6701,"Ġsakyti":6702,"idÅ¾iaug":6703,"erti":6704,"ĠpapildomÅ³":6705,"tija":6706,"ĠPR":6707,"Ġsiekiama":6708,"ĠÅ¾enklas":6709,"ilo":6710,"Ġatsin":6711,"ĠÅ¡au":6712,"ienio":6713,"ologija":6714,"Ġterap":6715,"Ġatrad":6716,"Ġnuosto":6717,"Ġsimp":6718,"ĠÄ¯rengti":6719,"ĠrÅ«b":6720,"hi":6721,"Ġtinkami":6722,"Ġsupra":6723,"Ġ37":6724,"ĠkainÅ³":6725,"Ġalyv":6726,"ST":6727,"ĠfilmÅ³":6728,"ustel":6729,"tein":6730,"Ġpapildomai":6731,"Ġren":6732,"Ġsusidom":6733,"Ġdeb":6734,"Ġbaldai":6735,"ĠnuomonÄĻ":6736,"Ġsurasti":6737,"Ġpagaminti":6738,"ĠÅłal":6739,"ĠuÅ¾g":6740,"Ġtvarkos":6741,"ĠdoleriÅ³":6742,"ĠtÄĻsi":6743,"ĠVik":6744,"ãĤ¢ãĤ¢ãĤ¢ãĤ¢":6745,"ĠpatalpÅ³":6746,"auto":6747,"NorÄĹdami":6748,"Ġ2006":6749,"ĠXV":6750,"ÄĻstu":6751,"ĠbaudÅ¾i":6752,"ĠÅ¡okiÅ³":6753,"65":6754,"Ġkuriai":6755,"Ġpuosel":6756,"ĠtikrÅ³":6757,"Ġnerv":6758,"emp":6759,"ĠkÅ«rybos":6760,"Kuo":6761,"Ġmedvil":6762,"Ġbute":6763,"tienÄĹ":6764,"ĠmeilÄĹ":6765,"ĠpriemonÄĹmis":6766,"Ġbendrauti":6767,"Ġplotas":6768,"Ġinstruk":6769,"tinÄħ":6770,"iniÅ¡kai":6771,"ĠlaipsniÅ³":6772,"tvark":6773,"ininkÄħ":6774,"eim":6775,"ute":6776,"ĠamÅ¾in":6777,"Ġmodelis":6778,"istat":6779,"Ġpaki":6780,"DaÅ¾nai":6781,"istas":6782,"Ġvalymo":6783,"oriai":6784,"Ġaks":6785,"Ġpaskirties":6786,"Ġtame":6787,"ÄĹlyje":6788,"Ġbaus":6789,"ĠdidÅ¾iausiÅ³":6790,"Ġpasireng":6791,"ĠginÄį":6792,"Ġmaistas":6793,"chem":6794,"ardas":6795,"Merg":6796,"Ġreklam":6797,"Ġleido":6798,"ĠbÅ«dÄħ":6799,"terap":6800,"ĠneÅ¡ioj":6801,"Ġpreki":6802,"Ġnukreip":6803,"Ġuog":6804,"tingÄħ":6805,"Ġprezidento":6806,"Europos":6807,"ĠiÅ¡var":6808,"Kat":6809,"Ġdata":6810,"Åłal":6811,"lin":6812,"Ġdiplom":6813,"iko":6814,"Ġapgyvend":6815,"Ġstatyb":6816,"Ġimtis":6817,"eriais":6818,"Ġgaminti":6819,"rikos":6820,"ĠlaikotarpÄ¯":6821,"ĠiÅ¡tik":6822,"Ġdalimi":6823,"alinis":6824,"ÅłiÄħ":6825,"Ġdvid":6826,"ytojams":6827,"ĠÅ¡eimoje":6828,"Lap":6829,"ĠmaistÄħ":6830,"Ġmedienos":6831,"Ġunivers":6832,"autas":6833,"Ġmoto":6834,"ĠmirÄĹ":6835,"ĠvieÅ¡b":6836,"68":6837,"uoli":6838,"Ġpirkimo":6839,"ĠlÅ«kes":6840,"Ġdalykai":6841,"ĠsvarbiausiÅ³":6842,"Ġvaldybos":6843,"Ġnepag":6844,"ĠerdvÄĹje":6845,"Ġvalsti":6846,"Ġbel":6847,"Ġjurid":6848,"tvirtin":6849,"ĠÅ¾iÅ«rÄĹti":6850,"Ġ32":6851,"Ġmagistr":6852,"ĠneÅ¾ino":6853,"ĠvaidmenÄ¯":6854,"ĠatsiÅ¾velgiant":6855,"Ġburn":6856,"ĠapibrÄĹÅ¾":6857,"Ġreguliar":6858,"pir":6859,"ĠnegalÄĹjo":6860,"Ġpasaulinio":6861,"Esu":6862,"ĠTrumpos":6863,"Ġprovin":6864,"Ġfondo":6865,"ĠDar":6866,"Ġdarbe":6867,"ĠÅ¾aidimai":6868,"jam":6869,"als":6870,"Ġteismas":6871,"Ġjauk":6872,"Ġlau":6873,"ĠmaÅ¾as":6874,"Å«Å¾":6875,"ĠÅ¡ventÄĻ":6876,"Å«rio":6877,"Ġsrityse":6878,"otÅ³":6879,"ĠilgÄħ":6880,"tenka":6881,"Ġcer":6882,"ĠtinkamÄħ":6883,"yklÄĹs":6884,"Ġapima":6885,"aulÄĹs":6886,"SiÅ«l":6887,"Ġpaliko":6888,"ĠGer":6889,"ca":6890,"ĠTai":6891,"ausite":6892,"ĠInter":6893,"Ġkond":6894,"ĠdÅ¾iug":6895,"ĠuÅ¾fiks":6896,"Ġpagrindu":6897,"Ġveiksmus":6898,"ĠidÄĹjÅ³":6899,"trÄħ":6900,"ovÄħ":6901,"intar":6902,"omp":6903,"Ġspecializ":6904,"Ġadresu":6905,"ĠKas":6906,"ler":6907,"ÄĹjusÄ¯":6908,"eidimo":6909,"zo":6910,"ĠreikalavimÅ³":6911,"AukÅ¡":6912,"Ġesm":6913,"aikÄĹ":6914,"ĠprocesÄħ":6915,"Ġkitur":6916,"Ġpirmen":6917,"ĠtikslÅ³":6918,"Å¡to":6919,"Grei":6920,"Ġranka":6921,"Ġvartoti":6922,"ĠgrÄħÅ¾in":6923,"Ġpasiv":6924,"ĠatpaÅ¾":6925,"Fil":6926,"aryti":6927,"riklausom":6928,"Atr":6929,"Naud":6930,"aÄį":6931,"ĠÄ¯pro":6932,"Ġpakrant":6933,"Ġha":6934,"Ġolimp":6935,"Ġatkreipti":6936,"Å«m":6937,"Å½monÄĹs":6938,"elÄĹmis":6939,"aviÅ¡k":6940,"Ġlaikomas":6941,"Ġvyro":6942,"Ġpernelyg":6943,"lij":6944,"Ġtaisykles":6945,"into":6946,"ĠpareiÅ¡kÄĹ":6947,"ĠuÅ¾dav":6948,"Ġatsisakyti":6949,"ÄĹles":6950,"ĠatvejÅ³":6951,"ĠÄ¯vairÅ«s":6952,"Ġsantykiai":6953,"ĠiÅ¡dÄĹs":6954,"ĠrÅ«mÅ³":6955,"Ġinstituto":6956,"Ġspaudos":6957,"eikÅ¡ti":6958,"Ġmetalo":6959,"kijos":6960,"Ġpalaikyti":6961,"ĠvaikÄħ":6962,"95":6963,"yÅ¾iaus":6964,"ĠpaÅ¡alinti":6965,"Ġpaskai":6966,"alias":6967,"Ġnaudojamos":6968,"Ġvadovai":6969,"ienÅ³":6970,"ĠdaugelÄ¯":6971,"Ġmerginos":6972,"ĠidÄĹjos":6973,"EC":6974,"Ġnakv":6975,"ynai":6976,"Ġgyventojams":6977,"Ġkomisija":6978,"ortimen":6979,"inosi":6980,"ĠkomandÄħ":6981,"ĠCentr":6982,"ĠlaimÄĹ":6983,"Ġkank":6984,"Ġkati":6985,"oriaus":6986,"Ġpersonal":6987,"armon":6988,"Ġatsakyti":6989,"tikas":6990,"Ġkuk":6991,"aikÅ¡Äįi":6992,"tral":6993,"ĠDon":6994,"ĠpirmÄħjÄħ":6995,"Ġproceso":6996,"Ġkuro":6997,"ATO":6998,"ĠkelioniÅ³":6999,"Å¾ini":7000,"Ġtinklalap":7001,"Ġvadinama":7002,"Naudoj":7003,"bet":7004,"Ġatvyko":7005,"vili":7006,"ĠsavivaldybiÅ³":7007,"TU":7008,"ĠÄ¯l":7009,"ĠsienÅ³":7010,"imnaz":7011,"tuk":7012,"Vie":7013,"vaÅ¾i":7014,"Ġdes":7015,"anÄįiomis":7016,"Ġavar":7017,"Ġminutes":7018,"pia":7019,"ĠsveÄįiai":7020,"Daugelis":7021,"AC":7022,"Ġpaband":7023,"Ġstatyti":7024,"amais":7025,"Ġtarnyba":7026,"Ġpasau":7027,"ĠuÅ¾dirb":7028,"iÅ¡kio":7029,"Ġnuotraukas":7030,"Ġemig":7031,"--------":7032,"ĠvaisiÅ³":7033,"Ġarom":7034,"atÄĹ":7035,"Ġpapli":7036,"Ġpraleisti":7037,"Ġsilpn":7038,"ĠÅłi":7039,"ĠpaplÅ«dim":7040,"keviÄįius":7041,"ininkais":7042,"kime":7043,"Ġsli":7044,"Ġgimimo":7045,"Ġka":7046,"Ġ2004":7047,"ĠpaÅ¾as":7048,"ĠprieÅ¡tar":7049,"ĠdÅ¾iaugsm":7050,"ĠaukÅ¡Äįio":7051,"Ġargum":7052,"Ġformul":7053,"ietiÅ¡k":7054,"ĠvarÅ¾ybose":7055,"Ġapsaugoti":7056,"Ġkodeks":7057,"aga":7058,"Ġ2005":7059,"Ġagres":7060,"toliau":7061,"Ġantra":7062,"ĠsavivaldybÄĹ":7063,"ĠtikÄĹtis":7064,"unka":7065,"ĠnorÄĹtÅ³":7066,"ĠpriekÄ¯":7067,"gia":7068,"inter":7069,"Ġmergait":7070,"tuvÄĹs":7071,"ĠuÅ¾baig":7072,"ĠbendruomenÄĹ":7073,"ĠsÄħvok":7074,"ĠsulaukÄĹ":7075,"ĠplanÄħ":7076,"ĠPu":7077,"ĠvarÅ¾ybÅ³":7078,"Ġmateri":7079,"ĠÅ¾ymiai":7080,"Ġpolitika":7081,"?âĢľ":7082,"ametr":7083,"ĠmeilÄĻ":7084,"ĠdeÅ¡imtme":7085,"Ġorganizacija":7086,"Ġpoez":7087,"Ġdvaro":7088,"ojÅ«":7089,"Ġbando":7090,"VisÅ³":7091,"Ġgalia":7092,"Ġlangai":7093,"ith":7094,"Ġsistemoje":7095,"ĠvirÅ¡Å«n":7096,"ĠÃ":7097,"ietÄĹ":7098,"ĠgreiÄįiausiai":7099,"iklis":7100,"ĠNorveg":7101,"aini":7102,"imybÄĹ":7103,"Ġapsauga":7104,"Ġstogo":7105,"Ġru":7106,"ĠtriukÅ¡":7107,"ĠtroÅ¡k":7108,"ĠpaÄįiam":7109,"Ġskland":7110,"indami":7111,"Ġabejo":7112,"ĠpanaÅ¡iai":7113,"Ġgraf":7114,"ynÄĻ":7115,"Pil":7116,"ĠAB":7117,"ĠsÄĹkmÄĹs":7118,"ĠÄ¯dieg":7119,"Åłioje":7120,"ĠÅ¾odis":7121,"ĠnuotraukÅ³":7122,"ĠiÅ¡lieka":7123,"tiems":7124,"Vilnius":7125,"all":7126,"Kvie":7127,"ĠAuto":7128,"ĠdaiktÅ³":7129,"Ġvartojimo":7130,"ĠnorÄĹjo":7131,"Ġgreit":7132,"Ġhig":7133,"ĠlaisvÄĻ":7134,"ĠRo":7135,"48":7136,"Ġspinduli":7137,"Ġnepakank":7138,"Ġvitamin":7139,"TO":7140,"Ġsteig":7141,"Ġpateikiami":7142,"Ġpalengv":7143,"Ġsutr":7144,"Dalyv":7145,"Ġpinigai":7146,"Ġautori":7147,"odamas":7148,"Ġcukraus":7149,"Ġsimptom":7150,"Ġvyriausi":7151,"ĠlygÄ¯":7152,"pad":7153,"ĠgeriausiÄħ":7154,"radienÄ¯":7155,"ĠlÄħst":7156,"Ġpyk":7157,"Ġvaiku":7158,"ĠdidesnÄĹ":7159,"Ġeksperim":7160,"du":7161,"matavimai":7162,"Tyr":7163,"PanaÅ¡":7164,"Lietuva":7165,"aver":7166,"ĠprieÅ¾iÅ«ra":7167,"amoji":7168,"ÄįiÅ³jÅ³":7169,"ont":7170,"Ġdarbui":7171,"ĠvirtuvÄĹs":7172,"Mies":7173,"oriz":7174,"Ġrizikos":7175,"ĠaukÅ¡to":7176,"Ġpaskyr":7177,"67":7178,"Ġdainos":7179,"ĠÄĹm":7180,"Ġklientams":7181,"amieji":7182,"Ġprigim":7183,"ĠskirtÄħ":7184,"iur":7185,"Ġsuper":7186,"Ġsupl":7187,"Ġrealiz":7188,"iesÄįio":7189,"ĠpaÅ¾inti":7190,"Ġatsipalaid":7191,"ĠÄ¯kÅ«r":7192,"Ġmokytojai":7193,"ĠrytÄħ":7194,"Ġnarko":7195,"........":7196,"girio":7197,"cer":7198,"Ġgalios":7199,"ĠroÅ¾":7200,"ĠpietÅ³":7201,"ingais":7202,"Ġpadidinti":7203,"usiu":7204,"Ġpalyd":7205,"ÄĹtum":7206,"ĠaukÅ¡tis":7207,"Ġnumatyta":7208,"Ġsugalv":7209,"Ġseksual":7210,"ĠAi":7211,"ume":7212,"Ġpanaudoti":7213,"jungi":7214,"ĠpojÅ«":7215,"Ġneper":7216,"Ġapk":7217,"Ġmak":7218,"Ġkokiu":7219,"ĠrungtyniÅ³":7220,"ĠmÅ«Å¡":7221,"Ñĥ":7222,"adienio":7223,"lament":7224,"Au":7225,"Ġkolon":7226,"ĠpaÅ¡nek":7227,"Ġvizi":7228,"ĠAug":7229,"ÄĹlius":7230,"ĠruoÅ¾":7231,"Ġfail":7232,"Ġpakvies":7233,"Ġtransli":7234,"ĠvaistÅ³":7235,"Ġapygardos":7236,"Ġpristatymo":7237,"rat":7238,"Ġasortimen":7239,"Ġprivat":7240,"ĠdidÅ¾iausia":7241,"Åłiemet":7242,"Ġpirmojo":7243,"Ġdaugiab":7244,"ĠdÅ¾iaugs":7245,"ĠKÄĹd":7246,"ĠsudÄĹtinga":7247,"Ġpiet":7248,"ĠiÅ¡vad":7249,"Ġjoms":7250,"Ġvadovo":7251,"Ġkvep":7252,"Str":7253,"ininkystÄĹs":7254,"Ġpilnai":7255,"ph":7256,"Ġkainas":7257,"Ġremonto":7258,"Ġmaki":7259,"Ġnaudinga":7260,"ĠpirmÅ³jÅ³":7261,"dymas":7262,"Ġpaprastas":7263,"Ġkeliais":7264,"ĠpalÅ«k":7265,"oviz":7266,"ĠvieÅ¡ai":7267,"ĠdÄĹmesys":7268,"ĠplaÄįiai":7269,"Ġsuvar":7270,"KaÅ¾":7271,"ĠryÅ¡io":7272,"Ġkros":7273,"ĠkÅ«nÄħ":7274,"ĠÅ¾aidimÄħ":7275,"ĠatstovÅ³":7276,"Ġlaikytis":7277,"Ġsprendimai":7278,"ĠtÄĹvas":7279,"ĠgrÄ¯Å¾ti":7280,"Ġkaup":7281,"epar":7282,"ardo":7283,"Ġkabin":7284,"ĠiÅ¡mokti":7285,"Ġply":7286,"Ġpet":7287,"ĠpriklausÄĹ":7288,"ĠÄ¯sis":7289,"uolis":7290,"ĠBl":7291,"Ġpirmosios":7292,"****":7293,"ÄĹjimui":7294,"ĠmÄĹsos":7295,"Ġeig":7296,"Ġnorime":7297,"Ġpakab":7298,"Ġstovi":7299,"ĠerdvÄĹs":7300,"Ġsukaup":7301,"Nem":7302,"Ġkorpus":7303,"istaus":7304,"ĠaukÅ¡Äįiau":7305,"stÅ³":7306,"eidÄĹ":7307,"Ġparem":7308,"Ġautomat":7309,"Ġparodos":7310,"tingÅ³":7311,"tojui":7312,"Ġretai":7313,"Ġrenginys":7314,"ilas":7315,"pjaus":7316,"inanÄįiÅ³":7317,"ĠÄįempionato":7318,"ĠdrÄħs":7319,"teliai":7320,"Poli":7321,"ĠnuÅ¡":7322,"Å«ti":7323,"ovi":7324,"Ġnaudos":7325,"ĠsumaiÅ¡":7326,"ĠsiÅ«lome":7327,"anÄįioje":7328,"ĠÅ¡eimai":7329,"umuli":7330,"TA":7331,"acinÄĹs":7332,"Äħmon":7333,"rab":7334,"eviÄįienÄĹ":7335,"ĠEg":7336,"Ġvietoj":7337,"Ġaval":7338,"ĠinvesticijÅ³":7339,"Ġdebi":7340,"line":7341,"ÄĹtinai":7342,"ĠgraÅ¾us":7343,"ĠprieÅ¾iÅ«r":7344,"Ġenergetikos":7345,"ojant":7346,"ĠDi":7347,"Ġsan":7348,"ĠdrabuÅ¾iÅ³":7349,"ĠketuriÅ³":7350,"riu":7351,"ĠlÅ«p":7352,"ĠÅ¾emiau":7353,"over":7354,"Ġlygiai":7355,"lop":7356,"Skir":7357,"Dauguma":7358,"Ġstengiasi":7359,"Ġcharak":7360,"Ġlen":7361,"ĠgerÅ³":7362,"ĠRob":7363,"Ġnaf":7364,"ĠRusija":7365,"Ġkonkurse":7366,"dino":7367,"ĠUni":7368,"ole":7369,"Ġsocialinio":7370,"anija":7371,"ĠjÄĹgÅ³":7372,"zmas":7373,"Ġpavyzdys":7374,"ĠRas":7375,"bod":7376,"Ä®dom":7377,"ĠXIX":7378,"Ġistorijoje":7379,"vyr":7380,"ĠStr":7381,"Ġdraugai":7382,"Ġenergija":7383,"ĠsostinÄĹs":7384,"ainÅ³":7385,"Ġnuomos":7386,"ris":7387,"ĠformÅ³":7388,"fil":7389,"ĠatostogÅ³":7390,"ĠmaÅ¾iausiai":7391,"ĠÄ¯veikti":7392,"EB":7393,"Ġskand":7394,"uotojÅ³":7395,"Ġgyvenvie":7396,"ĠPri":7397,"Kitas":7398,"ĠiÅ¡saugoti":7399,"ĠUkmerg":7400,"onuose":7401,"rd":7402,"ĠiÅ¡tr":7403,"ĠsudÄĹti":7404,"usiam":7405,"Ġlinijos":7406,"ĠÄ¯tam":7407,"Ġilius":7408,"Ġilgalaik":7409,"ĠmaÅ¾a":7410,"ĠKinijos":7411,"ĠBas":7412,"Ad":7413,"torija":7414,"dirb":7415,"ĠsukÅ«r":7416,"Ġvisuomenei":7417,"Ġvaliu":7418,"Ġveidrod":7419,"indamas":7420,"ozi":7421,"Å¡kis":7422,"Ġpigiau":7423,"ĠprocentÅ³":7424,"ĠKÄĻstu":7425,"DU":7426,"ĠgÄĹliÅ³":7427,"Ġgydytojas":7428,"Ġplieno":7429,"Ġpersik":7430,"Ġperson":7431,"ĠÄ¯gyvendinimo":7432,"ĠiÅ¡t":7433,"ä¸":7434,"ĠatsakomybÄĹs":7435,"ĠVel":7436,"aujama":7437,"Norint":7438,"ĠposÄĹ":7439,"Ġlaisvai":7440,"Ġturg":7441,"elÄĹje":7442,"stÄħ":7443,"ĠKultÅ«ros":7444,"dÄħ":7445,"ĠtyrimÄħ":7446,"ĠÄ¯tik":7447,"Ġatkur":7448,"TÄħ":7449,"ĠGar":7450,"Ġtiki":7451,"ÄĹsime":7452,"Ġadminist":7453,"Ġali":7454,"ĠElektr":7455,"2012":7456,"Ġdub":7457,"oriu":7458,"Ġkelyje":7459,"ĠmokÄĹjimo":7460,"Ġdemokr":7461,"eat":7462,"ĠpripaÅ¾inti":7463,"Ġlemia":7464,"olio":7465,"ĠjÄĹgos":7466,"Ġpakil":7467,"ĠJuod":7468,"uotÄĹ":7469,"Ġfunkcija":7470,"Ġkair":7471,"].":7472,"ĠmokesÄįio":7473,"Ġsavaites":7474,"esniam":7475,"Ġplaukus":7476,"ĠteÅ¡":7477,"sas":7478,"Ġperdirb":7479,"Ġteisingai":7480,"rob":7481,"Ġniekur":7482,"Ġnut":7483,"ĠviÅ¡":7484,"ĠLietuviÅ³":7485,"arÄħ":7486,"ĠatkÅ«rimo":7487,"raÅ¡tis":7488,"bur":7489,"Ġstul":7490,"ĠÅ¡iai":7491,"Ġtariant":7492,"2011":7493,"Ġ55":7494,"alinÄĹs":7495,"Ġcitr":7496,"ĠarchitektÅ«ros":7497,"ĠÄ¯traukti":7498,"Ġelgtis":7499,"Ġekskurs":7500,"ĠneturÄĹtÅ³":7501,"teik":7502,"Ġber":7503,"Ġsukil":7504,"aliais":7505,"ĠaiÅ¡ki":7506,"Ġnesud":7507,"ĠÄ¯tvirtin":7508,"insime":7509,"Ġdokumen":7510,"Ilgis":7511,"Ġatak":7512,"pav":7513,"ĠsavivaldybÄĹje":7514,"kiais":7515,"Svarbu":7516,"Ġpropag":7517,"Ġliber":7518,"ĠÅ¡altinis":7519,"ĠkelionÄĹ":7520,"timu":7521,"Ġpriesk":7522,"ĠÅ¾ud":7523,"Ġskund":7524,"ĠjauÄįiasi":7525,"ijimo":7526,"Ġrankos":7527,"Sak":7528,"Ġrenkasi":7529,"Ġnesugeb":7530,"eksi":7531,"Ġparduoti":7532,"uotus":7533,"ĠvarÅ¾ybos":7534,"Ġinstitucijos":7535,"likos":7536,"Ġplano":7537,"stu":7538,"Ġfunkcijas":7539,"aizd":7540,"ĠUtenos":7541,"Ġsusijusi":7542,"Ġatskirai":7543,"Ġknygas":7544,"Ġstudijas":7545,"terio":7546,"ĠiÅ¡tir":7547,"Ġmetas":7548,"eko":7549,"ĠPVM":7550,"Ko":7551,"Ġaugin":7552,"ukÅ¡Äįi":7553,"Ġprofil":7554,"Ġtuoj":7555,"ykloje":7556,"ĠÅ¡aldy":7557,"Ġmokymosi":7558,"ĠÄ¯vykiÅ³":7559,"Ġbakteri":7560,"ĠPa":7561,"Tas":7562,"lÄĹp":7563,"98":7564,"ĠMik":7565,"Ġviduryje":7566,"ĠiÅ¡laidÅ³":7567,"ĠkruopÅ¡":7568,"ĠAÅ¡":7569,"ĠValstybÄĹs":7570,"Visgi":7571,"ybar":7572,"Ġjauni":7573,"Ġsoci":7574,"Ġstal":7575,"Ġlygis":7576,"Ġserijos":7577,"omÄĹs":7578,"EO":7579,"ĠkaÅ¾kur":7580,"Ġatspalv":7581,"Ġraud":7582,"ausiais":7583,"iÅ«r":7584,"Ġemoc":7585,"tuotas":7586,"anis":7587,"Ġdoz":7588,"Ġtaryba":7589,"Ġparametr":7590,"Ġpatvirtino":7591,"tinÅ³":7592,"Ġev":7593,"Ġaliejus":7594,"Ġdemokra":7595,"ĠAb":7596,"ÄĹtÄħ":7597,"Ġtoje":7598,"Ġturintis":7599,"ĠpadÄĹtÄ¯":7600,"ĠprancÅ«zÅ³":7601,"taus":7602,"Ġkompiuterio":7603,"Ġkompon":7604,"uojantys":7605,"Ġpardavimo":7606,"Ġnukent":7607,"ted":7608,"ĠryÅ¡iÅ³":7609,"ĠItalijos":7610,"Ġbrangi":7611,"Ġcivi":7612,"ĠgrindÅ³":7613,"Ġrankomis":7614,"Ġrekomenduojama":7615,"Ġpros":7616,"Ġorganizmo":7617,"ĠKret":7618,"Ġret":7619,"Ġtinkamas":7620,"Ġpateko":7621,"ĠmilÅ¾ini":7622,"ĠStat":7623,"ĠIzra":7624,"ĠpenktadienÄ¯":7625,"ĠÄ¯m":7626,"ĠsiekÄĹ":7627,"Ġ400":7628,"Ġkoncent":7629,"ĠpavirÅ¡iaus":7630,"ĠpastangÅ³":7631,"Ġsmarkiai":7632,"Ġtarpusavyje":7633,"ÄĸS":7634,"Ġlop":7635,"ĠÅ¾odÅ¾iais":7636,"ĠraumenÅ³":7637,"ĠaikÅ¡tel":7638,"Ġ65":7639,"Ġpuslapyje":7640,"ĠvaÅ¾iuoti":7641,"tose":7642,"ĠdidÅ¾iausiÄħ":7643,"Ġrit":7644,"Ġskyriuje":7645,"KlaipÄĹdos":7646,"Ġ75":7647,"ĠiÅ¡leido":7648,"ĠkaÅ¾koki":7649,"Br":7650,"augas":7651,"Ġiniciatyva":7652,"ĠribÅ³":7653,"Ġmug":7654,"Ġbag":7655,"demokr":7656,"Ġregione":7657,"Ġplak":7658,"Ġpiln":7659,"Ġdienai":7660,"eu":7661,"cijose":7662,"ĠbaigÄĹsi":7663,"Toliau":7664,"Ġdraugijos":7665,"Ġpalanki":7666,"ĠvaÅ¾":7667,"Ġpadovan":7668,"ĠapÅ¡vie":7669,"ĠturinÄ¯":7670,"Ġ33":7671,"Ġ2003":7672,"ĠLRT":7673,"Ġsij":7674,"Ġvalandos":7675,"eistÅ³":7676,"raus":7677,"ÄĹmÄĹs":7678,"AiÅ¡ku":7679,"ĠabiejÅ³":7680,"ĠiÅ¡aug":7681,"Ġkarjeros":7682,"Ġmobili":7683,"Pirmiausia":7684,"ĠuÅ¾ima":7685,"ĠiÅ¡kovojo":7686,"tuvÄħ":7687,"gen":7688,"ĠverslÄħ":7689,"viz":7690,"Ð°Ð":7691,"Is":7692,"ĠcentrÄħ":7693,"Ġturintys":7694,"Ġginkl":7695,"ĠmarÅ¡kinÄĹ":7696,"Ġpateikia":7697,"Ġakmen":7698,"inarijos":7699,"avÅ³":7700,"ĠbuvÄĻ":7701,"Pab":7702,"ĠmedÅ¾iok":7703,"ĠÅ¡okol":7704,"Ġryto":7705,"vydas":7706,"ws":7707,"ĠÄįempionate":7708,"Ġkombin":7709,"Lie":7710,"ĠKristaus":7711,"Prof":7712,"ĠapskaiÄįi":7713,"Ġnoras":7714,"por":7715,"tininkÅ³":7716,"Pop":7717,"aujame":7718,"Buv":7719,"Ġnamas":7720,"ĠsavybiÅ³":7721,"IR":7722,"Ġkeliau":7723,"Ġkontra":7724,"gas":7725,"ĠpareigÅ«n":7726,"ĠtvarkÄħ":7727,"Ġkovoti":7728,".\"":7729,"ĠÅ¾emÄĻ":7730,"Å¡o":7731,"Vokie":7732,"zas":7733,"ijose":7734,"ĠkÅ«riniÅ³":7735,"Ġneatsi":7736,"ĠpasiprieÅ¡":7737,"88":7738,"ĠryÅ¾":7739,"Ġelgesio":7740,"ĠbÅ«dais":7741,"Ġkeliauti":7742,"Dirb":7743,"Ġstabil":7744,"sid":7745,"Ġspustel":7746,"ĠÅ¾ol":7747,"irurg":7748,"Moksl":7749,"Ġ1000":7750,"vy":7751,"Ġdraugais":7752,"Ġparkas":7753,"ĠprieÅ¾asties":7754,"Ġkalbama":7755,"Ġkeram":7756,"ĠJono":7757,"Ġpritaikyti":7758,"TR":7759,"Ġakcijos":7760,"omen":7761,"eicar":7762,"Neg":7763,"ĠtemperatÅ«ros":7764,"Jums":7765,"Ġvakare":7766,"Ġpirmo":7767,"obul":7768,"ji":7769,"Ġduoti":7770,"ĠsekmadienÄ¯":7771,"ĠpilieÄįiÅ³":7772,"ĠDidÅ¾iosios":7773,"Ġsoli":7774,"ĠPasaulio":7775,"Tinka":7776,"Ġpraras":7777,"Ġth":7778,"Ġpasirodo":7779,"Aug":7780,"tÄħjÄ¯":7781,"anÄįiÅ³jÅ³":7782,"ĠpaÅ¾iÅ«r":7783,"ĠparamÄħ":7784,"Ġskiria":7785,"ĠÅ¡eÅ¡tadienÄ¯":7786,"Ġcivil":7787,"ĠDarbo":7788,"Ġjuoda":7789,"Nu":7790,"imie":7791,"Ġsveikata":7792,"ĠÄ¯rangÄħ":7793,"ĠpateikÄĹ":7794,"Ġgaud":7795,"ĠkÅ«di":7796,"Ġvaizdas":7797,"Ġnepavyko":7798,"Ġpatiems":7799,"Ġpatvirtinimo":7800,"Ġtarpusavio":7801,"Ġnuoty":7802,"Ġorkes":7803,"Ġpakl":7804,"Åłiais":7805,"ĠÄħÅ¾":7806,"====":7807,"Ġdarbdav":7808,"Tokia":7809,"Ġblogai":7810,"praÅ¡":7811,"ĠuÅ¾mokes":7812,"Ġsuvokti":7813,"inÄįi":7814,"ĻĤ":7815,"rusk":7816,"ĠtaÅ¡kus":7817,"Ġ39":7818,"Ġknygoje":7819,"esniais":7820,"Ġkatalog":7821,"utÄĹmis":7822,"ĠpadÄĹtis":7823,"JAV":7824,"Ġgalva":7825,"Äħja":7826,"Ġtenk":7827,"Ġdai":7828,"astr":7829,"ĠÄ¯mok":7830,"ĠpramogÅ³":7831,"ĠsudÄĹtyje":7832,"Ġsimboli":7833,"Ġnurodyti":7834,"Ġpe":7835,"ygos":7836,"Ġadvok":7837,"IC":7838,"ĠpoÅ¾iÅ«ris":7839,"ĠBet":7840,"ĠpriÄĹmÄĹ":7841,"ĠkojÅ³":7842,"ubiliej":7843,"SRS":7844,"Ġseptyn":7845,"ĠgrupÄĻ":7846,"Ġkenk":7847,"ĠÄ¯ved":7848,"Sod":7849,"sa":7850,"Ġsujung":7851,"yrag":7852,"stom":7853,"ĠdovanÅ³":7854,"Ry":7855,"Ġmoka":7856,"Ġkepur":7857,"aisvÄĹs":7858,"ĠneÄ¯pras":7859,"Ġsiej":7860,"ĠsumÄħ":7861,"ĠsÄħÅ¾in":7862,"Ġpristatymas":7863,"Ġorganizuoja":7864,"Jame":7865,"ĠautomatiÅ¡kai":7866,"Ġdaiktus":7867,"aÅ¾Äħ":7868,"Ġsiuv":7869,"Ġ44":7870,"enis":7871,"Ġklausimai":7872,"ĠpabrÄĹ":7873,"eiks":7874,"Å«dÅ¾io":7875,"orai":7876,"ĠligoninÄĹs":7877,"ĠproblemÄħ":7878,"Ġkambarys":7879,"Ġsaugo":7880,"ĠaikÅ¡tÄĹje":7881,"Ġsovie":7882,"Ġapskaitos":7883,"sv":7884,"aujantis":7885,"ĠsavaitgalÄ¯":7886,"ĠmaÄį":7887,"era":7888,"MS":7889,"Ġjautr":7890,"iama":7891,"ĠGied":7892,"cional":7893,"Ġsuteiks":7894,"ĠatvaÅ¾i":7895,"ĠdirÅ¾":7896,"ijaus":7897,"kol":7898,"ĠmÄĹgautis":7899,"olet":7900,"Ġmamos":7901,"ĠtaisyklÄĹs":7902,"Ġfinansavimo":7903,"Ġtyl":7904,"icion":7905,"ĠkilometrÅ³":7906,"Ġegzistuoja":7907,"agys":7908,"Ġinst":7909,"traukia":7910,"Ġaksesu":7911,"NS":7912,"eiÄįi":7913,"Ġsenam":7914,"ĠAntanas":7915,"Ġdovana":7916,"ĠraÅ¡oma":7917,"ĠtinklÅ³":7918,"Ġkoncep":7919,"eur":7920,"Ġparag":7921,"utyje":7922,"Ġskatinti":7923,"ĠNATO":7924,"Ġjausmas":7925,"Elektr":7926,"Sveiki":7927,"Ġkelios":7928,"ĨĴ":7929,"inanti":7930,"ĠlauÅ¾":7931,"iÅ³jÅ³":7932,"aku":7933,"Ġvykusi":7934,"ĠSveik":7935,"ĠÅ¡alys":7936,"ero":7937,"ĠTrakÅ³":7938,"________":7939,"Ġsavaime":7940,"lamento":7941,"Ġskonio":7942,"Å¡t":7943,"irv":7944,"ast":7945,"Ġprisit":7946,"angeli":7947,"ĠKel":7948,"Ġtank":7949,"Ġju":7950,"ĠesanÄįiÅ³":7951,"Ġbendro":7952,"uolio":7953,"Ġremiantis":7954,"Ġlub":7955,"ĠbandÄĹ":7956,"uolÄ¯":7957,"ĠmedÅ¾iagas":7958,"Ġskirtum":7959,"ĠÄ¯sim":7960,"Ġobjektyv":7961,"tiniame":7962,"omus":7963,"Ġviln":7964,"umais":7965,"Ġskelbia":7966,"ĠÄ¯vairiais":7967,"Ñı":7968,"Ġlaukti":7969,"plinkos":7970,"Muz":7971,"Ġuosto":7972,"ĠbruoÅ¾":7973,"Ġadresas":7974,"Ġpagrindas":7975,"ĠBend":7976,"Kit":7977,"64":7978,"Ġmiestelio":7979,"iujor":7980,"abili":7981,"Ġprepar":7982,"Ġjuose":7983,"kirst":7984,"ĠveikÄĹ":7985,"ĠneturÄĹjo":7986,"Ġreglament":7987,"Ġpriorit":7988,"Ġsprog":7989,"ĠIgn":7990,"eiskite":7991,"Ġprisiminti":7992,"Ġlaboratori":7993,"ypo":7994,"Ġmeras":7995,"tuvÅ³":7996,"Ġidenti":7997,"iego":7998,"Ġdvej":7999,"ĠÅ¾iniasklaidos":8000,"oni":8001,"Ġsantuo":8002,"Ġkaln":8003,"ĠpastebÄĹjo":8004,"Ġkaun":8005,"ĠÄ¯kai":8006,"Ġpatogu":8007,"Ġtikslus":8008,"oves":8009,"rija":8010,"LK":8011,"osite":8012,"Ġ42":8013,"Ġvidutinio":8014,"ĠGab":8015,"Ġmodern":8016,"Ġpanaud":8017,"amomis":8018,"Ġvaldymas":8019,"Ġnugaros":8020,"lip":8021,"ĠsveikatÄħ":8022,"ĠartÄĹj":8023,"ĠskyriÅ³":8024,"Ġpasitar":8025,"Galite":8026,"kom":8027,"ĠGe":8028,"2010":8029,"Ġinterjero":8030,"\":":8031,"cinis":8032,"Ġnepa":8033,"oda":8034,"tiek":8035,"Ġstaiga":8036,"!âĢľ":8037,"Ġporos":8038,"ĠjÄĹga":8039,"ĠiÅ¡gelb":8040,"ĠDidÅ¾iojo":8041,"ĠnarÄĹ":8042,"Ġmatyt":8043,"Ġpartner":8044,"Ġoras":8045,"Ġdukr":8046,"ĠprisipaÅ¾":8047,"Ġpagerinti":8048,"eiÅ¡":8049,"Ġtyrimus":8050,"plek":8051,"laiv":8052,"ĠiÅ¡laidas":8053,"ĠiÅ¡kr":8054,"ĠBu":8055,"ĠRi":8056,"Ġlicen":8057,"ĠÅ¾emyn":8058,"pak":8059,"ĠdrÄħsiai":8060,"Ġmodelio":8061,"ĠslÄĹp":8062,"ĠmedÅ¾iÅ³":8063,"ĠpoÅ¾iÅ«riu":8064,"Ġsavybes":8065,"Ġnetol":8066,"Ġneblog":8067,"Ġsiurb":8068,"Ġkvai":8069,"ÄĹjusios":8070,"ĠPanevÄĹÅ¾":8071,"ÄĻÅ¾":8072,"Ġrevoliu":8073,"Ġvykdo":8074,"Pagrindinis":8075,"Visas":8076,"ĠmuzikÄħ":8077,"AÄįiÅ«":8078,"amoje":8079,"ĠSuom":8080,"ÄĹrÄĹ":8081,"aliojo":8082,"kaitÄĹs":8083,"Atsak":8084,"ĠiÅ¡sprÄĻsti":8085,"ĠvaikÅ¡Äįi":8086,"ydo":8087,"Ġreikalingi":8088,"ĠTh":8089,"ĠturtÄħ":8090,"Ġvonios":8091,"Ġ48":8092,"ĠpaÅ¾vel":8093,"ĠpasiÅ«lymai":8094,"ĠÅ¡eimÅ³":8095,"Ġpei":8096,"ĠeilÄĹraÅ¡":8097,"...]":8098,"ls":8099,"ĠÅ¾inau":8100,"ybinÄĹ":8101,"ĠVilniÅ³":8102,"Kel":8103,"ylis":8104,"Ġtolim":8105,"Ġmotocik":8106,"ĠsavaiÄįiÅ³":8107,"iese":8108,"Ġmokyklose":8109,"ĠBut":8110,"Ġnesvarbu":8111,"dÅ³":8112,"Jam":8113,"Ġsvars":8114,"ĠGen":8115,"Ġtikro":8116,"Ġpatalpose":8117,"ĠvidutiniÅ¡kai":8118,"Sek":8119,"aikio":8120,"Ġgrafik":8121,"ĠdidesnÄ¯":8122,"Ġprarad":8123,"Gam":8124,"ĠryÅ¡Ä¯":8125,"ĠÅ¾vel":8126,"Ġteatras":8127,"Ġramiai":8128,"Ġmiestuose":8129,"liko":8130,"ĠNuo":8131,"ĠsprendÅ¾i":8132,"Ġfeder":8133,"Ġpiliakal":8134,"Pats":8135,"bÄĹg":8136,"Rank":8137,"Ġlaikoma":8138,"ĠdetaliÅ³":8139,"Ġparduod":8140,"Ġkuriomis":8141,"Ġveikloje":8142,"Ġpagarb":8143,"Ġjautri":8144,"ĠCo":8145,"ĠgaminiÅ³":8146,"Ġproduktas":8147,"ĠpartizanÅ³":8148,"Ġprasm":8149,"ĠdirektorÄĹ":8150,"ĠpriemonÄĻ":8151,"ĠbÅ«sto":8152,"Ġkalv":8153,"ĠdarÅ¾oviÅ³":8154,"uper":8155,"ĠsparÄįiai":8156,"Ñĭ":8157,"ĠQ":8158,"Ġtokiais":8159,"ĠJuoda":8160,"ĠelementÅ³":8161,"osiomis":8162,"Â°":8163,"Ġpasveik":8164,"ĠÄ¯vairiausiÅ³":8165,"Ġturinio":8166,"ĠmÅ«r":8167,"Ġsvog":8168,"Ġnesp":8169,"cid":8170,"ĠiÅ¡raiÅ¡k":8171,"69":8172,"Tikrai":8173,"alais":8174,"cinÄĹs":8175,"Ġpastov":8176,"fe":8177,"ĠÄ¯kurta":8178,"Ġalaus":8179,"Ġnever":8180,"eviÄįiÅ«tÄĹ":8181,"ĠkÅ«nas":8182,"Ġgamta":8183,"eld":8184,"Ġterminas":8185,"ĠÅ¾uvo":8186,"ĠpergalÄĻ":8187,"ojÄĻs":8188,"Ġabi":8189,"Ġnepasteb":8190,"Ġskers":8191,"ĠgrÄħÅ¾inti":8192,"Ġskur":8193,"akÄĹ":8194,"Ġprogramoje":8195,"Ġ}":8196,"Ġatsig":8197,"uotu":8198,"Ġprieig":8199,"Ġsusirg":8200,"Ġpirmieji":8201,"unku":8202,"ĠBaÅ¾nyÄįios":8203,"otel":8204,"ĠenergijÄħ":8205,"Ġscenar":8206,"Ġdarbuotojams":8207,"Ġautomobiliai":8208,"ĠuÅ¾aug":8209,"ygiai":8210,"Sieki":8211,"ĠpavirÅ¡iÅ³":8212,"amÄħjÄ¯":8213,"Paprastai":8214,"Ġpaslaugomis":8215,"Ġliek":8216,"Ġstraipsnyje":8217,"aliniÅ³":8218,"domi":8219,"ĠÄ¯statymas":8220,"ĠneiÅ¡v":8221,"ĠneÅ¾inau":8222,"ĠSavivaldybÄĹs":8223,"ĠgrÄ¯Å¾o":8224,"Ġblizg":8225,"ĠÅ¡irdis":8226,"augi":8227,"ner":8228,"Ġvertina":8229,"Ġbiolog":8230,"ue":8231,"tekÅ³":8232,"cio":8233,"ĠVin":8234,"Ġmaud":8235,"ĠâĨĴ":8236,"ĠkvieÄįiame":8237,"ailos":8238,"ĠsusijusiÅ³":8239,"Ġtalp":8240,"Ġpavasario":8241,"Ġsupjaus":8242,"Ġsupranta":8243,"ĠvadovÅ³":8244,"ĠsriÄįiÅ³":8245,"ĠskirtÅ³":8246,"ĠpasirÅ«pinti":8247,"Darbo":8248,"ĠÅ¾id":8249,"Ġsenov":8250,"Ġkauk":8251,"Ġpatenkinti":8252,"Ġmitybos":8253,"virtina":8254,"uojamÅ³":8255,"ple":8256,"ĠpamÄĹg":8257,"ĠaukÅ¡Äįiausios":8258,"muose":8259,"Juos":8260,"ĠvieÅ¡ojo":8261,"liuz":8262,"Ġark":8263,"ĠTo":8264,"Ġpagamintas":8265,"Ġpraktik":8266,"ĠkalnÅ³":8267,"tez":8268,"Ġpusry":8269,"ĠBir":8270,"eolog":8271,"77":8272,"Ġtrumpomis":8273,"Parduodu":8274,"akiau":8275,"Ġnepaisant":8276,"ĠkÅ«rimo":8277,"pel":8278,"ĠperveÅ¾":8279,"Ġkonsulta":8280,"Ġtitu":8281,"Ġnud":8282,"Ġbuhal":8283,"ĠÅ¡aud":8284,"Ġstudijos":8285,"ÅłeÅ¡":8286,"Ġsakant":8287,"ĠpaskutinÄ¯":8288,"Ġmuziejuje":8289,"iro":8290,"Ġpriskir":8291,"tod":8292,"Ġpiliet":8293,"Ġinfo":8294,"Å¾iaus":8295,"ĠapaÄįi":8296,"ĠVien":8297,"Ġeleg":8298,"zel":8299,"Ġdiskut":8300,"Ġpaslaptis":8301,"ografijos":8302,"Å«kl":8303,"Ġbene":8304,"Ġveiklai":8305,"ĠrÅ«pintis":8306,"ĠmedÅ¾iagÄħ":8307,"ĠmokÄĹ":8308,"ĠBi":8309,"nios":8310,"ĠreikÅ¡mÄĹs":8311,"Nepaisant":8312,"tuzi":8313,"ĠRud":8314,"ĠGryb":8315,"iene":8316,"andos":8317,"pret":8318,"Ġeuro":8319,"Ġvisose":8320,"Ġfestivalis":8321,"Ġtenden":8322,"Ġaptik":8323,"ĠpolitikÄħ":8324,"Ġkitoje":8325,"ariÅ³":8326,"Ġbalta":8327,"gos":8328,"Ġplanavimo":8329,"Ġorganizuoti":8330,"ĠstiliÅ³":8331,"ĠÅ¡eimÄħ":8332,"Ġmu":8333,"Ġbalk":8334,"Ġstudentai":8335,"Ġkorup":8336,"Ġmedicin":8337,"ailes":8338,"ĠIS":8339,"Ġmobil":8340,"Ġvisuo":8341,"ĠasmeniÅ¡kai":8342,"darb":8343,"ork":8344,"Ġalerg":8345,"uojate":8346,"Ġvariantas":8347,"ha":8348,"toriumi":8349,"ĠsiÅ«loma":8350,"Ġatsinauj":8351,"ĠklaidÅ³":8352,"Rink":8353,"ĠpabrÄĹÅ¾ÄĹ":8354,"lic":8355,"ĠBirÅ¾":8356,"ĠaprÅ«p":8357,"Ġ=":8358,"ĠMi":8359,"Ġpatenka":8360,"ĠautoriÅ³":8361,"ĠvisuomenÄĹje":8362,"Ġtvenk":8363,"umoje":8364,"ails":8365,"ĠMic":8366,"gÄĹ":8367,"ĠatsakÄĹ":8368,"ieÄįiams":8369,"Nen":8370,"aiÅ¾":8371,"ĠsÄħraÅ¡as":8372,"ĠdrÄĹk":8373,"jose":8374,"ĠJuozas":8375,"tinimo":8376,"Ġoptimiz":8377,"Ġzon":8378,"sen":8379,"Å¡Ä®":8380,"ĠfilmÄħ":8381,"Ġpirmininko":8382,"Ġkun":8383,"ĠSav":8384,"Ġvardo":8385,"Bi":8386,"ĠiÅ¡min":8387,"Ġsvies":8388,"ĠpasiÅ«lÄĹ":8389,"Ġgili":8390,"Ġnegaliu":8391,"ĠAlgird":8392,"Å¾iÅ«ros":8393,"top":8394,"66":8395,"Pasku":8396,"ĠMarijos":8397,"ation":8398,"Ġspecif":8399,"ĠSocial":8400,"Ġfrak":8401,"Ġparke":8402,"Ġtab":8403,"ĠÅłvietimo":8404,"ĠkovÄħ":8405,"eÄį":8406,"Ġrudens":8407,"85":8408,"ĠdÅ¾iov":8409,"Ġnepil":8410,"ĠvÄĹjo":8411,"anso":8412,"Ned":8413,"Ġakimirk":8414,"ÑĮ":8415,"ontolog":8416,"tuku":8417,"tanijos":8418,"ĠneÄ¯tik":8419,"Å¡kÄĹs":8420,"ĠiÅ¡tekliÅ³":8421,"Ġesantis":8422,"ĠlaimÄĹti":8423,"ĠsavarankiÅ¡kai":8424,"nys":8425,"Ġmem":8426,"Pirmasis":8427,"Ġtirp":8428,"Å«v":8429,"Ġstraipsnis":8430,"Ġsekre":8431,"Ġrob":8432,"Ġpriklausomai":8433,"ĠRusijoje":8434,"tad":8435,"ĠMart":8436,"ĠparduotuvÄĹ":8437,"Ġrinkod":8438,"DA":8439,"ĠEr":8440,"Ġdeja":8441,"isl":8442,"jaus":8443,"ĠStan":8444,"ĠTelÅ¡iÅ³":8445,"ukui":8446,"ĠÅ¾iÅ«ri":8447,"organiz":8448,"iauti":8449,"Ġkieki":8450,"ĠateitÄ¯":8451,"ĠKalÄĹdÅ³":8452,"ĠKai":8453,"ienei":8454,"Ġgalioj":8455,"ĠlangÅ³":8456,"za":8457,"Ġdug":8458,"ĠtikslÄħ":8459,"Ġilgomis":8460,"echn":8461,"ĠamÅ¾iuje":8462,"ietÄĹs":8463,"Ġpaslauga":8464,"ĠpraÅ¡ymÄħ":8465,"ĠÅ¾enklo":8466,"ĠpasidÅ¾iaug":8467,"ango":8468,"Ġgitar":8469,"ĠplÄĹv":8470,"ĠnaujienÅ³":8471,"ĠduÅ¡":8472,"ĠiÅ¡veÅ¾":8473,"Ġentuzi":8474,"Progr":8475,"radic":8476,"ĠLenkijoje":8477,"ĠrenginÄ¯":8478,"arko":8479,"Mas":8480,"Ġtrem":8481,"ĠÄ¯vard":8482,"ĠspalvÄħ":8483,"lios":8484,"Ġpastebi":8485,"Ġpigi":8486,"Ġsukl":8487,"ĠTam":8488,"Ġmokslininkai":8489,"umat":8490,"ĠbaÅ¾nyÄįioje":8491,"Ġspecialistas":8492,"Ġakademijos":8493,"Ġabsoliu":8494,"Ġatsikr":8495,"ĠbÅ«klÄĹ":8496,"vÄħ":8497,"riau":8498,"Ġsukuria":8499,"AK":8500,"Ġ2002":8501,"ĠvertÄĻ":8502,"Ġliep":8503,"ĠmÄĹlyna":8504,"Arba":8505,"bia":8506,"Ġatsiv":8507,"ĠketvirtadienÄ¯":8508,"apie":8509,"ĠmokÄĹsi":8510,"ĠpaslaugÄħ":8511,"Ġgausu":8512,"Ġvadinasi":8513,"ĠRÅ«":8514,"Ġapdor":8515,"ĠOl":8516,"Ġdiagnoz":8517,"cho":8518,"ĠkreipÄĹsi":8519,"Ġvirtu":8520,"ĠÅ¾yg":8521,"ĠseniÅ«nijos":8522,"Ġkleb":8523,"ulius":8524,"ĠnuomonÄĹs":8525,"ill":8526,"49":8527,"Ġnomin":8528,"ĠNemun":8529,"aÅ¾ai":8530,"apl":8531,"ĠiÅ¡ei":8532,"Ġatrodyti":8533,"tenk":8534,"Ġ;":8535,"BirÅ¾":8536,"ĠThe":8537,"ĠpaÄįius":8538,"Ġkituose":8539,"ĠiÅ¡vaÅ¾i":8540,"ĠPrek":8541,"ojome":8542,"Ġtarnau":8543,"Ġ2019":8544,"Gyv":8545,"Å½aid":8546,"low":8547,"Ġlag":8548,"cas":8549,"Ġsoviet":8550,"Ġatvykti":8551,"ĠStas":8552,"Ġpopieriaus":8553,"Ġpasil":8554,"Ġliemen":8555,"fal":8556,"akiÅ³":8557,"Ġpastatyti":8558,"ĠpakeitÄĹ":8559,"ĠGraiki":8560,"ĠkelnÄĹs":8561,"inans":8562,"ĠlÅ«":8563,"ĠNepriklausom":8564,"ĠiÅ¡laidos":8565,"klis":8566,"Tink":8567,"Ġfunkcijos":8568,"Ġproto":8569,"ĠAustral":8570,"Ġdokumentai":8571,"ĠruoÅ¡i":8572,"ĠkeiÄįiasi":8573,"TauragÄĹs":8574,"Ġsmagu":8575,"ĠprocedÅ«ros":8576,"oft":8577,"Ġdraudimas":8578,"Skaityti":8579,"Ġrinkinys":8580,"Ġvyrams":8581,"ĠatveÅ¾":8582,"Ġkvar":8583,"erm":8584,"Ġalium":8585,"Ġapsaugo":8586,"Ġlyti":8587,"ĠKos":8588,"En":8589,"47":8590,"ĠBraz":8591,"ĠdetalÄĹs":8592,"Tiek":8593,"Ġakmens":8594,"Ġmatema":8595,"Å¡l":8596,"uliai":8597,"Ġakcent":8598,"ĠsuteikÄĹ":8599,"rie":8600,"Ġdanga":8601,"ĠPov":8602,"Ġpatogus":8603,"ĠpavadinimÄħ":8604,"Stat":8605,"Ġpyrag":8606,"oles":8607,"Ġvyn":8608,"ĠapÅ¾valg":8609,"Ġdizainas":8610,"Aud":8611,"Ġpatikrinti":8612,"uomenÄĹs":8613,"ure":8614,"tiÅ¡kÄħ":8615,"ĠkÅ«dik":8616,"Ab":8617,"ĠsusijÄĻs":8618,"ĠamÅ¾ius":8619,"tuko":8620,"Ġreikalavimai":8621,"Ġdem":8622,"PR":8623,"ĠiÅ¡sirinkti":8624,"Ġkomisari":8625,"ĠnetikÄĹtai":8626,"ĠpriÄĹmimo":8627,"Ġpalaiko":8628,"ĠsavybÄĹs":8629,"ĠkliÅ«":8630,"Ġrefer":8631,"Ġtikslais":8632,"ĠvieÅ¡osios":8633,"Spalio":8634,"ĠDov":8635,"kÅ¡Äįiai":8636,"Ġpoveikis":8637,"ĠBendr":8638,"ĠÄ¯vairiose":8639,"ando":8640,"agos":8641,"Ġnusipirkti":8642,"ĠiÅ¡siaiÅ¡kinti":8643,"liukas":8644,"uotojai":8645,"âĢľ).":8646,"tet":8647,"ÄĹto":8648,"ĠtaurÄĹs":8649,"Ġaptarnavimo":8650,"ĠGedimino":8651,"Ġniekam":8652,"ĠÄ¯spÅ«dÄ¯":8653,"Ġkyl":8654,"ĠreikÅ¡mÄĻ":8655,"Ġpartija":8656,"Ġfantas":8657,"Ġpatirti":8658,"Ġakimis":8659,"Ġatstum":8660,"Ġskiriama":8661,"ĠÅ¾aidÄĹ":8662,"2009":8663,"tiÅ¡ki":8664,"Ġfili":8665,"oliÅ³":8666,"Projekto":8667,"uÄįio":8668,"Ġding":8669,"ĠGintar":8670,"Ġlinija":8671,"uotÄĻ":8672,"ĠkarjerÄħ":8673,"iÅ¡kumo":8674,"Ġryte":8675,"pard":8676,"Ġprodukto":8677,"Ġheroj":8678,"ĠjÅ«rÅ³":8679,"ĠÅ¾odÄ¯":8680,"Äģ":8681,"Ġmaloniai":8682,"ÄĹnas":8683,"Ġpark":8684,"Ġei":8685,"ĠpraneÅ¡ime":8686,"ĠakcijÅ³":8687,"enkia":8688,"TÄĹv":8689,"Ġdeleg":8690,"ĠprisidÄĹti":8691,"org":8692,"peln":8693,"Ġindus":8694,"Ġambasad":8695,"tÄĹsi":8696,"Ġatein":8697,"epia":8698,"Ġkondicion":8699,"indow":8700,"inukai":8701,"Ġplanus":8702,"ĠparÄħ":8703,"aujanÄįiÅ³":8704,"Ġmato":8705,"Pati":8706,"ĠvieÅ¡Å³jÅ³":8707,"Ġteras":8708,"ĠEm":8709,"Ġspin":8710,"Ġangl":8711,"ĠiÅ¡girsti":8712,"ĠAuÅ¡":8713,"rijoje":8714,"ykÅ¡ÄįiÅ³":8715,"ĠpareigÅ³":8716,"Ġinicij":8717,"Ġik":8718,"Tokie":8719,"Ġatim":8720,"Ġå":8721,"Ġodai":8722,"Ġtechnologija":8723,"Vilk":8724,"Ġpatekti":8725,"ĠKol":8726,"ulys":8727,"Ġpotencial":8728,"ĠbÅ«klÄĻ":8729,"Stud":8730,"ĠRase":8731,"ĠdavÄĹ":8732,"Ġsumon":8733,"ĠiÅ¡sami":8734,"Ġ2001":8735,"Å«ris":8736,"ĠsumokÄĹti":8737,"Å«rÄħ":8738,"ĠrÅ«Å¡is":8739,"nauj":8740,"eguli":8741,"Ġpatalpos":8742,"Ta":8743,"Ã¡":8744,"Ġkliento":8745,"Ġgrie":8746,"Ġ<":8747,"tojais":8748,"Ð²":8749,"Ġfakult":8750,"Ġisp":8751,"NÄĹra":8752,"Ġprojektai":8753,"ĠEsti":8754,"Ġekstrak":8755,"ĠpaslÄĹp":8756,"CO":8757,"Ġdruskos":8758,"ĠMyk":8759,"Ġatsiras":8760,"Ġoficialiai":8761,"ĠsmegenÅ³":8762,"alyje":8763,"Ġrenov":8764,"Ġinterpret":8765,"ĠjudÄĹjimo":8766,"Ġsusiform":8767,"ĠtikÄĹjimo":8768,"Ġjubiliej":8769,"ĠmoksleiviÅ³":8770,"Nuos":8771,"vira":8772,"kÄĹs":8773,"Ġvairavimo":8774,"tusi":8775,"Ġnuotr":8776,"jei":8777,"Ġugni":8778,"ĠkarÄħ":8779,"uodavo":8780,"ĠgeleÅ¾inkelio":8781,"ĠkomandÅ³":8782,"usieji":8783,"Ġnesuk":8784,"Ġpip":8785,"teko":8786,"Ġgyvenimui":8787,"Atl":8788,"ĠpastebÄĹti":8789,"Ġbiblioteka":8790,"Ġbron":8791,"Ġtvirtina":8792,"Ġgaiv":8793,"Ġtaikyti":8794,"uojanÄįios":8795,"ĠnorÄĹÄįiau":8796,"Ġfl":8797,"ĠparaÅ¡ÄĹ":8798,"Ġgydymas":8799,"ĠÄ¯vairaus":8800,"omet":8801,"ĠÅ¾enklÅ³":8802,"aub":8803,"Ġdaugeliui":8804,"telÄĹjo":8805,"ĠvieÅ¡buÄįio":8806,"78":8807,"ĠÅłim":8808,"Ġprofesorius":8809,"Ġvaiki":8810,"ĠÅ½emai":8811,"Ġpakeitimo":8812,"ytojus":8813,"anitar":8814,"Ġged":8815,"ĠNiujor":8816,"Ġvadovavo":8817,"ĠtreÄįiadienÄ¯":8818,"Ġetapas":8819,"utr":8820,"Ġmokiniams":8821,"Ġgamintojai":8822,"telio":8823,"Ġkiekio":8824,"Ġvakaro":8825,"taÅ¾od":8826,"Ġpastab":8827,"ĠpokyÄįiÅ³":8828,"tukai":8829,"ybas":8830,"FI":8831,"Ġnuom":8832,"Ġkomfor":8833,"Ġnusiteik":8834,"Ġfotografijos":8835,"Ġmaz":8836,"elo":8837,"Ġgalioja":8838,"arv":8839,"Å¡kumÄħ":8840,"2008":8841,"Ġverslui":8842,"tingos":8843,"Ġapsir":8844,"Anks":8845,"Ġnuotrauka":8846,"ĠÄ¯renginiÅ³":8847,"ĠvakarÅ³":8848,"ĠnepriklausomybÄĹs":8849,"ÄĹmimo":8850,"Ġ120":8851,"tun":8852,"ĠÄ¯gÅ«dÅ¾iÅ³":8853,"Ġgalvoti":8854,"ĠkariÅ³":8855,"Ġpuik":8856,"Trump":8857,"ĠrezultatÄħ":8858,"Puikiai":8859,"('":8860,"Ġklavi":8861,"Ġprojekte":8862,"alizacijos":8863,"Ġplanas":8864,"ĠiÅ¡rad":8865,"uojamÄħ":8866,"Ġesantys":8867,"Å«kis":8868,"raÅ¾i":8869,"ĠparduotuvÄĹse":8870,"Ġtelk":8871,"Ġversija":8872,"Ġsakoma":8873,"42":8874,"Ġperm":8875,"ĠJis":8876,"Ġketuris":8877,"Kiti":8878,"Ġveda":8879,"Ġminti":8880,"ĠiÅ¡tis":8881,"ĠprekÄĻ":8882,"orÄħ":8883,"Gim":8884,"Ġsvarbiausias":8885,"metÄĹ":8886,"ĠraÅ¡tu":8887,"Ġlaure":8888,"acijose":8889,"ĠIT":8890,"Ġregistracijos":8891,"Ġmumis":8892,"enoje":8893,"Ġuniversitetas":8894,"Ġnaftos":8895,"TreÄįi":8896,"audami":8897,"Diev":8898,"ĠdviraÄįiÅ³":8899,"Ġparama":8900,"Ġparapijos":8901,"Ġprisijungti":8902,"ĠryÅ¡ius":8903,"tuos":8904,"ml":8905,"KvieÄįiame":8906,"46":8907,"ryÅ¡k":8908,"ĠJoh":8909,"Ġstand":8910,"Ġsektori":8911,"ĠmokestÄ¯":8912,"aidas":8913,"indavo":8914,"uolius":8915,"teles":8916,"kiau":8917,"Ketvir":8918,"ĠAustri":8919,"gip":8920,"ĠdÅ¾iaugtis":8921,"Ġarki":8922,"ĠmaÅ¾y":8923,"Ġceremon":8924,"Ġfr":8925,"ĠpoÅ¾iÅ«rÄ¯":8926,"ĠÅ¡venÄįiÅ³":8927,"Ġsalos":8928,"Ġchirurg":8929,"iesti":8930,"ĠRaudon":8931,"ĠÅ¡altiniÅ³":8932,"Ġjaustis":8933,"ĠvestuviÅ³":8934,"ĠstraipsniÅ³":8935,"Ġsurinkti":8936,"ĠnamÄħ":8937,"ĠnesÄĹkm":8938,"ĠDrusk":8939,"ĠpasiraÅ¡ÄĹ":8940,"ĠpraneÅ¡imÄħ":8941,"ĠIlg":8942,"Ġsutuok":8943,"ĠvienintelÄĹ":8944,"ĠtÄĹvams":8945,"ĠvalstybinÄĹs":8946,"uosiuose":8947,"Ġsituacijos":8948,"esne":8949,"ĠrieÅ¡u":8950,"Ġpavaduotojas":8951,"ĠTomas":8952,"tvar":8953,"Ġdaina":8954,"Ġkvad":8955,"ĠkaÅ¾ko":8956,"Tu":8957,"ĠÅ¾aidÄĹjÅ³":8958,"Ġ600":8959,"udo":8960,"ice":8961,"LapkriÄįio":8962,"Ġmlrd":8963,"Ä®vai":8964,"ĠneaiÅ¡k":8965,"ĠRomos":8966,"Ġmaitinimo":8967,"Ġro":8968,"ĠiÅ¡augo":8969,"ĠMich":8970,"yj":8971,"ĠDid":8972,"ytais":8973,"ĠapÅ¾iÅ«r":8974,"ĠsÄħjunga":8975,"ĠRoki":8976,"Ġkreipi":8977,"apar":8978,"Ġpastatas":8979,"tiesiems":8980,"Ġsa":8981,"ĠrungtynÄĹse":8982,"ĠÄ¯prasta":8983,"Ġgynybos":8984,"icial":8985,"Ġprik":8986,"Ġasociacija":8987,"ĠÅ¡ou":8988,"ĠlopÅ¡":8989,"»¿":8990,"Â®":8991,"ĠrytÅ³":8992,"ilius":8993,"ĠkultÅ«rÄħ":8994,"Ġlaisvalaikio":8995,"Ġvisgi":8996,"lug":8997,"Ġvyno":8998,"etend":8999,"Ġsalo":9000,"Ġaukl":9001,"tÅ«ras":9002,"usiais":9003,"Ġasmeniui":9004,"ĠkraÅ¡tas":9005,"eliuose":9006,"acijomis":9007,"Ġnesik":9008,"Ġmui":9009,"virÅ¡":9010,"Ġbij":9011,"Ġanot":9012,"ĠBen":9013,"Ġstamb":9014,"ĠminÄįiÅ³":9015,"86":9016,"Mums":9017,"Rekomend":9018,"Ġekspozi":9019,"ala":9020,"Ġilgaam":9021,"Ġakys":9022,"Ġpalank":9023,"Ġatnaujinti":9024,"Ġsaugoti":9025,"ï»¿":9026,"Ġstadi":9027,"ĠpaaiÅ¡kÄĹjo":9028,"ĠgyvybÄĹs":9029,"ĠBo":9030,"',":9031,"ĠBelg":9032,"ÄĹnai":9033,"ĠEk":9034,"ĠLu":9035,"ĠreiktÅ³":9036,"Ġatsakingas":9037,"kiuose":9038,"ovus":9039,"Ġno":9040,"Ġmatome":9041,"ĠerdvÄĻ":9042,"ĠTaip":9043,"Ġneabejo":9044,"ĠgraÅ¾u":9045,"ĠÅ¾valg":9046,"ĠvaizdÄħ":9047,"Ġpastatyta":9048,"Ġrimtai":9049,"ĠuÅ¾trauk":9050,"ĠlankytojÅ³":9051,"ĠSer":9052,"Ġdarbams":9053,"Ġnemalon":9054,"ĠÅ¡ach":9055,"Å¡ku":9056,"ĠÅ¾inia":9057,"ĠskyrÄĹ":9058,"ĠdrabuÅ¾iai":9059,"ĠVI":9060,"Ġbed":9061,"ĠmuziejÅ³":9062,"anks":9063,"ĠtarptautiniÅ³":9064,"Ġapv":9065,"Ġmiestus":9066,"Ġnario":9067,"Ġvamzd":9068,"Ġlai":9069,"Ġaplinkai":9070,"Ġpozityv":9071,"telÄ¯":9072,"ovietÅ³":9073,"Ġrenginiai":9074,"Ġkambaryje":9075,"Ġrizik":9076,"Ġda":9077,"alos":9078,"ĠLaur":9079,"ĠKup":9080,"aisto":9081,"ĠBritanijos":9082,"DÄĹv":9083,"ĠGir":9084,"Ġnuosek":9085,"ĠsÄħraÅ¡e":9086,"ĠmodeliÅ³":9087,"akos":9088,"tÄħjÄħ":9089,"ĠÄ¯monÄĹms":9090,"ĠvisuomenÄĹ":9091,"ĠjÄĹgas":9092,"ĠDai":9093,"apo":9094,"Ġprogimnaz":9095,"ĠmaÅ¾Å³":9096,"meninÄĹ":9097,"Ġtikros":9098,"Ġnurodyta":9099,"Ġbiuro":9100,"ĠiÅ¡ÄĹjo":9101,"ĠvÄĹÅ¾":9102,"Ġciviliz":9103,"ĠIR":9104,"tiniuose":9105,"ĠkatalikÅ³":9106,"Ġpiev":9107,"Ġniekaip":9108,"virat":9109,"Ġapyk":9110,"Skait":9111,"Ġpavid":9112,"ĠSan":9113,"Ġseksas":9114,"onais":9115,"ĠEstijos":9116,"uolÄĹ":9117,"Ġharmon":9118,"tieji":9119,"ĠkambarÄ¯":9120,"Ġskelbimai":9121,"Ġbibliotekoje":9122,"Ġpatogiai":9123,"Ġbankas":9124,"Ġperduoti":9125,"ĠUkmergÄĹs":9126,"Ġaliejaus":9127,"Vaikai":9128,"IJA":9129,"Ġsodo":9130,"Ġinterviu":9131,"Ġspausdin":9132,"aps":9133,"Åłven":9134,"antus":9135,"ĠpatyrÄĹ":9136,"rios":9137,"ÄĹbul":9138,"Lik":9139,"OJ":9140,"dis":9141,"Ġautomobilius":9142,"ciniÅ³":9143,"Ġdekoratyv":9144,"Ġskard":9145,"ĠuÅ¾sakymÄħ":9146,"ĠÅ¾ingsnis":9147,"Du":9148,"ĠsaugumÄħ":9149,"Ġgeriausius":9150,"ĠMaskvos":9151,"Ġprotok":9152,"Ġnesusi":9153,"azo":9154,"soci":9155,"ĠVlad":9156,"skio":9157,"Ġaz":9158,"Rad":9159,"Ġdidinti":9160,"Ġvalstybei":9161,"ĠlaimÄĹs":9162,"ĠÄ¯sikÅ«rusi":9163,"ĠPalangos":9164,"tuoja":9165,"imantas":9166,"ĠpapildomÄħ":9167,"ĠAugus":9168,"Ġkojos":9169,"ĠnuoÅ¡ird":9170,"dÅ¾iais":9171,"yro":9172,"ĠdvideÅ¡imt":9173,"Gar":9174,"verÅ¾":9175,"Ġdvy":9176,"Ġnusk":9177,"ĠvirÅ¡k":9178,"Ġmokytojas":9179,"Ġgeriausi":9180,"Ġpatogi":9181,"Ġledo":9182,"Ġbo":9183,"Ġpraktikos":9184,"ĠpareigÅ«nÅ³":9185,"Ġrekord":9186,"Ġkategorijoje":9187,"Ġsocialdemokr":9188,"Ġtreneris":9189,"ĠiÅ¡val":9190,"MI":9191,"Ġliudij":9192,"ĠasmenybÄĹs":9193,"Ġpelno":9194,"Ġautomobiliu":9195,"ĠiÅ¡sp":9196,"Ġpolitikai":9197,"ormon":9198,"Ġpagrindo":9199,"ĠvyriausybÄĹs":9200,"Ġkova":9201,"Ġsimbo":9202,"63":9203,"Ġsusitikimas":9204,"Ġakumuli":9205,"Ġnutrauk":9206,"Ġvykti":9207,"tingo":9208,"ĠmaÅ¡inos":9209,"verti":9210,"Ġsuo":9211,"Ġanalog":9212,"Ġtamsi":9213,"ĠNaujienos":9214,"Ph":9215,"Im":9216,"Ġparodo":9217,"Ġbev":9218,"eÅ¡io":9219,"Ġmatosi":9220,"Ġnustatytas":9221,"palv":9222,"ĠÅ¾an":9223,"ĠslÄĹ":9224,"Ġkokias":9225,"Ġsunkiau":9226,"inome":9227,"Ġ//":9228,"Ġkraujagys":9229,"atyti":9230,"ĠÄ¯sikÅ«rÄĻs":9231,"Ä®mon":9232,"Ġlazd":9233,"ĠpirmadienÄ¯":9234,"Ġing":9235,"ulteto":9236,"Ġpristato":9237,"ĠÄ¯vykio":9238,"kiui":9239,"Ġvertinti":9240,"ĠbÅ«damas":9241,"Klaus":9242,"Ġdepres":9243,"idÄĹs":9244,"Koki":9245,"Laim":9246,"ausiasis":9247,"Ġstum":9248,"LietuviÅ³":9249,"ace":9250,"ĠiÅ¡sisk":9251,"ĠdÅ¾iaugi":9252,"ĠiÅ¡leis":9253,"Ġmotina":9254,"ĠemocijÅ³":9255,"tingumo":9256,"IeÅ¡k":9257,"MiÅ¡":9258,"antaz":9259,"ĠsenovÄĹs":9260,"ĠpajÄĹgÅ³":9261,"ulÄ¯":9262,"egu":9263,"ĠfinansiniÅ³":9264,"Ġster":9265,"ĠtautÅ³":9266,"Ġefektyviai":9267,"Ġperl":9268,"Svarbiausia":9269,"Ġle":9270,"Ġlietaus":9271,"Ġsusidar":9272,"ĠsvarbÅ«s":9273,"rinÄĹs":9274,"Ġnepatog":9275,"ĠsumaÅ¾ÄĹjo":9276,"Ġkryptimi":9277,"uotai":9278,"Ġkontein":9279,"Ġnusikalst":9280,"Â¬":9281,"Ġsergan":9282,"Ġklausimu":9283,"ĠvieÅ¡buÄįiÅ³":9284,"uval":9285,"kie":9286,"Ġaugimo":9287,"Ġsampr":9288,"mar":9289,"Ġvientis":9290,"Ġpasitaiko":9291,"Ġvisam":9292,"Ġatliekamas":9293,"Ġgies":9294,"ĠVol":9295,"aciniÅ³":9296,"ĠBritan":9297,"Ġarti":9298,"pild":9299,"ment":9300,"ĠpasivaikÅ¡Äįi":9301,"inÄĹjimo":9302,"bio":9303,"ĠBalta":9304,"Ġprod":9305,"ess":9306,"Mod":9307,"Ġsandar":9308,"ĠvirÅ¡uje":9309,"ĠiÅ¡kilm":9310,"ĠMaÅ¾eikiÅ³":9311,"ĠantradienÄ¯":9312,"Ġstilius":9313,"Ġdiagnos":9314,"ĠatsakomybÄĻ":9315,"Ġ250":9316,"ĠperÅ¾iÅ«r":9317,"Ġvakarus":9318,"Ġsusitikimo":9319,"jomis":9320,"AP":9321,"paÅ¡":9322,"Ġapsup":9323,"Ġkiekvienos":9324,"ĠinteresÅ³":9325,"gais":9326,"ĠEx":9327,"ĠpaÄįioje":9328,"ĠnereikÄĹtÅ³":9329,"ĠPaul":9330,"ĠidÄĹjÄħ":9331,"ĠRober":9332,"ren":9333,"stant":9334,"Ġtikslo":9335,"Ġprasi":9336,"Ġtauta":9337,"Ġmokestis":9338,"yja":9339,"Ġprievar":9340,"albÄĹti":9341,"idÅ³":9342,"ĠvedÄĹ":9343,"Ġport":9344,"ĠÄ¯ves":9345,"Ġsutiko":9346,"age":9347,"Ġvandenyje":9348,"iame":9349,"tÄĹja":9350,"ĠbaltymÅ³":9351,"Ġnuolatos":9352,"AnksÄįiau":9353,"Ġpastatytas":9354,"ĠÅ¾ygi":9355,"Ġuol":9356,"Ġsudaryta":9357,"Kam":9358,"ĠpaukÅ¡ÄįiÅ³":9359,"Ġdraus":9360,"ters":9361,"usti":9362,"ĠÄ¯sid":9363,"Penk":9364,"Ġmineral":9365,"aÅ¡k":9366,"Ġseg":9367,"Ġgreta":9368,"enkite":9369,"ĠnaudÄħ":9370,"ode":9371,"JÄ¯":9372,"ĠÄ¯man":9373,"ĠpasiÅ«lymÅ³":9374,"erÄĹ":9375,"Ġtikisi":9376,"Ġsvoris":9377,"2007":9378,"Ġturtas":9379,"enkti":9380,"ze":9381,"Ġpasidalinti":9382,"iÅ¡kus":9383,"ĠdÅ¾ins":9384,"ĠBul":9385,"Gerai":9386,"Ġscenos":9387,"ĠÅª":9388,"ĠspustelÄĹkite":9389,"Å«nÄħ":9390,"Ġtechnologijas":9391,"ĠnagrinÄĹj":9392,"ĠamÅ¾iÅ³":9393,"Ġdalyviams":9394,"Ġlanks":9395,"ĠiÅ¡ryÅ¡k":9396,"Ġkonkurenc":9397,"ĠBud":9398,"ĠÄ¯statymÄħ":9399,"Ġsiur":9400,"ĠnereiÅ¡kia":9401,"Ġgyventojus":9402,"Ġbatai":9403,"Ġkomandai":9404,"ĠvamzdÅ¾i":9405,"Ġdalyvaus":9406,"Ġrengia":9407,"Ġfakulteto":9408,"ĠAu":9409,"ĠkraÅ¡te":9410,"entili":9411,"ĠstraipsnÄ¯":9412,"liuko":9413,"ĠsuraÅ¡":9414,"Ġskausmas":9415,"Ġekrano":9416,"ĠÄ¯domus":9417,"Ġesanti":9418,"Ġpapro":9419,"Ġnariams":9420,"ĠsÄħskaitÄħ":9421,"otos":9422,"irti":9423,"Ġparodoje":9424,"ĠKÄĹdainiÅ³":9425,"ĠLED":9426,"torijos":9427,"ĠÅłilutÄĹs":9428,"ger":9429,"vyskup":9430,"tÅ³si":9431,"ĠinkstÅ³":9432,"Ġkone":9433,"Ġnumeris":9434,"Ġnupl":9435,"ĠðŁĻĤ":9436,"ĠtarptautinÄĹs":9437,"ĠÄ¯vaizd":9438,"Ġkategorijos":9439,"Ġtradicijas":9440,"ĠLie":9441,"Ġsistemas":9442,"Ġpietus":9443,"Ġpomid":9444,"Ġrinkimuose":9445,"Ġnebuv":9446,"Ġjaud":9447,"Å«dis":9448,"Ġaudinio":9449,"tojÄħ":9450,"Ġnurodo":9451,"PirmÄħ":9452,"kÄ¯":9453,"Å¡a":9454,"ĠveikÄĹjas":9455,"yklinio":9456,"ĠuÅ¾duo":9457,"Ġ46":9458,"ĠpraÅ¡ome":9459,"Ġteigiama":9460,"Ġtrumpai":9461,"ĠMol":9462,"ĠpolitinÄĹs":9463,"och":9464,"ĠfunkcijÄħ":9465,"Ġperdavimo":9466,"Ġsuprato":9467,"audÅ³":9468,"andas":9469,"Ġnesib":9470,"ĠÅ¾alos":9471,"Ġvadina":9472,"Ġ!":9473,"ĠÅłveicar":9474,"Äįiomis":9475,"PraÅ¡":9476,"ĠsmÅ«":9477,"ĠÄ¯gÅ«dÅ¾ius":9478,"ĠpraneÅ¡a":9479,"ĠiÅ¡leisti":9480,"Ġsupratau":9481,"Ġkonkursas":9482,"ĠakivaizdÅ¾i":9483,"Ġteritorija":9484,"ĠrinkÄħ":9485,"ĠÅ¡nek":9486,"ĠvirÅ¡u":9487,"Ġduoda":9488,"amÄħjÄħ":9489,"vesti":9490,"Ġdalij":9491,"alik":9492,"Ġatitinkamai":9493,"cs":9494,"ĠarÄįiau":9495,"Ġrestau":9496,"ĠvedÄĹjas":9497,"Â²":9498,"ĠpenkiÅ³":9499,"Supr":9500,"ĠvertybiÅ³":9501,"okyb":9502,"Ġnamie":9503,"Å£":9504,"ĠNU":9505,"Ġnustato":9506,"iat":9507,"Ġtarpe":9508,"Gyd":9509,"Tar":9510,"ĠÄ¯rengta":9511,"insite":9512,"ĠÅ¾iÅ«rovÅ³":9513,"ĠvaldÅ¾iÄħ":9514,"Ġkran":9515,"Ġtiekimo":9516,"ijoms":9517,"enu":9518,"ĠÅ¡uo":9519,"Ġvartotojams":9520,"tiesi":9521,"aiÅ¡i":9522,"Ġuostas":9523,"Ġneber":9524,"ĠryÅ¡k":9525,"bas":9526,"van":9527,"ĠteritorijÅ³":9528,"Ġsnieg":9529,"toju":9530,"ĠPlung":9531,"Ġpli":9532,"Ġtinklap":9533,"ienÄĻ":9534,"ĠÅ¡irdÄ¯":9535,"Ġplauki":9536,"Ġvili":9537,"ĠÅ¡viesi":9538,"ĠgiminÄĹs":9539,"Ġpradedant":9540,"ĠparaÅ¡yti":9541,"Ġmintys":9542,"ĠBerl":9543,"Ġdideliu":9544,"Ġduonos":9545,"Ġpolicija":9546,"ĠparduotuviÅ³":9547,"ĠneleidÅ¾ia":9548,"UN":9549,"ĠvÄĹli":9550,"tuviÅ³":9551,"ĠJurg":9552,"zos":9553,"ĠgÄĹl":9554,"Ġgai":9555,"ĠlankÄĹsi":9556,"ĠBaltarusijos":9557,"ĠDalia":9558,"Ġpraktika":9559,"Ġlaz":9560,"Ġsektoriaus":9561,"ĠMak":9562,"varg":9563,"ĠÅ¾inomi":9564,"ĠidÄĹjas":9565,"Ġnej":9566,"ĠDarb":9567,"lotis":9568,"ĠsveÄįiams":9569,"Ġsaugiai":9570,"Ġpastaruosius":9571,"Ġpavyks":9572,"ĠpozicijÄħ":9573,"ĠpamirÅ¡ti":9574,"Ġvik":9575,"Ġnav":9576,"Ġskil":9577,"RugsÄĹjo":9578,"isto":9579,"iausios":9580,"tuÅ¡":9581,"ĠsvetainÄĹ":9582,"Vos":9583,"Ġsuded":9584,"Ġac":9585,"Ġbio":9586,"Ġfab":9587,"Ġpriima":9588,"à¸":9589,"ĠiÅ¡vys":9590,"metis":9591,"ĠbritÅ³":9592,"ĠÄĹjo":9593,"ĠIN":9594,"Ġuz":9595,"ĠtipÅ³":9596,"ĠVieÅ¡pa":9597,"Äįiama":9598,"Ġauten":9599,"ĠDub":9600,"ĠsukÄĹlÄĹ":9601,"ĠnatÅ«raliai":9602,"ĠturinÄįiÅ³":9603,"Ġgaminiai":9604,"ĠÅ¾inome":9605,"Ġatskleisti":9606,"Ġapsilankyti":9607,"Ġkantr":9608,"Tie":9609,"sniui":9610,"ĠnuoÅ¡irdÅ¾iai":9611,"Ġkaz":9612,"Ġdarbuotojas":9613,"SK":9614,"ats":9615,"ulkiÅ³":9616,"ĠnuotekÅ³":9617,"ĠÅ¡lapimo":9618,"Ġbendrojo":9619,"tÅ«rÄħ":9620,"ĠkruopÅ¡Äįiai":9621,"ĠKretingos":9622,"ĠDv":9623,"Ġ85":9624,"Ġsudeg":9625,"indows":9626,"Di":9627,"ĠkompiuteriÅ³":9628,"Ġtaikoma":9629,"usiai":9630,"Ġskraid":9631,"ĠRy":9632,"ĠkonkursÄħ":9633,"Äįiamas":9634,"ĠfunkcijÅ³":9635,"Ġpatalpas":9636,"Ġklij":9637,"Pras":9638,"ĠNik":9639,"ĠbaltÅ³":9640,"ĠprieÅ¡ingai":9641,"ĠMad":9642,"Ġsuprantama":9643,"ĠÅłiauliuose":9644,"ĠIspanijos":9645,"ĠkÅ«diki":9646,"asario":9647,"Ġskyl":9648,"Ġgrupei":9649,"VienÄħ":9650,"ĠÅ¾aidÅ¾i":9651,"ĠskaiÄįiaus":9652,"ĠautobusÅ³":9653,"ĠskonÄ¯":9654,"Ġpateikiama":9655,"ĠrÅ«Å¡ies":9656,"Ġgamintojo":9657,"Ġ?":9658,"Ġvairuotojas":9659,"Ġbendrov":9660,"Sut":9661,"ĠpuÅ¡":9662,"Ġpadeng":9663,"Ġketurias":9664,"gres":9665,"Ġpriskiri":9666,"Ġprofi":9667,"Ġpipir":9668,"Ġatrankos":9669,"ĠpradÄĹjau":9670,"Ġkelti":9671,"Ġmenk":9672,"Ġscenoje":9673,"Ġkirp":9674,"Ġmyli":9675,"Ġrengti":9676,"Ġ--":9677,"fa":9678,"Ġdaugelyje":9679,"Å¾inau":9680,"ĠÄ¯rengtas":9681,"ĠmilijonÅ³":9682,"uka":9683,"Ġsutaupyti":9684,"use":9685,"ĠbÅ«tinas":9686,"Ġdeko":9687,"Ġsavininkas":9688,"ĠmaÅ¾esnis":9689,"Ġsuvoki":9690,"Ġdvirat":9691,"ĠÅ¡uk":9692,"ĠpaaiÅ¡kinti":9693,"ĠpopuliariausiÅ³":9694,"VP":9695,"onijos":9696,"ĠdÅ¾iaugiasi":9697,"ĠveidÄħ":9698,"Ġkvalifikacijos":9699,"ĠÄ¯vykius":9700,"Ġhormon":9701,"ĠtÄĹvo":9702,"Ġplaukai":9703,"Ġelementai":9704,"ĪĴ":9705,"ĠesanÄįios":9706,"oper":9707,"ymuose":9708,"ĠKomisijos":9709,"Pasirink":9710,"ĠmaÅ¡ina":9711,"ĠÄ¯sakymu":9712,"Ġskyd":9713,"kiteis":9714,"Ġanim":9715,"Ġatsako":9716,"ĠiÅ¡siskiria":9717,"Ġ1990":9718,"Ġdemonstr":9719,"ÄħsteliÅ³":9720,"ĠÅ¡uni":9721,"ĠapsaugÄħ":9722,"OD":9723,"damos":9724,"ĠCon":9725,"Ġpilna":9726,"ĠpasirinkimÄħ":9727,"ĠÅ¾irg":9728,"Ġnekilnojamojo":9729,"ĠplaÄįi":9730,"Ġtoler":9731,"erijoje":9732,"ĠSeime":9733,"ĠAntr":9734,"Ġpails":9735,"ands":9736,"Tarptau":9737,"ĠdÄĹÅ¾ÄĹ":9738,"Ġsuteiktas":9739,"ĠkaÅ¾kaip":9740,"Ġugnies":9741,"Ġkonferencijoje":9742,"ĠrÅ«mai":9743,"intus":9744,"ĠlÄĹÅ¡omis":9745,"ĠsmÄĹlio":9746,"ĠnuosavybÄĹs":9747,"ĠÅ¾aidÄĹjai":9748,"ĠkaÅ¡":9749,"Ġsubti":9750,"ĠKub":9751,"ĠneÅ¡ioti":9752,"ojamas":9753,"tintas":9754,"Plan":9755,"Sc":9756,"Ġapkr":9757,"Ġzonos":9758,"Ġelas":9759,"Ġpasirinkimo":9760,"Ġskamba":9761,"osioms":9762,"Kovo":9763,"Ġgy":9764,"Ġpsicho":9765,"cinio":9766,"Ġgrupes":9767,"Ġstiprus":9768,"slas":9769,"Ġlaikomi":9770,"Ġbendravimo":9771,"Ġatrink":9772,"ĠpartneriÅ³":9773,"uolaiki":9774,"Ġpaskirtas":9775,"auliÅ³":9776,"ĠuÅ¾sisakyti":9777,"ĠpolitiniÅ³":9778,"ĠjausmÄħ":9779,"enÄįia":9780,"ĠdidÅ¾ioji":9781,"Ġsavanori":9782,"olÄ¯":9783,"Ġrankose":9784,"ĠteritorijÄħ":9785,"ĠtrokÅ¡":9786,"ĠaiÅ¡kino":9787,"ĠGro":9788,"Å½od":9789,"43":9790,"Ġarbatos":9791,"ĠÄ¯teik":9792,"ĠbÄĹd":9793,"Ġatvaizd":9794,"ecial":9795,"ĠÄ¯raÅ¡Å³":9796,"ojÄĻ":9797,"Nauja":9798,"ĠneiÅ¡vengi":9799,"Ġlyderis":9800,"Ġteksto":9801,"Ġvan":9802,"Ġribos":9803,"Ġdav":9804,"ĠVarÅ¡":9805,"Ġlaikinai":9806,"Ġ43":9807,"OP":9808,"tynÅ³":9809,"âĢľ),":9810,"egul":9811,"Ġturinti":9812,"Ġverslas":9813,"ÄĹjom":9814,"Ġpaspaud":9815,"Ġadministravimo":9816,"ovok":9817,"Ġnuobod":9818,"Ġrenginius":9819,"ĠrinktinÄĹ":9820,"ost":9821,"ĠuÅ¾sim":9822,"ĠgreiÄįio":9823,"eliams":9824,"ĠbaÅ¾nyÄįiÄħ":9825,"Ġfer":9826,"Galiausiai":9827,"ĠpavirÅ¡ius":9828,"ĠkalÄĹd":9829,"ĠkoÅ¡":9830,"Ġsvetim":9831,"Ġban":9832,"Ġgaben":9833,"ĠdrÄĹgmÄĹs":9834,"58":9835,"Ġsprendimu":9836,"ĠÄ¯kÅ«rÄĹ":9837,"Grup":9838,"Ġveterinarijos":9839,"ĠJei":9840,"ambi":9841,"ĠpripaÅ¾ino":9842,"ĠpasikeitÄĹ":9843,"ĠlinkÄĻ":9844,"ĠÅ¾mogumi":9845,"Ġanksti":9846,"Kaz":9847,"ĠAlgirdas":9848,"ĠsveÄįius":9849,"ĠuÅ¾kand":9850,"ĠporeikiÅ³":9851,"ĠpanaÅ¡aus":9852,"ĠPoli":9853,"Å¡as":9854,"Ġpagerb":9855,"unt":9856,"Ġkontroliuoti":9857,"Ġskausmo":9858,"ĠTi":9859,"auskite":9860,"ey":9861,"Ġlikti":9862,"EG":9863,"ĠÅ¾odÅ¾iu":9864,"ĠÄ¯kurtas":9865,"Ind":9866,"Ġprijung":9867,"esiu":9868,"ologas":9869,"ĠÅ¾emÄĹ":9870,"angoje":9871,"Ġskiriamas":9872,"Ġfol":9873,"ĠAG":9874,"Ġrado":9875,"Ġturnyro":9876,"Ġvisoki":9877,"Ġnebeg":9878,"ĠaukÅ¡tas":9879,"Ġgiliai":9880,"orÄ¯":9881,"ĠpaprasÄįiausiai":9882,"Ġsmag":9883,"Å½algirio":9884,"Ġgied":9885,"Nak":9886,"ĠÅ¾alÄħ":9887,"IÅ²":9888,"ĠnarÄĹs":9889,"ĠlÅ«pÅ³":9890,"Ġpriekyje":9891,"enda":9892,"Ġ47":9893,"kuri":9894,"ĠlÄħsteliÅ³":9895,"ĠmodelÄ¯":9896,"ransp":9897,"ĠTer":9898,"Ġskirtingi":9899,"Kitaip":9900,"ÐµÐ":9901,"Ġvidurio":9902,"ĠkÅ«rinys":9903,"ĠkÅ«rimas":9904,"ĠtikÄĹtina":9905,"Ġprivers":9906,"Ġinteg":9907,"Social":9908,"Ġsklypo":9909,"ĠAmerikoje":9910,"ĠkvieÄįiami":9911,"Ġinstitutas":9912,"Ġcharakteris":9913,"ĠMod":9914,"41":9915,"mÄĹn":9916,"uotojas":9917,"ynos":9918,"Ã·":9919,"Ġtaur":9920,"ĠÄ¯pareig":9921,"Ġnuolaidos":9922,"Ġdraugas":9923,"ĠpradÄĹs":9924,"ĠÅ¾emÄĹje":9925,"ĠVeng":9926,"ĠsostinÄĹje":9927,"ĠTik":9928,"ĠgatviÅ³":9929,"Ġrekonstruk":9930,"Ġastr":9931,"Å«rÅ³":9932,"Ġskirtumas":9933,"Ġnr":9934,"ĠpokyÄįius":9935,"ĠaukÅ¡te":9936,"impi":9937,"ĠLatvijoje":9938,"TS":9939,"Ġilgalai":9940,"ĠCar":9941,"ĠklasÄĹ":9942,"ĠÄ¯staiga":9943,"Ġoperacijos":9944,"Äįd":9945,"ĠnurodÄĹ":9946,"Ġjomis":9947,"Ġgyvyb":9948,"Ġkitoms":9949,"aidimai":9950,"Ġlaikotarpio":9951,"ĠrankoviÅ³":9952,"Ġatkr":9953,"ĠturistÅ³":9954,"ÄĹlyna":9955,"ster":9956,"Ġgran":9957,"ĠGrig":9958,"ĠpaÄįiame":9959,"Ġgum":9960,"ĠVit":9961,"uogiÅ³":9962,"ĠparuoÅ¡ti":9963,"Ġbegal":9964,"Ġvariklis":9965,"Ġkalno":9966,"stos":9967,"antieji":9968,"ĠAndrius":9969,"cel":9970,"len":9971,"ĠneiÅ¡s":9972,"Ġdirv":9973,"tojimo":9974,"Ġvadas":9975,"ĠbutÅ³":9976,"ĠÅ¡viesa":9977,"GeguÅ¾ÄĹs":9978,"iciÅ¡kai":9979,"Ġelektroniniu":9980,"tele":9981,"Ġtiri":9982,"Ġangli":9983,"davau":9984,"Ä«":9985,"tini":9986,"Ġveikimo":9987,"Ġsumos":9988,"Ġritu":9989,"Ġkomunikacijos":9990,"Ġromanti":9991,"Ġrub":9992,"ĠneÄ¯si":9993,"Ġsekund":9994,"Ġ1991":9995,"Ġelgi":9996,"ĠiÅ¡aiÅ¡k":9997,"ĠiÅ¡ki":9998,"atais":9999,"ÄĹlimo":10000,"techni":10001,"Ġteikimo":10002,"Juod":10003,"ĠpaÅ¾eidÅ¾i":10004,"ĠÅ¡unÅ³":10005,"ĠÄ¯kr":10006,"ĠtrukmÄĹ":10007,"Ġdan":10008,"Ġsusikaup":10009,"Ġdialog":10010,"Ġkoncertas":10011,"Ġklientai":10012,"ulÄĹs":10013,"Ġdik":10014,"Ġ41":10015,"Ġpriimtas":10016,"ĠsurengÄĹ":10017,"arus":10018,"Ġfantaz":10019,"Ġperseki":10020,"Ġkompak":10021,"Ġ[...]":10022,"ĠpradÄĹta":10023,"Ġtemos":10024,"toma":10025,"Ġjuosta":10026,"ĠEgip":10027,"ĠCom":10028,"ĠmaÅ¾os":10029,"valio":10030,"Ġlaikotarpis":10031,"ĠmoksliniÅ³":10032,"Ġstaig":10033,"trauka":10034,"racijÄħ":10035,"Ġstudentams":10036,"ĠmaÅ¾inti":10037,"iestyje":10038,"oksid":10039,"name":10040,"ienÄħ":10041,"ĠkÅ«riniai":10042,"ĠÅ¾aidimus":10043,"ĠvalstybÄĻ":10044,"iemuo":10045,"vej":10046,"ĠÅłar":10047,"Ġgydyti":10048,"ĠposÄĹdyje":10049,"Ġpaved":10050,"varkos":10051,"Ang":10052,"ĠLaim":10053,"aliaus":10054,"lif":10055,"inantys":10056,"Ġtual":10057,"ĠÄ¯staigose":10058,"Parod":10059,"ĠJÄĹzaus":10060,"bÄĹ":10061,"etui":10062,"Ġtvarkyti":10063,"auta":10064,"Ġkonteks":10065,"Ġsunkv":10066,"Ġsriub":10067,"Ġfirmos":10068,"Ġsker":10069,"Ġreklama":10070,"Ġligomis":10071,"Ġkritik":10072,"Uni":10073,"acijoms":10074,"TurbÅ«t":10075,"ĠvaikystÄĹs":10076,"Ġatliekami":10077,"ĠÅ¡viesÄħ":10078,"ĠaukÅ¡tÄħ":10079,"ĠTal":10080,"Ġvariklio":10081,"MW":10082,"ukams":10083,"Ġnesis":10084,"idro":10085,"Ġried":10086,"ĠpradÄĹtas":10087,"Ġprocesus":10088,"ĠÄ¯gyti":10089,"Ġorganizatoriai":10090,"redien":10091,"ĠnorÄħ":10092,"DK":10093,"Ġkonferencijos":10094,"ĠVÅ¡Ä®":10095,"Ġsusijusius":10096,"ĠpacientÅ³":10097,"Å¡tas":10098,"Ġlov":10099,"esniems":10100,"ingiausiÅ³":10101,"Papras":10102,"Ġodontolog":10103,"Ġeli":10104,"ĠskausmÄħ":10105,"ĠPra":10106,"ĠÂ·":10107,"ĠDom":10108,"ĠAg":10109,"Ġnaudojasi":10110,"Ġnaudojimas":10111,"Ġpajamas":10112,"Ġtvirtino":10113,"iras":10114,"alans":10115,"ĠÅ¡iltas":10116,"ĠjaunÅ³":10117,"Ġpretend":10118,"Ġrepr":10119,"ĠbendruomeniÅ³":10120,"Rud":10121,"Ġrinkimus":10122,"ĠmeÅ¡k":10123,"Ġjausmus":10124,"timui":10125,"centr":10126,"ĠamerikieÄįiÅ³":10127,"Google":10128,"ĠBaltic":10129,"ĠpanaÅ¡us":10130,"esiÅ³":10131,"ĠbÅ«do":10132,"ĠnuvaÅ¾i":10133,"Turime":10134,"ĠvisuomenÄĻ":10135,"Ġrezultatyv":10136,"ĠLaik":10137,"ĠIV":10138,"ĠJer":10139,"ĠsaulÄĹ":10140,"BÅ«d":10141,"aw":10142,"Ġvienai":10143,"ĠdrabuÅ¾ius":10144,"Ġingredien":10145,"Ġkepimo":10146,"Ġkryptis":10147,"tuota":10148,"Ġpadangos":10149,"ĠKlaipÄĹda":10150,"Ġteatre":10151,"Ġplanuojama":10152,"Siekiant":10153,"ĠuÅ¾sakymo":10154,"Ġstim":10155,"inia":10156,"Ġrytus":10157,"ĠÅ¡ep":10158,"Ġpriel":10159,"Ġgaminami":10160,"Ġ86":10161,"Ġrinkodaros":10162,"Ġskun":10163,"ybÄĹms":10164,"ÄĹle":10165,"ÄĹjant":10166,"92":10167,"ĠsunkveÅ¾":10168,"tone":10169,"ĠFor":10170,"ĠrankÄħ":10171,"Reik":10172,"Ġvaikinas":10173,"Ġkonferencija":10174,"mail":10175,"sio":10176,"ĠNepriklausomybÄĹs":10177,"yklÅ³":10178,"Ġlatv":10179,"ĠtikimybÄĹ":10180,"Ġpatikim":10181,"ĠnemÄĹg":10182,"fi":10183,"ĠtiesÄħ":10184,"ĠmuÅ¡":10185,"ĠkroviniÅ³":10186,"Ġplius":10187,"ĠnuotaikÄħ":10188,"ĠbiÄįi":10189,"Beveik":10190,"urk":10191,"Ġnarius":10192,"Ġdebes":10193,"Ġjose":10194,"ytÄĻ":10195,"ĠÄ¯vairiomis":10196,"Ġskirtingas":10197,"ĠgalÄĹtume":10198,"ĠDe":10199,"ilÄĹ":10200,"Ġ95":10201,"Ġgalimas":10202,"argiai":10203,"aise":10204,"SB":10205,"Ġpasirenk":10206,"ĠÅ¾inote":10207,"iÅ¡kumÄħ":10208,"ĠreÅ¾isierius":10209,"Ġveg":10210,"ĠReg":10211,"kg":10212,"Naujas":10213,"ĠKo":10214,"Ġname":10215,"Ġnesul":10216,"Ġsusiduria":10217,"Ġveiksmai":10218,"Ġidentifik":10219,"eva":10220,"rosoft":10221,"Ġneabejotinai":10222,"Ġkunigas":10223,"Ġfestivalyje":10224,"espond":10225,"Ġpakarto":10226,"VD":10227,"Ġpadaryta":10228,"Gamin":10229,"ĠpratÄĻs":10230,"Ġrusi":10231,"ĠryÅ¡ys":10232,"ĠpatarimÅ³":10233,"ĠJas":10234,"ĠgarbÄĹs":10235,"Ġalbumas":10236,"ulti":10237,"ĠtavÄĻs":10238,"ĠlapÅ³":10239,"Ġsil":10240,"ood":10241,"Ġapskai":10242,"andÅ³":10243,"Ġdrab":10244,"SiÅ«lome":10245,"ĠSovietÅ³":10246,"pe":10247,"Ġilgas":10248,"ĠkÅ«ryba":10249,"izmo":10250,"Ġkriz":10251,"Panev":10252,"edija":10253,"ĠPrancÅ«zijoje":10254,"ĠdÅ¾iaugsmo":10255,"ĠplÄĹÅ¡":10256,"Ġvisoms":10257,"funk":10258,"ĠuÅ¾sir":10259,"ĠvieÅ¡butyje":10260,"Ġpalaim":10261,"ĠJaponijos":10262,"vizi":10263,"XX":10264,"ĠagentÅ«ros":10265,"Ġkarta":10266,"ĠJank":10267,"Ġuod":10268,"Ġpaskamb":10269,"dai":10270,"Ġkonstitu":10271,"Ġhoriz":10272,"Ä¯sti":10273,"VÄĹl":10274,"ĠskrydÅ¾iÅ³":10275,"ĠiÅ¡rinktas":10276,"VisÄħ":10277,"ĠnetrÅ«k":10278,"Atrodo":10279,"2006":10280,"Ġpaliek":10281,"ĠlaukÄĹ":10282,"Ati":10283,"ĠminutÄĹs":10284,"Ġsusitikti":10285,"tuvu":10286,"ravimÄħ":10287,"ĠlÅ«kesÄįius":10288,"Automobi":10289,"ĠÅ¾ada":10290,"Ġkomandoje":10291,"ĠdeÅ¡imtmetÄ¯":10292,"tacijÄħ":10293,"Ġpatvirtina":10294,"Ġnebent":10295,"ĠbendroviÅ³":10296,"ĠerdvÄĹ":10297,"ĠGel":10298,"ĠprisidÄĹjo":10299,"ÄĹliais":10300,"Ġatminties":10301,"Ġgarantija":10302,"Atlik":10303,"ĠJurb":10304,"Ġploto":10305,"ĠpirkimÅ³":10306,"ĠmasÄĹs":10307,"ĠAfrikos":10308,"Ġkilogr":10309,"Ġkin":10310,"Ġkalbomis":10311,"Ġbuvome":10312,"Ġpatobul":10313,"Netr":10314,"Ġpama":10315,"che":10316,"ĠpakvietÄĹ":10317,"oka":10318,"Å¡kumas":10319,"Ġfraz":10320,"Ġgerti":10321,"aust":10322,"acinis":10323,"Ġlengvas":10324,"ĠÅ¡on":10325,"uls":10326,",-":10327,"ĠnÄĹÅ¡tumo":10328,"Susitik":10329,"Ġbalans":10330,"ojami":10331,"ĠpakraÅ¡":10332,"Ġkalbant":10333,"ĠkeleiviÅ³":10334,"ĠPasaul":10335,"ĠapaÄįioje":10336,"ĠmokesÄįius":10337,"ĠdÅ«":10338,"Ġtrik":10339,"ĠatsiÅ¾velg":10340,"ĠcentrÅ³":10341,"lÄĻ":10342,"Ġvab":10343,"domos":10344,"ĠpanaÅ¡i":10345,"ĠsvetainÄĻ":10346,"Kep":10347,"ĠpasiryÅ¾":10348,"Ġprodukcijos":10349,"ĠploÄįio":10350,"ĠÅłvedijos":10351,"97":10352,"intÄ¯":10353,"fon":10354,"Ġasmenis":10355,"Ġpakeis":10356,"ĠiÅ¡sig":10357,"ĠnorÄĹdami":10358,"Ġetape":10359,"ction":10360,"ĠpridÄĹ":10361,"Ġinstali":10362,"ĠnuomonÄĹ":10363,"bos":10364,"ĠRen":10365,"ĠsÄħraÅ¡o":10366,"Ġsukel":10367,"Ġlaikosi":10368,"Ġturnyre":10369,"Ġatgaiv":10370,"ĠJam":10371,"Ġgimnazijoje":10372,"Ġteor":10373,"Ġdarbu":10374,"Ġlygoje":10375,"Ġnacionalinio":10376,"band":10377,"ĠpaÅ¾eidimÅ³":10378,"Ġdvik":10379,"Ġobjektus":10380,"Ġgamtoje":10381,"Ġrengimo":10382,"Vir":10383,"ĠlÄĹÅ¡as":10384,"ĠÅ¡ventes":10385,"ĠtreÄįd":10386,"ĠLib":10387,"ĠtelefonÄħ":10388,"ĠCi":10389,"Organiz":10390,"2000":10391,"utinio":10392,"OT":10393,"ĠatsisakÄĹ":10394,"inkiÅ³":10395,"iekaiÅ¡":10396,"Ġsusk":10397,"UM":10398,"anu":10399,"ulÄĹ":10400,"Ġsupil":10401,"Ġkoment":10402,"Ġsielos":10403,"teka":10404,"ĠvedÄĹja":10405,"ĠatvirkÅ¡Äįiai":10406,"unkiai":10407,"ĠanalizÄĹ":10408,"ĠmerginÅ³":10409,"tuosi":10410,"odi":10411,"egistruoti":10412,"ainos":10413,"Ġmeniu":10414,"ĠUrb":10415,"ĠGu":10416,"Ġkatedros":10417,"Ter":10418,"VT":10419,"tosi":10420,"Ġvisuose":10421,"Ġsusp":10422,"Spalva":10423,"ãĢ":10424,"rink":10425,",...":10426,"acinÄĹ":10427,"ĠdidesnÄĹs":10428,"aidÄħ":10429,"Ġrealiai":10430,"Antra":10431,"ĠKybar":10432,"Ġkieme":10433,"engva":10434,"terÄ¯":10435,"Ġgalvoje":10436,"ĠpaprasÄįiau":10437,"Åłalia":10438,"ĠlaiÅ¡kÄħ":10439,"sim":10440,"Ġaugint":10441,"Ġimper":10442,"Ġautoriaus":10443,"ĠaukÅ¡tÅ³":10444,"Visada":10445,"Ġpastaruoju":10446,"Esame":10447,"ĠTe":10448,"Ġpoezijos":10449,"Ġprogres":10450,"Met":10451,"uÄįiai":10452,"Ġarcheolog":10453,"Ġekstr":10454,"ĠmÄĹgstami":10455,"Ġkry":10456,"Ġnesir":10457,"Ġpateikta":10458,"ÑģÑĤ":10459,"ĠvirÅ¡Å³":10460,"ĠavalynÄĹ":10461,"ĠÅ¡auk":10462,"Ġbylos":10463,"ĠÅ¡amp":10464,"aminas":10465,"Äįiant":10466,"ymos":10467,"Ġ1999":10468,"ĠuÅ¾l":10469,"Ġparengti":10470,"damiesi":10471,"Å«dij":10472,"tyr":10473,"Ġgryb":10474,"Ġpagrindiniai":10475,"Pus":10476,"ĠvÄĹÅ¾io":10477,"Ġvisomis":10478,"ĠpluoÅ¡":10479,"audÄĹ":10480,"Ġsniego":10481,"ĠpasiÅ«lymÄħ":10482,"ĠsandÄĹli":10483,"ĠAplinkos":10484,"Ġmiego":10485,"andens":10486,"elsi":10487,"GrÄ¯Å¾":10488,"Ġnusis":10489,"ĠsuvaÅ¾i":10490,"Ġplanuoja":10491,"Ġplau":10492,"Ġni":10493,"ĠspecialistÄĹ":10494,"Ġdetales":10495,"ĠpokyÄįiai":10496,"Ġradi":10497,"Ġdvasios":10498,"prat":10499,"Ġmero":10500,"Ġgreitis":10501,"inÄįius":10502,"Ġsuplan":10503,"Ġdramos":10504,"ĠKaip":10505,"ĠMindaugas":10506,"ĠÅ¡ito":10507,"Ġturnyras":10508,"Ġtransport":10509,"ĠadresÄħ":10510,"ĠdidesnÄĻ":10511,"ĠpabrÄĹÅ¾ia":10512,"Ġgamina":10513,"Ġmielai":10514,"urkÅ¡":10515,"ones":10516,"ĠVisi":10517,"ola":10518,"ĠAtl":10519,"Ġkoply":10520,"Ġpajamos":10521,"Ġgimtadien":10522,"eka":10523,"Ġkapi":10524,"Ġkupr":10525,"ĠjudÄĹti":10526,"Ġjaunimas":10527,"ĠuÅ¾kr":10528,"ĠfondÅ³":10529,"Ġdangos":10530,"Ġvyksi":10531,"alizacija":10532,"Ġinteresus":10533,"ĠnusprÄĻs":10534,"Ġdruska":10535,"ĠJak":10536,"Ġatsirasti":10537,"ĠnebÄĹra":10538,"ĠpraÅ¾":10539,"Ġkonstrukcijos":10540,"mais":10541,"omai":10542,"ĠFil":10543,"Ġreguliariai":10544,"Ġstori":10545,"Ġmotinos":10546,"alinio":10547,"ĠsvarbÄħ":10548,"Ġmol":10549,"Ġobjektas":10550,"Sant":10551,"ĠjauÄįia":10552,"ĠPh":10553,"Ġagresyv":10554,"Ġpavarg":10555,"ĠItalijoje":10556,"ĠKam":10557,"encijÄħ":10558,"osiose":10559,"Seimo":10560,"raj":10561,"ĠagentÅ«ra":10562,"untÄĹ":10563,"Ġrizika":10564,"blog":10565,"IAI":10566,"Å¾eng":10567,"Ġvykdymo":10568,"Ġkaklo":10569,"Ġvadyb":10570,"Ġskirtingus":10571,"Ġ(-":10572,"vÄĹ":10573,"ĠkarÅ¡to":10574,"tav":10575,"Ġgard":10576,"Ġketv":10577,"Ġdvejus":10578,"ĠÅ¾vak":10579,"Kiekviena":10580,"ĠÅ¡okio":10581,"ĠÅ¾inojo":10582,"ietÄĻ":10583,"ĠpasireiÅ¡kia":10584,"ĠÅ½al":10585,"Ġarkivyskup":10586,"Ġtaikomas":10587,"aidÅ³":10588,"Ġbas":10589,"ĠLap":10590,"uva":10591,"Ġ68":10592,"darÅ¾":10593,"JÄħ":10594,"ankst":10595,"71":10596,"ĠLab":10597,"Ġ58":10598,"Å¾iÅ«ra":10599,"ĠAukÅ¡Äįi":10600,"tukÅ³":10601,"Å¾iui":10602,"ĠturÄĹsite":10603,"Ġpusiau":10604,"KÅ«r":10605,"alioje":10606,"ĠÅ¡velniai":10607,"ĠpamaÅ¾u":10608,"Ġikiteis":10609,"Ġprieskon":10610,"kiams":10611,"alizuoti":10612,"Ġtauti":10613,"ĠaikÅ¡tÄĹs":10614,"Ġnesut":10615,"Tais":10616,"Ġaktorius":10617,"Ġseptyni":10618,"ibli":10619,"nam":10620,"rikas":10621,"aiÅ¡iad":10622,"Ġlaiki":10623,"Ġlyginant":10624,"ĠRaseiniÅ³":10625,"Ġhidr":10626,"Ġsulaik":10627,"Ġpuikios":10628,"Ġapyv":10629,"ĠST":10630,"Ġnugar":10631,"Ġhttps":10632,"Ġkriterijus":10633,"vyl":10634,"Ġvadinami":10635,"tiks":10636,"Ġsugad":10637,"ĠraÅ¡ytojas":10638,"ĠvirÅ¡aus":10639,"ĠÄ¯am":10640,"Ġvaivad":10641,"Ġpasinaud":10642,"ĠuÅ¾r":10643,"ĠÅ¾aidÄĹjas":10644,"ĠdÅ¾iaugÄĹsi":10645,"ĠVald":10646,"Ġvairuotojo":10647,"isas":10648,"uti":10649,"Ġpatri":10650,"Å½mogus":10651,"irgin":10652,"niu":10653,"ĠpraÄĹjus":10654,"Ġneteko":10655,"Ġeleganti":10656,"PaÅ¡":10657,"Ġaugalai":10658,"izmas":10659,"Ġorganizavo":10660,"Ġgydytojo":10661,"76":10662,"96":10663,"Å¡kÄĹ":10664,"And":10665,"ĠNav":10666,"mei":10667,"Ġneva":10668,"ĠturÄĹjau":10669,"ĠiÅ¡liko":10670,"ĠsuaugusiÅ³jÅ³":10671,"ĠsugebÄĹjo":10672,"ĠRem":10673,"ografija":10674,"Ġelek":10675,"Ġimpl":10676,"Ġilgi":10677,"ĠuÅ¾tenka":10678,"edijos":10679,"ĠSaulius":10680,"ĠsusitikimÄħ":10681,"ĠpadÄĹtÅ³":10682,"Ø§":10683,"ĠsiÅ³sti":10684,"Ġkurioms":10685,"Ġpasirodyti":10686,"ĠmokslininkÅ³":10687,"Ġpresti":10688,"ÄįienÄĹ":10689,"audas":10690,"Ġpalaikymo":10691,"ĠpasipuoÅ¡":10692,"Atsis":10693,"Ġsugeba":10694,"Ġkomplektas":10695,"Ġklimato":10696,"Jiems":10697,"ĠgrieÅ¾tai":10698,"Ġmedik":10699,"Ġpapasakojo":10700,"Ġkaras":10701,"ĠsovietÅ³":10702,"Ġbesik":10703,"tienos":10704,"yder":10705,"ĠuÅ¾pild":10706,"Ġseno":10707,"aikos":10708,"ĠPardav":10709,"Ġgud":10710,"Ġcigar":10711,"ĠiÅ¡leistas":10712,"ĠgalÄĹtumÄĹte":10713,"ĠPap":10714,"ĠRum":10715,"Ġatsisp":10716,"taro":10717,"Ġpirmuosius":10718,"ĠtreÄįiÄħ":10719,"mano":10720,"ĠvÄĹs":10721,"ojaus":10722,"ĠÅ¡iuolaiki":10723,"Ġrungtyni":10724,"Ġlango":10725,"ĠÄ¯rank":10726,"ĠalbumÄħ":10727,"Ġnupirk":10728,"yte":10729,"ĠkortelÄĹs":10730,"ld":10731,"Ġimperijos":10732,"ĠAnglijos":10733,"yklÄħ":10734,"Ġnepaprastai":10735,"Ġreabili":10736,"Ġfaktas":10737,"kirp":10738,"ausiomis":10739,"ĠpriÅ¾iÅ«rÄĹti":10740,"ĠÅ¾enk":10741,"Ġgydytojai":10742,"ĠHD":10743,"ĠsumuÅ¡":10744,"odavo":10745,"ĠJu":10746,"yvena":10747,"Ġvisu":10748,"Ġtradicija":10749,"Ġpuslapio":10750,"SP":10751,"ĠIs":10752,"Ġdangaus":10753,"ĠramybÄĹs":10754,"ĠMes":10755,"Ġjuostos":10756,"Ġdyk":10757,"Ġjaunas":10758,"ryÅ¾":10759,"etÄĻ":10760,"Ġlim":10761,"ĠpatiekalÅ³":10762,"ĠÄħÅ¾uol":10763,"Ġdarbais":10764,"Ġtamsiai":10765,"Ġlizd":10766,"Ġaptarti":10767,"anka":10768,"estin":10769,"Ġakcija":10770,"inkime":10771,"Ġpaskutinis":10772,"Ġbrolis":10773,"ĠsenÅ³":10774,"ĠÅ¡tab":10775,"ĠdidÄĹja":10776,"ĠÐ¿":10777,"Ġmanymu":10778,"niui":10779,"ĠsmÅ«g":10780,"ĠÅ¡ild":10781,"Ġdovanos":10782,"Ġpagrindinio":10783,"Ġsurinko":10784,"Ġgrun":10785,"ĠlÄĹ":10786,"Vieni":10787,"Ġrajonas":10788,"Ġpanor":10789,"ĠnugalÄĹjo":10790,"Ġnenu":10791,"Joje":10792,"ĠvieniÅ¡":10793,"Å«st":10794,"ĠpaminÄĹ":10795,"ĠHar":10796,"Ġtrum":10797,"ilija":10798,"vari":10799,"ĠvertÄĹtÅ³":10800,"Ġpenkias":10801,"Ġorganizme":10802,"ĠAir":10803,"smuo":10804,"ĀĀĀĀĀĀĀĀĀĀĀĀĀĀĀĀĀĀĀĀĀĀĀĀĀĀĀĀĀĀĀĀ":10805,"pra":10806,"Ġpapildomas":10807,"kab":10808,"enai":10809,"ĠnacionalinÄĹs":10810,"etes":10811,"Ġnekalb":10812,"Ġprilyg":10813,"biliz":10814,"MÄĹg":10815,"Ġsutikti":10816,"ĠtechninÄĹs":10817,"Ġstebukl":10818,"ifik":10819,"Ġpup":10820,"ĠlÄĹkÅ¡":10821,"imasis":10822,"Ġaugti":10823,"alizmo":10824,"Ġsusijusios":10825,"Ġprofilak":10826,"Ġteritor":10827,"Ġalk":10828,"Ġadministracija":10829,"tininkas":10830,"ÅłiauliÅ³":10831,"Ġtip":10832,"ĠÅ¾urnal":10833,"fr":10834,"ĠypatingÄħ":10835,"ieriai":10836,"odama":10837,"ĠlaukÄħ":10838,"ĠelgesÄ¯":10839,"Ġpasirinko":10840,"ĠvÄĹd":10841,"Ġspaudai":10842,"Ġantik":10843,"varst":10844,"ĠmygtukÄħ":10845,"Ġimpr":10846,"ĠnatÅ«ralios":10847,"cinÄĹ":10848,"alg":10849,"MedÅ¾i":10850,"htt":10851,"Ġekspertai":10852,"imasi":10853,"ĠvarÅ¾ybas":10854,"74":10855,"Ġnemokamas":10856,"kyr":10857,"ĠvartÅ³":10858,"ĠrizikÄħ":10859,"Ġpraeities":10860,"son":10861,"Ġprodius":10862,"ĠÄ¯monÄĻ":10863,"Ġ56":10864,"Svetain":10865,"Ã³":10866,"Ġpasist":10867,"Ġnutraukti":10868,"ĠPetras":10869,"ĠtiktÅ³":10870,"ĠDav":10871,"Ġpriversti":10872,"ĠiÅ¡orÄĹs":10873,"Ġnuotaika":10874,"try":10875,"kam":10876,"ĠtaÅ¡ko":10877,"orb":10878,"urod":10879,"Ġdieg":10880,"ĠÄ¯domiÅ³":10881,"Ġatliktas":10882,"Ġsutink":10883,"Ġdvasia":10884,"ĠSib":10885,"Ġeter":10886,"rÅ«s":10887,"ĠareÅ¡":10888,"Ġvadinti":10889,"Ġnaudingas":10890,"ĠmaÅ¾Äħ":10891,"Ġreferend":10892,"Ġsutinka":10893,"torÄĹs":10894,"Ġtikrus":10895,"Ġatvirai":10896,"ĠLaisvÄĹs":10897,"ovams":10898,"Ġketina":10899,"ito":10900,"ĠpraÅ¡o":10901,"ĠkontrolÄĹ":10902,"IEN":10903,"ock":10904,"Ġsusie":10905,"Ġdukra":10906,"ĠatsakomybÄĹ":10907,"ĠiÅ¡klaus":10908,"Ġpavadinimu":10909,"Ġventili":10910,"Ġantras":10911,"Ġvartotojai":10912,"riz":10913,"Ġkub":10914,"Ġtinkama":10915,"ynus":10916,"ĠsalÄĹ":10917,"Ġgerbi":10918,"Ġapgyvendinimo":10919,"Ġpaskelbti":10920,"gius":10921,"Ġturinys":10922,"ekÄĹ":10923,"insko":10924,"ĠÄ¯veik":10925,"Ġpasitel":10926,"ancijos":10927,"ĠIsl":10928,"BirÅ¾elio":10929,"ĠpÄĹdsak":10930,"laik":10931,"Ġklasi":10932,"ĠSch":10933,"79":10934,"ĠpÅ«s":10935,"Ġskirtingai":10936,"Ġoficial":10937,"ELFI":10938,"Ġtinklas":10939,"ĠrÅ«muose":10940,"Ġdo":10941,"ĠkÅ«rinius":10942,"Ġnebes":10943,"ĠsusiÅ¾":10944,"fl":10945,"ymams":10946,"SM":10947,"ĠkÅ«rÄĹ":10948,"Ġpusiaus":10949,"Ġsir":10950,".-":10951,"galv":10952,"Ġgyvas":10953,"Ġgyvenimu":10954,"ĠdÄĹvÄĹti":10955,"ĠJaun":10956,"burg":10957,"Ġgyvai":10958,"TV":10959,"Rom":10960,"ĠStep":10961,"Bu":10962,"emat":10963,"Ġlaikotarpi":10964,"Ġvyresni":10965,"Ġnuotol":10966,"ogi":10967,"Ġbaigiasi":10968,"Ġ800":10969,"eminis":10970,"ĠlietuviÅ¡kai":10971,"inav":10972,"Ġskal":10973,"bÄĹs":10974,"ĠÅ¾aizd":10975,"ciÅ¡k":10976,"ĠkÅ«rÄĹjai":10977,"Ġapimtis":10978,"ĠporeikÄ¯":10979,"idom":10980,"Ġstiprinti":10981,"tiniams":10982,"Ġsodybos":10983,"Ġkranto":10984,"ĠGam":10985,"Ġlyties":10986,"ĠÄ¯dÄĹti":10987,"ĠtÄĻsti":10988,"ojasi":10989,"enkÄĹ":10990,"gu":10991,"ĠSeimas":10992,"Ġorganizmas":10993,"Ġdomina":10994,"ĠgrÄ¯Å¾ta":10995,"Ġpatvirtinti":10996,"Ġlovos":10997,"ĠatskleidÄĹ":10998,"umer":10999,"Bus":11000,"ĠprieÅ¾iÅ«rÄħ":11001,"59":11002,"Ġlaidos":11003,"ybinio":11004,"ĠpaskolÄħ":11005,"ĠapÅ¾iÅ«rÄĹti":11006,"Ġpratur":11007,"yrank":11008,"inanÄįios":11009,"Ġorganizavimo":11010,"Ġpagalvoti":11011,"glob":11012,"ĠiÅ¡eiti":11013,"Ġtaikomos":11014,"ĠGud":11015,"Ġbaldus":11016,"NatÅ«r":11017,"Ġmokosi":11018,"ĠiÅ¡ver":11019,"ĠJÄĹzus":11020,"Nuol":11021,"ĠpanaÅ¡Å«s":11022,"ĠminutÄĻ":11023,"Rez":11024,"ĠJungtiniÅ³":11025,"ĠveÅ¾im":11026,"ĠKaina":11027,"Ġtiksliau":11028,"nink":11029,"ĠgaliÄħ":11030,"Ġkonstat":11031,"ĠnustatÄĹ":11032,"ĠPab":11033,"Ġpriedai":11034,"Ġapkal":11035,"Ġatkak":11036,"indama":11037,"ĠkambariÅ³":11038,"Ġpatraukli":11039,"Ġtaikomi":11040,"Ġburnos":11041,"IMAS":11042,"audamas":11043,"ĠiÅ¡gird":11044,"Ġsukuri":11045,"Ġapskrityje":11046,"ĠSod":11047,"Vasario":11048,"ĠÅ¾inom":11049,"ĠNo":11050,"ÄĹjusiÄħ":11051,"ĠuÅ¾klaus":11052,"ĠLazd":11053,"ĠvitaminÅ³":11054,"Ġkuriant":11055,"roid":11056,"ĠesmÄĹ":11057,"oru":11058,"ĠturÄĹtumÄĹte":11059,"Ġfizinio":11060,"Ġnakties":11061,"reng":11062,"orÄĹ":11063,"Ġkoreg":11064,"Ġvaldo":11065,"Internet":11066,"aist":11067,"Ġtok":11068,"ĠkÅ«rÄĹjÅ³":11069,"ĠrÅ«pinasi":11070,"Tokios":11071,"brÄĹÅ¾":11072,"ĠOland":11073,"BalandÅ¾io":11074,"Ġ(,":11075,"Ġnuteis":11076,"Ġ52":11077,"Ġglaud":11078,"Ġmg":11079,"Ġapdirb":11080,"Ġredag":11081,"Ġfilme":11082,"ĠmiÅ¡ke":11083,"ĠÄ¯dÄĹ":11084,"Ġkaralius":11085,"ĠÄ¯vykd":11086,"Ġkeista":11087,"ĠdangÅ³":11088,"ĠstruktÅ«ra":11089,"Ġkoali":11090,"Ã¤":11091,"ieÄįio":11092,"aiÅ¡kos":11093,"ingomis":11094,"Vol":11095,"ĠpaÄįiais":11096,"Ġnevyk":11097,"2005":11098,"anus":11099,"Ġinformuoti":11100,"tuoju":11101,"ĠiÅ¡vis":11102,"Ġdantis":11103,"ĠÄĮeki":11104,"liukai":11105,"andÄ¯":11106,"Ġlyt":11107,"ĠsusidÅ«r":11108,"Ġgausite":11109,"ĠgatvÄĹ":11110,"meninÄĹs":11111,"ï¿½ï¿½ï¿½":11112,"Ġkapitalo":11113,"ĠsÄħj":11114,"Ġkaraliaus":11115,"Ġ49":11116,"ĠaliejÅ³":11117,"Ġbeg":11118,"Ġpenkis":11119,"Ġdainas":11120,"Pasaul":11121,"Ġnesil":11122,"Ġlangus":11123,"ĠreikiamÄħ":11124,"Ġbyloje":11125,"ĠÄ¯gali":11126,"ĠÄ¯monÄĹje":11127,"elsiant":11128,"riausiai":11129,"Ġfunkcion":11130,"interes":11131,"ĠatskleidÅ¾ia":11132,"Vytau":11133,"ĠsvarbiÅ³":11134,"Ġinvestuoti":11135,"mer":11136,"rip":11137,"Ġomen":11138,"ĠnorimÄħ":11139,"VirÅ¡":11140,"Lyg":11141,"ĠKazimie":11142,"Ġ1998":11143,"ĠpakuotÄĹs":11144,"ĠAnykÅ¡ÄįiÅ³":11145,"audÅ¾ia":11146,"2004":11147,"ĠtemÄħ":11148,"ĠnorÄĹjau":11149,"ĠpraneÅ¡ti":11150,"Ġkariai":11151,"ĠPad":11152,"ĠtaptÅ³":11153,"ĠÅ¾enklai":11154,"Ġatkeli":11155,"eiviams":11156,"Ġgelton":11157,"Ġnumatyti":11158,"ĠprofesinÄĹs":11159,"Ġolimpi":11160,"ĠbÅ«dus":11161,"Ġrenginyje":11162,"ĠSte":11163,"ĠiÅ¡sir":11164,"ĠÅ¾uvÅ³":11165,"Pirmoji":11166,"ĠpirmininkÄĹ":11167,"ciklop":11168,"gÅ³":11169,"Ġneleg":11170,"ĠesantÄ¯":11171,"Ä¯Å¡":11172,"Ġgyvens":11173,"ĠiÅ¡vyko":11174,"Netrukus":11175,"Ġsusitiko":11176,"ĠpradÅ¾iÄħ":11177,"ĠdÄĹti":11178,"Ġbranduol":11179,"ĠbÄĹgi":11180,"Tiki":11181,"ĠÄ¯sigij":11182,"ĠtelefonÅ³":11183,"ĠdokumentÄħ":11184,"kim":11185,"ĠÅ¾ir":11186,"ĠIgnal":11187,"lioti":11188,"ĠmenÅ³":11189,"Ġvertybes":11190,"Ġmodeliai":11191,"Ġsusigr":11192,"Ġmenas":11193,"Ġportr":11194,"iosios":11195,"Eksp":11196,"Ġgiminai":11197,"Ġlemp":11198,"Nacional":11199,"ĠligoninÄĹje":11200,"Ġfondas":11201,"Ġkurso":11202,"kiÅ¡":11203,"ĠkvÄĹpavimo":11204,"tona":11205,"Ġprisimena":11206,"56":11207,"Ġsusidaro":11208,"ĠSant":11209,"ula":11210,"Ġvartotojo":11211,"Ġbali":11212,"eksas":11213,"ytum":11214,"atorÄĹ":11215,"ance":11216,"Ġdepartamentas":11217,"ĠpavardÄĹ":11218,"inui":11219,"tabu":11220,"UÅ¾s":11221,"Ġrinkti":11222,"ĠpaskolÅ³":11223,"adÄħ":11224,"iurli":11225,"Ġatkurti":11226,"ĠMag":11227,"ĠiÅ¡maiÅ¡":11228,"Å«ras":11229,"Draug":11230,"ĠÅ¾uvies":11231,"ĠdaugybÄĹs":11232,"ĠmaÅ¾ÄĹja":11233,"ĠnuorodÄħ":11234,"gyvend":11235,"ĠtekstÄħ":11236,"ojÅ³":11237,"Ġatskirti":11238,"ĠpavojÅ³":11239,"klas":11240,"ĠdraudÅ¾iama":11241,"ĠkokybiÅ¡kai":11242,"ĠÅ¾arn":11243,"ĠOn":11244,"ĠÅ¡iomis":11245,"Sh":11246,"ankÅ¡":11247,"ĠvÄĹliav":11248,"ĠÄ¯rankiai":11249,"ĠPaulius":11250,"ĠelektroninÄĹs":11251,"ĠÄ¯sitikinÄĻs":11252,"tinÄĹms":11253,"ĠparaÅ¡yta":11254,"San":11255,"ValstybÄĹs":11256,"Ġkuror":11257,"ĠkraÅ¡tÄħ":11258,"ĠLondone":11259,"Ġprimen":11260,"ankos":11261,"ĠÅ¡ved":11262,"Ġkursai":11263,"ĠnepriekaiÅ¡":11264,"Ġklinik":11265,"ĠprocedÅ«ra":11266,"ĠKonstitucijos":11267,"ĠgalÄĹÄįiau":11268,"\").":11269,"ĠÄ¯rankiÅ³":11270,"âĢĻ,":11271,"olÅ¡":11272,"Ġlietuvis":11273,"ĠproduktÄħ":11274,"Ġsenas":11275,"Ġambi":11276,"Ġpatiksl":11277,"ĠSlov":11278,"Ġatsikratyti":11279,"ĠpolitikÅ³":11280,"Å¡os":11281,"Ġpasidom":11282,"Ġsusirinko":11283,"otÄħ":11284,"elas":11285,"Ġreikalingos":11286,"ribu":11287,"Ġnuotaikos":11288,"ĠiÅ¡sik":11289,"AtsiÅ¾vel":11290,"cl":11291,"IÅ¡matavimai":11292,"ĠkoncertÅ³":11293,"atui":11294,"nias":11295,"ĠÅłvenÄįi":11296,"KiekvienÄħ":11297,"Ġpasto":11298,"Ġpietvakar":11299,"Saug":11300,"ert":11301,"Baig":11302,"Ġgreitas":11303,"ĠsienÄħ":11304,"ĠGruz":11305,"ĠpalÅ«kanÅ³":11306,"ingoje":11307,"oso":11308,"Ġpaskelbta":11309,"ĠÄ¯statymus":11310,"ĠnatÅ«ralus":11311,"Ġbaltos":11312,"Ġiniciatyvos":11313,"otels":11314,"Ġtiktai":11315,"Ġateis":11316,"Ġsirg":11317,"evo":11318,"ĠleidÅ¾iama":11319,"inÄįios":11320,"ĠtrumpÄħ":11321,"ĠLink":11322,"Ġpaskirst":11323,"ĠnervÅ³":11324,"oll":11325,"ĠkeiÄįia":11326,"ĠVarÄĹn":11327,"äº":11328,"ĠKunig":11329,"ĠmaÅ¾ina":11330,"Ġgaila":11331,"fek":11332,"ĠekspertÅ³":11333,"Ġkosmetikos":11334,"IU":11335,"etiniÅ³":11336,"Ġteisingumo":11337,"VisiÅ¡kai":11338,"Ñĩ":11339,"Ġnepral":11340,"ĠprocesÅ³":11341,"Ġtransform":11342,"ĠorganÅ³":11343,"Pet":11344,"ĠÅ¾vaigÅ¾dÄĹs":11345,"ĠMor":11346,"ĠÄ¯veikÄĹ":11347,"Ġges":11348,"Äįiusi":11349,"angomis":11350,"Ġatliekant":11351,"ĠvyriausybÄĹ":11352,"ĠOb":11353,"53":11354,"Ġfron":11355,"ĠÄ¯sivaizduoti":11356,"autobus":11357,"pin":11358,"apusi":11359,"amumo":11360,"ĠaikÅ¡telÄĹje":11361,"ĠMarija":11362,"Ġporeikis":11363,"Ġtiesos":11364,"uotes":11365,"ĠKu":11366,"Ġpatiria":11367,"Ġroko":11368,"Å¡Äħ":11369,"eriui":11370,"Ġpalink":11371,"ĠlÄĹtai":11372,"Ameri":11373,"ĠpusiÅ³":11374,"roÅ¾":11375,"Ġpirmos":11376,"ĠKomisija":11377,"ĠAdom":11378,"bÅ«tÅ³":11379,"Le":11380,"ĠlÄĹmÄĹ":11381,"ĠÄ¯vairiuose":11382,"FA":11383,"ĠÄ¯vyks":11384,"ĠÄ¯vaizdÅ¾i":11385,"Ġpataria":11386,"ĠpasitikÄĹjimÄħ":11387,"tikrinti":11388,"ĠSveikatos":11389,"Ġvadovaujantis":11390,"Ġneform":11391,"Ġaugo":11392,"epi":11393,"Ġsavyje":11394,"Pristat":11395,"Ġmiestelyje":11396,"ĠpilieÄįiai":11397,"ĠXVI":11398,"54":11399,"ĠAzijos":11400,"ĠÅ¡ilta":11401,"ĠkilÄĻs":11402,"ĠinfrastruktÅ«ros":11403,"Ġdidesnio":11404,"Ġimun":11405,"ĠapraÅ¡ymas":11406,"celi":11407,"ĠpaprasÄįi":11408,"Ġperkelti":11409,"PrancÅ«z":11410,"ovui":11411,"ĠiÅ¡mat":11412,"ĠÄ¯galio":11413,"ĠpartijÅ³":11414,"Ġatspindi":11415,"ĠbalsÅ³":11416,"%,":11417,"PK":11418,"Ġoperatyv":11419,"Esant":11420,"Ġsuteikta":11421,"Ġsimbolis":11422,"ĠÅ¾ar":11423,"72":11424,"Ġpolic":11425,"ĠpraÄĹjusiÅ³":11426,"Ġmetodas":11427,"ida":11428,"Nieko":11429,"Å³jÄ¯":11430,"ĠplÄĹtra":11431,"eipia":11432,"ĠsritÄ¯":11433,"eralÅ³":11434,"ĠÄ¯domi":11435,"Ġdulk":11436,"Ġdok":11437,"ĠiÅ¡gyventi":11438,"Bl":11439,"Ġdraugus":11440,"ĠgraikÅ³":11441,"Ġsupirk":11442,"ĠbendradarbiavimÄħ":11443,"Ġvairuotojai":11444,"Ġnaujienos":11445,"ĠstatybÅ³":11446,"Ġjuodos":11447,"ieÄįius":11448,"Ġrytoj":11449,"ĠVokietija":11450,"??":11451,"Ġiliustr":11452,"anijoje":11453,"Ġstandartus":11454,"Ġnekal":11455,"ĠurÄĹd":11456,"iÅ¡kumas":11457,"ĠplokÅ¡tÄĹs":11458,"Ġinovatyv":11459,"ĠÅ¡vieÅ¾i":11460,"Ġrinka":11461,"Ġtrunka":11462,"ĠsalÄĹs":11463,"ĠekonominÄĹs":11464,"piÅ³":11465,"Ġbuvusio":11466,"Ġly":11467,"ĠRadvili":11468,"ekas":11469,"Ġstimuli":11470,"Ġpakanka":11471,"ĠpaÅ¾angi":11472,"Ġdaiktai":11473,"ĠVyriausybÄĹ":11474,"Ġtaikos":11475,"ortugal":11476,"ĠkokybiÅ¡kas":11477,"2003":11478,"atur":11479,"Ġapa":11480,"Ġfolkl":11481,"akalb":11482,"ĠgÄĹrimÅ³":11483,"ĠprieÅ¾astys":11484,"ãĤ¢ãĤ¢ãĤ¢ãĤ¢ãĤ¢ãĤ¢ãĤ¢ãĤ¢":11485,"Ġvandeniui":11486,"Ġpasij":11487,"Ġ180":11488,"ĠiÅ¡kel":11489,"Ä®domu":11490,"Ġapibendr":11491,"Ġnedelsiant":11492,"Ġmagnet":11493,"Ġprofesinio":11494,"Å«nus":11495,"ĠpaprastÄħ":11496,"ĠÄįesn":11497,"sko":11498,"Ġnegalime":11499,"ĠGri":11500,"ĠtÅ«kstanÄįius":11501,"ĠlietuviÅ¡kÅ³":11502,"ĠBos":11503,"Ġstoties":11504,"aujantys":11505,"ĠÄ¯n":11506,"ytei":11507,"Ġpeties":11508,"ĠLondono":11509,"Moter":11510,"ÄĹtus":11511,"ĠparengÄĹ":11512,"ĠvietiniÅ³":11513,"ĠklasÄĹje":11514,"Ġopozi":11515,"Ġrodyti":11516,"DÅ¾iaugi":11517,"emti":11518,"ĠJuli":11519,"Ġatliekama":11520,"ĠkaÅ¾kada":11521,"ade":11522,"our":11523,"Ġintrig":11524,"ĠiÅ¡vaizda":11525,"Ġlemi":11526,"Ġbaudos":11527,"ĠpaÅ¾iÅ«rÄĹti":11528,"ĠBern":11529,"Ġbuto":11530,"62":11531,"Ġsustabdyti":11532,"ĠKÄĻstutis":11533,"Ġ1995":11534,"Ġpasiekia":11535,"ĠapylinkÄĹse":11536,"Ġpilvo":11537,"yna":11538,"Ġpateis":11539,"ĠpeÄįiÅ³":11540,"Ġikimok":11541,"Ġlietuviams":11542,"ever":11543,"vaj":11544,"intai":11545,"Ġklube":11546,"ĠDvasi":11547,"Ġkilti":11548,"ĠIzraelio":11549,"Ġliks":11550,"Ġprocese":11551,"Nug":11552,"Ġsusib":11553,"Ġ1997":11554,"ĠnebÅ«tinai":11555,"ĠkrikÅ¡":11556,"ct":11557,"IG":11558,"aka":11559,"ĠGi":11560,"ype":11561,"Ġ1992":11562,"Ġdaroma":11563,"ĠuÅ¾pildyti":11564,"ĠÅ¾ibin":11565,"Speci":11566,"aminimo":11567,"ĠparodÄħ":11568,"Pvz":11569,"Ġgausiai":11570,"Ġkursus":11571,"mantas":11572,"maiÅ¡":11573,"Ġmasyv":11574,"gita":11575,"Manoma":11576,"rijÅ³":11577,"ĠspinduliÅ³":11578,"ĠdulkiÅ³":11579,"Ġtvirtai":11580,"takul":11581,"Ġkurjer":11582,"ĠpagrindÄħ":11583,"Ġdirektyv":11584,"ĠÅ¡imtme":11585,"Ġsituacijoje":11586,"Å¾d":11587,"matÅ³":11588,"ĠreÄįiau":11589,"Ġrai":11590,"ĠÅ¾aidÅ¾ia":11591,"ĠkitokiÅ³":11592,"Äįiam":11593,"ĠBNS":11594,"ĠverÄįia":11595,"ĠvariantÄħ":11596,"ĠmarÅ¡kinÄĹliai":11597,"LA":11598,"Ġgausa":11599,"Ġpaversti":11600,"Ġformas":11601,"Ġpasirinkite":11602,"Ġsantykis":11603,"aisti":11604,"Ġpapildomos":11605,"DÄĹk":11606,"ĠgydytojÄħ":11607,"mobil":11608,"Ġbendrijos":11609,"Ġprincip":11610,"Ġkeliai":11611,"Ġorganizmui":11612,"Dvi":11613,"ĠprasmÄĻ":11614,"Ġrenginiuose":11615,"ĠskelbimÅ³":11616,"ĠkvapÄħ":11617,"Ġneskub":11618,"Ġpakop":11619,"Ġpremijos":11620,"ĠEuropÄħ":11621,"ĠvalstybÄĹje":11622,"ĠlÄĹÅ¡os":11623,"Ġga":11624,"Ġmeile":11625,"Ġkodekso":11626,"ĠIm":11627,"ĠPrÅ«s":11628,"ĠnatÅ«raliÅ³":11629,"Ġbak":11630,"Ġpriekab":11631,"ĠpadangÅ³":11632,"Ġgamybai":11633,"Ġpasiimti":11634,"ĠdidÅ¾iulis":11635,"ilÄĹs":11636,"egorijos":11637,"ĠsutrikimÅ³":11638,"nia":11639,"ĠiÅ¡trauk":11640,"ĠvairuotojÅ³":11641,"Å«sta":11642,"Ġsuteikiama":11643,"ĠGoogle":11644,"Vyk":11645,"ĠVen":11646,"Ġreikalas":11647,"ĠnumerÄ¯":11648,"ĠÄ¯tampos":11649,"omojo":11650,"Ġlanky":11651,"ĠtinklaraÅ¡":11652,"Ġspektr":11653,"Lenki":11654,"ĠautorÄĹ":11655,"Ġrytuose":11656,"Ġteksti":11657,"Ġpalap":11658,"Ġatlikta":11659,"ĠiÅ¡pr":11660,"Ġnoro":11661,"Ġfotoapar":11662,"ĠaikÅ¡telÄĹs":11663,"ĠpavyzdÅ¾iÅ³":11664,"ĠRaÅ¡":11665,"ĠpergalÄĹs":11666,"Ġdiab":11667,"Ġekstrem":11668,"ĠpadÄĹties":11669,"Ġnepaj":11670,"Ġpilies":11671,"Ġatsisveik":11672,"ĠÅ¡ilumÄħ":11673,"ĠlangÄħ":11674,"ĠLenkija":11675,"Ġfilmai":11676,"Ġnedidelis":11677,"ĠsusirÅ«p":11678,"'s":11679,"vius":11680,"nelÄĹ":11681,"Ġnesin":11682,"Ġ59":11683,"ĠÄ¯gijo":11684,"Ġparos":11685,"Ġvadybos":11686,"Ġnepriklausomai":11687,"pÄĹ":11688,"yste":11689,"ĠbylÄħ":11690,"ĠÄĹmÄĹsi":11691,"ĠÅ¡ali":11692,"Ġkib":11693,"Ġpavadinimo":11694,"Ġleidimo":11695,"ĠatskirÅ³":11696,"57":11697,"ĠaukÅ¡ta":11698,"Ġniekad":11699,"ĠkompiuterÄ¯":11700,"ĠAndri":11701,"ĠÄįempionatas":11702,"Ġstend":11703,"Ġdez":11704,"Ġpastatai":11705,"Ġprot":11706,"ymasis":11707,"Ġdirig":11708,"ĠÅ¾iniomis":11709,"ĠbankÅ³":11710,"Ġkairi":11711,"Ġstu":11712,"Ġteatr":11713,"Ġteigti":11714,"Ġdiskr":11715,"etur":11716,"Ġcharakteri":11717,"ĠÅ¡iukÅ¡liÅ³":11718,"Ġelgesys":11719,"ĠTautÅ³":11720,"ĠaugimÄħ":11721,"Ġbendrai":11722,"Ġsavijau":11723,"ÄĹno":11724,"stan":11725,"Ġnesig":11726,"à¤":11727,"Ġnusivyl":11728,"Ġmokslas":11729,"Ġprapl":11730,"Ġsakr":11731,"yderland":11732,"ĠDievÄħ":11733,"âĢľ:":11734,"Ġtraukia":11735,"Ġhigienos":11736,"rÄ¯Å¾":11737,"ĠÄ¯temp":11738,"ĠParlamento":11739,"Ġreikalus":11740,"ela":11741,"Ġeste":11742,"ĠabejoniÅ³":11743,"VA":11744,"ire":11745,"Ġauginti":11746,"Ġskaito":11747,"ĠmaÅ¡inÅ³":11748,"52":11749,"ĠÅ¡imtus":11750,"ĠkrikÅ¡ÄįioniÅ³":11751,"vyst":11752,"Ġasfal":11753,"Ġaliuminio":11754,"ĠatsakymÄħ":11755,"Ġentuzias":11756,"ĠÅ¡iose":11757,"Ġpaimti":11758,"ĠaikÅ¡telÄĹ":11759,"Åłiuolaik":11760,"Sum":11761,"olÅ³":11762,"Å½mon":11763,"Ġantrasis":11764,"700":11765,"Ġkvapas":11766,"ĠdeÅ¡imtmeÄįio":11767,"ientas":11768,"ĠKrem":11769,"AuÅ¡":11770,"Ġmam":11771,"Ġkeliauja":11772,"Ġtalen":11773,"telkti":11774,"ĠprieÅ¡ais":11775,"Ġteikiama":11776,"ĠmaÅ¡in":11777,"rito":11778,"ybinis":11779,"Ġnaudingi":11780,"Ġmatau":11781,"kiÄħ":11782,"tasi":11783,"ky":11784,"Ġrezid":11785,"dÅ¾iui":11786,"ĠnaudojimÄħ":11787,"ĠmÄĹgÄĹjÅ³":11788,"auro":11789,"Ġvitamino":11790,"Ġaer":11791,"ĠÄ¯vykiai":11792,"iss":11793,"Ġkiaul":11794,"ĠvyrÄħ":11795,"Ġpusan":11796,"ĠsunkveÅ¾im":11797,"orid":11798,"IJOS":11799,"XV":11800,"ĠstovÄĹjimo":11801,"ojantis":11802,"ĠBron":11803,"Ġbenz":11804,"Ġ1996":11805,"VaikÅ³":11806,"Ġdreb":11807,"Ex":11808,"ĠpriminÄĹ":11809,"ĠuÅ¾siim":11810,"nep":11811,"Ġvib":11812,"ĠÄ¯p":11813,"Ġduj":11814,"Ġkart":11815,"Ġkeitimas":11816,"ĠiÅ¡lyg":11817,"Ġsezonas":11818,"Ġpaskelbtas":11819,"Bar":11820,"Ġemocijas":11821,"Ġpaveld":11822,"Reg":11823,"ĠTais":11824,"Ġhidro":11825,"Ġnepapras":11826,"Ġ{":11827,"Ġetikos":11828,"ĠrungtynÄĹs":11829,"Ġpasien":11830,"Ġmodifik":11831,"Ġmaistu":11832,"Ġdarbuotojus":11833,"Ġsidabro":11834,"tiÅ¡kos":11835,"ĠRokiÅ¡kio":11836,"galiÅ³":11837,"anÄįiose":11838,"ÄĻÅ¡":11839,"ĠBasan":11840,"ĠÅ¾mogiÅ¡k":11841,"ater":11842,"ĠRoÅ¾":11843,"ĠPrienÅ³":11844,"Ġvyriausiasis":11845,"ojusi":11846,"ĠIl":11847,"tru":11848,"Ġpamokos":11849,"ĠsusimÄħ":11850,"Eg":11851,"LR":11852,"Ġvaz":11853,"ĠaudiniÅ³":11854,"ĠbÄĹgant":11855,"ĠbÅ«rys":11856,"ĠdainÄħ":11857,"aujanti":11858,"ĠÅłis":11859,"Ġnere":11860,"ĠpasitikÄĹjimo":11861,"ĠnepriklausomybÄĻ":11862,"Ġsekti":11863,"ĠklubÅ³":11864,"Ġsala":11865,"otai":11866,"ĠsudÄĹtis":11867,"Ġalbumo":11868,"Ġnepris":11869,"Ġilgam":11870,"ĠBag":11871,"ĠÅ¾vaigÅ¾dÅ¾iÅ³":11872,"Ġpraleid":11873,"Ġsavininkai":11874,"ĠlietuviÅ¡kos":11875,"ÄĹjusio":11876,"teli":11877,"ĠuÅ¾tr":11878,"ĠarchitektÅ«r":11879,"Ġlenki":11880,"Ġekipa":11881,"Ġdvigubai":11882,"ĠpatikÄĹti":11883,"Å«tÄĹ":11884,"Ġ54":11885,"Ġdemokrat":11886,"amÅ¾iÅ³":11887,"Ġkitame":11888,"ĠapÅ¡il":11889,"Ġpob":11890,"dik":11891,"Veik":11892,"ĠlaivÅ³":11893,"Ġveltui":11894,"ĠrÅ«Å¡ys":11895,"inÄĹjimas":11896,"ÄĹjime":11897,"angai":11898,"uomenÅ³":11899,"vat":11900,"ĠmaÅ¾esnÄĹ":11901,"ĠNemuno":11902,"Ġsurengti":11903,"ĠiÅ¡sin":11904,"dal":11905,"lie":11906,"Ġugdyti":11907,"Å«si":11908,"SA":11909,"Ġanali":11910,"Ġgeneralinis":11911,"esas":11912,"Ypat":11913,"ĠSaulÄĹs":11914,"ĠÅłvÄį":11915,"%.":11916,"Ġrezultatu":11917,"Ġnustatymo":11918,"okÅ³":11919,"ĠÄ¯rodyti":11920,"aliam":11921,"kst":11922,"Ġbakal":11923,"ĠVelyk":11924,"ĠvirtuvÄĹ":11925,"ytojui":11926,"Ġvizu":11927,"ĠapÅ¾vel":11928,"ĠsiuÅ¾":11929,"Ġfilmus":11930,"teliu":11931,"ĠdarÄĹ":11932,"Ġpavojus":11933,"ĠÅ¾vilgsnio":11934,"Ġgalimai":11935,"ĠstruktÅ«ros":11936,"Siun":11937,"ĠFl":11938,"ĠmasaÅ¾":11939,"Ġsubalans":11940,"Turiu":11941,"ĠpalaidinÄĹ":11942,"73":11943,"Ġisl":11944,"ĠTu":11945,"ĠÄ¯trauki":11946,"Ġlabdar":11947,"uke":11948,"dÅ¾iau":11949,"ĠupÄĹ":11950,"alinÄĹ":11951,"ĠÅ¡lai":11952,"Ġatras":11953,"ĠWil":11954,"ĠpaskutinÄĹs":11955,"Ġpasibaigus":11956,"Ġlek":11957,"ĠaukÅ¡tai":11958,"ony":11959,"esta":11960,"ĠesanÄįio":11961,"Ġgamintojas":11962,"Ġnedr":11963,"Ġpastangas":11964,"tiki":11965,"ĠpaÅ¾in":11966,"Ġsaloje":11967,"ĠatstovÄĹ":11968,"aidÄĹ":11969,"ĠnagÅ³":11970,"istiniÅ³":11971,"ĠnuostatÅ³":11972,"Ġsfer":11973,"ĠÅ¡ans":11974,"Ġsmegen":11975,"Ġjaunimui":11976,"Å¾uv":11977,"engiant":11978,"Ġschem":11979,"Ġpasauliui":11980,"Ġsuinteres":11981,"TAS":11982,"auju":11983,"Å«naitÄĹ":11984,"ĠpaÅ¾ymÄĹti":11985,"ĠRadvil":11986,"ĠMa":11987,"Ġtest":11988,"idai":11989,"Ġmontavimas":11990,"Ð¸Ð":11991,"Ġsukeli":11992,"Ġsarg":11993,"ĠtrÄħ":11994,"Ġpilis":11995,"Ġmelod":11996,"ĠÅ¾urnalo":11997,"Ġintelektu":11998,"Ġstorio":11999,"Ġpabaiga":12000,"dÅ¾ios":12001,"Ġsluoksnis":12002,"ĠvaiÅ¡":12003,"rganiz":12004,"sÄĹj":12005,"Ġenciklop":12006,"rop":12007,"Ġstambi":12008,"Ġdalyvius":12009,"Ġgeograf":12010,"Mon":12011,"Dis":12012,"Ġnelyg":12013,"Ġjauna":12014,"Ġpalieka":12015,"ĠbÅ«dai":12016,"Ġnevar":12017,"ĠpaÅ¡tas":12018,"ĠeÅ¾eras":12019,"Hotels":12020,"Ġsusitvark":12021,"Ġlyga":12022,"ĠgyvÅ«nai":12023,"ĠdeÅ¡imtmeÄįius":12024,"ĠJungtinÄĹs":12025,"que":12026,"Skelb":12027,"ĠUN":12028,"Ġtriko":12029,"Ġbaj":12030,"Ġkamera":12031,"rom":12032,"ĠÅ¡itÄħ":12033,"Ġpatiri":12034,"Ġtarptautinio":12035,"lyje":12036,"ÄĹgiÅ³":12037,"ĠkunigÅ³":12038,"osp":12039,"akius":12040,"Er":12041,"Ġpartneriai":12042,"ĠdidesniÅ³":12043,"Ġkoncentr":12044,"Ġdrama":12045,"Ġbaid":12046,"Ġpagaminta":12047,"stravo":12048,"Ġbilietus":12049,"ĠmergaitÄĹs":12050,"Ġobjekto":12051,"ĠRes":12052,"tyniÅ³":12053,"ĠVir":12054,"Ġbendradarbiauti":12055,"ĠTom":12056,"inkitÄĹs":12057,"ĠloÅ¡":12058,"kirsti":12059,"toriui":12060,"aris":12061,"ju":12062,"Ġapsisprend":12063,"ĠiÅ¡raÅ¡":12064,"gin":12065,"ĠVirgin":12066,"Ġstudijuoti":12067,"ĠBrius":12068,"Ġkojas":12069,"Ġnorintiems":12070,"ĠkraujagysliÅ³":12071,"Ġlikus":12072,"eÅ¡i":12073,"ĠmakiaÅ¾o":12074,"Ġlogoti":12075,"Ġslop":12076,"Ġatom":12077,"uojamo":12078,"ĠparduotuvÄĻ":12079,"Ġprisik":12080,"Ġfotos":12081,"ĠÄ¯renginiai":12082,"ĠjaunÅ³jÅ³":12083,"ĠidÄĹj":12084,"Facebook":12085,"Ġsulaukti":12086,"Ġskirtingos":12087,"ĠaplinkiniÅ³":12088,"Ġnuotraukoje":12089,"Ġzonoje":12090,"Ġgalvoja":12091,"ĠuÅ¾duoti":12092,"ĠatsiÅ¾velgti":12093,"ĠakivaizdÅ¾iai":12094,"ĠDievui":12095,"ĠEv":12096,"ĠSand":12097,"ĠneÄ¯gal":12098,"Ġgarsus":12099,"Ġsveikat":12100,"atuir":12101,"ĠfinansinÄĹs":12102,"Ġmalonu":12103,"ĠKaiÅ¡iad":12104,"ĠXIII":12105,"Ġginti":12106,"Ġtarptautinis":12107,"PlaÄįiau":12108,"onomis":12109,"ĠreikÅ¡mÄĹ":12110,"Ġaktual":12111,"Ġkonkret":12112,"Ġdera":12113,"Kalbant":12114,"Ġsuprantu":12115,"Labiausiai":12116,"ĠPau":12117,"Ġkomisariato":12118,"Ġ110":12119,"Ġpamokas":12120,"ĠBab":12121,"utÄĹje":12122,"ĠdrabuÅ¾":12123,"ĠsveikÄħ":12124,"insiu":12125,"Ġneturiu":12126,"ĠpelÄĹs":12127,"Ġneutr":12128,"Ġdoc":12129,"Prasid":12130,"ĠkrÅ«tinÄĹs":12131,"ĠiÅ¡silavinimÄħ":12132,"Ġsmulki":12133,"oth":12134,"ĠtreniruotÄĹs":12135,"ĠBirÅ¾Å³":12136,"ĠstriukÄĹs":12137,"ĠÅ¡ilum":12138,"ĠtinklÄħ":12139,"liumi":12140,"Ġnesunkiai":12141,"Ġnamams":12142,"antÄĹ":12143,"Ġatvejus":12144,"PagrindinÄĹ":12145,"ĠNew":12146,"ĠSab":12147,"ĠveiksniÅ³":12148,"ĠsumaÅ¾ina":12149,"kaito":12150,"ĠaukÅ¡tyn":12151,"ĠslÄĹn":12152,"Ġatiteko":12153,"Ġvykdoma":12154,"Ġ\\":12155,"trus":12156,"\":\"":12157,"Ġbendros":12158,"Ġnutol":12159,"Ġvairo":12160,"Ġaktuali":12161,"fos":12162,"ĠÄ¯sigali":12163,"Ġteise":12164,"ĠprocedÅ«rÅ³":12165,"Straip":12166,"Lauk":12167,"Ġpavien":12168,"ĠÄ¯raÅ¡as":12169,"ĠdaÅ¾ai":12170,"ĠmoterÄ¯":12171,"Ġkolektyvas":12172,"ĠPanevÄĹÅ¾yje":12173,"Ġstatyba":12174,"Ã¶":12175,"Ġadap":12176,"Min":12177,"89":12178,"Ã¼":12179,"ide":12180,"ĠlaikÄĹ":12181,"ĠakÄ¯":12182,"Ġkomplik":12183,"Ġdeguo":12184,"Å½iem":12185,"ĠLiud":12186,"ĠprofesionalÅ³":12187,"Ð¾Ð²":12188,"ĠbÅ«site":12189,"ĠpamuÅ¡":12190,"Ġmokyklas":12191,"NeÅ¾inau":12192,"ĠAur":12193,"Centr":12194,"Ġpareikal":12195,"ĠprekÄĹ":12196,"ĠskaitÄĹ":12197,"ĠUniver":12198,"Ġgimnazija":12199,"ĠuÅ¾siimti":12200,"ĠgÄĹlÄĹs":12201,"ojos":12202,"ĠiÅ¡vaizdÄħ":12203,"Ġstak":12204,"eiÅ¡kÄĹ":12205,"ĠVidur":12206,"hol":12207,"ĠMerk":12208,"Ġbalsas":12209,"Ġpakviesti":12210,"Ġbut":12211,"Nel":12212,"Tikriausiai":12213,"akartoj":12214,"ĠValstybinÄĹs":12215,"Ġapgalv":12216,"ĠstovÄĹjo":12217,"ĠÅ¾vaigÅ¾dÄĹ":12218,"ĠkW":12219,"kap":12220,"Ġatsiskait":12221,"Ġteka":12222,"Ġmand":12223,"ÄĹkime":12224,"Ġuniversitet":12225,"Ġvalios":12226,"Pasirodo":12227,"uomo":12228,"Ġkainomis":12229,"Ġsusisiekti":12230,"Ġtelefonas":12231,"ĠJonavos":12232,"inamÄħ":12233,"mies":12234,"ĠÅ¾iau":12235,"Ġvaizdai":12236,"Ġmoderniz":12237,"my":12238,"Niekas":12239,"Ġpopuliarus":12240,"Ġfini":12241,"Ġsuaugusiems":12242,"Ġsekso":12243,"ĠuÅ¾rak":12244,"ĠlaidÅ³":12245,"ĠpraneÅ¡imas":12246,"Neseniai":12247,"ĠprotÄĹ":12248,"esiai":12249,"ĠnereikÄĹs":12250,"Ġmoksleiviai":12251,"Ġsutvarkyti":12252,"Ġnariais":12253,"Pernai":12254,"Ġpageidauj":12255,"ulo":12256,"ingumu":12257,"ise":12258,"Ġsag":12259,"ĠprasmÄĹs":12260,"Ġklientas":12261,"ĠAli":12262,"Renginio":12263,"tiesiog":12264,"Ġspecifik":12265,"ĠdidÅ¾iÅ³jÅ³":12266,"Ġmokymai":12267,"Ġvyru":12268,"Sup":12269,"ĠvalstybÄĹse":12270,"IÅ¡k":12271,"ĠÄ¯kal":12272,"Ġpacientams":12273,"ĠÅ¾iniasklaid":12274,"Atvyk":12275,"odas":12276,"ĠtechnikÄħ":12277,"ley":12278,"ĠÅ¾inomÅ³":12279,"Vilniuje":12280,"ĠÄ¯gal":12281,"ĠJÅ«r":12282,"ĠtÄĹra":12283,"Ġpertraukos":12284,"ĠVladim":12285,"ĠpatogÅ«s":12286,"ĠgirdÄĹti":12287,"Ġvertik":12288,"ĠantrÄħjÄħ":12289,"Ġbateliai":12290,"ĠUkrainoje":12291,"Liepos":12292,"Ġatsargiai":12293,"ĠbilietÅ³":12294,"Nemok":12295,"Ġstreso":12296,"ultÅ«r":12297,"ĠinÅ¾iner":12298,"stis":12299,"ĠbaimÄĹs":12300,"EP":12301,"Ġmintimis":12302,"Ġtikslu":12303,"ĠneÄ¯gali":12304,"Ġnuostatas":12305,"ath":12306,"Ġteikiamos":12307,"atvÄĹs":12308,"ĠnepaÅ¾Ä¯st":12309,"ĠtarnybÄħ":12310,"Ġkontekste":12311,"Ġdor":12312,"Ġapdovanoti":12313,"Ġeid":12314,"Ġgras":12315,"Ġteniso":12316,"PraneÅ¡":12317,"ukso":12318,"ĠLau":12319,"Ġautoriai":12320,"Tiks":12321,"cia":12322,"Ġgarsiai":12323,"61":12324,"Â»":12325,"ĠKalvar":12326,"Ġbijo":12327,"Ġnauda":12328,"ĠesanÄįius":12329,"ĠÄ¯raÅ¡Äħ":12330,"ĠMindaugo":12331,"Ġprogos":12332,"ÃŃ":12333,"pats":12334,"Ġdon":12335,"Ġtradicijos":12336,"ĠÅłirv":12337,"Ġsekasi":12338,"ĠaktorÄĹ":12339,"Ġpaauk":12340,"Ġlob":12341,"Ġsiaur":12342,"Ġkosm":12343,"ĠiÅ¡likti":12344,"Ġpertvark":12345,"Ġpapasakoti":12346,"Ġapykai":12347,"ĠsvetainiÅ³":12348,"tomat":12349,"Ġmetodus":12350,"ĠbebÅ«tÅ³":12351,"ĠtonÅ³":12352,"yras":12353,"ĠVU":12354,"ĠakmenÅ³":12355,"Ġperkel":12356,"Ġnepageid":12357,"Ġprez":12358,"Ġ64":12359,"ĠvÄĹjas":12360,"ĠSP":12361,"Ġprevencijos":12362,"ulmon":12363,"Ġlikvid":12364,"ĠÄ¯prastai":12365,"Ġpasm":12366,"Ġgaminius":12367,"Ġvaistai":12368,"Ġtikru":12369,"sus":12370,"Å½iÅ«r":12371,"ĠÄ¯monei":12372,"ylÄĹ":12373,"ĠpuslapÄ¯":12374,"eras":12375,"Nr":12376,"Ġnov":12377,"Ġgautas":12378,"imenu":12379,"Ġatsipalaiduoti":12380,"Ġtei":12381,"82":12382,"Ġmanoma":12383,"ĠÅ¡abl":12384,"Special":12385,"Ġ700":12386,"Ġ1994":12387,"Ġmy":12388,"Ġpatvar":12389,"ĠAkmen":12390,"ĠkoncertÄħ":12391,"terijos":12392,"Ġgalimybe":12393,"tarp":12394,"ĠMarc":12395,"ĠZaras":12396,"Ġatostogas":12397,"Ġmergaitei":12398,"ĠinformaciniÅ³":12399,"ĠdatÄħ":12400,"Ġresurs":12401,"ĠnutarÄĹ":12402,"emiantis":12403,"Ġtereikia":12404,"Ġvy":12405,"Ġprincipus":12406,"94":12407,"ĠMarÅ¡k":12408,"Aus":12409,"klÄĹ":12410,"ĠdidÅ¾iÄħjÄħ":12411,"ĠpritarÄĹ":12412,"ĠÅ¾aidyn":12413,"ĠsÅ«nÅ³":12414,"ĠValsti":12415,"Ġkomitetas":12416,"ykti":12417,"Ġgaliojimo":12418,"ĠVaikÅ³":12419,"Ġpasimat":12420,"Ġkeliuose":12421,"aitytÄĹ":12422,"Ġnaudojimui":12423,"cipl":12424,"ĠneÅ¡var":12425,"Ġvoki":12426,"ĠpadidÄĹjo":12427,"Ġvengti":12428,"ĠÄ¯Å¾valg":12429,"enÄĹs":12430,"Ġneleis":12431,"uosime":12432,"Ġviduri":12433,"51":12434,"yÅ¾iuje":12435,"eikÅ¡m":12436,"ĠVilkaviÅ¡k":12437,"Ġatsakymas":12438,"estas":12439,"Ġturintiems":12440,"Ġatvyksta":12441,"Noriu":12442,"Ġnorima":12443,"ĠkodÄħ":12444,"AG":12445,"ĠmenininkÅ³":12446,"ĠgrÄħÅ¾inimo":12447,"Ġapval":12448,"takos":12449,"Ġstudijavo":12450,"Ġvadovauja":12451,"Ġlankytojai":12452,"ĠRol":12453,"Ġvaisius":12454,"Ġestet":12455,"Ġvasara":12456,"Ġtieki":12457,"ĠmylÄĹti":12458,"odÄĹ":12459,"Ġkambariai":12460,"Ġjutik":12461,"ĠÄ¯sil":12462,"Mic":12463,"ĠesanÄįiÄħ":12464,"ĠstebÄĹjimo":12465,"Band":12466,"Ġsuorganiz":12467,"ĠtrÅ«kumas":12468,"Ġnejau":12469,"ĠMÄĹlyna":12470,"ĠteismÄħ":12471,"rikÅ¡Äįi":12472,"ĠmergaitÄĹ":12473,"Ġjap":12474,"eikus":12475,"Ġmodeli":12476,"ĠpraneÅ¡imus":12477,"ĠgroÅ¾Ä¯":12478,"ĠpaaugliÅ³":12479,"ago":12480,"Ġseser":12481,"imtas":12482,"Ġsvarsto":12483,"ĠÅ¾enklus":12484,"Ġspausd":12485,"Artim":12486,"Ġindustri":12487,"telis":12488,"Ġpon":12489,"ĠpaÅ¾ymÄĹjo":12490,"Ġbesir":12491,"ĠmedÅ¾iagomis":12492,"ĠiÅ¡veng":12493,"Ġdieno":12494,"otan":12495,"ĠgalimÅ³":12496,"Ġcentru":12497,"Ġreglamen":12498,"Ġbankro":12499,"usia":12500,"ĠkrizÄĹs":12501,"Ġve":12502,"ĠbÅ«dingas":12503,"plÄĹÅ¡":12504,"ĠpÄĹsÄįiÅ³jÅ³":12505,"kaitÄĻ":12506,"ĠpagrÄ¯s":12507,"ĠSaul":12508,"Ġdist":12509,"ĠtobulÄĹti":12510,"ĠnuodÄĹm":12511,"ĠÅ¾lug":12512,"Kor":12513,"ĠuÅ¾mirÅ¡":12514,"ĠvieÅ¡buÄįiai":12515,"Ġkenksm":12516,"Ġspalvas":12517,"Ġinformuoja":12518,"esia":12519,"kat":12520,"Ġsmagi":12521,"Ġdeng":12522,"ĠparkÄħ":12523,"bar":12524,"Ġapeig":12525,"Ġvalymas":12526,"TokiÅ³":12527,"De":12528,"ĠorÄħ":12529,"Å«dÄ¯":12530,"Ġatsakymo":12531,"Ġ1993":12532,"Mal":12533,"ĠsudÄĹtingas":12534,"ĠapÅ¡vietimo":12535,"Ġsugri":12536,"atoriumi":12537,"ĠrajonÅ³":12538,"Ġkitoks":12539,"Å½algir":12540,"Ġekonomika":12541,"ĠmÄĹnesiais":12542,"ĠÄ¯sisav":12543,"Ġbeton":12544,"rin":12545,"Ġteorijos":12546,"eit":12547,"ĠVan":12548,"lid":12549,"ĠKinijoje":12550,"uch":12551,"Ġdalyvis":12552,"Ġjokiu":12553,"ĠÅ¾aism":12554,"ĠTurki":12555,"ĠgelbÄĹjimo":12556,"maÅ¾":12557,"Ġpopier":12558,"ĠAgn":12559,"ĠatvykÄĻ":12560,"jaun":12561,"Kaunas":12562,"nom":12563,"ĠpoÅ¾em":12564,"laugos":12565,"inaras":12566,"uojantÄ¯":12567,"ĠÄ¯raÅ¡yti":12568,"ĠpaieÅ¡ka":12569,"Ġnebep":12570,"Ġtabl":12571,"Ġindividualiai":12572,"ĠregionÅ³":12573,"ĠdidÅ¾iausi":12574,"Ġbuvusios":12575,"93":12576,"ĠatsidÅ«rÄĹ":12577,"Ġtatuir":12578,"ĠbiudÅ¾etÄħ":12579,"Ġ53":12580,"Ġsport":12581,"ĠFran":12582,"ĠpagrindinÄ¯":12583,"Ġdidelius":12584,"Ġ1940":12585,"Ġenerget":12586,"ĠitalÅ³":12587,"Ġreikalo":12588,"ĠÄ¯sir":12589,"Ġkraujyje":12590,"Ġneaps":12591,"Ġ51":12592,"Ġmatematikos":12593,"Ġsing":12594,"vydo":12595,"ĠuÅ¾dr":12596,"æľ":12597,"Ġkint":12598,"Ġsveikas":12599,"ĠnatÅ«rali":12600,"oninÄĹs":12601,"ĠbulviÅ³":12602,"indÅ¾i":12603,"Ġgimdymo":12604,"Ġkolekcijos":12605,"Ġpertvar":12606,"ĠvidÅ³":12607,"ĠvirÅ¡ininkas":12608,"Ġpatarimai":12609,"Ġpagrindinius":12610,"Paskelb":12611,"DD":12612,"eidÅ¾iama":12613,"ĠveislÄĹs":12614,"ĠgreiÄįiu":12615,"Ġnaujais":12616,"ĠLo":12617,"Ġkitokia":12618,"entui":12619,"ministra":12620,"Moteris":12621,"damasis":12622,"Ġkalboje":12623,"Ġnepan":12624,"Ġakivaizdu":12625,"Ġnusid":12626,"ĠatidÅ¾iai":12627,"Visus":12628,"Mir":12629,"aja":12630,"ĠSta":12631,"Ġsuprojek":12632,"ĠjudÄĹjimas":12633,"Ġatstovais":12634,"Ġpaskola":12635,"Å¡luos":12636,"Ġatsil":12637,"Ġprojektui":12638,"Pok":12639,"ĠanalizÄĹs":12640,"ĠPlungÄĹs":12641,"Ġ62":12642,"ĠleidimÄħ":12643,"Ġperkant":12644,"84":12645,"Ġles":12646,"ĠpuikÅ³":12647,"Ġtikslai":12648,"ĠketvirtÄ¯":12649,"ĠSc":12650,"anÅ¾":12651,"ĠsandÄĹlyje":12652,"Ġvyrauja":12653,"Ġveiksmas":12654,"ĠtÅ«kstanÄįiai":12655,"Ġbroliai":12656,"zÅ«":12657,"ĠplatÅ³":12658,"ĠprivaÄįiÅ³":12659,"ĠMac":12660,"ĠÅ«g":12661,"ĠIndijos":12662,"kui":12663,"ĠgamtÄħ":12664,"dÄĹl":12665,"ulos":12666,"tims":12667,"Ġpasirodys":12668,"Ġlok":12669,"Ġoperos":12670,"Ġprincipas":12671,"ĠRyg":12672,"manas":12673,"ĠpailsÄĹti":12674,"Prak":12675,"tinimas":12676,"ĠraukÅ¡":12677,"ÄħÅ¾inti":12678,"ĠÅ¾emdirb":12679,"tant":12680,"Ġturint":12681,"ĠpaÅ¾velgti":12682,"dabar":12683,"Ġniekuo":12684,"Ġsektoriuje":12685,"Ġatvejis":12686,"Ġjungtis":12687,"Ġgalutinai":12688,"Ġansamblis":12689,"aipsniui":12690,"ĠSil":12691,"Vais":12692,"Ġugniag":12693,"Ġpasisak":12694,"Ġkameros":12695,"ijungi":12696,"ĠPol":12697,"ĠaiÅ¡kina":12698,"ĠneaiÅ¡ku":12699,"Abu":12700,"yklÄĹ":12701,"Ġvyrui":12702,"ĠJuozo":12703,"ĠÅ¡iluma":12704,"Ġekspedi":12705,"urm":12706,"ĠbÅ«tini":12707,"uoji":12708,"Ġnemal":12709,"Sim":12710,"Ġsveiki":12711,"ĠÅ¾monos":12712,"Å¾Å³":12713,"Ġtragi":12714,"LE":12715,"tuvÄĹ":12716,"Ġtinkle":12717,"amam":12718,"ĠLDK":12719,"Ġpanaikinti":12720,"avas":12721,"ĠPeterb":12722,"ĠÄ¯darb":12723,"rif":12724,"ĠbutÄħ":12725,"tininkai":12726,"ravi":12727,"Ġpotenci":12728,"Ġinstitucija":12729,"Ġveiksmo":12730,"Ġpolitinis":12731,"ĠkonkreÄįiai":12732,"Ġskausm":12733,"avusiÅ³":12734,"ĠViÅ¡":12735,"Ġhip":12736,"ĠÅ¾alia":12737,"Ġmoteriai":12738,"ĠpensijÅ³":12739,"ĠuÅ¾imti":12740,"Ġdarbuotojo":12741,"ĠsuÅ¾av":12742,"ĠginklÅ³":12743,"Ġsunkus":12744,"Ġnorma":12745,"ĠvirtuvÄĹje":12746,"ĠauÅ¡":12747,"ĠgraÅ¾iÅ³":12748,"ÄĹbulo":12749,"orge":12750,"ybÄĹse":12751,"Steb":12752,"Ġpavaizd":12753,"Ġatsakingai":12754,"ĠabejonÄĹs":12755,"Ġkeitimo":12756,"ĠÅ¾avi":12757,"KA":12758,"okos":12759,"Ġgerus":12760,"ĠÅ¡irdyje":12761,"Ġsint":12762,"ĠID":12763,"ĠlinijÅ³":12764,"ĠdÅ¾iazo":12765,"ĠPetro":12766,"Sal":12767,"ĠÄ¯vesti":12768,"ĠPlat":12769,"ĠsituacijÅ³":12770,"Ġdalintis":12771,"ĠgraÅ¾ios":12772,"uolab":12773,"ĠtyrinÄĹj":12774,"ĠmokymÅ³":12775,"edo":12776,"teriÅ³":12777,"ĠdeÅ¡imties":12778,"Ġfunkcional":12779,"Ġypatingas":12780,"Ġnutiko":12781,"ĠsvajoniÅ³":12782,"ĠgydytojÅ³":12783,"Ġnetruk":12784,"Ġdidesni":12785,"ĠuÅ¾duoÄįiÅ³":12786,"skyrus":12787,"ĠÅ½il":12788,"ĠiÅ¡eina":12789,"ings":12790,"ĠapdovanojimÅ³":12791,"ĠpaÄįiai":12792,"Ġvykdomas":12793,"intuvas":12794,"baigi":12795,"ĠparodÅ³":12796,"Ġkvadrat":12797,"ĠDaugiau":12798,"Ġpuse":12799,"Parduodamas":12800,"ĠruoÅ¾tu":12801,"Phone":12802,"ĠiÅ¡reikÅ¡ti":12803,"Ġvienodai":12804,"''":12805,"vario":12806,"ĠKud":12807,"Prezid":12808,"ĠprasidÄĹs":12809,"ĠstruktÅ«rÄħ":12810,"ĠstatusÄħ":12811,"Ġmanimi":12812,"ĠsavybÄĹmis":12813,"Ġarenoje":12814,"Ġins":12815,"Å¡il":12816,"Ġsudarytas":12817,"ĠPrekÄĹs":12818,"Ġdiskusijos":12819,"Ġpersonalo":12820,"ilijos":12821,"eni":12822,"Ġtrumpam":12823,"ĠMet":12824,"GruodÅ¾io":12825,"pÄĹs":12826,"ĠâĪĴ":12827,"alumo":12828,"ĠgamybÄħ":12829,"Ġgydytoja":12830,"ĠKiti":12831,"ĠAlb":12832,"adoje":12833,"Ġpusfin":12834,"ĠsutarÄįiÅ³":12835,"Ġroman":12836,"ĠskrydÅ¾iai":12837,"Ġtekstas":12838,"ĠsvorÄ¯":12839,"ĠpadÄĹj":12840,"Ġpraleis":12841,"ĠGrybauskaitÄĹ":12842,"Ġpadaro":12843,"Ġtobulinti":12844,"aksti":12845,"ĠsudÄĹtÄ¯":12846,"Ġvartus":12847,"ĠLands":12848,"ĠkapinÄĹse":12849,"Ġpozicijos":12850,"Ġsimboliz":12851,"KalÄĹd":12852,"inukas":12853,"ÄĹlÄĹmis":12854,"ĠPortugal":12855,"Ġpajusti":12856,"Ġatsik":12857,"Ġlengvi":12858,"eriams":12859,"Ġreguliavimo":12860,"ĠtreniruoÄįiÅ³":12861,"Ġblogo":12862,"ric":12863,"Ġkurjeris":12864,"Ġkeistis":12865,"olÅ¡ev":12866,"Ġarbata":12867,"ĠmasÄĹ":12868,"Ġteisme":12869,"Ġpasod":12870,"Lig":12871,"Ġbuhalter":12872,"Ġkorek":12873,"ĠinternetinÄĹje":12874,",,":12875,"ĠgautÅ³":12876,"Åłvies":12877,"Ġunikalus":12878,"raÅ¡to":12879,"ĠvisokiÅ³":12880,"87":12881,"ĠPop":12882,"Ġmanyti":12883,"Ġpraleido":12884,"Ġpries":12885,"keviÄįiaus":12886,"YM":12887,"Ġmontavimo":12888,"ipuli":12889,"ĠVyri":12890,"ĠiÅ¡dÄĹst":12891,"Gel":12892,"Ġvaidmuo":12893,"Dain":12894,"ĠgraÅ¾Å«s":12895,"ĠJurbarko":12896,"Ġlapai":12897,"Ġtikina":12898,"ypi":12899,"uotojo":12900,"ĠSÄħjungoje":12901,"Ġprisideda":12902,"VilkaviÅ¡kio":12903,"Jon":12904,"aukÅ³":12905,"ĠasmeniniÅ³":12906,"arto":12907,"ĠaÄįiÅ«":12908,"ĠiÅ¡tver":12909,"ĠkryÅ¾i":12910,"ĠpraÄĹjo":12911,"inamasis":12912,"Ġskaidr":12913,"ĠPalangoje":12914,"Ġfasad":12915,"Ġvienuo":12916,"ruoj":12917,"Ġpademon":12918,"ĠÅ¾enklÄħ":12919,"Ġnuostatos":12920,"Ġkadaise":12921,"iekite":12922,"Ġmastu":12923,"telÄĹmis":12924,"ĠNorvegijos":12925,"ĠpridÅ«rÄĹ":12926,"iti":12927,"ĠKunigaikÅ¡":12928,"Paskui":12929,"Ġslaug":12930,"riko":12931,"ĠÅ«kininkÅ³":12932,"ĠdeÅ¡ini":12933,"ĠÄ¯vaizdÄ¯":12934,"Ġreprez":12935,"Ġstip":12936,"ĠgreitÄ¯":12937,"Ġvyriausiojo":12938,"ĠsavininkÅ³":12939,"ĠplotÄħ":12940,"eivius":12941,"Ġepiz":12942,"inate":12943,"edÄĹ":12944,"Ġimport":12945,"Ġplien":12946,"Ġgeriausiu":12947,"ankiai":12948,"Ġelgiasi":12949,"mena":12950,"Sub":12951,"acinio":12952,"bie":12953,"ĠDir":12954,"fotograf":12955,"Ġnepakartoj":12956,"Ġnetoliese":12957,"Ġlipd":12958,"ĠSU":12959,"ĠgreitÄħ":12960,"lietuv":12961,"ĠgyvybÄĻ":12962,"SudÄĹtis":12963,"Ġvietomis":12964,"keln":12965,"atik":12966,"ĠRÅ«d":12967,"Ġtokiomis":12968,"Ġbutas":12969,"Apskri":12970,"PradÅ¾ia":12971,"ĠSud":12972,"ĠBirÅ¡":12973,"Ġmeistri":12974,"Ġ..":12975,"ojimu":12976,"meÄįiu":12977,"ÐµÐ½":12978,"Ġspecialistus":12979,"Ġmalonus":12980,"Ġantroje":12981,"ĠÄ¯raÅ¡ai":12982,"omisi":12983,"Ġ140":12984,"Ġfilosofijos":12985,"Ġatrodys":12986,"timais":12987,"ake":12988,"!!!":12989,"Ġpusiausvyr":12990,"eliko":12991,"Ġtrita":12992,"ĠreikÅ¡ti":12993,"ĠpasidÅ¾iaugti":12994,"Ġelektroninio":12995,"Ġsuvien":12996,"Ġsusideda":12997,"Ġore":12998,"ĠmÄħstymo":12999,"gus":13000,"ĠrÅ«pi":13001,"eiÅ¡ki":13002,"Ġtrauki":13003,"ĠartimÅ³jÅ³":13004,"Å½emÄĹs":13005,"Ġkonsultacijos":13006,"Ġegl":13007,"Ġlat":13008,"kib":13009,"anÄįiuose":13010,"Ġgarantuoja":13011,"Ġfrag":13012,"daugiau":13013,".âĢĿ":13014,"Ġpakel":13015,"Ġragina":13016,"Ġaf":13017,"BC":13018,"vard":13019,"Ġkvies":13020,"Ġnormos":13021,"ĠpriedÅ³":13022,"ĠnusprÄĻsti":13023,"ĠValen":13024,"smas":13025,"GraÅ¾":13026,"ĠmirtÄ¯":13027,"ĠpaÄįias":13028,"inÄįiÅ³jÅ³":13029,"ĠNBA":13030,"ĠÅ¾monijos":13031,"Ġkolegijos":13032,"Ġtrejus":13033,"Ġpavadinti":13034,"ĠsÄħveik":13035,"ĠpavyzdÄ¯":13036,"ĠsunkumÅ³":13037,"ĠakimirkÄħ":13038,"Ġnebij":13039,"Ġdaktaras":13040,"ĠpuikÅ«s":13041,"kuo":13042,"ĠkÅ«rybÄħ":13043,"ĠÅ¾vÄĹr":13044,"ĠAT":13045,"83":13046,"ĠÄ¯Å¾vel":13047,"Ġnurodytas":13048,"ĠÅ¡unys":13049,"toras":13050,"ĠgrÅ«dÅ³":13051,"Ġintensyviai":13052,"Ġpilnas":13053,"Ġpud":13054,"ilind":13055,"ainiai":13056,"Jung":13057,"Ġnuopeln":13058,"Ġradik":13059,"metyje":13060,"ĠrankovÄĹs":13061,"Ġuoste":13062,"edant":13063,"ĠversijÄħ":13064,"ext":13065,"ĠbÅ«Äįiau":13066,"Ġplov":13067,"Ġribas":13068,"ĠskrydÅ¾io":13069,"ĠmÄĹsa":13070,"ĠbuvusiÅ³":13071,"Ġvalstybinio":13072,"amiems":13073,"ĠsÄħnaudos":13074,"lia":13075,"ĠpraneÅ¡imÅ³":13076,"Ġprabangi":13077,"Ġnelik":13078,"tavimo":13079,"Nori":13080,"ĠsavanoriÅ³":13081,"ĠaÅ¡tri":13082,"Å¡yps":13083,"Ġsusiklos":13084,"Ġatgim":13085,"Ġligas":13086,"ĠIgnalinos":13087,"Nauji":13088,"Ġ57":13089,"ĠsusipaÅ¾ino":13090,"Ġapsipirk":13091,"ĠorganizmÄħ":13092,"ĠpuikiÄħ":13093,"Ġgavau":13094,"ĠtarptautinÄĹ":13095,"ĠÄ¯taka":13096,"oÅ¾em":13097,"Ġskalbimo":13098,"niais":13099,"ement":13100,"ĠAntano":13101,"ybose":13102,"Ġantroji":13103,"Ġdebiut":13104,"ĠKGB":13105,"Ġapdailos":13106,"ĠgyvenvietÄĹs":13107,"rantÅ³":13108,"Ġseptin":13109,"ĠetapÄħ":13110,"ĠlaipsnÄ¯":13111,"Ġmokymus":13112,"ĠtyrinÄĹ":13113,"Ġkaupi":13114,"ĠStar":13115,"Ġnemokama":13116,"eidimas":13117,"chas":13118,"ĠvieÅ¡butÄ¯":13119,"ĠEurol":13120,"Ġpropor":13121,"----------------":13122,"Ġstovyklos":13123,"Ġreligijos":13124,"ĠPaÅ¡":13125,"Ġbeje":13126,"ymÄħsi":13127,"ĠdydÅ¾iÅ³":13128,"Ġimti":13129,"amsung":13130,"ĠratÅ³":13131,"ĠÅ¾uvis":13132,"Ġmatomas":13133,"tali":13134,"ĠpripaÅ¾Ä¯sta":13135,"ĠRag":13136,"eksu":13137,"akÅ³":13138,"ĠpusmetÄ¯":13139,"ĠatrodytÅ³":13140,"ĠÄ¯tamp":13141,"Ġkompiuteris":13142,"ĠnuotykiÅ³":13143,"Ġklubai":13144,"ĠÅ¾iÅ«rovai":13145,"ĠÅ¡aun":13146,"Ġpateikimo":13147,"ĠuostÄħ":13148,"Fo":13149,"ĠligoninÄĻ":13150,"Ġelementus":13151,"Ġprojektavimo":13152,"Ġpristatys":13153,"sÅ³":13154,"iose":13155,"ytes":13156,"rank":13157,"niau":13158,"Ġpavyksta":13159,"Ġnutik":13160,"ĠÅ¾enklu":13161,"inijos":13162,"Å«nienÄĹ":13163,"ĠkÅ«rinÄ¯":13164,"ĠsocialinÄĻ":13165,"ĠsostinÄĹ":13166,"Ġspalvomis":13167,"Ġliudija":13168,"Ġ01":13169,"Ġsult":13170,"ailg":13171,"Å¾ad":13172,"ĠNyderland":13173,"Ġbaigti":13174,"sig":13175,"Ġ1945":13176,"Sausio":13177,"Ġpavadino":13178,"Ġtamp":13179,"Ġrekomenduojame":13180,"istikos":13181,"Å¾u":13182,"ytojÄħ":13183,"Ġnaudojantis":13184,"ĠtapatybÄĹs":13185,"ĠInform":13186,"91":13187,"ĠnesÄħmon":13188,"olf":13189,"ĠkryptÄ¯":13190,"ĠpanaÅ¡iÅ³":13191,"Galv":13192,"IP":13193,"Ġprincipu":13194,"ĠstengÄĹsi":13195,"ĠKaunÄħ":13196,"Ġetapo":13197,"ykÄ¯":13198,"ĠÅ¡ventÄĹje":13199,"ĠgalÅ³":13200,"Paklaus":13201,"Ġremiasi":13202,"Ġevangeli":13203,"Ġraudona":13204,"ĠreikalingÅ³":13205,"Ġkalori":13206,"Ġplatus":13207,"joms":13208,"\"),":13209,"Ġnariu":13210,"Ġtyliai":13211,"Ġnaujag":13212,"ĠpavirÅ¡i":13213,"ĠjÅ«ra":13214,"ĠgrÄĻÅ¾":13215,"biliÅ³":13216,"ĠprieÅ¡gais":13217,"Ġbalso":13218,"Ġatminimo":13219,"Ġtilto":13220,"Ġpakelti":13221,"Ġkilim":13222,"ĠpastatÄħ":13223,"Ġfas":13224,"Klas":13225,"Ġlikimas":13226,"2002":13227,"ĠasmenÄ¯":13228,"ingiau":13229,"tuvus":13230,"Ġproduktyv":13231,"Ġpapildyti":13232,"Ġnaujasis":13233,"ÄĹtojai":13234,"GraÅ¾i":13235,"Ġrytas":13236,"ĠteisinÄĹs":13237,"azi":13238,"Ġdeser":13239,"ĠmedvilnÄĹ":13240,"ĠpersikÄĹlÄĹ":13241,"Ġpasiteis":13242,"Ġsubr":13243,"Ġdomisi":13244,"ĠDELFI":13245,"Ġtikiuosi":13246,"ĠmankÅ¡":13247,"ologai":13248,"Ġprotest":13249,"tingumÄħ":13250,"Ġangliav":13251,"Ġatskiras":13252,"Ġduben":13253,"ĠKij":13254,"Ġbatali":13255,"ask":13256,"Ġlaidoje":13257,"ĠStal":13258,"ĠstatiniÅ³":13259,"Ġnenaudoj":13260,"Ġprotes":13261,"Ġbyla":13262,"Ġrinkimai":13263,"Ġsezonui":13264,"Ġsuderinti":13265,"oniz":13266,"gmail":13267,"Ġidealiai":13268,"ĠbÅ«dinga":13269,"ĠBel":13270,"Ġcentrai":13271,"ĠAntan":13272,"ĠÅ«gio":13273,"epti":13274,"Å«dijanÄįio":13275,"omosios":13276,"ĠÅ¾iniasklaida":13277,"ĠÅ¾iev":13278,"ĠKaralystÄĹs":13279,"ĠapraÅ¡o":13280,"egistrav":13281,"ĠIP":13282,"Link":13283,"aciniai":13284,"yrÅ³":13285,"raÅ¡Äįio":13286,"ĠmatÄĹ":13287,"Ġpaskatinti":13288,"Ġinven":13289,"did":13290,"ĠÄ¯vertinimÄħ":13291,"ingam":13292,"ĠmokesÄįiai":13293,"Ġdirbtuv":13294,"Ġnuostabus":13295,"ojimui":13296,"ĠDÄĹl":13297,"tiÅ¡kÅ³":13298,"Ġdalimis":13299,"irbti":13300,"ĠpriekaiÅ¡":13301,"Ġvairuoti":13302,"ĠHen":13303,"NeÄ¯":13304,"Ġpereiti":13305,"ĠplanÅ¡":13306,"ĠpastatÄĹ":13307,"Åłiaip":13308,"Ġiliuz":13309,"Ġbendravimas":13310,"ĠprogÄħ":13311,"ĠuÅ¾uol":13312,"Ġsujungti":13313,"ĠnebÅ«na":13314,"La":13315,"eika":13316,"ĠLiv":13317,"ĠÅ¾ind":13318,"Ġpinigais":13319,"Ġauditori":13320,"Ġmiegoti":13321,"jeras":13322,"Ġils":13323,"Ġkiekviename":13324,"ĠrÅ«gÅ¡ÄįiÅ³":13325,"Ġfederacijos":13326,"uotÄĹje":13327,"Ġvakaras":13328,"anc":13329,"taisyti":13330,"ĠgerovÄĹs":13331,"ciz":13332,"ĠpasiraÅ¡yti":13333,"Ġpaklausti":13334,"valst":13335,"Åłe":13336,"ĠvidurinÄĹs":13337,"ĠvaldymÄħ":13338,"ĠÅ¡iaurÄĻ":13339,"Ġpateiktas":13340,"ĠprietaisÅ³":13341,"ĠtÄĻsiasi":13342,"KitÄħ":13343,"ĠNacionalinÄĹs":13344,"Ġsvarbios":13345,"Ġpristatyta":13346,"DF":13347,"ÄĹtojÅ³":13348,"ĠRank":13349,"Ġmiestai":13350,"ĠAukÅ¡Äįiausi":13351,"Ġsmals":13352,"Ġbilietai":13353,"Ġatsispind":13354,"Ġtapybos":13355,"ÄĹmus":13356,"ĠiÅ¡keli":13357,"ovie":13358,"ĠÅ¡eimoms":13359,"ĠtradiciÅ¡kai":13360,"ÄĹjaus":13361,"))":13362,"uojanÄįius":13363,"Siek":13364,"ĠmiÅ¡kÄħ":13365,"viesti":13366,"Sur":13367,"Sekm":13368,"Papil":13369,"ĠiÅ¡laisv":13370,"ĠDarius":13371,"Ġalg":13372,"intu":13373,"Ġstebi":13374,"Ġsudom":13375,"Nev":13376,"Ġstrategijos":13377,"ĠplanÅ³":13378,"ĠÄ¯mones":13379,"Ġaplik":13380,"ĠsÄħskaitos":13381,"ĠUÅ¾s":13382,"Ġdraugams":13383,"davosi":13384,"bai":13385,"tnaudÅ¾i":13386,"Ġmityba":13387,"ĠpardavimÅ³":13388,"Ġdatos":13389,"ĠGabrie":13390,"ĠnepamirÅ¡ti":13391,"ĠTaurag":13392,"Ġpasitrauk":13393,"Ġzona":13394,"Ġapyvar":13395,"ĠuÅ¾ter":13396,"ĠiÅ¡paÅ¾":13397,"ining":13398,"ĠaÅ¡tun":13399,"ĠgydymÄħ":13400,"ĠBals":13401,"Patog":13402,"ĠpridÄĹti":13403,"ĠdaÅ¾Å³":13404,"ĠuÅ¾kl":13405,"Ġnumato":13406,"ĠÅ¡iltn":13407,"iausiÄħ":13408,"ĠpasiÅ«lymas":13409,"Ġmetro":13410,"ĠEstijoje":13411,"Ġfragmen":13412,"ĠkandidatÅ³":13413,"ĠkÅ«dikio":13414,"Ġnumatytas":13415,"Ġrekomenduoja":13416,"ĠsavaitÄĹ":13417,"Ġprel":13418,"sik":13419,"ĠrÅ«gÅ¡tis":13420,"eikite":13421,"Ġportalas":13422,"Ġvertinimas":13423,"Ġsind":13424,"ĠasmeninÄĹs":13425,"entuoti":13426,"nin":13427,"nors":13428,"Ġteorija":13429,"xt":13430,"Ġsakau":13431,"Ġmanote":13432,"Aki":13433,"Ġpaskirtis":13434,"ĠdiskusijÅ³":13435,"ĠÄ¯statymai":13436,"CH":13437,"Ġneur":13438,"ĠÄ¯tari":13439,"poli":13440,"ĠMarga":13441,"akÄħ":13442,"alizmas":13443,"IE":13444,"Ġapdaila":13445,"Lank":13446,"Ġpatvirtintas":13447,"ĠpaÅ¾eidimus":13448,"Ġplaukams":13449,"orld":13450,"ĠAnglijoje":13451,"Ġdyzel":13452,"ĠpamokÅ³":13453,"ininke":13454,"inkl":13455,"ĠÄ¯vykis":13456,"Ġklim":13457,"Ġneverta":13458,"Ġatsiskl":13459,"ĠÄ¯teis":13460,"Å«kÅ¡":13461,"Ġ2020":13462,"ĠtikÄĹjimÄħ":13463,"ĠkovÅ³":13464,"Ġklaida":13465,"insi":13466,"ĠValstijos":13467,"ĠpavyzdÅ¾iu":13468,"buv":13469,"rut":13470,"Arch":13471,"tiÅ¡kumo":13472,"istinio":13473,"Ġantrojo":13474,"ĠtapÄĻs":13475,"Ġvystymosi":13476,"ĠUSB":13477,"ĠiÅ¡leista":13478,"Ġdokumento":13479,"ĠpasitraukÄĹ":13480,"ĠantrÄħjÄ¯":13481,"aimon":13482,"ĠaukÅ³":13483,"ĠHer":13484,"2001":13485,"Ġdraugija":13486,"Ġmitolog":13487,"ĠKybartÅ³":13488,"Ġpasilik":13489,"ĠpaÄįia":13490,"Ġekrane":13491,"ĠprisijungÄĹ":13492,"onÄĻ":13493,"ĠbendruomenÄĻ":13494,"ĠTavo":13495,"iafunk":13496,"ĠapaÅ¡":13497,"Ġpavyd":13498,"ĠreiÅ¡ki":13499,"ĠpuikiÅ³":13500,"Ġapyrank":13501,"ĠLK":13502,"Ġsukak":13503,"Ġtinkamos":13504,"ĠiÅ¡vadas":13505,"icinos":13506,"lot":13507,"Ġsusitaik":13508,"ĠaplinkybiÅ³":13509,"liukÄħ":13510,"ĠkatÄĹs":13511,"Ġprekyb":13512,"irdo":13513,"juos":13514,"ĠklaipÄĹd":13515,"tinku":13516,"Ġvaistus":13517,"ĠParyÅ¾iuje":13518,"ĠdarÅ¾elio":13519,"ĠÅ¡iuolaikinÄĹs":13520,"ĠinovacijÅ³":13521,"ĠIsland":13522,"oliv":13523,"Ġmain":13524,"Ġperskaityti":13525,"ÄĹtÄĹ":13526,"Ġvykdant":13527,"ĠnedidelÄĹ":13528,"Ġpaskatino":13529,"Ġpoetas":13530,"ĠgatvÄĹse":13531,"Ġsapn":13532,"Ġplanuoti":13533,"ĠvaikystÄĹje":13534,"Ġtikino":13535,"ĠnuostoliÅ³":13536,"ĠlyderiÅ³":13537,"ĠsÄĹkmÄĹ":13538,"Ġsiela":13539,"Ġkalbas":13540,"Ġgaminamas":13541,"ĠsÄħmoningai":13542,"ĠpaÅ¾inimo":13543,"Ġseka":13544,"Ġypatinga":13545,"Ġstatusas":13546,"Ġkrimin":13547,"Pagaliau":13548,"Latv":13549,"olv":13550,"ĠvienetÅ³":13551,"ĠpranaÅ¡umÄħ":13552,"Saul":13553,"Ġsmurto":13554,"IF":13555,"Ġstraipsniai":13556,"idal":13557,"ĠFacebook":13558,"vio":13559,"Nepam":13560,"Ġmokytojo":13561,"ĠLeon":13562,"Ġpaleisti":13563,"Ġmedis":13564,"endo":13565,"ÄĹmimas":13566,"ĠRod":13567,"ĠÄ¯sigijo":13568,"tional":13569,"ytojos":13570,"Naujos":13571,"ĠlaisvÄĹ":13572,"ĠBur":13573,"********":13574,"Ġatribu":13575,"tuosius":13576,"ĠtrukmÄĹs":13577,"ĠÅ¡alims":13578,"Ġparlamentar":13579,"Ġmez":13580,"ampa":13581,"Ġfrakcijos":13582,"Å¡kais":13583,"Ġvalyti":13584,"ĠaplankÄĹ":13585,"Ġakmuo":13586,"ĠpagrÄ¯st":13587,"ĠpasiruoÅ¡ÄĻ":13588,"IUS":13589,"Ġsilik":13590,"ĠklubÄħ":13591,"ĠkyÅ¡":13592,"deÅ¡im":13593,"ĠÄĮiurli":13594,"Ġgriov":13595,"Ġrodikliai":13596,"Skr":13597,"ĠÅ«kis":13598,"ĠsankryÅ¾":13599,"Id":13600,"Ġnesutar":13601,"eviÄįiÅ³":13602,"ĠÅ¾ib":13603,"Ġkrau":13604,"ĠRasa":13605,"Ġbendruomenei":13606,"ĠpamatÄĹ":13607,"Ġobjektai":13608,"erijÄħ":13609,"ĠÄ¯jung":13610,"ĠtÅ«kstant":13611,"Ġderinti":13612,"Ġgret":13613,"Ġare":13614,"ĠNem":13615,"Ġvartojimas":13616,"Ob":13617,"esnÄĹmis":13618,"Ġdef":13619,"Ġpunkte":13620,"Ġatlyginimo":13621,"sniais":13622,"Ġsmagiai":13623,"ĠÅ¡Ä¯kart":13624,"ĠÄ¯teikÄĹ":13625,"ĠEuropa":13626,"Å¡Å³":13627,"ortÄħ":13628,"Ġtav":13629,"ĠkokybiÅ¡kÄħ":13630,"Ġautor":13631,"Ġatidarymo":13632,"Populiar":13633,"gai":13634,"ĠtakÅ³":13635,"Sti":13636,"antr":13637,"Ġlaikus":13638,"ĠdaugiabuÄįiÅ³":13639,"Ġdidina":13640,"efic":13641,"Ġserga":13642,"ĠatmosferÄħ":13643,"ĠBro":13644,"ĠÅ½mog":13645,"Ġkolekcija":13646,"Kv":13647,"Koks":13648,"tajame":13649,"Ġilgainiui":13650,"kauskas":13651,"ĠvÄĹlyv":13652,"Ġpikt":13653,"ĠÅ¾ymiÅ³":13654,"ĠvabzdÅ¾i":13655,"Remiantis":13656,"Ġmanipuli":13657,"ĠsugrÄ¯Å¾ti":13658,"Â³":13659,"esnei":13660,"Ġpaminklas":13661,"ĠMolÄĹtÅ³":13662,"ÄĹliu":13663,"ĠnatÅ«ralaus":13664,"Ġ1918":13665,"bri":13666,"Ġpavar":13667,"rika":13668,"ĠsulÄįiÅ³":13669,"Ġkeliones":13670,"enko":13671,"ĠtreÄįia":13672,"Ġsuvalg":13673,"ykime":13674,"Nuolat":13675,"Ġnebeb":13676,"Nei":13677,"Ġsiurbl":13678,"Ġvyskupas":13679,"Ġbuvimo":13680,"Ġjausti":13681,"onams":13682,"ĠraÅ¡ytojÅ³":13683,"Ġnedar":13684,"Ġstandart":13685,"nie":13686,"Ġprag":13687,"Ġplastiko":13688,"ĠsÅ«naus":13689,"ĠkaulÅ³":13690,"ĠprestiÅ¾":13691,"raÅ¡yti":13692,"................":13693,"ĠKri":13694,"uÄįius":13695,"Ġukrain":13696,"Ġmetodai":13697,"ĠiÅ¡tar":13698,"Ġgyva":13699,"Ġlaikin":13700,"uotojams":13701,"ĠmasÄĻ":13702,"Ġspaudoje":13703,"MaÅ¾i":13704,"PanevÄĹÅ¾io":13705,"ĠsocialinÄĹ":13706,"Ġvardai":13707,"1990":13708,"Ġminima":13709,"Ġmilijard":13710,"bank":13711,"ĠrÅ«Å¡i":13712,"Ġgailes":13713,"ĠXVIII":13714,"Kuri":13715,"ĠÅ¡altiniai":13716,"Ġmarat":13717,"ĠuniversitetÄħ":13718,"Ġcha":13719,"bro":13720,"ĠpripaÅ¾intas":13721,"Ġsklypas":13722,"Ġdingo":13723,"Ġsistemai":13724,"entarai":13725,"Ġpoilsiui":13726,"Ġkvapo":13727,"Ġpirmyn":13728,"Ġlankst":13729,"Ġapi":13730,"unction":13731,"aliÅ³jÅ³":13732,"Visiems":13733,"Ġpaciento":13734,"Ġskonis":13735,"ĠpraktikÄħ":13736,"DidÅ¾ioji":13737,"ĠÅłakiÅ³":13738,"ytumÄĹte":13739,"struoti":13740,"ĠkortelÄĻ":13741,"ĠMegz":13742,"ĠuniversitetÅ³":13743,"ĠsÄħlyga":13744,"ĠÅ¡iuolaikinio":13745,"ĠrÅ«pesÄįiÅ³":13746,"ukl":13747,"ĠÅ¡akos":13748,"Ġchor":13749,"Ġfinale":13750,"urgo":13751,"ĠterminÄħ":13752,"Å¾valg":13753,"Ġskri":13754,"Th":13755,"Ġkonstrukcija":13756,"amumas":13757,"iklio":13758,"Ġvilties":13759,"ĠSl":13760,"ĠganÄĹtinai":13761,"Ġakyse":13762,"Tra":13763,"Ġpagrei":13764,"Ġpadaug":13765,"Ġneatsiej":13766,"telius":13767,"inskio":13768,"ÄĹjimais":13769,"ĠdÅ¾iaugiuosi":13770,"alk":13771,"ĠVad":13772,"Ġkitai":13773,"Ġautonom":13774,"ĠnusikaltimÅ³":13775,"Juo":13776,"ĠpanaÅ¡ios":13777,"ĠmasaÅ¾as":13778,"vÄĹr":13779,"Ġpavaduotoja":13780,"ĠesanÄįiame":13781,"Ġpremjeras":13782,"Ġdokumentas":13783,"Ġtrumpas":13784,"ĠdovanÄħ":13785,"Ġkremas":13786,"Ġraus":13787,"outu":13788,"Ġsunaikinti":13789,"hop":13790,"ĠrealybÄĹs":13791,"Ġpic":13792,"ĠÅ¡iems":13793,"Atliek":13794,"teriai":13795,"ĠgeleÅ¾ies":13796,"ĠRumun":13797,"Ġmedita":13798,"obil":13799,"Jas":13800,"Vel":13801,"ĠvaÅ¾iuoja":13802,"Ġstudija":13803,"ĠAps":13804,"tiÅ¡ko":13805,"ĠkÅ«dikis":13806,"Ġstotis":13807,"Ä®monÄĹs":13808,"Ġmokslus":13809,"Ġmusulmon":13810,"ĠPi":13811,"ĠneÄ¯sivaizd":13812,"Psich":13813,"Rusijos":13814,"Ġinternetas":13815,"ĠsvarbÅ³":13816,"ĠuÅ¾siima":13817,"Ġlaisvalaik":13818,"Ġpalaipsniui":13819,"mÄĹlio":13820,"ĠfiziÅ¡kai":13821,"apj":13822,"ĠieÅ¡kote":13823,"Ti":13824,"Ġanglies":13825,"ĠoperacijÅ³":13826,"Ġatsistat":13827,"ĠpuslapiÅ³":13828,"alikÅ³":13829,"Ġgalerijoje":13830,"uokÅ¡":13831,"ĠiÅ¡naudoti":13832,"ĠMeksi":13833,"Ġpritraukti":13834,"Ġartimiausiu":13835,"Ġesama":13836,"ĠkompanijÅ³":13837,"ĠJuk":13838,"ĠpradÄĹjus":13839,"Ġsusig":13840,"Ġsantuokos":13841,"ĠtaÅ¡kÄħ":13842,"ĠnuotraukÄħ":13843,"Ġapsaugotas":13844,"ĠreiÅ¡kinys":13845,"ĠatpaÅ¾inti":13846,"Ġnauju":13847,"ĠAc":13848,"Ġautos":13849,"iejus":13850,"ĠKad":13851,"aliuose":13852,"ĠÅ¡akÅ³":13853,"ĠDovyd":13854,"Ġrasta":13855,"Ġsusirasti":13856,"81":13857,"Ġnorintys":13858,"Ġ1941":13859,"Ġbendradarbiavimas":13860,"ĠsÄĹkmÄĻ":13861,"ĠÄ¯renginys":13862,"Ġklaidas":13863,"Ġmokytojos":13864,"ĠpabaigÄħ":13865,"CD":13866,"ĠPilka":13867,"Ġaugimas":13868,"Ġkostium":13869,"Ġvertas":13870,"Ġkelerius":13871,"ĠtaÅ¡kas":13872,"Ġnuval":13873,"Ġfotoses":13874,"ĠÄ¯sipareigojimÅ³":13875,"Ġgerinti":13876,"Ġaktyvus":13877,"Ġmokytojams":13878,"ĠkarÅ¡Äįi":13879,"ĠSuomijos":13880,"evas":13881,"Ġepoch":13882,"ĠFinans":13883,"wer":13884,"Pasteb":13885,"Ġtaut":13886,"ĠjÅ«roje":13887,"Ġveiklas":13888,"Ġsienas":13889,"Ġpristatytas":13890,"Nuotrauk":13891,"Ġ1944":13892,"Ġatvira":13893,"angus":13894,"Ġjumis":13895,"ĠSo":13896,"Ġchemijos":13897,"akamp":13898,"arÅ¡":13899,"Visai":13900,"Ġgand":13901,"Ġsodas":13902,"ĠtemperatÅ«rÄħ":13903,"ĠArch":13904,"ĠÑģ":13905,"Ġ66":13906,"Ġslidin":13907,"ĠkiauÅ¡iniÅ³":13908,"uvoje":13909,"Ġprig":13910,"Ġpadengti":13911,"ĠslaptaÅ¾od":13912,"ĠasortimentÄħ":13913,"amat":13914,"uotais":13915,"avime":13916,"ĠatlikÄĹjÅ³":13917,"ĠAP":13918,"Ġlygmen":13919,"Skamb":13920,"Ġmokinius":13921,"Ġslypi":13922,"Ġpopuli":13923,"ĠiÅ¡spaus":13924,"Ġgausi":13925,"enh":13926,"ĠsÄħskaita":13927,"Ġkava":13928,"ĠkÅ«":13929,"ĠbolÅ¡ev":13930,"ĠÅ¡ukuos":13931,"Pastat":13932,"Ġkoefic":13933,"ĠsÄĹklÅ³":13934,"ĠPus":13935,"Ġdirbant":13936,"Nesvarbu":13937,"Ġhipo":13938,"ĠBMW":13939,"ĠlinijÄħ":13940,"Ġapsigyven":13941,"ĠiÅ¡met":13942,"forto":13943,"Ġatidaryti":13944,"Ġgamyklos":13945,"Ġpozicijas":13946,"Ġimig":13947,"Ġpertek":13948,"Ġtinklai":13949,"Ġmikroautobus":13950,"Ġvainik":13951,"Ġkorid":13952,"Ġsustiprinti":13953,"ĠpabrÄĹÅ¾ti":13954,"ĠÅ¡vÄĻsti":13955,"Ġby":13956,"cis":13957,"Ġult":13958,"ĠiÅ¡sidÄĹs":13959,"ĠnerimÄħ":13960,"Ġkonven":13961,"ĠkaimÄħ":13962,"Ġslenk":13963,"ĠkraÅ¡tovaizdÅ¾i":13964,"Ġtrag":13965,"Ġdarosi":13966,"ffice":13967,"ĠTen":13968,"Verslo":13969,"kiasi":13970,"ĠligoniÅ³":13971,"eivis":13972,"========":13973,"ĠatsipraÅ¡":13974,"Ġburi":13975,"ĠilgaamÅ¾i":13976,"ĠLen":13977,"ologÅ³":13978,"ĠStud":13979,"Ġokupacijos":13980,"Techn":13981,"apus":13982,"Ġpartneriais":13983,"ĠÄ¯eina":13984,"Ġatsiveria":13985,"akc":13986,"ĠlaikraÅ¡Äįio":13987,"Sug":13988,"ĠÄ¯rankis":13989,"ĠÅ¡imtai":13990,"ĠrÅ«gÅ¡ties":13991,"Ġpsichiat":13992,"Konferen":13993,"ĠlieÅ¾uv":13994,"ĠÅ¡eÅ¡iÅ³":13995,"Ġsveika":13996,"ĠÅ¡imtmeÄįio":13997,"Ġpasienio":13998,"ĠdÄĹstÄĹ":13999,"Vaizd":14000,"Ġvisapusi":14001,"ĠvariantÅ³":14002,"ugen":14003,"ĠnusikaltÄĹ":14004,"Ġtiksli":14005,"Ġkongres":14006,"Ġkelius":14007,"ĠÄĮi":14008,"Vi":14009,"Ġbuve":14010,
[...]
